<?xml version="1.0"?>
<!--
    (c) Copyright 2000-2018 CERN for the benefit of the LHCb Collaboration

    This software is distributed under the terms of the GNU General Public
    Licence version 3 (GPL Version 3), copied verbatim in the file "COPYING".

    In applying this licence, CERN does not waive the privileges and immunities
    granted to it by virtue of its status as an Intergovernmental Organization
    or submit itself to any jurisdiction.
-->
<MethodSetup Method="BDT::BDTG_BsBsb_6vars_BDTGselTCut_0.72">
  <GeneralInfo>
    <Info name="TMVA Release" value="4.2.1 [262657]"/>
    <Info name="ROOT Release" value="6.06/02 [394754]"/>
    <Info name="Creator" value="sakar"/>
    <Info name="Date" value="Thu Jun  1 14:48:33 2017"/>
    <Info name="Host" value="Linux lcgapp-slc6-physical1.cern.ch 2.6.32-573.8.1.el6.x86_64 #1 SMP Wed Nov 11 15:27:45 CET 2015 x86_64 x86_64 x86_64 GNU/Linux"/>
    <Info name="Dir" value="/afs/cern.ch/user/s/sakar/Analysis/FlavourTagging/FT-SSKdev"/>
    <Info name="Training events" value="100000"/>
    <Info name="TrainingTime" value="9.95274198e+01"/>
    <Info name="AnalysisType" value="Classification"/>
  </GeneralInfo>
  <Options>
    <Option name="V" modified="Yes">False</Option>
    <Option name="VerbosityLevel" modified="No">Default</Option>
    <Option name="VarTransform" modified="No">None</Option>
    <Option name="H" modified="Yes">False</Option>
    <Option name="CreateMVAPdfs" modified="No">False</Option>
    <Option name="IgnoreNegWeightsInTraining" modified="No">False</Option>
    <Option name="NTrees" modified="Yes">1000</Option>
    <Option name="MaxDepth" modified="Yes">2</Option>
    <Option name="MinNodeSize" modified="Yes">2.5%</Option>
    <Option name="nCuts" modified="Yes">20</Option>
    <Option name="BoostType" modified="Yes">Grad</Option>
    <Option name="AdaBoostR2Loss" modified="No">quadratic</Option>
    <Option name="UseBaggedBoost" modified="Yes">True</Option>
    <Option name="Shrinkage" modified="Yes">1.000000e-01</Option>
    <Option name="AdaBoostBeta" modified="No">5.000000e-01</Option>
    <Option name="UseRandomisedTrees" modified="No">False</Option>
    <Option name="UseNvars" modified="No">3</Option>
    <Option name="UsePoissonNvars" modified="No">True</Option>
    <Option name="BaggedSampleFraction" modified="Yes">5.000000e-01</Option>
    <Option name="UseYesNoLeaf" modified="No">True</Option>
    <Option name="NegWeightTreatment" modified="No">ignorenegweightsintraining</Option>
    <Option name="Css" modified="No">1.000000e+00</Option>
    <Option name="Cts_sb" modified="No">1.000000e+00</Option>
    <Option name="Ctb_ss" modified="No">1.000000e+00</Option>
    <Option name="Cbb" modified="No">1.000000e+00</Option>
    <Option name="NodePurityLimit" modified="No">5.000000e-01</Option>
    <Option name="SeparationType" modified="No">giniindex</Option>
    <Option name="DoBoostMonitor" modified="No">False</Option>
    <Option name="UseFisherCuts" modified="No">False</Option>
    <Option name="MinLinCorrForFisher" modified="No">8.000000e-01</Option>
    <Option name="UseExclusiveVars" modified="No">False</Option>
    <Option name="DoPreselection" modified="No">False</Option>
    <Option name="SigToBkgFraction" modified="No">1.000000e+00</Option>
    <Option name="PruneMethod" modified="No">nopruning</Option>
    <Option name="PruneStrength" modified="No">0.000000e+00</Option>
    <Option name="PruningValFraction" modified="No">5.000000e-01</Option>
    <Option name="nEventsMin" modified="No">0</Option>
    <Option name="UseBaggedGrad" modified="No">False</Option>
    <Option name="GradBaggingFraction" modified="No">5.000000e-01</Option>
    <Option name="UseNTrainEvents" modified="No">0</Option>
    <Option name="NNodesMax" modified="No">0</Option>
  </Options>
  <Variables NVar="6">
    <Variable VarIndex="0" Expression="log(B_PT)" Label="ptB" Title="log momentum of the B" Unit="GeV" Internal="ptB" Type="D" Min="5.81567383e+00" Max="1.13906908e+01"/>
    <Variable VarIndex="1" Expression="nTracks_presel_BDTGcut" Label="ntracks" Title="number of tagging tracks" Unit="" Internal="ntracks" Type="I" Min="1.00000000e+00" Max="1.10000000e+01"/>
    <Variable VarIndex="2" Expression="nPV" Label="npv" Title="number of primary vertexes" Unit="" Internal="npv" Type="I" Min="1.00000000e+00" Max="7.00000000e+00"/>
    <Variable VarIndex="3" Expression="(Tr_Charge*Tr_BDTG_selBestTracks_14vars)" Label="QxBDT_1" Title="Charge times BDT best track" Unit="" Internal="QxBDT_1" Type="F" Min="-9.90905166e-01" Max="9.91657495e-01"/>
    <Variable VarIndex="4" Expression="(Tr_Charge_2nd*Tr_BDTG_selBestTracks_14vars_2nd)" Label="QxBDT_2nd" Title="Charge times BDT 2nd best track" Unit="" Internal="QxBDT_2nd" Type="F" Min="-9.86771941e-01" Max="9.86282945e-01"/>
    <Variable VarIndex="5" Expression="(Tr_Charge_3rd*Tr_BDTG_selBestTracks_14vars_3rd)" Label="QxBDT_3rd" Title="Charge times BDT 3rd best track" Unit="" Internal="QxBDT_3rd" Type="F" Min="-9.69503164e-01" Max="9.78638589e-01"/>
  </Variables>
  <Spectators NSpec="0"/>
  <Classes NClass="2">
    <Class Name="Signal" Index="0"/>
    <Class Name="Background" Index="1"/>
  </Classes>
  <Transformations NTransformations="0"/>
  <MVAPdfs/>
  <Weights NTrees="1000" AnalysisType="1">
    <BinaryTree type="DecisionTree" boostWeight="1.0000000000000000e+00" itree="0">
      <Node pos="s" depth="0" NCoef="0" IVar="3" Cut="8.0260938405990601e-01" cType="1" res="-2.1935063414275646e-03" rms="4.9999520182609558e-01" purity="4.9780648946762085e-01" nType="0">
        <Node pos="l" depth="1" NCoef="0" IVar="3" Cut="-9.0504354238510132e-01" cType="1" res="-5.7428553700447083e-02" rms="4.9669101834297180e-01" purity="4.4257143139839172e-01" nType="0">
          <Node pos="l" depth="2" NCoef="0" IVar="-1" Cut="0.0000000000000000e+00" cType="1" res="-2.5662908330559731e-02" rms="4.7554388642311096e-01" purity="3.4553959965705872e-01" nType="-99"/>
          <Node pos="r" depth="2" NCoef="0" IVar="-1" Cut="0.0000000000000000e+00" cType="1" res="-3.9059030823409557e-03" rms="4.9927148222923279e-01" purity="4.7301855683326721e-01" nType="-99"/>
        </Node>
        <Node pos="r" depth="1" NCoef="0" IVar="3" Cut="9.4641226530075073e-01" cType="1" res="8.9304901659488678e-02" rms="4.9195998907089233e-01" purity="5.8930486440658569e-01" nType="0">
          <Node pos="l" depth="2" NCoef="0" IVar="-1" Cut="0.0000000000000000e+00" cType="1" res="9.7411395981907845e-03" rms="4.9605366587638855e-01" purity="5.6269580125808716e-01" nType="-99"/>
          <Node pos="r" depth="2" NCoef="0" IVar="-1" Cut="0.0000000000000000e+00" cType="1" res="3.9635773748159409e-02" rms="4.4119513034820557e-01" purity="7.3525911569595337e-01" nType="-99"/>
        </Node>
      </Node>
    </BinaryTree>
    <BinaryTree type="DecisionTree" boostWeight="1.0000000000000000e+00" itree="1">
      <Node pos="s" depth="0" NCoef="0" IVar="3" Cut="-7.0790970325469971e-01" cType="1" res="-8.4422637883108109e-05" rms="4.9867561459541321e-01" purity="4.9973392486572266e-01" nType="0">
        <Node pos="l" depth="1" NCoef="0" IVar="3" Cut="-9.3930685520172119e-01" cType="1" res="-6.8961024284362793e-02" rms="4.9391135573387146e-01" purity="4.2576906085014343e-01" nType="0">
          <Node pos="l" depth="2" NCoef="0" IVar="-1" Cut="0.0000000000000000e+00" cType="1" res="-3.4320242702960968e-02" rms="4.5337125658988953e-01" purity="2.8915765881538391e-01" nType="-99"/>
          <Node pos="r" depth="2" NCoef="0" IVar="-1" Cut="0.0000000000000000e+00" cType="1" res="-6.9781742058694363e-03" rms="4.9716424942016602e-01" purity="4.4906058907508850e-01" nType="-99"/>
        </Node>
        <Node pos="r" depth="1" NCoef="0" IVar="3" Cut="9.5148539543151855e-01" cType="1" res="6.6841155290603638e-02" rms="4.9414947628974915e-01" purity="5.7160371541976929e-01" nType="0">
          <Node pos="l" depth="2" NCoef="0" IVar="-1" Cut="0.0000000000000000e+00" cType="1" res="7.7954772859811783e-03" rms="4.9687176942825317e-01" purity="5.5402141809463501e-01" nType="-99"/>
          <Node pos="r" depth="2" NCoef="0" IVar="-1" Cut="0.0000000000000000e+00" cType="1" res="4.2437165975570679e-02" rms="4.3224206566810608e-01" purity="7.5133001804351807e-01" nType="-99"/>
        </Node>
      </Node>
    </BinaryTree>
    <BinaryTree type="DecisionTree" boostWeight="1.0000000000000000e+00" itree="2">
      <Node pos="s" depth="0" NCoef="0" IVar="3" Cut="-7.0753949880599976e-01" cType="1" res="-1.9455431902315468e-04" rms="4.9737098813056946e-01" purity="4.9964812397956848e-01" nType="0">
        <Node pos="l" depth="1" NCoef="0" IVar="3" Cut="-9.3912863731384277e-01" cType="1" res="-6.5694242715835571e-02" rms="4.9306228756904602e-01" purity="4.2356336116790771e-01" nType="0">
          <Node pos="l" depth="2" NCoef="0" IVar="-1" Cut="0.0000000000000000e+00" cType="1" res="-3.3044185489416122e-02" rms="4.4556528329849243e-01" purity="2.7308174967765808e-01" nType="-99"/>
          <Node pos="r" depth="2" NCoef="0" IVar="-1" Cut="0.0000000000000000e+00" cType="1" res="-6.5859952010214329e-03" rms="4.9723252654075623e-01" purity="4.4902038574218750e-01" nType="-99"/>
        </Node>
        <Node pos="r" depth="1" NCoef="0" IVar="3" Cut="9.5258980989456177e-01" cType="1" res="6.3330411911010742e-02" rms="4.9327522516250610e-01" purity="5.7343894243240356e-01" nType="0">
          <Node pos="l" depth="2" NCoef="0" IVar="-1" Cut="0.0000000000000000e+00" cType="1" res="7.2431215085089207e-03" rms="4.9669569730758667e-01" purity="5.5506074428558350e-01" nType="-99"/>
          <Node pos="r" depth="2" NCoef="0" IVar="-1" Cut="0.0000000000000000e+00" cType="1" res="4.0452286601066589e-02" rms="4.1793850064277649e-01" purity="7.7445840835571289e-01" nType="-99"/>
        </Node>
      </Node>
    </BinaryTree>
    <BinaryTree type="DecisionTree" boostWeight="1.0000000000000000e+00" itree="3">
      <Node pos="s" depth="0" NCoef="0" IVar="3" Cut="-8.0195963382720947e-01" cType="1" res="-1.4388741692528129e-03" rms="4.9649882316589355e-01" purity="4.9840566515922546e-01" nType="0">
        <Node pos="l" depth="1" NCoef="0" IVar="3" Cut="-9.4575345516204834e-01" cType="1" res="-7.8210860490798950e-02" rms="4.8915642499923706e-01" purity="4.0346473455429077e-01" nType="0">
          <Node pos="l" depth="2" NCoef="0" IVar="-1" Cut="0.0000000000000000e+00" cType="1" res="-3.0986499041318893e-02" rms="4.4713017344474792e-01" purity="2.7622643113136292e-01" nType="-99"/>
          <Node pos="r" depth="2" NCoef="0" IVar="-1" Cut="0.0000000000000000e+00" cType="1" res="-9.4843143597245216e-03" rms="4.9440458416938782e-01" purity="4.2719548940658569e-01" nType="-99"/>
        </Node>
        <Node pos="r" depth="1" NCoef="0" IVar="3" Cut="9.0558117628097534e-01" cType="1" res="4.3466702103614807e-02" rms="4.9525773525238037e-01" purity="5.5393862724304199e-01" nType="0">
          <Node pos="l" depth="2" NCoef="0" IVar="-1" Cut="0.0000000000000000e+00" cType="1" res="2.6312582194805145e-03" rms="4.9907919764518738e-01" purity="5.2294802665710449e-01" nType="-99"/>
          <Node pos="r" depth="2" NCoef="0" IVar="-1" Cut="0.0000000000000000e+00" cType="1" res="2.0886210724711418e-02" rms="4.7421088814735413e-01" purity="6.5134137868881226e-01" nType="-99"/>
        </Node>
      </Node>
    </BinaryTree>
    <BinaryTree type="DecisionTree" boostWeight="1.0000000000000000e+00" itree="4">
      <Node pos="s" depth="0" NCoef="0" IVar="3" Cut="8.0225390195846558e-01" cType="1" res="2.1109681110829115e-03" rms="4.9561217427253723e-01" purity="5.0199973583221436e-01" nType="0">
        <Node pos="l" depth="1" NCoef="0" IVar="3" Cut="-9.0505993366241455e-01" cType="1" res="-3.9766080677509308e-02" rms="4.9494144320487976e-01" purity="4.4570770859718323e-01" nType="0">
          <Node pos="l" depth="2" NCoef="0" IVar="-1" Cut="0.0000000000000000e+00" cType="1" res="-1.9082227721810341e-02" rms="4.7299805283546448e-01" purity="3.4328806400299072e-01" nType="-99"/>
          <Node pos="r" depth="2" NCoef="0" IVar="-1" Cut="0.0000000000000000e+00" cType="1" res="-2.3185103200376034e-03" rms="4.9924165010452271e-01" purity="4.7779205441474915e-01" nType="-99"/>
        </Node>
        <Node pos="r" depth="1" NCoef="0" IVar="3" Cut="9.3704211711883545e-01" cType="1" res="7.0952773094177246e-02" rms="4.8898008465766907e-01" purity="5.9453833103179932e-01" nType="0">
          <Node pos="l" depth="2" NCoef="0" IVar="-1" Cut="0.0000000000000000e+00" cType="1" res="7.5877388007938862e-03" rms="4.9554592370986938e-01" purity="5.6525492668151855e-01" nType="-99"/>
          <Node pos="r" depth="2" NCoef="0" IVar="-1" Cut="0.0000000000000000e+00" cType="1" res="2.7439238503575325e-02" rms="4.5330479741096497e-01" purity="7.0712989568710327e-01" nType="-99"/>
        </Node>
      </Node>
    </BinaryTree>
    <BinaryTree type="DecisionTree" boostWeight="1.0000000000000000e+00" itree="5">
      <Node pos="s" depth="0" NCoef="0" IVar="3" Cut="-7.0768195390701294e-01" cType="1" res="8.5600826423615217e-04" rms="4.9482625722885132e-01" purity="5.0087821483612061e-01" nType="0">
        <Node pos="l" depth="1" NCoef="0" IVar="3" Cut="-9.5220500230789185e-01" cType="1" res="-5.1004957407712936e-02" rms="4.9234405159950256e-01" purity="4.2505240440368652e-01" nType="0">
          <Node pos="l" depth="2" NCoef="0" IVar="-1" Cut="0.0000000000000000e+00" cType="1" res="-3.3751241862773895e-02" rms="4.3172594904899597e-01" purity="2.4778439104557037e-01" nType="-99"/>
          <Node pos="r" depth="2" NCoef="0" IVar="-1" Cut="0.0000000000000000e+00" cType="1" res="-5.7458840310573578e-03" rms="4.9603095650672913e-01" purity="4.4231140613555908e-01" nType="-99"/>
        </Node>
        <Node pos="r" depth="1" NCoef="0" IVar="3" Cut="9.1404652595520020e-01" cType="1" res="5.1255192607641220e-02" rms="4.9201676249504089e-01" purity="5.7456678152084351e-01" nType="0">
          <Node pos="l" depth="2" NCoef="0" IVar="-1" Cut="0.0000000000000000e+00" cType="1" res="4.0152403526008129e-03" rms="4.9810320138931274e-01" purity="5.4070395231246948e-01" nType="-99"/>
          <Node pos="r" depth="2" NCoef="0" IVar="-1" Cut="0.0000000000000000e+00" cType="1" res="2.0479345694184303e-02" rms="4.6798148751258850e-01" purity="6.6904729604721069e-01" nType="-99"/>
        </Node>
      </Node>
    </BinaryTree>
    <BinaryTree type="DecisionTree" boostWeight="1.0000000000000000e+00" itree="6">
      <Node pos="s" depth="0" NCoef="0" IVar="3" Cut="-8.0218440294265747e-01" cType="1" res="-1.3518030755221844e-04" rms="4.9431991577148438e-01" purity="4.9987855553627014e-01" nType="0">
        <Node pos="l" depth="1" NCoef="0" IVar="3" Cut="-8.9205312728881836e-01" cType="1" res="-5.9604685753583908e-02" rms="4.8876088857650757e-01" purity="4.0654519200325012e-01" nType="0">
          <Node pos="l" depth="2" NCoef="0" IVar="-1" Cut="0.0000000000000000e+00" cType="1" res="-1.5800567343831062e-02" rms="4.7614908218383789e-01" purity="3.5374969244003296e-01" nType="-99"/>
          <Node pos="r" depth="2" NCoef="0" IVar="-1" Cut="0.0000000000000000e+00" cType="1" res="-3.7522437050938606e-03" rms="4.9819076061248779e-01" purity="4.5750331878662109e-01" nType="-99"/>
        </Node>
        <Node pos="r" depth="1" NCoef="0" IVar="3" Cut="9.0529066324234009e-01" cType="1" res="3.4475374966859818e-02" rms="4.9424344301223755e-01" purity="5.5419749021530151e-01" nType="0">
          <Node pos="l" depth="2" NCoef="0" IVar="-1" Cut="0.0000000000000000e+00" cType="1" res="2.3157261312007904e-03" rms="4.9892422556877136e-01" purity="5.2395606040954590e-01" nType="-99"/>
          <Node pos="r" depth="2" NCoef="0" IVar="-1" Cut="0.0000000000000000e+00" cType="1" res="1.5439168550074100e-02" rms="4.7489529848098755e-01" purity="6.4761853218078613e-01" nType="-99"/>
        </Node>
      </Node>
    </BinaryTree>
    <BinaryTree type="DecisionTree" boostWeight="1.0000000000000000e+00" itree="7">
      <Node pos="s" depth="0" NCoef="0" IVar="3" Cut="8.9730799198150635e-01" cType="1" res="2.2862609475851059e-03" rms="4.9372607469558716e-01" purity="5.0231063365936279e-01" nType="0">
        <Node pos="l" depth="1" NCoef="0" IVar="3" Cut="-8.9982587099075317e-01" cType="1" res="-1.6413332894444466e-02" rms="4.9573308229446411e-01" purity="4.7142156958580017e-01" nType="0">
          <Node pos="l" depth="2" NCoef="0" IVar="-1" Cut="0.0000000000000000e+00" cType="1" res="-1.3906700536608696e-02" rms="4.7556677460670471e-01" purity="3.5398238897323608e-01" nType="-99"/>
          <Node pos="r" depth="2" NCoef="0" IVar="-1" Cut="0.0000000000000000e+00" cType="1" res="1.8423237634124234e-05" rms="4.9910876154899597e-01" purity="4.9994781613349915e-01" nType="-99"/>
        </Node>
        <Node pos="r" depth="1" NCoef="0" IVar="3" Cut="9.4673395156860352e-01" cType="1" res="9.2518121004104614e-02" rms="4.7366014122962952e-01" purity="6.5136086940765381e-01" nType="0">
          <Node pos="l" depth="2" NCoef="0" IVar="-1" Cut="0.0000000000000000e+00" cType="1" res="1.0793030261993408e-02" rms="4.8854765295982361e-01" purity="6.0674482583999634e-01" nType="-99"/>
          <Node pos="r" depth="2" NCoef="0" IVar="-1" Cut="0.0000000000000000e+00" cType="1" res="2.7107920497655869e-02" rms="4.3608373403549194e-01" purity="7.4359321594238281e-01" nType="-99"/>
        </Node>
      </Node>
    </BinaryTree>
    <BinaryTree type="DecisionTree" boostWeight="1.0000000000000000e+00" itree="8">
      <Node pos="s" depth="0" NCoef="0" IVar="3" Cut="8.0256366729736328e-01" cType="1" res="-5.8788312599062920e-03" rms="4.9331557750701904e-01" purity="4.9446836113929749e-01" nType="0">
        <Node pos="l" depth="1" NCoef="0" IVar="4" Cut="-7.9510217905044556e-01" cType="1" res="-3.6913875490427017e-02" rms="4.9308210611343384e-01" purity="4.3823844194412231e-01" nType="0">
          <Node pos="l" depth="2" NCoef="0" IVar="-1" Cut="0.0000000000000000e+00" cType="1" res="-1.9375123083591461e-02" rms="4.6664369106292725e-01" purity="3.2983282208442688e-01" nType="-99"/>
          <Node pos="r" depth="2" NCoef="0" IVar="-1" Cut="0.0000000000000000e+00" cType="1" res="-4.0723490528762341e-03" rms="4.9515092372894287e-01" purity="4.5073720812797546e-01" nType="-99"/>
        </Node>
        <Node pos="r" depth="1" NCoef="0" IVar="3" Cut="9.1045439243316650e-01" cType="1" res="4.5319713652133942e-02" rms="4.8941797018051147e-01" purity="5.8723086118698120e-01" nType="0">
          <Node pos="l" depth="2" NCoef="0" IVar="-1" Cut="0.0000000000000000e+00" cType="1" res="3.6501772701740265e-03" rms="4.9792042374610901e-01" purity="5.4559671878814697e-01" nType="-99"/>
          <Node pos="r" depth="2" NCoef="0" IVar="-1" Cut="0.0000000000000000e+00" cType="1" res="1.3579281046986580e-02" rms="4.7298377752304077e-01" purity="6.5546804666519165e-01" nType="-99"/>
        </Node>
      </Node>
    </BinaryTree>
    <BinaryTree type="DecisionTree" boostWeight="1.0000000000000000e+00" itree="9">
      <Node pos="s" depth="0" NCoef="0" IVar="3" Cut="-8.0208969116210938e-01" cType="1" res="-1.0095445904880762e-03" rms="4.9238133430480957e-01" purity="4.9849054217338562e-01" nType="0">
        <Node pos="l" depth="1" NCoef="0" IVar="4" Cut="7.9905068874359131e-01" cType="1" res="-5.4712507873773575e-02" rms="4.8717284202575684e-01" purity="4.0041744709014893e-01" nType="0">
          <Node pos="l" depth="2" NCoef="0" IVar="-1" Cut="0.0000000000000000e+00" cType="1" res="-1.0884207673370838e-02" rms="4.8333951830863953e-01" purity="3.8509276509284973e-01" nType="-99"/>
          <Node pos="r" depth="2" NCoef="0" IVar="-1" Cut="0.0000000000000000e+00" cType="1" res="5.7096011005342007e-04" rms="4.9503010511398315e-01" purity="4.5052257180213928e-01" nType="-99"/>
        </Node>
        <Node pos="r" depth="1" NCoef="0" IVar="3" Cut="9.0624117851257324e-01" cType="1" res="3.1091770157217979e-02" rms="4.9268114566802979e-01" purity="5.5711442232131958e-01" nType="0">
          <Node pos="l" depth="2" NCoef="0" IVar="-1" Cut="0.0000000000000000e+00" cType="1" res="2.2218225058168173e-03" rms="4.9870932102203369e-01" purity="5.2441006898880005e-01" nType="-99"/>
          <Node pos="r" depth="2" NCoef="0" IVar="-1" Cut="0.0000000000000000e+00" cType="1" res="1.3608061708509922e-02" rms="4.6987554430961609e-01" purity="6.5936040878295898e-01" nType="-99"/>
        </Node>
      </Node>
    </BinaryTree>
    <BinaryTree type="DecisionTree" boostWeight="1.0000000000000000e+00" itree="10">
      <Node pos="s" depth="0" NCoef="0" IVar="3" Cut="-8.9651209115982056e-01" cType="1" res="3.1313975341618061e-03" rms="4.9269306659698486e-01" purity="5.0256657600402832e-01" nType="0">
        <Node pos="l" depth="1" NCoef="0" IVar="3" Cut="-9.5496344566345215e-01" cType="1" res="-7.0201613008975983e-02" rms="4.7517275810241699e-01" purity="3.5477131605148315e-01" nType="0">
          <Node pos="l" depth="2" NCoef="0" IVar="-1" Cut="0.0000000000000000e+00" cType="1" res="-2.7584990486502647e-02" rms="4.2600017786026001e-01" purity="2.3894684016704559e-01" nType="-99"/>
          <Node pos="r" depth="2" NCoef="0" IVar="-1" Cut="0.0000000000000000e+00" cType="1" res="-7.2769285179674625e-03" rms="4.8692509531974792e-01" purity="3.9164525270462036e-01" nType="-99"/>
        </Node>
        <Node pos="r" depth="1" NCoef="0" IVar="3" Cut="9.0145272016525269e-01" cType="1" res="1.8310124054551125e-02" rms="4.9488669633865356e-01" purity="5.3315776586532593e-01" nType="0">
          <Node pos="l" depth="2" NCoef="0" IVar="-1" Cut="0.0000000000000000e+00" cType="1" res="9.1152894310653210e-04" rms="4.9904689192771912e-01" purity="5.0520575046539307e-01" nType="-99"/>
          <Node pos="r" depth="2" NCoef="0" IVar="-1" Cut="0.0000000000000000e+00" cType="1" res="1.2016546912491322e-02" rms="4.7371807694435120e-01" purity="6.5023422241210938e-01" nType="-99"/>
        </Node>
      </Node>
    </BinaryTree>
    <BinaryTree type="DecisionTree" boostWeight="1.0000000000000000e+00" itree="11">
      <Node pos="s" depth="0" NCoef="0" IVar="3" Cut="8.0284202098846436e-01" cType="1" res="-3.2830559648573399e-03" rms="4.9220716953277588e-01" purity="4.9678295850753784e-01" nType="0">
        <Node pos="l" depth="1" NCoef="0" IVar="3" Cut="-9.0548902750015259e-01" cType="1" res="-2.8821153566241264e-02" rms="4.9311482906341553e-01" purity="4.4064664840698242e-01" nType="0">
          <Node pos="l" depth="2" NCoef="0" IVar="-1" Cut="0.0000000000000000e+00" cType="1" res="-1.1955134570598602e-02" rms="4.7216421365737915e-01" purity="3.4395015239715576e-01" nType="-99"/>
          <Node pos="r" depth="2" NCoef="0" IVar="-1" Cut="0.0000000000000000e+00" cType="1" res="-2.3015222977846861e-03" rms="4.9874883890151978e-01" purity="4.7081422805786133e-01" nType="-99"/>
        </Node>
        <Node pos="r" depth="1" NCoef="0" IVar="3" Cut="9.5569300651550293e-01" cType="1" res="3.9709657430648804e-02" rms="4.8766374588012695e-01" purity="5.9128695726394653e-01" nType="0">
          <Node pos="l" depth="2" NCoef="0" IVar="-1" Cut="0.0000000000000000e+00" cType="1" res="4.4936304911971092e-03" rms="4.9339139461517334e-01" purity="5.7137817144393921e-01" nType="-99"/>
          <Node pos="r" depth="2" NCoef="0" IVar="-1" Cut="0.0000000000000000e+00" cType="1" res="2.8904864564538002e-02" rms="4.1823434829711914e-01" purity="7.7400738000869751e-01" nType="-99"/>
        </Node>
      </Node>
    </BinaryTree>
    <BinaryTree type="DecisionTree" boostWeight="1.0000000000000000e+00" itree="12">
      <Node pos="s" depth="0" NCoef="0" IVar="3" Cut="-8.9629036188125610e-01" cType="1" res="-3.4102664794772863e-03" rms="4.9220192432403564e-01" purity="4.9641376733779907e-01" nType="0">
        <Node pos="l" depth="1" NCoef="0" IVar="4" Cut="7.9697364568710327e-01" cType="1" res="-6.7248724400997162e-02" rms="4.7304165363311768e-01" purity="3.4785529971122742e-01" nType="0">
          <Node pos="l" depth="2" NCoef="0" IVar="-1" Cut="0.0000000000000000e+00" cType="1" res="-1.6377946361899376e-02" rms="4.6281841397285461e-01" purity="3.1840759515762329e-01" nType="-99"/>
          <Node pos="r" depth="2" NCoef="0" IVar="-1" Cut="0.0000000000000000e+00" cType="1" res="-1.2251022271811962e-03" rms="4.8905989527702332e-01" purity="4.1141703724861145e-01" nType="-99"/>
        </Node>
        <Node pos="r" depth="1" NCoef="0" IVar="3" Cut="8.1185680627822876e-01" cType="1" res="9.7254086285829544e-03" rms="4.9503242969512939e-01" purity="5.2698177099227905e-01" nType="0">
          <Node pos="l" depth="2" NCoef="0" IVar="-1" Cut="0.0000000000000000e+00" cType="1" res="-1.4667739160358906e-03" rms="4.9906724691390991e-01" purity="4.7801229357719421e-01" nType="-99"/>
          <Node pos="r" depth="2" NCoef="0" IVar="-1" Cut="0.0000000000000000e+00" cType="1" res="5.8592250570654869e-03" rms="4.8836210370063782e-01" purity="5.9210175275802612e-01" nType="-99"/>
        </Node>
      </Node>
    </BinaryTree>
    <BinaryTree type="DecisionTree" boostWeight="1.0000000000000000e+00" itree="13">
      <Node pos="s" depth="0" NCoef="0" IVar="3" Cut="-7.0778089761734009e-01" cType="1" res="-4.9925567582249641e-03" rms="4.9193429946899414e-01" purity="4.9445202946662903e-01" nType="0">
        <Node pos="l" depth="1" NCoef="0" IVar="3" Cut="-9.3913030624389648e-01" cType="1" res="-3.2670523971319199e-02" rms="4.9026703834533691e-01" purity="4.2113041877746582e-01" nType="0">
          <Node pos="l" depth="2" NCoef="0" IVar="-1" Cut="0.0000000000000000e+00" cType="1" res="-1.6012394800782204e-02" rms="4.5166403055191040e-01" purity="2.8799912333488464e-01" nType="-99"/>
          <Node pos="r" depth="2" NCoef="0" IVar="-1" Cut="0.0000000000000000e+00" cType="1" res="-3.3799419179558754e-03" rms="4.9592700600624084e-01" purity="4.4406440854072571e-01" nType="-99"/>
        </Node>
        <Node pos="r" depth="1" NCoef="0" IVar="4" Cut="7.9611778259277344e-01" cType="1" res="2.2190557792782784e-02" rms="4.9205318093299866e-01" purity="5.6646269559860229e-01" nType="0">
          <Node pos="l" depth="2" NCoef="0" IVar="-1" Cut="0.0000000000000000e+00" cType="1" res="1.9053203286603093e-03" rms="4.9424532055854797e-01" purity="5.5292761325836182e-01" nType="-99"/>
          <Node pos="r" depth="2" NCoef="0" IVar="-1" Cut="0.0000000000000000e+00" cType="1" res="1.4348948374390602e-02" rms="4.7259840369224548e-01" purity="6.5403425693511963e-01" nType="-99"/>
        </Node>
      </Node>
    </BinaryTree>
    <BinaryTree type="DecisionTree" boostWeight="1.0000000000000000e+00" itree="14">
      <Node pos="s" depth="0" NCoef="0" IVar="3" Cut="8.0139946937561035e-01" cType="1" res="-2.1533104591071606e-03" rms="4.9130362272262573e-01" purity="4.9716016650199890e-01" nType="0">
        <Node pos="l" depth="1" NCoef="0" IVar="0" Cut="8.5731210708618164e+00" cType="1" res="-2.3622365668416023e-02" rms="4.9253123998641968e-01" purity="4.3940037488937378e-01" nType="0">
          <Node pos="l" depth="2" NCoef="0" IVar="-1" Cut="0.0000000000000000e+00" cType="1" res="1.4095983933657408e-03" rms="4.9851769208908081e-01" purity="4.8761910200119019e-01" nType="-99"/>
          <Node pos="r" depth="2" NCoef="0" IVar="-1" Cut="0.0000000000000000e+00" cType="1" res="-5.5478452704846859e-03" rms="4.9069628119468689e-01" purity="4.2808094620704651e-01" nType="-99"/>
        </Node>
        <Node pos="r" depth="1" NCoef="0" IVar="3" Cut="9.4515109062194824e-01" cType="1" res="3.3353246748447418e-02" rms="4.8719477653503418e-01" purity="5.9268605709075928e-01" nType="0">
          <Node pos="l" depth="2" NCoef="0" IVar="-1" Cut="0.0000000000000000e+00" cType="1" res="3.1948678661137819e-03" rms="4.9497246742248535e-01" purity="5.6515967845916748e-01" nType="-99"/>
          <Node pos="r" depth="2" NCoef="0" IVar="-1" Cut="0.0000000000000000e+00" cType="1" res="1.9382707774639130e-02" rms="4.3602550029754639e-01" purity="7.4223172664642334e-01" nType="-99"/>
        </Node>
      </Node>
    </BinaryTree>
    <BinaryTree type="DecisionTree" boostWeight="1.0000000000000000e+00" itree="15">
      <Node pos="s" depth="0" NCoef="0" IVar="3" Cut="-8.0110543966293335e-01" cType="1" res="2.1039680577814579e-03" rms="4.9122849106788635e-01" purity="5.0071108341217041e-01" nType="0">
        <Node pos="l" depth="1" NCoef="0" IVar="3" Cut="-9.6286255121231079e-01" cType="1" res="-3.1469989567995071e-02" rms="4.8755404353141785e-01" purity="4.0622249245643616e-01" nType="0">
          <Node pos="l" depth="2" NCoef="0" IVar="-1" Cut="0.0000000000000000e+00" cType="1" res="-2.0432278513908386e-02" rms="4.2978483438491821e-01" purity="2.4565242230892181e-01" nType="-99"/>
          <Node pos="r" depth="2" NCoef="0" IVar="-1" Cut="0.0000000000000000e+00" cType="1" res="-4.0116156451404095e-03" rms="4.9114745855331421e-01" purity="4.1851109266281128e-01" nType="-99"/>
        </Node>
        <Node pos="r" depth="1" NCoef="0" IVar="4" Cut="7.9577982425689697e-01" cType="1" res="2.1895395591855049e-02" rms="4.9231019616127014e-01" purity="5.5641096830368042e-01" nType="0">
          <Node pos="l" depth="2" NCoef="0" IVar="-1" Cut="0.0000000000000000e+00" cType="1" res="2.3202598094940186e-03" rms="4.9429506063461304e-01" purity="5.4474681615829468e-01" nType="-99"/>
          <Node pos="r" depth="2" NCoef="0" IVar="-1" Cut="0.0000000000000000e+00" cType="1" res="1.2881236150860786e-02" rms="4.7172334790229797e-01" purity="6.5443372726440430e-01" nType="-99"/>
        </Node>
      </Node>
    </BinaryTree>
    <BinaryTree type="DecisionTree" boostWeight="1.0000000000000000e+00" itree="16">
      <Node pos="s" depth="0" NCoef="0" IVar="3" Cut="-7.0768195390701294e-01" cType="1" res="-8.8742311345413327e-04" rms="4.9070540070533752e-01" purity="4.9817335605621338e-01" nType="0">
        <Node pos="l" depth="1" NCoef="0" IVar="3" Cut="-9.5220595598220825e-01" cType="1" res="-2.6688460260629654e-02" rms="4.9008911848068237e-01" purity="4.2132446169853210e-01" nType="0">
          <Node pos="l" depth="2" NCoef="0" IVar="-1" Cut="0.0000000000000000e+00" cType="1" res="-1.8271034583449364e-02" rms="4.3634766340255737e-01" purity="2.5763717293739319e-01" nType="-99"/>
          <Node pos="r" depth="2" NCoef="0" IVar="-1" Cut="0.0000000000000000e+00" cType="1" res="-3.0217305757105350e-03" rms="4.9454441666603088e-01" purity="4.3744370341300964e-01" nType="-99"/>
        </Node>
        <Node pos="r" depth="1" NCoef="0" IVar="3" Cut="9.2698413133621216e-01" cType="1" res="2.4655254557728767e-02" rms="4.8997828364372253e-01" purity="5.7425266504287720e-01" nType="0">
          <Node pos="l" depth="2" NCoef="0" IVar="-1" Cut="0.0000000000000000e+00" cType="1" res="1.6935272142291069e-03" rms="4.9747648835182190e-01" purity="5.4264163970947266e-01" nType="-99"/>
          <Node pos="r" depth="2" NCoef="0" IVar="-1" Cut="0.0000000000000000e+00" cType="1" res="1.4368928968906403e-02" rms="4.5505270361900330e-01" purity="7.0043194293975830e-01" nType="-99"/>
        </Node>
      </Node>
    </BinaryTree>
    <BinaryTree type="DecisionTree" boostWeight="1.0000000000000000e+00" itree="17">
      <Node pos="s" depth="0" NCoef="0" IVar="3" Cut="8.9660543203353882e-01" cType="1" res="-1.4805308310315013e-03" rms="4.9094167351722717e-01" purity="4.9784496426582336e-01" nType="0">
        <Node pos="l" depth="1" NCoef="0" IVar="4" Cut="-7.0241034030914307e-01" cType="1" res="-1.0770655237138271e-02" rms="4.9385035037994385e-01" purity="4.6650603413581848e-01" nType="0">
          <Node pos="l" depth="2" NCoef="0" IVar="-1" Cut="0.0000000000000000e+00" cType="1" res="-6.8843360058963299e-03" rms="4.8691704869270325e-01" purity="4.2469021677970886e-01" nType="-99"/>
          <Node pos="r" depth="2" NCoef="0" IVar="-1" Cut="0.0000000000000000e+00" cType="1" res="3.9147409552242607e-05" rms="4.9551308155059814e-01" purity="4.7973445057868958e-01" nType="-99"/>
        </Node>
        <Node pos="r" depth="1" NCoef="0" IVar="4" Cut="-7.9653900861740112e-01" cType="1" res="4.2545381933450699e-02" rms="4.7444891929626465e-01" purity="6.4636015892028809e-01" nType="0">
          <Node pos="l" depth="2" NCoef="0" IVar="-1" Cut="0.0000000000000000e+00" cType="1" res="-1.3768784701824188e-03" rms="4.8658040165901184e-01" purity="5.9636127948760986e-01" nType="-99"/>
          <Node pos="r" depth="2" NCoef="0" IVar="-1" Cut="0.0000000000000000e+00" cType="1" res="1.1905214749276638e-02" rms="4.6658098697662354e-01" purity="6.7031061649322510e-01" nType="-99"/>
        </Node>
      </Node>
    </BinaryTree>
    <BinaryTree type="DecisionTree" boostWeight="1.0000000000000000e+00" itree="18">
      <Node pos="s" depth="0" NCoef="0" IVar="3" Cut="8.0205845832824707e-01" cType="1" res="4.4025201350450516e-04" rms="4.9070498347282410e-01" purity="5.0003153085708618e-01" nType="0">
        <Node pos="l" depth="1" NCoef="0" IVar="4" Cut="-7.9645752906799316e-01" cType="1" res="-1.7143210396170616e-02" rms="4.9237734079360962e-01" purity="4.4118392467498779e-01" nType="0">
          <Node pos="l" depth="2" NCoef="0" IVar="-1" Cut="0.0000000000000000e+00" cType="1" res="-1.1151212267577648e-02" rms="4.6981188654899597e-01" purity="3.4170928597450256e-01" nType="-99"/>
          <Node pos="r" depth="2" NCoef="0" IVar="-1" Cut="0.0000000000000000e+00" cType="1" res="-1.7068175366148353e-03" rms="4.9453094601631165e-01" purity="4.5238146185874939e-01" nType="-99"/>
        </Node>
        <Node pos="r" depth="1" NCoef="0" IVar="4" Cut="-7.0585477352142334e-01" cType="1" res="2.9206588864326477e-02" rms="4.8658853769302368e-01" purity="5.9630560874938965e-01" nType="0">
          <Node pos="l" depth="2" NCoef="0" IVar="-1" Cut="0.0000000000000000e+00" cType="1" res="-9.4506313325837255e-04" rms="4.9294915795326233e-01" purity="5.6244468688964844e-01" nType="-99"/>
          <Node pos="r" depth="2" NCoef="0" IVar="-1" Cut="0.0000000000000000e+00" cType="1" res="7.9321768134832382e-03" rms="4.8179006576538086e-01" purity="6.1554586887359619e-01" nType="-99"/>
        </Node>
      </Node>
    </BinaryTree>
    <BinaryTree type="DecisionTree" boostWeight="1.0000000000000000e+00" itree="19">
      <Node pos="s" depth="0" NCoef="0" IVar="4" Cut="-7.0241034030914307e-01" cType="1" res="-2.4924194440245628e-03" rms="4.9066641926765442e-01" purity="4.9666681885719299e-01" nType="0">
        <Node pos="l" depth="1" NCoef="0" IVar="4" Cut="-8.8334470987319946e-01" cType="1" res="-3.3939532935619354e-02" rms="4.8764637112617493e-01" purity="4.6730345487594604e-01" nType="0">
          <Node pos="l" depth="2" NCoef="0" IVar="-1" Cut="0.0000000000000000e+00" cType="1" res="-1.5861278399825096e-02" rms="4.7375491261482239e-01" purity="4.2888629436492920e-01" nType="-99"/>
          <Node pos="r" depth="2" NCoef="0" IVar="-1" Cut="0.0000000000000000e+00" cType="1" res="-3.5982204135507345e-03" rms="4.8962196707725525e-01" purity="4.7481566667556763e-01" nType="-99"/>
        </Node>
        <Node pos="r" depth="1" NCoef="0" IVar="3" Cut="8.0150306224822998e-01" cType="1" res="9.3068573623895645e-03" rms="4.9127572774887085e-01" purity="5.0768423080444336e-01" nType="0">
          <Node pos="l" depth="2" NCoef="0" IVar="-1" Cut="0.0000000000000000e+00" cType="1" res="-8.5568090435117483e-04" rms="4.9458459019660950e-01" purity="4.5677366852760315e-01" nType="-99"/>
          <Node pos="r" depth="2" NCoef="0" IVar="-1" Cut="0.0000000000000000e+00" cType="1" res="6.4414222724735737e-03" rms="4.8315134644508362e-01" purity="6.0997599363327026e-01" nType="-99"/>
        </Node>
      </Node>
    </BinaryTree>
    <BinaryTree type="DecisionTree" boostWeight="1.0000000000000000e+00" itree="20">
      <Node pos="s" depth="0" NCoef="0" IVar="3" Cut="8.0256366729736328e-01" cType="1" res="-1.4027589932084084e-03" rms="4.9052846431732178e-01" purity="4.9835681915283203e-01" nType="0">
        <Node pos="l" depth="1" NCoef="0" IVar="0" Cut="9.5625505447387695e+00" cType="1" res="-1.6449823975563049e-02" rms="4.9217072129249573e-01" purity="4.3959587812423706e-01" nType="0">
          <Node pos="l" depth="2" NCoef="0" IVar="-1" Cut="0.0000000000000000e+00" cType="1" res="-1.4422426465898752e-03" rms="4.9379634857177734e-01" purity="4.4765076041221619e-01" nType="-99"/>
          <Node pos="r" depth="2" NCoef="0" IVar="-1" Cut="0.0000000000000000e+00" cType="1" res="-1.5347413718700409e-02" rms="4.7950506210327148e-01" purity="3.8766521215438843e-01" nType="-99"/>
        </Node>
        <Node pos="r" depth="1" NCoef="0" IVar="4" Cut="-7.9656648635864258e-01" cType="1" res="2.3256298154592514e-02" rms="4.8682054877281189e-01" purity="5.9465390443801880e-01" nType="0">
          <Node pos="l" depth="2" NCoef="0" IVar="-1" Cut="0.0000000000000000e+00" cType="1" res="-4.1856048628687859e-03" rms="4.9464425444602966e-01" purity="5.4678648710250854e-01" nType="-99"/>
          <Node pos="r" depth="2" NCoef="0" IVar="-1" Cut="0.0000000000000000e+00" cType="1" res="6.3564502634108067e-03" rms="4.8331740498542786e-01" purity="6.0962796211242676e-01" nType="-99"/>
        </Node>
      </Node>
    </BinaryTree>
    <BinaryTree type="DecisionTree" boostWeight="1.0000000000000000e+00" itree="21">
      <Node pos="s" depth="0" NCoef="0" IVar="3" Cut="-8.9639204740524292e-01" cType="1" res="4.8756750766187906e-04" rms="4.8952025175094604e-01" purity="4.9945729970932007e-01" nType="0">
        <Node pos="l" depth="1" NCoef="0" IVar="4" Cut="7.9902935028076172e-01" cType="1" res="-4.7278631478548050e-02" rms="4.7054380178451538e-01" purity="3.4322372078895569e-01" nType="0">
          <Node pos="l" depth="2" NCoef="0" IVar="-1" Cut="0.0000000000000000e+00" cType="1" res="-1.2186996638774872e-02" rms="4.6164301037788391e-01" purity="3.1750631332397461e-01" nType="-99"/>
          <Node pos="r" depth="2" NCoef="0" IVar="-1" Cut="0.0000000000000000e+00" cType="1" res="-3.7422429886646569e-04" rms="4.8605880141258240e-01" purity="3.9847478270530701e-01" nType="-99"/>
        </Node>
        <Node pos="r" depth="1" NCoef="0" IVar="3" Cut="8.9971596002578735e-01" cType="1" res="1.0308493860065937e-02" rms="4.9275791645050049e-01" purity="5.3157955408096313e-01" nType="0">
          <Node pos="l" depth="2" NCoef="0" IVar="-1" Cut="0.0000000000000000e+00" cType="1" res="1.0168719745706767e-04" rms="4.9826127290725708e-01" purity="4.9848330020904541e-01" nType="-99"/>
          <Node pos="r" depth="2" NCoef="0" IVar="-1" Cut="0.0000000000000000e+00" cType="1" res="8.5214516147971153e-03" rms="4.6873146295547485e-01" purity="6.6097462177276611e-01" nType="-99"/>
        </Node>
      </Node>
    </BinaryTree>
    <BinaryTree type="DecisionTree" boostWeight="1.0000000000000000e+00" itree="22">
      <Node pos="s" depth="0" NCoef="0" IVar="3" Cut="-8.0172199010848999e-01" cType="1" res="-1.5600263141095638e-03" rms="4.8985034227371216e-01" purity="4.9715101718902588e-01" nType="0">
        <Node pos="l" depth="1" NCoef="0" IVar="3" Cut="-9.3651443719863892e-01" cType="1" res="-2.9135294258594513e-02" rms="4.8488023877143860e-01" purity="3.9669489860534668e-01" nType="0">
          <Node pos="l" depth="2" NCoef="0" IVar="-1" Cut="0.0000000000000000e+00" cType="1" res="-1.3163919560611248e-02" rms="4.4669902324676514e-01" purity="2.8015211224555969e-01" nType="-99"/>
          <Node pos="r" depth="2" NCoef="0" IVar="-1" Cut="0.0000000000000000e+00" cType="1" res="-2.7002959977835417e-03" rms="4.9398288130760193e-01" purity="4.2805987596511841e-01" nType="-99"/>
        </Node>
        <Node pos="r" depth="1" NCoef="0" IVar="4" Cut="-7.0531642436981201e-01" cType="1" res="1.4552271924912930e-02" rms="4.9201637506484985e-01" purity="5.5584782361984253e-01" nType="0">
          <Node pos="l" depth="2" NCoef="0" IVar="-1" Cut="0.0000000000000000e+00" cType="1" res="-1.5986012294888496e-03" rms="4.9471351504325867e-01" purity="5.4135549068450928e-01" nType="-99"/>
          <Node pos="r" depth="2" NCoef="0" IVar="-1" Cut="0.0000000000000000e+00" cType="1" res="3.5347575321793556e-03" rms="4.9075269699096680e-01" purity="5.6100338697433472e-01" nType="-99"/>
        </Node>
      </Node>
    </BinaryTree>
    <BinaryTree type="DecisionTree" boostWeight="1.0000000000000000e+00" itree="23">
      <Node pos="s" depth="0" NCoef="0" IVar="4" Cut="-7.0490694046020508e-01" cType="1" res="-1.7497597727924585e-03" rms="4.9097210168838501e-01" purity="4.9729162454605103e-01" nType="0">
        <Node pos="l" depth="1" NCoef="0" IVar="4" Cut="-8.3433270454406738e-01" cType="1" res="-2.6529448106884956e-02" rms="4.8918199539184570e-01" purity="4.7085449099540710e-01" nType="0">
          <Node pos="l" depth="2" NCoef="0" IVar="-1" Cut="0.0000000000000000e+00" cType="1" res="-7.8742476180195808e-03" rms="4.8240774869918823e-01" purity="4.5447638630867004e-01" nType="-99"/>
          <Node pos="r" depth="2" NCoef="0" IVar="-1" Cut="0.0000000000000000e+00" cType="1" res="-2.2821887396275997e-03" rms="4.9281936883926392e-01" purity="4.8063561320304871e-01" nType="-99"/>
        </Node>
        <Node pos="r" depth="1" NCoef="0" IVar="3" Cut="8.9695680141448975e-01" cType="1" res="7.4039469473063946e-03" rms="4.9131572246551514e-01" purity="5.0705760717391968e-01" nType="0">
          <Node pos="l" depth="2" NCoef="0" IVar="-1" Cut="0.0000000000000000e+00" cType="1" res="1.9334412354510278e-04" rms="4.9496954679489136e-01" purity="4.8066461086273193e-01" nType="-99"/>
          <Node pos="r" depth="2" NCoef="0" IVar="-1" Cut="0.0000000000000000e+00" cType="1" res="8.1481058150529861e-03" rms="4.6638387441635132e-01" purity="6.6980129480361938e-01" nType="-99"/>
        </Node>
      </Node>
    </BinaryTree>
    <BinaryTree type="DecisionTree" boostWeight="1.0000000000000000e+00" itree="24">
      <Node pos="s" depth="0" NCoef="0" IVar="3" Cut="-8.9636623859405518e-01" cType="1" res="1.0494438465684652e-03" rms="4.9047061800956726e-01" purity="4.9926775693893433e-01" nType="0">
        <Node pos="l" depth="1" NCoef="0" IVar="3" Cut="-9.5924913883209229e-01" cType="1" res="-3.2257337123155594e-02" rms="4.7315582633018494e-01" purity="3.5086184740066528e-01" nType="0">
          <Node pos="l" depth="2" NCoef="0" IVar="-1" Cut="0.0000000000000000e+00" cType="1" res="-1.7014693468809128e-02" rms="4.2381235957145691e-01" purity="2.3717641830444336e-01" nType="-99"/>
          <Node pos="r" depth="2" NCoef="0" IVar="-1" Cut="0.0000000000000000e+00" cType="1" res="-3.2446496188640594e-03" rms="4.8274624347686768e-01" purity="3.7657347321510315e-01" nType="-99"/>
        </Node>
        <Node pos="r" depth="1" NCoef="0" IVar="4" Cut="-7.0246523618698120e-01" cType="1" res="7.9352166503667831e-03" rms="4.9369433522224426e-01" purity="5.2994889020919800e-01" nType="0">
          <Node pos="l" depth="2" NCoef="0" IVar="-1" Cut="0.0000000000000000e+00" cType="1" res="-2.0915414206683636e-03" rms="4.9343836307525635e-01" purity="5.1146411895751953e-01" nType="-99"/>
          <Node pos="r" depth="2" NCoef="0" IVar="-1" Cut="0.0000000000000000e+00" cType="1" res="2.3799247574061155e-03" rms="4.9355584383010864e-01" purity="5.3649920225143433e-01" nType="-99"/>
        </Node>
      </Node>
    </BinaryTree>
    <BinaryTree type="DecisionTree" boostWeight="1.0000000000000000e+00" itree="25">
      <Node pos="s" depth="0" NCoef="0" IVar="3" Cut="-8.9604014158248901e-01" cType="1" res="9.2212838353589177e-04" rms="4.9015498161315918e-01" purity="4.9945116043090820e-01" nType="0">
        <Node pos="l" depth="1" NCoef="0" IVar="4" Cut="4.8711817711591721e-02" cType="1" res="-3.1653948128223419e-02" rms="4.7206175327301025e-01" purity="3.4890398383140564e-01" nType="0">
          <Node pos="l" depth="2" NCoef="0" IVar="-1" Cut="0.0000000000000000e+00" cType="1" res="-9.6068177372217178e-03" rms="4.6183130145072937e-01" purity="3.1703016161918640e-01" nType="-99"/>
          <Node pos="r" depth="2" NCoef="0" IVar="-1" Cut="0.0000000000000000e+00" cType="1" res="2.4217528698500246e-04" rms="4.8439431190490723e-01" purity="3.9447587728500366e-01" nType="-99"/>
        </Node>
        <Node pos="r" depth="1" NCoef="0" IVar="4" Cut="-7.9766315221786499e-01" cType="1" res="7.6088798232376575e-03" rms="4.9352097511291504e-01" purity="5.3035330772399902e-01" nType="0">
          <Node pos="l" depth="2" NCoef="0" IVar="-1" Cut="0.0000000000000000e+00" cType="1" res="-3.4516637679189444e-03" rms="4.9355506896972656e-01" purity="5.1963025331497192e-01" nType="-99"/>
          <Node pos="r" depth="2" NCoef="0" IVar="-1" Cut="0.0000000000000000e+00" cType="1" res="1.8254335736855865e-03" rms="4.9336278438568115e-01" purity="5.3202182054519653e-01" nType="-99"/>
        </Node>
      </Node>
    </BinaryTree>
    <BinaryTree type="DecisionTree" boostWeight="1.0000000000000000e+00" itree="26">
      <Node pos="s" depth="0" NCoef="0" IVar="3" Cut="8.0222886800765991e-01" cType="1" res="3.1099147163331509e-03" rms="4.9010664224624634e-01" purity="5.0216650962829590e-01" nType="0">
        <Node pos="l" depth="1" NCoef="0" IVar="4" Cut="7.9588830471038818e-01" cType="1" res="-7.2212545201182365e-03" rms="4.9217528104782104e-01" purity="4.4486370682716370e-01" nType="0">
          <Node pos="l" depth="2" NCoef="0" IVar="-1" Cut="0.0000000000000000e+00" cType="1" res="-1.9850628450512886e-03" rms="4.9168023467063904e-01" purity="4.4371089339256287e-01" nType="-99"/>
          <Node pos="r" depth="2" NCoef="0" IVar="-1" Cut="0.0000000000000000e+00" cType="1" res="4.7485814429819584e-03" rms="4.9362683296203613e-01" purity="4.5187386870384216e-01" nType="-99"/>
        </Node>
        <Node pos="r" depth="1" NCoef="0" IVar="5" Cut="-6.9462251663208008e-01" cType="1" res="2.0214799791574478e-02" rms="4.8617997765541077e-01" purity="5.9704041481018066e-01" nType="0">
          <Node pos="l" depth="2" NCoef="0" IVar="-1" Cut="0.0000000000000000e+00" cType="1" res="-3.4627292770892382e-03" rms="4.9323680996894836e-01" purity="5.6327503919601440e-01" nType="-99"/>
          <Node pos="r" depth="2" NCoef="0" IVar="-1" Cut="0.0000000000000000e+00" cType="1" res="4.5724920928478241e-03" rms="4.8434355854988098e-01" purity="6.0376167297363281e-01" nType="-99"/>
        </Node>
      </Node>
    </BinaryTree>
    <BinaryTree type="DecisionTree" boostWeight="1.0000000000000000e+00" itree="27">
      <Node pos="s" depth="0" NCoef="0" IVar="3" Cut="-8.9649742841720581e-01" cType="1" res="-5.0868419930338860e-04" rms="4.8966845870018005e-01" purity="4.9842768907546997e-01" nType="0">
        <Node pos="l" depth="1" NCoef="0" IVar="4" Cut="5.0121523439884186e-02" cType="1" res="-3.1994957476854324e-02" rms="4.7062540054321289e-01" purity="3.4530994296073914e-01" nType="0">
          <Node pos="l" depth="2" NCoef="0" IVar="-1" Cut="0.0000000000000000e+00" cType="1" res="-9.4653405249118805e-03" rms="4.6039065718650818e-01" purity="3.1191691756248474e-01" nType="-99"/>
          <Node pos="r" depth="2" NCoef="0" IVar="-1" Cut="0.0000000000000000e+00" cType="1" res="-3.6149672814644873e-04" rms="4.8268711566925049e-01" purity="3.9102265238761902e-01" nType="-99"/>
        </Node>
        <Node pos="r" depth="1" NCoef="0" IVar="4" Cut="4.3257579207420349e-02" cType="1" res="5.9799118898808956e-03" rms="4.9325177073478699e-01" purity="5.2998179197311401e-01" nType="0">
          <Node pos="l" depth="2" NCoef="0" IVar="-1" Cut="0.0000000000000000e+00" cType="1" res="-1.3914454029873013e-04" rms="4.9495497345924377e-01" purity="5.1762902736663818e-01" nType="-99"/>
          <Node pos="r" depth="2" NCoef="0" IVar="-1" Cut="0.0000000000000000e+00" cType="1" res="4.0866625495254993e-03" rms="4.8768690228462219e-01" purity="5.6606084108352661e-01" nType="-99"/>
        </Node>
      </Node>
    </BinaryTree>
    <BinaryTree type="DecisionTree" boostWeight="1.0000000000000000e+00" itree="28">
      <Node pos="s" depth="0" NCoef="0" IVar="4" Cut="-7.9909282922744751e-01" cType="1" res="3.2317789737135172e-03" rms="4.9018505215644836e-01" purity="5.0182825326919556e-01" nType="0">
        <Node pos="l" depth="1" NCoef="0" IVar="5" Cut="7.8082710504531860e-01" cType="1" res="-2.5694346055388451e-02" rms="4.8391398787498474e-01" purity="4.6330919861793518e-01" nType="0">
          <Node pos="l" depth="2" NCoef="0" IVar="-1" Cut="0.0000000000000000e+00" cType="1" res="-5.5927596986293793e-03" rms="4.8351413011550903e-01" purity="4.5665469765663147e-01" nType="-99"/>
          <Node pos="r" depth="2" NCoef="0" IVar="-1" Cut="0.0000000000000000e+00" cType="1" res="3.4277644590474665e-04" rms="4.8430100083351135e-01" purity="4.8683497309684753e-01" nType="-99"/>
        </Node>
        <Node pos="r" depth="1" NCoef="0" IVar="3" Cut="8.9514333009719849e-01" cType="1" res="8.3141494542360306e-03" rms="4.9110266566276550e-01" purity="5.0859618186950684e-01" nType="0">
          <Node pos="l" depth="2" NCoef="0" IVar="-1" Cut="0.0000000000000000e+00" cType="1" res="4.2069275514222682e-04" rms="4.9489989876747131e-01" purity="4.8210808634757996e-01" nType="-99"/>
          <Node pos="r" depth="2" NCoef="0" IVar="-1" Cut="0.0000000000000000e+00" cType="1" res="7.7974204905331135e-03" rms="4.6596962213516235e-01" purity="6.6937369108200073e-01" nType="-99"/>
        </Node>
      </Node>
    </BinaryTree>
    <BinaryTree type="DecisionTree" boostWeight="1.0000000000000000e+00" itree="29">
      <Node pos="s" depth="0" NCoef="0" IVar="4" Cut="-7.0490694046020508e-01" cType="1" res="-6.5242376876994967e-04" rms="4.9016541242599487e-01" purity="4.9859991669654846e-01" nType="0">
        <Node pos="l" depth="1" NCoef="0" IVar="3" Cut="-7.0737046003341675e-01" cType="1" res="-1.9592117518186569e-02" rms="4.8738291859626770e-01" purity="4.7052219510078430e-01" nType="0">
          <Node pos="l" depth="2" NCoef="0" IVar="-1" Cut="0.0000000000000000e+00" cType="1" res="-5.6013762950897217e-03" rms="4.7857323288917542e-01" purity="3.7063655257225037e-01" nType="-99"/>
          <Node pos="r" depth="2" NCoef="0" IVar="-1" Cut="0.0000000000000000e+00" cType="1" res="-1.2356085935607553e-03" rms="4.9375230073928833e-01" purity="5.4755121469497681e-01" nType="-99"/>
        </Node>
        <Node pos="r" depth="1" NCoef="0" IVar="3" Cut="-7.0804405212402344e-01" cType="1" res="6.4400313422083855e-03" rms="4.9101534485816956e-01" purity="5.0911438465118408e-01" nType="0">
          <Node pos="l" depth="2" NCoef="0" IVar="-1" Cut="0.0000000000000000e+00" cType="1" res="-7.4712053174152970e-04" rms="4.9281305074691772e-01" purity="4.4063377380371094e-01" nType="-99"/>
          <Node pos="r" depth="2" NCoef="0" IVar="-1" Cut="0.0000000000000000e+00" cType="1" res="2.8775592800229788e-03" rms="4.8882627487182617e-01" purity="5.8151412010192871e-01" nType="-99"/>
        </Node>
      </Node>
    </BinaryTree>
    <BinaryTree type="DecisionTree" boostWeight="1.0000000000000000e+00" itree="30">
      <Node pos="s" depth="0" NCoef="0" IVar="3" Cut="-8.9629036188125610e-01" cType="1" res="1.4534348156303167e-03" rms="4.8962649703025818e-01" purity="5.0101816654205322e-01" nType="0">
        <Node pos="l" depth="1" NCoef="0" IVar="4" Cut="7.9671823978424072e-01" cType="1" res="-2.6633091270923615e-02" rms="4.7144731879234314e-01" purity="3.4797734022140503e-01" nType="0">
          <Node pos="l" depth="2" NCoef="0" IVar="-1" Cut="0.0000000000000000e+00" cType="1" res="-8.7176254019141197e-03" rms="4.6018385887145996e-01" purity="3.1423306465148926e-01" nType="-99"/>
          <Node pos="r" depth="2" NCoef="0" IVar="-1" Cut="0.0000000000000000e+00" cType="1" res="3.6339620128273964e-03" rms="4.9056565761566162e-01" purity="4.1815179586410522e-01" nType="-99"/>
        </Node>
        <Node pos="r" depth="1" NCoef="0" IVar="3" Cut="8.1185585260391235e-01" cType="1" res="7.1773929521441460e-03" rms="4.9305295944213867e-01" purity="5.3220742940902710e-01" nType="0">
          <Node pos="l" depth="2" NCoef="0" IVar="-1" Cut="0.0000000000000000e+00" cType="1" res="-5.1321799401193857e-04" rms="4.9886715412139893e-01" purity="4.7823530435562134e-01" nType="-99"/>
          <Node pos="r" depth="2" NCoef="0" IVar="-1" Cut="0.0000000000000000e+00" cType="1" res="3.4069838002324104e-03" rms="4.8506566882133484e-01" purity="6.0216724872589111e-01" nType="-99"/>
        </Node>
      </Node>
    </BinaryTree>
    <BinaryTree type="DecisionTree" boostWeight="1.0000000000000000e+00" itree="31">
      <Node pos="s" depth="0" NCoef="0" IVar="4" Cut="4.5133929699659348e-02" cType="1" res="-6.0868135187774897e-04" rms="4.8995351791381836e-01" purity="4.9804699420928955e-01" nType="0">
        <Node pos="l" depth="1" NCoef="0" IVar="3" Cut="-8.9618742465972900e-01" cType="1" res="-7.8199570998549461e-03" rms="4.9060347676277161e-01" purity="4.8842757940292358e-01" nType="0">
          <Node pos="l" depth="2" NCoef="0" IVar="-1" Cut="0.0000000000000000e+00" cType="1" res="-7.1325087919831276e-03" rms="4.6138811111450195e-01" purity="3.1593722105026245e-01" nType="-99"/>
          <Node pos="r" depth="2" NCoef="0" IVar="-1" Cut="0.0000000000000000e+00" cType="1" res="-4.2132337694056332e-04" rms="4.9491822719573975e-01" purity="5.1594477891921997e-01" nType="-99"/>
        </Node>
        <Node pos="r" depth="1" NCoef="0" IVar="3" Cut="8.9468610286712646e-01" cType="1" res="1.7833551391959190e-02" rms="4.8780265450477600e-01" purity="5.2264785766601562e-01" nType="0">
          <Node pos="l" depth="2" NCoef="0" IVar="-1" Cut="0.0000000000000000e+00" cType="1" res="1.6117711784318089e-03" rms="4.9463623762130737e-01" purity="4.8016172647476196e-01" nType="-99"/>
          <Node pos="r" depth="2" NCoef="0" IVar="-1" Cut="0.0000000000000000e+00" cType="1" res="8.7615223601460457e-03" rms="4.5844534039497375e-01" purity="6.9151002168655396e-01" nType="-99"/>
        </Node>
      </Node>
    </BinaryTree>
    <BinaryTree type="DecisionTree" boostWeight="1.0000000000000000e+00" itree="32">
      <Node pos="s" depth="0" NCoef="0" IVar="4" Cut="4.6732999384403229e-02" cType="1" res="6.8452332925517112e-05" rms="4.9019882082939148e-01" purity="4.9910470843315125e-01" nType="0">
        <Node pos="l" depth="1" NCoef="0" IVar="3" Cut="-8.9604014158248901e-01" cType="1" res="-8.0677950754761696e-03" rms="4.9085026979446411e-01" purity="4.8768106102943420e-01" nType="0">
          <Node pos="l" depth="2" NCoef="0" IVar="-1" Cut="0.0000000000000000e+00" cType="1" res="-5.8398074470460415e-03" rms="4.6326774358749390e-01" purity="3.2051447033882141e-01" nType="-99"/>
          <Node pos="r" depth="2" NCoef="0" IVar="-1" Cut="0.0000000000000000e+00" cType="1" res="-6.2770175281912088e-04" rms="4.9501639604568481e-01" purity="5.1450210809707642e-01" nType="-99"/>
        </Node>
        <Node pos="r" depth="1" NCoef="0" IVar="4" Cut="7.5806814432144165e-01" cType="1" res="2.0765351131558418e-02" rms="4.8792663216590881e-01" purity="5.2816402912139893e-01" nType="0">
          <Node pos="l" depth="2" NCoef="0" IVar="-1" Cut="0.0000000000000000e+00" cType="1" res="-8.2378246588632464e-04" rms="4.9208551645278931e-01" purity="4.9647587537765503e-01" nType="-99"/>
          <Node pos="r" depth="2" NCoef="0" IVar="-1" Cut="0.0000000000000000e+00" cType="1" res="4.6593328006565571e-03" rms="4.8644062876701355e-01" purity="5.3741091489791870e-01" nType="-99"/>
        </Node>
      </Node>
    </BinaryTree>
    <BinaryTree type="DecisionTree" boostWeight="1.0000000000000000e+00" itree="33">
      <Node pos="s" depth="0" NCoef="0" IVar="3" Cut="8.9631271362304688e-01" cType="1" res="4.1362894698977470e-03" rms="4.8953497409820557e-01" purity="5.0363415479660034e-01" nType="0">
        <Node pos="l" depth="1" NCoef="0" IVar="0" Cut="9.3708600997924805e+00" cType="1" res="-7.7438208973035216e-04" rms="4.9303427338600159e-01" purity="4.7263437509536743e-01" nType="0">
          <Node pos="l" depth="2" NCoef="0" IVar="-1" Cut="0.0000000000000000e+00" cType="1" res="8.7174342479556799e-04" rms="4.9499326944351196e-01" purity="4.8361328244209290e-01" nType="-99"/>
          <Node pos="r" depth="2" NCoef="0" IVar="-1" Cut="0.0000000000000000e+00" cType="1" res="-5.6817792356014252e-03" rms="4.8611712455749512e-01" purity="4.3796548247337341e-01" nType="-99"/>
        </Node>
        <Node pos="r" depth="1" NCoef="0" IVar="3" Cut="9.5921427011489868e-01" cType="1" res="2.7524748817086220e-02" rms="4.7181209921836853e-01" purity="6.5127921104431152e-01" nType="0">
          <Node pos="l" depth="2" NCoef="0" IVar="-1" Cut="0.0000000000000000e+00" cType="1" res="2.3046776186674833e-03" rms="4.8238614201545715e-01" purity="6.2371188402175903e-01" nType="-99"/>
          <Node pos="r" depth="2" NCoef="0" IVar="-1" Cut="0.0000000000000000e+00" cType="1" res="2.0546386018395424e-02" rms="4.1254901885986328e-01" purity="7.8012806177139282e-01" nType="-99"/>
        </Node>
      </Node>
    </BinaryTree>
    <BinaryTree type="DecisionTree" boostWeight="1.0000000000000000e+00" itree="34">
      <Node pos="s" depth="0" NCoef="0" IVar="4" Cut="7.9865670204162598e-01" cType="1" res="5.8418163098394871e-03" rms="4.8970550298690796e-01" purity="5.0542914867401123e-01" nType="0">
        <Node pos="l" depth="1" NCoef="0" IVar="4" Cut="-8.9891481399536133e-01" cType="1" res="1.7010527662932873e-03" rms="4.9053069949150085e-01" purity="4.9836942553520203e-01" nType="0">
          <Node pos="l" depth="2" NCoef="0" IVar="-1" Cut="0.0000000000000000e+00" cType="1" res="-1.0146876797080040e-02" rms="4.7060400247573853e-01" purity="4.4764465093612671e-01" nType="-99"/>
          <Node pos="r" depth="2" NCoef="0" IVar="-1" Cut="0.0000000000000000e+00" cType="1" res="6.0099508846178651e-04" rms="4.9116393923759460e-01" purity="5.0034308433532715e-01" nType="-99"/>
        </Node>
        <Node pos="r" depth="1" NCoef="0" IVar="4" Cut="9.0587520599365234e-01" cType="1" res="2.8582690283656120e-02" rms="4.8451814055442810e-01" purity="5.4420071840286255e-01" nType="0">
          <Node pos="l" depth="2" NCoef="0" IVar="-1" Cut="0.0000000000000000e+00" cType="1" res="3.0473757069557905e-03" rms="4.8473390936851501e-01" purity="5.3673112392425537e-01" nType="-99"/>
          <Node pos="r" depth="2" NCoef="0" IVar="-1" Cut="0.0000000000000000e+00" cType="1" res="1.5356451272964478e-02" rms="4.8062169551849365e-01" purity="5.8241802453994751e-01" nType="-99"/>
        </Node>
      </Node>
    </BinaryTree>
    <BinaryTree type="DecisionTree" boostWeight="1.0000000000000000e+00" itree="35">
      <Node pos="s" depth="0" NCoef="0" IVar="4" Cut="-7.9622668027877808e-01" cType="1" res="2.2206220819498412e-05" rms="4.8939034342765808e-01" purity="5.0070524215698242e-01" nType="0">
        <Node pos="l" depth="1" NCoef="0" IVar="3" Cut="8.9541983604431152e-01" cType="1" res="-3.3295486122369766e-02" rms="4.7963672876358032e-01" purity="4.5235624909400940e-01" nType="0">
          <Node pos="l" depth="2" NCoef="0" IVar="-1" Cut="0.0000000000000000e+00" cType="1" res="-8.4341093897819519e-03" rms="4.7392785549163818e-01" purity="3.7005996704101562e-01" nType="-99"/>
          <Node pos="r" depth="2" NCoef="0" IVar="-1" Cut="0.0000000000000000e+00" cType="1" res="-5.5036804405972362e-04" rms="4.8754072189331055e-01" purity="5.8984613418579102e-01" nType="-99"/>
        </Node>
        <Node pos="r" depth="1" NCoef="0" IVar="3" Cut="8.9573132991790771e-01" cType="1" res="5.9116333723068237e-03" rms="4.9085915088653564e-01" purity="5.0925177335739136e-01" nType="0">
          <Node pos="l" depth="2" NCoef="0" IVar="-1" Cut="0.0000000000000000e+00" cType="1" res="3.3056538086384535e-04" rms="4.9474090337753296e-01" purity="4.8215892910957336e-01" nType="-99"/>
          <Node pos="r" depth="2" NCoef="0" IVar="-1" Cut="0.0000000000000000e+00" cType="1" res="5.0884056836366653e-03" rms="4.6688136458396912e-01" purity="6.6793531179428101e-01" nType="-99"/>
        </Node>
      </Node>
    </BinaryTree>
    <BinaryTree type="DecisionTree" boostWeight="1.0000000000000000e+00" itree="36">
      <Node pos="s" depth="0" NCoef="0" IVar="3" Cut="-8.0119222402572632e-01" cType="1" res="1.6443103086203337e-03" rms="4.8932603001594543e-01" purity="5.0199002027511597e-01" nType="0">
        <Node pos="l" depth="1" NCoef="0" IVar="4" Cut="7.9876869916915894e-01" cType="1" res="-1.4522575773298740e-02" rms="4.8551407456398010e-01" purity="4.0283226966857910e-01" nType="0">
          <Node pos="l" depth="2" NCoef="0" IVar="-1" Cut="0.0000000000000000e+00" cType="1" res="-3.8109673187136650e-03" rms="4.8278421163558960e-01" purity="3.8994085788726807e-01" nType="-99"/>
          <Node pos="r" depth="2" NCoef="0" IVar="-1" Cut="0.0000000000000000e+00" cType="1" res="2.6137907989323139e-03" rms="4.9332144856452942e-01" purity="4.4595387578010559e-01" nType="-99"/>
        </Node>
        <Node pos="r" depth="1" NCoef="0" IVar="5" Cut="-6.9326204061508179e-01" cType="1" res="1.0927239432930946e-02" rms="4.9126109480857849e-01" purity="5.5892586708068848e-01" nType="0">
          <Node pos="l" depth="2" NCoef="0" IVar="-1" Cut="0.0000000000000000e+00" cType="1" res="-3.2577710226178169e-03" rms="4.8993679881095886e-01" purity="5.6294745206832886e-01" nType="-99"/>
          <Node pos="r" depth="2" NCoef="0" IVar="-1" Cut="0.0000000000000000e+00" cType="1" res="2.2530143614858389e-03" rms="4.9129423499107361e-01" purity="5.5843466520309448e-01" nType="-99"/>
        </Node>
      </Node>
    </BinaryTree>
    <BinaryTree type="DecisionTree" boostWeight="1.0000000000000000e+00" itree="37">
      <Node pos="s" depth="0" NCoef="0" IVar="5" Cut="5.1539145410060883e-02" cType="1" res="2.0006219856441021e-03" rms="4.8945352435112000e-01" purity="5.0210326910018921e-01" nType="0">
        <Node pos="l" depth="1" NCoef="0" IVar="3" Cut="-8.9660978317260742e-01" cType="1" res="-1.8656771862879395e-03" rms="4.9008899927139282e-01" purity="4.9903029203414917e-01" nType="0">
          <Node pos="l" depth="2" NCoef="0" IVar="-1" Cut="0.0000000000000000e+00" cType="1" res="-5.0375615246593952e-03" rms="4.6851736307144165e-01" purity="3.4071722626686096e-01" nType="-99"/>
          <Node pos="r" depth="2" NCoef="0" IVar="-1" Cut="0.0000000000000000e+00" cType="1" res="4.4361711479723454e-04" rms="4.9377295374870300e-01" purity="5.2789723873138428e-01" nType="-99"/>
        </Node>
        <Node pos="r" depth="1" NCoef="0" IVar="5" Cut="8.0623191595077515e-01" cType="1" res="2.8625041246414185e-02" rms="4.8421734571456909e-01" purity="5.2326440811157227e-01" nType="0">
          <Node pos="l" depth="2" NCoef="0" IVar="-1" Cut="0.0000000000000000e+00" cType="1" res="3.1691184267401695e-03" rms="4.8555123805999756e-01" purity="5.1677674055099487e-01" nType="-99"/>
          <Node pos="r" depth="2" NCoef="0" IVar="-1" Cut="0.0000000000000000e+00" cType="1" res="7.6453951187431812e-03" rms="4.8117953538894653e-01" purity="5.3586488962173462e-01" nType="-99"/>
        </Node>
      </Node>
    </BinaryTree>
    <BinaryTree type="DecisionTree" boostWeight="1.0000000000000000e+00" itree="38">
      <Node pos="s" depth="0" NCoef="0" IVar="4" Cut="-7.0277863740921021e-01" cType="1" res="-1.0025069350376725e-03" rms="4.8901316523551941e-01" purity="4.9875381588935852e-01" nType="0">
        <Node pos="l" depth="1" NCoef="0" IVar="4" Cut="-8.8334268331527710e-01" cType="1" res="-2.0487179979681969e-02" rms="4.8618879914283752e-01" purity="4.6464812755584717e-01" nType="0">
          <Node pos="l" depth="2" NCoef="0" IVar="-1" Cut="0.0000000000000000e+00" cType="1" res="-8.2818409428000450e-03" rms="4.7049930691719055e-01" purity="4.4403100013732910e-01" nType="-99"/>
          <Node pos="r" depth="2" NCoef="0" IVar="-1" Cut="0.0000000000000000e+00" cType="1" res="-2.4503106251358986e-03" rms="4.8904725909233093e-01" purity="4.6866720914840698e-01" nType="-99"/>
        </Node>
        <Node pos="r" depth="1" NCoef="0" IVar="3" Cut="-8.9534723758697510e-01" cType="1" res="6.3647958450019360e-03" rms="4.8987498879432678e-01" purity="5.1164942979812622e-01" nType="0">
          <Node pos="l" depth="2" NCoef="0" IVar="-1" Cut="0.0000000000000000e+00" cType="1" res="-3.4812313970178366e-03" rms="4.7574022412300110e-01" purity="3.6332094669342041e-01" nType="-99"/>
          <Node pos="r" depth="2" NCoef="0" IVar="-1" Cut="0.0000000000000000e+00" cType="1" res="1.7643745522946119e-03" rms="4.9242031574249268e-01" purity="5.4058778285980225e-01" nType="-99"/>
        </Node>
      </Node>
    </BinaryTree>
    <BinaryTree type="DecisionTree" boostWeight="1.0000000000000000e+00" itree="39">
      <Node pos="s" depth="0" NCoef="0" IVar="5" Cut="-6.9053798913955688e-01" cType="1" res="-1.9380043959245086e-03" rms="4.8952364921569824e-01" purity="4.9778732657432556e-01" nType="0">
        <Node pos="l" depth="1" NCoef="0" IVar="0" Cut="8.8739500045776367e+00" cType="1" res="-2.7889583259820938e-02" rms="4.8741629719734192e-01" purity="4.7571447491645813e-01" nType="0">
          <Node pos="l" depth="2" NCoef="0" IVar="-1" Cut="0.0000000000000000e+00" cType="1" res="-6.2685781158506870e-03" rms="4.9432381987571716e-01" purity="4.4984111189842224e-01" nType="-99"/>
          <Node pos="r" depth="2" NCoef="0" IVar="-1" Cut="0.0000000000000000e+00" cType="1" res="-2.8420339804142714e-03" rms="4.8332479596138000e-01" purity="4.8875534534454346e-01" nType="-99"/>
        </Node>
        <Node pos="r" depth="1" NCoef="0" IVar="3" Cut="8.9696711301803589e-01" cType="1" res="1.7226263880729675e-03" rms="4.8970952630043030e-01" purity="5.0090080499649048e-01" nType="0">
          <Node pos="l" depth="2" NCoef="0" IVar="-1" Cut="0.0000000000000000e+00" cType="1" res="-4.0900529711507261e-04" rms="4.9329176545143127e-01" purity="4.7244501113891602e-01" nType="-99"/>
          <Node pos="r" depth="2" NCoef="0" IVar="-1" Cut="0.0000000000000000e+00" cType="1" res="4.5665851794183254e-03" rms="4.6895438432693481e-01" purity="6.5618586540222168e-01" nType="-99"/>
        </Node>
      </Node>
    </BinaryTree>
    <BinaryTree type="DecisionTree" boostWeight="1.0000000000000000e+00" itree="40">
      <Node pos="s" depth="0" NCoef="0" IVar="4" Cut="8.8995021581649780e-01" cType="1" res="-9.4417290529236197e-04" rms="4.8956370353698730e-01" purity="4.9909195303916931e-01" nType="0">
        <Node pos="l" depth="1" NCoef="0" IVar="3" Cut="-7.0772331953048706e-01" cType="1" res="-2.9690631199628115e-03" rms="4.8980450630187988e-01" purity="4.9658375978469849e-01" nType="0">
          <Node pos="l" depth="2" NCoef="0" IVar="-1" Cut="0.0000000000000000e+00" cType="1" res="-1.8330049933865666e-03" rms="4.8856121301651001e-01" purity="4.2196363210678101e-01" nType="-99"/>
          <Node pos="r" depth="2" NCoef="0" IVar="-1" Cut="0.0000000000000000e+00" cType="1" res="8.3705602446570992e-04" rms="4.9083167314529419e-01" purity="5.6708133220672607e-01" nType="-99"/>
        </Node>
        <Node pos="r" depth="1" NCoef="0" IVar="-1" Cut="0.0000000000000000e+00" cType="1" res="9.3987714499235153e-03" rms="4.8070570826530457e-01" purity="5.6198769807815552e-01" nType="-99"/>
      </Node>
    </BinaryTree>
    <BinaryTree type="DecisionTree" boostWeight="1.0000000000000000e+00" itree="41">
      <Node pos="s" depth="0" NCoef="0" IVar="4" Cut="4.6552576124668121e-02" cType="1" res="-3.3430764451622963e-03" rms="4.8998659849166870e-01" purity="4.9698838591575623e-01" nType="0">
        <Node pos="l" depth="1" NCoef="0" IVar="1" Cut="4.0000000000000000e+00" cType="1" res="-4.9053784459829330e-04" rms="1.6224473714828491e-01" purity="4.8758187890052795e-01" nType="0">
          <Node pos="l" depth="2" NCoef="0" IVar="-1" Cut="0.0000000000000000e+00" cType="1" res="-1.7527842428535223e-03" rms="4.9115189909934998e-01" purity="4.8502627015113831e-01" nType="-99"/>
          <Node pos="r" depth="2" NCoef="0" IVar="-1" Cut="0.0000000000000000e+00" cType="1" res="1.9528593402355909e-03" rms="4.8945125937461853e-01" purity="5.0502616167068481e-01" nType="-99"/>
        </Node>
        <Node pos="r" depth="1" NCoef="0" IVar="3" Cut="8.9702558517456055e-01" cType="1" res="8.9704468846321106e-03" rms="4.8718911409378052e-01" purity="5.2091586589813232e-01" nType="0">
          <Node pos="l" depth="2" NCoef="0" IVar="-1" Cut="0.0000000000000000e+00" cType="1" res="4.7392147826030850e-04" rms="4.9376070499420166e-01" purity="4.7764375805854797e-01" nType="-99"/>
          <Node pos="r" depth="2" NCoef="0" IVar="-1" Cut="0.0000000000000000e+00" cType="1" res="6.3183894380927086e-03" rms="4.5899879932403564e-01" purity="6.9514125585556030e-01" nType="-99"/>
        </Node>
      </Node>
    </BinaryTree>
    <BinaryTree type="DecisionTree" boostWeight="1.0000000000000000e+00" itree="42">
      <Node pos="s" depth="0" NCoef="0" IVar="3" Cut="-8.9547604322433472e-01" cType="1" res="3.1538917683064938e-03" rms="4.8931410908699036e-01" purity="5.0254929065704346e-01" nType="0">
        <Node pos="l" depth="1" NCoef="0" IVar="3" Cut="-9.2243427038192749e-01" cType="1" res="-1.4265503734350204e-02" rms="4.7124749422073364e-01" purity="3.5188847780227661e-01" nType="0">
          <Node pos="l" depth="2" NCoef="0" IVar="-1" Cut="0.0000000000000000e+00" cType="1" res="-6.6224890761077404e-03" rms="4.5810291171073914e-01" purity="3.1287363171577454e-01" nType="-99"/>
          <Node pos="r" depth="2" NCoef="0" IVar="-1" Cut="0.0000000000000000e+00" cType="1" res="2.9077201616019011e-03" rms="4.9043950438499451e-01" purity="4.1622102260589600e-01" nType="-99"/>
        </Node>
        <Node pos="r" depth="1" NCoef="0" IVar="4" Cut="-7.0347130298614502e-01" cType="1" res="6.7415335215628147e-03" rms="4.9287638068199158e-01" purity="5.3357893228530884e-01" nType="0">
          <Node pos="l" depth="2" NCoef="0" IVar="-1" Cut="0.0000000000000000e+00" cType="1" res="-7.1168580325320363e-04" rms="4.9356651306152344e-01" purity="5.1612395048141479e-01" nType="-99"/>
          <Node pos="r" depth="2" NCoef="0" IVar="-1" Cut="0.0000000000000000e+00" cType="1" res="1.6375983832404017e-03" rms="4.9256864190101624e-01" purity="5.3977006673812866e-01" nType="-99"/>
        </Node>
      </Node>
    </BinaryTree>
    <BinaryTree type="DecisionTree" boostWeight="1.0000000000000000e+00" itree="43">
      <Node pos="s" depth="0" NCoef="0" IVar="5" Cut="7.9321867227554321e-01" cType="1" res="-7.6704365201294422e-03" rms="4.8969438672065735e-01" purity="4.9144780635833740e-01" nType="0">
        <Node pos="l" depth="1" NCoef="0" IVar="4" Cut="-7.9739022254943848e-01" cType="1" res="-1.0452003218233585e-02" rms="4.8994401097297668e-01" purity="4.8912271857261658e-01" nType="0">
          <Node pos="l" depth="2" NCoef="0" IVar="-1" Cut="0.0000000000000000e+00" cType="1" res="-6.4524216577410698e-03" rms="4.8332241177558899e-01" purity="4.4085094332695007e-01" nType="-99"/>
          <Node pos="r" depth="2" NCoef="0" IVar="-1" Cut="0.0000000000000000e+00" cType="1" res="-9.8114227876067162e-04" rms="4.9078744649887085e-01" purity="4.9632713198661804e-01" nType="-99"/>
        </Node>
        <Node pos="r" depth="1" NCoef="0" IVar="5" Cut="8.3736670017242432e-01" cType="1" res="4.1433990001678467e-02" rms="4.8263394832611084e-01" purity="5.3249406814575195e-01" nType="0">
          <Node pos="l" depth="2" NCoef="0" IVar="-1" Cut="0.0000000000000000e+00" cType="1" res="5.8191046118736267e-03" rms="4.8651951551437378e-01" purity="5.2504676580429077e-01" nType="-99"/>
          <Node pos="r" depth="2" NCoef="0" IVar="-1" Cut="0.0000000000000000e+00" cType="1" res="8.2080569118261337e-03" rms="4.7828918695449829e-01" purity="5.4054123163223267e-01" nType="-99"/>
        </Node>
      </Node>
    </BinaryTree>
    <BinaryTree type="DecisionTree" boostWeight="1.0000000000000000e+00" itree="44">
      <Node pos="s" depth="0" NCoef="0" IVar="0" Cut="8.2724294662475586e+00" cType="1" res="5.8704707771539688e-03" rms="4.9013456702232361e-01" purity="5.0565278530120850e-01" nType="0">
        <Node pos="l" depth="1" NCoef="0" IVar="-1" Cut="0.0000000000000000e+00" cType="1" res="-2.1026891190558672e-03" rms="4.9891352653503418e-01" purity="4.8005184531211853e-01" nType="-99"/>
        <Node pos="r" depth="1" NCoef="0" IVar="3" Cut="-8.0189293622970581e-01" cType="1" res="8.1471418961882591e-03" rms="4.8932954668998718e-01" purity="5.0777828693389893e-01" nType="0">
          <Node pos="l" depth="2" NCoef="0" IVar="-1" Cut="0.0000000000000000e+00" cType="1" res="-2.0418994245119393e-04" rms="4.8632773756980896e-01" purity="4.1002017259597778e-01" nType="-99"/>
          <Node pos="r" depth="2" NCoef="0" IVar="-1" Cut="0.0000000000000000e+00" cType="1" res="2.2107674740254879e-03" rms="4.9099192023277283e-01" purity="5.6487005949020386e-01" nType="-99"/>
        </Node>
      </Node>
    </BinaryTree>
    <BinaryTree type="DecisionTree" boostWeight="1.0000000000000000e+00" itree="45">
      <Node pos="s" depth="0" NCoef="0" IVar="3" Cut="8.9573132991790771e-01" cType="1" res="4.0463763289153576e-03" rms="4.8879128694534302e-01" purity="5.0392639636993408e-01" nType="0">
        <Node pos="l" depth="1" NCoef="0" IVar="0" Cut="8.6575946807861328e+00" cType="1" res="-1.2270102160982788e-04" rms="4.9271553754806519e-01" purity="4.7138792276382446e-01" nType="0">
          <Node pos="l" depth="2" NCoef="0" IVar="-1" Cut="0.0000000000000000e+00" cType="1" res="1.7492533661425114e-03" rms="4.9827167391777039e-01" purity="5.0252044200897217e-01" nType="-99"/>
          <Node pos="r" depth="2" NCoef="0" IVar="-1" Cut="0.0000000000000000e+00" cType="1" res="-9.2966691590845585e-04" rms="4.9088481068611145e-01" purity="4.6183627843856812e-01" nType="-99"/>
        </Node>
        <Node pos="r" depth="1" NCoef="0" IVar="3" Cut="9.5863020420074463e-01" cType="1" res="2.3388821631669998e-02" rms="4.6967259049415588e-01" purity="6.5488886833190918e-01" nType="0">
          <Node pos="l" depth="2" NCoef="0" IVar="-1" Cut="0.0000000000000000e+00" cType="1" res="2.0479171071201563e-03" rms="4.8026785254478455e-01" purity="6.2773704528808594e-01" nType="-99"/>
          <Node pos="r" depth="2" NCoef="0" IVar="-1" Cut="0.0000000000000000e+00" cType="1" res="1.6870811581611633e-02" rms="4.1583159565925598e-01" purity="7.7457410097122192e-01" nType="-99"/>
        </Node>
      </Node>
    </BinaryTree>
    <BinaryTree type="DecisionTree" boostWeight="1.0000000000000000e+00" itree="46">
      <Node pos="s" depth="0" NCoef="0" IVar="4" Cut="-8.8955277204513550e-01" cType="1" res="1.5215420862659812e-03" rms="4.8885670304298401e-01" purity="5.0141465663909912e-01" nType="0">
        <Node pos="l" depth="1" NCoef="0" IVar="-1" Cut="0.0000000000000000e+00" cType="1" res="-8.8181728497147560e-03" rms="4.7774332761764526e-01" purity="4.3718284368515015e-01" nType="-99"/>
        <Node pos="r" depth="1" NCoef="0" IVar="3" Cut="-8.9537996053695679e-01" cType="1" res="3.5562189295887947e-03" rms="4.8919472098350525e-01" purity="5.0402534008026123e-01" nType="0">
          <Node pos="l" depth="2" NCoef="0" IVar="-1" Cut="0.0000000000000000e+00" cType="1" res="-3.7186963018029928e-03" rms="4.7087851166725159e-01" purity="3.4924864768981934e-01" nType="-99"/>
          <Node pos="r" depth="2" NCoef="0" IVar="-1" Cut="0.0000000000000000e+00" cType="1" res="1.2952104443684220e-03" rms="4.9256625771522522e-01" purity="5.3439980745315552e-01" nType="-99"/>
        </Node>
      </Node>
    </BinaryTree>
    <BinaryTree type="DecisionTree" boostWeight="1.0000000000000000e+00" itree="47">
      <Node pos="s" depth="0" NCoef="0" IVar="5" Cut="4.9292616546154022e-02" cType="1" res="3.3930514473468065e-03" rms="4.8990654945373535e-01" purity="5.0325548648834229e-01" nType="0">
        <Node pos="l" depth="1" NCoef="0" IVar="0" Cut="8.2049665451049805e+00" cType="1" res="-2.7992637478746474e-04" rms="4.9047583341598511e-01" purity="5.0031000375747681e-01" nType="0">
          <Node pos="l" depth="2" NCoef="0" IVar="-1" Cut="0.0000000000000000e+00" cType="1" res="-3.0492818914353848e-03" rms="4.9890395998954773e-01" purity="4.6653407812118530e-01" nType="-99"/>
          <Node pos="r" depth="2" NCoef="0" IVar="-1" Cut="0.0000000000000000e+00" cType="1" res="2.7795854839496315e-04" rms="4.8987329006195068e-01" purity="5.0243330001831055e-01" nType="-99"/>
        </Node>
        <Node pos="r" depth="1" NCoef="0" IVar="5" Cut="7.9264223575592041e-01" cType="1" res="2.9828825965523720e-02" rms="4.8496940732002258e-01" purity="5.2445566654205322e-01" nType="0">
          <Node pos="l" depth="2" NCoef="0" IVar="-1" Cut="0.0000000000000000e+00" cType="1" res="3.0642114579677582e-03" rms="4.8614943027496338e-01" purity="5.1464188098907471e-01" nType="-99"/>
          <Node pos="r" depth="2" NCoef="0" IVar="-1" Cut="0.0000000000000000e+00" cType="1" res="7.8717498108744621e-03" rms="4.8295515775680542e-01" purity="5.3794848918914795e-01" nType="-99"/>
        </Node>
      </Node>
    </BinaryTree>
    <BinaryTree type="DecisionTree" boostWeight="1.0000000000000000e+00" itree="48">
      <Node pos="s" depth="0" NCoef="0" IVar="4" Cut="8.9246666431427002e-01" cType="1" res="1.0182877304032445e-03" rms="4.8957884311676025e-01" purity="5.0177383422851562e-01" nType="0">
        <Node pos="l" depth="1" NCoef="0" IVar="3" Cut="-7.0768195390701294e-01" cType="1" res="-7.2560261469334364e-04" rms="4.8999226093292236e-01" purity="4.9922826886177063e-01" nType="0">
          <Node pos="l" depth="2" NCoef="0" IVar="-1" Cut="0.0000000000000000e+00" cType="1" res="-1.2079523876309395e-03" rms="4.8936933279037476e-01" purity="4.2478176951408386e-01" nType="-99"/>
          <Node pos="r" depth="2" NCoef="0" IVar="-1" Cut="0.0000000000000000e+00" cType="1" res="9.3740358715876937e-04" rms="4.9049690365791321e-01" purity="5.7084798812866211e-01" nType="-99"/>
        </Node>
        <Node pos="r" depth="1" NCoef="0" IVar="-1" Cut="0.0000000000000000e+00" cType="1" res="8.6688166484236717e-03" rms="4.7596350312232971e-01" purity="5.7011598348617554e-01" nType="-99"/>
      </Node>
    </BinaryTree>
    <BinaryTree type="DecisionTree" boostWeight="1.0000000000000000e+00" itree="49">
      <Node pos="s" depth="0" NCoef="0" IVar="0" Cut="8.6702556610107422e+00" cType="1" res="1.3089014682918787e-03" rms="4.8965126276016235e-01" purity="5.0110155344009399e-01" nType="0">
        <Node pos="l" depth="1" NCoef="0" IVar="3" Cut="7.9275673627853394e-01" cType="1" res="1.3016274198889732e-02" rms="4.9686434864997864e-01" purity="5.1490855216979980e-01" nType="0">
          <Node pos="l" depth="2" NCoef="0" IVar="-1" Cut="0.0000000000000000e+00" cType="1" res="3.0251413118094206e-03" rms="4.9744305014610291e-01" purity="4.9033391475677490e-01" nType="-99"/>
          <Node pos="r" depth="2" NCoef="0" IVar="-1" Cut="0.0000000000000000e+00" cType="1" res="-1.4560292474925518e-03" rms="4.9477022886276245e-01" purity="5.5607265233993530e-01" nType="-99"/>
        </Node>
        <Node pos="r" depth="1" NCoef="0" IVar="3" Cut="-7.0703482627868652e-01" cType="1" res="-2.1318888757377863e-03" rms="4.8745760321617126e-01" purity="4.9704378843307495e-01" nType="0">
          <Node pos="l" depth="2" NCoef="0" IVar="-1" Cut="0.0000000000000000e+00" cType="1" res="-2.2623196709901094e-03" rms="4.8656755685806274e-01" purity="4.1200423240661621e-01" nType="-99"/>
          <Node pos="r" depth="2" NCoef="0" IVar="-1" Cut="0.0000000000000000e+00" cType="1" res="1.4586664037778974e-03" rms="4.8811897635459900e-01" purity="5.7996582984924316e-01" nType="-99"/>
        </Node>
      </Node>
    </BinaryTree>
    <BinaryTree type="DecisionTree" boostWeight="1.0000000000000000e+00" itree="50">
      <Node pos="s" depth="0" NCoef="0" IVar="3" Cut="8.0286270380020142e-01" cType="1" res="1.5367855085060000e-03" rms="4.8931095004081726e-01" purity="5.0199377536773682e-01" nType="0">
        <Node pos="l" depth="1" NCoef="0" IVar="1" Cut="4.0000000000000000e+00" cType="1" res="1.9644470885396004e-03" rms="2.5413334369659424e-01" purity="4.4390049576759338e-01" nType="0">
          <Node pos="l" depth="2" NCoef="0" IVar="-1" Cut="0.0000000000000000e+00" cType="1" res="-1.1254237033426762e-03" rms="4.9140366911888123e-01" purity="4.4283139705657959e-01" nType="-99"/>
          <Node pos="r" depth="2" NCoef="0" IVar="-1" Cut="0.0000000000000000e+00" cType="1" res="3.5822957288473845e-03" rms="4.9137833714485168e-01" purity="4.5127034187316895e-01" nType="-99"/>
        </Node>
        <Node pos="r" depth="1" NCoef="0" IVar="3" Cut="9.5569878816604614e-01" cType="1" res="1.0017978958785534e-02" rms="4.8548132181167603e-01" purity="5.9989327192306519e-01" nType="0">
          <Node pos="l" depth="2" NCoef="0" IVar="-1" Cut="0.0000000000000000e+00" cType="1" res="9.0606044977903366e-04" rms="4.9124047160148621e-01" purity="5.8254414796829224e-01" nType="-99"/>
          <Node pos="r" depth="2" NCoef="0" IVar="-1" Cut="0.0000000000000000e+00" cType="1" res="1.0765235871076584e-02" rms="4.2876020073890686e-01" purity="7.5447320938110352e-01" nType="-99"/>
        </Node>
      </Node>
    </BinaryTree>
    <BinaryTree type="DecisionTree" boostWeight="1.0000000000000000e+00" itree="51">
      <Node pos="s" depth="0" NCoef="0" IVar="4" Cut="-7.0490694046020508e-01" cType="1" res="-1.3635096838697791e-03" rms="4.8965588212013245e-01" purity="4.9933901429176331e-01" nType="0">
        <Node pos="l" depth="1" NCoef="0" IVar="5" Cut="7.8142338991165161e-01" cType="1" res="-1.5275049954652786e-02" rms="4.8665493726730347e-01" purity="4.6817770600318909e-01" nType="0">
          <Node pos="l" depth="2" NCoef="0" IVar="-1" Cut="0.0000000000000000e+00" cType="1" res="-3.2147085294127464e-03" rms="4.8635795712471008e-01" purity="4.6297591924667358e-01" nType="-99"/>
          <Node pos="r" depth="2" NCoef="0" IVar="-1" Cut="0.0000000000000000e+00" cType="1" res="2.9162955470383167e-03" rms="4.8753461241722107e-01" purity="5.0547426939010620e-01" nType="-99"/>
        </Node>
        <Node pos="r" depth="1" NCoef="0" IVar="0" Cut="8.6246032714843750e+00" cType="1" res="3.7906032521277666e-03" rms="4.9066290259361267e-01" purity="5.1088398694992065e-01" nType="0">
          <Node pos="l" depth="2" NCoef="0" IVar="-1" Cut="0.0000000000000000e+00" cType="1" res="2.5534839369356632e-03" rms="4.9629563093185425e-01" purity="5.3446972370147705e-01" nType="-99"/>
          <Node pos="r" depth="2" NCoef="0" IVar="-1" Cut="0.0000000000000000e+00" cType="1" res="-2.5368673959746957e-04" rms="4.8905307054519653e-01" purity="5.0474977493286133e-01" nType="-99"/>
        </Node>
      </Node>
    </BinaryTree>
    <BinaryTree type="DecisionTree" boostWeight="1.0000000000000000e+00" itree="52">
      <Node pos="s" depth="0" NCoef="0" IVar="5" Cut="5.0353828817605972e-02" cType="1" res="-2.7270324062556028e-03" rms="4.8969125747680664e-01" purity="4.9750268459320068e-01" nType="0">
        <Node pos="l" depth="1" NCoef="0" IVar="5" Cut="-8.2875233888626099e-01" cType="1" res="-5.7437708601355553e-03" rms="4.9003547430038452e-01" purity="4.9492380023002625e-01" nType="0">
          <Node pos="l" depth="2" NCoef="0" IVar="-1" Cut="0.0000000000000000e+00" cType="1" res="-9.3327062204480171e-03" rms="4.8040497303009033e-01" purity="4.6332916617393494e-01" nType="-99"/>
          <Node pos="r" depth="2" NCoef="0" IVar="-1" Cut="0.0000000000000000e+00" cType="1" res="-6.7428330658003688e-04" rms="4.9026709794998169e-01" purity="4.9592456221580505e-01" nType="-99"/>
        </Node>
        <Node pos="r" depth="1" NCoef="0" IVar="3" Cut="8.9357411861419678e-01" cType="1" res="1.8228199332952499e-02" rms="4.8677799105644226e-01" purity="5.1541662216186523e-01" nType="0">
          <Node pos="l" depth="2" NCoef="0" IVar="-1" Cut="0.0000000000000000e+00" cType="1" res="3.9144330658018589e-03" rms="4.9143466353416443e-01" purity="4.7180473804473877e-01" nType="-99"/>
          <Node pos="r" depth="2" NCoef="0" IVar="-1" Cut="0.0000000000000000e+00" cType="1" res="-2.8380070580169559e-04" rms="4.7289127111434937e-01" purity="6.3792473077774048e-01" nType="-99"/>
        </Node>
      </Node>
    </BinaryTree>
    <BinaryTree type="DecisionTree" boostWeight="1.0000000000000000e+00" itree="53">
      <Node pos="s" depth="0" NCoef="0" IVar="5" Cut="7.9323053359985352e-01" cType="1" res="2.7717894408851862e-03" rms="4.8946064710617065e-01" purity="5.0344401597976685e-01" nType="0">
        <Node pos="l" depth="1" NCoef="0" IVar="4" Cut="-8.8407361507415771e-01" cType="1" res="5.5230362340807915e-04" rms="4.8964363336563110e-01" purity="5.0090116262435913e-01" nType="0">
          <Node pos="l" depth="2" NCoef="0" IVar="-1" Cut="0.0000000000000000e+00" cType="1" res="-1.0001084767282009e-02" rms="4.7477868199348450e-01" purity="4.2910978198051453e-01" nType="-99"/>
          <Node pos="r" depth="2" NCoef="0" IVar="-1" Cut="0.0000000000000000e+00" cType="1" res="3.5825429949909449e-04" rms="4.8999568819999695e-01" purity="5.0313615798950195e-01" nType="-99"/>
        </Node>
        <Node pos="r" depth="1" NCoef="0" IVar="1" Cut="4.0000000000000000e+00" cType="1" res="2.0151907578110695e-02" rms="3.6787131428718567e-01" purity="5.5040550231933594e-01" nType="0">
          <Node pos="l" depth="2" NCoef="0" IVar="-1" Cut="0.0000000000000000e+00" cType="1" res="6.1845332384109497e-03" rms="4.8254144191741943e-01" purity="5.4255872964859009e-01" nType="-99"/>
          <Node pos="r" depth="2" NCoef="0" IVar="-1" Cut="0.0000000000000000e+00" cType="1" res="8.1672631204128265e-03" rms="4.8588657379150391e-01" purity="5.5828464031219482e-01" nType="-99"/>
        </Node>
      </Node>
    </BinaryTree>
    <BinaryTree type="DecisionTree" boostWeight="1.0000000000000000e+00" itree="54">
      <Node pos="s" depth="0" NCoef="0" IVar="4" Cut="-8.9293968677520752e-01" cType="1" res="2.2373269312083721e-03" rms="4.9032595753669739e-01" purity="5.0276619195938110e-01" nType="0">
        <Node pos="l" depth="1" NCoef="0" IVar="-1" Cut="0.0000000000000000e+00" cType="1" res="-6.0833520255982876e-03" rms="4.7722318768501282e-01" purity="4.5602470636367798e-01" nType="-99"/>
        <Node pos="r" depth="1" NCoef="0" IVar="1" Cut="5.0000000000000000e+00" cType="1" res="2.9829689301550388e-03" rms="3.1854191422462463e-01" purity="5.0447767972946167e-01" nType="0">
          <Node pos="l" depth="2" NCoef="0" IVar="-1" Cut="0.0000000000000000e+00" cType="1" res="3.5861140349879861e-04" rms="4.9055162072181702e-01" purity="5.0292813777923584e-01" nType="-99"/>
          <Node pos="r" depth="2" NCoef="0" IVar="-1" Cut="0.0000000000000000e+00" cType="1" res="4.6666683629155159e-03" rms="4.9428582191467285e-01" purity="5.3775429725646973e-01" nType="-99"/>
        </Node>
      </Node>
    </BinaryTree>
    <BinaryTree type="DecisionTree" boostWeight="1.0000000000000000e+00" itree="55">
      <Node pos="s" depth="0" NCoef="0" IVar="2" Cut="3.0000000000000000e+00" cType="1" res="-5.6681266869418323e-05" rms="2.9421791434288025e-02" purity="4.9978739023208618e-01" nType="0">
        <Node pos="l" depth="1" NCoef="0" IVar="4" Cut="8.9232796430587769e-01" cType="1" res="-3.6326951812952757e-03" rms="4.8928719758987427e-01" purity="4.9704122543334961e-01" nType="0">
          <Node pos="l" depth="2" NCoef="0" IVar="-1" Cut="0.0000000000000000e+00" cType="1" res="-8.0463703488931060e-04" rms="4.8963820934295654e-01" purity="4.9462121725082397e-01" nType="-99"/>
          <Node pos="r" depth="2" NCoef="0" IVar="-1" Cut="0.0000000000000000e+00" cType="1" res="6.8099237978458405e-03" rms="4.7897574305534363e-01" purity="5.5624741315841675e-01" nType="-99"/>
        </Node>
        <Node pos="r" depth="1" NCoef="0" IVar="3" Cut="7.9314482212066650e-01" cType="1" res="2.1597838029265404e-02" rms="4.9146690964698792e-01" purity="5.2211207151412964e-01" nType="0">
          <Node pos="l" depth="2" NCoef="0" IVar="-1" Cut="0.0000000000000000e+00" cType="1" res="1.2266373960301280e-03" rms="4.9516081809997559e-01" purity="4.7071516513824463e-01" nType="-99"/>
          <Node pos="r" depth="2" NCoef="0" IVar="-1" Cut="0.0000000000000000e+00" cType="1" res="9.3950508162379265e-03" rms="4.8334953188896179e-01" purity="6.1757200956344604e-01" nType="-99"/>
        </Node>
      </Node>
    </BinaryTree>
    <BinaryTree type="DecisionTree" boostWeight="1.0000000000000000e+00" itree="56">
      <Node pos="s" depth="0" NCoef="0" IVar="3" Cut="-8.0091744661331177e-01" cType="1" res="-3.6846080329269171e-03" rms="4.8933914303779602e-01" purity="4.9640509486198425e-01" nType="0">
        <Node pos="l" depth="1" NCoef="0" IVar="3" Cut="-9.5359098911285400e-01" cType="1" res="-1.0850884951651096e-02" rms="4.8478516936302185e-01" purity="4.0066424012184143e-01" nType="0">
          <Node pos="l" depth="2" NCoef="0" IVar="-1" Cut="0.0000000000000000e+00" cType="1" res="-1.3173257000744343e-02" rms="4.2497700452804565e-01" purity="2.4159988760948181e-01" nType="-99"/>
          <Node pos="r" depth="2" NCoef="0" IVar="-1" Cut="0.0000000000000000e+00" cType="1" res="-7.4274459620937705e-04" rms="4.9114558100700378e-01" purity="4.1983082890510559e-01" nType="-99"/>
        </Node>
        <Node pos="r" depth="1" NCoef="0" IVar="0" Cut="9.1169605255126953e+00" cType="1" res="5.4796301992610097e-04" rms="4.9196001887321472e-01" purity="5.5295187234878540e-01" nType="0">
          <Node pos="l" depth="2" NCoef="0" IVar="-1" Cut="0.0000000000000000e+00" cType="1" res="-1.2376846279948950e-03" rms="4.9529525637626648e-01" purity="5.3645360469818115e-01" nType="-99"/>
          <Node pos="r" depth="2" NCoef="0" IVar="-1" Cut="0.0000000000000000e+00" cType="1" res="2.9837850015610456e-03" rms="4.8736873269081116e-01" purity="5.7394361495971680e-01" nType="-99"/>
        </Node>
      </Node>
    </BinaryTree>
    <BinaryTree type="DecisionTree" boostWeight="1.0000000000000000e+00" itree="57">
      <Node pos="s" depth="0" NCoef="0" IVar="4" Cut="-8.9020538330078125e-01" cType="1" res="-1.9921781495213509e-03" rms="4.9020364880561829e-01" purity="4.9862715601921082e-01" nType="0">
        <Node pos="l" depth="1" NCoef="0" IVar="-1" Cut="0.0000000000000000e+00" cType="1" res="-6.9140642881393433e-03" rms="4.7754418849945068e-01" purity="4.3997234106063843e-01" nType="-99"/>
        <Node pos="r" depth="1" NCoef="0" IVar="1" Cut="3.0000000000000000e+00" cType="1" res="-1.1827874695882201e-03" rms="1.1852833628654480e-01" purity="5.0092929601669312e-01" nType="0">
          <Node pos="l" depth="2" NCoef="0" IVar="-1" Cut="0.0000000000000000e+00" cType="1" res="-6.7028310149908066e-04" rms="4.9097564816474915e-01" purity="4.9569800496101379e-01" nType="-99"/>
          <Node pos="r" depth="2" NCoef="0" IVar="-1" Cut="0.0000000000000000e+00" cType="1" res="1.0601398535072803e-03" rms="4.8989126086235046e-01" purity="5.1102417707443237e-01" nType="-99"/>
        </Node>
      </Node>
    </BinaryTree>
    <BinaryTree type="DecisionTree" boostWeight="1.0000000000000000e+00" itree="58">
      <Node pos="s" depth="0" NCoef="0" IVar="4" Cut="4.6618714928627014e-02" cType="1" res="-1.9325244938954711e-03" rms="4.8912438750267029e-01" purity="4.9826005101203918e-01" nType="0">
        <Node pos="l" depth="1" NCoef="0" IVar="2" Cut="3.0000000000000000e+00" cType="1" res="-1.7417366325389594e-04" rms="1.0166919976472855e-01" purity="4.8711898922920227e-01" nType="0">
          <Node pos="l" depth="2" NCoef="0" IVar="-1" Cut="0.0000000000000000e+00" cType="1" res="-1.5393622452393174e-03" rms="4.8948928713798523e-01" purity="4.8346072435379028e-01" nType="-99"/>
          <Node pos="r" depth="2" NCoef="0" IVar="-1" Cut="0.0000000000000000e+00" cType="1" res="2.8589281719177961e-03" rms="4.9269226193428040e-01" purity="5.1433259248733521e-01" nType="-99"/>
        </Node>
        <Node pos="r" depth="1" NCoef="0" IVar="4" Cut="7.4510604143142700e-01" cType="1" res="1.0689533315598965e-02" rms="4.8680382966995239e-01" purity="5.2681046724319458e-01" nType="0">
          <Node pos="l" depth="2" NCoef="0" IVar="-1" Cut="0.0000000000000000e+00" cType="1" res="-1.4137644320726395e-03" rms="4.9125272035598755e-01" purity="4.9619239568710327e-01" nType="-99"/>
          <Node pos="r" depth="2" NCoef="0" IVar="-1" Cut="0.0000000000000000e+00" cType="1" res="2.3473552428185940e-03" rms="4.8591899871826172e-01" purity="5.3228658437728882e-01" nType="-99"/>
        </Node>
      </Node>
    </BinaryTree>
    <BinaryTree type="DecisionTree" boostWeight="1.0000000000000000e+00" itree="59">
      <Node pos="s" depth="0" NCoef="0" IVar="2" Cut="2.0000000000000000e+00" cType="1" res="-1.2008070916635916e-04" rms="3.7344027310609818e-02" purity="4.9602964520454407e-01" nType="0">
        <Node pos="l" depth="1" NCoef="0" IVar="1" Cut="5.0000000000000000e+00" cType="1" res="-9.2705845599994063e-04" rms="1.2225039303302765e-01" purity="4.8977574706077576e-01" nType="0">
          <Node pos="l" depth="2" NCoef="0" IVar="-1" Cut="0.0000000000000000e+00" cType="1" res="-1.8395542865619063e-03" rms="4.8816531896591187e-01" purity="4.8738712072372437e-01" nType="-99"/>
          <Node pos="r" depth="2" NCoef="0" IVar="-1" Cut="0.0000000000000000e+00" cType="1" res="3.8021348882466555e-03" rms="4.8687139153480530e-01" purity="5.2877008914947510e-01" nType="-99"/>
        </Node>
        <Node pos="r" depth="1" NCoef="0" IVar="3" Cut="8.9070409536361694e-01" cType="1" res="4.4973869808018208e-03" rms="4.9123311042785645e-01" purity="5.0441890954971313e-01" nType="0">
          <Node pos="l" depth="2" NCoef="0" IVar="-1" Cut="0.0000000000000000e+00" cType="1" res="-2.9150769114494324e-04" rms="4.9474415183067322e-01" purity="4.7763890027999878e-01" nType="-99"/>
          <Node pos="r" depth="2" NCoef="0" IVar="-1" Cut="0.0000000000000000e+00" cType="1" res="7.5447908602654934e-03" rms="4.6866074204444885e-01" purity="6.5998172760009766e-01" nType="-99"/>
        </Node>
      </Node>
    </BinaryTree>
    <BinaryTree type="DecisionTree" boostWeight="1.0000000000000000e+00" itree="60">
      <Node pos="s" depth="0" NCoef="0" IVar="4" Cut="4.7507602721452713e-02" cType="1" res="7.3383876588195562e-04" rms="4.8857924342155457e-01" purity="4.9921181797981262e-01" nType="0">
        <Node pos="l" depth="1" NCoef="0" IVar="3" Cut="-8.9639204740524292e-01" cType="1" res="-4.9655665643513203e-03" rms="4.8967745900154114e-01" purity="4.8755404353141785e-01" nType="0">
          <Node pos="l" depth="2" NCoef="0" IVar="-1" Cut="0.0000000000000000e+00" cType="1" res="-4.6600033529102802e-03" rms="4.5820820331573486e-01" purity="3.0600425601005554e-01" nType="-99"/>
          <Node pos="r" depth="2" NCoef="0" IVar="-1" Cut="0.0000000000000000e+00" cType="1" res="-2.2855545103084296e-04" rms="4.9452540278434753e-01" purity="5.1712143421173096e-01" nType="-99"/>
        </Node>
        <Node pos="r" depth="1" NCoef="0" IVar="3" Cut="-8.9534908533096313e-01" cType="1" res="1.5418714843690395e-02" rms="4.8542997241020203e-01" purity="5.2924877405166626e-01" nType="0">
          <Node pos="l" depth="2" NCoef="0" IVar="-1" Cut="0.0000000000000000e+00" cType="1" res="-7.1721890708431602e-04" rms="4.8276561498641968e-01" purity="3.8987737894058228e-01" nType="-99"/>
          <Node pos="r" depth="2" NCoef="0" IVar="-1" Cut="0.0000000000000000e+00" cType="1" res="3.5704271867871284e-03" rms="4.8618713021278381e-01" purity="5.7902967929840088e-01" nType="-99"/>
        </Node>
      </Node>
    </BinaryTree>
    <BinaryTree type="DecisionTree" boostWeight="1.0000000000000000e+00" itree="61">
      <Node pos="s" depth="0" NCoef="0" IVar="4" Cut="4.7507602721452713e-02" cType="1" res="9.0251950314268470e-04" rms="4.8997345566749573e-01" purity="5.0047260522842407e-01" nType="0">
        <Node pos="l" depth="1" NCoef="0" IVar="3" Cut="8.0105561017990112e-01" cType="1" res="-2.7868056204169989e-03" rms="4.9145001173019409e-01" purity="4.9006229639053345e-01" nType="0">
          <Node pos="l" depth="2" NCoef="0" IVar="-1" Cut="0.0000000000000000e+00" cType="1" res="2.4022946308832616e-04" rms="4.9118354916572571e-01" purity="4.4717299938201904e-01" nType="-99"/>
          <Node pos="r" depth="2" NCoef="0" IVar="-1" Cut="0.0000000000000000e+00" cType="1" res="-1.6852250555530190e-03" rms="4.9182054400444031e-01" purity="5.6462913751602173e-01" nType="-99"/>
        </Node>
        <Node pos="r" depth="1" NCoef="0" IVar="0" Cut="9.0698137283325195e+00" cType="1" res="1.0556753724813461e-02" rms="4.8595580458641052e-01" purity="5.2771443128585815e-01" nType="0">
          <Node pos="l" depth="2" NCoef="0" IVar="-1" Cut="0.0000000000000000e+00" cType="1" res="-2.5200948584824800e-04" rms="4.8988351225852966e-01" purity="5.1699584722518921e-01" nType="-99"/>
          <Node pos="r" depth="2" NCoef="0" IVar="-1" Cut="0.0000000000000000e+00" cType="1" res="5.1807239651679993e-03" rms="4.8161336779594421e-01" purity="5.3857135772705078e-01" nType="-99"/>
        </Node>
      </Node>
    </BinaryTree>
    <BinaryTree type="DecisionTree" boostWeight="1.0000000000000000e+00" itree="62">
      <Node pos="s" depth="0" NCoef="0" IVar="5" Cut="7.9310125112533569e-01" cType="1" res="3.5396066959947348e-03" rms="4.8866030573844910e-01" purity="5.0365549325942993e-01" nType="0">
        <Node pos="l" depth="1" NCoef="0" IVar="3" Cut="-8.9649742841720581e-01" cType="1" res="2.1094279363751411e-03" rms="4.8898813128471375e-01" purity="5.0201195478439331e-01" nType="0">
          <Node pos="l" depth="2" NCoef="0" IVar="-1" Cut="0.0000000000000000e+00" cType="1" res="-2.4731997400522232e-03" rms="4.6746644377708435e-01" purity="3.4104225039482117e-01" nType="-99"/>
          <Node pos="r" depth="2" NCoef="0" IVar="-1" Cut="0.0000000000000000e+00" cType="1" res="7.9357466893270612e-04" rms="4.9284473061561584e-01" purity="5.3209185600280762e-01" nType="-99"/>
        </Node>
        <Node pos="r" depth="1" NCoef="0" IVar="1" Cut="4.0000000000000000e+00" cType="1" res="1.0524927638471127e-02" rms="2.4679449200630188e-01" purity="5.3263109922409058e-01" nType="0">
          <Node pos="l" depth="2" NCoef="0" IVar="-1" Cut="0.0000000000000000e+00" cType="1" res="6.2856730073690414e-03" rms="4.7945994138717651e-01" purity="5.4257637262344360e-01" nType="-99"/>
          <Node pos="r" depth="2" NCoef="0" IVar="-1" Cut="0.0000000000000000e+00" cType="1" res="3.2844119705259800e-03" rms="4.8467615246772766e-01" purity="5.2241724729537964e-01" nType="-99"/>
        </Node>
      </Node>
    </BinaryTree>
    <BinaryTree type="DecisionTree" boostWeight="1.0000000000000000e+00" itree="63">
      <Node pos="s" depth="0" NCoef="0" IVar="1" Cut="5.0000000000000000e+00" cType="1" res="1.6906096134334803e-03" rms="1.8526034057140350e-01" purity="5.0108808279037476e-01" nType="0">
        <Node pos="l" depth="1" NCoef="0" IVar="1" Cut="3.0000000000000000e+00" cType="1" res="-1.9285627786302939e-05" rms="3.1839467119425535e-03" purity="4.9918955564498901e-01" nType="0">
          <Node pos="l" depth="2" NCoef="0" IVar="-1" Cut="0.0000000000000000e+00" cType="1" res="4.6378400293178856e-04" rms="4.9019128084182739e-01" purity="5.0167870521545410e-01" nType="-99"/>
          <Node pos="r" depth="2" NCoef="0" IVar="-1" Cut="0.0000000000000000e+00" cType="1" res="-1.4605142641812563e-03" rms="4.8919561505317688e-01" purity="4.9386590719223022e-01" nType="-99"/>
        </Node>
        <Node pos="r" depth="1" NCoef="0" IVar="-1" Cut="0.0000000000000000e+00" cType="1" res="5.2799200639128685e-03" rms="4.8903289437294006e-01" purity="5.3888785839080811e-01" nType="-99"/>
      </Node>
    </BinaryTree>
    <BinaryTree type="DecisionTree" boostWeight="1.0000000000000000e+00" itree="64">
      <Node pos="s" depth="0" NCoef="0" IVar="3" Cut="-8.0189293622970581e-01" cType="1" res="7.2927732253447175e-04" rms="4.8903265595436096e-01" purity="5.0179362297058105e-01" nType="0">
        <Node pos="l" depth="1" NCoef="0" IVar="3" Cut="-9.4574081897735596e-01" cType="1" res="-6.6307461820542812e-03" rms="4.8511144518852234e-01" purity="4.0387213230133057e-01" nType="0">
          <Node pos="l" depth="2" NCoef="0" IVar="-1" Cut="0.0000000000000000e+00" cType="1" res="-8.3298515528440475e-03" rms="4.3799933791160583e-01" purity="2.6683935523033142e-01" nType="-99"/>
          <Node pos="r" depth="2" NCoef="0" IVar="-1" Cut="0.0000000000000000e+00" cType="1" res="-9.9165539722889662e-05" rms="4.9289652705192566e-01" purity="4.2860293388366699e-01" nType="-99"/>
        </Node>
        <Node pos="r" depth="1" NCoef="0" IVar="5" Cut="-7.8482323884963989e-01" cType="1" res="4.9889092333614826e-03" rms="4.9123743176460266e-01" purity="5.5846595764160156e-01" nType="0">
          <Node pos="l" depth="2" NCoef="0" IVar="-1" Cut="0.0000000000000000e+00" cType="1" res="-4.0898150764405727e-03" rms="4.9241659045219421e-01" purity="5.7445561885833740e-01" nType="-99"/>
          <Node pos="r" depth="2" NCoef="0" IVar="-1" Cut="0.0000000000000000e+00" cType="1" res="1.0331991361454129e-03" rms="4.9112275242805481e-01" purity="5.5760747194290161e-01" nType="-99"/>
        </Node>
      </Node>
    </BinaryTree>
    <BinaryTree type="DecisionTree" boostWeight="1.0000000000000000e+00" itree="65">
      <Node pos="s" depth="0" NCoef="0" IVar="1" Cut="5.0000000000000000e+00" cType="1" res="1.2998473830521107e-03" rms="1.8504233658313751e-01" purity="4.9926128983497620e-01" nType="0">
        <Node pos="l" depth="1" NCoef="0" IVar="4" Cut="-8.9020538330078125e-01" cType="1" res="-2.2623455151915550e-03" rms="4.8872628808021545e-01" purity="4.9702730774879456e-01" nType="0">
          <Node pos="l" depth="2" NCoef="0" IVar="-1" Cut="0.0000000000000000e+00" cType="1" res="-7.1434928104281425e-03" rms="4.7910168766975403e-01" purity="4.3310227990150452e-01" nType="-99"/>
          <Node pos="r" depth="2" NCoef="0" IVar="-1" Cut="0.0000000000000000e+00" cType="1" res="-1.5396569506265223e-04" rms="4.8900094628334045e-01" purity="4.9921247363090515e-01" nType="-99"/>
        </Node>
        <Node pos="r" depth="1" NCoef="0" IVar="-1" Cut="0.0000000000000000e+00" cType="1" res="5.8547020889818668e-03" rms="4.9274301528930664e-01" purity="5.4423087835311890e-01" nType="-99"/>
      </Node>
    </BinaryTree>
    <BinaryTree type="DecisionTree" boostWeight="1.0000000000000000e+00" itree="66">
      <Node pos="s" depth="0" NCoef="0" IVar="4" Cut="-8.9138317108154297e-01" cType="1" res="2.0780684426426888e-03" rms="4.9010223150253296e-01" purity="5.0302654504776001e-01" nType="0">
        <Node pos="l" depth="1" NCoef="0" IVar="-1" Cut="0.0000000000000000e+00" cType="1" res="-5.0877216272056103e-03" rms="4.8047313094139099e-01" purity="4.5144549012184143e-01" nType="-99"/>
        <Node pos="r" depth="1" NCoef="0" IVar="3" Cut="8.9724975824356079e-01" cType="1" res="3.2081829849630594e-03" rms="4.9043878912925720e-01" purity="5.0503599643707275e-01" nType="0">
          <Node pos="l" depth="2" NCoef="0" IVar="-1" Cut="0.0000000000000000e+00" cType="1" res="1.9247097952757031e-04" rms="4.9429935216903687e-01" purity="4.7624060511589050e-01" nType="-99"/>
          <Node pos="r" depth="2" NCoef="0" IVar="-1" Cut="0.0000000000000000e+00" cType="1" res="2.5329906493425369e-03" rms="4.6922317147254944e-01" purity="6.5829527378082275e-01" nType="-99"/>
        </Node>
      </Node>
    </BinaryTree>
    <BinaryTree type="DecisionTree" boostWeight="1.0000000000000000e+00" itree="67">
      <Node pos="s" depth="0" NCoef="0" IVar="3" Cut="8.9729851484298706e-01" cType="1" res="6.9481070568144787e-06" rms="4.8828458786010742e-01" purity="4.9995693564414978e-01" nType="0">
        <Node pos="l" depth="1" NCoef="0" IVar="5" Cut="7.9137295484542847e-01" cType="1" res="-4.1111409664154053e-03" rms="4.9238163232803345e-01" purity="4.6748602390289307e-01" nType="0">
          <Node pos="l" depth="2" NCoef="0" IVar="-1" Cut="0.0000000000000000e+00" cType="1" res="-8.4938335930928588e-04" rms="4.9230021238327026e-01" purity="4.6793267130851746e-01" nType="-99"/>
          <Node pos="r" depth="2" NCoef="0" IVar="-1" Cut="0.0000000000000000e+00" cType="1" res="4.5281234197318554e-03" rms="4.9311825633049011e-01" purity="4.5763149857521057e-01" nType="-99"/>
        </Node>
        <Node pos="r" depth="1" NCoef="0" IVar="5" Cut="-6.9326204061508179e-01" cType="1" res="2.0102735608816147e-02" rms="4.6725648641586304e-01" purity="6.5841138362884521e-01" nType="0">
          <Node pos="l" depth="2" NCoef="0" IVar="-1" Cut="0.0000000000000000e+00" cType="1" res="-4.3713650666177273e-03" rms="4.8445245623588562e-01" purity="6.0193961858749390e-01" nType="-99"/>
          <Node pos="r" depth="2" NCoef="0" IVar="-1" Cut="0.0000000000000000e+00" cType="1" res="5.8175427839159966e-03" rms="4.6189507842063904e-01" purity="6.7336052656173706e-01" nType="-99"/>
        </Node>
      </Node>
    </BinaryTree>
    <BinaryTree type="DecisionTree" boostWeight="1.0000000000000000e+00" itree="68">
      <Node pos="s" depth="0" NCoef="0" IVar="0" Cut="8.5724048614501953e+00" cType="1" res="-1.3995761983096600e-03" rms="4.8963847756385803e-01" purity="4.9899348616600037e-01" nType="0">
        <Node pos="l" depth="1" NCoef="0" IVar="3" Cut="7.8832823038101196e-01" cType="1" res="1.2088962830603123e-02" rms="4.9775022268295288e-01" purity="5.1402944326400757e-01" nType="0">
          <Node pos="l" depth="2" NCoef="0" IVar="-1" Cut="0.0000000000000000e+00" cType="1" res="3.1600804068148136e-03" rms="4.9910408258438110e-01" purity="4.9349069595336914e-01" nType="-99"/>
          <Node pos="r" depth="2" NCoef="0" IVar="-1" Cut="0.0000000000000000e+00" cType="1" res="-1.9691388588398695e-03" rms="4.9394449591636658e-01" purity="5.4869836568832397e-01" nType="-99"/>
        </Node>
        <Node pos="r" depth="1" NCoef="0" IVar="3" Cut="8.9724975824356079e-01" cType="1" res="-4.2697419412434101e-03" rms="4.8784688115119934e-01" purity="4.9579396843910217e-01" nType="0">
          <Node pos="l" depth="2" NCoef="0" IVar="-1" Cut="0.0000000000000000e+00" cType="1" res="-1.2349762255325913e-03" rms="4.9191346764564514e-01" purity="4.6060612797737122e-01" nType="-99"/>
          <Node pos="r" depth="2" NCoef="0" IVar="-1" Cut="0.0000000000000000e+00" cType="1" res="1.7168470658361912e-03" rms="4.6916949748992920e-01" purity="6.5189784765243530e-01" nType="-99"/>
        </Node>
      </Node>
    </BinaryTree>
    <BinaryTree type="DecisionTree" boostWeight="1.0000000000000000e+00" itree="69">
      <Node pos="s" depth="0" NCoef="0" IVar="5" Cut="-6.9014042615890503e-01" cType="1" res="-1.0032370919361711e-03" rms="4.8930820822715759e-01" purity="4.9927091598510742e-01" nType="0">
        <Node pos="l" depth="1" NCoef="0" IVar="4" Cut="-7.0351266860961914e-01" cType="1" res="-1.7287993803620338e-02" rms="4.8709881305694580e-01" purity="4.8066565394401550e-01" nType="0">
          <Node pos="l" depth="2" NCoef="0" IVar="-1" Cut="0.0000000000000000e+00" cType="1" res="-5.4370854049921036e-03" rms="4.8766180872917175e-01" purity="4.3913149833679199e-01" nType="-99"/>
          <Node pos="r" depth="2" NCoef="0" IVar="-1" Cut="0.0000000000000000e+00" cType="1" res="-7.3628459358587861e-04" rms="4.8625183105468750e-01" purity="5.1613998413085938e-01" nType="-99"/>
        </Node>
        <Node pos="r" depth="1" NCoef="0" IVar="5" Cut="7.4562942981719971e-01" cType="1" res="1.3081885408610106e-03" rms="4.8957708477973938e-01" purity="5.0191175937652588e-01" nType="0">
          <Node pos="l" depth="2" NCoef="0" IVar="-1" Cut="0.0000000000000000e+00" cType="1" res="5.5612757569178939e-04" rms="4.9040466547012329e-01" purity="5.0352472066879272e-01" nType="-99"/>
          <Node pos="r" depth="2" NCoef="0" IVar="-1" Cut="0.0000000000000000e+00" cType="1" res="-2.8569975402206182e-03" rms="4.8236405849456787e-01" purity="4.8872098326683044e-01" nType="-99"/>
        </Node>
      </Node>
    </BinaryTree>
    <BinaryTree type="DecisionTree" boostWeight="1.0000000000000000e+00" itree="70">
      <Node pos="s" depth="0" NCoef="0" IVar="0" Cut="8.2430858612060547e+00" cType="1" res="3.2032821327447891e-03" rms="4.8856559395790100e-01" purity="5.0406938791275024e-01" nType="0">
        <Node pos="l" depth="1" NCoef="0" IVar="-1" Cut="0.0000000000000000e+00" cType="1" res="-1.6215580981224775e-03" rms="4.9763509631156921e-01" purity="4.8583817481994629e-01" nType="-99"/>
        <Node pos="r" depth="1" NCoef="0" IVar="0" Cut="8.9930057525634766e+00" cType="1" res="4.6060360036790371e-03" rms="4.8788890242576599e-01" purity="5.0535529851913452e-01" nType="0">
          <Node pos="l" depth="2" NCoef="0" IVar="-1" Cut="0.0000000000000000e+00" cType="1" res="1.5401331475004554e-03" rms="4.9293771386146545e-01" purity="5.1473009586334229e-01" nType="-99"/>
          <Node pos="r" depth="2" NCoef="0" IVar="-1" Cut="0.0000000000000000e+00" cType="1" res="-1.0193634807365015e-04" rms="4.8441043496131897e-01" purity="4.9907505512237549e-01" nType="-99"/>
        </Node>
      </Node>
    </BinaryTree>
    <BinaryTree type="DecisionTree" boostWeight="1.0000000000000000e+00" itree="71">
      <Node pos="s" depth="0" NCoef="0" IVar="0" Cut="8.7359209060668945e+00" cType="1" res="-2.7147429063916206e-03" rms="4.9008107185363770e-01" purity="4.9725008010864258e-01" nType="0">
        <Node pos="l" depth="1" NCoef="0" IVar="3" Cut="-6.9834601879119873e-01" cType="1" res="6.1466228216886520e-03" rms="4.9571573734283447e-01" purity="5.0908893346786499e-01" nType="0">
          <Node pos="l" depth="2" NCoef="0" IVar="-1" Cut="0.0000000000000000e+00" cType="1" res="2.4584836792200804e-03" rms="4.9588152766227722e-01" purity="4.7050321102142334e-01" nType="-99"/>
          <Node pos="r" depth="2" NCoef="0" IVar="-1" Cut="0.0000000000000000e+00" cType="1" res="-1.1012913892045617e-03" rms="4.9500989913940430e-01" purity="5.4773312807083130e-01" nType="-99"/>
        </Node>
        <Node pos="r" depth="1" NCoef="0" IVar="0" Cut="8.9888076782226562e+00" cType="1" res="-5.7780887000262737e-03" rms="4.8808062076568604e-01" purity="4.9315738677978516e-01" nType="0">
          <Node pos="l" depth="2" NCoef="0" IVar="-1" Cut="0.0000000000000000e+00" cType="1" res="-2.4513704702258110e-03" rms="4.9352857470512390e-01" purity="4.8303446173667908e-01" nType="-99"/>
          <Node pos="r" depth="2" NCoef="0" IVar="-1" Cut="0.0000000000000000e+00" cType="1" res="-4.2451743502169847e-04" rms="4.8621112108230591e-01" purity="4.9649861454963684e-01" nType="-99"/>
        </Node>
      </Node>
    </BinaryTree>
    <BinaryTree type="DecisionTree" boostWeight="1.0000000000000000e+00" itree="72">
      <Node pos="s" depth="0" NCoef="0" IVar="4" Cut="4.8629306256771088e-02" cType="1" res="-4.2642187327146530e-04" rms="4.8993185162544250e-01" purity="4.9987557530403137e-01" nType="0">
        <Node pos="l" depth="1" NCoef="0" IVar="5" Cut="-7.6939135789871216e-01" cType="1" res="-4.1460748761892319e-03" rms="4.9114334583282471e-01" purity="4.8907834291458130e-01" nType="0">
          <Node pos="l" depth="2" NCoef="0" IVar="-1" Cut="0.0000000000000000e+00" cType="1" res="-8.6679086089134216e-03" rms="4.8506554961204529e-01" purity="4.2260617017745972e-01" nType="-99"/>
          <Node pos="r" depth="2" NCoef="0" IVar="-1" Cut="0.0000000000000000e+00" cType="1" res="-3.0989217339083552e-04" rms="4.9132412672042847e-01" purity="4.9222376942634583e-01" nType="-99"/>
        </Node>
        <Node pos="r" depth="1" NCoef="0" IVar="4" Cut="7.4537354707717896e-01" cType="1" res="9.0350732207298279e-03" rms="4.8670855164527893e-01" purity="5.2734005451202393e-01" nType="0">
          <Node pos="l" depth="2" NCoef="0" IVar="-1" Cut="0.0000000000000000e+00" cType="1" res="-1.4465000713244081e-03" rms="4.9404954910278320e-01" purity="4.9801337718963623e-01" nType="-99"/>
          <Node pos="r" depth="2" NCoef="0" IVar="-1" Cut="0.0000000000000000e+00" cType="1" res="1.9874309655278921e-03" rms="4.8529329895973206e-01" purity="5.3265553712844849e-01" nType="-99"/>
        </Node>
      </Node>
    </BinaryTree>
    <BinaryTree type="DecisionTree" boostWeight="1.0000000000000000e+00" itree="73">
      <Node pos="s" depth="0" NCoef="0" IVar="5" Cut="-6.9014042615890503e-01" cType="1" res="-1.1726501397788525e-03" rms="4.8882108926773071e-01" purity="4.9897578358650208e-01" nType="0">
        <Node pos="l" depth="1" NCoef="0" IVar="4" Cut="-7.0149362087249756e-01" cType="1" res="-2.0732184872031212e-02" rms="4.8539686203002930e-01" purity="4.7948297858238220e-01" nType="0">
          <Node pos="l" depth="2" NCoef="0" IVar="-1" Cut="0.0000000000000000e+00" cType="1" res="-5.6284815073013306e-03" rms="4.8462548851966858e-01" purity="4.3619990348815918e-01" nType="-99"/>
          <Node pos="r" depth="2" NCoef="0" IVar="-1" Cut="0.0000000000000000e+00" cType="1" res="-1.5172614948824048e-03" rms="4.8577249050140381e-01" purity="5.1675575971603394e-01" nType="-99"/>
        </Node>
        <Node pos="r" depth="1" NCoef="0" IVar="1" Cut="5.0000000000000000e+00" cType="1" res="2.7300403453409672e-03" rms="2.9738610982894897e-01" purity="5.0176805257797241e-01" nType="0">
          <Node pos="l" depth="2" NCoef="0" IVar="-1" Cut="0.0000000000000000e+00" cType="1" res="6.2863226048648357e-05" rms="4.8933780193328857e-01" purity="5.0013995170593262e-01" nType="-99"/>
          <Node pos="r" depth="2" NCoef="0" IVar="-1" Cut="0.0000000000000000e+00" cType="1" res="5.5020614527165890e-03" rms="4.8564010858535767e-01" purity="5.4508537054061890e-01" nType="-99"/>
        </Node>
      </Node>
    </BinaryTree>
    <BinaryTree type="DecisionTree" boostWeight="1.0000000000000000e+00" itree="74">
      <Node pos="s" depth="0" NCoef="0" IVar="5" Cut="4.9690742045640945e-02" cType="1" res="5.6370822712779045e-03" rms="4.8898288607597351e-01" purity="5.0577300786972046e-01" nType="0">
        <Node pos="l" depth="1" NCoef="0" IVar="4" Cut="-7.0385897159576416e-01" cType="1" res="2.0285299979150295e-03" rms="4.8956215381622314e-01" purity="5.0188213586807251e-01" nType="0">
          <Node pos="l" depth="2" NCoef="0" IVar="-1" Cut="0.0000000000000000e+00" cType="1" res="-1.5139454044401646e-03" rms="4.8766019940376282e-01" purity="4.6562626957893372e-01" nType="-99"/>
          <Node pos="r" depth="2" NCoef="0" IVar="-1" Cut="0.0000000000000000e+00" cType="1" res="8.7147555314004421e-04" rms="4.9008762836456299e-01" purity="5.1294052600860596e-01" nType="-99"/>
        </Node>
        <Node pos="r" depth="1" NCoef="0" IVar="3" Cut="-8.9522504806518555e-01" cType="1" res="3.0347583815455437e-02" rms="4.8427563905715942e-01" purity="5.3241688013076782e-01" nType="0">
          <Node pos="l" depth="2" NCoef="0" IVar="-1" Cut="0.0000000000000000e+00" cType="1" res="1.0187366046011448e-02" rms="4.8669511079788208e-01" purity="4.2974427342414856e-01" nType="-99"/>
          <Node pos="r" depth="2" NCoef="0" IVar="-1" Cut="0.0000000000000000e+00" cType="1" res="2.8772675432264805e-03" rms="4.8279646039009094e-01" purity="5.7631349563598633e-01" nType="-99"/>
        </Node>
      </Node>
    </BinaryTree>
    <BinaryTree type="DecisionTree" boostWeight="1.0000000000000000e+00" itree="75">
      <Node pos="s" depth="0" NCoef="0" IVar="0" Cut="8.2616081237792969e+00" cType="1" res="-1.3041221536695957e-03" rms="4.8906734585762024e-01" purity="4.9854713678359985e-01" nType="0">
        <Node pos="l" depth="1" NCoef="0" IVar="-1" Cut="0.0000000000000000e+00" cType="1" res="-3.8118513766676188e-03" rms="4.9727496504783630e-01" purity="4.6323287487030029e-01" nType="-99"/>
        <Node pos="r" depth="1" NCoef="0" IVar="1" Cut="3.0000000000000000e+00" cType="1" res="1.8270537257194519e-03" rms="4.7960528731346130e-01" purity="5.0125330686569214e-01" nType="0">
          <Node pos="l" depth="2" NCoef="0" IVar="-1" Cut="0.0000000000000000e+00" cType="1" res="-5.3336005657911301e-04" rms="4.8775863647460938e-01" purity="4.9511554837226868e-01" nType="-99"/>
          <Node pos="r" depth="2" NCoef="0" IVar="-1" Cut="0.0000000000000000e+00" cType="1" res="1.6546052647754550e-03" rms="4.8922431468963623e-01" purity="5.1244091987609863e-01" nType="-99"/>
        </Node>
      </Node>
    </BinaryTree>
    <BinaryTree type="DecisionTree" boostWeight="1.0000000000000000e+00" itree="76">
      <Node pos="s" depth="0" NCoef="0" IVar="0" Cut="8.6081895828247070e+00" cType="1" res="-1.3798897853121161e-03" rms="4.8861235380172729e-01" purity="4.9942287802696228e-01" nType="0">
        <Node pos="l" depth="1" NCoef="0" IVar="0" Cut="8.1514530181884766e+00" cType="1" res="1.1085030622780323e-02" rms="4.9592775106430054e-01" purity="5.1376718282699585e-01" nType="0">
          <Node pos="l" depth="2" NCoef="0" IVar="-1" Cut="0.0000000000000000e+00" cType="1" res="-2.1892089862376451e-03" rms="5.0062054395675659e-01" purity="4.7508889436721802e-01" nType="-99"/>
          <Node pos="r" depth="2" NCoef="0" IVar="-1" Cut="0.0000000000000000e+00" cType="1" res="2.3491166066378355e-03" rms="4.9383449554443359e-01" purity="5.2673822641372681e-01" nType="-99"/>
        </Node>
        <Node pos="r" depth="1" NCoef="0" IVar="3" Cut="8.9726012945175171e-01" cType="1" res="-4.4501302763819695e-03" rms="4.8674464225769043e-01" purity="4.9588969349861145e-01" nType="0">
          <Node pos="l" depth="2" NCoef="0" IVar="-1" Cut="0.0000000000000000e+00" cType="1" res="-1.5186757082119584e-03" rms="4.9081444740295410e-01" purity="4.5857256650924683e-01" nType="-99"/>
          <Node pos="r" depth="2" NCoef="0" IVar="-1" Cut="0.0000000000000000e+00" cType="1" res="2.7251041028648615e-03" rms="4.6830254793167114e-01" purity="6.5744364261627197e-01" nType="-99"/>
        </Node>
      </Node>
    </BinaryTree>
    <BinaryTree type="DecisionTree" boostWeight="1.0000000000000000e+00" itree="77">
      <Node pos="s" depth="0" NCoef="0" IVar="4" Cut="7.9631793498992920e-01" cType="1" res="-2.0747082307934761e-03" rms="4.8873081803321838e-01" purity="4.9771887063980103e-01" nType="0">
        <Node pos="l" depth="1" NCoef="0" IVar="3" Cut="8.9724975824356079e-01" cType="1" res="-5.2307834848761559e-03" rms="4.8987734317779541e-01" purity="4.8904788494110107e-01" nType="0">
          <Node pos="l" depth="2" NCoef="0" IVar="-1" Cut="0.0000000000000000e+00" cType="1" res="-1.1510745389387012e-03" rms="4.9260708689689636e-01" purity="4.6248891949653625e-01" nType="-99"/>
          <Node pos="r" depth="2" NCoef="0" IVar="-1" Cut="0.0000000000000000e+00" cType="1" res="1.2671751901507378e-03" rms="4.7461822628974915e-01" purity="6.3302141427993774e-01" nType="-99"/>
        </Node>
        <Node pos="r" depth="1" NCoef="0" IVar="4" Cut="8.1416702270507812e-01" cType="1" res="1.4676722697913647e-02" rms="4.8225420713424683e-01" purity="5.4374170303344727e-01" nType="0">
          <Node pos="l" depth="2" NCoef="0" IVar="-1" Cut="0.0000000000000000e+00" cType="1" res="-3.5801064223051071e-03" rms="4.8478484153747559e-01" purity="5.0671559572219849e-01" nType="-99"/>
          <Node pos="r" depth="2" NCoef="0" IVar="-1" Cut="0.0000000000000000e+00" cType="1" res="3.7688813172280788e-03" rms="4.8134082555770874e-01" purity="5.5172431468963623e-01" nType="-99"/>
        </Node>
      </Node>
    </BinaryTree>
    <BinaryTree type="DecisionTree" boostWeight="1.0000000000000000e+00" itree="78">
      <Node pos="s" depth="0" NCoef="0" IVar="4" Cut="-8.9020538330078125e-01" cType="1" res="3.2961356919258833e-03" rms="4.8912820219993591e-01" purity="5.0351077318191528e-01" nType="0">
        <Node pos="l" depth="1" NCoef="0" IVar="-1" Cut="0.0000000000000000e+00" cType="1" res="-4.5112161897122860e-03" rms="4.7199404239654541e-01" purity="4.4474101066589355e-01" nType="-99"/>
        <Node pos="r" depth="1" NCoef="0" IVar="0" Cut="8.7015762329101562e+00" cType="1" res="4.4045522809028625e-03" rms="4.8977294564247131e-01" purity="5.0587642192840576e-01" nType="0">
          <Node pos="l" depth="2" NCoef="0" IVar="-1" Cut="0.0000000000000000e+00" cType="1" res="1.4479079982265830e-03" rms="4.9606439471244812e-01" purity="5.1727551221847534e-01" nType="-99"/>
          <Node pos="r" depth="2" NCoef="0" IVar="-1" Cut="0.0000000000000000e+00" cType="1" res="2.5442356127314270e-04" rms="4.8760911822319031e-01" purity="5.0205749273300171e-01" nType="-99"/>
        </Node>
      </Node>
    </BinaryTree>
    <BinaryTree type="DecisionTree" boostWeight="1.0000000000000000e+00" itree="79">
      <Node pos="s" depth="0" NCoef="0" IVar="3" Cut="-8.0211895704269409e-01" cType="1" res="-3.3276127651333809e-03" rms="4.8799881339073181e-01" purity="4.9669671058654785e-01" nType="0">
        <Node pos="l" depth="1" NCoef="0" IVar="5" Cut="7.9175317287445068e-01" cType="1" res="-1.3845857232809067e-02" rms="4.8295333981513977e-01" purity="3.9555850625038147e-01" nType="0">
          <Node pos="l" depth="2" NCoef="0" IVar="-1" Cut="0.0000000000000000e+00" cType="1" res="-2.8784978203475475e-03" rms="4.8220109939575195e-01" purity="3.9186766743659973e-01" nType="-99"/>
          <Node pos="r" depth="2" NCoef="0" IVar="-1" Cut="0.0000000000000000e+00" cType="1" res="6.0159885324537754e-03" rms="4.8930206894874573e-01" purity="4.4090485572814941e-01" nType="-99"/>
        </Node>
        <Node pos="r" depth="1" NCoef="0" IVar="1" Cut="2.0000000000000000e+00" cType="1" res="-1.4770370908081532e-03" rms="1.6747818887233734e-01" purity="5.5629897117614746e-01" nType="0">
          <Node pos="l" depth="2" NCoef="0" IVar="-1" Cut="0.0000000000000000e+00" cType="1" res="2.4101689923554659e-03" rms="4.9221482872962952e-01" purity="5.5666428804397583e-01" nType="-99"/>
          <Node pos="r" depth="2" NCoef="0" IVar="-1" Cut="0.0000000000000000e+00" cType="1" res="-4.6519009629264474e-04" rms="4.9011358618736267e-01" purity="5.5613487958908081e-01" nType="-99"/>
        </Node>
      </Node>
    </BinaryTree>
    <BinaryTree type="DecisionTree" boostWeight="1.0000000000000000e+00" itree="80">
      <Node pos="s" depth="0" NCoef="0" IVar="0" Cut="9.2769765853881836e+00" cType="1" res="-2.9553154017776251e-03" rms="4.8926281929016113e-01" purity="4.9705392122268677e-01" nType="0">
        <Node pos="l" depth="1" NCoef="0" IVar="3" Cut="7.9939788579940796e-01" cType="1" res="4.5463477727025747e-04" rms="4.9306708574295044e-01" purity="5.0155806541442871e-01" nType="0">
          <Node pos="l" depth="2" NCoef="0" IVar="-1" Cut="0.0000000000000000e+00" cType="1" res="1.1358202900737524e-03" rms="4.9419981241226196e-01" purity="4.5986294746398926e-01" nType="-99"/>
          <Node pos="r" depth="2" NCoef="0" IVar="-1" Cut="0.0000000000000000e+00" cType="1" res="-1.8417540704831481e-03" rms="4.9086275696754456e-01" purity="5.7155537605285645e-01" nType="-99"/>
        </Node>
        <Node pos="r" depth="1" NCoef="0" IVar="3" Cut="-8.0192226171493530e-01" cType="1" res="-1.0126484557986259e-02" rms="4.8108538985252380e-01" purity="4.8758143186569214e-01" nType="0">
          <Node pos="l" depth="2" NCoef="0" IVar="-1" Cut="0.0000000000000000e+00" cType="1" res="-7.9742893576622009e-03" rms="4.7056686878204346e-01" purity="3.5772454738616943e-01" nType="-99"/>
          <Node pos="r" depth="2" NCoef="0" IVar="-1" Cut="0.0000000000000000e+00" cType="1" res="7.3837215313687921e-04" rms="4.8699438571929932e-01" purity="5.6775027513504028e-01" nType="-99"/>
        </Node>
      </Node>
    </BinaryTree>
    <BinaryTree type="DecisionTree" boostWeight="1.0000000000000000e+00" itree="81">
      <Node pos="s" depth="0" NCoef="0" IVar="4" Cut="-8.9281696081161499e-01" cType="1" res="2.6789345429278910e-04" rms="4.8946574330329895e-01" purity="4.9995329976081848e-01" nType="0">
        <Node pos="l" depth="1" NCoef="0" IVar="-1" Cut="0.0000000000000000e+00" cType="1" res="-4.3904939666390419e-03" rms="4.7971549630165100e-01" purity="4.3989253044128418e-01" nType="-99"/>
        <Node pos="r" depth="1" NCoef="0" IVar="5" Cut="7.9365122318267822e-01" cType="1" res="1.1485370341688395e-03" rms="4.8980629444122314e-01" purity="5.0220912694931030e-01" nType="0">
          <Node pos="l" depth="2" NCoef="0" IVar="-1" Cut="0.0000000000000000e+00" cType="1" res="2.9564609576482326e-05" rms="4.8987647891044617e-01" purity="5.0024044513702393e-01" nType="-99"/>
          <Node pos="r" depth="2" NCoef="0" IVar="-1" Cut="0.0000000000000000e+00" cType="1" res="3.7205310072749853e-03" rms="4.8780477046966553e-01" purity="5.4511016607284546e-01" nType="-99"/>
        </Node>
      </Node>
    </BinaryTree>
    <BinaryTree type="DecisionTree" boostWeight="1.0000000000000000e+00" itree="82">
      <Node pos="s" depth="0" NCoef="0" IVar="1" Cut="2.0000000000000000e+00" cType="1" res="1.3594368938356638e-03" rms="3.4410828351974487e-01" purity="5.0122684240341187e-01" nType="0">
        <Node pos="l" depth="1" NCoef="0" IVar="0" Cut="9.1018838882446289e+00" cType="1" res="1.4472589828073978e-02" rms="4.9024790525436401e-01" purity="5.1352250576019287e-01" nType="0">
          <Node pos="l" depth="2" NCoef="0" IVar="-1" Cut="0.0000000000000000e+00" cType="1" res="3.2150377519428730e-03" rms="4.9533048272132874e-01" purity="5.2583229541778564e-01" nType="-99"/>
          <Node pos="r" depth="2" NCoef="0" IVar="-1" Cut="0.0000000000000000e+00" cType="1" res="8.8232154666911811e-05" rms="4.8377940058708191e-01" purity="4.9893397092819214e-01" nType="-99"/>
        </Node>
        <Node pos="r" depth="1" NCoef="0" IVar="3" Cut="8.0286270380020142e-01" cType="1" res="-3.4033798146992922e-03" rms="4.8772940039634705e-01" purity="4.9605286121368408e-01" nType="0">
          <Node pos="l" depth="2" NCoef="0" IVar="-1" Cut="0.0000000000000000e+00" cType="1" res="-1.2444466119632125e-03" rms="4.8942878842353821e-01" purity="4.3106478452682495e-01" nType="-99"/>
          <Node pos="r" depth="2" NCoef="0" IVar="-1" Cut="0.0000000000000000e+00" cType="1" res="6.1710155569016933e-04" rms="4.8501038551330566e-01" purity="5.9629762172698975e-01" nType="-99"/>
        </Node>
      </Node>
    </BinaryTree>
    <BinaryTree type="DecisionTree" boostWeight="1.0000000000000000e+00" itree="83">
      <Node pos="s" depth="0" NCoef="0" IVar="0" Cut="8.1768674850463867e+00" cType="1" res="-1.1450713500380516e-03" rms="4.8931556940078735e-01" purity="4.9850550293922424e-01" nType="0">
        <Node pos="l" depth="1" NCoef="0" IVar="-1" Cut="0.0000000000000000e+00" cType="1" res="-3.2343319617211819e-03" rms="4.9900314211845398e-01" purity="4.6256050467491150e-01" nType="-99"/>
        <Node pos="r" depth="1" NCoef="0" IVar="0" Cut="8.6271028518676758e+00" cType="1" res="6.3421152299270034e-04" rms="4.8870867490768433e-01" purity="5.0050878524780273e-01" nType="0">
          <Node pos="l" depth="2" NCoef="0" IVar="-1" Cut="0.0000000000000000e+00" cType="1" res="1.5592458657920361e-03" rms="4.9512273073196411e-01" purity="5.2059733867645264e-01" nType="-99"/>
          <Node pos="r" depth="2" NCoef="0" IVar="-1" Cut="0.0000000000000000e+00" cType="1" res="-3.4948144457302988e-04" rms="4.8747271299362183e-01" purity="4.9680185317993164e-01" nType="-99"/>
        </Node>
      </Node>
    </BinaryTree>
    <BinaryTree type="DecisionTree" boostWeight="1.0000000000000000e+00" itree="84">
      <Node pos="s" depth="0" NCoef="0" IVar="2" Cut="3.0000000000000000e+00" cType="1" res="4.7419243492186069e-04" rms="1.6201350092887878e-01" purity="5.0233125686645508e-01" nType="0">
        <Node pos="l" depth="1" NCoef="0" IVar="0" Cut="8.8761701583862305e+00" cType="1" res="9.3306562121142633e-06" rms="4.8879033327102661e-01" purity="4.9974101781845093e-01" nType="0">
          <Node pos="l" depth="2" NCoef="0" IVar="-1" Cut="0.0000000000000000e+00" cType="1" res="-9.3768013175576925e-04" rms="4.9404227733612061e-01" purity="4.9343532323837280e-01" nType="-99"/>
          <Node pos="r" depth="2" NCoef="0" IVar="-1" Cut="0.0000000000000000e+00" cType="1" res="9.0809719404205680e-04" rms="4.8579311370849609e-01" purity="5.0323510169982910e-01" nType="-99"/>
        </Node>
        <Node pos="r" depth="1" NCoef="0" IVar="1" Cut="2.0000000000000000e+00" cType="1" res="8.3106579259037971e-03" rms="2.4934479594230652e-01" purity="5.2314579486846924e-01" nType="0">
          <Node pos="l" depth="2" NCoef="0" IVar="-1" Cut="0.0000000000000000e+00" cType="1" res="8.7441774085164070e-03" rms="4.9201464653015137e-01" purity="5.5612510442733765e-01" nType="-99"/>
          <Node pos="r" depth="2" NCoef="0" IVar="-1" Cut="0.0000000000000000e+00" cType="1" res="7.9492648364976048e-04" rms="4.9052470922470093e-01" purity="5.0614768266677856e-01" nType="-99"/>
        </Node>
      </Node>
    </BinaryTree>
    <BinaryTree type="DecisionTree" boostWeight="1.0000000000000000e+00" itree="85">
      <Node pos="s" depth="0" NCoef="0" IVar="0" Cut="8.2616081237792969e+00" cType="1" res="8.8473240612074733e-04" rms="4.8934555053710938e-01" purity="5.0025492906570435e-01" nType="0">
        <Node pos="l" depth="1" NCoef="0" IVar="-1" Cut="0.0000000000000000e+00" cType="1" res="-2.2287406027317047e-03" rms="5.0030845403671265e-01" purity="4.7638830542564392e-01" nType="-99"/>
        <Node pos="r" depth="1" NCoef="0" IVar="0" Cut="8.4106216430664062e+00" cType="1" res="2.7657076716423035e-03" rms="4.8840796947479248e-01" purity="5.0216662883758545e-01" nType="0">
          <Node pos="l" depth="2" NCoef="0" IVar="-1" Cut="0.0000000000000000e+00" cType="1" res="3.8254158571362495e-03" rms="4.9444848299026489e-01" purity="5.4822629690170288e-01" nType="-99"/>
          <Node pos="r" depth="2" NCoef="0" IVar="-1" Cut="0.0000000000000000e+00" cType="1" res="2.0044244593009353e-04" rms="4.8804724216461182e-01" purity="4.9985325336456299e-01" nType="-99"/>
        </Node>
      </Node>
    </BinaryTree>
    <BinaryTree type="DecisionTree" boostWeight="1.0000000000000000e+00" itree="86">
      <Node pos="s" depth="0" NCoef="0" IVar="4" Cut="4.6732999384403229e-02" cType="1" res="5.2378792315721512e-04" rms="4.8847094178199768e-01" purity="4.9990779161453247e-01" nType="0">
        <Node pos="l" depth="1" NCoef="0" IVar="3" Cut="-7.0749557018280029e-01" cType="1" res="-3.7552183493971825e-03" rms="4.8946091532707214e-01" purity="4.8793569207191467e-01" nType="0">
          <Node pos="l" depth="2" NCoef="0" IVar="-1" Cut="0.0000000000000000e+00" cType="1" res="-1.8604767974466085e-03" rms="4.8596316576004028e-01" purity="4.0922802686691284e-01" nType="-99"/>
          <Node pos="r" depth="2" NCoef="0" IVar="-1" Cut="0.0000000000000000e+00" cType="1" res="5.8478309074416757e-04" rms="4.9250933527946472e-01" purity="5.5974161624908447e-01" nType="-99"/>
        </Node>
        <Node pos="r" depth="1" NCoef="0" IVar="1" Cut="2.0000000000000000e+00" cType="1" res="2.6456722989678383e-03" rms="3.1630557775497437e-01" purity="5.3089576959609985e-01" nType="0">
          <Node pos="l" depth="2" NCoef="0" IVar="-1" Cut="0.0000000000000000e+00" cType="1" res="5.6649856269359589e-03" rms="4.8620408773422241e-01" purity="5.5461657047271729e-01" nType="-99"/>
          <Node pos="r" depth="2" NCoef="0" IVar="-1" Cut="0.0000000000000000e+00" cType="1" res="1.1217662831768394e-03" rms="4.8548033833503723e-01" purity="5.2622520923614502e-01" nType="-99"/>
        </Node>
      </Node>
    </BinaryTree>
    <BinaryTree type="DecisionTree" boostWeight="1.0000000000000000e+00" itree="87">
      <Node pos="s" depth="0" NCoef="0" IVar="3" Cut="-8.0208969116210938e-01" cType="1" res="-5.8806652668863535e-04" rms="4.9003022909164429e-01" purity="4.9901625514030457e-01" nType="0">
        <Node pos="l" depth="1" NCoef="0" IVar="0" Cut="8.9199457168579102e+00" cType="1" res="1.1240876279771328e-02" rms="4.8656880855560303e-01" purity="4.1809704899787903e-01" nType="0">
          <Node pos="l" depth="2" NCoef="0" IVar="-1" Cut="0.0000000000000000e+00" cType="1" res="4.3381527066230774e-03" rms="4.9558475613594055e-01" purity="4.6081382036209106e-01" nType="-99"/>
          <Node pos="r" depth="2" NCoef="0" IVar="-1" Cut="0.0000000000000000e+00" cType="1" res="-7.5271964306011796e-04" rms="4.8045852780342102e-01" purity="3.9240863919258118e-01" nType="-99"/>
        </Node>
        <Node pos="r" depth="1" NCoef="0" IVar="5" Cut="-6.9326204061508179e-01" cType="1" res="-7.4785719625651836e-03" rms="4.9190422892570496e-01" purity="5.4615265130996704e-01" nType="0">
          <Node pos="l" depth="2" NCoef="0" IVar="-1" Cut="0.0000000000000000e+00" cType="1" res="-5.0379103049635887e-03" rms="4.9217393994331360e-01" purity="5.4747515916824341e-01" nType="-99"/>
          <Node pos="r" depth="2" NCoef="0" IVar="-1" Cut="0.0000000000000000e+00" cType="1" res="-7.2899437509477139e-04" rms="4.9180087447166443e-01" purity="5.4598933458328247e-01" nType="-99"/>
        </Node>
      </Node>
    </BinaryTree>
    <BinaryTree type="DecisionTree" boostWeight="1.0000000000000000e+00" itree="88">
      <Node pos="s" depth="0" NCoef="0" IVar="3" Cut="-7.0759564638137817e-01" cType="1" res="1.1118747061118484e-03" rms="4.8927733302116394e-01" purity="5.0104480981826782e-01" nType="0">
        <Node pos="l" depth="1" NCoef="0" IVar="3" Cut="-8.8757437467575073e-01" cType="1" res="-3.7902137264609337e-03" rms="4.8969811201095581e-01" purity="4.2322787642478943e-01" nType="0">
          <Node pos="l" depth="2" NCoef="0" IVar="-1" Cut="0.0000000000000000e+00" cType="1" res="1.3869426911696792e-03" rms="4.7701749205589294e-01" purity="3.7375754117965698e-01" nType="-99"/>
          <Node pos="r" depth="2" NCoef="0" IVar="-1" Cut="0.0000000000000000e+00" cType="1" res="-1.6818540170788765e-03" rms="4.9746754765510559e-01" purity="4.5475059747695923e-01" nType="-99"/>
        </Node>
        <Node pos="r" depth="1" NCoef="0" IVar="3" Cut="9.5225155353546143e-01" cType="1" res="5.8984803035855293e-03" rms="4.8881870508193970e-01" purity="5.7702857255935669e-01" nType="0">
          <Node pos="l" depth="2" NCoef="0" IVar="-1" Cut="0.0000000000000000e+00" cType="1" res="4.0701255784370005e-04" rms="4.9396798014640808e-01" purity="5.6071060895919800e-01" nType="-99"/>
          <Node pos="r" depth="2" NCoef="0" IVar="-1" Cut="0.0000000000000000e+00" cType="1" res="9.1276271268725395e-03" rms="4.2878288030624390e-01" purity="7.5047498941421509e-01" nType="-99"/>
        </Node>
      </Node>
    </BinaryTree>
    <BinaryTree type="DecisionTree" boostWeight="1.0000000000000000e+00" itree="89">
      <Node pos="s" depth="0" NCoef="0" IVar="1" Cut="2.0000000000000000e+00" cType="1" res="-2.5796971749514341e-03" rms="2.4203392863273621e-01" purity="4.9464374780654907e-01" nType="0">
        <Node pos="l" depth="1" NCoef="0" IVar="0" Cut="8.5499353408813477e+00" cType="1" res="4.9608615227043629e-03" rms="4.8968032002449036e-01" purity="5.0505387783050537e-01" nType="0">
          <Node pos="l" depth="2" NCoef="0" IVar="-1" Cut="0.0000000000000000e+00" cType="1" res="2.7108744252473116e-03" rms="5.0063407421112061e-01" purity="5.3226047754287720e-01" nType="-99"/>
          <Node pos="r" depth="2" NCoef="0" IVar="-1" Cut="0.0000000000000000e+00" cType="1" res="8.9872468379326165e-05" rms="4.8732185363769531e-01" purity="4.9956887960433960e-01" nType="-99"/>
        </Node>
        <Node pos="r" depth="1" NCoef="0" IVar="0" Cut="8.7015762329101562e+00" cType="1" res="-8.9407134801149368e-03" rms="4.8763999342918396e-01" purity="4.9039837718009949e-01" nType="0">
          <Node pos="l" depth="2" NCoef="0" IVar="-1" Cut="0.0000000000000000e+00" cType="1" res="-2.6132022030651569e-03" rms="4.9204176664352417e-01" purity="4.7903552651405334e-01" nType="-99"/>
          <Node pos="r" depth="2" NCoef="0" IVar="-1" Cut="0.0000000000000000e+00" cType="1" res="-7.9214415745809674e-04" rms="4.8615497350692749e-01" purity="4.9395751953125000e-01" nType="-99"/>
        </Node>
      </Node>
    </BinaryTree>
    <BinaryTree type="DecisionTree" boostWeight="1.0000000000000000e+00" itree="90">
      <Node pos="s" depth="0" NCoef="0" IVar="4" Cut="4.6769637614488602e-02" cType="1" res="-2.1442789584398270e-03" rms="4.8862588405609131e-01" purity="4.9740049242973328e-01" nType="0">
        <Node pos="l" depth="1" NCoef="0" IVar="2" Cut="3.0000000000000000e+00" cType="1" res="-2.8029707027599216e-04" rms="3.3763740211725235e-02" purity="4.8572236299514771e-01" nType="0">
          <Node pos="l" depth="2" NCoef="0" IVar="-1" Cut="0.0000000000000000e+00" cType="1" res="-1.1529271723702550e-03" rms="4.8895624279975891e-01" purity="4.8258802294731140e-01" nType="-99"/>
          <Node pos="r" depth="2" NCoef="0" IVar="-1" Cut="0.0000000000000000e+00" cType="1" res="1.5246479306370020e-03" rms="4.9338808655738831e-01" purity="5.0843459367752075e-01" nType="-99"/>
        </Node>
        <Node pos="r" depth="1" NCoef="0" IVar="1" Cut="4.0000000000000000e+00" cType="1" res="2.2349206265062094e-03" rms="3.3077362179756165e-01" purity="5.2717512845993042e-01" nType="0">
          <Node pos="l" depth="2" NCoef="0" IVar="-1" Cut="0.0000000000000000e+00" cType="1" res="1.5035459073260427e-03" rms="4.8533400893211365e-01" purity="5.2810376882553101e-01" nType="-99"/>
          <Node pos="r" depth="2" NCoef="0" IVar="-1" Cut="0.0000000000000000e+00" cType="1" res="-1.2626894749701023e-03" rms="4.9012976884841919e-01" purity="5.2282404899597168e-01" nType="-99"/>
        </Node>
      </Node>
    </BinaryTree>
    <BinaryTree type="DecisionTree" boostWeight="1.0000000000000000e+00" itree="91">
      <Node pos="s" depth="0" NCoef="0" IVar="0" Cut="9.2236518859863281e+00" cType="1" res="6.3997606048360467e-04" rms="4.8881334066390991e-01" purity="5.0030821561813354e-01" nType="0">
        <Node pos="l" depth="1" NCoef="0" IVar="0" Cut="8.4531011581420898e+00" cType="1" res="7.1235015057027340e-03" rms="4.9231451749801636e-01" purity="5.0868630409240723e-01" nType="0">
          <Node pos="l" depth="2" NCoef="0" IVar="-1" Cut="0.0000000000000000e+00" cType="1" res="2.3577690590173006e-03" rms="4.9697029590606689e-01" purity="5.2854520082473755e-01" nType="-99"/>
          <Node pos="r" depth="2" NCoef="0" IVar="-1" Cut="0.0000000000000000e+00" cType="1" res="4.2900547850877047e-04" rms="4.9101808667182922e-01" purity="5.0356066226959229e-01" nType="-99"/>
        </Node>
        <Node pos="r" depth="1" NCoef="0" IVar="3" Cut="8.0266124010086060e-01" cType="1" res="-1.0777458548545837e-02" rms="4.8237425088882446e-01" purity="4.8555433750152588e-01" nType="0">
          <Node pos="l" depth="2" NCoef="0" IVar="-1" Cut="0.0000000000000000e+00" cType="1" res="-4.2041875422000885e-03" rms="4.8353645205497742e-01" purity="4.0778973698616028e-01" nType="-99"/>
          <Node pos="r" depth="2" NCoef="0" IVar="-1" Cut="0.0000000000000000e+00" cType="1" res="2.5409294175915420e-04" rms="4.8033168911933899e-01" purity="6.0588043928146362e-01" nType="-99"/>
        </Node>
      </Node>
    </BinaryTree>
    <BinaryTree type="DecisionTree" boostWeight="1.0000000000000000e+00" itree="92">
      <Node pos="s" depth="0" NCoef="0" IVar="2" Cut="2.0000000000000000e+00" cType="1" res="4.7902899677865207e-04" rms="1.2797611951828003e-01" purity="5.0300306081771851e-01" nType="0">
        <Node pos="l" depth="1" NCoef="0" IVar="4" Cut="-7.0235341787338257e-01" cType="1" res="-1.2381667038425803e-03" rms="4.8855975270271301e-01" purity="4.9638071656227112e-01" nType="0">
          <Node pos="l" depth="2" NCoef="0" IVar="-1" Cut="0.0000000000000000e+00" cType="1" res="2.0306282676756382e-03" rms="4.8840036988258362e-01" purity="4.8866233229637146e-01" nType="-99"/>
          <Node pos="r" depth="2" NCoef="0" IVar="-1" Cut="0.0000000000000000e+00" cType="1" res="-1.1341255158185959e-03" rms="4.8849996924400330e-01" purity="4.9973025918006897e-01" nType="-99"/>
        </Node>
        <Node pos="r" depth="1" NCoef="0" IVar="3" Cut="-8.9120739698410034e-01" cType="1" res="1.1568298563361168e-02" rms="4.9098083376884460e-01" purity="5.1199364662170410e-01" nType="0">
          <Node pos="l" depth="2" NCoef="0" IVar="-1" Cut="0.0000000000000000e+00" cType="1" res="-1.0858605382964015e-03" rms="4.7400534152984619e-01" purity="3.6290875077247620e-01" nType="-99"/>
          <Node pos="r" depth="2" NCoef="0" IVar="-1" Cut="0.0000000000000000e+00" cType="1" res="2.3996592499315739e-03" rms="4.9374201893806458e-01" purity="5.3729718923568726e-01" nType="-99"/>
        </Node>
      </Node>
    </BinaryTree>
    <BinaryTree type="DecisionTree" boostWeight="1.0000000000000000e+00" itree="93">
      <Node pos="s" depth="0" NCoef="0" IVar="4" Cut="8.9001911878585815e-01" cType="1" res="6.0392549494281411e-04" rms="4.8890557885169983e-01" purity="5.0060188770294189e-01" nType="0">
        <Node pos="l" depth="1" NCoef="0" IVar="3" Cut="8.9485830068588257e-01" cType="1" res="-3.7897829315625131e-04" rms="4.8934358358383179e-01" purity="4.9839389324188232e-01" nType="0">
          <Node pos="l" depth="2" NCoef="0" IVar="-1" Cut="0.0000000000000000e+00" cType="1" res="-3.8464448880404234e-04" rms="4.9285680055618286e-01" purity="4.6881669759750366e-01" nType="-99"/>
          <Node pos="r" depth="2" NCoef="0" IVar="-1" Cut="0.0000000000000000e+00" cType="1" res="1.8425991293042898e-03" rms="4.7156661748886108e-01" purity="6.4368087053298950e-01" nType="-99"/>
        </Node>
        <Node pos="r" depth="1" NCoef="0" IVar="-1" Cut="0.0000000000000000e+00" cType="1" res="4.6832333318889141e-03" rms="4.7719880938529968e-01" purity="5.5566537380218506e-01" nType="-99"/>
      </Node>
    </BinaryTree>
    <BinaryTree type="DecisionTree" boostWeight="1.0000000000000000e+00" itree="94">
      <Node pos="s" depth="0" NCoef="0" IVar="0" Cut="8.5724048614501953e+00" cType="1" res="2.0643899915739894e-04" rms="4.8944765329360962e-01" purity="4.9988839030265808e-01" nType="0">
        <Node pos="l" depth="1" NCoef="0" IVar="3" Cut="-7.8651577234268188e-01" cType="1" res="-1.0271850042045116e-02" rms="4.9697446823120117e-01" purity="4.9474081397056580e-01" nType="0">
          <Node pos="l" depth="2" NCoef="0" IVar="-1" Cut="0.0000000000000000e+00" cType="1" res="2.6284903287887573e-03" rms="4.9531188607215881e-01" purity="4.6931770443916321e-01" nType="-99"/>
          <Node pos="r" depth="2" NCoef="0" IVar="-1" Cut="0.0000000000000000e+00" cType="1" res="-3.4650766756385565e-03" rms="4.9671435356140137e-01" purity="5.1081097126007080e-01" nType="-99"/>
        </Node>
        <Node pos="r" depth="1" NCoef="0" IVar="2" Cut="3.0000000000000000e+00" cType="1" res="1.2823948636651039e-03" rms="4.3786242604255676e-01" purity="5.0099980831146240e-01" nType="0">
          <Node pos="l" depth="2" NCoef="0" IVar="-1" Cut="0.0000000000000000e+00" cType="1" res="9.0385420480743051e-04" rms="4.8717781901359558e-01" purity="5.0305062532424927e-01" nType="-99"/>
          <Node pos="r" depth="2" NCoef="0" IVar="-1" Cut="0.0000000000000000e+00" cType="1" res="-4.0529589168727398e-03" rms="4.9220794439315796e-01" purity="4.8384439945220947e-01" nType="-99"/>
        </Node>
      </Node>
    </BinaryTree>
    <BinaryTree type="DecisionTree" boostWeight="1.0000000000000000e+00" itree="95">
      <Node pos="s" depth="0" NCoef="0" IVar="0" Cut="8.7359209060668945e+00" cType="1" res="-1.4661303721368313e-03" rms="4.8910844326019287e-01" purity="4.9893698096275330e-01" nType="0">
        <Node pos="l" depth="1" NCoef="0" IVar="3" Cut="-7.9688471555709839e-01" cType="1" res="-9.9047431722283363e-03" rms="4.9782472848892212e-01" purity="4.9433234333992004e-01" nType="0">
          <Node pos="l" depth="2" NCoef="0" IVar="-1" Cut="0.0000000000000000e+00" cType="1" res="2.0879306830465794e-03" rms="4.9679124355316162e-01" purity="4.5799899101257324e-01" nType="-99"/>
          <Node pos="r" depth="2" NCoef="0" IVar="-1" Cut="0.0000000000000000e+00" cType="1" res="-2.8958653565496206e-03" rms="4.9764129519462585e-01" purity="5.1506924629211426e-01" nType="-99"/>
        </Node>
        <Node pos="r" depth="1" NCoef="0" IVar="3" Cut="8.0298668146133423e-01" cType="1" res="1.5351354377344251e-03" rms="4.8593541979789734e-01" purity="5.0057464838027954e-01" nType="0">
          <Node pos="l" depth="2" NCoef="0" IVar="-1" Cut="0.0000000000000000e+00" cType="1" res="-9.2370307538658381e-04" rms="4.8865482211112976e-01" purity="4.3024337291717529e-01" nType="-99"/>
          <Node pos="r" depth="2" NCoef="0" IVar="-1" Cut="0.0000000000000000e+00" cType="1" res="2.3737645242363214e-03" rms="4.8140302300453186e-01" purity="6.1218857765197754e-01" nType="-99"/>
        </Node>
      </Node>
    </BinaryTree>
    <BinaryTree type="DecisionTree" boostWeight="1.0000000000000000e+00" itree="96">
      <Node pos="s" depth="0" NCoef="0" IVar="1" Cut="4.0000000000000000e+00" cType="1" res="2.6985644944943488e-04" rms="1.6394789516925812e-01" purity="5.0149130821228027e-01" nType="0">
        <Node pos="l" depth="1" NCoef="0" IVar="3" Cut="-8.9649742841720581e-01" cType="1" res="-9.6794648561626673e-04" rms="4.8908284306526184e-01" purity="4.9808785319328308e-01" nType="0">
          <Node pos="l" depth="2" NCoef="0" IVar="-1" Cut="0.0000000000000000e+00" cType="1" res="-1.8978373846039176e-03" rms="4.6715679764747620e-01" purity="3.4030693769454956e-01" nType="-99"/>
          <Node pos="r" depth="2" NCoef="0" IVar="-1" Cut="0.0000000000000000e+00" cType="1" res="1.2735406926367432e-04" rms="4.9312302470207214e-01" purity="5.2810090780258179e-01" nType="-99"/>
        </Node>
        <Node pos="r" depth="1" NCoef="0" IVar="0" Cut="8.8609008789062500e+00" cType="1" res="1.4843353070318699e-02" rms="4.8689058423042297e-01" purity="5.2205592393875122e-01" nType="0">
          <Node pos="l" depth="2" NCoef="0" IVar="-1" Cut="0.0000000000000000e+00" cType="1" res="4.5609469525516033e-03" rms="4.8650628328323364e-01" purity="5.5014520883560181e-01" nType="-99"/>
          <Node pos="r" depth="2" NCoef="0" IVar="-1" Cut="0.0000000000000000e+00" cType="1" res="4.9899169243872166e-04" rms="4.8660138249397278e-01" purity="5.0828957557678223e-01" nType="-99"/>
        </Node>
      </Node>
    </BinaryTree>
    <BinaryTree type="DecisionTree" boostWeight="1.0000000000000000e+00" itree="97">
      <Node pos="s" depth="0" NCoef="0" IVar="4" Cut="8.9009654521942139e-01" cType="1" res="7.7252386836335063e-04" rms="4.8904839158058167e-01" purity="5.0116908550262451e-01" nType="0">
        <Node pos="l" depth="1" NCoef="0" IVar="1" Cut="2.0000000000000000e+00" cType="1" res="-1.5736155910417438e-03" rms="4.1631796956062317e-01" purity="4.9817821383476257e-01" nType="0">
          <Node pos="l" depth="2" NCoef="0" IVar="-1" Cut="0.0000000000000000e+00" cType="1" res="-1.9132685847580433e-03" rms="4.9154168367385864e-01" purity="4.8703843355178833e-01" nType="-99"/>
          <Node pos="r" depth="2" NCoef="0" IVar="-1" Cut="0.0000000000000000e+00" cType="1" res="6.0446641873568296e-04" rms="4.8878112435340881e-01" purity="5.0289112329483032e-01" nType="-99"/>
        </Node>
        <Node pos="r" depth="1" NCoef="0" IVar="-1" Cut="0.0000000000000000e+00" cType="1" res="8.2968650385737419e-03" rms="4.7111597657203674e-01" purity="5.7649850845336914e-01" nType="-99"/>
      </Node>
    </BinaryTree>
    <BinaryTree type="DecisionTree" boostWeight="1.0000000000000000e+00" itree="98">
      <Node pos="s" depth="0" NCoef="0" IVar="2" Cut="2.0000000000000000e+00" cType="1" res="-1.3884338841307908e-05" rms="3.4873247146606445e-02" purity="4.9784186482429504e-01" nType="0">
        <Node pos="l" depth="1" NCoef="0" IVar="3" Cut="-7.0731437206268311e-01" cType="1" res="-7.0456536486744881e-03" rms="4.8856666684150696e-01" purity="4.9132925271987915e-01" nType="0">
          <Node pos="l" depth="2" NCoef="0" IVar="-1" Cut="0.0000000000000000e+00" cType="1" res="5.7820597430691123e-04" rms="4.8762425780296326e-01" purity="4.1998806595802307e-01" nType="-99"/>
          <Node pos="r" depth="2" NCoef="0" IVar="-1" Cut="0.0000000000000000e+00" cType="1" res="-2.6993856299668550e-03" rms="4.8925364017486572e-01" purity="5.6065142154693604e-01" nType="-99"/>
        </Node>
        <Node pos="r" depth="1" NCoef="0" IVar="4" Cut="-6.9797474145889282e-01" cType="1" res="6.1538489535450935e-03" rms="4.9040368199348450e-01" purity="5.0659829378128052e-01" nType="0">
          <Node pos="l" depth="2" NCoef="0" IVar="-1" Cut="0.0000000000000000e+00" cType="1" res="-4.3569710105657578e-03" rms="4.8344224691390991e-01" purity="4.5232623815536499e-01" nType="-99"/>
          <Node pos="r" depth="2" NCoef="0" IVar="-1" Cut="0.0000000000000000e+00" cType="1" res="2.5369729846715927e-03" rms="4.9207007884979248e-01" purity="5.2280235290527344e-01" nType="-99"/>
        </Node>
      </Node>
    </BinaryTree>
    <BinaryTree type="DecisionTree" boostWeight="1.0000000000000000e+00" itree="99">
      <Node pos="s" depth="0" NCoef="0" IVar="4" Cut="-7.9886198043823242e-01" cType="1" res="2.7399041573517025e-04" rms="4.8935759067535400e-01" purity="4.9928504228591919e-01" nType="0">
        <Node pos="l" depth="1" NCoef="0" IVar="0" Cut="9.2377948760986328e+00" cType="1" res="-1.3033194467425346e-02" rms="4.8164275288581848e-01" purity="4.5812645554542542e-01" nType="0">
          <Node pos="l" depth="2" NCoef="0" IVar="-1" Cut="0.0000000000000000e+00" cType="1" res="-3.6878255195915699e-03" rms="4.8585858941078186e-01" purity="4.4369423389434814e-01" nType="-99"/>
          <Node pos="r" depth="2" NCoef="0" IVar="-1" Cut="0.0000000000000000e+00" cType="1" res="2.2124112583696842e-03" rms="4.7374394536018372e-01" purity="4.8215913772583008e-01" nType="-99"/>
        </Node>
        <Node pos="r" depth="1" NCoef="0" IVar="5" Cut="-6.9182604551315308e-01" cType="1" res="2.5742815341800451e-03" rms="4.9064227938652039e-01" purity="5.0639975070953369e-01" nType="0">
          <Node pos="l" depth="2" NCoef="0" IVar="-1" Cut="0.0000000000000000e+00" cType="1" res="-1.9235465442761779e-03" rms="4.8922422528266907e-01" purity="5.0316721200942993e-01" nType="-99"/>
          <Node pos="r" depth="2" NCoef="0" IVar="-1" Cut="0.0000000000000000e+00" cType="1" res="6.5630115568637848e-04" rms="4.9076786637306213e-01" purity="5.0674694776535034e-01" nType="-99"/>
        </Node>
      </Node>
    </BinaryTree>
    <BinaryTree type="DecisionTree" boostWeight="1.0000000000000000e+00" itree="100">
      <Node pos="s" depth="0" NCoef="0" IVar="4" Cut="-8.8904774188995361e-01" cType="1" res="2.1042560692876577e-03" rms="4.8879352211952209e-01" purity="5.0163906812667847e-01" nType="0">
        <Node pos="l" depth="1" NCoef="0" IVar="-1" Cut="0.0000000000000000e+00" cType="1" res="-4.1036852635443211e-03" rms="4.7984358668327332e-01" purity="4.4387027621269226e-01" nType="-99"/>
        <Node pos="r" depth="1" NCoef="0" IVar="2" Cut="2.0000000000000000e+00" cType="1" res="-3.6308290873421356e-05" rms="9.4664745032787323e-02" purity="5.0405675172805786e-01" nType="0">
          <Node pos="l" depth="2" NCoef="0" IVar="-1" Cut="0.0000000000000000e+00" cType="1" res="1.0802210308611393e-03" rms="4.8768988251686096e-01" purity="5.0699174404144287e-01" nType="-99"/>
          <Node pos="r" depth="2" NCoef="0" IVar="-1" Cut="0.0000000000000000e+00" cType="1" res="-3.6432576598599553e-04" rms="4.9100673198699951e-01" purity="5.0015306472778320e-01" nType="-99"/>
        </Node>
      </Node>
    </BinaryTree>
    <BinaryTree type="DecisionTree" boostWeight="1.0000000000000000e+00" itree="101">
      <Node pos="s" depth="0" NCoef="0" IVar="0" Cut="8.1255083084106445e+00" cType="1" res="6.6495576174929738e-04" rms="4.8839634656906128e-01" purity="5.0064980983734131e-01" nType="0">
        <Node pos="l" depth="1" NCoef="0" IVar="-1" Cut="0.0000000000000000e+00" cType="1" res="3.9102761074900627e-03" rms="4.9903702735900879e-01" purity="5.3586381673812866e-01" nType="-99"/>
        <Node pos="r" depth="1" NCoef="0" IVar="4" Cut="-8.9139050245285034e-01" cType="1" res="-1.0160307865589857e-03" rms="4.8784554004669189e-01" purity="4.9906793236732483e-01" nType="0">
          <Node pos="l" depth="2" NCoef="0" IVar="-1" Cut="0.0000000000000000e+00" cType="1" res="-6.6965855658054352e-03" rms="4.7046348452568054e-01" purity="4.2884555459022522e-01" nType="-99"/>
          <Node pos="r" depth="2" NCoef="0" IVar="-1" Cut="0.0000000000000000e+00" cType="1" res="5.6168628361774608e-05" rms="4.8848378658294678e-01" purity="5.0189590454101562e-01" nType="-99"/>
        </Node>
      </Node>
    </BinaryTree>
    <BinaryTree type="DecisionTree" boostWeight="1.0000000000000000e+00" itree="102">
      <Node pos="s" depth="0" NCoef="0" IVar="4" Cut="-8.9281696081161499e-01" cType="1" res="-1.0576616041362286e-03" rms="4.8937183618545532e-01" purity="4.9942934513092041e-01" nType="0">
        <Node pos="l" depth="1" NCoef="0" IVar="-1" Cut="0.0000000000000000e+00" cType="1" res="-4.9558673053979874e-03" rms="4.7267365455627441e-01" purity="4.3834421038627625e-01" nType="-99"/>
        <Node pos="r" depth="1" NCoef="0" IVar="5" Cut="-6.9119721651077271e-01" cType="1" res="-9.6996656793635339e-05" rms="4.8996633291244507e-01" purity="5.0173950195312500e-01" nType="0">
          <Node pos="l" depth="2" NCoef="0" IVar="-1" Cut="0.0000000000000000e+00" cType="1" res="2.1487530320882797e-03" rms="4.8992416262626648e-01" purity="5.1034611463546753e-01" nType="-99"/>
          <Node pos="r" depth="2" NCoef="0" IVar="-1" Cut="0.0000000000000000e+00" cType="1" res="-2.9136819648556411e-04" rms="4.8994487524032593e-01" purity="5.0061875581741333e-01" nType="-99"/>
        </Node>
      </Node>
    </BinaryTree>
    <BinaryTree type="DecisionTree" boostWeight="1.0000000000000000e+00" itree="103">
      <Node pos="s" depth="0" NCoef="0" IVar="4" Cut="4.7507602721452713e-02" cType="1" res="-2.9670151416212320e-03" rms="4.8970496654510498e-01" purity="4.9622878432273865e-01" nType="0">
        <Node pos="l" depth="1" NCoef="0" IVar="1" Cut="5.0000000000000000e+00" cType="1" res="-9.7640161402523518e-04" rms="3.2370522618293762e-01" purity="4.9062666296958923e-01" nType="0">
          <Node pos="l" depth="2" NCoef="0" IVar="-1" Cut="0.0000000000000000e+00" cType="1" res="-1.9180845993105322e-04" rms="4.9074527621269226e-01" purity="4.8865887522697449e-01" nType="-99"/>
          <Node pos="r" depth="2" NCoef="0" IVar="-1" Cut="0.0000000000000000e+00" cType="1" res="5.6189270690083504e-03" rms="4.8892399668693542e-01" purity="5.3635573387145996e-01" nType="-99"/>
        </Node>
        <Node pos="r" depth="1" NCoef="0" IVar="4" Cut="8.9752829074859619e-01" cType="1" res="-1.1417414061725140e-02" rms="4.8696282505989075e-01" purity="5.1066225767135620e-01" nType="0">
          <Node pos="l" depth="2" NCoef="0" IVar="-1" Cut="0.0000000000000000e+00" cType="1" res="-2.5974952150136232e-03" rms="4.8757538199424744e-01" purity="5.0455582141876221e-01" nType="-99"/>
          <Node pos="r" depth="2" NCoef="0" IVar="-1" Cut="0.0000000000000000e+00" cType="1" res="5.2687702700495720e-03" rms="4.8052215576171875e-01" purity="5.5768853425979614e-01" nType="-99"/>
        </Node>
      </Node>
    </BinaryTree>
    <BinaryTree type="DecisionTree" boostWeight="1.0000000000000000e+00" itree="104">
      <Node pos="s" depth="0" NCoef="0" IVar="0" Cut="8.4878902435302734e+00" cType="1" res="-2.1059994469396770e-04" rms="4.8926421999931335e-01" purity="4.9968931078910828e-01" nType="0">
        <Node pos="l" depth="1" NCoef="0" IVar="3" Cut="-7.9207807779312134e-01" cType="1" res="1.6283791512250900e-02" rms="4.9815845489501953e-01" purity="5.2018469572067261e-01" nType="0">
          <Node pos="l" depth="2" NCoef="0" IVar="-1" Cut="0.0000000000000000e+00" cType="1" res="5.9917797334492207e-03" rms="4.9879309535026550e-01" purity="5.0283509492874146e-01" nType="-99"/>
          <Node pos="r" depth="2" NCoef="0" IVar="-1" Cut="0.0000000000000000e+00" cType="1" res="-6.0857780044898391e-04" rms="4.9636557698249817e-01" purity="5.2963525056838989e-01" nType="-99"/>
        </Node>
        <Node pos="r" depth="1" NCoef="0" IVar="4" Cut="-7.0525330305099487e-01" cType="1" res="-3.0137675348669291e-03" rms="4.8768109083175659e-01" purity="4.9620622396469116e-01" nType="0">
          <Node pos="l" depth="2" NCoef="0" IVar="-1" Cut="0.0000000000000000e+00" cType="1" res="-2.2329359780997038e-03" rms="4.8470631241798401e-01" purity="4.6294948458671570e-01" nType="-99"/>
          <Node pos="r" depth="2" NCoef="0" IVar="-1" Cut="0.0000000000000000e+00" cType="1" res="1.0312152153346688e-04" rms="4.8874452710151672e-01" purity="5.0869268178939819e-01" nType="-99"/>
        </Node>
      </Node>
    </BinaryTree>
    <BinaryTree type="DecisionTree" boostWeight="1.0000000000000000e+00" itree="105">
      <Node pos="s" depth="0" NCoef="0" IVar="0" Cut="8.5724048614501953e+00" cType="1" res="2.6909622829407454e-04" rms="4.8944976925849915e-01" purity="4.9978709220886230e-01" nType="0">
        <Node pos="l" depth="1" NCoef="0" IVar="2" Cut="2.0000000000000000e+00" cType="1" res="-7.7390955993905663e-05" rms="1.8084362149238586e-02" purity="5.1672530174255371e-01" nType="0">
          <Node pos="l" depth="2" NCoef="0" IVar="-1" Cut="0.0000000000000000e+00" cType="1" res="2.7090637013316154e-03" rms="4.9361866712570190e-01" purity="5.3045803308486938e-01" nType="-99"/>
          <Node pos="r" depth="2" NCoef="0" IVar="-1" Cut="0.0000000000000000e+00" cType="1" res="-1.0079806670546532e-03" rms="4.9684026837348938e-01" purity="4.9857133626937866e-01" nType="-99"/>
        </Node>
        <Node pos="r" depth="1" NCoef="0" IVar="5" Cut="7.9002600908279419e-01" cType="1" res="-2.1961564198136330e-03" rms="4.8812973499298096e-01" purity="4.9612393975257874e-01" nType="0">
          <Node pos="l" depth="2" NCoef="0" IVar="-1" Cut="0.0000000000000000e+00" cType="1" res="-6.2224466819316149e-04" rms="4.8808366060256958e-01" purity="4.9408721923828125e-01" nType="-99"/>
          <Node pos="r" depth="2" NCoef="0" IVar="-1" Cut="0.0000000000000000e+00" cType="1" res="3.6201735492795706e-03" rms="4.8840659856796265e-01" purity="5.2977555990219116e-01" nType="-99"/>
        </Node>
      </Node>
    </BinaryTree>
    <BinaryTree type="DecisionTree" boostWeight="1.0000000000000000e+00" itree="106">
      <Node pos="s" depth="0" NCoef="0" IVar="0" Cut="8.3997402191162109e+00" cType="1" res="4.1613816283643246e-03" rms="4.8930230736732483e-01" purity="5.0268870592117310e-01" nType="0">
        <Node pos="l" depth="1" NCoef="0" IVar="3" Cut="-7.0115649700164795e-01" cType="1" res="2.2619925439357758e-02" rms="4.9895620346069336e-01" purity="5.2782338857650757e-01" nType="0">
          <Node pos="l" depth="2" NCoef="0" IVar="-1" Cut="0.0000000000000000e+00" cType="1" res="5.3928890265524387e-03" rms="5.0090795755386353e-01" purity="5.1446568965911865e-01" nType="-99"/>
          <Node pos="r" depth="2" NCoef="0" IVar="-1" Cut="0.0000000000000000e+00" cType="1" res="-6.6695851273834705e-04" rms="4.9526417255401611e-01" purity="5.4122501611709595e-01" nType="-99"/>
        </Node>
        <Node pos="r" depth="1" NCoef="0" IVar="0" Cut="8.9353837966918945e+00" cType="1" res="1.8412554636597633e-03" rms="4.8802596330642700e-01" purity="4.9952942132949829e-01" nType="0">
          <Node pos="l" depth="2" NCoef="0" IVar="-1" Cut="0.0000000000000000e+00" cType="1" res="-6.8773643579334021e-04" rms="4.9299499392509460e-01" purity="4.9562722444534302e-01" nType="-99"/>
          <Node pos="r" depth="2" NCoef="0" IVar="-1" Cut="0.0000000000000000e+00" cType="1" res="1.0782167082652450e-03" rms="4.8558381199836731e-01" purity="5.0140279531478882e-01" nType="-99"/>
        </Node>
      </Node>
    </BinaryTree>
    <BinaryTree type="DecisionTree" boostWeight="1.0000000000000000e+00" itree="107">
      <Node pos="s" depth="0" NCoef="0" IVar="3" Cut="-8.0192226171493530e-01" cType="1" res="-3.8084748666733503e-03" rms="4.9002709984779358e-01" purity="4.9648508429527283e-01" nType="0">
        <Node pos="l" depth="1" NCoef="0" IVar="3" Cut="-8.5585659742355347e-01" cType="1" res="5.3509743884205818e-03" rms="4.8600190877914429e-01" purity="4.1447797417640686e-01" nType="0">
          <Node pos="l" depth="2" NCoef="0" IVar="-1" Cut="0.0000000000000000e+00" cType="1" res="-8.1265583867207170e-04" rms="4.8024258017539978e-01" purity="3.8517081737518311e-01" nType="-99"/>
          <Node pos="r" depth="2" NCoef="0" IVar="-1" Cut="0.0000000000000000e+00" cType="1" res="4.2118784040212631e-03" rms="4.9860045313835144e-01" purity="4.8409000039100647e-01" nType="-99"/>
        </Node>
        <Node pos="r" depth="1" NCoef="0" IVar="0" Cut="8.2762279510498047e+00" cType="1" res="-9.2081595212221146e-03" rms="4.9230477213859558e-01" purity="5.4482990503311157e-01" nType="0">
          <Node pos="l" depth="2" NCoef="0" IVar="-1" Cut="0.0000000000000000e+00" cType="1" res="-3.4099009353667498e-03" rms="4.9901866912841797e-01" purity="4.9093580245971680e-01" nType="-99"/>
          <Node pos="r" depth="2" NCoef="0" IVar="-1" Cut="0.0000000000000000e+00" cType="1" res="-1.1250053066760302e-03" rms="4.9161955714225769e-01" purity="5.4971653223037720e-01" nType="-99"/>
        </Node>
      </Node>
    </BinaryTree>
    <BinaryTree type="DecisionTree" boostWeight="1.0000000000000000e+00" itree="108">
      <Node pos="s" depth="0" NCoef="0" IVar="0" Cut="9.9493761062622070e+00" cType="1" res="7.8932463657110929e-04" rms="4.8905974626541138e-01" purity="5.0075262784957886e-01" nType="0">
        <Node pos="l" depth="1" NCoef="0" IVar="0" Cut="9.3587484359741211e+00" cType="1" res="1.5990632819011807e-03" rms="4.8948547244071960e-01" purity="5.0173002481460571e-01" nType="0">
          <Node pos="l" depth="2" NCoef="0" IVar="-1" Cut="0.0000000000000000e+00" cType="1" res="5.2899692673236132e-04" rms="4.9175912141799927e-01" purity="5.0548535585403442e-01" nType="-99"/>
          <Node pos="r" depth="2" NCoef="0" IVar="-1" Cut="0.0000000000000000e+00" cType="1" res="-1.3053440488874912e-03" rms="4.8205956816673279e-01" purity="4.8969504237174988e-01" nType="-99"/>
        </Node>
        <Node pos="r" depth="1" NCoef="0" IVar="-1" Cut="0.0000000000000000e+00" cType="1" res="-8.8736293837428093e-03" rms="4.7369024157524109e-01" purity="4.6783557534217834e-01" nType="-99"/>
      </Node>
    </BinaryTree>
    <BinaryTree type="DecisionTree" boostWeight="1.0000000000000000e+00" itree="109">
      <Node pos="s" depth="0" NCoef="0" IVar="0" Cut="9.5132408142089844e+00" cType="1" res="1.4214623952284455e-03" rms="4.8861166834831238e-01" purity="5.0112026929855347e-01" nType="0">
        <Node pos="l" depth="1" NCoef="0" IVar="0" Cut="8.5596094131469727e+00" cType="1" res="-1.0936552425846457e-03" rms="4.9065944552421570e-01" purity="4.9995979666709900e-01" nType="0">
          <Node pos="l" depth="2" NCoef="0" IVar="-1" Cut="0.0000000000000000e+00" cType="1" res="9.5423444872722030e-04" rms="4.9616360664367676e-01" purity="5.1608121395111084e-01" nType="-99"/>
          <Node pos="r" depth="2" NCoef="0" IVar="-1" Cut="0.0000000000000000e+00" cType="1" res="-6.1284413095563650e-04" rms="4.8920103907585144e-01" purity="4.9582052230834961e-01" nType="-99"/>
        </Node>
        <Node pos="r" depth="1" NCoef="0" IVar="3" Cut="8.9724975824356079e-01" cType="1" res="1.3987599872052670e-02" rms="4.7805100679397583e-01" purity="5.0691831111907959e-01" nType="0">
          <Node pos="l" depth="2" NCoef="0" IVar="-1" Cut="0.0000000000000000e+00" cType="1" res="5.7286198716610670e-04" rms="4.8601108789443970e-01" purity="4.4931986927986145e-01" nType="-99"/>
          <Node pos="r" depth="2" NCoef="0" IVar="-1" Cut="0.0000000000000000e+00" cType="1" res="1.6825133934617043e-02" rms="4.4610470533370972e-01" purity="7.1167409420013428e-01" nType="-99"/>
        </Node>
      </Node>
    </BinaryTree>
    <BinaryTree type="DecisionTree" boostWeight="1.0000000000000000e+00" itree="110">
      <Node pos="s" depth="0" NCoef="0" IVar="3" Cut="-8.0165529251098633e-01" cType="1" res="-1.6076044994406402e-04" rms="4.8838609457015991e-01" purity="4.9938553571701050e-01" nType="0">
        <Node pos="l" depth="1" NCoef="0" IVar="5" Cut="7.9033350944519043e-01" cType="1" res="-7.6717603951692581e-03" rms="4.8393285274505615e-01" purity="4.0045708417892456e-01" nType="0">
          <Node pos="l" depth="2" NCoef="0" IVar="-1" Cut="0.0000000000000000e+00" cType="1" res="-2.1437229588627815e-03" rms="4.8253720998764038e-01" purity="3.9481261372566223e-01" nType="-99"/>
          <Node pos="r" depth="2" NCoef="0" IVar="-1" Cut="0.0000000000000000e+00" cType="1" res="9.5850266516208649e-03" rms="4.9541342258453369e-01" purity="4.6595793962478638e-01" nType="-99"/>
        </Node>
        <Node pos="r" depth="1" NCoef="0" IVar="1" Cut="2.0000000000000000e+00" cType="1" res="-9.6420984482392669e-04" rms="1.6555105149745941e-01" purity="5.5745029449462891e-01" nType="0">
          <Node pos="l" depth="2" NCoef="0" IVar="-1" Cut="0.0000000000000000e+00" cType="1" res="2.4440796114504337e-03" rms="4.9144864082336426e-01" purity="5.5786168575286865e-01" nType="-99"/>
          <Node pos="r" depth="2" NCoef="0" IVar="-1" Cut="0.0000000000000000e+00" cType="1" res="-1.2201951903989539e-04" rms="4.9061194062232971e-01" purity="5.5726730823516846e-01" nType="-99"/>
        </Node>
      </Node>
    </BinaryTree>
    <BinaryTree type="DecisionTree" boostWeight="1.0000000000000000e+00" itree="111">
      <Node pos="s" depth="0" NCoef="0" IVar="2" Cut="3.0000000000000000e+00" cType="1" res="-2.1508175996132195e-04" rms="2.0218353718519211e-02" purity="4.9696943163871765e-01" nType="0">
        <Node pos="l" depth="1" NCoef="0" IVar="4" Cut="4.8119999468326569e-02" cType="1" res="-3.8434325251728296e-03" rms="4.8818266391754150e-01" purity="4.9431726336479187e-01" nType="0">
          <Node pos="l" depth="2" NCoef="0" IVar="-1" Cut="0.0000000000000000e+00" cType="1" res="6.2822356994729489e-05" rms="4.8885163664817810e-01" purity="4.8905155062675476e-01" nType="-99"/>
          <Node pos="r" depth="2" NCoef="0" IVar="-1" Cut="0.0000000000000000e+00" cType="1" res="-2.2184513509273529e-03" rms="4.8644065856933594e-01" purity="5.0682812929153442e-01" nType="-99"/>
        </Node>
        <Node pos="r" depth="1" NCoef="0" IVar="0" Cut="8.9564390182495117e+00" cType="1" res="1.2593487277626991e-02" rms="4.9265858530998230e-01" purity="5.1908129453659058e-01" nType="0">
          <Node pos="l" depth="2" NCoef="0" IVar="-1" Cut="0.0000000000000000e+00" cType="1" res="3.9124093018472195e-03" rms="4.9578496813774109e-01" purity="5.3789883852005005e-01" nType="-99"/>
          <Node pos="r" depth="2" NCoef="0" IVar="-1" Cut="0.0000000000000000e+00" cType="1" res="1.3910596317145973e-04" rms="4.9004423618316650e-01" purity="5.0553691387176514e-01" nType="-99"/>
        </Node>
      </Node>
    </BinaryTree>
    <BinaryTree type="DecisionTree" boostWeight="1.0000000000000000e+00" itree="112">
      <Node pos="s" depth="0" NCoef="0" IVar="0" Cut="8.8314571380615234e+00" cType="1" res="1.3212967896834016e-03" rms="4.8884963989257812e-01" purity="5.0084990262985229e-01" nType="0">
        <Node pos="l" depth="1" NCoef="0" IVar="2" Cut="2.0000000000000000e+00" cType="1" res="2.9985402943566442e-04" rms="3.9502866566181183e-02" purity="4.9448645114898682e-01" nType="0">
          <Node pos="l" depth="2" NCoef="0" IVar="-1" Cut="0.0000000000000000e+00" cType="1" res="9.6256769029423594e-04" rms="4.9369710683822632e-01" purity="5.1222008466720581e-01" nType="-99"/>
          <Node pos="r" depth="2" NCoef="0" IVar="-1" Cut="0.0000000000000000e+00" cType="1" res="-3.9486596360802650e-03" rms="4.9419081211090088e-01" purity="4.7119528055191040e-01" nType="-99"/>
        </Node>
        <Node pos="r" depth="1" NCoef="0" IVar="0" Cut="9.3189678192138672e+00" cType="1" res="6.3826832920312881e-03" rms="4.8616150021553040e-01" purity="5.0383877754211426e-01" nType="0">
          <Node pos="l" depth="2" NCoef="0" IVar="-1" Cut="0.0000000000000000e+00" cType="1" res="2.0080509129911661e-03" rms="4.8938855528831482e-01" purity="5.1146835088729858e-01" nType="-99"/>
          <Node pos="r" depth="2" NCoef="0" IVar="-1" Cut="0.0000000000000000e+00" cType="1" res="-2.1920764993410558e-04" rms="4.8170900344848633e-01" purity="4.9361875653266907e-01" nType="-99"/>
        </Node>
      </Node>
    </BinaryTree>
    <BinaryTree type="DecisionTree" boostWeight="1.0000000000000000e+00" itree="113">
      <Node pos="s" depth="0" NCoef="0" IVar="5" Cut="-7.7427905797958374e-01" cType="1" res="-1.0839979950105771e-04" rms="4.8888248205184937e-01" purity="4.9932858347892761e-01" nType="0">
        <Node pos="l" depth="1" NCoef="0" IVar="5" Cut="-8.1822401285171509e-01" cType="1" res="-2.2766929119825363e-02" rms="4.8740446567535400e-01" purity="4.7291332483291626e-01" nType="0">
          <Node pos="l" depth="2" NCoef="0" IVar="-1" Cut="0.0000000000000000e+00" cType="1" res="-7.7282679267227650e-03" rms="4.8739856481552124e-01" purity="4.5569014549255371e-01" nType="-99"/>
          <Node pos="r" depth="2" NCoef="0" IVar="-1" Cut="0.0000000000000000e+00" cType="1" res="4.7704059397801757e-04" rms="4.8615753650665283e-01" purity="4.9286380410194397e-01" nType="-99"/>
        </Node>
        <Node pos="r" depth="1" NCoef="0" IVar="3" Cut="-8.9562833309173584e-01" cType="1" res="1.5160898910835385e-03" rms="4.8894792795181274e-01" purity="5.0122237205505371e-01" nType="0">
          <Node pos="l" depth="2" NCoef="0" IVar="-1" Cut="0.0000000000000000e+00" cType="1" res="-1.5506516210734844e-03" rms="4.6767845749855042e-01" purity="3.4539976716041565e-01" nType="-99"/>
          <Node pos="r" depth="2" NCoef="0" IVar="-1" Cut="0.0000000000000000e+00" cType="1" res="5.2771857008337975e-04" rms="4.9295648932456970e-01" purity="5.3154212236404419e-01" nType="-99"/>
        </Node>
      </Node>
    </BinaryTree>
    <BinaryTree type="DecisionTree" boostWeight="1.0000000000000000e+00" itree="114">
      <Node pos="s" depth="0" NCoef="0" IVar="5" Cut="-7.8181439638137817e-01" cType="1" res="4.9071055836975574e-03" rms="4.8915874958038330e-01" purity="5.0438922643661499e-01" nType="0">
        <Node pos="l" depth="1" NCoef="0" IVar="3" Cut="-8.0124628543853760e-01" cType="1" res="2.4451140314340591e-02" rms="4.8968821763992310e-01" purity="5.2095317840576172e-01" nType="0">
          <Node pos="l" depth="2" NCoef="0" IVar="-1" Cut="0.0000000000000000e+00" cType="1" res="9.0542668476700783e-03" rms="4.9126106500625610e-01" purity="4.3348968029022217e-01" nType="-99"/>
          <Node pos="r" depth="2" NCoef="0" IVar="-1" Cut="0.0000000000000000e+00" cType="1" res="3.7483131745830178e-04" rms="4.8724806308746338e-01" purity="5.9415072202682495e-01" nType="-99"/>
        </Node>
        <Node pos="r" depth="1" NCoef="0" IVar="1" Cut="4.0000000000000000e+00" cType="1" res="1.1586087057366967e-03" rms="1.1965597420930862e-01" purity="5.0336450338363647e-01" nType="0">
          <Node pos="l" depth="2" NCoef="0" IVar="-1" Cut="0.0000000000000000e+00" cType="1" res="9.1297045582905412e-04" rms="4.8932373523712158e-01" purity="5.0448334217071533e-01" nType="-99"/>
          <Node pos="r" depth="2" NCoef="0" IVar="-1" Cut="0.0000000000000000e+00" cType="1" res="-1.9483136711642146e-03" rms="4.8709896206855774e-01" purity="4.9478769302368164e-01" nType="-99"/>
        </Node>
      </Node>
    </BinaryTree>
    <BinaryTree type="DecisionTree" boostWeight="1.0000000000000000e+00" itree="115">
      <Node pos="s" depth="0" NCoef="0" IVar="3" Cut="-8.9543431997299194e-01" cType="1" res="5.1677232841029763e-04" rms="4.9014976620674133e-01" purity="5.0106573104858398e-01" nType="0">
        <Node pos="l" depth="1" NCoef="0" IVar="3" Cut="-9.5826619863510132e-01" cType="1" res="1.3257418759167194e-02" rms="4.7498175501823425e-01" purity="3.6741858720779419e-01" nType="0">
          <Node pos="l" depth="2" NCoef="0" IVar="-1" Cut="0.0000000000000000e+00" cType="1" res="-5.6175733916461468e-03" rms="4.3104234337806702e-01" purity="2.6052215695381165e-01" nType="-99"/>
          <Node pos="r" depth="2" NCoef="0" IVar="-1" Cut="0.0000000000000000e+00" cType="1" res="3.8890324067324400e-03" rms="4.8408296704292297e-01" purity="3.9194589853286743e-01" nType="-99"/>
        </Node>
        <Node pos="r" depth="1" NCoef="0" IVar="4" Cut="7.9577982425689697e-01" cType="1" res="-2.1454812958836555e-03" rms="4.9321874976158142e-01" purity="5.2899223566055298e-01" nType="0">
          <Node pos="l" depth="2" NCoef="0" IVar="-1" Cut="0.0000000000000000e+00" cType="1" res="1.5370178152807057e-04" rms="4.9412375688552856e-01" purity="5.2292799949645996e-01" nType="-99"/>
          <Node pos="r" depth="2" NCoef="0" IVar="-1" Cut="0.0000000000000000e+00" cType="1" res="-4.3699801899492741e-03" rms="4.8594394326210022e-01" purity="5.7326483726501465e-01" nType="-99"/>
        </Node>
      </Node>
    </BinaryTree>
    <BinaryTree type="DecisionTree" boostWeight="1.0000000000000000e+00" itree="116">
      <Node pos="s" depth="0" NCoef="0" IVar="5" Cut="4.9690742045640945e-02" cType="1" res="1.7435664631193504e-05" rms="4.8909988999366760e-01" purity="5.0061392784118652e-01" nType="0">
        <Node pos="l" depth="1" NCoef="0" IVar="4" Cut="7.9865038394927979e-01" cType="1" res="-2.7548470534384251e-03" rms="4.8942455649375916e-01" purity="4.9730676412582397e-01" nType="0">
          <Node pos="l" depth="2" NCoef="0" IVar="-1" Cut="0.0000000000000000e+00" cType="1" res="-6.8323622690513730e-04" rms="4.9015039205551147e-01" purity="4.9148857593536377e-01" nType="-99"/>
          <Node pos="r" depth="2" NCoef="0" IVar="-1" Cut="0.0000000000000000e+00" cType="1" res="1.4264618512243032e-03" rms="4.8417890071868896e-01" purity="5.3794211149215698e-01" nType="-99"/>
        </Node>
        <Node pos="r" depth="1" NCoef="0" IVar="5" Cut="8.2933574914932251e-01" cType="1" res="1.9292874261736870e-02" rms="4.8639976978302002e-01" purity="5.2360844612121582e-01" nType="0">
          <Node pos="l" depth="2" NCoef="0" IVar="-1" Cut="0.0000000000000000e+00" cType="1" res="1.7987971659749746e-03" rms="4.8823317885398865e-01" purity="5.1487046480178833e-01" nType="-99"/>
          <Node pos="r" depth="2" NCoef="0" IVar="-1" Cut="0.0000000000000000e+00" cType="1" res="8.0568389967083931e-03" rms="4.7906255722045898e-01" purity="5.5365413427352905e-01" nType="-99"/>
        </Node>
      </Node>
    </BinaryTree>
    <BinaryTree type="DecisionTree" boostWeight="1.0000000000000000e+00" itree="117">
      <Node pos="s" depth="0" NCoef="0" IVar="0" Cut="8.2430858612060547e+00" cType="1" res="-5.7662726612761617e-04" rms="4.8923391103744507e-01" purity="4.9955603480339050e-01" nType="0">
        <Node pos="l" depth="1" NCoef="0" IVar="-1" Cut="0.0000000000000000e+00" cType="1" res="-2.1344516426324844e-03" rms="4.9868288636207581e-01" purity="4.8107895255088806e-01" nType="-99"/>
        <Node pos="r" depth="1" NCoef="0" IVar="0" Cut="8.6930541992187500e+00" cType="1" res="9.3889376148581505e-04" rms="4.8850241303443909e-01" purity="5.0090485811233521e-01" nType="0">
          <Node pos="l" depth="2" NCoef="0" IVar="-1" Cut="0.0000000000000000e+00" cType="1" res="1.1446175631135702e-03" rms="4.9318614602088928e-01" purity="5.1740175485610962e-01" nType="-99"/>
          <Node pos="r" depth="2" NCoef="0" IVar="-1" Cut="0.0000000000000000e+00" cType="1" res="-2.1516092238016427e-04" rms="4.8740983009338379e-01" purity="4.9716430902481079e-01" nType="-99"/>
        </Node>
      </Node>
    </BinaryTree>
    <BinaryTree type="DecisionTree" boostWeight="1.0000000000000000e+00" itree="118">
      <Node pos="s" depth="0" NCoef="0" IVar="5" Cut="-6.9153308868408203e-01" cType="1" res="-3.5704073961824179e-03" rms="4.8839050531387329e-01" purity="4.9708101153373718e-01" nType="0">
        <Node pos="l" depth="1" NCoef="0" IVar="1" Cut="4.0000000000000000e+00" cType="1" res="1.5588115900754929e-02" rms="4.2715072631835938e-01" purity="5.0996202230453491e-01" nType="0">
          <Node pos="l" depth="2" NCoef="0" IVar="-1" Cut="0.0000000000000000e+00" cType="1" res="1.0468368418514729e-03" rms="4.8467326164245605e-01" purity="4.9735826253890991e-01" nType="-99"/>
          <Node pos="r" depth="2" NCoef="0" IVar="-1" Cut="0.0000000000000000e+00" cType="1" res="5.6733228266239166e-03" rms="4.8386624455451965e-01" purity="5.3372019529342651e-01" nType="-99"/>
        </Node>
        <Node pos="r" depth="1" NCoef="0" IVar="3" Cut="8.0234485864639282e-01" cType="1" res="-6.2859370373189449e-03" rms="4.8886239528656006e-01" purity="4.9527496099472046e-01" nType="0">
          <Node pos="l" depth="2" NCoef="0" IVar="-1" Cut="0.0000000000000000e+00" cType="1" res="-1.6546953702345490e-03" rms="4.9096611142158508e-01" purity="4.3835550546646118e-01" nType="-99"/>
          <Node pos="r" depth="2" NCoef="0" IVar="-1" Cut="0.0000000000000000e+00" cType="1" res="3.1667933217249811e-04" rms="4.8500749468803406e-01" purity="5.9605652093887329e-01" nType="-99"/>
        </Node>
      </Node>
    </BinaryTree>
    <BinaryTree type="DecisionTree" boostWeight="1.0000000000000000e+00" itree="119">
      <Node pos="s" depth="0" NCoef="0" IVar="0" Cut="8.4704437255859375e+00" cType="1" res="-1.3575273624155670e-04" rms="4.8869919776916504e-01" purity="4.9975848197937012e-01" nType="0">
        <Node pos="l" depth="1" NCoef="0" IVar="0" Cut="8.2175455093383789e+00" cType="1" res="-2.0871205255389214e-02" rms="4.9565818905830383e-01" purity="4.8468995094299316e-01" nType="0">
          <Node pos="l" depth="2" NCoef="0" IVar="-1" Cut="0.0000000000000000e+00" cType="1" res="-6.5322429873049259e-04" rms="4.9905550479888916e-01" purity="4.9128088355064392e-01" nType="-99"/>
          <Node pos="r" depth="2" NCoef="0" IVar="-1" Cut="0.0000000000000000e+00" cType="1" res="-3.3348393626511097e-03" rms="4.9244341254234314e-01" purity="4.7909060120582581e-01" nType="-99"/>
        </Node>
        <Node pos="r" depth="1" NCoef="0" IVar="3" Cut="-8.9630496501922607e-01" cType="1" res="3.0725223477929831e-03" rms="4.8753482103347778e-01" purity="5.0208991765975952e-01" nType="0">
          <Node pos="l" depth="2" NCoef="0" IVar="-1" Cut="0.0000000000000000e+00" cType="1" res="-2.4005258455872536e-03" rms="4.6728470921516418e-01" purity="3.3916082978248596e-01" nType="-99"/>
          <Node pos="r" depth="2" NCoef="0" IVar="-1" Cut="0.0000000000000000e+00" cType="1" res="1.0929264826700091e-03" rms="4.9181306362152100e-01" purity="5.3793102502822876e-01" nType="-99"/>
        </Node>
      </Node>
    </BinaryTree>
    <BinaryTree type="DecisionTree" boostWeight="1.0000000000000000e+00" itree="120">
      <Node pos="s" depth="0" NCoef="0" IVar="1" Cut="5.0000000000000000e+00" cType="1" res="-4.9136776942759752e-04" rms="1.5981619060039520e-01" purity="4.9974486231803894e-01" nType="0">
        <Node pos="l" depth="1" NCoef="0" IVar="5" Cut="5.1539145410060883e-02" cType="1" res="-1.8909075297415257e-03" rms="4.8871102929115295e-01" purity="4.9761155247688293e-01" nType="0">
          <Node pos="l" depth="2" NCoef="0" IVar="-1" Cut="0.0000000000000000e+00" cType="1" res="3.8321035390254110e-05" rms="4.8886185884475708e-01" purity="4.9912548065185547e-01" nType="-99"/>
          <Node pos="r" depth="2" NCoef="0" IVar="-1" Cut="0.0000000000000000e+00" cType="1" res="-2.8506466187536716e-03" rms="4.8727571964263916e-01" purity="4.8622369766235352e-01" nType="-99"/>
        </Node>
        <Node pos="r" depth="1" NCoef="0" IVar="-1" Cut="0.0000000000000000e+00" cType="1" res="3.8800034672021866e-03" rms="4.8783764243125916e-01" purity="5.4293155670166016e-01" nType="-99"/>
      </Node>
    </BinaryTree>
    <BinaryTree type="DecisionTree" boostWeight="1.0000000000000000e+00" itree="121">
      <Node pos="s" depth="0" NCoef="0" IVar="1" Cut="5.0000000000000000e+00" cType="1" res="-2.8053200803697109e-03" rms="3.1645840406417847e-01" purity="4.9682500958442688e-01" nType="0">
        <Node pos="l" depth="1" NCoef="0" IVar="0" Cut="9.1747150421142578e+00" cType="1" res="-1.6607758589088917e-03" rms="4.8932558298110962e-01" purity="4.9713349342346191e-01" nType="0">
          <Node pos="l" depth="2" NCoef="0" IVar="-1" Cut="0.0000000000000000e+00" cType="1" res="-8.3215365884825587e-04" rms="4.9347147345542908e-01" purity="4.9420735239982605e-01" nType="-99"/>
          <Node pos="r" depth="2" NCoef="0" IVar="-1" Cut="0.0000000000000000e+00" cType="1" res="1.2380052357912064e-03" rms="4.8298475146293640e-01" purity="5.0150030851364136e-01" nType="-99"/>
        </Node>
        <Node pos="r" depth="1" NCoef="0" IVar="-1" Cut="0.0000000000000000e+00" cType="1" res="-4.9032545648515224e-03" rms="4.8626467585563660e-01" purity="4.9092885851860046e-01" nType="-99"/>
      </Node>
    </BinaryTree>
    <BinaryTree type="DecisionTree" boostWeight="1.0000000000000000e+00" itree="122">
      <Node pos="s" depth="0" NCoef="0" IVar="1" Cut="5.0000000000000000e+00" cType="1" res="5.0535827176645398e-04" rms="1.6315512359142303e-01" purity="5.0044357776641846e-01" nType="0">
        <Node pos="l" depth="1" NCoef="0" IVar="4" Cut="-8.9281696081161499e-01" cType="1" res="-8.3220518718007952e-05" rms="4.8879128694534302e-01" purity="4.9856173992156982e-01" nType="0">
          <Node pos="l" depth="2" NCoef="0" IVar="-1" Cut="0.0000000000000000e+00" cType="1" res="-5.1206662319600582e-03" rms="4.8032993078231812e-01" purity="4.2845365405082703e-01" nType="-99"/>
          <Node pos="r" depth="2" NCoef="0" IVar="-1" Cut="0.0000000000000000e+00" cType="1" res="1.2300712114665657e-04" rms="4.8903152346611023e-01" purity="5.0077760219573975e-01" nType="-99"/>
        </Node>
        <Node pos="r" depth="1" NCoef="0" IVar="-1" Cut="0.0000000000000000e+00" cType="1" res="3.6560187581926584e-03" rms="4.9138870835304260e-01" purity="5.3806883096694946e-01" nType="-99"/>
      </Node>
    </BinaryTree>
    <BinaryTree type="DecisionTree" boostWeight="1.0000000000000000e+00" itree="123">
      <Node pos="s" depth="0" NCoef="0" IVar="1" Cut="3.0000000000000000e+00" cType="1" res="-1.2621954738278873e-05" rms="3.5719871520996094e-01" purity="5.0023412704467773e-01" nType="0">
        <Node pos="l" depth="1" NCoef="0" IVar="4" Cut="-7.0223355293273926e-01" cType="1" res="3.9182002656161785e-03" rms="4.9039170145988464e-01" purity="5.0292927026748657e-01" nType="0">
          <Node pos="l" depth="2" NCoef="0" IVar="-1" Cut="0.0000000000000000e+00" cType="1" res="2.4054953828454018e-03" rms="4.8965120315551758e-01" purity="4.9245244264602661e-01" nType="-99"/>
          <Node pos="r" depth="2" NCoef="0" IVar="-1" Cut="0.0000000000000000e+00" cType="1" res="9.1491245257202536e-05" rms="4.9057292938232422e-01" purity="5.0617605447769165e-01" nType="-99"/>
        </Node>
        <Node pos="r" depth="1" NCoef="0" IVar="0" Cut="9.3046350479125977e+00" cType="1" res="-6.2472783029079437e-03" rms="4.8891898989677429e-01" purity="4.9523428082466125e-01" nType="0">
          <Node pos="l" depth="2" NCoef="0" IVar="-1" Cut="0.0000000000000000e+00" cType="1" res="-1.7169538186863065e-03" rms="4.9208912253379822e-01" purity="4.9139037728309631e-01" nType="-99"/>
          <Node pos="r" depth="2" NCoef="0" IVar="-1" Cut="0.0000000000000000e+00" cType="1" res="1.9548863638192415e-03" rms="4.8109641671180725e-01" purity="5.0425761938095093e-01" nType="-99"/>
        </Node>
      </Node>
    </BinaryTree>
    <BinaryTree type="DecisionTree" boostWeight="1.0000000000000000e+00" itree="124">
      <Node pos="s" depth="0" NCoef="0" IVar="0" Cut="8.4679145812988281e+00" cType="1" res="-1.4207027852535248e-03" rms="4.8887756466865540e-01" purity="4.9902313947677612e-01" nType="0">
        <Node pos="l" depth="1" NCoef="0" IVar="2" Cut="2.0000000000000000e+00" cType="1" res="-1.2216055765748024e-03" rms="2.5910487398505211e-02" purity="5.1372653245925903e-01" nType="0">
          <Node pos="l" depth="2" NCoef="0" IVar="-1" Cut="0.0000000000000000e+00" cType="1" res="3.0114664696156979e-03" rms="4.9418804049491882e-01" purity="5.3579384088516235e-01" nType="-99"/>
          <Node pos="r" depth="2" NCoef="0" IVar="-1" Cut="0.0000000000000000e+00" cType="1" res="-1.8252655863761902e-03" rms="4.9757012724876404e-01" purity="4.8552337288856506e-01" nType="-99"/>
        </Node>
        <Node pos="r" depth="1" NCoef="0" IVar="3" Cut="8.9726012945175171e-01" cType="1" res="-3.1739445403218269e-03" rms="4.8764714598655701e-01" purity="4.9664393067359924e-01" nType="0">
          <Node pos="l" depth="2" NCoef="0" IVar="-1" Cut="0.0000000000000000e+00" cType="1" res="-1.0076123289763927e-03" rms="4.9163094162940979e-01" purity="4.6070122718811035e-01" nType="-99"/>
          <Node pos="r" depth="2" NCoef="0" IVar="-1" Cut="0.0000000000000000e+00" cType="1" res="1.6938247717916965e-03" rms="4.6950292587280273e-01" purity="6.5507000684738159e-01" nType="-99"/>
        </Node>
      </Node>
    </BinaryTree>
    <BinaryTree type="DecisionTree" boostWeight="1.0000000000000000e+00" itree="125">
      <Node pos="s" depth="0" NCoef="0" IVar="4" Cut="-7.9616653919219971e-01" cType="1" res="-2.4665109813213348e-03" rms="4.8951613903045654e-01" purity="4.9761787056922913e-01" nType="0">
        <Node pos="l" depth="1" NCoef="0" IVar="1" Cut="3.0000000000000000e+00" cType="1" res="-1.2073392979800701e-02" rms="4.0275013446807861e-01" purity="4.5638629794120789e-01" nType="0">
          <Node pos="l" depth="2" NCoef="0" IVar="-1" Cut="0.0000000000000000e+00" cType="1" res="-5.7897681836038828e-04" rms="4.7800135612487793e-01" purity="4.6729081869125366e-01" nType="-99"/>
          <Node pos="r" depth="2" NCoef="0" IVar="-1" Cut="0.0000000000000000e+00" cType="1" res="-4.1443486697971821e-03" rms="4.8406317830085754e-01" purity="4.4779270887374878e-01" nType="-99"/>
        </Node>
        <Node pos="r" depth="1" NCoef="0" IVar="0" Cut="8.3992376327514648e+00" cType="1" res="-2.2382906172424555e-04" rms="4.9088436365127563e-01" purity="5.0491321086883545e-01" nType="0">
          <Node pos="l" depth="2" NCoef="0" IVar="-1" Cut="0.0000000000000000e+00" cType="1" res="1.6649083700031042e-03" rms="4.9896782636642456e-01" purity="5.2268540859222412e-01" nType="-99"/>
          <Node pos="r" depth="2" NCoef="0" IVar="-1" Cut="0.0000000000000000e+00" cType="1" res="-4.0672818431630731e-04" rms="4.8975810408592224e-01" purity="5.0255262851715088e-01" nType="-99"/>
        </Node>
      </Node>
    </BinaryTree>
    <BinaryTree type="DecisionTree" boostWeight="1.0000000000000000e+00" itree="126">
      <Node pos="s" depth="0" NCoef="0" IVar="1" Cut="4.0000000000000000e+00" cType="1" res="4.0898236329667270e-04" rms="1.8768520653247833e-01" purity="4.9910166859626770e-01" nType="0">
        <Node pos="l" depth="1" NCoef="0" IVar="1" Cut="2.0000000000000000e+00" cType="1" res="-2.0659161236835644e-05" rms="3.2696514390408993e-03" purity="5.0012695789337158e-01" nType="0">
          <Node pos="l" depth="2" NCoef="0" IVar="-1" Cut="0.0000000000000000e+00" cType="1" res="-1.0088313138112426e-03" rms="4.9068459868431091e-01" purity="4.9487990140914917e-01" nType="-99"/>
          <Node pos="r" depth="2" NCoef="0" IVar="-1" Cut="0.0000000000000000e+00" cType="1" res="8.9697731891646981e-04" rms="4.8869702219963074e-01" purity="5.0285804271697998e-01" nType="-99"/>
        </Node>
        <Node pos="r" depth="1" NCoef="0" IVar="2" Cut="2.0000000000000000e+00" cType="1" res="2.9322404880076647e-03" rms="7.2451680898666382e-02" purity="4.9279677867889404e-01" nType="0">
          <Node pos="l" depth="2" NCoef="0" IVar="-1" Cut="0.0000000000000000e+00" cType="1" res="1.7870783631224185e-04" rms="4.8448035120964050e-01" purity="5.0684899091720581e-01" nType="-99"/>
          <Node pos="r" depth="2" NCoef="0" IVar="-1" Cut="0.0000000000000000e+00" cType="1" res="-6.3745854422450066e-03" rms="4.9350702762603760e-01" purity="4.6559411287307739e-01" nType="-99"/>
        </Node>
      </Node>
    </BinaryTree>
    <BinaryTree type="DecisionTree" boostWeight="1.0000000000000000e+00" itree="127">
      <Node pos="s" depth="0" NCoef="0" IVar="1" Cut="2.0000000000000000e+00" cType="1" res="-8.5783272515982389e-04" rms="3.3462226390838623e-01" purity="4.9817413091659546e-01" nType="0">
        <Node pos="l" depth="1" NCoef="0" IVar="3" Cut="-8.9397412538528442e-01" cType="1" res="5.2688382565975189e-03" rms="4.8906648159027100e-01" purity="5.0423759222030640e-01" nType="0">
          <Node pos="l" depth="2" NCoef="0" IVar="-1" Cut="0.0000000000000000e+00" cType="1" res="-4.0978556498885155e-03" rms="4.6034881472587585e-01" purity="3.2418024539947510e-01" nType="-99"/>
          <Node pos="r" depth="2" NCoef="0" IVar="-1" Cut="0.0000000000000000e+00" cType="1" res="1.5050426591187716e-03" rms="4.9325391650199890e-01" purity="5.3249937295913696e-01" nType="-99"/>
        </Node>
        <Node pos="r" depth="1" NCoef="0" IVar="4" Cut="-7.0385897159576416e-01" cType="1" res="-3.3674570731818676e-03" rms="4.8895877599716187e-01" purity="4.9567314982414246e-01" nType="0">
          <Node pos="l" depth="2" NCoef="0" IVar="-1" Cut="0.0000000000000000e+00" cType="1" res="-2.2432450205087662e-03" rms="4.8601806163787842e-01" purity="4.6137481927871704e-01" nType="-99"/>
          <Node pos="r" depth="2" NCoef="0" IVar="-1" Cut="0.0000000000000000e+00" cType="1" res="2.2543509840033948e-04" rms="4.9025386571884155e-01" purity="5.1170712709426880e-01" nType="-99"/>
        </Node>
      </Node>
    </BinaryTree>
    <BinaryTree type="DecisionTree" boostWeight="1.0000000000000000e+00" itree="128">
      <Node pos="s" depth="0" NCoef="0" IVar="4" Cut="8.9246982336044312e-01" cType="1" res="1.3398157898336649e-03" rms="4.8941591382026672e-01" purity="5.0032997131347656e-01" nType="0">
        <Node pos="l" depth="1" NCoef="0" IVar="1" Cut="5.0000000000000000e+00" cType="1" res="1.8001764547079802e-03" rms="3.1965762376785278e-01" purity="4.9723368883132935e-01" nType="0">
          <Node pos="l" depth="2" NCoef="0" IVar="-1" Cut="0.0000000000000000e+00" cType="1" res="-1.7998441762756556e-04" rms="4.9006924033164978e-01" purity="4.9568322300910950e-01" nType="-99"/>
          <Node pos="r" depth="2" NCoef="0" IVar="-1" Cut="0.0000000000000000e+00" cType="1" res="3.2720528542995453e-03" rms="4.8615851998329163e-01" purity="5.3198212385177612e-01" nType="-99"/>
        </Node>
        <Node pos="r" depth="1" NCoef="0" IVar="-1" Cut="0.0000000000000000e+00" cType="1" res="7.7297845855355263e-03" rms="4.7401198744773865e-01" purity="5.8212941884994507e-01" nType="-99"/>
      </Node>
    </BinaryTree>
    <BinaryTree type="DecisionTree" boostWeight="1.0000000000000000e+00" itree="129">
      <Node pos="s" depth="0" NCoef="0" IVar="2" Cut="3.0000000000000000e+00" cType="1" res="-3.2281893072649837e-04" rms="3.2080389559268951e-02" purity="4.9600076675415039e-01" nType="0">
        <Node pos="l" depth="1" NCoef="0" IVar="5" Cut="-7.8192657232284546e-01" cType="1" res="-1.4207337517291307e-03" rms="4.8901516199111938e-01" purity="4.9747654795646667e-01" nType="0">
          <Node pos="l" depth="2" NCoef="0" IVar="-1" Cut="0.0000000000000000e+00" cType="1" res="3.1733652576804161e-03" rms="4.9018356204032898e-01" purity="5.1674383878707886e-01" nType="-99"/>
          <Node pos="r" depth="2" NCoef="0" IVar="-1" Cut="0.0000000000000000e+00" cType="1" res="-4.2313529411330819e-04" rms="4.8890972137451172e-01" purity="4.9621182680130005e-01" nType="-99"/>
        </Node>
        <Node pos="r" depth="1" NCoef="0" IVar="3" Cut="-7.8806984424591064e-01" cType="1" res="-2.1701319143176079e-02" rms="4.9026927351951599e-01" purity="4.8394435644149780e-01" nType="0">
          <Node pos="l" depth="2" NCoef="0" IVar="-1" Cut="0.0000000000000000e+00" cType="1" res="-8.0787967890501022e-03" rms="4.8247581720352173e-01" purity="3.8993674516677856e-01" nType="-99"/>
          <Node pos="r" depth="2" NCoef="0" IVar="-1" Cut="0.0000000000000000e+00" cType="1" res="-1.8421969143673778e-03" rms="4.9387961626052856e-01" purity="5.3297793865203857e-01" nType="-99"/>
        </Node>
      </Node>
    </BinaryTree>
    <BinaryTree type="DecisionTree" boostWeight="1.0000000000000000e+00" itree="130">
      <Node pos="s" depth="0" NCoef="0" IVar="4" Cut="-7.0235341787338257e-01" cType="1" res="3.7121786735951900e-03" rms="4.8792049288749695e-01" purity="5.0283128023147583e-01" nType="0">
        <Node pos="l" depth="1" NCoef="0" IVar="2" Cut="2.0000000000000000e+00" cType="1" res="-9.6350430976599455e-04" rms="1.6937620937824249e-01" purity="4.7029498219490051e-01" nType="0">
          <Node pos="l" depth="2" NCoef="0" IVar="-1" Cut="0.0000000000000000e+00" cType="1" res="4.9248943105340004e-04" rms="4.8600074648857117e-01" purity="4.7907444834709167e-01" nType="-99"/>
          <Node pos="r" depth="2" NCoef="0" IVar="-1" Cut="0.0000000000000000e+00" cType="1" res="-2.8509318362921476e-03" rms="4.8465859889984131e-01" purity="4.5506778359413147e-01" nType="-99"/>
        </Node>
        <Node pos="r" depth="1" NCoef="0" IVar="5" Cut="-7.8520047664642334e-01" cType="1" res="6.6066780127584934e-03" rms="4.8873868584632874e-01" purity="5.1480811834335327e-01" nType="0">
          <Node pos="l" depth="2" NCoef="0" IVar="-1" Cut="0.0000000000000000e+00" cType="1" res="-5.4746861569583416e-03" rms="4.8443114757537842e-01" purity="5.0188541412353516e-01" nType="-99"/>
          <Node pos="r" depth="2" NCoef="0" IVar="-1" Cut="0.0000000000000000e+00" cType="1" res="1.2878855923190713e-03" rms="4.8885372281074524e-01" purity="5.1536744832992554e-01" nType="-99"/>
        </Node>
      </Node>
    </BinaryTree>
    <BinaryTree type="DecisionTree" boostWeight="1.0000000000000000e+00" itree="131">
      <Node pos="s" depth="0" NCoef="0" IVar="0" Cut="8.1768674850463867e+00" cType="1" res="-3.0625166837126017e-03" rms="4.8958799242973328e-01" purity="4.9618807435035706e-01" nType="0">
        <Node pos="l" depth="1" NCoef="0" IVar="-1" Cut="0.0000000000000000e+00" cType="1" res="-3.9878287352621555e-03" rms="4.9923458695411682e-01" purity="4.5534926652908325e-01" nType="-99"/>
        <Node pos="r" depth="1" NCoef="0" IVar="4" Cut="-7.0183992385864258e-01" cType="1" res="-8.6574506713077426e-04" rms="4.8894405364990234e-01" purity="4.9850022792816162e-01" nType="0">
          <Node pos="l" depth="2" NCoef="0" IVar="-1" Cut="0.0000000000000000e+00" cType="1" res="1.3547920389100909e-03" rms="4.8672571778297424e-01" purity="4.8371854424476624e-01" nType="-99"/>
          <Node pos="r" depth="2" NCoef="0" IVar="-1" Cut="0.0000000000000000e+00" cType="1" res="-6.9358781911432743e-04" rms="4.8973560333251953e-01" purity="5.0407922267913818e-01" nType="-99"/>
        </Node>
      </Node>
    </BinaryTree>
    <BinaryTree type="DecisionTree" boostWeight="1.0000000000000000e+00" itree="132">
      <Node pos="s" depth="0" NCoef="0" IVar="0" Cut="8.2294158935546875e+00" cType="1" res="2.3502965923398733e-03" rms="4.8945182561874390e-01" purity="5.0165516138076782e-01" nType="0">
        <Node pos="l" depth="1" NCoef="0" IVar="-1" Cut="0.0000000000000000e+00" cType="1" res="-2.3319048341363668e-03" rms="4.9612280726432800e-01" purity="4.7433963418006897e-01" nType="-99"/>
        <Node pos="r" depth="1" NCoef="0" IVar="0" Cut="8.6555709838867188e+00" cType="1" res="4.0880222804844379e-03" rms="4.8894399404525757e-01" purity="5.0352340936660767e-01" nType="0">
          <Node pos="l" depth="2" NCoef="0" IVar="-1" Cut="0.0000000000000000e+00" cType="1" res="2.5842762552201748e-03" rms="4.9491372704505920e-01" purity="5.2941864728927612e-01" nType="-99"/>
          <Node pos="r" depth="2" NCoef="0" IVar="-1" Cut="0.0000000000000000e+00" cType="1" res="5.9065016102977097e-05" rms="4.8768785595893860e-01" purity="4.9849873781204224e-01" nType="-99"/>
        </Node>
      </Node>
    </BinaryTree>
    <BinaryTree type="DecisionTree" boostWeight="1.0000000000000000e+00" itree="133">
      <Node pos="s" depth="0" NCoef="0" IVar="5" Cut="-7.8285032510757446e-01" cType="1" res="-2.4311353627126664e-04" rms="4.8898294568061829e-01" purity="4.9859869480133057e-01" nType="0">
        <Node pos="l" depth="1" NCoef="0" IVar="5" Cut="-8.2702070474624634e-01" cType="1" res="1.7856923863291740e-02" rms="4.8383745551109314e-01" purity="5.1192462444305420e-01" nType="0">
          <Node pos="l" depth="2" NCoef="0" IVar="-1" Cut="0.0000000000000000e+00" cType="1" res="1.0737723205238581e-03" rms="4.8419606685638428e-01" purity="5.0176590681076050e-01" nType="-99"/>
          <Node pos="r" depth="2" NCoef="0" IVar="-1" Cut="0.0000000000000000e+00" cType="1" res="5.1021240651607513e-03" rms="4.8312300443649292e-01" purity="5.2277022600173950e-01" nType="-99"/>
        </Node>
        <Node pos="r" depth="1" NCoef="0" IVar="0" Cut="8.2212305068969727e+00" cType="1" res="-1.3703472213819623e-03" rms="4.8927944898605347e-01" purity="4.9776875972747803e-01" nType="0">
          <Node pos="l" depth="2" NCoef="0" IVar="-1" Cut="0.0000000000000000e+00" cType="1" res="-1.6205102438107133e-03" rms="4.9856799840927124e-01" purity="4.8132467269897461e-01" nType="-99"/>
          <Node pos="r" depth="2" NCoef="0" IVar="-1" Cut="0.0000000000000000e+00" cType="1" res="-6.4375606598332524e-05" rms="4.8864647746086121e-01" purity="4.9884992837905884e-01" nType="-99"/>
        </Node>
      </Node>
    </BinaryTree>
    <BinaryTree type="DecisionTree" boostWeight="1.0000000000000000e+00" itree="134">
      <Node pos="s" depth="0" NCoef="0" IVar="4" Cut="-8.8997966051101685e-01" cType="1" res="1.2979739112779498e-03" rms="4.8891568183898926e-01" purity="5.0067651271820068e-01" nType="0">
        <Node pos="l" depth="1" NCoef="0" IVar="-1" Cut="0.0000000000000000e+00" cType="1" res="-4.2731626890599728e-03" rms="4.7126033902168274e-01" purity="4.3711003661155701e-01" nType="-99"/>
        <Node pos="r" depth="1" NCoef="0" IVar="0" Cut="9.7029800415039062e+00" cType="1" res="2.2525866515934467e-03" rms="4.8958709836006165e-01" purity="5.0322854518890381e-01" nType="0">
          <Node pos="l" depth="2" NCoef="0" IVar="-1" Cut="0.0000000000000000e+00" cType="1" res="5.7110859779641032e-04" rms="4.9082964658737183e-01" purity="5.0517004728317261e-01" nType="-99"/>
          <Node pos="r" depth="2" NCoef="0" IVar="-1" Cut="0.0000000000000000e+00" cType="1" res="-4.5815794728696346e-03" rms="4.7490698099136353e-01" purity="4.8118218779563904e-01" nType="-99"/>
        </Node>
      </Node>
    </BinaryTree>
    <BinaryTree type="DecisionTree" boostWeight="1.0000000000000000e+00" itree="135">
      <Node pos="s" depth="0" NCoef="0" IVar="5" Cut="-7.8438508510589600e-01" cType="1" res="1.2670354917645454e-03" rms="4.8979681730270386e-01" purity="5.0088322162628174e-01" nType="0">
        <Node pos="l" depth="1" NCoef="0" IVar="4" Cut="-7.9341393709182739e-01" cType="1" res="-1.8131019547581673e-02" rms="4.8702728748321533e-01" purity="4.8115366697311401e-01" nType="0">
          <Node pos="l" depth="2" NCoef="0" IVar="-1" Cut="0.0000000000000000e+00" cType="1" res="7.1908120298758149e-04" rms="4.8538333177566528e-01" purity="4.6191370487213135e-01" nType="-99"/>
          <Node pos="r" depth="2" NCoef="0" IVar="-1" Cut="0.0000000000000000e+00" cType="1" res="-6.5035521984100342e-03" rms="4.8763364553451538e-01" purity="4.9757611751556396e-01" nType="-99"/>
        </Node>
        <Node pos="r" depth="1" NCoef="0" IVar="3" Cut="-8.0192226171493530e-01" cType="1" res="2.4301386438310146e-03" rms="4.8993796110153198e-01" purity="5.0206613540649414e-01" nType="0">
          <Node pos="l" depth="2" NCoef="0" IVar="-1" Cut="0.0000000000000000e+00" cType="1" res="1.4380256179720163e-03" rms="4.8680657148361206e-01" purity="4.1779464483261108e-01" nType="-99"/>
          <Node pos="r" depth="2" NCoef="0" IVar="-1" Cut="0.0000000000000000e+00" cType="1" res="-1.7987586033996195e-04" rms="4.9167144298553467e-01" purity="5.4992955923080444e-01" nType="-99"/>
        </Node>
      </Node>
    </BinaryTree>
    <BinaryTree type="DecisionTree" boostWeight="1.0000000000000000e+00" itree="136">
      <Node pos="s" depth="0" NCoef="0" IVar="3" Cut="-7.0645195245742798e-01" cType="1" res="-1.5949221560731530e-03" rms="4.8796322941780090e-01" purity="4.9794504046440125e-01" nType="0">
        <Node pos="l" depth="1" NCoef="0" IVar="3" Cut="-9.5097482204437256e-01" cType="1" res="-8.4757991135120392e-03" rms="4.8775920271873474e-01" purity="4.1693291068077087e-01" nType="0">
          <Node pos="l" depth="2" NCoef="0" IVar="-1" Cut="0.0000000000000000e+00" cType="1" res="-9.6901310607790947e-03" rms="4.2513129115104675e-01" purity="2.4419008195400238e-01" nType="-99"/>
          <Node pos="r" depth="2" NCoef="0" IVar="-1" Cut="0.0000000000000000e+00" cType="1" res="-6.9774675648659468e-04" rms="4.9370864033699036e-01" purity="4.3507841229438782e-01" nType="-99"/>
        </Node>
        <Node pos="r" depth="1" NCoef="0" IVar="3" Cut="9.5285207033157349e-01" cType="1" res="5.1426831632852554e-03" rms="4.8806893825531006e-01" purity="5.7727038860321045e-01" nType="0">
          <Node pos="l" depth="2" NCoef="0" IVar="-1" Cut="0.0000000000000000e+00" cType="1" res="3.6982598248869181e-04" rms="4.9321433901786804e-01" purity="5.6099760532379150e-01" nType="-99"/>
          <Node pos="r" depth="2" NCoef="0" IVar="-1" Cut="0.0000000000000000e+00" cType="1" res="7.6567954383790493e-03" rms="4.2845678329467773e-01" purity="7.5027841329574585e-01" nType="-99"/>
        </Node>
      </Node>
    </BinaryTree>
    <BinaryTree type="DecisionTree" boostWeight="1.0000000000000000e+00" itree="137">
      <Node pos="s" depth="0" NCoef="0" IVar="4" Cut="4.5085318386554718e-02" cType="1" res="-6.9163483567535877e-04" rms="4.8777431249618530e-01" purity="4.9830168485641479e-01" nType="0">
        <Node pos="l" depth="1" NCoef="0" IVar="2" Cut="2.0000000000000000e+00" cType="1" res="-3.8859288906678557e-04" rms="3.5300809890031815e-02" purity="4.8602047562599182e-01" nType="0">
          <Node pos="l" depth="2" NCoef="0" IVar="-1" Cut="0.0000000000000000e+00" cType="1" res="5.7348657719558105e-05" rms="4.8729452490806580e-01" purity="4.8984763026237488e-01" nType="-99"/>
          <Node pos="r" depth="2" NCoef="0" IVar="-1" Cut="0.0000000000000000e+00" cType="1" res="-1.9382508471608162e-03" rms="4.9051123857498169e-01" purity="4.8128837347030640e-01" nType="-99"/>
        </Node>
        <Node pos="r" depth="1" NCoef="0" IVar="5" Cut="-7.7857249975204468e-01" cType="1" res="1.0638008825480938e-02" rms="4.8500576615333557e-01" purity="5.2996605634689331e-01" nType="0">
          <Node pos="l" depth="2" NCoef="0" IVar="-1" Cut="0.0000000000000000e+00" cType="1" res="-3.0542304739356041e-03" rms="4.8281550407409668e-01" purity="5.0741016864776611e-01" nType="-99"/>
          <Node pos="r" depth="2" NCoef="0" IVar="-1" Cut="0.0000000000000000e+00" cType="1" res="2.3401207290589809e-03" rms="4.8517572879791260e-01" purity="5.3300362825393677e-01" nType="-99"/>
        </Node>
      </Node>
    </BinaryTree>
    <BinaryTree type="DecisionTree" boostWeight="1.0000000000000000e+00" itree="138">
      <Node pos="s" depth="0" NCoef="0" IVar="0" Cut="8.8323545455932617e+00" cType="1" res="3.9413032936863601e-04" rms="4.8901313543319702e-01" purity="4.9917313456535339e-01" nType="0">
        <Node pos="l" depth="1" NCoef="0" IVar="1" Cut="4.0000000000000000e+00" cType="1" res="-4.7977361828088760e-04" rms="5.0774782896041870e-02" purity="4.9114373326301575e-01" nType="0">
          <Node pos="l" depth="2" NCoef="0" IVar="-1" Cut="0.0000000000000000e+00" cType="1" res="-1.6177539946511388e-03" rms="4.9500632286071777e-01" purity="4.8549526929855347e-01" nType="-99"/>
          <Node pos="r" depth="2" NCoef="0" IVar="-1" Cut="0.0000000000000000e+00" cType="1" res="2.1391278132796288e-03" rms="4.8965543508529663e-01" purity="5.2453619241714478e-01" nType="-99"/>
        </Node>
        <Node pos="r" depth="1" NCoef="0" IVar="0" Cut="9.2855691909790039e+00" cType="1" res="5.0170728936791420e-03" rms="4.8637756705284119e-01" purity="5.0297701358795166e-01" nType="0">
          <Node pos="l" depth="2" NCoef="0" IVar="-1" Cut="0.0000000000000000e+00" cType="1" res="1.9193759653717279e-03" rms="4.9041339755058289e-01" purity="5.1054292917251587e-01" nType="-99"/>
          <Node pos="r" depth="2" NCoef="0" IVar="-1" Cut="0.0000000000000000e+00" cType="1" res="-6.2700221315026283e-04" rms="4.8148429393768311e-01" purity="4.9409052729606628e-01" nType="-99"/>
        </Node>
      </Node>
    </BinaryTree>
    <BinaryTree type="DecisionTree" boostWeight="1.0000000000000000e+00" itree="139">
      <Node pos="s" depth="0" NCoef="0" IVar="0" Cut="8.3550739288330078e+00" cType="1" res="2.4000783450901508e-03" rms="4.8952624201774597e-01" purity="5.0103354454040527e-01" nType="0">
        <Node pos="l" depth="1" NCoef="0" IVar="2" Cut="2.0000000000000000e+00" cType="1" res="-9.8691903986036777e-04" rms="4.0542375296354294e-02" purity="5.1784145832061768e-01" nType="0">
          <Node pos="l" depth="2" NCoef="0" IVar="-1" Cut="0.0000000000000000e+00" cType="1" res="2.5932043790817261e-03" rms="4.9704691767692566e-01" purity="5.2710682153701782e-01" nType="-99"/>
          <Node pos="r" depth="2" NCoef="0" IVar="-1" Cut="0.0000000000000000e+00" cType="1" res="5.8731756871566176e-04" rms="4.9955555796623230e-01" purity="5.0531762838363647e-01" nType="-99"/>
        </Node>
        <Node pos="r" depth="1" NCoef="0" IVar="0" Cut="8.7674140930175781e+00" cType="1" res="6.9135287776589394e-04" rms="4.8853147029876709e-01" purity="4.9918922781944275e-01" nType="0">
          <Node pos="l" depth="2" NCoef="0" IVar="-1" Cut="0.0000000000000000e+00" cType="1" res="-1.8353166524320841e-03" rms="4.9338290095329285e-01" purity="4.8600161075592041e-01" nType="-99"/>
          <Node pos="r" depth="2" NCoef="0" IVar="-1" Cut="0.0000000000000000e+00" cType="1" res="9.2164729721844196e-04" rms="4.8722323775291443e-01" purity="5.0248968601226807e-01" nType="-99"/>
        </Node>
      </Node>
    </BinaryTree>
    <BinaryTree type="DecisionTree" boostWeight="1.0000000000000000e+00" itree="140">
      <Node pos="s" depth="0" NCoef="0" IVar="1" Cut="3.0000000000000000e+00" cType="1" res="-9.1921119019389153e-04" rms="3.4494817256927490e-01" purity="4.9884289503097534e-01" nType="0">
        <Node pos="l" depth="1" NCoef="0" IVar="2" Cut="2.0000000000000000e+00" cType="1" res="-2.5666621513664722e-03" rms="1.7755302786827087e-01" purity="4.9321329593658447e-01" nType="0">
          <Node pos="l" depth="2" NCoef="0" IVar="-1" Cut="0.0000000000000000e+00" cType="1" res="-1.8557686125859618e-03" rms="4.8728159070014954e-01" purity="4.8589923977851868e-01" nType="-99"/>
          <Node pos="r" depth="2" NCoef="0" IVar="-1" Cut="0.0000000000000000e+00" cType="1" res="5.1571981748566031e-04" rms="4.9188518524169922e-01" purity="5.0206547975540161e-01" nType="-99"/>
        </Node>
        <Node pos="r" depth="1" NCoef="0" IVar="4" Cut="-7.9771512746810913e-01" cType="1" res="6.8982271477580070e-03" rms="4.8912364244461060e-01" purity="5.0933575630187988e-01" nType="0">
          <Node pos="l" depth="2" NCoef="0" IVar="-1" Cut="0.0000000000000000e+00" cType="1" res="-2.1325754933059216e-03" rms="4.8614016175270081e-01" purity="4.5859819650650024e-01" nType="-99"/>
          <Node pos="r" depth="2" NCoef="0" IVar="-1" Cut="0.0000000000000000e+00" cType="1" res="2.0153303630650043e-03" rms="4.8990252614021301e-01" purity="5.2528125047683716e-01" nType="-99"/>
        </Node>
      </Node>
    </BinaryTree>
    <BinaryTree type="DecisionTree" boostWeight="1.0000000000000000e+00" itree="141">
      <Node pos="s" depth="0" NCoef="0" IVar="4" Cut="-7.9589682817459106e-01" cType="1" res="2.6652938686311245e-03" rms="4.8880028724670410e-01" purity="5.0168758630752563e-01" nType="0">
        <Node pos="l" depth="1" NCoef="0" IVar="0" Cut="9.2333860397338867e+00" cType="1" res="-1.1207490228116512e-02" rms="4.8308530449867249e-01" purity="4.5629140734672546e-01" nType="0">
          <Node pos="l" depth="2" NCoef="0" IVar="-1" Cut="0.0000000000000000e+00" cType="1" res="-3.7775135133415461e-03" rms="4.8326295614242554e-01" purity="4.4036388397216797e-01" nType="-99"/>
          <Node pos="r" depth="2" NCoef="0" IVar="-1" Cut="0.0000000000000000e+00" cType="1" res="2.9055231716483831e-03" rms="4.8193612694740295e-01" purity="4.8134982585906982e-01" nType="-99"/>
        </Node>
        <Node pos="r" depth="1" NCoef="0" IVar="5" Cut="5.0952039659023285e-02" cType="1" res="5.1869191229343414e-03" rms="4.8978972434997559e-01" purity="5.0993907451629639e-01" nType="0">
          <Node pos="l" depth="2" NCoef="0" IVar="-1" Cut="0.0000000000000000e+00" cType="1" res="4.9667019629850984e-04" rms="4.9015682935714722e-01" purity="5.0626105070114136e-01" nType="-99"/>
          <Node pos="r" depth="2" NCoef="0" IVar="-1" Cut="0.0000000000000000e+00" cType="1" res="3.8350324612110853e-03" rms="4.8564973473548889e-01" purity="5.4668813943862915e-01" nType="-99"/>
        </Node>
      </Node>
    </BinaryTree>
    <BinaryTree type="DecisionTree" boostWeight="1.0000000000000000e+00" itree="142">
      <Node pos="s" depth="0" NCoef="0" IVar="4" Cut="7.9604053497314453e-01" cType="1" res="-2.7800193056464195e-03" rms="4.8903399705886841e-01" purity="4.9616593122482300e-01" nType="0">
        <Node pos="l" depth="1" NCoef="0" IVar="5" Cut="-6.8747782707214355e-01" cType="1" res="-5.9194797649979591e-03" rms="4.9012336134910583e-01" purity="4.8709714412689209e-01" nType="0">
          <Node pos="l" depth="2" NCoef="0" IVar="-1" Cut="0.0000000000000000e+00" cType="1" res="2.9315561987459660e-03" rms="4.8863929510116577e-01" purity="4.8971167206764221e-01" nType="-99"/>
          <Node pos="r" depth="2" NCoef="0" IVar="-1" Cut="0.0000000000000000e+00" cType="1" res="-1.3030127156525850e-03" rms="4.9020555615425110e-01" purity="4.8684310913085938e-01" nType="-99"/>
        </Node>
        <Node pos="r" depth="1" NCoef="0" IVar="4" Cut="8.4072512388229370e-01" cType="1" res="1.4432616531848907e-02" rms="4.8265483975410461e-01" purity="5.4588723182678223e-01" nType="0">
          <Node pos="l" depth="2" NCoef="0" IVar="-1" Cut="0.0000000000000000e+00" cType="1" res="-1.3839286984875798e-03" rms="4.8598846793174744e-01" purity="5.1882946491241455e-01" nType="-99"/>
          <Node pos="r" depth="2" NCoef="0" IVar="-1" Cut="0.0000000000000000e+00" cType="1" res="5.4352390579879284e-03" rms="4.7956550121307373e-01" purity="5.6528359651565552e-01" nType="-99"/>
        </Node>
      </Node>
    </BinaryTree>
    <BinaryTree type="DecisionTree" boostWeight="1.0000000000000000e+00" itree="143">
      <Node pos="s" depth="0" NCoef="0" IVar="4" Cut="7.9852789640426636e-01" cType="1" res="5.6942505761981010e-03" rms="4.8878145217895508e-01" purity="5.0564229488372803e-01" nType="0">
        <Node pos="l" depth="1" NCoef="0" IVar="0" Cut="8.7359209060668945e+00" cType="1" res="9.0073579922318459e-03" rms="4.8995494842529297e-01" purity="5.0219160318374634e-01" nType="0">
          <Node pos="l" depth="2" NCoef="0" IVar="-1" Cut="0.0000000000000000e+00" cType="1" res="1.9383976468816400e-03" rms="4.9501803517341614e-01" purity="5.1495939493179321e-01" nType="-99"/>
          <Node pos="r" depth="2" NCoef="0" IVar="-1" Cut="0.0000000000000000e+00" cType="1" res="1.0594204068183899e-03" rms="4.8803970217704773e-01" purity="4.9750116467475891e-01" nType="-99"/>
        </Node>
        <Node pos="r" depth="1" NCoef="0" IVar="0" Cut="9.0207033157348633e+00" cType="1" res="-1.2676528654992580e-02" rms="4.8180961608886719e-01" purity="5.2477556467056274e-01" nType="0">
          <Node pos="l" depth="2" NCoef="0" IVar="-1" Cut="0.0000000000000000e+00" cType="1" res="-4.0294937789440155e-03" rms="4.8600423336029053e-01" purity="5.1315253973007202e-01" nType="-99"/>
          <Node pos="r" depth="2" NCoef="0" IVar="-1" Cut="0.0000000000000000e+00" cType="1" res="9.3864364316686988e-05" rms="4.7838595509529114e-01" purity="5.3300422430038452e-01" nType="-99"/>
        </Node>
      </Node>
    </BinaryTree>
    <BinaryTree type="DecisionTree" boostWeight="1.0000000000000000e+00" itree="144">
      <Node pos="s" depth="0" NCoef="0" IVar="1" Cut="2.0000000000000000e+00" cType="1" res="3.7324681761674583e-04" rms="1.6772316396236420e-01" purity="4.9998372793197632e-01" nType="0">
        <Node pos="l" depth="1" NCoef="0" IVar="0" Cut="9.3838949203491211e+00" cType="1" res="1.3817352242767811e-02" rms="4.8997500538825989e-01" purity="5.1408547163009644e-01" nType="0">
          <Node pos="l" depth="2" NCoef="0" IVar="-1" Cut="0.0000000000000000e+00" cType="1" res="3.0689381528645754e-03" rms="4.9244222044944763e-01" purity="5.2511709928512573e-01" nType="-99"/>
          <Node pos="r" depth="2" NCoef="0" IVar="-1" Cut="0.0000000000000000e+00" cType="1" res="-2.5778333656489849e-03" rms="4.8169702291488647e-01" purity="4.8098215460777283e-01" nType="-99"/>
        </Node>
        <Node pos="r" depth="1" NCoef="0" IVar="0" Cut="9.4326639175415039e+00" cType="1" res="-5.2582575008273125e-03" rms="4.8827987909317017e-01" purity="4.9426123499870300e-01" nType="0">
          <Node pos="l" depth="2" NCoef="0" IVar="-1" Cut="0.0000000000000000e+00" cType="1" res="-1.4020140515640378e-03" rms="4.9049654603004456e-01" purity="4.9082091450691223e-01" nType="-99"/>
          <Node pos="r" depth="2" NCoef="0" IVar="-1" Cut="0.0000000000000000e+00" cType="1" res="3.0473703518509865e-03" rms="4.7950407862663269e-01" purity="5.0716328620910645e-01" nType="-99"/>
        </Node>
      </Node>
    </BinaryTree>
    <BinaryTree type="DecisionTree" boostWeight="1.0000000000000000e+00" itree="145">
      <Node pos="s" depth="0" NCoef="0" IVar="2" Cut="2.0000000000000000e+00" cType="1" res="-1.4576324610970914e-04" rms="3.5325124859809875e-02" purity="5.0306475162506104e-01" nType="0">
        <Node pos="l" depth="1" NCoef="0" IVar="3" Cut="-8.0208313465118408e-01" cType="1" res="-3.1811329536139965e-03" rms="4.8728635907173157e-01" purity="4.9617183208465576e-01" nType="0">
          <Node pos="l" depth="2" NCoef="0" IVar="-1" Cut="0.0000000000000000e+00" cType="1" res="1.3502960791811347e-03" rms="4.8391658067703247e-01" purity="4.0848100185394287e-01" nType="-99"/>
          <Node pos="r" depth="2" NCoef="0" IVar="-1" Cut="0.0000000000000000e+00" cType="1" res="-1.5665931859984994e-03" rms="4.8924145102500916e-01" purity="5.5106252431869507e-01" nType="-99"/>
        </Node>
        <Node pos="r" depth="1" NCoef="0" IVar="1" Cut="3.0000000000000000e+00" cType="1" res="3.5817050375044346e-03" rms="1.9048883020877838e-01" purity="5.1243954896926880e-01" nType="0">
          <Node pos="l" depth="2" NCoef="0" IVar="-1" Cut="0.0000000000000000e+00" cType="1" res="3.1930766999721527e-03" rms="4.9090525507926941e-01" purity="5.2033078670501709e-01" nType="-99"/>
          <Node pos="r" depth="2" NCoef="0" IVar="-1" Cut="0.0000000000000000e+00" cType="1" res="-9.3585671856999397e-04" rms="4.8895010352134705e-01" purity="4.9505195021629333e-01" nType="-99"/>
        </Node>
      </Node>
    </BinaryTree>
    <BinaryTree type="DecisionTree" boostWeight="1.0000000000000000e+00" itree="146">
      <Node pos="s" depth="0" NCoef="0" IVar="0" Cut="8.3375482559204102e+00" cType="1" res="1.6417498700320721e-03" rms="4.8880863189697266e-01" purity="5.0157386064529419e-01" nType="0">
        <Node pos="l" depth="1" NCoef="0" IVar="3" Cut="-6.9945466518402100e-01" cType="1" res="2.0943574607372284e-02" rms="4.9980846047401428e-01" purity="5.2024543285369873e-01" nType="0">
          <Node pos="l" depth="2" NCoef="0" IVar="-1" Cut="0.0000000000000000e+00" cType="1" res="3.2456654589623213e-03" rms="5.0318950414657593e-01" purity="4.9039158225059509e-01" nType="-99"/>
          <Node pos="r" depth="2" NCoef="0" IVar="-1" Cut="0.0000000000000000e+00" cType="1" res="8.9262443361803889e-04" rms="4.9589738249778748e-01" purity="5.5212146043777466e-01" nType="-99"/>
        </Node>
        <Node pos="r" depth="1" NCoef="0" IVar="0" Cut="8.7739171981811523e+00" cType="1" res="-3.4133339067921042e-04" rms="4.8762115836143494e-01" purity="4.9965554475784302e-01" nType="0">
          <Node pos="l" depth="2" NCoef="0" IVar="-1" Cut="0.0000000000000000e+00" cType="1" res="-1.3114782050251961e-03" rms="4.9305406212806702e-01" purity="4.9150002002716064e-01" nType="-99"/>
          <Node pos="r" depth="2" NCoef="0" IVar="-1" Cut="0.0000000000000000e+00" cType="1" res="5.0058332271873951e-04" rms="4.8610728979110718e-01" purity="5.0184857845306396e-01" nType="-99"/>
        </Node>
      </Node>
    </BinaryTree>
    <BinaryTree type="DecisionTree" boostWeight="1.0000000000000000e+00" itree="147">
      <Node pos="s" depth="0" NCoef="0" IVar="5" Cut="7.8990858793258667e-01" cType="1" res="8.0853392137214541e-04" rms="4.8862808942794800e-01" purity="5.0277614593505859e-01" nType="0">
        <Node pos="l" depth="1" NCoef="0" IVar="1" Cut="4.0000000000000000e+00" cType="1" res="1.2526902719400823e-04" rms="1.6444362699985504e-01" purity="5.0053924322128296e-01" nType="0">
          <Node pos="l" depth="2" NCoef="0" IVar="-1" Cut="0.0000000000000000e+00" cType="1" res="-3.2472526072524488e-04" rms="4.8860418796539307e-01" purity="4.9839821457862854e-01" nType="-99"/>
          <Node pos="r" depth="2" NCoef="0" IVar="-1" Cut="0.0000000000000000e+00" cType="1" res="1.9502089126035571e-03" rms="4.9023982882499695e-01" purity="5.1575517654418945e-01" nType="-99"/>
        </Node>
        <Node pos="r" depth="1" NCoef="0" IVar="3" Cut="-8.0110573768615723e-01" cType="1" res="1.9596308469772339e-02" rms="4.8472970724105835e-01" purity="5.4162436723709106e-01" nType="0">
          <Node pos="l" depth="2" NCoef="0" IVar="-1" Cut="0.0000000000000000e+00" cType="1" res="8.1223053857684135e-03" rms="4.9200025200843811e-01" purity="4.6704265475273132e-01" nType="-99"/>
          <Node pos="r" depth="2" NCoef="0" IVar="-1" Cut="0.0000000000000000e+00" cType="1" res="-2.5468752719461918e-03" rms="4.7427281737327576e-01" purity="6.2311142683029175e-01" nType="-99"/>
        </Node>
      </Node>
    </BinaryTree>
    <BinaryTree type="DecisionTree" boostWeight="1.0000000000000000e+00" itree="148">
      <Node pos="s" depth="0" NCoef="0" IVar="3" Cut="-7.0768195390701294e-01" cType="1" res="-1.2228108244016767e-03" rms="4.8901942372322083e-01" purity="4.9847942590713501e-01" nType="0">
        <Node pos="l" depth="1" NCoef="0" IVar="3" Cut="-9.5220661163330078e-01" cType="1" res="4.4014556333422661e-03" rms="4.8824125528335571e-01" purity="4.3069484829902649e-01" nType="0">
          <Node pos="l" depth="2" NCoef="0" IVar="-1" Cut="0.0000000000000000e+00" cType="1" res="-9.1795194894075394e-03" rms="4.2422154545783997e-01" purity="2.4506156146526337e-01" nType="-99"/>
          <Node pos="r" depth="2" NCoef="0" IVar="-1" Cut="0.0000000000000000e+00" cType="1" res="1.3822672190144658e-03" rms="4.9400144815444946e-01" purity="4.4943645596504211e-01" nType="-99"/>
        </Node>
        <Node pos="r" depth="1" NCoef="0" IVar="3" Cut="9.5285201072692871e-01" cType="1" res="-6.8205259740352631e-03" rms="4.8972856998443604e-01" purity="5.6594401597976685e-01" nType="0">
          <Node pos="l" depth="2" NCoef="0" IVar="-1" Cut="0.0000000000000000e+00" cType="1" res="-1.5463557792827487e-03" rms="4.9473193287849426e-01" purity="5.4939156770706177e-01" nType="-99"/>
          <Node pos="r" depth="2" NCoef="0" IVar="-1" Cut="0.0000000000000000e+00" cType="1" res="5.8098640292882919e-03" rms="4.3124949932098389e-01" purity="7.4302154779434204e-01" nType="-99"/>
        </Node>
      </Node>
    </BinaryTree>
    <BinaryTree type="DecisionTree" boostWeight="1.0000000000000000e+00" itree="149">
      <Node pos="s" depth="0" NCoef="0" IVar="1" Cut="2.0000000000000000e+00" cType="1" res="-2.1975447889417410e-03" rms="3.6273950338363647e-01" purity="4.9832671880722046e-01" nType="0">
        <Node pos="l" depth="1" NCoef="0" IVar="3" Cut="-8.0080133676528931e-01" cType="1" res="1.0547393932938576e-02" rms="4.8851120471954346e-01" purity="5.1085680723190308e-01" nType="0">
          <Node pos="l" depth="2" NCoef="0" IVar="-1" Cut="0.0000000000000000e+00" cType="1" res="-1.4631708618253469e-03" rms="4.8377692699432373e-01" purity="4.0193390846252441e-01" nType="-99"/>
          <Node pos="r" depth="2" NCoef="0" IVar="-1" Cut="0.0000000000000000e+00" cType="1" res="3.1601144000887871e-03" rms="4.9052304029464722e-01" purity="5.6412702798843384e-01" nType="-99"/>
        </Node>
        <Node pos="r" depth="1" NCoef="0" IVar="0" Cut="8.5500459671020508e+00" cType="1" res="-7.0858006365597248e-03" rms="4.8859074711799622e-01" purity="4.9322888255119324e-01" nType="0">
          <Node pos="l" depth="2" NCoef="0" IVar="-1" Cut="0.0000000000000000e+00" cType="1" res="-2.2323168814182281e-03" rms="4.9657136201858521e-01" purity="4.8315310478210449e-01" nType="-99"/>
          <Node pos="r" depth="2" NCoef="0" IVar="-1" Cut="0.0000000000000000e+00" cType="1" res="-7.2941795224323869e-04" rms="4.8689907789230347e-01" purity="4.9527624249458313e-01" nType="-99"/>
        </Node>
      </Node>
    </BinaryTree>
    <BinaryTree type="DecisionTree" boostWeight="1.0000000000000000e+00" itree="150">
      <Node pos="s" depth="0" NCoef="0" IVar="2" Cut="2.0000000000000000e+00" cType="1" res="-1.1587763438001275e-03" rms="1.2993030250072479e-01" purity="4.9774897098541260e-01" nType="0">
        <Node pos="l" depth="1" NCoef="0" IVar="1" Cut="3.0000000000000000e+00" cType="1" res="-3.3036246895790100e-03" rms="3.0371275544166565e-01" purity="4.9124574661254883e-01" nType="0">
          <Node pos="l" depth="2" NCoef="0" IVar="-1" Cut="0.0000000000000000e+00" cType="1" res="-2.3759291507303715e-03" rms="4.8710224032402039e-01" purity="4.8028931021690369e-01" nType="-99"/>
          <Node pos="r" depth="2" NCoef="0" IVar="-1" Cut="0.0000000000000000e+00" cType="1" res="1.0445609223097563e-03" rms="4.8572939634323120e-01" purity="5.0974941253662109e-01" nType="-99"/>
        </Node>
        <Node pos="r" depth="1" NCoef="0" IVar="1" Cut="3.0000000000000000e+00" cType="1" res="3.5380006302148104e-03" rms="3.4610790014266968e-01" purity="5.0663340091705322e-01" nType="0">
          <Node pos="l" depth="2" NCoef="0" IVar="-1" Cut="0.0000000000000000e+00" cType="1" res="1.9459802424535155e-03" rms="4.9057701230049133e-01" purity="5.1445460319519043e-01" nType="-99"/>
          <Node pos="r" depth="2" NCoef="0" IVar="-1" Cut="0.0000000000000000e+00" cType="1" res="-1.6096745384857059e-03" rms="4.8972842097282410e-01" purity="4.8900485038757324e-01" nType="-99"/>
        </Node>
      </Node>
    </BinaryTree>
    <BinaryTree type="DecisionTree" boostWeight="1.0000000000000000e+00" itree="151">
      <Node pos="s" depth="0" NCoef="0" IVar="5" Cut="7.9097390174865723e-01" cType="1" res="-1.7811744473874569e-03" rms="4.8920020461082458e-01" purity="4.9908611178398132e-01" nType="0">
        <Node pos="l" depth="1" NCoef="0" IVar="2" Cut="3.0000000000000000e+00" cType="1" res="-2.0082693663425744e-04" rms="3.4551594406366348e-02" purity="4.9914219975471497e-01" nType="0">
          <Node pos="l" depth="2" NCoef="0" IVar="-1" Cut="0.0000000000000000e+00" cType="1" res="-2.6775163132697344e-04" rms="4.8863840103149414e-01" purity="4.9717608094215393e-01" nType="-99"/>
          <Node pos="r" depth="2" NCoef="0" IVar="-1" Cut="0.0000000000000000e+00" cType="1" res="1.6853309934958816e-03" rms="4.9256208539009094e-01" purity="5.1493406295776367e-01" nType="-99"/>
        </Node>
        <Node pos="r" depth="1" NCoef="0" IVar="3" Cut="-8.0110573768615723e-01" cType="1" res="-2.3564402014017105e-02" rms="4.9065876007080078e-01" purity="4.9811324477195740e-01" nType="0">
          <Node pos="l" depth="2" NCoef="0" IVar="-1" Cut="0.0000000000000000e+00" cType="1" res="2.1255512256175280e-03" rms="4.9181672930717468e-01" purity="4.2893037199974060e-01" nType="-99"/>
          <Node pos="r" depth="2" NCoef="0" IVar="-1" Cut="0.0000000000000000e+00" cType="1" res="-1.1066805571317673e-02" rms="4.8646035790443420e-01" purity="5.7229882478713989e-01" nType="-99"/>
        </Node>
      </Node>
    </BinaryTree>
    <BinaryTree type="DecisionTree" boostWeight="1.0000000000000000e+00" itree="152">
      <Node pos="s" depth="0" NCoef="0" IVar="0" Cut="8.2430858612060547e+00" cType="1" res="-1.5739172522444278e-04" rms="4.8860508203506470e-01" purity="5.0093156099319458e-01" nType="0">
        <Node pos="l" depth="1" NCoef="0" IVar="-1" Cut="0.0000000000000000e+00" cType="1" res="-1.6120829386636615e-03" rms="4.9799656867980957e-01" purity="4.8245760798454285e-01" nType="-99"/>
        <Node pos="r" depth="1" NCoef="0" IVar="3" Cut="-8.9513075351715088e-01" cType="1" res="1.0034333681687713e-03" rms="4.8789939284324646e-01" purity="5.0226563215255737e-01" nType="0">
          <Node pos="l" depth="2" NCoef="0" IVar="-1" Cut="0.0000000000000000e+00" cType="1" res="-2.2198872175067663e-03" rms="4.6734958887100220e-01" purity="3.4153527021408081e-01" nType="-99"/>
          <Node pos="r" depth="2" NCoef="0" IVar="-1" Cut="0.0000000000000000e+00" cType="1" res="6.0441717505455017e-04" rms="4.9210241436958313e-01" purity="5.3634339570999146e-01" nType="-99"/>
        </Node>
      </Node>
    </BinaryTree>
    <BinaryTree type="DecisionTree" boostWeight="1.0000000000000000e+00" itree="153">
      <Node pos="s" depth="0" NCoef="0" IVar="1" Cut="5.0000000000000000e+00" cType="1" res="2.3541352711617947e-03" rms="3.0498144030570984e-01" purity="5.0229179859161377e-01" nType="0">
        <Node pos="l" depth="1" NCoef="0" IVar="0" Cut="8.2430858612060547e+00" cType="1" res="8.0665585119277239e-04" rms="4.8887947201728821e-01" purity="4.9986493587493896e-01" nType="0">
          <Node pos="l" depth="2" NCoef="0" IVar="-1" Cut="0.0000000000000000e+00" cType="1" res="-1.8277466297149658e-03" rms="4.9934405088424683e-01" purity="4.7774651646614075e-01" nType="-99"/>
          <Node pos="r" depth="2" NCoef="0" IVar="-1" Cut="0.0000000000000000e+00" cType="1" res="3.5808052052743733e-04" rms="4.8812165856361389e-01" purity="5.0138783454895020e-01" nType="-99"/>
        </Node>
        <Node pos="r" depth="1" NCoef="0" IVar="-1" Cut="0.0000000000000000e+00" cType="1" res="4.4801891781389713e-03" rms="4.8799049854278564e-01" purity="5.4889273643493652e-01" nType="-99"/>
      </Node>
    </BinaryTree>
    <BinaryTree type="DecisionTree" boostWeight="1.0000000000000000e+00" itree="154">
      <Node pos="s" depth="0" NCoef="0" IVar="4" Cut="-7.9645752906799316e-01" cType="1" res="1.7775695596355945e-04" rms="4.8853814601898193e-01" purity="5.0084066390991211e-01" nType="0">
        <Node pos="l" depth="1" NCoef="0" IVar="1" Cut="4.0000000000000000e+00" cType="1" res="1.2257395312190056e-02" rms="2.8537994623184204e-01" purity="4.8952189087867737e-01" nType="0">
          <Node pos="l" depth="2" NCoef="0" IVar="-1" Cut="0.0000000000000000e+00" cType="1" res="5.0934748724102974e-03" rms="4.8138603568077087e-01" purity="4.9731492996215820e-01" nType="-99"/>
          <Node pos="r" depth="2" NCoef="0" IVar="-1" Cut="0.0000000000000000e+00" cType="1" res="-1.4287437079474330e-03" rms="4.8447766900062561e-01" purity="4.6632829308509827e-01" nType="-99"/>
        </Node>
        <Node pos="r" depth="1" NCoef="0" IVar="3" Cut="-7.0678740739822388e-01" cType="1" res="-3.5023426171392202e-03" rms="4.8951733112335205e-01" purity="5.0284856557846069e-01" nType="0">
          <Node pos="l" depth="2" NCoef="0" IVar="-1" Cut="0.0000000000000000e+00" cType="1" res="-1.2905196053907275e-03" rms="4.9060767889022827e-01" purity="4.3132683634757996e-01" nType="-99"/>
          <Node pos="r" depth="2" NCoef="0" IVar="-1" Cut="0.0000000000000000e+00" cType="1" res="2.3075073841027915e-04" rms="4.8834365606307983e-01" purity="5.7641750574111938e-01" nType="-99"/>
        </Node>
      </Node>
    </BinaryTree>
    <BinaryTree type="DecisionTree" boostWeight="1.0000000000000000e+00" itree="155">
      <Node pos="s" depth="0" NCoef="0" IVar="2" Cut="3.0000000000000000e+00" cType="1" res="-3.1979932100512087e-04" rms="3.2871264964342117e-02" purity="4.9952504038810730e-01" nType="0">
        <Node pos="l" depth="1" NCoef="0" IVar="4" Cut="-7.9605126380920410e-01" cType="1" res="1.2332329060882330e-03" rms="4.8868837952613831e-01" purity="5.0072020292282104e-01" nType="0">
          <Node pos="l" depth="2" NCoef="0" IVar="-1" Cut="0.0000000000000000e+00" cType="1" res="1.8411751370877028e-03" rms="4.8349496722221375e-01" purity="4.7778818011283875e-01" nType="-99"/>
          <Node pos="r" depth="2" NCoef="0" IVar="-1" Cut="0.0000000000000000e+00" cType="1" res="-9.2894690169487149e-05" rms="4.8966330289840698e-01" purity="5.0514751672744751e-01" nType="-99"/>
        </Node>
        <Node pos="r" depth="1" NCoef="0" IVar="1" Cut="2.0000000000000000e+00" cType="1" res="-9.3870860291644931e-04" rms="2.5913649797439575e-01" purity="4.8973065614700317e-01" nType="0">
          <Node pos="l" depth="2" NCoef="0" IVar="-1" Cut="0.0000000000000000e+00" cType="1" res="5.8189831906929612e-04" rms="4.9317443370819092e-01" purity="5.1742088794708252e-01" nType="-99"/>
          <Node pos="r" depth="2" NCoef="0" IVar="-1" Cut="0.0000000000000000e+00" cType="1" res="-5.0650755874812603e-03" rms="4.9034768342971802e-01" purity="4.7532543540000916e-01" nType="-99"/>
        </Node>
      </Node>
    </BinaryTree>
    <BinaryTree type="DecisionTree" boostWeight="1.0000000000000000e+00" itree="156">
      <Node pos="s" depth="0" NCoef="0" IVar="4" Cut="8.8949799537658691e-01" cType="1" res="-2.8315319214016199e-03" rms="4.8905125260353088e-01" purity="4.9788126349449158e-01" nType="0">
        <Node pos="l" depth="1" NCoef="0" IVar="1" Cut="5.0000000000000000e+00" cType="1" res="-3.8258668500930071e-03" rms="3.7403494119644165e-01" purity="4.9518892168998718e-01" nType="0">
          <Node pos="l" depth="2" NCoef="0" IVar="-1" Cut="0.0000000000000000e+00" cType="1" res="-4.8388948198407888e-04" rms="4.8964595794677734e-01" purity="4.9534144997596741e-01" nType="-99"/>
          <Node pos="r" depth="2" NCoef="0" IVar="-1" Cut="0.0000000000000000e+00" cType="1" res="-3.1372874509543180e-03" rms="4.8757845163345337e-01" purity="4.9190625548362732e-01" nType="-99"/>
        </Node>
        <Node pos="r" depth="1" NCoef="0" IVar="-1" Cut="0.0000000000000000e+00" cType="1" res="3.7078550085425377e-03" rms="4.7574126720428467e-01" purity="5.6351375579833984e-01" nType="-99"/>
      </Node>
    </BinaryTree>
    <BinaryTree type="DecisionTree" boostWeight="1.0000000000000000e+00" itree="157">
      <Node pos="s" depth="0" NCoef="0" IVar="0" Cut="8.7359209060668945e+00" cType="1" res="-6.0374150052666664e-04" rms="4.8876529932022095e-01" purity="4.9928191304206848e-01" nType="0">
        <Node pos="l" depth="1" NCoef="0" IVar="3" Cut="-7.9571801424026489e-01" cType="1" res="7.7138990163803101e-03" rms="4.9685272574424744e-01" purity="5.1033413410186768e-01" nType="0">
          <Node pos="l" depth="2" NCoef="0" IVar="-1" Cut="0.0000000000000000e+00" cType="1" res="2.6447081472724676e-03" rms="4.9623590707778931e-01" purity="4.6452361345291138e-01" nType="-99"/>
          <Node pos="r" depth="2" NCoef="0" IVar="-1" Cut="0.0000000000000000e+00" cType="1" res="-1.8016014655586332e-04" rms="4.9694773554801941e-01" purity="5.3573626279830933e-01" nType="-99"/>
        </Node>
        <Node pos="r" depth="1" NCoef="0" IVar="4" Cut="8.9232796430587769e-01" cType="1" res="-3.5075347404927015e-03" rms="4.8587664961814880e-01" purity="4.9542343616485596e-01" nType="0">
          <Node pos="l" depth="2" NCoef="0" IVar="-1" Cut="0.0000000000000000e+00" cType="1" res="-9.5755362417548895e-04" rms="4.8664087057113647e-01" purity="4.9190276861190796e-01" nType="-99"/>
          <Node pos="r" depth="2" NCoef="0" IVar="-1" Cut="0.0000000000000000e+00" cType="1" res="7.1752164512872696e-03" rms="4.6700367331504822e-01" purity="5.7404381036758423e-01" nType="-99"/>
        </Node>
      </Node>
    </BinaryTree>
    <BinaryTree type="DecisionTree" boostWeight="1.0000000000000000e+00" itree="158">
      <Node pos="s" depth="0" NCoef="0" IVar="4" Cut="-7.9739022254943848e-01" cType="1" res="1.3771805679425597e-03" rms="4.8838803172111511e-01" purity="5.0123214721679688e-01" nType="0">
        <Node pos="l" depth="1" NCoef="0" IVar="5" Cut="-7.7100676298141479e-01" cType="1" res="-1.2211703695356846e-02" rms="4.8180004954338074e-01" purity="4.5516446232795715e-01" nType="0">
          <Node pos="l" depth="2" NCoef="0" IVar="-1" Cut="0.0000000000000000e+00" cType="1" res="3.8078662473708391e-03" rms="4.9206313490867615e-01" purity="4.7573989629745483e-01" nType="-99"/>
          <Node pos="r" depth="2" NCoef="0" IVar="-1" Cut="0.0000000000000000e+00" cType="1" res="-3.4334382507950068e-03" rms="4.7893187403678894e-01" purity="4.5023491978645325e-01" nType="-99"/>
        </Node>
        <Node pos="r" depth="1" NCoef="0" IVar="0" Cut="8.3911418914794922e+00" cType="1" res="3.7775866221636534e-03" rms="4.8950335383415222e-01" purity="5.0936979055404663e-01" nType="0">
          <Node pos="l" depth="2" NCoef="0" IVar="-1" Cut="0.0000000000000000e+00" cType="1" res="2.9239528812468052e-03" rms="4.9773818254470825e-01" purity="5.4003113508224487e-01" nType="-99"/>
          <Node pos="r" depth="2" NCoef="0" IVar="-1" Cut="0.0000000000000000e+00" cType="1" res="7.4238116212654859e-05" rms="4.8833128809928894e-01" purity="5.0541543960571289e-01" nType="-99"/>
        </Node>
      </Node>
    </BinaryTree>
    <BinaryTree type="DecisionTree" boostWeight="1.0000000000000000e+00" itree="159">
      <Node pos="s" depth="0" NCoef="0" IVar="3" Cut="8.0256366729736328e-01" cType="1" res="-1.4915348729118705e-03" rms="4.8957318067550659e-01" purity="4.9974116683006287e-01" nType="0">
        <Node pos="l" depth="1" NCoef="0" IVar="0" Cut="9.3690032958984375e+00" cType="1" res="2.3556763771921396e-03" rms="4.9161148071289062e-01" purity="4.4724187254905701e-01" nType="0">
          <Node pos="l" depth="2" NCoef="0" IVar="-1" Cut="0.0000000000000000e+00" cType="1" res="8.3450076635926962e-04" rms="4.9421083927154541e-01" purity="4.5908647775650024e-01" nType="-99"/>
          <Node pos="r" depth="2" NCoef="0" IVar="-1" Cut="0.0000000000000000e+00" cType="1" res="-2.2337234113365412e-03" rms="4.8330864310264587e-01" purity="4.1061353683471680e-01" nType="-99"/>
        </Node>
        <Node pos="r" depth="1" NCoef="0" IVar="3" Cut="9.5539641380310059e-01" cType="1" res="-7.8608337789773941e-03" rms="4.8611289262771606e-01" purity="5.8665698766708374e-01" nType="0">
          <Node pos="l" depth="2" NCoef="0" IVar="-1" Cut="0.0000000000000000e+00" cType="1" res="-1.8726486014202237e-03" rms="4.9193230271339417e-01" purity="5.6857514381408691e-01" nType="-99"/>
          <Node pos="r" depth="2" NCoef="0" IVar="-1" Cut="0.0000000000000000e+00" cType="1" res="5.6926873512566090e-03" rms="4.2850810289382935e-01" purity="7.5049120187759399e-01" nType="-99"/>
        </Node>
      </Node>
    </BinaryTree>
    <BinaryTree type="DecisionTree" boostWeight="1.0000000000000000e+00" itree="160">
      <Node pos="s" depth="0" NCoef="0" IVar="0" Cut="8.2461595535278320e+00" cType="1" res="-1.7334540607407689e-03" rms="4.8876091837882996e-01" purity="4.9820670485496521e-01" nType="0">
        <Node pos="l" depth="1" NCoef="0" IVar="-1" Cut="0.0000000000000000e+00" cType="1" res="-2.8317612595856190e-03" rms="4.9727699160575867e-01" purity="4.6733710169792175e-01" nType="-99"/>
        <Node pos="r" depth="1" NCoef="0" IVar="4" Cut="8.8959836959838867e-01" cType="1" res="2.7869935729540884e-04" rms="4.8806843161582947e-01" purity="5.0047606229782104e-01" nType="0">
          <Node pos="l" depth="2" NCoef="0" IVar="-1" Cut="0.0000000000000000e+00" cType="1" res="-1.2611629790626466e-04" rms="4.8881649971008301e-01" purity="4.9717432260513306e-01" nType="-99"/>
          <Node pos="r" depth="2" NCoef="0" IVar="-1" Cut="0.0000000000000000e+00" cType="1" res="4.6236244961619377e-03" rms="4.6982747316360474e-01" purity="5.7665115594863892e-01" nType="-99"/>
        </Node>
      </Node>
    </BinaryTree>
    <BinaryTree type="DecisionTree" boostWeight="1.0000000000000000e+00" itree="161">
      <Node pos="s" depth="0" NCoef="0" IVar="2" Cut="2.0000000000000000e+00" cType="1" res="-1.1176402767887339e-04" rms="3.7790443748235703e-02" purity="4.9933186173439026e-01" nType="0">
        <Node pos="l" depth="1" NCoef="0" IVar="0" Cut="8.4704437255859375e+00" cType="1" res="5.5234329774975777e-03" rms="4.8720726370811462e-01" purity="5.0365442037582397e-01" nType="0">
          <Node pos="l" depth="2" NCoef="0" IVar="-1" Cut="0.0000000000000000e+00" cType="1" res="3.0444907024502754e-03" rms="4.9675542116165161e-01" purity="5.3425741195678711e-01" nType="-99"/>
          <Node pos="r" depth="2" NCoef="0" IVar="-1" Cut="0.0000000000000000e+00" cType="1" res="2.4689405108802021e-04" rms="4.8559239506721497e-01" purity="4.9893712997436523e-01" nType="-99"/>
        </Node>
        <Node pos="r" depth="1" NCoef="0" IVar="2" Cut="3.0000000000000000e+00" cType="1" res="2.0139584376011044e-04" rms="1.0294560343027115e-01" purity="4.9343338608741760e-01" nType="0">
          <Node pos="l" depth="2" NCoef="0" IVar="-1" Cut="0.0000000000000000e+00" cType="1" res="-1.7813894664868712e-03" rms="4.9061304330825806e-01" purity="4.8774150013923645e-01" nType="-99"/>
          <Node pos="r" depth="2" NCoef="0" IVar="-1" Cut="0.0000000000000000e+00" cType="1" res="1.3468558900058270e-03" rms="4.9022379517555237e-01" purity="5.1019018888473511e-01" nType="-99"/>
        </Node>
      </Node>
    </BinaryTree>
    <BinaryTree type="DecisionTree" boostWeight="1.0000000000000000e+00" itree="162">
      <Node pos="s" depth="0" NCoef="0" IVar="0" Cut="8.7360563278198242e+00" cType="1" res="3.8334147538989782e-03" rms="4.8826006054878235e-01" purity="5.0391858816146851e-01" nType="0">
        <Node pos="l" depth="1" NCoef="0" IVar="2" Cut="2.0000000000000000e+00" cType="1" res="2.5354445097036660e-04" rms="1.5361659228801727e-02" purity="5.1995640993118286e-01" nType="0">
          <Node pos="l" depth="2" NCoef="0" IVar="-1" Cut="0.0000000000000000e+00" cType="1" res="6.5832393011078238e-04" rms="4.9252814054489136e-01" purity="5.1095002889633179e-01" nType="-99"/>
          <Node pos="r" depth="2" NCoef="0" IVar="-1" Cut="0.0000000000000000e+00" cType="1" res="3.2542736735194921e-03" rms="4.9561652541160583e-01" purity="5.3188395500183105e-01" nType="-99"/>
        </Node>
        <Node pos="r" depth="1" NCoef="0" IVar="1" Cut="4.0000000000000000e+00" cType="1" res="1.5070682820805814e-05" rms="4.7593450546264648e-01" purity="4.9824249744415283e-01" nType="0">
          <Node pos="l" depth="2" NCoef="0" IVar="-1" Cut="0.0000000000000000e+00" cType="1" res="4.1472731390967965e-04" rms="4.8604837059974670e-01" purity="4.9963060021400452e-01" nType="-99"/>
          <Node pos="r" depth="2" NCoef="0" IVar="-1" Cut="0.0000000000000000e+00" cType="1" res="-3.1372138764709234e-03" rms="4.8635873198509216e-01" purity="4.9012514948844910e-01" nType="-99"/>
        </Node>
      </Node>
    </BinaryTree>
    <BinaryTree type="DecisionTree" boostWeight="1.0000000000000000e+00" itree="163">
      <Node pos="s" depth="0" NCoef="0" IVar="5" Cut="7.9350036382675171e-01" cType="1" res="2.2808422800153494e-03" rms="4.8873555660247803e-01" purity="5.0264173746109009e-01" nType="0">
        <Node pos="l" depth="1" NCoef="0" IVar="0" Cut="9.5323514938354492e+00" cType="1" res="1.0954908793792129e-03" rms="4.8924145102500916e-01" purity="5.0048875808715820e-01" nType="0">
          <Node pos="l" depth="2" NCoef="0" IVar="-1" Cut="0.0000000000000000e+00" cType="1" res="4.1609007166698575e-04" rms="4.9108368158340454e-01" purity="5.0360697507858276e-01" nType="-99"/>
          <Node pos="r" depth="2" NCoef="0" IVar="-1" Cut="0.0000000000000000e+00" cType="1" res="-2.3163885343819857e-03" rms="4.7891354560852051e-01" purity="4.8341003060340881e-01" nType="-99"/>
        </Node>
        <Node pos="r" depth="1" NCoef="0" IVar="1" Cut="4.0000000000000000e+00" cType="1" res="1.2421695515513420e-02" rms="2.9111346602439880e-01" purity="5.4167771339416504e-01" nType="0">
          <Node pos="l" depth="2" NCoef="0" IVar="-1" Cut="0.0000000000000000e+00" cType="1" res="6.9488037843257189e-04" rms="4.8173552751541138e-01" purity="5.2116495370864868e-01" nType="-99"/>
          <Node pos="r" depth="2" NCoef="0" IVar="-1" Cut="0.0000000000000000e+00" cType="1" res="7.2341146878898144e-03" rms="4.7559022903442383e-01" purity="5.6101238727569580e-01" nType="-99"/>
        </Node>
      </Node>
    </BinaryTree>
    <BinaryTree type="DecisionTree" boostWeight="1.0000000000000000e+00" itree="164">
      <Node pos="s" depth="0" NCoef="0" IVar="4" Cut="7.9593473672866821e-01" cType="1" res="1.1594824027270079e-03" rms="4.8905915021896362e-01" purity="5.0030070543289185e-01" nType="0">
        <Node pos="l" depth="1" NCoef="0" IVar="4" Cut="-9.0033286809921265e-01" cType="1" res="3.6801036912947893e-03" rms="4.9004727602005005e-01" purity="4.9658691883087158e-01" nType="0">
          <Node pos="l" depth="2" NCoef="0" IVar="-1" Cut="0.0000000000000000e+00" cType="1" res="-3.0258314218372107e-03" rms="4.7617766261100769e-01" purity="4.4618231058120728e-01" nType="-99"/>
          <Node pos="r" depth="2" NCoef="0" IVar="-1" Cut="0.0000000000000000e+00" cType="1" res="6.8475498119369149e-04" rms="4.9053603410720825e-01" purity="4.9844294786453247e-01" nType="-99"/>
        </Node>
        <Node pos="r" depth="1" NCoef="0" IVar="4" Cut="8.2272434234619141e-01" cType="1" res="-1.2835761532187462e-02" rms="4.8329684138298035e-01" purity="5.2092051506042480e-01" nType="0">
          <Node pos="l" depth="2" NCoef="0" IVar="-1" Cut="0.0000000000000000e+00" cType="1" res="-6.7613651044666767e-03" rms="4.8812568187713623e-01" purity="4.8085248470306396e-01" nType="-99"/>
          <Node pos="r" depth="2" NCoef="0" IVar="-1" Cut="0.0000000000000000e+00" cType="1" res="-5.5739498930051923e-04" rms="4.8128536343574524e-01" purity="5.3428465127944946e-01" nType="-99"/>
        </Node>
      </Node>
    </BinaryTree>
    <BinaryTree type="DecisionTree" boostWeight="1.0000000000000000e+00" itree="165">
      <Node pos="s" depth="0" NCoef="0" IVar="0" Cut="8.4084119796752930e+00" cType="1" res="-2.2794236429035664e-04" rms="4.8852613568305969e-01" purity="4.9915891885757446e-01" nType="0">
        <Node pos="l" depth="1" NCoef="0" IVar="2" Cut="2.0000000000000000e+00" cType="1" res="-3.8357198354788125e-04" rms="5.2703067660331726e-02" purity="5.2472245693206787e-01" nType="0">
          <Node pos="l" depth="2" NCoef="0" IVar="-1" Cut="0.0000000000000000e+00" cType="1" res="3.3192185219377279e-03" rms="4.9368152022361755e-01" purity="5.4483610391616821e-01" nType="-99"/>
          <Node pos="r" depth="2" NCoef="0" IVar="-1" Cut="0.0000000000000000e+00" cType="1" res="-7.5760489562526345e-04" rms="4.9981045722961426e-01" purity="4.9796438217163086e-01" nType="-99"/>
        </Node>
        <Node pos="r" depth="1" NCoef="0" IVar="3" Cut="8.0139946937561035e-01" cType="1" res="-2.4441501591354609e-03" rms="4.8741209506988525e-01" purity="4.9586623907089233e-01" nType="0">
          <Node pos="l" depth="2" NCoef="0" IVar="-1" Cut="0.0000000000000000e+00" cType="1" res="-8.8546960614621639e-04" rms="4.8904746770858765e-01" purity="4.3376210331916809e-01" nType="-99"/>
          <Node pos="r" depth="2" NCoef="0" IVar="-1" Cut="0.0000000000000000e+00" cType="1" res="4.3715117499232292e-04" rms="4.8465919494628906e-01" purity="5.9844690561294556e-01" nType="-99"/>
        </Node>
      </Node>
    </BinaryTree>
    <BinaryTree type="DecisionTree" boostWeight="1.0000000000000000e+00" itree="166">
      <Node pos="s" depth="0" NCoef="0" IVar="5" Cut="-6.9003391265869141e-01" cType="1" res="2.7036352548748255e-03" rms="4.8886609077453613e-01" purity="5.0254225730895996e-01" nType="0">
        <Node pos="l" depth="1" NCoef="0" IVar="3" Cut="-8.9542770385742188e-01" cType="1" res="-1.1367322877049446e-02" rms="4.8624944686889648e-01" purity="4.8519816994667053e-01" nType="0">
          <Node pos="l" depth="2" NCoef="0" IVar="-1" Cut="0.0000000000000000e+00" cType="1" res="2.5526823010295630e-03" rms="4.7344797849655151e-01" purity="3.6435297131538391e-01" nType="-99"/>
          <Node pos="r" depth="2" NCoef="0" IVar="-1" Cut="0.0000000000000000e+00" cType="1" res="-3.2158440444618464e-03" rms="4.9024239182472229e-01" purity="5.2638870477676392e-01" nType="-99"/>
        </Node>
        <Node pos="r" depth="1" NCoef="0" IVar="1" Cut="3.0000000000000000e+00" cType="1" res="1.9423543708398938e-03" rms="2.4121917784214020e-01" purity="5.0499737262725830e-01" nType="0">
          <Node pos="l" depth="2" NCoef="0" IVar="-1" Cut="0.0000000000000000e+00" cType="1" res="2.2591055312659591e-04" rms="4.8944190144538879e-01" purity="5.0093734264373779e-01" nType="-99"/>
          <Node pos="r" depth="2" NCoef="0" IVar="-1" Cut="0.0000000000000000e+00" cType="1" res="2.0780877675861120e-03" rms="4.8847621679306030e-01" purity="5.1558250188827515e-01" nType="-99"/>
        </Node>
      </Node>
    </BinaryTree>
    <BinaryTree type="DecisionTree" boostWeight="1.0000000000000000e+00" itree="167">
      <Node pos="s" depth="0" NCoef="0" IVar="0" Cut="8.7760400772094727e+00" cType="1" res="-8.2710827700793743e-04" rms="4.8832792043685913e-01" purity="4.9958094954490662e-01" nType="0">
        <Node pos="l" depth="1" NCoef="0" IVar="4" Cut="7.8220182657241821e-01" cType="1" res="-7.5303711928427219e-03" rms="4.9371740221977234e-01" purity="4.9640569090843201e-01" nType="0">
          <Node pos="l" depth="2" NCoef="0" IVar="-1" Cut="0.0000000000000000e+00" cType="1" res="-4.6048534568399191e-04" rms="4.9427780508995056e-01" purity="4.9398192763328552e-01" nType="-99"/>
          <Node pos="r" depth="2" NCoef="0" IVar="-1" Cut="0.0000000000000000e+00" cType="1" res="-3.0925862956792116e-03" rms="4.9010965228080750e-01" purity="5.1005971431732178e-01" nType="-99"/>
        </Node>
        <Node pos="r" depth="1" NCoef="0" IVar="3" Cut="-8.9547604322433472e-01" cType="1" res="1.8009105697274208e-03" rms="4.8617345094680786e-01" purity="5.0082582235336304e-01" nType="0">
          <Node pos="l" depth="2" NCoef="0" IVar="-1" Cut="0.0000000000000000e+00" cType="1" res="-1.3495763996616006e-03" rms="4.6530765295028687e-01" purity="3.4045755863189697e-01" nType="-99"/>
          <Node pos="r" depth="2" NCoef="0" IVar="-1" Cut="0.0000000000000000e+00" cType="1" res="6.9606420584022999e-04" rms="4.9099379777908325e-01" purity="5.3903096914291382e-01" nType="-99"/>
        </Node>
      </Node>
    </BinaryTree>
    <BinaryTree type="DecisionTree" boostWeight="1.0000000000000000e+00" itree="168">
      <Node pos="s" depth="0" NCoef="0" IVar="0" Cut="9.4886407852172852e+00" cType="1" res="-7.4557238258421421e-04" rms="4.8888921737670898e-01" purity="4.9959850311279297e-01" nType="0">
        <Node pos="l" depth="1" NCoef="0" IVar="0" Cut="8.2643060684204102e+00" cType="1" res="1.5896531986072659e-03" rms="4.9100404977798462e-01" purity="5.0310844182968140e-01" nType="0">
          <Node pos="l" depth="2" NCoef="0" IVar="-1" Cut="0.0000000000000000e+00" cType="1" res="-1.4812481822445989e-03" rms="4.9844390153884888e-01" purity="4.8478689789772034e-01" nType="-99"/>
          <Node pos="r" depth="2" NCoef="0" IVar="-1" Cut="0.0000000000000000e+00" cType="1" res="4.8323557712137699e-04" rms="4.9026611447334290e-01" purity="5.0483971834182739e-01" nType="-99"/>
        </Node>
        <Node pos="r" depth="1" NCoef="0" IVar="3" Cut="8.9727258682250977e-01" cType="1" res="-1.1645364575088024e-02" rms="4.7874397039413452e-01" purity="4.8321571946144104e-01" nType="0">
          <Node pos="l" depth="2" NCoef="0" IVar="-1" Cut="0.0000000000000000e+00" cType="1" res="-5.3928545676171780e-03" rms="4.8511016368865967e-01" purity="4.2543587088584900e-01" nType="-99"/>
          <Node pos="r" depth="2" NCoef="0" IVar="-1" Cut="0.0000000000000000e+00" cType="1" res="6.1572236008942127e-03" rms="4.5412898063659668e-01" purity="6.8721395730972290e-01" nType="-99"/>
        </Node>
      </Node>
    </BinaryTree>
    <BinaryTree type="DecisionTree" boostWeight="1.0000000000000000e+00" itree="169">
      <Node pos="s" depth="0" NCoef="0" IVar="4" Cut="-7.9605126380920410e-01" cType="1" res="1.7879497027024627e-03" rms="4.8859259486198425e-01" purity="5.0177824497222900e-01" nType="0">
        <Node pos="l" depth="1" NCoef="0" IVar="3" Cut="-8.9646285772323608e-01" cType="1" res="-1.3125522062182426e-02" rms="4.8333609104156494e-01" purity="4.5340344309806824e-01" nType="0">
          <Node pos="l" depth="2" NCoef="0" IVar="-1" Cut="0.0000000000000000e+00" cType="1" res="2.9302204493433237e-03" rms="4.5768156647682190e-01" purity="3.1225571036338806e-01" nType="-99"/>
          <Node pos="r" depth="2" NCoef="0" IVar="-1" Cut="0.0000000000000000e+00" cType="1" res="-3.7232143804430962e-03" rms="4.9171310663223267e-01" purity="5.0334417819976807e-01" nType="-99"/>
        </Node>
        <Node pos="r" depth="1" NCoef="0" IVar="3" Cut="-8.9549475908279419e-01" cType="1" res="4.4598723761737347e-03" rms="4.8948037624359131e-01" purity="5.1044511795043945e-01" nType="0">
          <Node pos="l" depth="2" NCoef="0" IVar="-1" Cut="0.0000000000000000e+00" cType="1" res="-2.1267880219966173e-03" rms="4.7354966402053833e-01" purity="3.5765403509140015e-01" nType="-99"/>
          <Node pos="r" depth="2" NCoef="0" IVar="-1" Cut="0.0000000000000000e+00" cType="1" res="1.1346142273396254e-03" rms="4.9222910404205322e-01" purity="5.3788775205612183e-01" nType="-99"/>
        </Node>
      </Node>
    </BinaryTree>
    <BinaryTree type="DecisionTree" boostWeight="1.0000000000000000e+00" itree="170">
      <Node pos="s" depth="0" NCoef="0" IVar="4" Cut="4.8422820866107941e-02" cType="1" res="-1.5952355461195111e-03" rms="4.8842301964759827e-01" purity="4.9852862954139709e-01" nType="0">
        <Node pos="l" depth="1" NCoef="0" IVar="4" Cut="-8.4276282787322998e-01" cType="1" res="-4.5580104924738407e-03" rms="4.8935803771018982e-01" purity="4.8700284957885742e-01" nType="0">
          <Node pos="l" depth="2" NCoef="0" IVar="-1" Cut="0.0000000000000000e+00" cType="1" res="-3.9998595602810383e-03" rms="4.7350206971168518e-01" purity="4.4376119971275330e-01" nType="-99"/>
          <Node pos="r" depth="2" NCoef="0" IVar="-1" Cut="0.0000000000000000e+00" cType="1" res="-3.2198920962400734e-04" rms="4.9147927761077881e-01" purity="4.9303612112998962e-01" nType="-99"/>
        </Node>
        <Node pos="r" depth="1" NCoef="0" IVar="5" Cut="-7.8467005491256714e-01" cType="1" res="6.1346348375082016e-03" rms="4.8589009046554565e-01" purity="5.2859926223754883e-01" nType="0">
          <Node pos="l" depth="2" NCoef="0" IVar="-1" Cut="0.0000000000000000e+00" cType="1" res="-6.0064969584345818e-03" rms="4.8890930414199829e-01" purity="4.9560019373893738e-01" nType="-99"/>
          <Node pos="r" depth="2" NCoef="0" IVar="-1" Cut="0.0000000000000000e+00" cType="1" res="1.8663289956748486e-03" rms="4.8525220155715942e-01" purity="5.3278976678848267e-01" nType="-99"/>
        </Node>
      </Node>
    </BinaryTree>
    <BinaryTree type="DecisionTree" boostWeight="1.0000000000000000e+00" itree="171">
      <Node pos="s" depth="0" NCoef="0" IVar="0" Cut="9.2668752670288086e+00" cType="1" res="-4.2875809594988823e-03" rms="4.8833039402961731e-01" purity="4.9553552269935608e-01" nType="0">
        <Node pos="l" depth="1" NCoef="0" IVar="3" Cut="-8.9381086826324463e-01" cType="1" res="-8.2721058279275894e-03" rms="4.9212685227394104e-01" purity="4.9365189671516418e-01" nType="0">
          <Node pos="l" depth="2" NCoef="0" IVar="-1" Cut="0.0000000000000000e+00" cType="1" res="1.4494644710794091e-03" rms="4.7821190953254700e-01" purity="3.7634441256523132e-01" nType="-99"/>
          <Node pos="r" depth="2" NCoef="0" IVar="-1" Cut="0.0000000000000000e+00" cType="1" res="-1.5706835547462106e-03" rms="4.9460583925247192e-01" purity="5.1553064584732056e-01" nType="-99"/>
        </Node>
        <Node pos="r" depth="1" NCoef="0" IVar="3" Cut="-8.0116289854049683e-01" cType="1" res="3.8684029132127762e-03" rms="4.8036277294158936e-01" purity="4.9939125776290894e-01" nType="0">
          <Node pos="l" depth="2" NCoef="0" IVar="-1" Cut="0.0000000000000000e+00" cType="1" res="-3.6082118749618530e-03" rms="4.7427064180374146e-01" purity="3.6562615633010864e-01" nType="-99"/>
          <Node pos="r" depth="2" NCoef="0" IVar="-1" Cut="0.0000000000000000e+00" cType="1" res="3.5182845313102007e-03" rms="4.8374542593955994e-01" purity="5.8173650503158569e-01" nType="-99"/>
        </Node>
      </Node>
    </BinaryTree>
    <BinaryTree type="DecisionTree" boostWeight="1.0000000000000000e+00" itree="172">
      <Node pos="s" depth="0" NCoef="0" IVar="3" Cut="8.9724975824356079e-01" cType="1" res="2.0747585222125053e-03" rms="4.8912981152534485e-01" purity="5.0235557556152344e-01" nType="0">
        <Node pos="l" depth="1" NCoef="0" IVar="0" Cut="9.6211643218994141e+00" cType="1" res="4.3150624260306358e-03" rms="4.9230873584747314e-01" purity="4.7335964441299438e-01" nType="0">
          <Node pos="l" depth="2" NCoef="0" IVar="-1" Cut="0.0000000000000000e+00" cType="1" res="9.2682399554178119e-04" rms="4.9346765875816345e-01" purity="4.7899049520492554e-01" nType="-99"/>
          <Node pos="r" depth="2" NCoef="0" IVar="-1" Cut="0.0000000000000000e+00" cType="1" res="-3.5349568352103233e-03" rms="4.8215967416763306e-01" purity="4.2617958784103394e-01" nType="-99"/>
        </Node>
        <Node pos="r" depth="1" NCoef="0" IVar="3" Cut="9.6019834280014038e-01" cType="1" res="-8.5302488878369331e-03" rms="4.7364854812622070e-01" purity="6.3961470127105713e-01" nType="0">
          <Node pos="l" depth="2" NCoef="0" IVar="-1" Cut="0.0000000000000000e+00" cType="1" res="-3.1168640125542879e-03" rms="4.8384377360343933e-01" purity="6.1415916681289673e-01" nType="-99"/>
          <Node pos="r" depth="2" NCoef="0" IVar="-1" Cut="0.0000000000000000e+00" cType="1" res="8.2201417535543442e-03" rms="4.1742312908172607e-01" purity="7.6443541049957275e-01" nType="-99"/>
        </Node>
      </Node>
    </BinaryTree>
    <BinaryTree type="DecisionTree" boostWeight="1.0000000000000000e+00" itree="173">
      <Node pos="s" depth="0" NCoef="0" IVar="3" Cut="-7.0768195390701294e-01" cType="1" res="-9.9927361588925123e-04" rms="4.8925870656967163e-01" purity="4.9909147620201111e-01" nType="0">
        <Node pos="l" depth="1" NCoef="0" IVar="0" Cut="8.4405517578125000e+00" cType="1" res="4.6891821548342705e-03" rms="4.8918575048446655e-01" purity="4.3060222268104553e-01" nType="0">
          <Node pos="l" depth="2" NCoef="0" IVar="-1" Cut="0.0000000000000000e+00" cType="1" res="2.9950425960123539e-03" rms="5.0023055076599121e-01" purity="4.9005961418151855e-01" nType="-99"/>
          <Node pos="r" depth="2" NCoef="0" IVar="-1" Cut="0.0000000000000000e+00" cType="1" res="1.9483077630866319e-04" rms="4.8745062947273254e-01" purity="4.2192184925079346e-01" nType="-99"/>
        </Node>
        <Node pos="r" depth="1" NCoef="0" IVar="3" Cut="9.5285201072692871e-01" cType="1" res="-6.5193218179047108e-03" rms="4.8926624655723572e-01" purity="5.6555312871932983e-01" nType="0">
          <Node pos="l" depth="2" NCoef="0" IVar="-1" Cut="0.0000000000000000e+00" cType="1" res="-1.7155399546027184e-03" rms="4.9529021978378296e-01" purity="5.4674434661865234e-01" nType="-99"/>
          <Node pos="r" depth="2" NCoef="0" IVar="-1" Cut="0.0000000000000000e+00" cType="1" res="9.8647642880678177e-03" rms="4.1590040922164917e-01" purity="7.6801657676696777e-01" nType="-99"/>
        </Node>
      </Node>
    </BinaryTree>
    <BinaryTree type="DecisionTree" boostWeight="1.0000000000000000e+00" itree="174">
      <Node pos="s" depth="0" NCoef="0" IVar="1" Cut="4.0000000000000000e+00" cType="1" res="-7.8239630965981632e-05" rms="3.3679434657096863e-01" purity="4.9709522724151611e-01" nType="0">
        <Node pos="l" depth="1" NCoef="0" IVar="0" Cut="8.8033571243286133e+00" cType="1" res="-4.7020788770169020e-05" rms="4.8927077651023865e-01" purity="4.9922597408294678e-01" nType="0">
          <Node pos="l" depth="2" NCoef="0" IVar="-1" Cut="0.0000000000000000e+00" cType="1" res="7.0857064565643668e-04" rms="4.9683818221092224e-01" purity="5.0851845741271973e-01" nType="-99"/>
          <Node pos="r" depth="2" NCoef="0" IVar="-1" Cut="0.0000000000000000e+00" cType="1" res="-5.4133689263835549e-04" rms="4.8593246936798096e-01" purity="4.9520334601402283e-01" nType="-99"/>
        </Node>
        <Node pos="r" depth="1" NCoef="0" IVar="3" Cut="-8.9522504806518555e-01" cType="1" res="-2.0862983539700508e-02" rms="4.8900344967842102e-01" purity="4.8417359590530396e-01" nType="0">
          <Node pos="l" depth="2" NCoef="0" IVar="-1" Cut="0.0000000000000000e+00" cType="1" res="2.3531066253781319e-03" rms="4.8092693090438843e-01" purity="3.8114577531814575e-01" nType="-99"/>
          <Node pos="r" depth="2" NCoef="0" IVar="-1" Cut="0.0000000000000000e+00" cType="1" res="-5.0385822542011738e-03" rms="4.9107193946838379e-01" purity="5.1745498180389404e-01" nType="-99"/>
        </Node>
      </Node>
    </BinaryTree>
    <BinaryTree type="DecisionTree" boostWeight="1.0000000000000000e+00" itree="175">
      <Node pos="s" depth="0" NCoef="0" IVar="2" Cut="3.0000000000000000e+00" cType="1" res="-1.4933367492631078e-04" rms="3.2958433032035828e-02" purity="5.0175487995147705e-01" nType="0">
        <Node pos="l" depth="1" NCoef="0" IVar="3" Cut="-8.0082064867019653e-01" cType="1" res="3.3010865445248783e-04" rms="4.8867884278297424e-01" purity="4.9877256155014038e-01" nType="0">
          <Node pos="l" depth="2" NCoef="0" IVar="-1" Cut="0.0000000000000000e+00" cType="1" res="1.5460571739822626e-03" rms="4.8536965250968933e-01" purity="4.1369873285293579e-01" nType="-99"/>
          <Node pos="r" depth="2" NCoef="0" IVar="-1" Cut="0.0000000000000000e+00" cType="1" res="-8.0775853712111712e-04" rms="4.9059587717056274e-01" purity="5.5055212974548340e-01" nType="-99"/>
        </Node>
        <Node pos="r" depth="1" NCoef="0" IVar="3" Cut="-7.9612571001052856e-01" cType="1" res="1.9912155345082283e-02" rms="4.8964577913284302e-01" purity="5.2606016397476196e-01" nType="0">
          <Node pos="l" depth="2" NCoef="0" IVar="-1" Cut="0.0000000000000000e+00" cType="1" res="-2.0439785439521074e-03" rms="4.8697298765182495e-01" purity="4.1828277707099915e-01" nType="-99"/>
          <Node pos="r" depth="2" NCoef="0" IVar="-1" Cut="0.0000000000000000e+00" cType="1" res="6.3664359040558338e-03" rms="4.9024298787117004e-01" purity="5.7741445302963257e-01" nType="-99"/>
        </Node>
      </Node>
    </BinaryTree>
    <BinaryTree type="DecisionTree" boostWeight="1.0000000000000000e+00" itree="176">
      <Node pos="s" depth="0" NCoef="0" IVar="3" Cut="8.9696711301803589e-01" cType="1" res="-2.7521913580130786e-05" rms="4.8905792832374573e-01" purity="5.0000554323196411e-01" nType="0">
        <Node pos="l" depth="1" NCoef="0" IVar="0" Cut="9.6273851394653320e+00" cType="1" res="1.7722222255542874e-03" rms="4.9223807454109192e-01" purity="4.7079730033874512e-01" nType="0">
          <Node pos="l" depth="2" NCoef="0" IVar="-1" Cut="0.0000000000000000e+00" cType="1" res="6.2466668896377087e-04" rms="4.9338749051094055e-01" purity="4.7711318731307983e-01" nType="-99"/>
          <Node pos="r" depth="2" NCoef="0" IVar="-1" Cut="0.0000000000000000e+00" cType="1" res="-5.6074713356792927e-03" rms="4.8155230283737183e-01" purity="4.1570654511451721e-01" nType="-99"/>
        </Node>
        <Node pos="r" depth="1" NCoef="0" IVar="3" Cut="9.5989286899566650e-01" cType="1" res="-8.4584532305598259e-03" rms="4.7378531098365784e-01" purity="6.3683187961578369e-01" nType="0">
          <Node pos="l" depth="2" NCoef="0" IVar="-1" Cut="0.0000000000000000e+00" cType="1" res="-3.2071883324533701e-03" rms="4.8437625169754028e-01" purity="6.0871678590774536e-01" nType="-99"/>
          <Node pos="r" depth="2" NCoef="0" IVar="-1" Cut="0.0000000000000000e+00" cType="1" res="9.4538219273090363e-03" rms="4.1287520527839661e-01" purity="7.7840763330459595e-01" nType="-99"/>
        </Node>
      </Node>
    </BinaryTree>
    <BinaryTree type="DecisionTree" boostWeight="1.0000000000000000e+00" itree="177">
      <Node pos="s" depth="0" NCoef="0" IVar="4" Cut="8.8846677541732788e-01" cType="1" res="7.0747579447925091e-03" rms="4.8863548040390015e-01" purity="5.0672727823257446e-01" nType="0">
        <Node pos="l" depth="1" NCoef="0" IVar="3" Cut="-7.0755571126937866e-01" cType="1" res="8.2618640735745430e-03" rms="4.8913553357124329e-01" purity="5.0583577156066895e-01" nType="0">
          <Node pos="l" depth="2" NCoef="0" IVar="-1" Cut="0.0000000000000000e+00" cType="1" res="6.4438011031597853e-04" rms="4.8929050564765930e-01" purity="4.3016752600669861e-01" nType="-99"/>
          <Node pos="r" depth="2" NCoef="0" IVar="-1" Cut="0.0000000000000000e+00" cType="1" res="1.9437770824879408e-03" rms="4.8895433545112610e-01" purity="5.7828849554061890e-01" nType="-99"/>
        </Node>
        <Node pos="r" depth="1" NCoef="0" IVar="-1" Cut="0.0000000000000000e+00" cType="1" res="-3.7438515573740005e-03" rms="4.7602248191833496e-01" purity="5.2746242284774780e-01" nType="-99"/>
      </Node>
    </BinaryTree>
    <BinaryTree type="DecisionTree" boostWeight="1.0000000000000000e+00" itree="178">
      <Node pos="s" depth="0" NCoef="0" IVar="0" Cut="9.1915292739868164e+00" cType="1" res="-1.4581689611077309e-03" rms="4.8835864663124084e-01" purity="4.9852108955383301e-01" nType="0">
        <Node pos="l" depth="1" NCoef="0" IVar="5" Cut="7.7005290985107422e-01" cType="1" res="-5.7481518015265465e-03" rms="4.9234393239021301e-01" purity="4.9703818559646606e-01" nType="0">
          <Node pos="l" depth="2" NCoef="0" IVar="-1" Cut="0.0000000000000000e+00" cType="1" res="-4.3258012738078833e-04" rms="4.9267363548278809e-01" purity="4.9854362010955811e-01" nType="-99"/>
          <Node pos="r" depth="2" NCoef="0" IVar="-1" Cut="0.0000000000000000e+00" cType="1" res="-4.9096196889877319e-03" rms="4.8679426312446594e-01" purity="4.7707352042198181e-01" nType="-99"/>
        </Node>
        <Node pos="r" depth="1" NCoef="0" IVar="3" Cut="-8.0107778310775757e-01" cType="1" res="5.2239238284528255e-03" rms="4.8200947046279907e-01" purity="5.0083088874816895e-01" nType="0">
          <Node pos="l" depth="2" NCoef="0" IVar="-1" Cut="0.0000000000000000e+00" cType="1" res="-2.4265153333544731e-03" rms="4.7605323791503906e-01" purity="3.7208247184753418e-01" nType="-99"/>
          <Node pos="r" depth="2" NCoef="0" IVar="-1" Cut="0.0000000000000000e+00" cType="1" res="3.4002684988081455e-03" rms="4.8546329140663147e-01" purity="5.8158630132675171e-01" nType="-99"/>
        </Node>
      </Node>
    </BinaryTree>
    <BinaryTree type="DecisionTree" boostWeight="1.0000000000000000e+00" itree="179">
      <Node pos="s" depth="0" NCoef="0" IVar="0" Cut="8.5010328292846680e+00" cType="1" res="-2.0528917666524649e-03" rms="4.8823782801628113e-01" purity="4.9799859523773193e-01" nType="0">
        <Node pos="l" depth="1" NCoef="0" IVar="0" Cut="8.3064651489257812e+00" cType="1" res="9.0694921091198921e-03" rms="4.9765065312385559e-01" purity="5.1624131202697754e-01" nType="0">
          <Node pos="l" depth="2" NCoef="0" IVar="-1" Cut="0.0000000000000000e+00" cType="1" res="-6.4691604347899556e-04" rms="5.0052183866500854e-01" purity="4.9458494782447815e-01" nType="-99"/>
          <Node pos="r" depth="2" NCoef="0" IVar="-1" Cut="0.0000000000000000e+00" cType="1" res="3.1455713324248791e-03" rms="4.9311843514442444e-01" purity="5.4467272758483887e-01" nType="-99"/>
        </Node>
        <Node pos="r" depth="1" NCoef="0" IVar="0" Cut="8.6307163238525391e+00" cType="1" res="-3.9658537134528160e-03" rms="4.8657491803169250e-01" purity="4.9486103653907776e-01" nType="0">
          <Node pos="l" depth="2" NCoef="0" IVar="-1" Cut="0.0000000000000000e+00" cType="1" res="-2.4848096072673798e-03" rms="4.9209043383598328e-01" purity="4.8299038410186768e-01" nType="-99"/>
          <Node pos="r" depth="2" NCoef="0" IVar="-1" Cut="0.0000000000000000e+00" cType="1" res="-4.6576652675867081e-04" rms="4.8612800240516663e-01" purity="4.9575719237327576e-01" nType="-99"/>
        </Node>
      </Node>
    </BinaryTree>
    <BinaryTree type="DecisionTree" boostWeight="1.0000000000000000e+00" itree="180">
      <Node pos="s" depth="0" NCoef="0" IVar="4" Cut="-7.9766315221786499e-01" cType="1" res="-5.6088919518515468e-04" rms="4.8848187923431396e-01" purity="4.9898943305015564e-01" nType="0">
        <Node pos="l" depth="1" NCoef="0" IVar="4" Cut="-8.5123205184936523e-01" cType="1" res="9.5874182879924774e-03" rms="4.8171290755271912e-01" purity="4.7688329219818115e-01" nType="0">
          <Node pos="l" depth="2" NCoef="0" IVar="-1" Cut="0.0000000000000000e+00" cType="1" res="-6.7350064637139440e-04" rms="4.7974246740341187e-01" purity="4.6051058173179626e-01" nType="-99"/>
          <Node pos="r" depth="2" NCoef="0" IVar="-1" Cut="0.0000000000000000e+00" cType="1" res="3.8365689106285572e-03" rms="4.8342368006706238e-01" purity="4.9464085698127747e-01" nType="-99"/>
        </Node>
        <Node pos="r" depth="1" NCoef="0" IVar="0" Cut="8.2741060256958008e+00" cType="1" res="-2.3571541532874107e-03" rms="4.8964834213256836e-01" purity="5.0290226936340332e-01" nType="0">
          <Node pos="l" depth="2" NCoef="0" IVar="-1" Cut="0.0000000000000000e+00" cType="1" res="-2.2928682155907154e-03" rms="4.9800318479537964e-01" purity="4.8151591420173645e-01" nType="-99"/>
          <Node pos="r" depth="2" NCoef="0" IVar="-1" Cut="0.0000000000000000e+00" cType="1" res="-9.9699398560915142e-05" rms="4.8889818787574768e-01" purity="5.0470238924026489e-01" nType="-99"/>
        </Node>
      </Node>
    </BinaryTree>
    <BinaryTree type="DecisionTree" boostWeight="1.0000000000000000e+00" itree="181">
      <Node pos="s" depth="0" NCoef="0" IVar="1" Cut="2.0000000000000000e+00" cType="1" res="-2.5244450662285089e-03" rms="3.5092499852180481e-01" purity="4.9792647361755371e-01" nType="0">
        <Node pos="l" depth="1" NCoef="0" IVar="0" Cut="8.9274682998657227e+00" cType="1" res="-8.2798209041357040e-03" rms="4.9113625288009644e-01" purity="4.9389338493347168e-01" nType="0">
          <Node pos="l" depth="2" NCoef="0" IVar="-1" Cut="0.0000000000000000e+00" cType="1" res="-2.3032014723867178e-03" rms="4.9662560224533081e-01" purity="4.8730486631393433e-01" nType="-99"/>
          <Node pos="r" depth="2" NCoef="0" IVar="-1" Cut="0.0000000000000000e+00" cType="1" res="-1.1113562504760921e-04" rms="4.8738080263137817e-01" purity="4.9817523360252380e-01" nType="-99"/>
        </Node>
        <Node pos="r" depth="1" NCoef="0" IVar="5" Cut="5.2947405725717545e-02" cType="1" res="3.1364988535642624e-04" rms="4.8753279447555542e-01" purity="4.9959582090377808e-01" nType="0">
          <Node pos="l" depth="2" NCoef="0" IVar="-1" Cut="0.0000000000000000e+00" cType="1" res="3.7285676808096468e-04" rms="4.8830223083496094e-01" purity="5.0033485889434814e-01" nType="-99"/>
          <Node pos="r" depth="2" NCoef="0" IVar="-1" Cut="0.0000000000000000e+00" cType="1" res="-1.6544341342523694e-03" rms="4.8343735933303833e-01" purity="4.9580851197242737e-01" nType="-99"/>
        </Node>
      </Node>
    </BinaryTree>
    <BinaryTree type="DecisionTree" boostWeight="1.0000000000000000e+00" itree="182">
      <Node pos="s" depth="0" NCoef="0" IVar="5" Cut="5.1396094262599945e-02" cType="1" res="-7.8329350799322128e-03" rms="4.8843529820442200e-01" purity="4.9261566996574402e-01" nType="0">
        <Node pos="l" depth="1" NCoef="0" IVar="4" Cut="7.9576581716537476e-01" cType="1" res="-5.5345525033771992e-03" rms="4.8894929885864258e-01" purity="4.9398213624954224e-01" nType="0">
          <Node pos="l" depth="2" NCoef="0" IVar="-1" Cut="0.0000000000000000e+00" cType="1" res="-1.1776618193835020e-03" rms="4.8973158001899719e-01" purity="4.8781937360763550e-01" nType="-99"/>
          <Node pos="r" depth="2" NCoef="0" IVar="-1" Cut="0.0000000000000000e+00" cType="1" res="1.4941423432901502e-03" rms="4.8317885398864746e-01" purity="5.3724616765975952e-01" nType="-99"/>
        </Node>
        <Node pos="r" depth="1" NCoef="0" IVar="4" Cut="-7.9660695791244507e-01" cType="1" res="-2.3482317104935646e-02" rms="4.8463153839111328e-01" purity="4.8331156373023987e-01" nType="0">
          <Node pos="l" depth="2" NCoef="0" IVar="-1" Cut="0.0000000000000000e+00" cType="1" res="1.9087377586401999e-04" rms="4.8417130112648010e-01" purity="4.7547265887260437e-01" nType="-99"/>
          <Node pos="r" depth="2" NCoef="0" IVar="-1" Cut="0.0000000000000000e+00" cType="1" res="-6.0192598029971123e-03" rms="4.8426631093025208e-01" purity="4.8837167024612427e-01" nType="-99"/>
        </Node>
      </Node>
    </BinaryTree>
    <BinaryTree type="DecisionTree" boostWeight="1.0000000000000000e+00" itree="183">
      <Node pos="s" depth="0" NCoef="0" IVar="1" Cut="4.0000000000000000e+00" cType="1" res="-3.2495177583768964e-04" rms="2.5274834036827087e-01" purity="4.9920633435249329e-01" nType="0">
        <Node pos="l" depth="1" NCoef="0" IVar="1" Cut="2.0000000000000000e+00" cType="1" res="-2.0630444851121865e-05" rms="3.2360826153308153e-03" purity="5.0145530700683594e-01" nType="0">
          <Node pos="l" depth="2" NCoef="0" IVar="-1" Cut="0.0000000000000000e+00" cType="1" res="-8.8852766202762723e-04" rms="4.8896485567092896e-01" purity="4.9554467201232910e-01" nType="-99"/>
          <Node pos="r" depth="2" NCoef="0" IVar="-1" Cut="0.0000000000000000e+00" cType="1" res="1.1701601324602962e-03" rms="4.8890179395675659e-01" purity="5.0447630882263184e-01" nType="-99"/>
        </Node>
        <Node pos="r" depth="1" NCoef="0" IVar="3" Cut="8.9387178421020508e-01" cType="1" res="-1.6962191089987755e-02" rms="4.9203568696975708e-01" purity="4.8562210798263550e-01" nType="0">
          <Node pos="l" depth="2" NCoef="0" IVar="-1" Cut="0.0000000000000000e+00" cType="1" res="-6.0425250558182597e-04" rms="4.9287700653076172e-01" purity="4.5459246635437012e-01" nType="-99"/>
          <Node pos="r" depth="2" NCoef="0" IVar="-1" Cut="0.0000000000000000e+00" cType="1" res="-1.0490598157048225e-02" rms="4.8737958073616028e-01" purity="5.7935011386871338e-01" nType="-99"/>
        </Node>
      </Node>
    </BinaryTree>
    <BinaryTree type="DecisionTree" boostWeight="1.0000000000000000e+00" itree="184">
      <Node pos="s" depth="0" NCoef="0" IVar="5" Cut="5.1598325371742249e-02" cType="1" res="2.2606300190091133e-03" rms="4.8854652047157288e-01" purity="5.0124919414520264e-01" nType="0">
        <Node pos="l" depth="1" NCoef="0" IVar="0" Cut="8.1729154586791992e+00" cType="1" res="7.7049073297530413e-04" rms="4.8884665966033936e-01" purity="4.9987232685089111e-01" nType="0">
          <Node pos="l" depth="2" NCoef="0" IVar="-1" Cut="0.0000000000000000e+00" cType="1" res="-1.7700676107779145e-03" rms="5.0160479545593262e-01" purity="4.7635000944137573e-01" nType="-99"/>
          <Node pos="r" depth="2" NCoef="0" IVar="-1" Cut="0.0000000000000000e+00" cType="1" res="2.9511688626371324e-04" rms="4.8809546232223511e-01" purity="5.0120133161544800e-01" nType="-99"/>
        </Node>
        <Node pos="r" depth="1" NCoef="0" IVar="3" Cut="-8.9528650045394897e-01" cType="1" res="1.2388041242957115e-02" rms="4.8638099431991577e-01" purity="5.1060658693313599e-01" nType="0">
          <Node pos="l" depth="2" NCoef="0" IVar="-1" Cut="0.0000000000000000e+00" cType="1" res="6.0428986325860023e-03" rms="4.8229345679283142e-01" purity="4.1051912307739258e-01" nType="-99"/>
          <Node pos="r" depth="2" NCoef="0" IVar="-1" Cut="0.0000000000000000e+00" cType="1" res="3.0857539968565106e-04" rms="4.8783648014068604e-01" purity="5.5534255504608154e-01" nType="-99"/>
        </Node>
      </Node>
    </BinaryTree>
    <BinaryTree type="DecisionTree" boostWeight="1.0000000000000000e+00" itree="185">
      <Node pos="s" depth="0" NCoef="0" IVar="5" Cut="-6.9064450263977051e-01" cType="1" res="5.2043551113456488e-04" rms="4.8857200145721436e-01" purity="4.9987575411796570e-01" nType="0">
        <Node pos="l" depth="1" NCoef="0" IVar="3" Cut="-7.0521974563598633e-01" cType="1" res="1.7643067985773087e-02" rms="4.8759490251541138e-01" purity="5.1340132951736450e-01" nType="0">
          <Node pos="l" depth="2" NCoef="0" IVar="-1" Cut="0.0000000000000000e+00" cType="1" res="6.1839642003178596e-03" rms="4.8801586031913757e-01" purity="4.4110226631164551e-01" nType="-99"/>
          <Node pos="r" depth="2" NCoef="0" IVar="-1" Cut="0.0000000000000000e+00" cType="1" res="-3.5880529321730137e-04" rms="4.8636561632156372e-01" purity="5.7676512002944946e-01" nType="-99"/>
        </Node>
        <Node pos="r" depth="1" NCoef="0" IVar="4" Cut="-7.9643946886062622e-01" cType="1" res="-1.8521061865612864e-03" rms="4.8865991830825806e-01" purity="4.9800160527229309e-01" nType="0">
          <Node pos="l" depth="2" NCoef="0" IVar="-1" Cut="0.0000000000000000e+00" cType="1" res="-2.2557030897587538e-03" rms="4.8125848174095154e-01" purity="4.5602163672447205e-01" nType="-99"/>
          <Node pos="r" depth="2" NCoef="0" IVar="-1" Cut="0.0000000000000000e+00" cType="1" res="-3.8724192563677207e-05" rms="4.8969331383705139e-01" purity="5.0403374433517456e-01" nType="-99"/>
        </Node>
      </Node>
    </BinaryTree>
    <BinaryTree type="DecisionTree" boostWeight="1.0000000000000000e+00" itree="186">
      <Node pos="s" depth="0" NCoef="0" IVar="4" Cut="4.4946037232875824e-02" cType="1" res="4.7023650258779526e-03" rms="4.8865035176277161e-01" purity="5.0506556034088135e-01" nType="0">
        <Node pos="l" depth="1" NCoef="0" IVar="3" Cut="8.0297869443893433e-01" cType="1" res="7.5180071871727705e-04" rms="4.8976916074752808e-01" purity="4.9233859777450562e-01" nType="0">
          <Node pos="l" depth="2" NCoef="0" IVar="-1" Cut="0.0000000000000000e+00" cType="1" res="8.1540492828935385e-04" rms="4.9013179540634155e-01" purity="4.4600653648376465e-01" nType="-99"/>
          <Node pos="r" depth="2" NCoef="0" IVar="-1" Cut="0.0000000000000000e+00" cType="1" res="-1.0848797392100096e-03" rms="4.8907786607742310e-01" purity="5.6910371780395508e-01" nType="-99"/>
        </Node>
        <Node pos="r" depth="1" NCoef="0" IVar="4" Cut="8.7021666765213013e-01" cType="1" res="1.4791457913815975e-02" rms="4.8563560843467712e-01" purity="5.3756827116012573e-01" nType="0">
          <Node pos="l" depth="2" NCoef="0" IVar="-1" Cut="0.0000000000000000e+00" cType="1" res="3.2728489022701979e-03" rms="4.8683264851570129e-01" purity="5.3839647769927979e-01" nType="-99"/>
          <Node pos="r" depth="2" NCoef="0" IVar="-1" Cut="0.0000000000000000e+00" cType="1" res="-1.5308802248910069e-03" rms="4.8039913177490234e-01" purity="5.3444284200668335e-01" nType="-99"/>
        </Node>
      </Node>
    </BinaryTree>
    <BinaryTree type="DecisionTree" boostWeight="1.0000000000000000e+00" itree="187">
      <Node pos="s" depth="0" NCoef="0" IVar="0" Cut="8.1768674850463867e+00" cType="1" res="3.2502480316907167e-03" rms="4.8895636200904846e-01" purity="5.0265944004058838e-01" nType="0">
        <Node pos="l" depth="1" NCoef="0" IVar="-1" Cut="0.0000000000000000e+00" cType="1" res="2.2257729433476925e-03" rms="4.9818071722984314e-01" purity="5.1674288511276245e-01" nType="-99"/>
        <Node pos="r" depth="1" NCoef="0" IVar="0" Cut="8.4775409698486328e+00" cType="1" res="2.2026468068361282e-03" rms="4.8842412233352661e-01" purity="5.0188755989074707e-01" nType="0">
          <Node pos="l" depth="2" NCoef="0" IVar="-1" Cut="0.0000000000000000e+00" cType="1" res="-1.0134509066119790e-03" rms="4.9423027038574219e-01" purity="5.0383329391479492e-01" nType="-99"/>
          <Node pos="r" depth="2" NCoef="0" IVar="-1" Cut="0.0000000000000000e+00" cType="1" res="5.9195206267759204e-04" rms="4.8784041404724121e-01" purity="5.0169831514358521e-01" nType="-99"/>
        </Node>
      </Node>
    </BinaryTree>
    <BinaryTree type="DecisionTree" boostWeight="1.0000000000000000e+00" itree="188">
      <Node pos="s" depth="0" NCoef="0" IVar="0" Cut="8.8874244689941406e+00" cType="1" res="-4.7235670499503613e-03" rms="4.8877829313278198e-01" purity="4.9596786499023438e-01" nType="0">
        <Node pos="l" depth="1" NCoef="0" IVar="4" Cut="-7.9006463289260864e-01" cType="1" res="-1.4030420221388340e-02" rms="4.9442347884178162e-01" purity="4.8899987339973450e-01" nType="0">
          <Node pos="l" depth="2" NCoef="0" IVar="-1" Cut="0.0000000000000000e+00" cType="1" res="1.2041562004014850e-03" rms="4.8972907662391663e-01" purity="4.7332531213760376e-01" nType="-99"/>
          <Node pos="r" depth="2" NCoef="0" IVar="-1" Cut="0.0000000000000000e+00" cType="1" res="-2.0984180737286806e-03" rms="4.9508425593376160e-01" purity="4.9159690737724304e-01" nType="-99"/>
        </Node>
        <Node pos="r" depth="1" NCoef="0" IVar="3" Cut="8.9724975824356079e-01" cType="1" res="6.0450442833825946e-04" rms="4.8543664813041687e-01" purity="4.9995702505111694e-01" nType="0">
          <Node pos="l" depth="2" NCoef="0" IVar="-1" Cut="0.0000000000000000e+00" cType="1" res="-5.1407585851848125e-04" rms="4.9066972732543945e-01" purity="4.5794659852981567e-01" nType="-99"/>
          <Node pos="r" depth="2" NCoef="0" IVar="-1" Cut="0.0000000000000000e+00" cType="1" res="3.0035553500056267e-03" rms="4.6371605992317200e-01" purity="6.6784155368804932e-01" nType="-99"/>
        </Node>
      </Node>
    </BinaryTree>
    <BinaryTree type="DecisionTree" boostWeight="1.0000000000000000e+00" itree="189">
      <Node pos="s" depth="0" NCoef="0" IVar="3" Cut="8.0284202098846436e-01" cType="1" res="-1.6691091004759073e-03" rms="4.9005368351936340e-01" purity="4.9830108880996704e-01" nType="0">
        <Node pos="l" depth="1" NCoef="0" IVar="5" Cut="-6.8235611915588379e-01" cType="1" res="4.2653535492718220e-03" rms="4.9175190925598145e-01" purity="4.4824516773223877e-01" nType="0">
          <Node pos="l" depth="2" NCoef="0" IVar="-1" Cut="0.0000000000000000e+00" cType="1" res="4.7026085667312145e-03" rms="4.9147838354110718e-01" purity="4.3813982605934143e-01" nType="-99"/>
          <Node pos="r" depth="2" NCoef="0" IVar="-1" Cut="0.0000000000000000e+00" cType="1" res="2.4626424419693649e-04" rms="4.9170741438865662e-01" purity="4.4932842254638672e-01" nType="-99"/>
        </Node>
        <Node pos="r" depth="1" NCoef="0" IVar="0" Cut="9.4886407852172852e+00" cType="1" res="-1.1729956604540348e-02" rms="4.8699590563774109e-01" purity="5.8316212892532349e-01" nType="0">
          <Node pos="l" depth="2" NCoef="0" IVar="-1" Cut="0.0000000000000000e+00" cType="1" res="-2.6153181679546833e-03" rms="4.9004638195037842e-01" purity="5.7257324457168579e-01" nType="-99"/>
          <Node pos="r" depth="2" NCoef="0" IVar="-1" Cut="0.0000000000000000e+00" cType="1" res="3.3092736266553402e-03" rms="4.7292664647102356e-01" purity="6.2871009111404419e-01" nType="-99"/>
        </Node>
      </Node>
    </BinaryTree>
    <BinaryTree type="DecisionTree" boostWeight="1.0000000000000000e+00" itree="190">
      <Node pos="s" depth="0" NCoef="0" IVar="4" Cut="8.9009654521942139e-01" cType="1" res="-3.6400821991264820e-03" rms="4.8877772688865662e-01" purity="4.9553972482681274e-01" nType="0">
        <Node pos="l" depth="1" NCoef="0" IVar="3" Cut="8.9534759521484375e-01" cType="1" res="-2.6768478564918041e-03" rms="4.8907497525215149e-01" purity="4.9452835321426392e-01" nType="0">
          <Node pos="l" depth="2" NCoef="0" IVar="-1" Cut="0.0000000000000000e+00" cType="1" res="-6.9256790447980165e-04" rms="4.9231368303298950e-01" purity="4.6566149592399597e-01" nType="-99"/>
          <Node pos="r" depth="2" NCoef="0" IVar="-1" Cut="0.0000000000000000e+00" cType="1" res="1.2033367529511452e-03" rms="4.7235479950904846e-01" purity="6.3958311080932617e-01" nType="-99"/>
        </Node>
        <Node pos="r" depth="1" NCoef="0" IVar="-1" Cut="0.0000000000000000e+00" cType="1" res="-5.0261719152331352e-03" rms="4.8095259070396423e-01" purity="5.1997953653335571e-01" nType="-99"/>
      </Node>
    </BinaryTree>
    <BinaryTree type="DecisionTree" boostWeight="1.0000000000000000e+00" itree="191">
      <Node pos="s" depth="0" NCoef="0" IVar="2" Cut="3.0000000000000000e+00" cType="1" res="4.9599217163631693e-05" rms="9.6991404891014099e-02" purity="5.0574821233749390e-01" nType="0">
        <Node pos="l" depth="1" NCoef="0" IVar="4" Cut="4.8422820866107941e-02" cType="1" res="4.1275788098573685e-03" rms="4.8766496777534485e-01" purity="5.0256395339965820e-01" nType="0">
          <Node pos="l" depth="2" NCoef="0" IVar="-1" Cut="0.0000000000000000e+00" cType="1" res="1.1201294837519526e-03" rms="4.8890635371208191e-01" purity="4.9540176987648010e-01" nType="-99"/>
          <Node pos="r" depth="2" NCoef="0" IVar="-1" Cut="0.0000000000000000e+00" cType="1" res="-5.1231228280812502e-04" rms="4.8465058207511902e-01" purity="5.1942545175552368e-01" nType="-99"/>
        </Node>
        <Node pos="r" depth="1" NCoef="0" IVar="0" Cut="9.0895500183105469e+00" cType="1" res="2.6855319738388062e-02" rms="4.9137374758720398e-01" purity="5.3257548809051514e-01" nType="0">
          <Node pos="l" depth="2" NCoef="0" IVar="-1" Cut="0.0000000000000000e+00" cType="1" res="6.3667502254247665e-03" rms="4.9216550588607788e-01" purity="5.5133163928985596e-01" nType="-99"/>
          <Node pos="r" depth="2" NCoef="0" IVar="-1" Cut="0.0000000000000000e+00" cType="1" res="1.9808043725788593e-03" rms="4.8972675204277039e-01" purity="5.1081967353820801e-01" nType="-99"/>
        </Node>
      </Node>
    </BinaryTree>
    <BinaryTree type="DecisionTree" boostWeight="1.0000000000000000e+00" itree="192">
      <Node pos="s" depth="0" NCoef="0" IVar="1" Cut="3.0000000000000000e+00" cType="1" res="-4.4746592175215483e-04" rms="2.7298542857170105e-01" purity="4.9955800175666809e-01" nType="0">
        <Node pos="l" depth="1" NCoef="0" IVar="0" Cut="8.9654245376586914e+00" cType="1" res="-5.1684132777154446e-03" rms="4.8911413550376892e-01" purity="4.9447366595268250e-01" nType="0">
          <Node pos="l" depth="2" NCoef="0" IVar="-1" Cut="0.0000000000000000e+00" cType="1" res="-1.6372720710933208e-03" rms="4.9538105726242065e-01" purity="4.8701870441436768e-01" nType="-99"/>
          <Node pos="r" depth="2" NCoef="0" IVar="-1" Cut="0.0000000000000000e+00" cType="1" res="2.7858078829012811e-04" rms="4.8425039649009705e-01" purity="5.0007468461990356e-01" nType="-99"/>
        </Node>
        <Node pos="r" depth="1" NCoef="0" IVar="5" Cut="7.9097390174865723e-01" cType="1" res="7.4783773161470890e-03" rms="4.8884555697441101e-01" purity="5.0912743806838989e-01" nType="0">
          <Node pos="l" depth="2" NCoef="0" IVar="-1" Cut="0.0000000000000000e+00" cType="1" res="1.8868249608203769e-03" rms="4.8896858096122742e-01" purity="5.1158702373504639e-01" nType="-99"/>
          <Node pos="r" depth="2" NCoef="0" IVar="-1" Cut="0.0000000000000000e+00" cType="1" res="-3.9130002260208130e-03" rms="4.8703157901763916e-01" purity="4.9288174510002136e-01" nType="-99"/>
        </Node>
      </Node>
    </BinaryTree>
    <BinaryTree type="DecisionTree" boostWeight="1.0000000000000000e+00" itree="193">
      <Node pos="s" depth="0" NCoef="0" IVar="4" Cut="7.9865038394927979e-01" cType="1" res="-1.9688676111400127e-03" rms="4.8912918567657471e-01" purity="4.9760937690734863e-01" nType="0">
        <Node pos="l" depth="1" NCoef="0" IVar="5" Cut="7.9156899452209473e-01" cType="1" res="1.3236078666523099e-03" rms="4.8967906832695007e-01" purity="4.9506244063377380e-01" nType="0">
          <Node pos="l" depth="2" NCoef="0" IVar="-1" Cut="0.0000000000000000e+00" cType="1" res="-2.9292521503521129e-05" rms="4.8977857828140259e-01" purity="4.9398598074913025e-01" nType="-99"/>
          <Node pos="r" depth="2" NCoef="0" IVar="-1" Cut="0.0000000000000000e+00" cType="1" res="7.8833289444446564e-03" rms="4.8488241434097290e-01" purity="5.2566343545913696e-01" nType="-99"/>
        </Node>
        <Node pos="r" depth="1" NCoef="0" IVar="3" Cut="-7.0667922496795654e-01" cType="1" res="-2.0151354372501373e-02" rms="4.8567944765090942e-01" purity="5.1167452335357666e-01" nType="0">
          <Node pos="l" depth="2" NCoef="0" IVar="-1" Cut="0.0000000000000000e+00" cType="1" res="-1.7344426596537232e-03" rms="4.9128198623657227e-01" purity="4.2836815118789673e-01" nType="-99"/>
          <Node pos="r" depth="2" NCoef="0" IVar="-1" Cut="0.0000000000000000e+00" cType="1" res="-5.8595049194991589e-03" rms="4.7799035906791687e-01" purity="6.2083774805068970e-01" nType="-99"/>
        </Node>
      </Node>
    </BinaryTree>
    <BinaryTree type="DecisionTree" boostWeight="1.0000000000000000e+00" itree="194">
      <Node pos="s" depth="0" NCoef="0" IVar="3" Cut="8.0284202098846436e-01" cType="1" res="-2.3730826796963811e-04" rms="4.8956063389778137e-01" purity="5.0058019161224365e-01" nType="0">
        <Node pos="l" depth="1" NCoef="0" IVar="1" Cut="2.0000000000000000e+00" cType="1" res="1.5181425260379910e-03" rms="2.5731015205383301e-01" purity="4.4880858063697815e-01" nType="0">
          <Node pos="l" depth="2" NCoef="0" IVar="-1" Cut="0.0000000000000000e+00" cType="1" res="-8.5610110545530915e-04" rms="4.9183145165443420e-01" purity="4.5133531093597412e-01" nType="-99"/>
          <Node pos="r" depth="2" NCoef="0" IVar="-1" Cut="0.0000000000000000e+00" cType="1" res="1.2793091591447592e-03" rms="4.9135920405387878e-01" purity="4.4763398170471191e-01" nType="-99"/>
        </Node>
        <Node pos="r" depth="1" NCoef="0" IVar="3" Cut="8.2083725929260254e-01" cType="1" res="-6.8216226063668728e-03" rms="4.8615333437919617e-01" purity="5.8687275648117065e-01" nType="0">
          <Node pos="l" depth="2" NCoef="0" IVar="-1" Cut="0.0000000000000000e+00" cType="1" res="-6.4421561546623707e-03" rms="4.9816232919692993e-01" purity="5.0684314966201782e-01" nType="-99"/>
          <Node pos="r" depth="2" NCoef="0" IVar="-1" Cut="0.0000000000000000e+00" cType="1" res="-5.7934335200116038e-04" rms="4.8482301831245422e-01" purity="5.9475046396255493e-01" nType="-99"/>
        </Node>
      </Node>
    </BinaryTree>
    <BinaryTree type="DecisionTree" boostWeight="1.0000000000000000e+00" itree="195">
      <Node pos="s" depth="0" NCoef="0" IVar="5" Cut="7.7929794788360596e-01" cType="1" res="-1.7147109610959888e-04" rms="4.8839911818504333e-01" purity="4.9945560097694397e-01" nType="0">
        <Node pos="l" depth="1" NCoef="0" IVar="0" Cut="8.9637928009033203e+00" cType="1" res="-1.8676950130611658e-03" rms="4.8889097571372986e-01" purity="4.9670982360839844e-01" nType="0">
          <Node pos="l" depth="2" NCoef="0" IVar="-1" Cut="0.0000000000000000e+00" cType="1" res="5.3622695850208402e-04" rms="4.9351894855499268e-01" purity="5.0413066148757935e-01" nType="-99"/>
          <Node pos="r" depth="2" NCoef="0" IVar="-1" Cut="0.0000000000000000e+00" cType="1" res="-1.3616200303658843e-03" rms="4.8539885878562927e-01" purity="4.9124068021774292e-01" nType="-99"/>
        </Node>
        <Node pos="r" depth="1" NCoef="0" IVar="0" Cut="9.1662635803222656e+00" cType="1" res="2.4657128378748894e-02" rms="4.8045718669891357e-01" purity="5.3964638710021973e-01" nType="0">
          <Node pos="l" depth="2" NCoef="0" IVar="-1" Cut="0.0000000000000000e+00" cType="1" res="1.3898494653403759e-03" rms="4.8119199275970459e-01" purity="5.1849520206451416e-01" nType="-99"/>
          <Node pos="r" depth="2" NCoef="0" IVar="-1" Cut="0.0000000000000000e+00" cType="1" res="1.0236623696982861e-02" rms="4.7891435027122498e-01" purity="5.6604862213134766e-01" nType="-99"/>
        </Node>
      </Node>
    </BinaryTree>
    <BinaryTree type="DecisionTree" boostWeight="1.0000000000000000e+00" itree="196">
      <Node pos="s" depth="0" NCoef="0" IVar="5" Cut="7.8990858793258667e-01" cType="1" res="1.1534891091287136e-03" rms="4.8824882507324219e-01" purity="5.0045043230056763e-01" nType="0">
        <Node pos="l" depth="1" NCoef="0" IVar="3" Cut="8.0090922117233276e-01" cType="1" res="2.2743733134120703e-03" rms="4.8838353157043457e-01" purity="5.0052207708358765e-01" nType="0">
          <Node pos="l" depth="2" NCoef="0" IVar="-1" Cut="0.0000000000000000e+00" cType="1" res="-1.2807309394702315e-04" rms="4.9076002836227417e-01" purity="4.4462263584136963e-01" nType="-99"/>
          <Node pos="r" depth="2" NCoef="0" IVar="-1" Cut="0.0000000000000000e+00" cType="1" res="1.2722201645374298e-03" rms="4.8427072167396545e-01" purity="5.9556466341018677e-01" nType="-99"/>
        </Node>
        <Node pos="r" depth="1" NCoef="0" IVar="4" Cut="-7.9722613096237183e-01" cType="1" res="-1.8006647005677223e-02" rms="4.8554030060768127e-01" purity="4.9922659993171692e-01" nType="0">
          <Node pos="l" depth="2" NCoef="0" IVar="-1" Cut="0.0000000000000000e+00" cType="1" res="1.0955072939395905e-03" rms="4.8194858431816101e-01" purity="4.9088984727859497e-01" nType="-99"/>
          <Node pos="r" depth="2" NCoef="0" IVar="-1" Cut="0.0000000000000000e+00" cType="1" res="-8.4750438109040260e-03" rms="4.8816984891891479e-01" purity="5.0892591476440430e-01" nType="-99"/>
        </Node>
      </Node>
    </BinaryTree>
    <BinaryTree type="DecisionTree" boostWeight="1.0000000000000000e+00" itree="197">
      <Node pos="s" depth="0" NCoef="0" IVar="4" Cut="7.9645693302154541e-01" cType="1" res="-2.4413934443145990e-03" rms="4.8817932605743408e-01" purity="4.9671790003776550e-01" nType="0">
        <Node pos="l" depth="1" NCoef="0" IVar="2" Cut="3.0000000000000000e+00" cType="1" res="6.1757331422995776e-05" rms="3.1404770910739899e-02" purity="4.8797085881233215e-01" nType="0">
          <Node pos="l" depth="2" NCoef="0" IVar="-1" Cut="0.0000000000000000e+00" cType="1" res="-4.9778167158365250e-04" rms="4.8911297321319580e-01" purity="4.8819065093994141e-01" nType="-99"/>
          <Node pos="r" depth="2" NCoef="0" IVar="-1" Cut="0.0000000000000000e+00" cType="1" res="-3.4586766269057989e-03" rms="4.9192509055137634e-01" purity="4.8629081249237061e-01" nType="-99"/>
        </Node>
        <Node pos="r" depth="1" NCoef="0" IVar="0" Cut="8.8862171173095703e+00" cType="1" res="1.1638232506811619e-02" rms="4.8102426528930664e-01" purity="5.4329442977905273e-01" nType="0">
          <Node pos="l" depth="2" NCoef="0" IVar="-1" Cut="0.0000000000000000e+00" cType="1" res="3.1321933493018150e-03" rms="4.8839402198791504e-01" purity="5.5666536092758179e-01" nType="-99"/>
          <Node pos="r" depth="2" NCoef="0" IVar="-1" Cut="0.0000000000000000e+00" cType="1" res="1.0202890262007713e-03" rms="4.7745952010154724e-01" purity="5.3716295957565308e-01" nType="-99"/>
        </Node>
      </Node>
    </BinaryTree>
    <BinaryTree type="DecisionTree" boostWeight="1.0000000000000000e+00" itree="198">
      <Node pos="s" depth="0" NCoef="0" IVar="3" Cut="8.9695680141448975e-01" cType="1" res="3.1554684974253178e-03" rms="4.8793658614158630e-01" purity="5.0181216001510620e-01" nType="0">
        <Node pos="l" depth="1" NCoef="0" IVar="0" Cut="9.8405904769897461e+00" cType="1" res="8.6050247773528099e-04" rms="4.9247074127197266e-01" purity="4.6921235322952271e-01" nType="0">
          <Node pos="l" depth="2" NCoef="0" IVar="-1" Cut="0.0000000000000000e+00" cType="1" res="3.3336295746266842e-04" rms="4.9313348531723022e-01" purity="4.7236251831054688e-01" nType="-99"/>
          <Node pos="r" depth="2" NCoef="0" IVar="-1" Cut="0.0000000000000000e+00" cType="1" res="-9.1007305309176445e-03" rms="4.7667613625526428e-01" purity="3.9980015158653259e-01" nType="-99"/>
        </Node>
        <Node pos="r" depth="1" NCoef="0" IVar="3" Cut="9.5089739561080933e-01" cType="1" res="1.4282992109656334e-02" rms="4.6516543626785278e-01" purity="6.5987771749496460e-01" nType="0">
          <Node pos="l" depth="2" NCoef="0" IVar="-1" Cut="0.0000000000000000e+00" cType="1" res="2.9677708516828716e-04" rms="4.8259794712066650e-01" purity="6.1827784776687622e-01" nType="-99"/>
          <Node pos="r" depth="2" NCoef="0" IVar="-1" Cut="0.0000000000000000e+00" cType="1" res="1.0572348721325397e-02" rms="4.1236445307731628e-01" purity="7.7255475521087646e-01" nType="-99"/>
        </Node>
      </Node>
    </BinaryTree>
    <BinaryTree type="DecisionTree" boostWeight="1.0000000000000000e+00" itree="199">
      <Node pos="s" depth="0" NCoef="0" IVar="0" Cut="8.8072624206542969e+00" cType="1" res="9.8927284125238657e-04" rms="4.8873940110206604e-01" purity="5.0131678581237793e-01" nType="0">
        <Node pos="l" depth="1" NCoef="0" IVar="1" Cut="2.0000000000000000e+00" cType="1" res="2.4042409495450556e-04" rms="5.2708756178617477e-02" purity="5.1360684633255005e-01" nType="0">
          <Node pos="l" depth="2" NCoef="0" IVar="-1" Cut="0.0000000000000000e+00" cType="1" res="-2.0363905059639364e-04" rms="4.9441698193550110e-01" purity="5.0423604249954224e-01" nType="-99"/>
          <Node pos="r" depth="2" NCoef="0" IVar="-1" Cut="0.0000000000000000e+00" cType="1" res="1.9649337045848370e-03" rms="4.9323940277099609e-01" purity="5.1756972074508667e-01" nType="-99"/>
        </Node>
        <Node pos="r" depth="1" NCoef="0" IVar="5" Cut="-6.8894684314727783e-01" cType="1" res="-3.7033373955637217e-03" rms="4.8647895455360413e-01" purity="4.9590334296226501e-01" nType="0">
          <Node pos="l" depth="2" NCoef="0" IVar="-1" Cut="0.0000000000000000e+00" cType="1" res="-3.5021225921809673e-03" rms="4.8590108752250671e-01" purity="4.8221236467361450e-01" nType="-99"/>
          <Node pos="r" depth="2" NCoef="0" IVar="-1" Cut="0.0000000000000000e+00" cType="1" res="-3.2967573497444391e-04" rms="4.8653116822242737e-01" purity="4.9789962172508240e-01" nType="-99"/>
        </Node>
      </Node>
    </BinaryTree>
    <BinaryTree type="DecisionTree" boostWeight="1.0000000000000000e+00" itree="200">
      <Node pos="s" depth="0" NCoef="0" IVar="0" Cut="9.0421190261840820e+00" cType="1" res="5.5348232854157686e-04" rms="4.8848575353622437e-01" purity="5.0038915872573853e-01" nType="0">
        <Node pos="l" depth="1" NCoef="0" IVar="3" Cut="-8.9089483022689819e-01" cType="1" res="6.0148499906063080e-03" rms="4.9371969699859619e-01" purity="5.0765883922576904e-01" nType="0">
          <Node pos="l" depth="2" NCoef="0" IVar="-1" Cut="0.0000000000000000e+00" cType="1" res="3.4055176656693220e-03" rms="4.8794254660606384e-01" purity="4.0763738751411438e-01" nType="-99"/>
          <Node pos="r" depth="2" NCoef="0" IVar="-1" Cut="0.0000000000000000e+00" cType="1" res="2.8861442115157843e-04" rms="4.9467131495475769e-01" purity="5.2577328681945801e-01" nType="-99"/>
        </Node>
        <Node pos="r" depth="1" NCoef="0" IVar="3" Cut="8.0222886800765991e-01" cType="1" res="-4.4807908125221729e-03" rms="4.8355627059936523e-01" purity="4.9368780851364136e-01" nType="0">
          <Node pos="l" depth="2" NCoef="0" IVar="-1" Cut="0.0000000000000000e+00" cType="1" res="-1.9638978410512209e-03" rms="4.8590582609176636e-01" purity="4.1795739531517029e-01" nType="-99"/>
          <Node pos="r" depth="2" NCoef="0" IVar="-1" Cut="0.0000000000000000e+00" cType="1" res="6.3829415012151003e-04" rms="4.7980472445487976e-01" purity="6.1088681221008301e-01" nType="-99"/>
        </Node>
      </Node>
    </BinaryTree>
    <BinaryTree type="DecisionTree" boostWeight="1.0000000000000000e+00" itree="201">
      <Node pos="s" depth="0" NCoef="0" IVar="3" Cut="-7.0749557018280029e-01" cType="1" res="2.5823093019425869e-03" rms="4.8774018883705139e-01" purity="5.0258785486221313e-01" nType="0">
        <Node pos="l" depth="1" NCoef="0" IVar="3" Cut="-9.5201957225799561e-01" cType="1" res="-3.2874788157641888e-03" rms="4.8803055286407471e-01" purity="4.2317140102386475e-01" nType="0">
          <Node pos="l" depth="2" NCoef="0" IVar="-1" Cut="0.0000000000000000e+00" cType="1" res="-6.3544916920363903e-03" rms="4.3103209137916565e-01" purity="2.5309976935386658e-01" nType="-99"/>
          <Node pos="r" depth="2" NCoef="0" IVar="-1" Cut="0.0000000000000000e+00" cType="1" res="-1.2029040226479992e-04" rms="4.9317729473114014e-01" purity="4.3979671597480774e-01" nType="-99"/>
        </Node>
        <Node pos="r" depth="1" NCoef="0" IVar="4" Cut="-7.0411264896392822e-01" cType="1" res="8.3076329901814461e-03" rms="4.8738870024681091e-01" purity="5.8004969358444214e-01" nType="0">
          <Node pos="l" depth="2" NCoef="0" IVar="-1" Cut="0.0000000000000000e+00" cType="1" res="-5.4451619507744908e-04" rms="4.9216783046722412e-01" purity="5.4819774627685547e-01" nType="-99"/>
          <Node pos="r" depth="2" NCoef="0" IVar="-1" Cut="0.0000000000000000e+00" cType="1" res="2.1366102155297995e-03" rms="4.8524740338325500e-01" purity="5.9365111589431763e-01" nType="-99"/>
        </Node>
      </Node>
    </BinaryTree>
    <BinaryTree type="DecisionTree" boostWeight="1.0000000000000000e+00" itree="202">
      <Node pos="s" depth="0" NCoef="0" IVar="4" Cut="-8.9301693439483643e-01" cType="1" res="-3.8192491047084332e-03" rms="4.8893266916275024e-01" purity="4.9688592553138733e-01" nType="0">
        <Node pos="l" depth="1" NCoef="0" IVar="-1" Cut="0.0000000000000000e+00" cType="1" res="2.9692794196307659e-03" rms="4.8201647400856018e-01" purity="4.7636166214942932e-01" nType="-99"/>
        <Node pos="r" depth="1" NCoef="0" IVar="0" Cut="8.2741060256958008e+00" cType="1" res="-4.5458772219717503e-03" rms="4.8917287588119507e-01" purity="4.9764895439147949e-01" nType="0">
          <Node pos="l" depth="2" NCoef="0" IVar="-1" Cut="0.0000000000000000e+00" cType="1" res="-1.8853980582207441e-03" rms="4.9974682927131653e-01" purity="4.8135644197463989e-01" nType="-99"/>
          <Node pos="r" depth="2" NCoef="0" IVar="-1" Cut="0.0000000000000000e+00" cType="1" res="-5.5846595205366611e-04" rms="4.8827284574508667e-01" purity="4.9899193644523621e-01" nType="-99"/>
        </Node>
      </Node>
    </BinaryTree>
    <BinaryTree type="DecisionTree" boostWeight="1.0000000000000000e+00" itree="203">
      <Node pos="s" depth="0" NCoef="0" IVar="0" Cut="9.1743068695068359e+00" cType="1" res="5.1405600970610976e-04" rms="4.8861929774284363e-01" purity="4.9919340014457703e-01" nType="0">
        <Node pos="l" depth="1" NCoef="0" IVar="3" Cut="-8.9362466335296631e-01" cType="1" res="-4.3761287815868855e-03" rms="4.9301052093505859e-01" purity="4.9707865715026855e-01" nType="0">
          <Node pos="l" depth="2" NCoef="0" IVar="-1" Cut="0.0000000000000000e+00" cType="1" res="2.2094256710261106e-03" rms="4.8521772027015686e-01" purity="3.8658046722412109e-01" nType="-99"/>
          <Node pos="r" depth="2" NCoef="0" IVar="-1" Cut="0.0000000000000000e+00" cType="1" res="-1.0330693330615759e-03" rms="4.9432474374771118e-01" purity="5.1707941293716431e-01" nType="-99"/>
        </Node>
        <Node pos="r" depth="1" NCoef="0" IVar="3" Cut="-8.9604014158248901e-01" cType="1" res="7.6880306005477905e-03" rms="4.8201510310173035e-01" purity="5.0229573249816895e-01" nType="0">
          <Node pos="l" depth="2" NCoef="0" IVar="-1" Cut="0.0000000000000000e+00" cType="1" res="-4.6958212624303997e-04" rms="4.5795473456382751e-01" purity="3.2857161760330200e-01" nType="-99"/>
          <Node pos="r" depth="2" NCoef="0" IVar="-1" Cut="0.0000000000000000e+00" cType="1" res="2.2947695106267929e-03" rms="4.8816284537315369e-01" purity="5.4834258556365967e-01" nType="-99"/>
        </Node>
      </Node>
    </BinaryTree>
    <BinaryTree type="DecisionTree" boostWeight="1.0000000000000000e+00" itree="204">
      <Node pos="s" depth="0" NCoef="0" IVar="3" Cut="8.9663136005401611e-01" cType="1" res="1.9020105537492782e-04" rms="4.8976942896842957e-01" purity="4.9946063756942749e-01" nType="0">
        <Node pos="l" depth="1" NCoef="0" IVar="0" Cut="9.4130468368530273e+00" cType="1" res="3.1291858758777380e-03" rms="4.9253022670745850e-01" purity="4.7203874588012695e-01" nType="0">
          <Node pos="l" depth="2" NCoef="0" IVar="-1" Cut="0.0000000000000000e+00" cType="1" res="8.0419750884175301e-04" rms="4.9443393945693970e-01" purity="4.8139673471450806e-01" nType="-99"/>
          <Node pos="r" depth="2" NCoef="0" IVar="-1" Cut="0.0000000000000000e+00" cType="1" res="-1.6383053734898567e-03" rms="4.8525774478912354e-01" purity="4.3721958994865417e-01" nType="-99"/>
        </Node>
        <Node pos="r" depth="1" NCoef="0" IVar="4" Cut="-7.0295339822769165e-01" cType="1" res="-1.3930555433034897e-02" rms="4.7602874040603638e-01" purity="6.3121306896209717e-01" nType="0">
          <Node pos="l" depth="2" NCoef="0" IVar="-1" Cut="0.0000000000000000e+00" cType="1" res="-6.4760609529912472e-04" rms="4.8439136147499084e-01" purity="5.9395980834960938e-01" nType="-99"/>
          <Node pos="r" depth="2" NCoef="0" IVar="-1" Cut="0.0000000000000000e+00" cType="1" res="-4.1778371669352055e-03" rms="4.6976119279861450e-01" purity="6.5809661149978638e-01" nType="-99"/>
        </Node>
      </Node>
    </BinaryTree>
    <BinaryTree type="DecisionTree" boostWeight="1.0000000000000000e+00" itree="205">
      <Node pos="s" depth="0" NCoef="0" IVar="1" Cut="3.0000000000000000e+00" cType="1" res="-3.7792199873365462e-04" rms="3.2148200273513794e-01" purity="4.9680995941162109e-01" nType="0">
        <Node pos="l" depth="1" NCoef="0" IVar="4" Cut="-7.9592424631118774e-01" cType="1" res="2.7307201526127756e-04" rms="4.8914644122123718e-01" purity="4.9741640686988831e-01" nType="0">
          <Node pos="l" depth="2" NCoef="0" IVar="-1" Cut="0.0000000000000000e+00" cType="1" res="2.1487250924110413e-03" rms="4.8225101828575134e-01" purity="4.7875055670738220e-01" nType="-99"/>
          <Node pos="r" depth="2" NCoef="0" IVar="-1" Cut="0.0000000000000000e+00" cType="1" res="-1.9532299484126270e-04" rms="4.8993733525276184e-01" purity="4.9963575601577759e-01" nType="-99"/>
        </Node>
        <Node pos="r" depth="1" NCoef="0" IVar="3" Cut="8.9730155467987061e-01" cType="1" res="-7.3438938707113266e-03" rms="4.8865363001823425e-01" purity="4.9567595124244690e-01" nType="0">
          <Node pos="l" depth="2" NCoef="0" IVar="-1" Cut="0.0000000000000000e+00" cType="1" res="-2.6857689954340458e-04" rms="4.9138206243515015e-01" purity="4.6240553259849548e-01" nType="-99"/>
          <Node pos="r" depth="2" NCoef="0" IVar="-1" Cut="0.0000000000000000e+00" cType="1" res="-4.9145924858748913e-03" rms="4.7839182615280151e-01" purity="6.1298537254333496e-01" nType="-99"/>
        </Node>
      </Node>
    </BinaryTree>
    <BinaryTree type="DecisionTree" boostWeight="1.0000000000000000e+00" itree="206">
      <Node pos="s" depth="0" NCoef="0" IVar="4" Cut="8.8967579603195190e-01" cType="1" res="1.5695722540840507e-03" rms="4.8885354399681091e-01" purity="5.0118166208267212e-01" nType="0">
        <Node pos="l" depth="1" NCoef="0" IVar="2" Cut="3.0000000000000000e+00" cType="1" res="-1.3611410395242274e-04" rms="1.2588737905025482e-01" purity="5.0046664476394653e-01" nType="0">
          <Node pos="l" depth="2" NCoef="0" IVar="-1" Cut="0.0000000000000000e+00" cType="1" res="5.9420691104605794e-04" rms="4.8857605457305908e-01" purity="5.0065433979034424e-01" nType="-99"/>
          <Node pos="r" depth="2" NCoef="0" IVar="-1" Cut="0.0000000000000000e+00" cType="1" res="-1.6820558812469244e-03" rms="4.9364951252937317e-01" purity="4.9895337224006653e-01" nType="-99"/>
        </Node>
        <Node pos="r" depth="1" NCoef="0" IVar="-1" Cut="0.0000000000000000e+00" cType="1" res="-3.3557896967977285e-03" rms="4.8117130994796753e-01" purity="5.1829856634140015e-01" nType="-99"/>
      </Node>
    </BinaryTree>
    <BinaryTree type="DecisionTree" boostWeight="1.0000000000000000e+00" itree="207">
      <Node pos="s" depth="0" NCoef="0" IVar="3" Cut="8.0260938405990601e-01" cType="1" res="9.4601005548611283e-04" rms="4.8945933580398560e-01" purity="5.0076740980148315e-01" nType="0">
        <Node pos="l" depth="1" NCoef="0" IVar="4" Cut="-6.9723510742187500e-01" cType="1" res="4.1346163488924503e-03" rms="4.9201086163520813e-01" purity="4.4864654541015625e-01" nType="0">
          <Node pos="l" depth="2" NCoef="0" IVar="-1" Cut="0.0000000000000000e+00" cType="1" res="3.2255798578262329e-03" rms="4.8687085509300232e-01" purity="4.1016137599945068e-01" nType="-99"/>
          <Node pos="r" depth="2" NCoef="0" IVar="-1" Cut="0.0000000000000000e+00" cType="1" res="-3.5612811188912019e-05" rms="4.9331882596015930e-01" purity="4.5918327569961548e-01" nType="-99"/>
        </Node>
        <Node pos="r" depth="1" NCoef="0" IVar="4" Cut="-7.9679840803146362e-01" cType="1" res="-4.4306661002337933e-03" rms="4.8507907986640930e-01" purity="5.8865451812744141e-01" nType="0">
          <Node pos="l" depth="2" NCoef="0" IVar="-1" Cut="0.0000000000000000e+00" cType="1" res="-3.6214974243193865e-03" rms="4.9381354451179504e-01" purity="5.3648966550827026e-01" nType="-99"/>
          <Node pos="r" depth="2" NCoef="0" IVar="-1" Cut="0.0000000000000000e+00" cType="1" res="1.6615338972769678e-04" rms="4.8220899701118469e-01" purity="6.0483127832412720e-01" nType="-99"/>
        </Node>
      </Node>
    </BinaryTree>
    <BinaryTree type="DecisionTree" boostWeight="1.0000000000000000e+00" itree="208">
      <Node pos="s" depth="0" NCoef="0" IVar="1" Cut="3.0000000000000000e+00" cType="1" res="1.5048859640955925e-03" rms="2.7252200245857239e-01" purity="5.0122702121734619e-01" nType="0">
        <Node pos="l" depth="1" NCoef="0" IVar="4" Cut="7.8749018907546997e-01" cType="1" res="-1.0616317158564925e-03" rms="4.8855903744697571e-01" purity="4.9576324224472046e-01" nType="0">
          <Node pos="l" depth="2" NCoef="0" IVar="-1" Cut="0.0000000000000000e+00" cType="1" res="1.4649881632067263e-04" rms="4.8924866318702698e-01" purity="4.9401560425758362e-01" nType="-99"/>
          <Node pos="r" depth="2" NCoef="0" IVar="-1" Cut="0.0000000000000000e+00" cType="1" res="-2.6743353810161352e-03" rms="4.8311945796012878e-01" purity="5.0880855321884155e-01" nType="-99"/>
        </Node>
        <Node pos="r" depth="1" NCoef="0" IVar="3" Cut="8.0031651258468628e-01" cType="1" res="1.1374493129551411e-02" rms="4.8797321319580078e-01" purity="5.1135414838790894e-01" nType="0">
          <Node pos="l" depth="2" NCoef="0" IVar="-1" Cut="0.0000000000000000e+00" cType="1" res="2.7921530418097973e-03" rms="4.9035903811454773e-01" purity="4.5386043190956116e-01" nType="-99"/>
          <Node pos="r" depth="2" NCoef="0" IVar="-1" Cut="0.0000000000000000e+00" cType="1" res="2.5790467043407261e-04" rms="4.8438179492950439e-01" purity="5.9330463409423828e-01" nType="-99"/>
        </Node>
      </Node>
    </BinaryTree>
    <BinaryTree type="DecisionTree" boostWeight="1.0000000000000000e+00" itree="209">
      <Node pos="s" depth="0" NCoef="0" IVar="1" Cut="5.0000000000000000e+00" cType="1" res="-2.9353681020438671e-04" rms="3.0880191922187805e-01" purity="4.9772441387176514e-01" nType="0">
        <Node pos="l" depth="1" NCoef="0" IVar="4" Cut="-8.9296233654022217e-01" cType="1" res="-3.2651275396347046e-03" rms="4.8930469155311584e-01" purity="4.9585717916488647e-01" nType="0">
          <Node pos="l" depth="2" NCoef="0" IVar="-1" Cut="0.0000000000000000e+00" cType="1" res="-5.1966258324682713e-03" rms="4.7413578629493713e-01" purity="4.2996913194656372e-01" nType="-99"/>
          <Node pos="r" depth="2" NCoef="0" IVar="-1" Cut="0.0000000000000000e+00" cType="1" res="-3.8714651600457728e-04" rms="4.8976296186447144e-01" purity="4.9796479940414429e-01" nType="-99"/>
        </Node>
        <Node pos="r" depth="1" NCoef="0" IVar="-1" Cut="0.0000000000000000e+00" cType="1" res="2.9933061450719833e-03" rms="4.9060732126235962e-01" purity="5.3588420152664185e-01" nType="-99"/>
      </Node>
    </BinaryTree>
    <BinaryTree type="DecisionTree" boostWeight="1.0000000000000000e+00" itree="210">
      <Node pos="s" depth="0" NCoef="0" IVar="4" Cut="-7.0525330305099487e-01" cType="1" res="1.3995018089190125e-03" rms="4.8852056264877319e-01" purity="5.0071990489959717e-01" nType="0">
        <Node pos="l" depth="1" NCoef="0" IVar="5" Cut="-7.8435337543487549e-01" cType="1" res="-1.1498403735458851e-02" rms="4.8637926578521729e-01" purity="4.6332886815071106e-01" nType="0">
          <Node pos="l" depth="2" NCoef="0" IVar="-1" Cut="0.0000000000000000e+00" cType="1" res="3.3240139018744230e-03" rms="4.9223330616950989e-01" purity="4.8015728592872620e-01" nType="-99"/>
          <Node pos="r" depth="2" NCoef="0" IVar="-1" Cut="0.0000000000000000e+00" cType="1" res="-2.3636131081730127e-03" rms="4.8559677600860596e-01" purity="4.6146637201309204e-01" nType="-99"/>
        </Node>
        <Node pos="r" depth="1" NCoef="0" IVar="1" Cut="4.0000000000000000e+00" cType="1" res="2.8037289157509804e-03" rms="3.3749437332153320e-01" purity="5.1485252380371094e-01" nType="0">
          <Node pos="l" depth="2" NCoef="0" IVar="-1" Cut="0.0000000000000000e+00" cType="1" res="1.2205910170450807e-03" rms="4.8896151781082153e-01" purity="5.1455390453338623e-01" nType="-99"/>
          <Node pos="r" depth="2" NCoef="0" IVar="-1" Cut="0.0000000000000000e+00" cType="1" res="-5.9537508059293032e-04" rms="4.9107599258422852e-01" purity="5.1696044206619263e-01" nType="-99"/>
        </Node>
      </Node>
    </BinaryTree>
    <BinaryTree type="DecisionTree" boostWeight="1.0000000000000000e+00" itree="211">
      <Node pos="s" depth="0" NCoef="0" IVar="4" Cut="4.7359436750411987e-02" cType="1" res="2.5880262255668640e-03" rms="4.8886290192604065e-01" purity="5.0251656770706177e-01" nType="0">
        <Node pos="l" depth="1" NCoef="0" IVar="5" Cut="7.9156899452209473e-01" cType="1" res="3.9152416866272688e-04" rms="4.9026015400886536e-01" purity="4.9169093370437622e-01" nType="0">
          <Node pos="l" depth="2" NCoef="0" IVar="-1" Cut="0.0000000000000000e+00" cType="1" res="2.5894810096360743e-04" rms="4.9056106805801392e-01" purity="4.9308902025222778e-01" nType="-99"/>
          <Node pos="r" depth="2" NCoef="0" IVar="-1" Cut="0.0000000000000000e+00" cType="1" res="-4.9427547492086887e-03" rms="4.8158344626426697e-01" purity="4.5664000511169434e-01" nType="-99"/>
        </Node>
        <Node pos="r" depth="1" NCoef="0" IVar="0" Cut="9.2702913284301758e+00" cType="1" res="8.2748411223292351e-03" rms="4.8518049716949463e-01" purity="5.3054457902908325e-01" nType="0">
          <Node pos="l" depth="2" NCoef="0" IVar="-1" Cut="0.0000000000000000e+00" cType="1" res="1.9764553289860487e-03" rms="4.8850423097610474e-01" purity="5.3769880533218384e-01" nType="-99"/>
          <Node pos="r" depth="2" NCoef="0" IVar="-1" Cut="0.0000000000000000e+00" cType="1" res="-9.0040045324712992e-04" rms="4.7800379991531372e-01" purity="5.1572394371032715e-01" nType="-99"/>
        </Node>
      </Node>
    </BinaryTree>
    <BinaryTree type="DecisionTree" boostWeight="1.0000000000000000e+00" itree="212">
      <Node pos="s" depth="0" NCoef="0" IVar="1" Cut="2.0000000000000000e+00" cType="1" res="-8.1677018897607923e-04" rms="2.7256304025650024e-01" purity="4.9929133057594299e-01" nType="0">
        <Node pos="l" depth="1" NCoef="0" IVar="2" Cut="2.0000000000000000e+00" cType="1" res="-2.8187406715005636e-03" rms="1.7159436643123627e-01" purity="4.8996463418006897e-01" nType="0">
          <Node pos="l" depth="2" NCoef="0" IVar="-1" Cut="0.0000000000000000e+00" cType="1" res="-2.4190533440560102e-04" rms="4.8809269070625305e-01" purity="4.9633213877677917e-01" nType="-99"/>
          <Node pos="r" depth="2" NCoef="0" IVar="-1" Cut="0.0000000000000000e+00" cType="1" res="-3.4874503035098314e-03" rms="4.9201831221580505e-01" purity="4.8236131668090820e-01" nType="-99"/>
        </Node>
        <Node pos="r" depth="1" NCoef="0" IVar="3" Cut="8.0232447385787964e-01" cType="1" res="2.5059492327272892e-03" rms="4.8978123068809509e-01" purity="5.0315457582473755e-01" nType="0">
          <Node pos="l" depth="2" NCoef="0" IVar="-1" Cut="0.0000000000000000e+00" cType="1" res="1.7117104725912213e-03" rms="4.9101296067237854e-01" purity="4.5070391893386841e-01" nType="-99"/>
          <Node pos="r" depth="2" NCoef="0" IVar="-1" Cut="0.0000000000000000e+00" cType="1" res="-1.7420430667698383e-03" rms="4.8763087391853333e-01" purity="5.8262056112289429e-01" nType="-99"/>
        </Node>
      </Node>
    </BinaryTree>
    <BinaryTree type="DecisionTree" boostWeight="1.0000000000000000e+00" itree="213">
      <Node pos="s" depth="0" NCoef="0" IVar="0" Cut="9.4886407852172852e+00" cType="1" res="-3.0282055959105492e-03" rms="4.8840683698654175e-01" purity="4.9733757972717285e-01" nType="0">
        <Node pos="l" depth="1" NCoef="0" IVar="5" Cut="7.7914655208587646e-01" cType="1" res="-4.9345004372298717e-03" rms="4.9084970355033875e-01" purity="4.9766975641250610e-01" nType="0">
          <Node pos="l" depth="2" NCoef="0" IVar="-1" Cut="0.0000000000000000e+00" cType="1" res="-4.5021731057204306e-04" rms="4.9089255928993225e-01" purity="4.9882403016090393e-01" nType="-99"/>
          <Node pos="r" depth="2" NCoef="0" IVar="-1" Cut="0.0000000000000000e+00" cType="1" res="-5.0375000573694706e-03" rms="4.8934066295623779e-01" purity="4.7968161106109619e-01" nType="-99"/>
        </Node>
        <Node pos="r" depth="1" NCoef="0" IVar="3" Cut="8.0142021179199219e-01" cType="1" res="5.8743515983223915e-03" rms="4.7673189640045166e-01" purity="4.9578636884689331e-01" nType="0">
          <Node pos="l" depth="2" NCoef="0" IVar="-1" Cut="0.0000000000000000e+00" cType="1" res="-8.3498447202146053e-04" rms="4.8022016882896423e-01" purity="4.0289467573165894e-01" nType="-99"/>
          <Node pos="r" depth="2" NCoef="0" IVar="-1" Cut="0.0000000000000000e+00" cType="1" res="5.5083101615309715e-03" rms="4.7117134928703308e-01" purity="6.3410139083862305e-01" nType="-99"/>
        </Node>
      </Node>
    </BinaryTree>
    <BinaryTree type="DecisionTree" boostWeight="1.0000000000000000e+00" itree="214">
      <Node pos="s" depth="0" NCoef="0" IVar="0" Cut="9.9493761062622070e+00" cType="1" res="1.6019701433833688e-05" rms="4.8842206597328186e-01" purity="5.0006896257400513e-01" nType="0">
        <Node pos="l" depth="1" NCoef="0" IVar="4" Cut="-7.0181363821029663e-01" cType="1" res="7.1054109139367938e-04" rms="4.8904335498809814e-01" purity="5.0129598379135132e-01" nType="0">
          <Node pos="l" depth="2" NCoef="0" IVar="-1" Cut="0.0000000000000000e+00" cType="1" res="1.1345065431669354e-03" rms="4.8713332414627075e-01" purity="4.8232737183570862e-01" nType="-99"/>
          <Node pos="r" depth="2" NCoef="0" IVar="-1" Cut="0.0000000000000000e+00" cType="1" res="-2.6680415612645447e-04" rms="4.8973354697227478e-01" purity="5.0839179754257202e-01" nType="-99"/>
        </Node>
        <Node pos="r" depth="1" NCoef="0" IVar="-1" Cut="0.0000000000000000e+00" cType="1" res="-8.0960048362612724e-03" rms="4.6641302108764648e-01" purity="4.5874696969985962e-01" nType="-99"/>
      </Node>
    </BinaryTree>
    <BinaryTree type="DecisionTree" boostWeight="1.0000000000000000e+00" itree="215">
      <Node pos="s" depth="0" NCoef="0" IVar="0" Cut="9.0452861785888672e+00" cType="1" res="2.2324903402477503e-03" rms="4.8931214213371277e-01" purity="5.0078606605529785e-01" nType="0">
        <Node pos="l" depth="1" NCoef="0" IVar="4" Cut="-6.9679367542266846e-01" cType="1" res="-3.3565631601959467e-03" rms="4.9450570344924927e-01" purity="4.9813359975814819e-01" nType="0">
          <Node pos="l" depth="2" NCoef="0" IVar="-1" Cut="0.0000000000000000e+00" cType="1" res="1.4290354447439313e-03" rms="4.9069231748580933e-01" purity="4.8435592651367188e-01" nType="-99"/>
          <Node pos="r" depth="2" NCoef="0" IVar="-1" Cut="0.0000000000000000e+00" cType="1" res="-1.1019842932000756e-03" rms="4.9580690264701843e-01" purity="5.0326901674270630e-01" nType="-99"/>
        </Node>
        <Node pos="r" depth="1" NCoef="0" IVar="4" Cut="-7.0140421390533447e-01" cType="1" res="7.5385314412415028e-03" rms="4.8427036404609680e-01" purity="5.0330418348312378e-01" nType="0">
          <Node pos="l" depth="2" NCoef="0" IVar="-1" Cut="0.0000000000000000e+00" cType="1" res="-3.1469267560169101e-04" rms="4.8125466704368591e-01" purity="4.6990799903869629e-01" nType="-99"/>
          <Node pos="r" depth="2" NCoef="0" IVar="-1" Cut="0.0000000000000000e+00" cType="1" res="2.3665355984121561e-03" rms="4.8536893725395203e-01" purity="5.1600217819213867e-01" nType="-99"/>
        </Node>
      </Node>
    </BinaryTree>
    <BinaryTree type="DecisionTree" boostWeight="1.0000000000000000e+00" itree="216">
      <Node pos="s" depth="0" NCoef="0" IVar="1" Cut="2.0000000000000000e+00" cType="1" res="-1.1246812064200640e-03" rms="4.0845614671707153e-01" purity="4.9694922566413879e-01" nType="0">
        <Node pos="l" depth="1" NCoef="0" IVar="0" Cut="8.6264390945434570e+00" cType="1" res="8.6358003318309784e-03" rms="4.9113667011260986e-01" purity="5.0836753845214844e-01" nType="0">
          <Node pos="l" depth="2" NCoef="0" IVar="-1" Cut="0.0000000000000000e+00" cType="1" res="2.8557025361806154e-03" rms="4.9511846899986267e-01" purity="5.3279662132263184e-01" nType="-99"/>
          <Node pos="r" depth="2" NCoef="0" IVar="-1" Cut="0.0000000000000000e+00" cType="1" res="7.1415881393477321e-04" rms="4.9003040790557861e-01" purity="5.0226801633834839e-01" nType="-99"/>
        </Node>
        <Node pos="r" depth="1" NCoef="0" IVar="3" Cut="-8.0211895704269409e-01" cType="1" res="-6.6154329106211662e-03" rms="4.8842212557792664e-01" purity="4.9217689037322998e-01" nType="0">
          <Node pos="l" depth="2" NCoef="0" IVar="-1" Cut="0.0000000000000000e+00" cType="1" res="3.8240232970565557e-04" rms="4.8436570167541504e-01" purity="4.0974754095077515e-01" nType="-99"/>
          <Node pos="r" depth="2" NCoef="0" IVar="-1" Cut="0.0000000000000000e+00" cType="1" res="-1.9189948216080666e-03" rms="4.9089834094047546e-01" purity="5.4457253217697144e-01" nType="-99"/>
        </Node>
      </Node>
    </BinaryTree>
    <BinaryTree type="DecisionTree" boostWeight="1.0000000000000000e+00" itree="217">
      <Node pos="s" depth="0" NCoef="0" IVar="2" Cut="2.0000000000000000e+00" cType="1" res="-9.5788267208263278e-04" rms="8.9939661324024200e-02" purity="5.0179201364517212e-01" nType="0">
        <Node pos="l" depth="1" NCoef="0" IVar="4" Cut="4.6618714928627014e-02" cType="1" res="-4.5310221612453461e-03" rms="4.8708170652389526e-01" purity="4.9443069100379944e-01" nType="0">
          <Node pos="l" depth="2" NCoef="0" IVar="-1" Cut="0.0000000000000000e+00" cType="1" res="2.4650763953104615e-04" rms="4.8760855197906494e-01" purity="4.8994734883308411e-01" nType="-99"/>
          <Node pos="r" depth="2" NCoef="0" IVar="-1" Cut="0.0000000000000000e+00" cType="1" res="-2.8832450043410063e-03" rms="4.8561766743659973e-01" purity="5.0445079803466797e-01" nType="-99"/>
        </Node>
        <Node pos="r" depth="1" NCoef="0" IVar="3" Cut="-7.0441091060638428e-01" cType="1" res="1.0718442499637604e-02" rms="4.9050194025039673e-01" purity="5.1181972026824951e-01" nType="0">
          <Node pos="l" depth="2" NCoef="0" IVar="-1" Cut="0.0000000000000000e+00" cType="1" res="2.0353791478555650e-04" rms="4.9167704582214355e-01" purity="4.4041776657104492e-01" nType="-99"/>
          <Node pos="r" depth="2" NCoef="0" IVar="-1" Cut="0.0000000000000000e+00" cType="1" res="3.3732743468135595e-03" rms="4.8915258049964905e-01" purity="5.8265960216522217e-01" nType="-99"/>
        </Node>
      </Node>
    </BinaryTree>
    <BinaryTree type="DecisionTree" boostWeight="1.0000000000000000e+00" itree="218">
      <Node pos="s" depth="0" NCoef="0" IVar="0" Cut="9.5920591354370117e+00" cType="1" res="-1.0711702052503824e-03" rms="4.8910978436470032e-01" purity="4.9942898750305176e-01" nType="0">
        <Node pos="l" depth="1" NCoef="0" IVar="4" Cut="-7.9762107133865356e-01" cType="1" res="-3.2746642827987671e-03" rms="4.9091115593910217e-01" purity="4.9877527356147766e-01" nType="0">
          <Node pos="l" depth="2" NCoef="0" IVar="-1" Cut="0.0000000000000000e+00" cType="1" res="1.9754604436457157e-03" rms="4.8819971084594727e-01" purity="4.7757264971733093e-01" nType="-99"/>
          <Node pos="r" depth="2" NCoef="0" IVar="-1" Cut="0.0000000000000000e+00" cType="1" res="-8.8124576723203063e-04" rms="4.9132245779037476e-01" purity="5.0239384174346924e-01" nType="-99"/>
        </Node>
        <Node pos="r" depth="1" NCoef="0" IVar="3" Cut="8.9514333009719849e-01" cType="1" res="1.4340953901410103e-02" rms="4.7603487968444824e-01" purity="5.0400143861770630e-01" nType="0">
          <Node pos="l" depth="2" NCoef="0" IVar="-1" Cut="0.0000000000000000e+00" cType="1" res="1.9181144889444113e-03" rms="4.8490718007087708e-01" purity="4.4182157516479492e-01" nType="-99"/>
          <Node pos="r" depth="2" NCoef="0" IVar="-1" Cut="0.0000000000000000e+00" cType="1" res="1.3471947051584721e-02" rms="4.4367247819900513e-01" purity="7.1501952409744263e-01" nType="-99"/>
        </Node>
      </Node>
    </BinaryTree>
    <BinaryTree type="DecisionTree" boostWeight="1.0000000000000000e+00" itree="219">
      <Node pos="s" depth="0" NCoef="0" IVar="0" Cut="9.2395105361938477e+00" cType="1" res="-2.0088858436793089e-03" rms="4.8808366060256958e-01" purity="4.9914222955703735e-01" nType="0">
        <Node pos="l" depth="1" NCoef="0" IVar="4" Cut="-7.9330581426620483e-01" cType="1" res="-5.4074632935225964e-03" rms="4.9132576584815979e-01" purity="4.9718973040580750e-01" nType="0">
          <Node pos="l" depth="2" NCoef="0" IVar="-1" Cut="0.0000000000000000e+00" cType="1" res="-2.4275605101138353e-03" rms="4.8502203822135925e-01" purity="4.5101740956306458e-01" nType="-99"/>
          <Node pos="r" depth="2" NCoef="0" IVar="-1" Cut="0.0000000000000000e+00" cType="1" res="-4.1967630386352539e-04" rms="4.9244546890258789e-01" purity="5.0570225715637207e-01" nType="-99"/>
        </Node>
        <Node pos="r" depth="1" NCoef="0" IVar="0" Cut="9.3388319015502930e+00" cType="1" res="4.2210603132843971e-03" rms="4.8202168941497803e-01" purity="5.0272136926651001e-01" nType="0">
          <Node pos="l" depth="2" NCoef="0" IVar="-1" Cut="0.0000000000000000e+00" cType="1" res="3.4587215632200241e-03" rms="4.8871693015098572e-01" purity="5.2499121427536011e-01" nType="-99"/>
          <Node pos="r" depth="2" NCoef="0" IVar="-1" Cut="0.0000000000000000e+00" cType="1" res="1.5543984773103148e-04" rms="4.8004949092864990e-01" purity="4.9642151594161987e-01" nType="-99"/>
        </Node>
      </Node>
    </BinaryTree>
    <BinaryTree type="DecisionTree" boostWeight="1.0000000000000000e+00" itree="220">
      <Node pos="s" depth="0" NCoef="0" IVar="4" Cut="4.8678975552320480e-02" cType="1" res="1.0427007218822837e-03" rms="4.8853290081024170e-01" purity="5.0168067216873169e-01" nType="0">
        <Node pos="l" depth="1" NCoef="0" IVar="0" Cut="9.0421190261840820e+00" cType="1" res="3.4407270140945911e-03" rms="4.8945939540863037e-01" purity="4.9564683437347412e-01" nType="0">
          <Node pos="l" depth="2" NCoef="0" IVar="-1" Cut="0.0000000000000000e+00" cType="1" res="1.3597938232123852e-03" rms="4.9373796582221985e-01" purity="5.0480610132217407e-01" nType="-99"/>
          <Node pos="r" depth="2" NCoef="0" IVar="-1" Cut="0.0000000000000000e+00" cType="1" res="-8.4391434211283922e-04" rms="4.8518714308738708e-01" purity="4.8682367801666260e-01" nType="-99"/>
        </Node>
        <Node pos="r" depth="1" NCoef="0" IVar="0" Cut="8.5259189605712891e+00" cType="1" res="-5.1001799292862415e-03" rms="4.8609748482704163e-01" purity="5.1713693141937256e-01" nType="0">
          <Node pos="l" depth="2" NCoef="0" IVar="-1" Cut="0.0000000000000000e+00" cType="1" res="-3.9765648543834686e-03" rms="4.9335527420043945e-01" purity="4.8897287249565125e-01" nType="-99"/>
          <Node pos="r" depth="2" NCoef="0" IVar="-1" Cut="0.0000000000000000e+00" cType="1" res="1.9863086345139891e-04" rms="4.8448699712753296e-01" purity="5.2236062288284302e-01" nType="-99"/>
        </Node>
      </Node>
    </BinaryTree>
    <BinaryTree type="DecisionTree" boostWeight="1.0000000000000000e+00" itree="221">
      <Node pos="s" depth="0" NCoef="0" IVar="0" Cut="8.3852252960205078e+00" cType="1" res="3.6863347049802542e-03" rms="4.8872798681259155e-01" purity="5.0431239604949951e-01" nType="0">
        <Node pos="l" depth="1" NCoef="0" IVar="2" Cut="2.0000000000000000e+00" cType="1" res="3.6978526622988284e-05" rms="1.3853022828698158e-02" purity="5.3161305189132690e-01" nType="0">
          <Node pos="l" depth="2" NCoef="0" IVar="-1" Cut="0.0000000000000000e+00" cType="1" res="4.0486566722393036e-03" rms="4.9520096182823181e-01" purity="5.4667878150939941e-01" nType="-99"/>
          <Node pos="r" depth="2" NCoef="0" IVar="-1" Cut="0.0000000000000000e+00" cType="1" res="6.8604282569140196e-04" rms="5.0108528137207031e-01" purity="5.1105785369873047e-01" nType="-99"/>
        </Node>
        <Node pos="r" depth="1" NCoef="0" IVar="0" Cut="8.7891092300415039e+00" cType="1" res="9.8415883257985115e-04" rms="4.8755878210067749e-01" purity="5.0111633539199829e-01" nType="0">
          <Node pos="l" depth="2" NCoef="0" IVar="-1" Cut="0.0000000000000000e+00" cType="1" res="-1.3581361854448915e-03" rms="4.9253809452056885e-01" purity="4.9157625436782837e-01" nType="-99"/>
          <Node pos="r" depth="2" NCoef="0" IVar="-1" Cut="0.0000000000000000e+00" cType="1" res="8.1679277354851365e-04" rms="4.8617520928382874e-01" purity="5.0364983081817627e-01" nType="-99"/>
        </Node>
      </Node>
    </BinaryTree>
    <BinaryTree type="DecisionTree" boostWeight="1.0000000000000000e+00" itree="222">
      <Node pos="s" depth="0" NCoef="0" IVar="1" Cut="2.0000000000000000e+00" cType="1" res="-4.7085952246561646e-04" rms="2.5181600451469421e-01" purity="4.9595823884010315e-01" nType="0">
        <Node pos="l" depth="1" NCoef="0" IVar="0" Cut="9.0261573791503906e+00" cType="1" res="-1.1133400723338127e-02" rms="4.9071142077445984e-01" purity="4.9087762832641602e-01" nType="0">
          <Node pos="l" depth="2" NCoef="0" IVar="-1" Cut="0.0000000000000000e+00" cType="1" res="-2.9450401198118925e-03" rms="4.9537143111228943e-01" purity="4.7899520397186279e-01" nType="-99"/>
          <Node pos="r" depth="2" NCoef="0" IVar="-1" Cut="0.0000000000000000e+00" cType="1" res="9.0936126071028411e-05" rms="4.8629587888717651e-01" purity="5.0129085779190063e-01" nType="-99"/>
        </Node>
        <Node pos="r" depth="1" NCoef="0" IVar="0" Cut="9.0013980865478516e+00" cType="1" res="-1.1938675306737423e-03" rms="4.8771265149116516e-01" purity="4.9807399511337280e-01" nType="0">
          <Node pos="l" depth="2" NCoef="0" IVar="-1" Cut="0.0000000000000000e+00" cType="1" res="7.4531312566250563e-04" rms="4.9223405122756958e-01" purity="5.0649946928024292e-01" nType="-99"/>
          <Node pos="r" depth="2" NCoef="0" IVar="-1" Cut="0.0000000000000000e+00" cType="1" res="-1.5691361622884870e-03" rms="4.8385015130043030e-01" purity="4.9109256267547607e-01" nType="-99"/>
        </Node>
      </Node>
    </BinaryTree>
    <BinaryTree type="DecisionTree" boostWeight="1.0000000000000000e+00" itree="223">
      <Node pos="s" depth="0" NCoef="0" IVar="4" Cut="-7.9588216543197632e-01" cType="1" res="-2.6074196211993694e-03" rms="4.8887825012207031e-01" purity="4.9777302145957947e-01" nType="0">
        <Node pos="l" depth="1" NCoef="0" IVar="4" Cut="-9.0294134616851807e-01" cType="1" res="1.7655309289693832e-02" rms="4.8187598586082458e-01" purity="4.8561301827430725e-01" nType="0">
          <Node pos="l" depth="2" NCoef="0" IVar="-1" Cut="0.0000000000000000e+00" cType="1" res="-4.6361768113456492e-07" rms="4.6948915719985962e-01" purity="4.5734852552413940e-01" nType="-99"/>
          <Node pos="r" depth="2" NCoef="0" IVar="-1" Cut="0.0000000000000000e+00" cType="1" res="3.5517332144081593e-03" rms="4.8449975252151489e-01" purity="4.9189770221710205e-01" nType="-99"/>
        </Node>
        <Node pos="r" depth="1" NCoef="0" IVar="5" Cut="-7.8059387207031250e-01" cType="1" res="-6.3189719803631306e-03" rms="4.9005922675132751e-01" purity="5.0000035762786865e-01" nType="0">
          <Node pos="l" depth="2" NCoef="0" IVar="-1" Cut="0.0000000000000000e+00" cType="1" res="-6.2491958960890770e-03" rms="4.8739260435104370e-01" purity="4.9487560987472534e-01" nType="-99"/>
          <Node pos="r" depth="2" NCoef="0" IVar="-1" Cut="0.0000000000000000e+00" cType="1" res="-8.0648082075640559e-04" rms="4.9013009667396545e-01" purity="5.0020611286163330e-01" nType="-99"/>
        </Node>
      </Node>
    </BinaryTree>
    <BinaryTree type="DecisionTree" boostWeight="1.0000000000000000e+00" itree="224">
      <Node pos="s" depth="0" NCoef="0" IVar="3" Cut="-7.0763766765594482e-01" cType="1" res="2.6280730962753296e-03" rms="4.8818609118461609e-01" purity="5.0316333770751953e-01" nType="0">
        <Node pos="l" depth="1" NCoef="0" IVar="3" Cut="-7.5867617130279541e-01" cType="1" res="-3.0365032143890858e-03" rms="4.8812904953956604e-01" purity="4.2336991429328918e-01" nType="0">
          <Node pos="l" depth="2" NCoef="0" IVar="-1" Cut="0.0000000000000000e+00" cType="1" res="1.6577712085563689e-04" rms="4.8690900206565857e-01" purity="4.2085343599319458e-01" nType="-99"/>
          <Node pos="r" depth="2" NCoef="0" IVar="-1" Cut="0.0000000000000000e+00" cType="1" res="-5.1716789603233337e-03" rms="4.9694213271141052e-01" purity="4.4449859857559204e-01" nType="-99"/>
        </Node>
        <Node pos="r" depth="1" NCoef="0" IVar="0" Cut="8.6788187026977539e+00" cType="1" res="8.0559551715850830e-03" rms="4.8817908763885498e-01" purity="5.7962250709533691e-01" nType="0">
          <Node pos="l" depth="2" NCoef="0" IVar="-1" Cut="0.0000000000000000e+00" cType="1" res="2.8473995625972748e-03" rms="4.8938697576522827e-01" purity="5.7639598846435547e-01" nType="-99"/>
          <Node pos="r" depth="2" NCoef="0" IVar="-1" Cut="0.0000000000000000e+00" cType="1" res="5.1848730072379112e-04" rms="4.8769703507423401e-01" purity="5.8057415485382080e-01" nType="-99"/>
        </Node>
      </Node>
    </BinaryTree>
    <BinaryTree type="DecisionTree" boostWeight="1.0000000000000000e+00" itree="225">
      <Node pos="s" depth="0" NCoef="0" IVar="3" Cut="-7.0790970325469971e-01" cType="1" res="1.5161493793129921e-03" rms="4.8935547471046448e-01" purity="5.0120830535888672e-01" nType="0">
        <Node pos="l" depth="1" NCoef="0" IVar="2" Cut="2.0000000000000000e+00" cType="1" res="-1.2812651693820953e-03" rms="1.8845313787460327e-01" purity="4.3287608027458191e-01" nType="0">
          <Node pos="l" depth="2" NCoef="0" IVar="-1" Cut="0.0000000000000000e+00" cType="1" res="2.6804804801940918e-03" rms="4.8850908875465393e-01" purity="4.3591853976249695e-01" nType="-99"/>
          <Node pos="r" depth="2" NCoef="0" IVar="-1" Cut="0.0000000000000000e+00" cType="1" res="-1.1486287694424391e-03" rms="4.9011906981468201e-01" purity="4.2871257662773132e-01" nType="-99"/>
        </Node>
        <Node pos="r" depth="1" NCoef="0" IVar="3" Cut="8.7433016300201416e-01" cType="1" res="-4.1165356524288654e-03" rms="4.8930436372756958e-01" purity="5.6779521703720093e-01" nType="0">
          <Node pos="l" depth="2" NCoef="0" IVar="-1" Cut="0.0000000000000000e+00" cType="1" res="-1.9920647609978914e-03" rms="4.9913045763969421e-01" purity="5.1753181219100952e-01" nType="-99"/>
          <Node pos="r" depth="2" NCoef="0" IVar="-1" Cut="0.0000000000000000e+00" cType="1" res="1.4056913787499070e-03" rms="4.7647148370742798e-01" purity="6.3061630725860596e-01" nType="-99"/>
        </Node>
      </Node>
    </BinaryTree>
    <BinaryTree type="DecisionTree" boostWeight="1.0000000000000000e+00" itree="226">
      <Node pos="s" depth="0" NCoef="0" IVar="1" Cut="4.0000000000000000e+00" cType="1" res="-1.4054417842999101e-03" rms="3.6526927351951599e-01" purity="4.9813601374626160e-01" nType="0">
        <Node pos="l" depth="1" NCoef="0" IVar="0" Cut="8.2831573486328125e+00" cType="1" res="-4.6746027655899525e-03" rms="4.8885071277618408e-01" purity="4.9558109045028687e-01" nType="0">
          <Node pos="l" depth="2" NCoef="0" IVar="-1" Cut="0.0000000000000000e+00" cType="1" res="-2.5624167174100876e-03" rms="4.9851718544960022e-01" purity="4.7471264004707336e-01" nType="-99"/>
          <Node pos="r" depth="2" NCoef="0" IVar="-1" Cut="0.0000000000000000e+00" cType="1" res="-4.7670266940258443e-04" rms="4.8797881603240967e-01" purity="4.9735102057456970e-01" nType="-99"/>
        </Node>
        <Node pos="r" depth="1" NCoef="0" IVar="4" Cut="-7.9600518941879272e-01" cType="1" res="8.8924374431371689e-03" rms="4.8734763264656067e-01" purity="5.1361423730850220e-01" nType="0">
          <Node pos="l" depth="2" NCoef="0" IVar="-1" Cut="0.0000000000000000e+00" cType="1" res="-2.3241376038640738e-03" rms="4.8040676116943359e-01" purity="4.6070656180381775e-01" nType="-99"/>
          <Node pos="r" depth="2" NCoef="0" IVar="-1" Cut="0.0000000000000000e+00" cType="1" res="2.7838204987347126e-03" rms="4.8974898457527161e-01" purity="5.3437393903732300e-01" nType="-99"/>
        </Node>
      </Node>
    </BinaryTree>
    <BinaryTree type="DecisionTree" boostWeight="1.0000000000000000e+00" itree="227">
      <Node pos="s" depth="0" NCoef="0" IVar="5" Cut="4.9292616546154022e-02" cType="1" res="-7.2285695932805538e-04" rms="4.8816978931427002e-01" purity="4.9959436058998108e-01" nType="0">
        <Node pos="l" depth="1" NCoef="0" IVar="3" Cut="-8.9611607789993286e-01" cType="1" res="-2.6917869690805674e-03" rms="4.8870238661766052e-01" purity="4.9720969796180725e-01" nType="0">
          <Node pos="l" depth="2" NCoef="0" IVar="-1" Cut="0.0000000000000000e+00" cType="1" res="-3.1336809042841196e-03" rms="4.6380415558815002e-01" purity="3.2944408059120178e-01" nType="-99"/>
          <Node pos="r" depth="2" NCoef="0" IVar="-1" Cut="0.0000000000000000e+00" cType="1" res="-4.3271007598377764e-05" rms="4.9288463592529297e-01" purity="5.2652734518051147e-01" nType="-99"/>
        </Node>
        <Node pos="r" depth="1" NCoef="0" IVar="4" Cut="-7.0208966732025146e-01" cType="1" res="1.3038549572229385e-02" rms="4.8420754075050354e-01" purity="5.1626157760620117e-01" nType="0">
          <Node pos="l" depth="2" NCoef="0" IVar="-1" Cut="0.0000000000000000e+00" cType="1" res="4.4102775864303112e-03" rms="4.8081058263778687e-01" purity="5.0673526525497437e-01" nType="-99"/>
          <Node pos="r" depth="2" NCoef="0" IVar="-1" Cut="0.0000000000000000e+00" cType="1" res="-4.2582940659485757e-04" rms="4.8756760358810425e-01" purity="5.2707350254058838e-01" nType="-99"/>
        </Node>
      </Node>
    </BinaryTree>
    <BinaryTree type="DecisionTree" boostWeight="1.0000000000000000e+00" itree="228">
      <Node pos="s" depth="0" NCoef="0" IVar="5" Cut="-6.9014042615890503e-01" cType="1" res="-9.8295439966022968e-04" rms="4.8911845684051514e-01" purity="4.9885168671607971e-01" nType="0">
        <Node pos="l" depth="1" NCoef="0" IVar="2" Cut="2.0000000000000000e+00" cType="1" res="-4.6729831956326962e-03" rms="1.3820314407348633e-01" purity="4.7917589545249939e-01" nType="0">
          <Node pos="l" depth="2" NCoef="0" IVar="-1" Cut="0.0000000000000000e+00" cType="1" res="-5.7639172300696373e-03" rms="4.8679387569427490e-01" purity="4.6299830079078674e-01" nType="-99"/>
          <Node pos="r" depth="2" NCoef="0" IVar="-1" Cut="0.0000000000000000e+00" cType="1" res="3.4804721362888813e-03" rms="4.8776796460151672e-01" purity="5.1481533050537109e-01" nType="-99"/>
        </Node>
        <Node pos="r" depth="1" NCoef="0" IVar="4" Cut="8.8684093952178955e-01" cType="1" res="1.4286082005128264e-03" rms="4.8925888538360596e-01" purity="5.0159478187561035e-01" nType="0">
          <Node pos="l" depth="2" NCoef="0" IVar="-1" Cut="0.0000000000000000e+00" cType="1" res="5.3895240853307769e-05" rms="4.8964965343475342e-01" purity="4.9951291084289551e-01" nType="-99"/>
          <Node pos="r" depth="2" NCoef="0" IVar="-1" Cut="0.0000000000000000e+00" cType="1" res="7.1114166639745235e-03" rms="4.7437581419944763e-01" purity="5.7208764553070068e-01" nType="-99"/>
        </Node>
      </Node>
    </BinaryTree>
    <BinaryTree type="DecisionTree" boostWeight="1.0000000000000000e+00" itree="229">
      <Node pos="s" depth="0" NCoef="0" IVar="0" Cut="8.2618141174316406e+00" cType="1" res="-7.1130255237221718e-03" rms="4.8840427398681641e-01" purity="4.9259871244430542e-01" nType="0">
        <Node pos="l" depth="1" NCoef="0" IVar="-1" Cut="0.0000000000000000e+00" cType="1" res="-2.9817034956067801e-03" rms="4.9516955018043518e-01" purity="4.6377402544021606e-01" nType="-99"/>
        <Node pos="r" depth="1" NCoef="0" IVar="0" Cut="8.5536088943481445e+00" cType="1" res="-5.2922442555427551e-03" rms="4.8784315586090088e-01" purity="4.9476638436317444e-01" nType="0">
          <Node pos="l" depth="2" NCoef="0" IVar="-1" Cut="0.0000000000000000e+00" cType="1" res="1.9259917316958308e-03" rms="4.9299392104148865e-01" purity="5.3271549940109253e-01" nType="-99"/>
          <Node pos="r" depth="2" NCoef="0" IVar="-1" Cut="0.0000000000000000e+00" cType="1" res="-1.4743278734385967e-03" rms="4.8712199926376343e-01" purity="4.9007374048233032e-01" nType="-99"/>
        </Node>
      </Node>
    </BinaryTree>
    <BinaryTree type="DecisionTree" boostWeight="1.0000000000000000e+00" itree="230">
      <Node pos="s" depth="0" NCoef="0" IVar="0" Cut="8.6952323913574219e+00" cType="1" res="-2.5306182214990258e-04" rms="4.8879116773605347e-01" purity="4.9880135059356689e-01" nType="0">
        <Node pos="l" depth="1" NCoef="0" IVar="2" Cut="2.0000000000000000e+00" cType="1" res="-4.1432114812778309e-05" rms="4.4076789170503616e-02" purity="4.9536296725273132e-01" nType="0">
          <Node pos="l" depth="2" NCoef="0" IVar="-1" Cut="0.0000000000000000e+00" cType="1" res="6.0552766080945730e-04" rms="4.9437248706817627e-01" purity="5.1131755113601685e-01" nType="-99"/>
          <Node pos="r" depth="2" NCoef="0" IVar="-1" Cut="0.0000000000000000e+00" cType="1" res="-3.6693899892270565e-03" rms="4.9666365981101990e-01" purity="4.7437605261802673e-01" nType="-99"/>
        </Node>
        <Node pos="r" depth="1" NCoef="0" IVar="0" Cut="8.9520521163940430e+00" cType="1" res="2.9472622554749250e-03" rms="4.8658683896064758e-01" purity="4.9986308813095093e-01" nType="0">
          <Node pos="l" depth="2" NCoef="0" IVar="-1" Cut="0.0000000000000000e+00" cType="1" res="1.9882475025951862e-03" rms="4.9343055486679077e-01" purity="5.0926333665847778e-01" nType="-99"/>
          <Node pos="r" depth="2" NCoef="0" IVar="-1" Cut="0.0000000000000000e+00" cType="1" res="-1.0090912110172212e-04" rms="4.8447594046592712e-01" purity="4.9706193804740906e-01" nType="-99"/>
        </Node>
      </Node>
    </BinaryTree>
    <BinaryTree type="DecisionTree" boostWeight="1.0000000000000000e+00" itree="231">
      <Node pos="s" depth="0" NCoef="0" IVar="4" Cut="-7.9643946886062622e-01" cType="1" res="-8.4753398550674319e-04" rms="4.8846656084060669e-01" purity="4.9819853901863098e-01" nType="0">
        <Node pos="l" depth="1" NCoef="0" IVar="5" Cut="-7.8296184539794922e-01" cType="1" res="-1.1437975801527500e-02" rms="4.8223635554313660e-01" purity="4.5531699061393738e-01" nType="0">
          <Node pos="l" depth="2" NCoef="0" IVar="-1" Cut="0.0000000000000000e+00" cType="1" res="2.4945873301476240e-03" rms="4.8714426159858704e-01" purity="4.6893665194511414e-01" nType="-99"/>
          <Node pos="r" depth="2" NCoef="0" IVar="-1" Cut="0.0000000000000000e+00" cType="1" res="-2.9087595175951719e-03" rms="4.8099648952484131e-01" purity="4.5239198207855225e-01" nType="-99"/>
        </Node>
        <Node pos="r" depth="1" NCoef="0" IVar="4" Cut="5.1128614693880081e-02" cType="1" res="1.0719517013058066e-03" rms="4.8956274986267090e-01" purity="5.0597071647644043e-01" nType="0">
          <Node pos="l" depth="2" NCoef="0" IVar="-1" Cut="0.0000000000000000e+00" cType="1" res="-2.2394162078853697e-04" rms="4.9115720391273499e-01" purity="4.9473872780799866e-01" nType="-99"/>
          <Node pos="r" depth="2" NCoef="0" IVar="-1" Cut="0.0000000000000000e+00" cType="1" res="9.7539473790675402e-04" rms="4.8632359504699707e-01" purity="5.2840709686279297e-01" nType="-99"/>
        </Node>
      </Node>
    </BinaryTree>
    <BinaryTree type="DecisionTree" boostWeight="1.0000000000000000e+00" itree="232">
      <Node pos="s" depth="0" NCoef="0" IVar="0" Cut="9.2668752670288086e+00" cType="1" res="6.6673598485067487e-04" rms="4.8797813057899475e-01" purity="5.0050133466720581e-01" nType="0">
        <Node pos="l" depth="1" NCoef="0" IVar="0" Cut="8.9381732940673828e+00" cType="1" res="3.7351301871240139e-03" rms="4.9200960993766785e-01" purity="5.0573766231536865e-01" nType="0">
          <Node pos="l" depth="2" NCoef="0" IVar="-1" Cut="0.0000000000000000e+00" cType="1" res="-6.1245256802067161e-05" rms="4.9424877762794495e-01" purity="5.0176864862442017e-01" nType="-99"/>
          <Node pos="r" depth="2" NCoef="0" IVar="-1" Cut="0.0000000000000000e+00" cType="1" res="1.7348371911793947e-03" rms="4.8860481381416321e-01" purity="5.1161932945251465e-01" nType="-99"/>
        </Node>
        <Node pos="r" depth="1" NCoef="0" IVar="3" Cut="8.9732205867767334e-01" cType="1" res="-5.5531496182084084e-03" rms="4.7964182496070862e-01" purity="4.8988673090934753e-01" nType="0">
          <Node pos="l" depth="2" NCoef="0" IVar="-1" Cut="0.0000000000000000e+00" cType="1" res="-2.6562532875686884e-03" rms="4.8602131009101868e-01" purity="4.3739855289459229e-01" nType="-99"/>
          <Node pos="r" depth="2" NCoef="0" IVar="-1" Cut="0.0000000000000000e+00" cType="1" res="4.4003804214298725e-03" rms="4.5452171564102173e-01" purity="6.8479406833648682e-01" nType="-99"/>
        </Node>
      </Node>
    </BinaryTree>
    <BinaryTree type="DecisionTree" boostWeight="1.0000000000000000e+00" itree="233">
      <Node pos="s" depth="0" NCoef="0" IVar="5" Cut="7.9310125112533569e-01" cType="1" res="-2.9838727787137032e-03" rms="4.8887848854064941e-01" purity="4.9589347839355469e-01" nType="0">
        <Node pos="l" depth="1" NCoef="0" IVar="0" Cut="9.6470022201538086e+00" cType="1" res="-4.2406455613672733e-03" rms="4.8897013068199158e-01" purity="4.9382153153419495e-01" nType="0">
          <Node pos="l" depth="2" NCoef="0" IVar="-1" Cut="0.0000000000000000e+00" cType="1" res="-8.7925716070458293e-04" rms="4.9031108617782593e-01" purity="4.9394896626472473e-01" nType="-99"/>
          <Node pos="r" depth="2" NCoef="0" IVar="-1" Cut="0.0000000000000000e+00" cType="1" res="2.7913039084523916e-03" rms="4.7699403762817383e-01" purity="4.9271863698959351e-01" nType="-99"/>
        </Node>
        <Node pos="r" depth="1" NCoef="0" IVar="-1" Cut="0.0000000000000000e+00" cType="1" res="3.3426817972213030e-03" rms="4.8664736747741699e-01" purity="5.3350996971130371e-01" nType="-99"/>
      </Node>
    </BinaryTree>
    <BinaryTree type="DecisionTree" boostWeight="1.0000000000000000e+00" itree="234">
      <Node pos="s" depth="0" NCoef="0" IVar="2" Cut="2.0000000000000000e+00" cType="1" res="-6.9152913056313992e-05" rms="9.5253497362136841e-02" purity="5.0122231245040894e-01" nType="0">
        <Node pos="l" depth="1" NCoef="0" IVar="5" Cut="-6.9119721651077271e-01" cType="1" res="8.1244176253676414e-03" rms="4.8636546730995178e-01" purity="5.0601297616958618e-01" nType="0">
          <Node pos="l" depth="2" NCoef="0" IVar="-1" Cut="0.0000000000000000e+00" cType="1" res="-1.1042634723708034e-03" rms="4.8670706152915955e-01" purity="4.8798000812530518e-01" nType="-99"/>
          <Node pos="r" depth="2" NCoef="0" IVar="-1" Cut="0.0000000000000000e+00" cType="1" res="1.6071515856310725e-03" rms="4.8626196384429932e-01" purity="5.0908857583999634e-01" nType="-99"/>
        </Node>
        <Node pos="r" depth="1" NCoef="0" IVar="4" Cut="-6.9618672132492065e-01" cType="1" res="-4.4329245574772358e-03" rms="4.9027270078659058e-01" purity="4.9473482370376587e-01" nType="0">
          <Node pos="l" depth="2" NCoef="0" IVar="-1" Cut="0.0000000000000000e+00" cType="1" res="-4.6042772009968758e-03" rms="4.8560753464698792e-01" purity="4.4539317488670349e-01" nType="-99"/>
          <Node pos="r" depth="2" NCoef="0" IVar="-1" Cut="0.0000000000000000e+00" cType="1" res="3.6891977651976049e-04" rms="4.9146267771720886e-01" purity="5.0950670242309570e-01" nType="-99"/>
        </Node>
      </Node>
    </BinaryTree>
    <BinaryTree type="DecisionTree" boostWeight="1.0000000000000000e+00" itree="235">
      <Node pos="s" depth="0" NCoef="0" IVar="3" Cut="-8.9513075351715088e-01" cType="1" res="4.2338636703789234e-03" rms="4.8954170942306519e-01" purity="5.0292003154754639e-01" nType="0">
        <Node pos="l" depth="1" NCoef="0" IVar="3" Cut="-9.5353442430496216e-01" cType="1" res="1.6319597139954567e-02" rms="4.7527408599853516e-01" purity="3.6916121840476990e-01" nType="0">
          <Node pos="l" depth="2" NCoef="0" IVar="-1" Cut="0.0000000000000000e+00" cType="1" res="-3.5323959309607744e-03" rms="4.3207722902297974e-01" purity="2.6099058985710144e-01" nType="-99"/>
          <Node pos="r" depth="2" NCoef="0" IVar="-1" Cut="0.0000000000000000e+00" cType="1" res="4.4177803210914135e-03" rms="4.8729529976844788e-01" purity="4.0228116512298584e-01" nType="-99"/>
        </Node>
        <Node pos="r" depth="1" NCoef="0" IVar="0" Cut="8.2049665451049805e+00" cType="1" res="1.6749540809541941e-03" rms="4.9247151613235474e-01" purity="5.3124076128005981e-01" nType="0">
          <Node pos="l" depth="2" NCoef="0" IVar="-1" Cut="0.0000000000000000e+00" cType="1" res="-1.9469546386972070e-03" rms="4.9977993965148926e-01" purity="4.8327851295471191e-01" nType="-99"/>
          <Node pos="r" depth="2" NCoef="0" IVar="-1" Cut="0.0000000000000000e+00" cType="1" res="5.1918427925556898e-04" rms="4.9191939830780029e-01" purity="5.3459048271179199e-01" nType="-99"/>
        </Node>
      </Node>
    </BinaryTree>
    <BinaryTree type="DecisionTree" boostWeight="1.0000000000000000e+00" itree="236">
      <Node pos="s" depth="0" NCoef="0" IVar="4" Cut="-8.9126771688461304e-01" cType="1" res="-9.8900368902832270e-04" rms="4.8891881108283997e-01" purity="4.9911344051361084e-01" nType="0">
        <Node pos="l" depth="1" NCoef="0" IVar="-1" Cut="0.0000000000000000e+00" cType="1" res="-5.3825662471354008e-03" rms="4.7407272458076477e-01" purity="4.2533698678016663e-01" nType="-99"/>
        <Node pos="r" depth="1" NCoef="0" IVar="4" Cut="-7.1242076158523560e-01" cType="1" res="9.8418167908675969e-05" rms="4.8945352435112000e-01" purity="5.0197643041610718e-01" nType="0">
          <Node pos="l" depth="2" NCoef="0" IVar="-1" Cut="0.0000000000000000e+00" cType="1" res="1.7871835734695196e-03" rms="4.8861372470855713e-01" purity="4.8882061243057251e-01" nType="-99"/>
          <Node pos="r" depth="2" NCoef="0" IVar="-1" Cut="0.0000000000000000e+00" cType="1" res="-5.6049705017358065e-04" rms="4.8966884613037109e-01" purity="5.0623369216918945e-01" nType="-99"/>
        </Node>
      </Node>
    </BinaryTree>
    <BinaryTree type="DecisionTree" boostWeight="1.0000000000000000e+00" itree="237">
      <Node pos="s" depth="0" NCoef="0" IVar="5" Cut="7.8286451101303101e-01" cType="1" res="1.6835726273711771e-04" rms="4.8805591464042664e-01" purity="4.9947759509086609e-01" nType="0">
        <Node pos="l" depth="1" NCoef="0" IVar="0" Cut="8.2049665451049805e+00" cType="1" res="-1.2523264158517122e-03" rms="4.8839831352233887e-01" purity="4.9722760915756226e-01" nType="0">
          <Node pos="l" depth="2" NCoef="0" IVar="-1" Cut="0.0000000000000000e+00" cType="1" res="-2.5483039207756519e-03" rms="4.9833980202674866e-01" purity="4.6542578935623169e-01" nType="-99"/>
          <Node pos="r" depth="2" NCoef="0" IVar="-1" Cut="0.0000000000000000e+00" cType="1" res="2.4248305635410361e-05" rms="4.8776984214782715e-01" purity="4.9910235404968262e-01" nType="-99"/>
        </Node>
        <Node pos="r" depth="1" NCoef="0" IVar="5" Cut="8.1798028945922852e-01" cType="1" res="2.1940095350146294e-02" rms="4.8225471377372742e-01" purity="5.3395837545394897e-01" nType="0">
          <Node pos="l" depth="2" NCoef="0" IVar="-1" Cut="0.0000000000000000e+00" cType="1" res="-1.3484070950653404e-04" rms="4.8447620868682861e-01" purity="5.1805931329727173e-01" nType="-99"/>
          <Node pos="r" depth="2" NCoef="0" IVar="-1" Cut="0.0000000000000000e+00" cType="1" res="6.6510485485196114e-03" rms="4.7989222407341003e-01" purity="5.4578197002410889e-01" nType="-99"/>
        </Node>
      </Node>
    </BinaryTree>
    <BinaryTree type="DecisionTree" boostWeight="1.0000000000000000e+00" itree="238">
      <Node pos="s" depth="0" NCoef="0" IVar="2" Cut="2.0000000000000000e+00" cType="1" res="1.7078924656743766e-06" rms="1.7572399228811264e-02" purity="5.0009536743164062e-01" nType="0">
        <Node pos="l" depth="1" NCoef="0" IVar="4" Cut="7.9637849330902100e-01" cType="1" res="-2.7949323412030935e-03" rms="4.8627632856369019e-01" purity="4.9718755483627319e-01" nType="0">
          <Node pos="l" depth="2" NCoef="0" IVar="-1" Cut="0.0000000000000000e+00" cType="1" res="-5.6138764193747193e-05" rms="4.8773369193077087e-01" purity="4.9239316582679749e-01" nType="-99"/>
          <Node pos="r" depth="2" NCoef="0" IVar="-1" Cut="0.0000000000000000e+00" cType="1" res="-2.3016559425741434e-03" rms="4.7941410541534424e-01" purity="5.1906633377075195e-01" nType="-99"/>
        </Node>
        <Node pos="r" depth="1" NCoef="0" IVar="1" Cut="3.0000000000000000e+00" cType="1" res="6.5326353069394827e-04" rms="2.6150038838386536e-01" purity="5.0403255224227905e-01" nType="0">
          <Node pos="l" depth="2" NCoef="0" IVar="-1" Cut="0.0000000000000000e+00" cType="1" res="1.3517217012122273e-03" rms="4.9183729290962219e-01" purity="5.0888371467590332e-01" nType="-99"/>
          <Node pos="r" depth="2" NCoef="0" IVar="-1" Cut="0.0000000000000000e+00" cType="1" res="-8.6822675075381994e-04" rms="4.9061113595962524e-01" purity="4.9343800544738770e-01" nType="-99"/>
        </Node>
      </Node>
    </BinaryTree>
    <BinaryTree type="DecisionTree" boostWeight="1.0000000000000000e+00" itree="239">
      <Node pos="s" depth="0" NCoef="0" IVar="3" Cut="8.9726012945175171e-01" cType="1" res="2.9397620819509029e-03" rms="4.8894259333610535e-01" purity="5.0259089469909668e-01" nType="0">
        <Node pos="l" depth="1" NCoef="0" IVar="4" Cut="8.8697963953018188e-01" cType="1" res="4.9239504151046276e-03" rms="4.9234938621520996e-01" purity="4.7372725605964661e-01" nType="0">
          <Node pos="l" depth="2" NCoef="0" IVar="-1" Cut="0.0000000000000000e+00" cType="1" res="6.2068039551377296e-04" rms="4.9238106608390808e-01" purity="4.7452881932258606e-01" nType="-99"/>
          <Node pos="r" depth="2" NCoef="0" IVar="-1" Cut="0.0000000000000000e+00" cType="1" res="5.6079532951116562e-03" rms="4.9044713377952576e-01" purity="4.4868150353431702e-01" nType="-99"/>
        </Node>
        <Node pos="r" depth="1" NCoef="0" IVar="3" Cut="9.2423111200332642e-01" cType="1" res="-6.5291658975183964e-03" rms="4.7223162651062012e-01" purity="6.4033371210098267e-01" nType="0">
          <Node pos="l" depth="2" NCoef="0" IVar="-1" Cut="0.0000000000000000e+00" cType="1" res="-3.4104089718312025e-03" rms="4.8924836516380310e-01" purity="5.8553093671798706e-01" nType="-99"/>
          <Node pos="r" depth="2" NCoef="0" IVar="-1" Cut="0.0000000000000000e+00" cType="1" res="2.0656264678109437e-04" rms="4.6200779080390930e-01" purity="6.7179697751998901e-01" nType="-99"/>
        </Node>
      </Node>
    </BinaryTree>
    <BinaryTree type="DecisionTree" boostWeight="1.0000000000000000e+00" itree="240">
      <Node pos="s" depth="0" NCoef="0" IVar="0" Cut="8.7015762329101562e+00" cType="1" res="1.3595639029517770e-03" rms="4.8828560113906860e-01" purity="5.0003010034561157e-01" nType="0">
        <Node pos="l" depth="1" NCoef="0" IVar="4" Cut="4.4118199497461319e-02" cType="1" res="1.2456290423870087e-02" rms="4.9527427554130554e-01" purity="5.1515901088714600e-01" nType="0">
          <Node pos="l" depth="2" NCoef="0" IVar="-1" Cut="0.0000000000000000e+00" cType="1" res="7.7491672709584236e-04" rms="4.9613365530967712e-01" purity="5.0311142206192017e-01" nType="-99"/>
          <Node pos="r" depth="2" NCoef="0" IVar="-1" Cut="0.0000000000000000e+00" cType="1" res="2.8916171286255121e-03" rms="4.9251365661621094e-01" purity="5.4980427026748657e-01" nType="-99"/>
        </Node>
        <Node pos="r" depth="1" NCoef="0" IVar="0" Cut="9.7010831832885742e+00" cType="1" res="-2.2131956648081541e-03" rms="4.8596018552780151e-01" purity="4.9515917897224426e-01" nType="0">
          <Node pos="l" depth="2" NCoef="0" IVar="-1" Cut="0.0000000000000000e+00" cType="1" res="-7.6928851194679737e-04" rms="4.8750352859497070e-01" purity="4.9429765343666077e-01" nType="-99"/>
          <Node pos="r" depth="2" NCoef="0" IVar="-1" Cut="0.0000000000000000e+00" cType="1" res="4.5173345133662224e-03" rms="4.7297015786170959e-01" purity="5.0211721658706665e-01" nType="-99"/>
        </Node>
      </Node>
    </BinaryTree>
    <BinaryTree type="DecisionTree" boostWeight="1.0000000000000000e+00" itree="241">
      <Node pos="s" depth="0" NCoef="0" IVar="1" Cut="2.0000000000000000e+00" cType="1" res="-2.2264651488512754e-03" rms="2.0457968115806580e-01" purity="4.9578729271888733e-01" nType="0">
        <Node pos="l" depth="1" NCoef="0" IVar="2" Cut="3.0000000000000000e+00" cType="1" res="-3.4361290745437145e-03" rms="1.4755065739154816e-01" purity="5.0810164213180542e-01" nType="0">
          <Node pos="l" depth="2" NCoef="0" IVar="-1" Cut="0.0000000000000000e+00" cType="1" res="6.8933819420635700e-04" rms="4.8855200409889221e-01" purity="5.0149184465408325e-01" nType="-99"/>
          <Node pos="r" depth="2" NCoef="0" IVar="-1" Cut="0.0000000000000000e+00" cType="1" res="7.5285835191607475e-03" rms="4.8894593119621277e-01" purity="5.5297553539276123e-01" nType="-99"/>
        </Node>
        <Node pos="r" depth="1" NCoef="0" IVar="5" Cut="7.9003781080245972e-01" cType="1" res="-9.3209641054272652e-03" rms="4.8848101496696472e-01" purity="4.9058344960212708e-01" nType="0">
          <Node pos="l" depth="2" NCoef="0" IVar="-1" Cut="0.0000000000000000e+00" cType="1" res="-1.1296884622424841e-03" rms="4.8875996470451355e-01" purity="4.9150329828262329e-01" nType="-99"/>
          <Node pos="r" depth="2" NCoef="0" IVar="-1" Cut="0.0000000000000000e+00" cType="1" res="-6.4826919697225094e-03" rms="4.8395907878875732e-01" purity="4.7876286506652832e-01" nType="-99"/>
        </Node>
      </Node>
    </BinaryTree>
    <BinaryTree type="DecisionTree" boostWeight="1.0000000000000000e+00" itree="242">
      <Node pos="s" depth="0" NCoef="0" IVar="4" Cut="-7.0235341787338257e-01" cType="1" res="1.8838502001017332e-03" rms="4.8910275101661682e-01" purity="5.0179821252822876e-01" nType="0">
        <Node pos="l" depth="1" NCoef="0" IVar="0" Cut="9.4326639175415039e+00" cType="1" res="1.2051492929458618e-02" rms="4.8693746328353882e-01" purity="4.8691144585609436e-01" nType="0">
          <Node pos="l" depth="2" NCoef="0" IVar="-1" Cut="0.0000000000000000e+00" cType="1" res="2.5605191476643085e-03" rms="4.8965126276016235e-01" purity="4.9212670326232910e-01" nType="-99"/>
          <Node pos="r" depth="2" NCoef="0" IVar="-1" Cut="0.0000000000000000e+00" cType="1" res="-2.8066399972885847e-03" rms="4.7574409842491150e-01" purity="4.6694317460060120e-01" nType="-99"/>
        </Node>
        <Node pos="r" depth="1" NCoef="0" IVar="2" Cut="2.0000000000000000e+00" cType="1" res="-5.3359044250100851e-04" rms="8.8790789246559143e-02" purity="5.0739324092864990e-01" nType="0">
          <Node pos="l" depth="2" NCoef="0" IVar="-1" Cut="0.0000000000000000e+00" cType="1" res="-1.5172983985394239e-03" rms="4.8819929361343384e-01" purity="4.9860233068466187e-01" nType="-99"/>
          <Node pos="r" depth="2" NCoef="0" IVar="-1" Cut="0.0000000000000000e+00" cType="1" res="1.2958548031747341e-03" rms="4.9170437455177307e-01" purity="5.1813364028930664e-01" nType="-99"/>
        </Node>
      </Node>
    </BinaryTree>
    <BinaryTree type="DecisionTree" boostWeight="1.0000000000000000e+00" itree="243">
      <Node pos="s" depth="0" NCoef="0" IVar="1" Cut="2.0000000000000000e+00" cType="1" res="5.3858762839809060e-04" rms="2.3230187594890594e-01" purity="4.9885928630828857e-01" nType="0">
        <Node pos="l" depth="1" NCoef="0" IVar="2" Cut="3.0000000000000000e+00" cType="1" res="-3.3757011988200247e-04" rms="1.0245183855295181e-01" purity="4.9426621198654175e-01" nType="0">
          <Node pos="l" depth="2" NCoef="0" IVar="-1" Cut="0.0000000000000000e+00" cType="1" res="-1.4744533691555262e-03" rms="4.8948749899864197e-01" purity="4.8797568678855896e-01" nType="-99"/>
          <Node pos="r" depth="2" NCoef="0" IVar="-1" Cut="0.0000000000000000e+00" cType="1" res="3.6716740578413010e-03" rms="4.9106132984161377e-01" purity="5.3830379247665405e-01" nType="-99"/>
        </Node>
        <Node pos="r" depth="1" NCoef="0" IVar="1" Cut="5.0000000000000000e+00" cType="1" res="9.1581205197144300e-05" rms="1.6566860675811768e-01" purity="5.0075346231460571e-01" nType="0">
          <Node pos="l" depth="2" NCoef="0" IVar="-1" Cut="0.0000000000000000e+00" cType="1" res="3.2901787199079990e-04" rms="4.8801565170288086e-01" purity="4.9824795126914978e-01" nType="-99"/>
          <Node pos="r" depth="2" NCoef="0" IVar="-1" Cut="0.0000000000000000e+00" cType="1" res="2.9611557256430387e-03" rms="4.8990926146507263e-01" purity="5.3466731309890747e-01" nType="-99"/>
        </Node>
      </Node>
    </BinaryTree>
    <BinaryTree type="DecisionTree" boostWeight="1.0000000000000000e+00" itree="244">
      <Node pos="s" depth="0" NCoef="0" IVar="4" Cut="4.7507602721452713e-02" cType="1" res="4.2716977186501026e-03" rms="4.8882216215133667e-01" purity="5.0393593311309814e-01" nType="0">
        <Node pos="l" depth="1" NCoef="0" IVar="0" Cut="8.8991365432739258e+00" cType="1" res="7.7279824763536453e-03" rms="4.8983740806579590e-01" purity="4.9834415316581726e-01" nType="0">
          <Node pos="l" depth="2" NCoef="0" IVar="-1" Cut="0.0000000000000000e+00" cType="1" res="2.2732035722583532e-03" rms="4.9534440040588379e-01" purity="5.1302546262741089e-01" nType="-99"/>
          <Node pos="r" depth="2" NCoef="0" IVar="-1" Cut="0.0000000000000000e+00" cType="1" res="9.7255884611513466e-05" rms="4.8631358146667480e-01" purity="4.8941123485565186e-01" nType="-99"/>
        </Node>
        <Node pos="r" depth="1" NCoef="0" IVar="3" Cut="-8.0101412534713745e-01" cType="1" res="-4.6002944000065327e-03" rms="4.8609384894371033e-01" purity="5.1828944683074951e-01" nType="0">
          <Node pos="l" depth="2" NCoef="0" IVar="-1" Cut="0.0000000000000000e+00" cType="1" res="-2.1207225508987904e-03" rms="4.9112778902053833e-01" purity="4.2459392547607422e-01" nType="-99"/>
          <Node pos="r" depth="2" NCoef="0" IVar="-1" Cut="0.0000000000000000e+00" cType="1" res="5.7856418425217271e-04" rms="4.8121225833892822e-01" purity="6.0562103986740112e-01" nType="-99"/>
        </Node>
      </Node>
    </BinaryTree>
    <BinaryTree type="DecisionTree" boostWeight="1.0000000000000000e+00" itree="245">
      <Node pos="s" depth="0" NCoef="0" IVar="0" Cut="8.7760400772094727e+00" cType="1" res="5.6595385103719309e-05" rms="4.8858672380447388e-01" purity="4.9949872493743896e-01" nType="0">
        <Node pos="l" depth="1" NCoef="0" IVar="4" Cut="-6.9516861438751221e-01" cType="1" res="-8.6587676778435707e-03" rms="4.9492666125297546e-01" purity="4.9477225542068481e-01" nType="0">
          <Node pos="l" depth="2" NCoef="0" IVar="-1" Cut="0.0000000000000000e+00" cType="1" res="-3.8156895898282528e-03" rms="4.9095013737678528e-01" purity="4.4339603185653687e-01" nType="-99"/>
          <Node pos="r" depth="2" NCoef="0" IVar="-1" Cut="0.0000000000000000e+00" cType="1" res="1.1066099978052080e-04" rms="4.9599927663803101e-01" purity="5.1329880952835083e-01" nType="-99"/>
        </Node>
        <Node pos="r" depth="1" NCoef="0" IVar="5" Cut="-7.8396582603454590e-01" cType="1" res="3.4869834780693054e-03" rms="4.8602578043937683e-01" purity="5.0135904550552368e-01" nType="0">
          <Node pos="l" depth="2" NCoef="0" IVar="-1" Cut="0.0000000000000000e+00" cType="1" res="5.4347221739590168e-03" rms="4.8474118113517761e-01" purity="5.2507692575454712e-01" nType="-99"/>
          <Node pos="r" depth="2" NCoef="0" IVar="-1" Cut="0.0000000000000000e+00" cType="1" res="3.7446519127115607e-04" rms="4.8607140779495239e-01" purity="4.9981409311294556e-01" nType="-99"/>
        </Node>
      </Node>
    </BinaryTree>
    <BinaryTree type="DecisionTree" boostWeight="1.0000000000000000e+00" itree="246">
      <Node pos="s" depth="0" NCoef="0" IVar="0" Cut="8.6181879043579102e+00" cType="1" res="1.7704534111544490e-03" rms="4.8899018764495850e-01" purity="5.0109720230102539e-01" nType="0">
        <Node pos="l" depth="1" NCoef="0" IVar="4" Cut="-6.8497496843338013e-01" cType="1" res="1.0860015638172626e-02" rms="4.9637678265571594e-01" purity="5.1579934358596802e-01" nType="0">
          <Node pos="l" depth="2" NCoef="0" IVar="-1" Cut="0.0000000000000000e+00" cType="1" res="3.1489937100559473e-03" rms="4.9799272418022156e-01" purity="5.0848954916000366e-01" nType="-99"/>
          <Node pos="r" depth="2" NCoef="0" IVar="-1" Cut="0.0000000000000000e+00" cType="1" res="4.1486354894004762e-04" rms="4.9560192227363586e-01" purity="5.1850879192352295e-01" nType="-99"/>
        </Node>
        <Node pos="r" depth="1" NCoef="0" IVar="0" Cut="9.4104032516479492e+00" cType="1" res="-5.0819187890738249e-04" rms="4.8709431290626526e-01" purity="4.9741154909133911e-01" nType="0">
          <Node pos="l" depth="2" NCoef="0" IVar="-1" Cut="0.0000000000000000e+00" cType="1" res="-6.4117822330445051e-04" rms="4.8970729112625122e-01" purity="4.9691095948219299e-01" nType="-99"/>
          <Node pos="r" depth="2" NCoef="0" IVar="-1" Cut="0.0000000000000000e+00" cType="1" res="2.0466917194426060e-03" rms="4.8038724064826965e-01" purity="4.9866425991058350e-01" nType="-99"/>
        </Node>
      </Node>
    </BinaryTree>
    <BinaryTree type="DecisionTree" boostWeight="1.0000000000000000e+00" itree="247">
      <Node pos="s" depth="0" NCoef="0" IVar="4" Cut="-7.9525893926620483e-01" cType="1" res="1.1314423754811287e-03" rms="4.8808243870735168e-01" purity="5.0090879201889038e-01" nType="0">
        <Node pos="l" depth="1" NCoef="0" IVar="4" Cut="-8.4884172677993774e-01" cType="1" res="-9.2424908652901649e-03" rms="4.7923499345779419e-01" purity="4.5812609791755676e-01" nType="0">
          <Node pos="l" depth="2" NCoef="0" IVar="-1" Cut="0.0000000000000000e+00" cType="1" res="-4.0425704792141914e-03" rms="4.7227779030799866e-01" purity="4.4004738330841064e-01" nType="-99"/>
          <Node pos="r" depth="2" NCoef="0" IVar="-1" Cut="0.0000000000000000e+00" cType="1" res="1.0662261629477143e-03" rms="4.8647639155387878e-01" purity="4.7854828834533691e-01" nType="-99"/>
        </Node>
        <Node pos="r" depth="1" NCoef="0" IVar="0" Cut="8.4392223358154297e+00" cType="1" res="3.0736713670194149e-03" rms="4.8969668149948120e-01" purity="5.0891864299774170e-01" nType="0">
          <Node pos="l" depth="2" NCoef="0" IVar="-1" Cut="0.0000000000000000e+00" cType="1" res="1.7767418175935745e-03" rms="4.9833700060844421e-01" purity="5.2881276607513428e-01" nType="-99"/>
          <Node pos="r" depth="2" NCoef="0" IVar="-1" Cut="0.0000000000000000e+00" cType="1" res="1.6979199426714331e-04" rms="4.8838070034980774e-01" purity="5.0599873065948486e-01" nType="-99"/>
        </Node>
      </Node>
    </BinaryTree>
    <BinaryTree type="DecisionTree" boostWeight="1.0000000000000000e+00" itree="248">
      <Node pos="s" depth="0" NCoef="0" IVar="1" Cut="5.0000000000000000e+00" cType="1" res="-6.9445359986275434e-04" rms="2.4480311572551727e-01" purity="4.9847704172134399e-01" nType="0">
        <Node pos="l" depth="1" NCoef="0" IVar="4" Cut="-7.0272165536880493e-01" cType="1" res="-3.2593999058008194e-03" rms="4.8929533362388611e-01" purity="4.9595779180526733e-01" nType="0">
          <Node pos="l" depth="2" NCoef="0" IVar="-1" Cut="0.0000000000000000e+00" cType="1" res="6.8277702666819096e-04" rms="4.8758220672607422e-01" purity="4.8045739531517029e-01" nType="-99"/>
          <Node pos="r" depth="2" NCoef="0" IVar="-1" Cut="0.0000000000000000e+00" cType="1" res="-9.4287784304469824e-04" rms="4.8989132046699524e-01" purity="5.0162553787231445e-01" nType="-99"/>
        </Node>
        <Node pos="r" depth="1" NCoef="0" IVar="-1" Cut="0.0000000000000000e+00" cType="1" res="4.9339709803462029e-03" rms="4.8647391796112061e-01" purity="5.4839128255844116e-01" nType="-99"/>
      </Node>
    </BinaryTree>
    <BinaryTree type="DecisionTree" boostWeight="1.0000000000000000e+00" itree="249">
      <Node pos="s" depth="0" NCoef="0" IVar="0" Cut="9.6221675872802734e+00" cType="1" res="3.9941440336406231e-03" rms="4.8899766802787781e-01" purity="5.0392061471939087e-01" nType="0">
        <Node pos="l" depth="1" NCoef="0" IVar="4" Cut="-7.9616653919219971e-01" cType="1" res="2.0294107962399721e-03" rms="4.9099111557006836e-01" purity="5.0308924913406372e-01" nType="0">
          <Node pos="l" depth="2" NCoef="0" IVar="-1" Cut="0.0000000000000000e+00" cType="1" res="2.7659998741000891e-03" rms="4.8159307241439819e-01" purity="4.8361545801162720e-01" nType="-99"/>
          <Node pos="r" depth="2" NCoef="0" IVar="-1" Cut="0.0000000000000000e+00" cType="1" res="-9.9297132692299783e-05" rms="4.9258619546890259e-01" purity="5.0653475522994995e-01" nType="-99"/>
        </Node>
        <Node pos="r" depth="1" NCoef="0" IVar="3" Cut="8.0059409141540527e-01" cType="1" res="1.9349012523889542e-02" rms="4.7284811735153198e-01" purity="5.1041811704635620e-01" nType="0">
          <Node pos="l" depth="2" NCoef="0" IVar="-1" Cut="0.0000000000000000e+00" cType="1" res="1.5454302774742246e-03" rms="4.7984561324119568e-01" purity="4.0715277194976807e-01" nType="-99"/>
          <Node pos="r" depth="2" NCoef="0" IVar="-1" Cut="0.0000000000000000e+00" cType="1" res="1.2386075221002102e-02" rms="4.6142381429672241e-01" purity="6.6444408893585205e-01" nType="-99"/>
        </Node>
      </Node>
    </BinaryTree>
    <BinaryTree type="DecisionTree" boostWeight="1.0000000000000000e+00" itree="250">
      <Node pos="s" depth="0" NCoef="0" IVar="0" Cut="9.3297643661499023e+00" cType="1" res="1.4647014904767275e-03" rms="4.8781552910804749e-01" purity="5.0219333171844482e-01" nType="0">
        <Node pos="l" depth="1" NCoef="0" IVar="0" Cut="8.3162393569946289e+00" cType="1" res="5.3238733671605587e-03" rms="4.9122625589370728e-01" purity="5.0800162553787231e-01" nType="0">
          <Node pos="l" depth="2" NCoef="0" IVar="-1" Cut="0.0000000000000000e+00" cType="1" res="-8.4592791972681880e-04" rms="4.9923148751258850e-01" purity="4.9295753240585327e-01" nType="-99"/>
          <Node pos="r" depth="2" NCoef="0" IVar="-1" Cut="0.0000000000000000e+00" cType="1" res="1.0738840792328119e-03" rms="4.9007675051689148e-01" purity="5.1008236408233643e-01" nType="-99"/>
        </Node>
        <Node pos="r" depth="1" NCoef="0" IVar="3" Cut="8.9697962999343872e-01" cType="1" res="-8.3747375756502151e-03" rms="4.7886887192726135e-01" purity="4.8738434910774231e-01" nType="0">
          <Node pos="l" depth="2" NCoef="0" IVar="-1" Cut="0.0000000000000000e+00" cType="1" res="-3.3300006762146950e-03" rms="4.8474928736686707e-01" purity="4.3351140618324280e-01" nType="-99"/>
          <Node pos="r" depth="2" NCoef="0" IVar="-1" Cut="0.0000000000000000e+00" cType="1" res="3.3461155835539103e-03" rms="4.5583277940750122e-01" purity="6.8719089031219482e-01" nType="-99"/>
        </Node>
      </Node>
    </BinaryTree>
    <BinaryTree type="DecisionTree" boostWeight="1.0000000000000000e+00" itree="251">
      <Node pos="s" depth="0" NCoef="0" IVar="2" Cut="3.0000000000000000e+00" cType="1" res="3.9614137494936585e-04" rms="8.8912658393383026e-02" purity="4.9991104006767273e-01" nType="0">
        <Node pos="l" depth="1" NCoef="0" IVar="4" Cut="-7.9622668027877808e-01" cType="1" res="1.8643160583451390e-03" rms="4.8886579275131226e-01" purity="5.0089806318283081e-01" nType="0">
          <Node pos="l" depth="2" NCoef="0" IVar="-1" Cut="0.0000000000000000e+00" cType="1" res="-1.3476650929078460e-03" rms="4.8237305879592896e-01" purity="4.6268057823181152e-01" nType="-99"/>
          <Node pos="r" depth="2" NCoef="0" IVar="-1" Cut="0.0000000000000000e+00" cType="1" res="5.8003340382128954e-04" rms="4.9008041620254517e-01" purity="5.0823616981506348e-01" nType="-99"/>
        </Node>
        <Node pos="r" depth="1" NCoef="0" IVar="0" Cut="9.2908620834350586e+00" cType="1" res="-1.7015568912029266e-02" rms="4.9354064464569092e-01" purity="4.9183914065361023e-01" nType="0">
          <Node pos="l" depth="2" NCoef="0" IVar="-1" Cut="0.0000000000000000e+00" cType="1" res="-3.7006286438554525e-03" rms="4.9652770161628723e-01" purity="4.8866337537765503e-01" nType="-99"/>
          <Node pos="r" depth="2" NCoef="0" IVar="-1" Cut="0.0000000000000000e+00" cType="1" res="-4.4339627493172884e-04" rms="4.8588010668754578e-01" purity="4.9953007698059082e-01" nType="-99"/>
        </Node>
      </Node>
    </BinaryTree>
    <BinaryTree type="DecisionTree" boostWeight="1.0000000000000000e+00" itree="252">
      <Node pos="s" depth="0" NCoef="0" IVar="0" Cut="8.1768674850463867e+00" cType="1" res="1.8577895825728774e-03" rms="4.8796975612640381e-01" purity="5.0228577852249146e-01" nType="0">
        <Node pos="l" depth="1" NCoef="0" IVar="-1" Cut="0.0000000000000000e+00" cType="1" res="2.4498682469129562e-03" rms="5.0045502185821533e-01" purity="5.1947110891342163e-01" nType="-99"/>
        <Node pos="r" depth="1" NCoef="0" IVar="0" Cut="8.6269226074218750e+00" cType="1" res="5.4184033069759607e-04" rms="4.8722931742668152e-01" purity="5.0132578611373901e-01" nType="0">
          <Node pos="l" depth="2" NCoef="0" IVar="-1" Cut="0.0000000000000000e+00" cType="1" res="-1.2912123929709196e-03" rms="4.9399960041046143e-01" purity="4.9900063872337341e-01" nType="-99"/>
          <Node pos="r" depth="2" NCoef="0" IVar="-1" Cut="0.0000000000000000e+00" cType="1" res="5.2648951532319188e-04" rms="4.8591768741607666e-01" purity="5.0176060199737549e-01" nType="-99"/>
        </Node>
      </Node>
    </BinaryTree>
    <BinaryTree type="DecisionTree" boostWeight="1.0000000000000000e+00" itree="253">
      <Node pos="s" depth="0" NCoef="0" IVar="4" Cut="-7.0490694046020508e-01" cType="1" res="-1.1263488559052348e-03" rms="4.8810961842536926e-01" purity="4.9979999661445618e-01" nType="0">
        <Node pos="l" depth="1" NCoef="0" IVar="5" Cut="4.6356528997421265e-02" cType="1" res="-1.2947188690304756e-02" rms="4.8558843135833740e-01" purity="4.6351620554924011e-01" nType="0">
          <Node pos="l" depth="2" NCoef="0" IVar="-1" Cut="0.0000000000000000e+00" cType="1" res="-3.4051509574055672e-03" rms="4.8624470829963684e-01" purity="4.5358160138130188e-01" nType="-99"/>
          <Node pos="r" depth="2" NCoef="0" IVar="-1" Cut="0.0000000000000000e+00" cType="1" res="2.1585577633231878e-03" rms="4.8258027434349060e-01" purity="4.9468544125556946e-01" nType="-99"/>
        </Node>
        <Node pos="r" depth="1" NCoef="0" IVar="0" Cut="8.6794557571411133e+00" cType="1" res="3.3324912656098604e-03" rms="4.8898300528526306e-01" purity="5.1348632574081421e-01" nType="0">
          <Node pos="l" depth="2" NCoef="0" IVar="-1" Cut="0.0000000000000000e+00" cType="1" res="1.9197241635993123e-03" rms="4.9591329693794250e-01" purity="5.3315365314483643e-01" nType="-99"/>
          <Node pos="r" depth="2" NCoef="0" IVar="-1" Cut="0.0000000000000000e+00" cType="1" res="-2.1518091671168804e-04" rms="4.8671248555183411e-01" purity="5.0734800100326538e-01" nType="-99"/>
        </Node>
      </Node>
    </BinaryTree>
    <BinaryTree type="DecisionTree" boostWeight="1.0000000000000000e+00" itree="254">
      <Node pos="s" depth="0" NCoef="0" IVar="4" Cut="8.9232796430587769e-01" cType="1" res="-2.0114742219448090e-03" rms="4.8842456936836243e-01" purity="4.9851915240287781e-01" nType="0">
        <Node pos="l" depth="1" NCoef="0" IVar="0" Cut="8.1370763778686523e+00" cType="1" res="-3.3887408208101988e-03" rms="4.8897719383239746e-01" purity="4.9551683664321899e-01" nType="0">
          <Node pos="l" depth="2" NCoef="0" IVar="-1" Cut="0.0000000000000000e+00" cType="1" res="2.5451828259974718e-03" rms="5.0156301259994507e-01" purity="5.1960617303848267e-01" nType="-99"/>
          <Node pos="r" depth="2" NCoef="0" IVar="-1" Cut="0.0000000000000000e+00" cType="1" res="-7.6643261127173901e-04" rms="4.8831689357757568e-01" purity="4.9434798955917358e-01" nType="-99"/>
        </Node>
        <Node pos="r" depth="1" NCoef="0" IVar="-1" Cut="0.0000000000000000e+00" cType="1" res="6.3622272573411465e-03" rms="4.7300681471824646e-01" purity="5.7398623228073120e-01" nType="-99"/>
      </Node>
    </BinaryTree>
    <BinaryTree type="DecisionTree" boostWeight="1.0000000000000000e+00" itree="255">
      <Node pos="s" depth="0" NCoef="0" IVar="3" Cut="8.0220818519592285e-01" cType="1" res="2.0482530817389488e-03" rms="4.8826071619987488e-01" purity="5.0116682052612305e-01" nType="0">
        <Node pos="l" depth="1" NCoef="0" IVar="0" Cut="8.8279676437377930e+00" cType="1" res="-2.3128639440983534e-03" rms="4.9108278751373291e-01" purity="4.4156855344772339e-01" nType="0">
          <Node pos="l" depth="2" NCoef="0" IVar="-1" Cut="0.0000000000000000e+00" cType="1" res="-1.1999066919088364e-03" rms="4.9620634317398071e-01" purity="4.5791879296302795e-01" nType="-99"/>
          <Node pos="r" depth="2" NCoef="0" IVar="-1" Cut="0.0000000000000000e+00" cType="1" res="3.3595765125937760e-04" rms="4.8855796456336975e-01" purity="4.3373942375183105e-01" nType="-99"/>
        </Node>
        <Node pos="r" depth="1" NCoef="0" IVar="3" Cut="8.5613793134689331e-01" cType="1" res="9.4145582988858223e-03" rms="4.8336720466613770e-01" purity="6.0183352231979370e-01" nType="0">
          <Node pos="l" depth="2" NCoef="0" IVar="-1" Cut="0.0000000000000000e+00" cType="1" res="-2.2005254868417978e-04" rms="4.9680003523826599e-01" purity="5.4493522644042969e-01" nType="-99"/>
          <Node pos="r" depth="2" NCoef="0" IVar="-1" Cut="0.0000000000000000e+00" cType="1" res="2.4257567711174488e-03" rms="4.7763112187385559e-01" purity="6.2535607814788818e-01" nType="-99"/>
        </Node>
      </Node>
    </BinaryTree>
    <BinaryTree type="DecisionTree" boostWeight="1.0000000000000000e+00" itree="256">
      <Node pos="s" depth="0" NCoef="0" IVar="5" Cut="-7.8307396173477173e-01" cType="1" res="2.8040849138051271e-03" rms="4.8849785327911377e-01" purity="5.0419646501541138e-01" nType="0">
        <Node pos="l" depth="1" NCoef="0" IVar="1" Cut="4.0000000000000000e+00" cType="1" res="-1.3738415203988552e-02" rms="3.2618480920791626e-01" purity="4.7409027814865112e-01" nType="0">
          <Node pos="l" depth="2" NCoef="0" IVar="-1" Cut="0.0000000000000000e+00" cType="1" res="-7.0676673203706741e-03" rms="4.8186939954757690e-01" purity="4.4826230406761169e-01" nType="-99"/>
          <Node pos="r" depth="2" NCoef="0" IVar="-1" Cut="0.0000000000000000e+00" cType="1" res="-1.1893417686223984e-03" rms="4.8354387283325195e-01" purity="4.9970638751983643e-01" nType="-99"/>
        </Node>
        <Node pos="r" depth="1" NCoef="0" IVar="0" Cut="9.0013980865478516e+00" cType="1" res="4.5361598022282124e-03" rms="4.8878985643386841e-01" purity="5.0609844923019409e-01" nType="0">
          <Node pos="l" depth="2" NCoef="0" IVar="-1" Cut="0.0000000000000000e+00" cType="1" res="1.3550075236707926e-03" rms="4.9438926577568054e-01" purity="5.1526600122451782e-01" nType="-99"/>
          <Node pos="r" depth="2" NCoef="0" IVar="-1" Cut="0.0000000000000000e+00" cType="1" res="-1.7808722623158246e-04" rms="4.8404067754745483e-01" purity="4.9851107597351074e-01" nType="-99"/>
        </Node>
      </Node>
    </BinaryTree>
    <BinaryTree type="DecisionTree" boostWeight="1.0000000000000000e+00" itree="257">
      <Node pos="s" depth="0" NCoef="0" IVar="4" Cut="4.6732999384403229e-02" cType="1" res="-3.9083110168576241e-03" rms="4.8878940939903259e-01" purity="4.9597984552383423e-01" nType="0">
        <Node pos="l" depth="1" NCoef="0" IVar="4" Cut="-8.4580451250076294e-01" cType="1" res="-7.3998919688165188e-03" rms="4.8944514989852905e-01" purity="4.8397287726402283e-01" nType="0">
          <Node pos="l" depth="2" NCoef="0" IVar="-1" Cut="0.0000000000000000e+00" cType="1" res="2.0504521671682596e-03" rms="4.7535407543182373e-01" purity="4.7849926352500916e-01" nType="-99"/>
          <Node pos="r" depth="2" NCoef="0" IVar="-1" Cut="0.0000000000000000e+00" cType="1" res="-1.5667072730138898e-03" rms="4.9130734801292419e-01" purity="4.8473188281059265e-01" nType="-99"/>
        </Node>
        <Node pos="r" depth="1" NCoef="0" IVar="4" Cut="8.7216603755950928e-01" cType="1" res="5.0536887720227242e-03" rms="4.8698762059211731e-01" purity="5.2679872512817383e-01" nType="0">
          <Node pos="l" depth="2" NCoef="0" IVar="-1" Cut="0.0000000000000000e+00" cType="1" res="1.6670989571139216e-03" rms="4.8802721500396729e-01" purity="5.2767145633697510e-01" nType="-99"/>
          <Node pos="r" depth="2" NCoef="0" IVar="-1" Cut="0.0000000000000000e+00" cType="1" res="-2.8194021433591843e-03" rms="4.8244932293891907e-01" purity="5.2344441413879395e-01" nType="-99"/>
        </Node>
      </Node>
    </BinaryTree>
    <BinaryTree type="DecisionTree" boostWeight="1.0000000000000000e+00" itree="258">
      <Node pos="s" depth="0" NCoef="0" IVar="5" Cut="-7.8396582603454590e-01" cType="1" res="2.0539551042020321e-03" rms="4.8910465836524963e-01" purity="5.0201857089996338e-01" nType="0">
        <Node pos="l" depth="1" NCoef="0" IVar="5" Cut="-8.2815819978713989e-01" cType="1" res="2.0053092390298843e-02" rms="4.8447337746620178e-01" purity="5.1529878377914429e-01" nType="0">
          <Node pos="l" depth="2" NCoef="0" IVar="-1" Cut="0.0000000000000000e+00" cType="1" res="4.5651681721210480e-03" rms="4.8476821184158325e-01" purity="5.2134597301483154e-01" nType="-99"/>
          <Node pos="r" depth="2" NCoef="0" IVar="-1" Cut="0.0000000000000000e+00" cType="1" res="2.1782910916954279e-03" rms="4.8406246304512024e-01" purity="5.0933134555816650e-01" nType="-99"/>
        </Node>
        <Node pos="r" depth="1" NCoef="0" IVar="5" Cut="8.1077462434768677e-01" cType="1" res="9.7945693414658308e-04" rms="4.8935881257057190e-01" purity="5.0122576951980591e-01" nType="0">
          <Node pos="l" depth="2" NCoef="0" IVar="-1" Cut="0.0000000000000000e+00" cType="1" res="3.2636708056088537e-05" rms="4.8929795622825623e-01" purity="5.0000995397567749e-01" nType="-99"/>
          <Node pos="r" depth="2" NCoef="0" IVar="-1" Cut="0.0000000000000000e+00" cType="1" res="3.0869119800627232e-03" rms="4.9040248990058899e-01" purity="5.2845305204391479e-01" nType="-99"/>
        </Node>
      </Node>
    </BinaryTree>
    <BinaryTree type="DecisionTree" boostWeight="1.0000000000000000e+00" itree="259">
      <Node pos="s" depth="0" NCoef="0" IVar="3" Cut="-7.0749557018280029e-01" cType="1" res="-4.6879146248102188e-03" rms="4.9017623066902161e-01" purity="4.9566787481307983e-01" nType="0">
        <Node pos="l" depth="1" NCoef="0" IVar="3" Cut="-8.3601123094558716e-01" cType="1" res="5.4953247308731079e-03" rms="4.8970291018486023e-01" purity="4.3214341998100281e-01" nType="0">
          <Node pos="l" depth="2" NCoef="0" IVar="-1" Cut="0.0000000000000000e+00" cType="1" res="2.2105015814304352e-03" rms="4.8408433794975281e-01" purity="4.1113808751106262e-01" nType="-99"/>
          <Node pos="r" depth="2" NCoef="0" IVar="-1" Cut="0.0000000000000000e+00" cType="1" res="-9.4444566639140248e-04" rms="4.9825605750083923e-01" purity="4.6550327539443970e-01" nType="-99"/>
        </Node>
        <Node pos="r" depth="1" NCoef="0" IVar="4" Cut="4.5231714844703674e-02" cType="1" res="-1.4666316099464893e-02" rms="4.9043455719947815e-01" purity="5.5791449546813965e-01" nType="0">
          <Node pos="l" depth="2" NCoef="0" IVar="-1" Cut="0.0000000000000000e+00" cType="1" res="-3.1059822067618370e-03" rms="4.9403119087219238e-01" purity="5.3713393211364746e-01" nType="-99"/>
          <Node pos="r" depth="2" NCoef="0" IVar="-1" Cut="0.0000000000000000e+00" cType="1" res="9.6574396593496203e-05" rms="4.7915959358215332e-01" purity="6.2025856971740723e-01" nType="-99"/>
        </Node>
      </Node>
    </BinaryTree>
    <BinaryTree type="DecisionTree" boostWeight="1.0000000000000000e+00" itree="260">
      <Node pos="s" depth="0" NCoef="0" IVar="0" Cut="9.1743068695068359e+00" cType="1" res="1.9270976772531867e-03" rms="4.8941716551780701e-01" purity="5.0200438499450684e-01" nType="0">
        <Node pos="l" depth="1" NCoef="0" IVar="1" Cut="4.0000000000000000e+00" cType="1" res="2.3954262360348366e-05" rms="1.4817074872553349e-02" purity="5.0006479024887085e-01" nType="0">
          <Node pos="l" depth="2" NCoef="0" IVar="-1" Cut="0.0000000000000000e+00" cType="1" res="-6.0224905610084534e-04" rms="4.9287635087966919e-01" purity="4.9665609002113342e-01" nType="-99"/>
          <Node pos="r" depth="2" NCoef="0" IVar="-1" Cut="0.0000000000000000e+00" cType="1" res="1.8180804327130318e-03" rms="4.9178194999694824e-01" purity="5.2032315731048584e-01" nType="-99"/>
        </Node>
        <Node pos="r" depth="1" NCoef="0" IVar="3" Cut="-7.0772588253021240e-01" cType="1" res="7.4608544819056988e-03" rms="4.8442465066909790e-01" purity="5.0484251976013184e-01" nType="0">
          <Node pos="l" depth="2" NCoef="0" IVar="-1" Cut="0.0000000000000000e+00" cType="1" res="3.4655556082725525e-03" rms="4.8507830500602722e-01" purity="4.1687256097793579e-01" nType="-99"/>
          <Node pos="r" depth="2" NCoef="0" IVar="-1" Cut="0.0000000000000000e+00" cType="1" res="4.4709562644129619e-05" rms="4.8368212580680847e-01" purity="5.8969861268997192e-01" nType="-99"/>
        </Node>
      </Node>
    </BinaryTree>
    <BinaryTree type="DecisionTree" boostWeight="1.0000000000000000e+00" itree="261">
      <Node pos="s" depth="0" NCoef="0" IVar="3" Cut="-7.0737046003341675e-01" cType="1" res="-1.1031688190996647e-03" rms="4.8752030730247498e-01" purity="4.9895372986793518e-01" nType="0">
        <Node pos="l" depth="1" NCoef="0" IVar="3" Cut="-9.3891626596450806e-01" cType="1" res="-5.7270680554211140e-03" rms="4.8684424161911011e-01" purity="4.2141962051391602e-01" nType="0">
          <Node pos="l" depth="2" NCoef="0" IVar="-1" Cut="0.0000000000000000e+00" cType="1" res="-8.1915576010942459e-03" rms="4.3249544501304626e-01" purity="2.6283898949623108e-01" nType="-99"/>
          <Node pos="r" depth="2" NCoef="0" IVar="-1" Cut="0.0000000000000000e+00" cType="1" res="2.5130675567197613e-05" rms="4.9532821774482727e-01" purity="4.4861847162246704e-01" nType="-99"/>
        </Node>
        <Node pos="r" depth="1" NCoef="0" IVar="3" Cut="7.4585670232772827e-01" cType="1" res="3.3771840389817953e-03" rms="4.8813268542289734e-01" purity="5.7408076524734497e-01" nType="0">
          <Node pos="l" depth="2" NCoef="0" IVar="-1" Cut="0.0000000000000000e+00" cType="1" res="-5.1724817603826523e-03" rms="4.9814191460609436e-01" purity="4.7103992104530334e-01" nType="-99"/>
          <Node pos="r" depth="2" NCoef="0" IVar="-1" Cut="0.0000000000000000e+00" cType="1" res="1.1016854550689459e-03" rms="4.8717403411865234e-01" purity="5.8217269182205200e-01" nType="-99"/>
        </Node>
      </Node>
    </BinaryTree>
    <BinaryTree type="DecisionTree" boostWeight="1.0000000000000000e+00" itree="262">
      <Node pos="s" depth="0" NCoef="0" IVar="0" Cut="8.7279596328735352e+00" cType="1" res="-4.0920712053775787e-03" rms="4.8834165930747986e-01" purity="4.9574512243270874e-01" nType="0">
        <Node pos="l" depth="1" NCoef="0" IVar="1" Cut="3.0000000000000000e+00" cType="1" res="-8.1332551781088114e-04" rms="3.4521184861660004e-02" purity="4.9212682247161865e-01" nType="0">
          <Node pos="l" depth="2" NCoef="0" IVar="-1" Cut="0.0000000000000000e+00" cType="1" res="-1.8599507166072726e-04" rms="4.9480065703392029e-01" purity="5.0192332267761230e-01" nType="-99"/>
          <Node pos="r" depth="2" NCoef="0" IVar="-1" Cut="0.0000000000000000e+00" cType="1" res="-3.4752048086374998e-03" rms="4.9232023954391479e-01" purity="4.7321671247482300e-01" nType="-99"/>
        </Node>
        <Node pos="r" depth="1" NCoef="0" IVar="5" Cut="-6.9064450263977051e-01" cType="1" res="-1.4171736547723413e-03" rms="4.8635435104370117e-01" purity="4.9695152044296265e-01" nType="0">
          <Node pos="l" depth="2" NCoef="0" IVar="-1" Cut="0.0000000000000000e+00" cType="1" res="2.5703043211251497e-03" rms="4.8578527569770813e-01" purity="5.1116657257080078e-01" nType="-99"/>
          <Node pos="r" depth="2" NCoef="0" IVar="-1" Cut="0.0000000000000000e+00" cType="1" res="-6.7474134266376495e-04" rms="4.8640021681785583e-01" purity="4.9485570192337036e-01" nType="-99"/>
        </Node>
      </Node>
    </BinaryTree>
    <BinaryTree type="DecisionTree" boostWeight="1.0000000000000000e+00" itree="263">
      <Node pos="s" depth="0" NCoef="0" IVar="4" Cut="4.6732999384403229e-02" cType="1" res="3.7128927651792765e-03" rms="4.8868271708488464e-01" purity="5.0385433435440063e-01" nType="0">
        <Node pos="l" depth="1" NCoef="0" IVar="0" Cut="9.5118331909179688e+00" cType="1" res="4.9849168863147497e-04" rms="4.8984968662261963e-01" purity="4.9193871021270752e-01" nType="0">
          <Node pos="l" depth="2" NCoef="0" IVar="-1" Cut="0.0000000000000000e+00" cType="1" res="4.0724867722019553e-04" rms="4.9226361513137817e-01" purity="4.9566891789436340e-01" nType="-99"/>
          <Node pos="r" depth="2" NCoef="0" IVar="-1" Cut="0.0000000000000000e+00" cType="1" res="-2.9639364220201969e-03" rms="4.7765561938285828e-01" purity="4.7361531853675842e-01" nType="-99"/>
        </Node>
        <Node pos="r" depth="1" NCoef="0" IVar="4" Cut="8.5948848724365234e-01" cType="1" res="1.1821959167718887e-02" rms="4.8563179373741150e-01" purity="5.3391432762145996e-01" nType="0">
          <Node pos="l" depth="2" NCoef="0" IVar="-1" Cut="0.0000000000000000e+00" cType="1" res="3.2893691677600145e-03" rms="4.8763659596443176e-01" purity="5.3676432371139526e-01" nType="-99"/>
          <Node pos="r" depth="2" NCoef="0" IVar="-1" Cut="0.0000000000000000e+00" cType="1" res="-2.6568830944597721e-03" rms="4.7859272360801697e-01" purity="5.2540761232376099e-01" nType="-99"/>
        </Node>
      </Node>
    </BinaryTree>
    <BinaryTree type="DecisionTree" boostWeight="1.0000000000000000e+00" itree="264">
      <Node pos="s" depth="0" NCoef="0" IVar="0" Cut="8.9595088958740234e+00" cType="1" res="-3.2121406402438879e-03" rms="4.8823240399360657e-01" purity="4.9762135744094849e-01" nType="0">
        <Node pos="l" depth="1" NCoef="0" IVar="2" Cut="3.0000000000000000e+00" cType="1" res="-7.0310494629666209e-04" rms="3.8682967424392700e-02" purity="4.9341577291488647e-01" nType="0">
          <Node pos="l" depth="2" NCoef="0" IVar="-1" Cut="0.0000000000000000e+00" cType="1" res="-1.5153922140598297e-03" rms="4.9276337027549744e-01" purity="4.8924285173416138e-01" nType="-99"/>
          <Node pos="r" depth="2" NCoef="0" IVar="-1" Cut="0.0000000000000000e+00" cType="1" res="2.1199891343712807e-03" rms="4.9549841880798340e-01" purity="5.2778178453445435e-01" nType="-99"/>
        </Node>
        <Node pos="r" depth="1" NCoef="0" IVar="2" Cut="3.0000000000000000e+00" cType="1" res="1.1449421290308237e-03" rms="4.5162501931190491e-01" purity="5.0061029195785522e-01" nType="0">
          <Node pos="l" depth="2" NCoef="0" IVar="-1" Cut="0.0000000000000000e+00" cType="1" res="8.1123877316713333e-04" rms="4.8411971330642700e-01" purity="5.0255775451660156e-01" nType="-99"/>
          <Node pos="r" depth="2" NCoef="0" IVar="-1" Cut="0.0000000000000000e+00" cType="1" res="-4.8982189036905766e-03" rms="4.8867848515510559e-01" purity="4.8429349064826965e-01" nType="-99"/>
        </Node>
      </Node>
    </BinaryTree>
    <BinaryTree type="DecisionTree" boostWeight="1.0000000000000000e+00" itree="265">
      <Node pos="s" depth="0" NCoef="0" IVar="0" Cut="8.4704437255859375e+00" cType="1" res="9.3445880338549614e-04" rms="4.8839649558067322e-01" purity="5.0074976682662964e-01" nType="0">
        <Node pos="l" depth="1" NCoef="0" IVar="3" Cut="-6.9888079166412354e-01" cType="1" res="2.3493114858865738e-02" rms="4.9502667784690857e-01" purity="5.2879166603088379e-01" nType="0">
          <Node pos="l" depth="2" NCoef="0" IVar="-1" Cut="0.0000000000000000e+00" cType="1" res="3.4132157452404499e-03" rms="4.9692749977111816e-01" purity="5.0081741809844971e-01" nType="-99"/>
          <Node pos="r" depth="2" NCoef="0" IVar="-1" Cut="0.0000000000000000e+00" cType="1" res="1.1462518014013767e-03" rms="4.9280571937561035e-01" purity="5.5726289749145508e-01" nType="-99"/>
        </Node>
        <Node pos="r" depth="1" NCoef="0" IVar="0" Cut="8.8876628875732422e+00" cType="1" res="-2.6541105471551418e-03" rms="4.8723718523979187e-01" purity="4.9628892540931702e-01" nType="0">
          <Node pos="l" depth="2" NCoef="0" IVar="-1" Cut="0.0000000000000000e+00" cType="1" res="-2.1556620486080647e-03" rms="4.9274498224258423e-01" purity="4.8206868767738342e-01" nType="-99"/>
          <Node pos="r" depth="2" NCoef="0" IVar="-1" Cut="0.0000000000000000e+00" cType="1" res="5.1121349679306149e-04" rms="4.8513445258140564e-01" purity="5.0140398740768433e-01" nType="-99"/>
        </Node>
      </Node>
    </BinaryTree>
    <BinaryTree type="DecisionTree" boostWeight="1.0000000000000000e+00" itree="266">
      <Node pos="s" depth="0" NCoef="0" IVar="2" Cut="2.0000000000000000e+00" cType="1" res="-5.5148330284282565e-04" rms="3.7960425019264221e-02" purity="4.9879935383796692e-01" nType="0">
        <Node pos="l" depth="1" NCoef="0" IVar="4" Cut="4.8422820866107941e-02" cType="1" res="3.5329547245055437e-03" rms="4.8680564761161804e-01" purity="5.0293409824371338e-01" nType="0">
          <Node pos="l" depth="2" NCoef="0" IVar="-1" Cut="0.0000000000000000e+00" cType="1" res="1.0831097606569529e-03" rms="4.8769146203994751e-01" purity="4.9561846256256104e-01" nType="-99"/>
          <Node pos="r" depth="2" NCoef="0" IVar="-1" Cut="0.0000000000000000e+00" cType="1" res="-7.3076592525467277e-04" rms="4.8472678661346436e-01" purity="5.1923722028732300e-01" nType="-99"/>
        </Node>
        <Node pos="r" depth="1" NCoef="0" IVar="0" Cut="8.9450035095214844e+00" cType="1" res="-7.6956665143370628e-03" rms="4.9103814363479614e-01" purity="4.9312883615493774e-01" nType="0">
          <Node pos="l" depth="2" NCoef="0" IVar="-1" Cut="0.0000000000000000e+00" cType="1" res="-2.0328774116933346e-03" rms="4.9545735120773315e-01" purity="4.8478713631629944e-01" nType="-99"/>
          <Node pos="r" depth="2" NCoef="0" IVar="-1" Cut="0.0000000000000000e+00" cType="1" res="-3.1627563294023275e-04" rms="4.8772522807121277e-01" purity="4.9915337562561035e-01" nType="-99"/>
        </Node>
      </Node>
    </BinaryTree>
    <BinaryTree type="DecisionTree" boostWeight="1.0000000000000000e+00" itree="267">
      <Node pos="s" depth="0" NCoef="0" IVar="3" Cut="-8.9553654193878174e-01" cType="1" res="1.3594849733635783e-03" rms="4.8960977792739868e-01" purity="5.0173467397689819e-01" nType="0">
        <Node pos="l" depth="1" NCoef="0" IVar="3" Cut="-9.6292746067047119e-01" cType="1" res="1.6113467514514923e-02" rms="4.7636321187019348e-01" purity="3.7019371986389160e-01" nType="0">
          <Node pos="l" depth="2" NCoef="0" IVar="-1" Cut="0.0000000000000000e+00" cType="1" res="-3.2239081338047981e-04" rms="4.3791580200195312e-01" purity="2.6803264021873474e-01" nType="-99"/>
          <Node pos="r" depth="2" NCoef="0" IVar="-1" Cut="0.0000000000000000e+00" cType="1" res="3.3308300189673901e-03" rms="4.8258164525032043e-01" purity="3.8770407438278198e-01" nType="-99"/>
        </Node>
        <Node pos="r" depth="1" NCoef="0" IVar="1" Cut="3.0000000000000000e+00" cType="1" res="-2.4518050486221910e-04" rms="1.0547188669443130e-01" purity="5.2890354394912720e-01" nType="0">
          <Node pos="l" depth="2" NCoef="0" IVar="-1" Cut="0.0000000000000000e+00" cType="1" res="5.2194076124578714e-04" rms="4.9227970838546753e-01" purity="5.2956563234329224e-01" nType="-99"/>
          <Node pos="r" depth="2" NCoef="0" IVar="-1" Cut="0.0000000000000000e+00" cType="1" res="-1.8334796186536551e-03" rms="4.9202075600624084e-01" purity="5.2757215499877930e-01" nType="-99"/>
        </Node>
      </Node>
    </BinaryTree>
    <BinaryTree type="DecisionTree" boostWeight="1.0000000000000000e+00" itree="268">
      <Node pos="s" depth="0" NCoef="0" IVar="0" Cut="8.2049665451049805e+00" cType="1" res="-2.3135119117796421e-03" rms="4.8817721009254456e-01" purity="4.9806141853332520e-01" nType="0">
        <Node pos="l" depth="1" NCoef="0" IVar="-1" Cut="0.0000000000000000e+00" cType="1" res="-1.9844158086925745e-03" rms="4.9712812900543213e-01" purity="4.7302544116973877e-01" nType="-99"/>
        <Node pos="r" depth="1" NCoef="0" IVar="0" Cut="8.6602869033813477e+00" cType="1" res="-1.2481389567255974e-03" rms="4.8761910200119019e-01" purity="4.9954998493194580e-01" nType="0">
          <Node pos="l" depth="2" NCoef="0" IVar="-1" Cut="0.0000000000000000e+00" cType="1" res="9.1969524510204792e-04" rms="4.9423661828041077e-01" purity="5.1872330904006958e-01" nType="-99"/>
          <Node pos="r" depth="2" NCoef="0" IVar="-1" Cut="0.0000000000000000e+00" cType="1" res="-6.1284366529434919e-04" rms="4.8620086908340454e-01" purity="4.9554464221000671e-01" nType="-99"/>
        </Node>
      </Node>
    </BinaryTree>
    <BinaryTree type="DecisionTree" boostWeight="1.0000000000000000e+00" itree="269">
      <Node pos="s" depth="0" NCoef="0" IVar="0" Cut="8.1282701492309570e+00" cType="1" res="2.5083453510887921e-04" rms="4.8948535323143005e-01" purity="4.9962866306304932e-01" nType="0">
        <Node pos="l" depth="1" NCoef="0" IVar="-1" Cut="0.0000000000000000e+00" cType="1" res="-3.5661535803228617e-03" rms="4.9808743596076965e-01" purity="4.5759290456771851e-01" nType="-99"/>
        <Node pos="r" depth="1" NCoef="0" IVar="1" Cut="3.0000000000000000e+00" cType="1" res="1.6570193693041801e-03" rms="4.7180292010307312e-01" purity="5.0161778926849365e-01" nType="0">
          <Node pos="l" depth="2" NCoef="0" IVar="-1" Cut="0.0000000000000000e+00" cType="1" res="1.2344476999714971e-03" rms="4.8882636427879333e-01" purity="5.0612354278564453e-01" nType="-99"/>
          <Node pos="r" depth="2" NCoef="0" IVar="-1" Cut="0.0000000000000000e+00" cType="1" res="-1.3512999285012484e-03" rms="4.8916721343994141e-01" purity="4.9335837364196777e-01" nType="-99"/>
        </Node>
      </Node>
    </BinaryTree>
    <BinaryTree type="DecisionTree" boostWeight="1.0000000000000000e+00" itree="270">
      <Node pos="s" depth="0" NCoef="0" IVar="3" Cut="-8.0116289854049683e-01" cType="1" res="3.1832202803343534e-03" rms="4.8769104480743408e-01" purity="5.0312584638595581e-01" nType="0">
        <Node pos="l" depth="1" NCoef="0" IVar="3" Cut="-9.6292197704315186e-01" cType="1" res="-6.9410009309649467e-03" rms="4.8366701602935791e-01" purity="4.0191853046417236e-01" nType="0">
          <Node pos="l" depth="2" NCoef="0" IVar="-1" Cut="0.0000000000000000e+00" cType="1" res="-1.1356567963957787e-02" rms="4.0765792131423950e-01" purity="2.1888926625251770e-01" nType="-99"/>
          <Node pos="r" depth="2" NCoef="0" IVar="-1" Cut="0.0000000000000000e+00" cType="1" res="-6.0252362163737416e-04" rms="4.8855233192443848e-01" purity="4.1516041755676270e-01" nType="-99"/>
        </Node>
        <Node pos="r" depth="1" NCoef="0" IVar="4" Cut="4.3892443180084229e-02" cType="1" res="9.1678919270634651e-03" rms="4.8995584249496460e-01" purity="5.6295186281204224e-01" nType="0">
          <Node pos="l" depth="2" NCoef="0" IVar="-1" Cut="0.0000000000000000e+00" cType="1" res="1.9812709651887417e-03" rms="4.9231126904487610e-01" purity="5.5062627792358398e-01" nType="-99"/>
          <Node pos="r" depth="2" NCoef="0" IVar="-1" Cut="0.0000000000000000e+00" cType="1" res="-4.7290590009652078e-04" rms="4.8190367221832275e-01" purity="6.0364067554473877e-01" nType="-99"/>
        </Node>
      </Node>
    </BinaryTree>
    <BinaryTree type="DecisionTree" boostWeight="1.0000000000000000e+00" itree="271">
      <Node pos="s" depth="0" NCoef="0" IVar="0" Cut="8.6927433013916016e+00" cType="1" res="-5.7731976266950369e-04" rms="4.8872378468513489e-01" purity="4.9948459863662720e-01" nType="0">
        <Node pos="l" depth="1" NCoef="0" IVar="4" Cut="-6.8997615575790405e-01" cType="1" res="8.6572831496596336e-03" rms="4.9641898274421692e-01" purity="5.1289087533950806e-01" nType="0">
          <Node pos="l" depth="2" NCoef="0" IVar="-1" Cut="0.0000000000000000e+00" cType="1" res="3.5554058849811554e-03" rms="4.9513310194015503e-01" purity="5.0889295339584351e-01" nType="-99"/>
          <Node pos="r" depth="2" NCoef="0" IVar="-1" Cut="0.0000000000000000e+00" cType="1" res="-3.8518497603945434e-05" rms="4.9657928943634033e-01" purity="5.1434391736984253e-01" nType="-99"/>
        </Node>
        <Node pos="r" depth="1" NCoef="0" IVar="0" Cut="9.9775075912475586e+00" cType="1" res="-3.4237082581967115e-03" rms="4.8629200458526611e-01" purity="4.9535241723060608e-01" nType="0">
          <Node pos="l" depth="2" NCoef="0" IVar="-1" Cut="0.0000000000000000e+00" cType="1" res="-8.2059728447347879e-04" rms="4.8684903979301453e-01" purity="4.9492633342742920e-01" nType="-99"/>
          <Node pos="r" depth="2" NCoef="0" IVar="-1" Cut="0.0000000000000000e+00" cType="1" res="9.1184908524155617e-03" rms="4.6941760182380676e-01" purity="5.0736445188522339e-01" nType="-99"/>
        </Node>
      </Node>
    </BinaryTree>
    <BinaryTree type="DecisionTree" boostWeight="1.0000000000000000e+00" itree="272">
      <Node pos="s" depth="0" NCoef="0" IVar="1" Cut="4.0000000000000000e+00" cType="1" res="1.0830322280526161e-03" rms="3.1779152154922485e-01" purity="5.0021851062774658e-01" nType="0">
        <Node pos="l" depth="1" NCoef="0" IVar="3" Cut="-8.9605480432510376e-01" cType="1" res="-2.2588605061173439e-03" rms="4.8830100893974304e-01" purity="4.9615332484245300e-01" nType="0">
          <Node pos="l" depth="2" NCoef="0" IVar="-1" Cut="0.0000000000000000e+00" cType="1" res="-2.6466960553079844e-03" rms="4.6405175328254700e-01" purity="3.3125808835029602e-01" nType="-99"/>
          <Node pos="r" depth="2" NCoef="0" IVar="-1" Cut="0.0000000000000000e+00" cType="1" res="1.7827398551162332e-05" rms="4.9280443787574768e-01" purity="5.2795058488845825e-01" nType="-99"/>
        </Node>
        <Node pos="r" depth="1" NCoef="0" IVar="0" Cut="8.9121084213256836e+00" cType="1" res="1.6193496063351631e-02" rms="4.8759615421295166e-01" purity="5.2475208044052124e-01" nType="0">
          <Node pos="l" depth="2" NCoef="0" IVar="-1" Cut="0.0000000000000000e+00" cType="1" res="3.9137480780482292e-03" rms="4.9198263883590698e-01" purity="5.4473227262496948e-01" nType="-99"/>
          <Node pos="r" depth="2" NCoef="0" IVar="-1" Cut="0.0000000000000000e+00" cType="1" res="1.0699243284761906e-03" rms="4.8463135957717896e-01" purity="5.1284629106521606e-01" nType="-99"/>
        </Node>
      </Node>
    </BinaryTree>
    <BinaryTree type="DecisionTree" boostWeight="1.0000000000000000e+00" itree="273">
      <Node pos="s" depth="0" NCoef="0" IVar="4" Cut="-7.0525330305099487e-01" cType="1" res="1.8595502479001880e-03" rms="4.8902052640914917e-01" purity="5.0245529413223267e-01" nType="0">
        <Node pos="l" depth="1" NCoef="0" IVar="0" Cut="9.5323514938354492e+00" cType="1" res="1.2179224751889706e-02" rms="4.8713520169258118e-01" purity="4.8894485831260681e-01" nType="0">
          <Node pos="l" depth="2" NCoef="0" IVar="-1" Cut="0.0000000000000000e+00" cType="1" res="2.5247975718230009e-03" rms="4.8929992318153381e-01" purity="4.9354881048202515e-01" nType="-99"/>
          <Node pos="r" depth="2" NCoef="0" IVar="-1" Cut="0.0000000000000000e+00" cType="1" res="-4.0336777456104755e-03" rms="4.7383528947830200e-01" purity="4.6284469962120056e-01" nType="-99"/>
        </Node>
        <Node pos="r" depth="1" NCoef="0" IVar="0" Cut="9.4152011871337891e+00" cType="1" res="-2.0047244615852833e-03" rms="4.8966863751411438e-01" purity="5.0751429796218872e-01" nType="0">
          <Node pos="l" depth="2" NCoef="0" IVar="-1" Cut="0.0000000000000000e+00" cType="1" res="-6.2797463033348322e-04" rms="4.9224397540092468e-01" purity="5.0714063644409180e-01" nType="-99"/>
          <Node pos="r" depth="2" NCoef="0" IVar="-1" Cut="0.0000000000000000e+00" cType="1" res="1.6956226900219917e-03" rms="4.8042342066764832e-01" purity="5.0882595777511597e-01" nType="-99"/>
        </Node>
      </Node>
    </BinaryTree>
    <BinaryTree type="DecisionTree" boostWeight="1.0000000000000000e+00" itree="274">
      <Node pos="s" depth="0" NCoef="0" IVar="3" Cut="-7.0768195390701294e-01" cType="1" res="-1.8600170733407140e-03" rms="4.8763114213943481e-01" purity="4.9904111027717590e-01" nType="0">
        <Node pos="l" depth="1" NCoef="0" IVar="4" Cut="7.9631793498992920e-01" cType="1" res="-9.1110719367861748e-03" rms="4.8718452453613281e-01" purity="4.1757658123970032e-01" nType="0">
          <Node pos="l" depth="2" NCoef="0" IVar="-1" Cut="0.0000000000000000e+00" cType="1" res="-1.9913290161639452e-03" rms="4.8587590456008911e-01" purity="4.1186508536338806e-01" nType="-99"/>
          <Node pos="r" depth="2" NCoef="0" IVar="-1" Cut="0.0000000000000000e+00" cType="1" res="1.1281995102763176e-03" rms="4.9304792284965515e-01" purity="4.4475328922271729e-01" nType="-99"/>
        </Node>
        <Node pos="r" depth="1" NCoef="0" IVar="3" Cut="7.9763036966323853e-01" cType="1" res="5.0916201435029507e-03" rms="4.8795777559280396e-01" purity="5.7714176177978516e-01" nType="0">
          <Node pos="l" depth="2" NCoef="0" IVar="-1" Cut="0.0000000000000000e+00" cType="1" res="2.2721234709024429e-03" rms="4.9844527244567871e-01" purity="5.2582091093063354e-01" nType="-99"/>
          <Node pos="r" depth="2" NCoef="0" IVar="-1" Cut="0.0000000000000000e+00" cType="1" res="2.6108388556167483e-04" rms="4.8453044891357422e-01" purity="5.9342223405838013e-01" nType="-99"/>
        </Node>
      </Node>
    </BinaryTree>
    <BinaryTree type="DecisionTree" boostWeight="1.0000000000000000e+00" itree="275">
      <Node pos="s" depth="0" NCoef="0" IVar="3" Cut="-7.0759564638137817e-01" cType="1" res="8.8068220065906644e-04" rms="4.8956394195556641e-01" purity="5.0066608190536499e-01" nType="0">
        <Node pos="l" depth="1" NCoef="0" IVar="1" Cut="2.0000000000000000e+00" cType="1" res="1.7519175307825208e-03" rms="2.5339090824127197e-01" purity="4.3293914198875427e-01" nType="0">
          <Node pos="l" depth="2" NCoef="0" IVar="-1" Cut="0.0000000000000000e+00" cType="1" res="-3.8141451659612358e-04" rms="4.8943686485290527e-01" purity="4.2923176288604736e-01" nType="-99"/>
          <Node pos="r" depth="2" NCoef="0" IVar="-1" Cut="0.0000000000000000e+00" cType="1" res="1.6200948739424348e-03" rms="4.8986870050430298e-01" purity="4.3445202708244324e-01" nType="-99"/>
        </Node>
        <Node pos="r" depth="1" NCoef="0" IVar="3" Cut="8.7484073638916016e-01" cType="1" res="-4.5625735074281693e-03" rms="4.8929321765899658e-01" purity="5.6723743677139282e-01" nType="0">
          <Node pos="l" depth="2" NCoef="0" IVar="-1" Cut="0.0000000000000000e+00" cType="1" res="-1.9043816719204187e-03" rms="4.9888634681701660e-01" purity="5.1652503013610840e-01" nType="-99"/>
          <Node pos="r" depth="2" NCoef="0" IVar="-1" Cut="0.0000000000000000e+00" cType="1" res="1.0580185335129499e-03" rms="4.7682267427444458e-01" purity="6.3061010837554932e-01" nType="-99"/>
        </Node>
      </Node>
    </BinaryTree>
    <BinaryTree type="DecisionTree" boostWeight="1.0000000000000000e+00" itree="276">
      <Node pos="s" depth="0" NCoef="0" IVar="0" Cut="9.2702913284301758e+00" cType="1" res="2.9388368129730225e-03" rms="4.8885947465896606e-01" purity="5.0335353612899780e-01" nType="0">
        <Node pos="l" depth="1" NCoef="0" IVar="1" Cut="5.0000000000000000e+00" cType="1" res="-2.2758368868380785e-04" rms="1.2366570532321930e-01" purity="5.0864362716674805e-01" nType="0">
          <Node pos="l" depth="2" NCoef="0" IVar="-1" Cut="0.0000000000000000e+00" cType="1" res="1.0919483611360192e-03" rms="4.9218845367431641e-01" purity="5.0848340988159180e-01" nType="-99"/>
          <Node pos="r" depth="2" NCoef="0" IVar="-1" Cut="0.0000000000000000e+00" cType="1" res="-1.9937797915190458e-03" rms="4.9568092823028564e-01" purity="5.1189053058624268e-01" nType="-99"/>
        </Node>
        <Node pos="r" depth="1" NCoef="0" IVar="0" Cut="9.8574037551879883e+00" cType="1" res="-5.6741875596344471e-03" rms="4.8128184676170349e-01" purity="4.9224802851676941e-01" nType="0">
          <Node pos="l" depth="2" NCoef="0" IVar="-1" Cut="0.0000000000000000e+00" cType="1" res="-5.4441153770312667e-04" rms="4.8298090696334839e-01" purity="4.9699771404266357e-01" nType="-99"/>
          <Node pos="r" depth="2" NCoef="0" IVar="-1" Cut="0.0000000000000000e+00" cType="1" res="-9.1088563203811646e-03" rms="4.6960744261741638e-01" purity="4.6164557337760925e-01" nType="-99"/>
        </Node>
      </Node>
    </BinaryTree>
    <BinaryTree type="DecisionTree" boostWeight="1.0000000000000000e+00" itree="277">
      <Node pos="s" depth="0" NCoef="0" IVar="3" Cut="8.9726012945175171e-01" cType="1" res="1.9361288286745548e-03" rms="4.9008563160896301e-01" purity="5.0118708610534668e-01" nType="0">
        <Node pos="l" depth="1" NCoef="0" IVar="1" Cut="2.0000000000000000e+00" cType="1" res="1.6201169637497514e-04" rms="1.6703180968761444e-01" purity="4.7303506731987000e-01" nType="0">
          <Node pos="l" depth="2" NCoef="0" IVar="-1" Cut="0.0000000000000000e+00" cType="1" res="-6.7734747426584363e-04" rms="4.9326455593109131e-01" purity="4.7099983692169189e-01" nType="-99"/>
          <Node pos="r" depth="2" NCoef="0" IVar="-1" Cut="0.0000000000000000e+00" cType="1" res="1.3568968279287219e-03" rms="4.9350062012672424e-01" purity="4.7396978735923767e-01" nType="-99"/>
        </Node>
        <Node pos="r" depth="1" NCoef="0" IVar="3" Cut="9.3322241306304932e-01" cType="1" res="-1.0410270653665066e-02" rms="4.7304284572601318e-01" purity="6.3869732618331909e-01" nType="0">
          <Node pos="l" depth="2" NCoef="0" IVar="-1" Cut="0.0000000000000000e+00" cType="1" res="-4.8355860635638237e-03" rms="4.9048832058906555e-01" purity="5.8248227834701538e-01" nType="-99"/>
          <Node pos="r" depth="2" NCoef="0" IVar="-1" Cut="0.0000000000000000e+00" cType="1" res="1.5647193649783731e-03" rms="4.5366108417510986e-01" purity="6.9663351774215698e-01" nType="-99"/>
        </Node>
      </Node>
    </BinaryTree>
    <BinaryTree type="DecisionTree" boostWeight="1.0000000000000000e+00" itree="278">
      <Node pos="s" depth="0" NCoef="0" IVar="3" Cut="8.9578956365585327e-01" cType="1" res="-4.7847637324593961e-04" rms="4.8928534984588623e-01" purity="5.0047218799591064e-01" nType="0">
        <Node pos="l" depth="1" NCoef="0" IVar="0" Cut="8.8401851654052734e+00" cType="1" res="2.5819977745413780e-03" rms="4.9252682924270630e-01" purity="4.7201260924339294e-01" nType="0">
          <Node pos="l" depth="2" NCoef="0" IVar="-1" Cut="0.0000000000000000e+00" cType="1" res="1.0351516539230943e-03" rms="4.9761128425598145e-01" purity="4.9500039219856262e-01" nType="-99"/>
          <Node pos="r" depth="2" NCoef="0" IVar="-1" Cut="0.0000000000000000e+00" cType="1" res="-1.5980406897142529e-04" rms="4.8983967304229736e-01" purity="4.6011480689048767e-01" nType="-99"/>
        </Node>
        <Node pos="r" depth="1" NCoef="0" IVar="3" Cut="9.1376233100891113e-01" cType="1" res="-1.4589246362447739e-02" rms="4.7379785776138306e-01" purity="6.3168925046920776e-01" nType="0">
          <Node pos="l" depth="2" NCoef="0" IVar="-1" Cut="0.0000000000000000e+00" cType="1" res="-6.8610101006925106e-03" rms="4.9549472332000732e-01" purity="5.5191105604171753e-01" nType="-99"/>
          <Node pos="r" depth="2" NCoef="0" IVar="-1" Cut="0.0000000000000000e+00" cType="1" res="-1.1233231052756310e-03" rms="4.6622267365455627e-01" purity="6.5751606225967407e-01" nType="-99"/>
        </Node>
      </Node>
    </BinaryTree>
    <BinaryTree type="DecisionTree" boostWeight="1.0000000000000000e+00" itree="279">
      <Node pos="s" depth="0" NCoef="0" IVar="0" Cut="8.5443048477172852e+00" cType="1" res="-1.3177753426134586e-03" rms="4.8806685209274292e-01" purity="4.9993520975112915e-01" nType="0">
        <Node pos="l" depth="1" NCoef="0" IVar="0" Cut="8.3456449508666992e+00" cType="1" res="-1.2177593074738979e-02" rms="4.9625977873802185e-01" purity="4.9756473302841187e-01" nType="0">
          <Node pos="l" depth="2" NCoef="0" IVar="-1" Cut="0.0000000000000000e+00" cType="1" res="-3.6089878994971514e-04" rms="4.9687191843986511e-01" purity="4.9974301457405090e-01" nType="-99"/>
          <Node pos="r" depth="2" NCoef="0" IVar="-1" Cut="0.0000000000000000e+00" cType="1" res="-2.5373168755322695e-03" rms="4.9523589015007019e-01" purity="4.9471285939216614e-01" nType="-99"/>
        </Node>
        <Node pos="r" depth="1" NCoef="0" IVar="4" Cut="-8.9281696081161499e-01" cType="1" res="8.6832273518666625e-04" rms="4.8637160658836365e-01" purity="5.0041234493255615e-01" nType="0">
          <Node pos="l" depth="2" NCoef="0" IVar="-1" Cut="0.0000000000000000e+00" cType="1" res="5.6310244835913181e-03" rms="4.6818897128105164e-01" purity="4.9284520745277405e-01" nType="-99"/>
          <Node pos="r" depth="2" NCoef="0" IVar="-1" Cut="0.0000000000000000e+00" cType="1" res="-2.8692900741589256e-05" rms="4.8706004023551941e-01" purity="5.0071650743484497e-01" nType="-99"/>
        </Node>
      </Node>
    </BinaryTree>
    <BinaryTree type="DecisionTree" boostWeight="1.0000000000000000e+00" itree="280">
      <Node pos="s" depth="0" NCoef="0" IVar="1" Cut="4.0000000000000000e+00" cType="1" res="-9.6769095398485661e-04" rms="2.5197994709014893e-01" purity="4.9758508801460266e-01" nType="0">
        <Node pos="l" depth="1" NCoef="0" IVar="3" Cut="8.9695680141448975e-01" cType="1" res="-4.1987667791545391e-03" rms="4.8936250805854797e-01" purity="4.9492728710174561e-01" nType="0">
          <Node pos="l" depth="2" NCoef="0" IVar="-1" Cut="0.0000000000000000e+00" cType="1" res="-3.7636404158547521e-04" rms="4.9239543080329895e-01" purity="4.6746084094047546e-01" nType="-99"/>
          <Node pos="r" depth="2" NCoef="0" IVar="-1" Cut="0.0000000000000000e+00" cType="1" res="-2.4822109844535589e-03" rms="4.7323557734489441e-01" purity="6.3721239566802979e-01" nType="-99"/>
        </Node>
        <Node pos="r" depth="1" NCoef="0" IVar="0" Cut="8.9582166671752930e+00" cType="1" res="7.9740006476640701e-03" rms="4.8741427063941956e-01" purity="5.1425671577453613e-01" nType="0">
          <Node pos="l" depth="2" NCoef="0" IVar="-1" Cut="0.0000000000000000e+00" cType="1" res="3.2708076760172844e-03" rms="4.9141940474510193e-01" purity="5.3570312261581421e-01" nType="-99"/>
          <Node pos="r" depth="2" NCoef="0" IVar="-1" Cut="0.0000000000000000e+00" cType="1" res="-1.0873710270971060e-03" rms="4.8421627283096313e-01" purity="4.9955430626869202e-01" nType="-99"/>
        </Node>
      </Node>
    </BinaryTree>
    <BinaryTree type="DecisionTree" boostWeight="1.0000000000000000e+00" itree="281">
      <Node pos="s" depth="0" NCoef="0" IVar="2" Cut="3.0000000000000000e+00" cType="1" res="-4.8678110033506528e-05" rms="1.6275234520435333e-01" purity="5.0014668703079224e-01" nType="0">
        <Node pos="l" depth="1" NCoef="0" IVar="5" Cut="-6.9003391265869141e-01" cType="1" res="-7.0073368260636926e-04" rms="4.8790371417999268e-01" purity="4.9760940670967102e-01" nType="0">
          <Node pos="l" depth="2" NCoef="0" IVar="-1" Cut="0.0000000000000000e+00" cType="1" res="-1.5491205267608166e-03" rms="4.8762321472167969e-01" purity="4.8463413119316101e-01" nType="-99"/>
          <Node pos="r" depth="2" NCoef="0" IVar="-1" Cut="0.0000000000000000e+00" cType="1" res="8.7153675849549472e-05" rms="4.8793259263038635e-01" purity="4.9953570961952209e-01" nType="-99"/>
        </Node>
        <Node pos="r" depth="1" NCoef="0" IVar="0" Cut="8.9028062820434570e+00" cType="1" res="1.9156068563461304e-02" rms="4.9323016405105591e-01" purity="5.2122300863265991e-01" nType="0">
          <Node pos="l" depth="2" NCoef="0" IVar="-1" Cut="0.0000000000000000e+00" cType="1" res="4.9221944063901901e-03" rms="4.9562382698059082e-01" purity="5.4688483476638794e-01" nType="-99"/>
          <Node pos="r" depth="2" NCoef="0" IVar="-1" Cut="0.0000000000000000e+00" cType="1" res="1.9372197566553950e-03" rms="4.9139609932899475e-01" purity="5.0513041019439697e-01" nType="-99"/>
        </Node>
      </Node>
    </BinaryTree>
    <BinaryTree type="DecisionTree" boostWeight="1.0000000000000000e+00" itree="282">
      <Node pos="s" depth="0" NCoef="0" IVar="0" Cut="8.7219476699829102e+00" cType="1" res="-3.6993958055973053e-03" rms="4.8881793022155762e-01" purity="4.9681854248046875e-01" nType="0">
        <Node pos="l" depth="1" NCoef="0" IVar="4" Cut="-7.7901929616928101e-01" cType="1" res="-1.2592704035341740e-02" rms="4.9418365955352783e-01" purity="4.9243524670600891e-01" nType="0">
          <Node pos="l" depth="2" NCoef="0" IVar="-1" Cut="0.0000000000000000e+00" cType="1" res="-5.4314816370606422e-03" rms="4.8831558227539062e-01" purity="4.1982316970825195e-01" nType="-99"/>
          <Node pos="r" depth="2" NCoef="0" IVar="-1" Cut="0.0000000000000000e+00" cType="1" res="-5.4881308460608125e-04" rms="4.9497550725936890e-01" purity="5.0663930177688599e-01" nType="-99"/>
        </Node>
        <Node pos="r" depth="1" NCoef="0" IVar="3" Cut="8.9730787277221680e-01" cType="1" res="-6.4471492078155279e-04" rms="4.8692381381988525e-01" purity="4.9832412600517273e-01" nType="0">
          <Node pos="l" depth="2" NCoef="0" IVar="-1" Cut="0.0000000000000000e+00" cType="1" res="3.5412469878792763e-04" rms="4.9058461189270020e-01" purity="4.6456405520439148e-01" nType="-99"/>
          <Node pos="r" depth="2" NCoef="0" IVar="-1" Cut="0.0000000000000000e+00" cType="1" res="-2.5201530661433935e-03" rms="4.7079584002494812e-01" purity="6.4262872934341431e-01" nType="-99"/>
        </Node>
      </Node>
    </BinaryTree>
    <BinaryTree type="DecisionTree" boostWeight="1.0000000000000000e+00" itree="283">
      <Node pos="s" depth="0" NCoef="0" IVar="3" Cut="-7.0727038383483887e-01" cType="1" res="-6.4365379512310028e-04" rms="4.8834168910980225e-01" purity="4.9870303273200989e-01" nType="0">
        <Node pos="l" depth="1" NCoef="0" IVar="2" Cut="2.0000000000000000e+00" cType="1" res="-9.5323147252202034e-04" rms="1.5514771640300751e-01" purity="4.2035460472106934e-01" nType="0">
          <Node pos="l" depth="2" NCoef="0" IVar="-1" Cut="0.0000000000000000e+00" cType="1" res="2.0126876188442111e-04" rms="4.8664885759353638e-01" purity="4.1998696327209473e-01" nType="-99"/>
          <Node pos="r" depth="2" NCoef="0" IVar="-1" Cut="0.0000000000000000e+00" cType="1" res="-2.5949005503207445e-03" rms="4.8991706967353821e-01" purity="4.2085576057434082e-01" nType="-99"/>
        </Node>
        <Node pos="r" depth="1" NCoef="0" IVar="3" Cut="9.0111148357391357e-01" cType="1" res="4.4569903984665871e-03" rms="4.8851883411407471e-01" purity="5.7561892271041870e-01" nType="0">
          <Node pos="l" depth="2" NCoef="0" IVar="-1" Cut="0.0000000000000000e+00" cType="1" res="1.4231840614229441e-03" rms="4.9669173359870911e-01" purity="5.4346472024917603e-01" nType="-99"/>
          <Node pos="r" depth="2" NCoef="0" IVar="-1" Cut="0.0000000000000000e+00" cType="1" res="-1.1570553760975599e-03" rms="4.7064036130905151e-01" purity="6.4343959093093872e-01" nType="-99"/>
        </Node>
      </Node>
    </BinaryTree>
    <BinaryTree type="DecisionTree" boostWeight="1.0000000000000000e+00" itree="284">
      <Node pos="s" depth="0" NCoef="0" IVar="4" Cut="-7.0241034030914307e-01" cType="1" res="2.3512220941483974e-03" rms="4.8832291364669800e-01" purity="5.0142198801040649e-01" nType="0">
        <Node pos="l" depth="1" NCoef="0" IVar="1" Cut="4.0000000000000000e+00" cType="1" res="4.0752780623733997e-03" rms="2.8928080201148987e-01" purity="4.8637631535530090e-01" nType="0">
          <Node pos="l" depth="2" NCoef="0" IVar="-1" Cut="0.0000000000000000e+00" cType="1" res="2.6723733171820641e-03" rms="4.8620578646659851e-01" purity="4.9070617556571960e-01" nType="-99"/>
          <Node pos="r" depth="2" NCoef="0" IVar="-1" Cut="0.0000000000000000e+00" cType="1" res="-1.7874308396130800e-03" rms="4.8201769590377808e-01" purity="4.6717506647109985e-01" nType="-99"/>
        </Node>
        <Node pos="r" depth="1" NCoef="0" IVar="5" Cut="4.9233440309762955e-02" cType="1" res="-9.8249060101807117e-04" rms="4.8930063843727112e-01" purity="5.0698423385620117e-01" nType="0">
          <Node pos="l" depth="2" NCoef="0" IVar="-1" Cut="0.0000000000000000e+00" cType="1" res="-4.0835724212229252e-04" rms="4.8967221379280090e-01" purity="5.0272566080093384e-01" nType="-99"/>
          <Node pos="r" depth="2" NCoef="0" IVar="-1" Cut="0.0000000000000000e+00" cType="1" res="2.6384089142084122e-03" rms="4.8488074541091919e-01" purity="5.5347728729248047e-01" nType="-99"/>
        </Node>
      </Node>
    </BinaryTree>
    <BinaryTree type="DecisionTree" boostWeight="1.0000000000000000e+00" itree="285">
      <Node pos="s" depth="0" NCoef="0" IVar="0" Cut="8.9159507751464844e+00" cType="1" res="-1.2206645915284753e-03" rms="4.8846921324729919e-01" purity="4.9835893511772156e-01" nType="0">
        <Node pos="l" depth="1" NCoef="0" IVar="5" Cut="4.5622743666172028e-02" cType="1" res="-1.1334829032421112e-02" rms="4.9400073289871216e-01" purity="4.9009746313095093e-01" nType="0">
          <Node pos="l" depth="2" NCoef="0" IVar="-1" Cut="0.0000000000000000e+00" cType="1" res="-1.7087949672713876e-03" rms="4.9457302689552307e-01" purity="4.8538753390312195e-01" nType="-99"/>
          <Node pos="r" depth="2" NCoef="0" IVar="-1" Cut="0.0000000000000000e+00" cType="1" res="1.5172748826444149e-03" rms="4.8905283212661743e-01" purity="5.2490413188934326e-01" nType="-99"/>
        </Node>
        <Node pos="r" depth="1" NCoef="0" IVar="4" Cut="-8.9126771688461304e-01" cType="1" res="5.1325038075447083e-03" rms="4.8485448956489563e-01" purity="5.0354838371276855e-01" nType="0">
          <Node pos="l" depth="2" NCoef="0" IVar="-1" Cut="0.0000000000000000e+00" cType="1" res="-6.6614584065973759e-03" rms="4.6871134638786316e-01" purity="4.3360996246337891e-01" nType="-99"/>
          <Node pos="r" depth="2" NCoef="0" IVar="-1" Cut="0.0000000000000000e+00" cType="1" res="1.3737534172832966e-03" rms="4.8555225133895874e-01" purity="5.0687563419342041e-01" nType="-99"/>
        </Node>
      </Node>
    </BinaryTree>
    <BinaryTree type="DecisionTree" boostWeight="1.0000000000000000e+00" itree="286">
      <Node pos="s" depth="0" NCoef="0" IVar="0" Cut="8.1768674850463867e+00" cType="1" res="3.5246326588094234e-03" rms="4.8803716897964478e-01" purity="5.0409203767776489e-01" nType="0">
        <Node pos="l" depth="1" NCoef="0" IVar="-1" Cut="0.0000000000000000e+00" cType="1" res="-3.4405221231281757e-03" rms="4.9668133258819580e-01" purity="4.6017760038375854e-01" nType="-99"/>
        <Node pos="r" depth="1" NCoef="0" IVar="4" Cut="-7.0534306764602661e-01" cType="1" res="5.6877583265304565e-03" rms="4.8745742440223694e-01" purity="5.0655525922775269e-01" nType="0">
          <Node pos="l" depth="2" NCoef="0" IVar="-1" Cut="0.0000000000000000e+00" cType="1" res="-9.1963232262060046e-04" rms="4.8453566431999207e-01" purity="4.7242373228073120e-01" nType="-99"/>
          <Node pos="r" depth="2" NCoef="0" IVar="-1" Cut="0.0000000000000000e+00" cType="1" res="1.6218032687902451e-03" rms="4.8850122094154358e-01" purity="5.1959925889968872e-01" nType="-99"/>
        </Node>
      </Node>
    </BinaryTree>
    <BinaryTree type="DecisionTree" boostWeight="1.0000000000000000e+00" itree="287">
      <Node pos="s" depth="0" NCoef="0" IVar="3" Cut="8.0205827951431274e-01" cType="1" res="-3.3466261811554432e-03" rms="4.8796707391738892e-01" purity="4.9715068936347961e-01" nType="0">
        <Node pos="l" depth="1" NCoef="0" IVar="2" Cut="2.0000000000000000e+00" cType="1" res="-3.2829403062351048e-04" rms="5.0911121070384979e-02" purity="4.3782287836074829e-01" nType="0">
          <Node pos="l" depth="2" NCoef="0" IVar="-1" Cut="0.0000000000000000e+00" cType="1" res="-7.3045698627538513e-06" rms="4.8920109868049622e-01" purity="4.3565759062767029e-01" nType="-99"/>
          <Node pos="r" depth="2" NCoef="0" IVar="-1" Cut="0.0000000000000000e+00" cType="1" res="-2.4369412567466497e-03" rms="4.9115464091300964e-01" purity="4.4054195284843445e-01" nType="-99"/>
        </Node>
        <Node pos="r" depth="1" NCoef="0" IVar="2" Cut="2.0000000000000000e+00" cType="1" res="-1.1729073012247682e-03" rms="1.7196035385131836e-01" purity="5.9511613845825195e-01" nType="0">
          <Node pos="l" depth="2" NCoef="0" IVar="-1" Cut="0.0000000000000000e+00" cType="1" res="-1.2048510834574699e-03" rms="4.8382225632667542e-01" purity="5.8985000848770142e-01" nType="-99"/>
          <Node pos="r" depth="2" NCoef="0" IVar="-1" Cut="0.0000000000000000e+00" cType="1" res="2.9119155369699001e-03" rms="4.8474875092506409e-01" purity="6.0320186614990234e-01" nType="-99"/>
        </Node>
      </Node>
    </BinaryTree>
    <BinaryTree type="DecisionTree" boostWeight="1.0000000000000000e+00" itree="288">
      <Node pos="s" depth="0" NCoef="0" IVar="3" Cut="-8.0208969116210938e-01" cType="1" res="-1.9624428823590279e-03" rms="4.8758444190025330e-01" purity="4.9874052405357361e-01" nType="0">
        <Node pos="l" depth="1" NCoef="0" IVar="4" Cut="-7.9622668027877808e-01" cType="1" res="-1.1323139071464539e-02" rms="4.8222488164901733e-01" purity="3.9665576815605164e-01" nType="0">
          <Node pos="l" depth="2" NCoef="0" IVar="-1" Cut="0.0000000000000000e+00" cType="1" res="-5.8686337433755398e-03" rms="4.6107706427574158e-01" purity="3.1659793853759766e-01" nType="-99"/>
          <Node pos="r" depth="2" NCoef="0" IVar="-1" Cut="0.0000000000000000e+00" cType="1" res="-1.0735184187069535e-03" rms="4.8650497198104858e-01" purity="4.1379603743553162e-01" nType="-99"/>
        </Node>
        <Node pos="r" depth="1" NCoef="0" IVar="0" Cut="9.0306167602539062e+00" cType="1" res="3.4374103415757418e-03" rms="4.9056833982467651e-01" purity="5.5762958526611328e-01" nType="0">
          <Node pos="l" depth="2" NCoef="0" IVar="-1" Cut="0.0000000000000000e+00" cType="1" res="1.5501177404075861e-03" rms="4.9341356754302979e-01" purity="5.5246764421463013e-01" nType="-99"/>
          <Node pos="r" depth="2" NCoef="0" IVar="-1" Cut="0.0000000000000000e+00" cType="1" res="-1.1358438059687614e-03" rms="4.8766967654228210e-01" purity="5.6256520748138428e-01" nType="-99"/>
        </Node>
      </Node>
    </BinaryTree>
    <BinaryTree type="DecisionTree" boostWeight="1.0000000000000000e+00" itree="289">
      <Node pos="s" depth="0" NCoef="0" IVar="0" Cut="9.1745986938476562e+00" cType="1" res="-4.6891346573829651e-03" rms="4.8805916309356689e-01" purity="4.9601373076438904e-01" nType="0">
        <Node pos="l" depth="1" NCoef="0" IVar="0" Cut="8.5279397964477539e+00" cType="1" res="-8.5268672555685043e-03" rms="4.9238029122352600e-01" purity="4.9426203966140747e-01" nType="0">
          <Node pos="l" depth="2" NCoef="0" IVar="-1" Cut="0.0000000000000000e+00" cType="1" res="2.5974394520744681e-04" rms="4.9657297134399414e-01" purity="5.0974845886230469e-01" nType="-99"/>
          <Node pos="r" depth="2" NCoef="0" IVar="-1" Cut="0.0000000000000000e+00" cType="1" res="-1.8120680470019579e-03" rms="4.9080091714859009e-01" purity="4.8868715763092041e-01" nType="-99"/>
        </Node>
        <Node pos="r" depth="1" NCoef="0" IVar="3" Cut="8.0220818519592285e-01" cType="1" res="1.0452076094225049e-03" rms="4.8147329688072205e-01" purity="4.9863111972808838e-01" nType="0">
          <Node pos="l" depth="2" NCoef="0" IVar="-1" Cut="0.0000000000000000e+00" cType="1" res="-1.0732266819104552e-03" rms="4.8438096046447754e-01" purity="4.1645881533622742e-01" nType="-99"/>
          <Node pos="r" depth="2" NCoef="0" IVar="-1" Cut="0.0000000000000000e+00" cType="1" res="2.3568975739181042e-03" rms="4.7691091895103455e-01" purity="6.2289297580718994e-01" nType="-99"/>
        </Node>
      </Node>
    </BinaryTree>
    <BinaryTree type="DecisionTree" boostWeight="1.0000000000000000e+00" itree="290">
      <Node pos="s" depth="0" NCoef="0" IVar="4" Cut="4.7128021717071533e-02" cType="1" res="-2.8370719519443810e-04" rms="4.8826864361763000e-01" purity="4.9958553910255432e-01" nType="0">
        <Node pos="l" depth="1" NCoef="0" IVar="4" Cut="-7.0199263095855713e-01" cType="1" res="3.4552849829196930e-03" rms="4.8887628316879272e-01" purity="4.9418148398399353e-01" nType="0">
          <Node pos="l" depth="2" NCoef="0" IVar="-1" Cut="0.0000000000000000e+00" cType="1" res="-1.4324176590889692e-03" rms="4.8359382152557373e-01" purity="4.6671786904335022e-01" nType="-99"/>
          <Node pos="r" depth="2" NCoef="0" IVar="-1" Cut="0.0000000000000000e+00" cType="1" res="1.7081284895539284e-03" rms="4.9194595217704773e-01" purity="5.1107275485992432e-01" nType="-99"/>
        </Node>
        <Node pos="r" depth="1" NCoef="0" IVar="4" Cut="8.7053209543228149e-01" cType="1" res="-9.8632406443357468e-03" rms="4.8657727241516113e-01" purity="5.1343119144439697e-01" nType="0">
          <Node pos="l" depth="2" NCoef="0" IVar="-1" Cut="0.0000000000000000e+00" cType="1" res="-6.8758765701204538e-04" rms="4.8847034573554993e-01" purity="5.1455903053283691e-01" nType="-99"/>
          <Node pos="r" depth="2" NCoef="0" IVar="-1" Cut="0.0000000000000000e+00" cType="1" res="-5.6895264424383640e-03" rms="4.7847008705139160e-01" purity="5.0899893045425415e-01" nType="-99"/>
        </Node>
      </Node>
    </BinaryTree>
    <BinaryTree type="DecisionTree" boostWeight="1.0000000000000000e+00" itree="291">
      <Node pos="s" depth="0" NCoef="0" IVar="1" Cut="2.0000000000000000e+00" cType="1" res="1.0169680172111839e-04" rms="1.6567251086235046e-01" purity="4.9792581796646118e-01" nType="0">
        <Node pos="l" depth="1" NCoef="0" IVar="3" Cut="-7.0694607496261597e-01" cType="1" res="4.1628959588706493e-03" rms="4.9049627780914307e-01" purity="5.0584101676940918e-01" nType="0">
          <Node pos="l" depth="2" NCoef="0" IVar="-1" Cut="0.0000000000000000e+00" cType="1" res="2.2931115236133337e-03" rms="4.9098888039588928e-01" purity="4.4678908586502075e-01" nType="-99"/>
          <Node pos="r" depth="2" NCoef="0" IVar="-1" Cut="0.0000000000000000e+00" cType="1" res="-9.5081672770902514e-04" rms="4.8980343341827393e-01" purity="5.6269645690917969e-01" nType="-99"/>
        </Node>
        <Node pos="r" depth="1" NCoef="0" IVar="0" Cut="8.6575946807861328e+00" cType="1" res="-4.5773428864777088e-03" rms="4.8778301477432251e-01" purity="4.9460047483444214e-01" nType="0">
          <Node pos="l" depth="2" NCoef="0" IVar="-1" Cut="0.0000000000000000e+00" cType="1" res="3.8993897032923996e-04" rms="4.9608588218688965e-01" purity="5.0935572385787964e-01" nType="-99"/>
          <Node pos="r" depth="2" NCoef="0" IVar="-1" Cut="0.0000000000000000e+00" cType="1" res="-1.2724349508062005e-03" rms="4.8545667529106140e-01" purity="4.9055370688438416e-01" nType="-99"/>
        </Node>
      </Node>
    </BinaryTree>
    <BinaryTree type="DecisionTree" boostWeight="1.0000000000000000e+00" itree="292">
      <Node pos="s" depth="0" NCoef="0" IVar="4" Cut="-7.9886198043823242e-01" cType="1" res="7.5624091550707817e-04" rms="4.8844665288925171e-01" purity="4.9983021616935730e-01" nType="0">
        <Node pos="l" depth="1" NCoef="0" IVar="4" Cut="-8.3465677499771118e-01" cType="1" res="-1.3265070505440235e-02" rms="4.8123830556869507e-01" purity="4.5325091481208801e-01" nType="0">
          <Node pos="l" depth="2" NCoef="0" IVar="-1" Cut="0.0000000000000000e+00" cType="1" res="-4.6291821636259556e-03" rms="4.7723254561424255e-01" purity="4.3896028399467468e-01" nType="-99"/>
          <Node pos="r" depth="2" NCoef="0" IVar="-1" Cut="0.0000000000000000e+00" cType="1" res="1.7975477967411280e-03" rms="4.8812016844749451e-01" purity="4.8144036531448364e-01" nType="-99"/>
        </Node>
        <Node pos="r" depth="1" NCoef="0" IVar="5" Cut="-7.8285032510757446e-01" cType="1" res="3.2099550589919090e-03" rms="4.8965591192245483e-01" purity="5.0798153877258301e-01" nType="0">
          <Node pos="l" depth="2" NCoef="0" IVar="-1" Cut="0.0000000000000000e+00" cType="1" res="-4.2304517701268196e-03" rms="4.8716118931770325e-01" purity="4.9611112475395203e-01" nType="-99"/>
          <Node pos="r" depth="2" NCoef="0" IVar="-1" Cut="0.0000000000000000e+00" cType="1" res="6.7386287264525890e-04" rms="4.8972630500793457e-01" purity="5.0847190618515015e-01" nType="-99"/>
        </Node>
      </Node>
    </BinaryTree>
    <BinaryTree type="DecisionTree" boostWeight="1.0000000000000000e+00" itree="293">
      <Node pos="s" depth="0" NCoef="0" IVar="0" Cut="9.2769765853881836e+00" cType="1" res="-2.8736742679029703e-03" rms="4.8797270655632019e-01" purity="4.9594184756278992e-01" nType="0">
        <Node pos="l" depth="1" NCoef="0" IVar="5" Cut="7.9265290498733521e-01" cType="1" res="-7.5222970917820930e-03" rms="4.9187365174293518e-01" purity="4.9289792776107788e-01" nType="0">
          <Node pos="l" depth="2" NCoef="0" IVar="-1" Cut="0.0000000000000000e+00" cType="1" res="-1.2419066624715924e-03" rms="4.9193304777145386e-01" purity="4.9048647284507751e-01" nType="-99"/>
          <Node pos="r" depth="2" NCoef="0" IVar="-1" Cut="0.0000000000000000e+00" cType="1" res="3.0964447651058435e-03" rms="4.8984399437904358e-01" purity="5.3735738992691040e-01" nType="-99"/>
        </Node>
        <Node pos="r" depth="1" NCoef="0" IVar="5" Cut="4.3501406908035278e-02" cType="1" res="6.9886702112853527e-03" rms="4.7944232821464539e-01" purity="5.0239974260330200e-01" nType="0">
          <Node pos="l" depth="2" NCoef="0" IVar="-1" Cut="0.0000000000000000e+00" cType="1" res="9.3104422558099031e-04" rms="4.7989386320114136e-01" purity="4.9768596887588501e-01" nType="-99"/>
          <Node pos="r" depth="2" NCoef="0" IVar="-1" Cut="0.0000000000000000e+00" cType="1" res="7.6566478237509727e-03" rms="4.7567826509475708e-01" purity="5.3525787591934204e-01" nType="-99"/>
        </Node>
      </Node>
    </BinaryTree>
    <BinaryTree type="DecisionTree" boostWeight="1.0000000000000000e+00" itree="294">
      <Node pos="s" depth="0" NCoef="0" IVar="0" Cut="8.2049665451049805e+00" cType="1" res="2.4922178126871586e-03" rms="4.8850223422050476e-01" purity="5.0116002559661865e-01" nType="0">
        <Node pos="l" depth="1" NCoef="0" IVar="-1" Cut="0.0000000000000000e+00" cType="1" res="-1.6402840847149491e-03" rms="4.9723973870277405e-01" purity="4.7587171196937561e-01" nType="-99"/>
        <Node pos="r" depth="1" NCoef="0" IVar="2" Cut="2.0000000000000000e+00" cType="1" res="2.8376898262649775e-03" rms="3.9686870574951172e-01" purity="5.0276678800582886e-01" nType="0">
          <Node pos="l" depth="2" NCoef="0" IVar="-1" Cut="0.0000000000000000e+00" cType="1" res="1.0979772778227925e-03" rms="4.8621201515197754e-01" purity="5.0548833608627319e-01" nType="-99"/>
          <Node pos="r" depth="2" NCoef="0" IVar="-1" Cut="0.0000000000000000e+00" cType="1" res="-9.7071148047689348e-05" rms="4.9020695686340332e-01" purity="4.9903768301010132e-01" nType="-99"/>
        </Node>
      </Node>
    </BinaryTree>
    <BinaryTree type="DecisionTree" boostWeight="1.0000000000000000e+00" itree="295">
      <Node pos="s" depth="0" NCoef="0" IVar="0" Cut="8.2430858612060547e+00" cType="1" res="-2.0702120382338762e-03" rms="4.8797821998596191e-01" purity="4.9714010953903198e-01" nType="0">
        <Node pos="l" depth="1" NCoef="0" IVar="-1" Cut="0.0000000000000000e+00" cType="1" res="1.8245731480419636e-03" rms="4.9972546100616455e-01" purity="5.0992667675018311e-01" nType="-99"/>
        <Node pos="r" depth="1" NCoef="0" IVar="3" Cut="-8.9604014158248901e-01" cType="1" res="-3.5068353172391653e-03" rms="4.8711866140365601e-01" purity="4.9625146389007568e-01" nType="0">
          <Node pos="l" depth="2" NCoef="0" IVar="-1" Cut="0.0000000000000000e+00" cType="1" res="-3.6375580821186304e-03" rms="4.6289673447608948e-01" purity="3.3043220639228821e-01" nType="-99"/>
          <Node pos="r" depth="2" NCoef="0" IVar="-1" Cut="0.0000000000000000e+00" cType="1" res="-4.8790127038955688e-05" rms="4.9197855591773987e-01" purity="5.3096812963485718e-01" nType="-99"/>
        </Node>
      </Node>
    </BinaryTree>
    <BinaryTree type="DecisionTree" boostWeight="1.0000000000000000e+00" itree="296">
      <Node pos="s" depth="0" NCoef="0" IVar="4" Cut="-7.0351266860961914e-01" cType="1" res="-4.3922145850956440e-03" rms="4.8916038870811462e-01" purity="4.9461880326271057e-01" nType="0">
        <Node pos="l" depth="1" NCoef="0" IVar="3" Cut="-8.9525884389877319e-01" cType="1" res="5.4867030121386051e-03" rms="4.8864674568176270e-01" purity="4.7916188836097717e-01" nType="0">
          <Node pos="l" depth="2" NCoef="0" IVar="-1" Cut="0.0000000000000000e+00" cType="1" res="7.9575236886739731e-03" rms="4.7058174014091492e-01" purity="3.4934943914413452e-01" nType="-99"/>
          <Node pos="r" depth="2" NCoef="0" IVar="-1" Cut="0.0000000000000000e+00" cType="1" res="-5.9043179498985410e-04" rms="4.9262824654579163e-01" purity="5.1167273521423340e-01" nType="-99"/>
        </Node>
        <Node pos="r" depth="1" NCoef="0" IVar="1" Cut="4.0000000000000000e+00" cType="1" res="-3.7876395508646965e-03" rms="3.4957736730575562e-01" purity="5.0042134523391724e-01" nType="0">
          <Node pos="l" depth="2" NCoef="0" IVar="-1" Cut="0.0000000000000000e+00" cType="1" res="-8.7869312847033143e-04" rms="4.8904168605804443e-01" purity="5.0092560052871704e-01" nType="-99"/>
          <Node pos="r" depth="2" NCoef="0" IVar="-1" Cut="0.0000000000000000e+00" cType="1" res="-4.2557609267532825e-03" rms="4.9074018001556396e-01" purity="4.9686521291732788e-01" nType="-99"/>
        </Node>
      </Node>
    </BinaryTree>
    <BinaryTree type="DecisionTree" boostWeight="1.0000000000000000e+00" itree="297">
      <Node pos="s" depth="0" NCoef="0" IVar="0" Cut="8.2049665451049805e+00" cType="1" res="4.3048235238529742e-04" rms="4.8824614286422729e-01" purity="4.9994724988937378e-01" nType="0">
        <Node pos="l" depth="1" NCoef="0" IVar="-1" Cut="0.0000000000000000e+00" cType="1" res="-1.8633039435371757e-03" rms="4.9660447239875793e-01" purity="4.7561886906623840e-01" nType="-99"/>
        <Node pos="r" depth="1" NCoef="0" IVar="4" Cut="-8.9293968677520752e-01" cType="1" res="1.6551297158002853e-03" rms="4.8768919706344604e-01" purity="5.0147885084152222e-01" nType="0">
          <Node pos="l" depth="2" NCoef="0" IVar="-1" Cut="0.0000000000000000e+00" cType="1" res="4.4198296964168549e-03" rms="4.8101609945297241e-01" purity="4.7601640224456787e-01" nType="-99"/>
          <Node pos="r" depth="2" NCoef="0" IVar="-1" Cut="0.0000000000000000e+00" cType="1" res="1.3686744205188006e-04" rms="4.8792514204978943e-01" purity="5.0245767831802368e-01" nType="-99"/>
        </Node>
      </Node>
    </BinaryTree>
    <BinaryTree type="DecisionTree" boostWeight="1.0000000000000000e+00" itree="298">
      <Node pos="s" depth="0" NCoef="0" IVar="3" Cut="-8.0218440294265747e-01" cType="1" res="2.9240956064313650e-03" rms="4.8832732439041138e-01" purity="5.0250029563903809e-01" nType="0">
        <Node pos="l" depth="1" NCoef="0" IVar="1" Cut="2.0000000000000000e+00" cType="1" res="-4.0769027546048164e-03" rms="3.0706614255905151e-01" purity="4.0365570783615112e-01" nType="0">
          <Node pos="l" depth="2" NCoef="0" IVar="-1" Cut="0.0000000000000000e+00" cType="1" res="-4.1735484264791012e-03" rms="4.8087489604949951e-01" purity="3.8118276000022888e-01" nType="-99"/>
          <Node pos="r" depth="2" NCoef="0" IVar="-1" Cut="0.0000000000000000e+00" cType="1" res="8.8537996634840965e-04" rms="4.8601150512695312e-01" purity="4.1138580441474915e-01" nType="-99"/>
        </Node>
        <Node pos="r" depth="1" NCoef="0" IVar="3" Cut="7.3454439640045166e-01" cType="1" res="6.1792973428964615e-03" rms="4.9027779698371887e-01" purity="5.5985093116760254e-01" nType="0">
          <Node pos="l" depth="2" NCoef="0" IVar="-1" Cut="0.0000000000000000e+00" cType="1" res="2.3068459704518318e-03" rms="4.9953237175941467e-01" purity="5.0045120716094971e-01" nType="-99"/>
          <Node pos="r" depth="2" NCoef="0" IVar="-1" Cut="0.0000000000000000e+00" cType="1" res="5.0262844888493419e-04" rms="4.8743769526481628e-01" purity="5.7759553194046021e-01" nType="-99"/>
        </Node>
      </Node>
    </BinaryTree>
    <BinaryTree type="DecisionTree" boostWeight="1.0000000000000000e+00" itree="299">
      <Node pos="s" depth="0" NCoef="0" IVar="3" Cut="-8.9632368087768555e-01" cType="1" res="5.2646995754912496e-04" rms="4.8911041021347046e-01" purity="4.9947321414947510e-01" nType="0">
        <Node pos="l" depth="1" NCoef="0" IVar="1" Cut="2.0000000000000000e+00" cType="1" res="1.1514187790453434e-02" rms="3.4528601169586182e-01" purity="3.6323255300521851e-01" nType="0">
          <Node pos="l" depth="2" NCoef="0" IVar="-1" Cut="0.0000000000000000e+00" cType="1" res="-3.8833399303257465e-03" rms="4.5439559221267700e-01" purity="3.1182751059532166e-01" nType="-99"/>
          <Node pos="r" depth="2" NCoef="0" IVar="-1" Cut="0.0000000000000000e+00" cType="1" res="4.7049229033291340e-03" rms="4.7747159004211426e-01" purity="3.7823560833930969e-01" nType="-99"/>
        </Node>
        <Node pos="r" depth="1" NCoef="0" IVar="1" Cut="5.0000000000000000e+00" cType="1" res="3.5087537253275514e-04" rms="2.6070547103881836e-01" purity="5.2753061056137085e-01" nType="0">
          <Node pos="l" depth="2" NCoef="0" IVar="-1" Cut="0.0000000000000000e+00" cType="1" res="-1.0451245907461271e-04" rms="4.9228057265281677e-01" purity="5.2749037742614746e-01" nType="-99"/>
          <Node pos="r" depth="2" NCoef="0" IVar="-1" Cut="0.0000000000000000e+00" cType="1" res="-5.7576210238039494e-03" rms="4.9280962347984314e-01" purity="5.2838796377182007e-01" nType="-99"/>
        </Node>
      </Node>
    </BinaryTree>
    <BinaryTree type="DecisionTree" boostWeight="1.0000000000000000e+00" itree="300">
      <Node pos="s" depth="0" NCoef="0" IVar="1" Cut="3.0000000000000000e+00" cType="1" res="1.1018692748621106e-03" rms="2.7127102017402649e-01" purity="5.0035977363586426e-01" nType="0">
        <Node pos="l" depth="1" NCoef="0" IVar="0" Cut="9.2119903564453125e+00" cType="1" res="-2.3457030765712261e-03" rms="4.8898333311080933e-01" purity="4.9570724368095398e-01" nType="0">
          <Node pos="l" depth="2" NCoef="0" IVar="-1" Cut="0.0000000000000000e+00" cType="1" res="-7.6213310239836574e-04" rms="4.9358078837394714e-01" purity="4.9362564086914062e-01" nType="-99"/>
          <Node pos="r" depth="2" NCoef="0" IVar="-1" Cut="0.0000000000000000e+00" cType="1" res="8.2094466779381037e-04" rms="4.8097532987594604e-01" purity="4.9926188588142395e-01" nType="-99"/>
        </Node>
        <Node pos="r" depth="1" NCoef="0" IVar="5" Cut="7.9310125112533569e-01" cType="1" res="7.9177431762218475e-03" rms="4.8796960711479187e-01" purity="5.0900775194168091e-01" nType="0">
          <Node pos="l" depth="2" NCoef="0" IVar="-1" Cut="0.0000000000000000e+00" cType="1" res="1.7743440112099051e-03" rms="4.8888343572616577e-01" purity="5.0952923297882080e-01" nType="-99"/>
          <Node pos="r" depth="2" NCoef="0" IVar="-1" Cut="0.0000000000000000e+00" cType="1" res="-2.7553106192499399e-03" rms="4.8088717460632324e-01" purity="5.0537538528442383e-01" nType="-99"/>
        </Node>
      </Node>
    </BinaryTree>
    <BinaryTree type="DecisionTree" boostWeight="1.0000000000000000e+00" itree="301">
      <Node pos="s" depth="0" NCoef="0" IVar="3" Cut="-8.0208969116210938e-01" cType="1" res="2.7706478722393513e-03" rms="4.8772788047790527e-01" purity="5.0210249423980713e-01" nType="0">
        <Node pos="l" depth="1" NCoef="0" IVar="3" Cut="-8.4704625606536865e-01" cType="1" res="-9.4569865614175797e-03" rms="4.8277613520622253e-01" purity="3.9746221899986267e-01" nType="0">
          <Node pos="l" depth="2" NCoef="0" IVar="-1" Cut="0.0000000000000000e+00" cType="1" res="-2.8427671641111374e-03" rms="4.7765207290649414e-01" purity="3.7488618493080139e-01" nType="-99"/>
          <Node pos="r" depth="2" NCoef="0" IVar="-1" Cut="0.0000000000000000e+00" cType="1" res="1.9085437525063753e-03" rms="4.9775746464729309e-01" purity="4.6798479557037354e-01" nType="-99"/>
        </Node>
        <Node pos="r" depth="1" NCoef="0" IVar="1" Cut="5.0000000000000000e+00" cType="1" res="4.4528697617352009e-03" rms="4.1828870773315430e-01" purity="5.6321358680725098e-01" nType="0">
          <Node pos="l" depth="2" NCoef="0" IVar="-1" Cut="0.0000000000000000e+00" cType="1" res="1.3102653902024031e-03" rms="4.9081784486770630e-01" purity="5.6021672487258911e-01" nType="-99"/>
          <Node pos="r" depth="2" NCoef="0" IVar="-1" Cut="0.0000000000000000e+00" cType="1" res="6.8283388391137123e-03" rms="4.8132473230361938e-01" purity="6.2841081619262695e-01" nType="-99"/>
        </Node>
      </Node>
    </BinaryTree>
    <BinaryTree type="DecisionTree" boostWeight="1.0000000000000000e+00" itree="302">
      <Node pos="s" depth="0" NCoef="0" IVar="0" Cut="8.4392223358154297e+00" cType="1" res="4.0310299955308437e-03" rms="4.8824405670166016e-01" purity="5.0309270620346069e-01" nType="0">
        <Node pos="l" depth="1" NCoef="0" IVar="2" Cut="2.0000000000000000e+00" cType="1" res="-2.8055685106664896e-04" rms="1.1896687559783459e-02" purity="5.2640849351882935e-01" nType="0">
          <Node pos="l" depth="2" NCoef="0" IVar="-1" Cut="0.0000000000000000e+00" cType="1" res="3.8166523445397615e-03" rms="4.9674093723297119e-01" purity="5.4967606067657471e-01" nType="-99"/>
          <Node pos="r" depth="2" NCoef="0" IVar="-1" Cut="0.0000000000000000e+00" cType="1" res="-5.0444644875824451e-04" rms="4.9853000044822693e-01" purity="4.9733281135559082e-01" nType="-99"/>
        </Node>
        <Node pos="r" depth="1" NCoef="0" IVar="0" Cut="8.5767459869384766e+00" cType="1" res="1.8230406567454338e-03" rms="4.8679313063621521e-01" purity="4.9976190924644470e-01" nType="0">
          <Node pos="l" depth="2" NCoef="0" IVar="-1" Cut="0.0000000000000000e+00" cType="1" res="-2.8856338467448950e-03" rms="4.9324724078178406e-01" purity="4.8260650038719177e-01" nType="-99"/>
          <Node pos="r" depth="2" NCoef="0" IVar="-1" Cut="0.0000000000000000e+00" cType="1" res="6.3031772151589394e-04" rms="4.8633223772048950e-01" purity="5.0084608793258667e-01" nType="-99"/>
        </Node>
      </Node>
    </BinaryTree>
    <BinaryTree type="DecisionTree" boostWeight="1.0000000000000000e+00" itree="303">
      <Node pos="s" depth="0" NCoef="0" IVar="5" Cut="-6.9153308868408203e-01" cType="1" res="1.8902262672781944e-03" rms="4.8844856023788452e-01" purity="5.0256073474884033e-01" nType="0">
        <Node pos="l" depth="1" NCoef="0" IVar="3" Cut="8.9436286687850952e-01" cType="1" res="-7.9100383445620537e-03" rms="4.8586878180503845e-01" purity="4.8603063821792603e-01" nType="0">
          <Node pos="l" depth="2" NCoef="0" IVar="-1" Cut="0.0000000000000000e+00" cType="1" res="1.5967935905791819e-04" rms="4.8627182841300964e-01" purity="4.4366690516471863e-01" nType="-99"/>
          <Node pos="r" depth="2" NCoef="0" IVar="-1" Cut="0.0000000000000000e+00" cType="1" res="-5.1542427390813828e-03" rms="4.8431825637817383e-01" purity="5.8344358205795288e-01" nType="-99"/>
        </Node>
        <Node pos="r" depth="1" NCoef="0" IVar="4" Cut="7.9606354236602783e-01" cType="1" res="3.2603540457785130e-03" rms="4.8879250884056091e-01" purity="5.0487172603607178e-01" nType="0">
          <Node pos="l" depth="2" NCoef="0" IVar="-1" Cut="0.0000000000000000e+00" cType="1" res="2.3436454648617655e-04" rms="4.8971641063690186e-01" purity="4.9849304556846619e-01" nType="-99"/>
          <Node pos="r" depth="2" NCoef="0" IVar="-1" Cut="0.0000000000000000e+00" cType="1" res="2.7057740371674299e-03" rms="4.8173367977142334e-01" purity="5.5186271667480469e-01" nType="-99"/>
        </Node>
      </Node>
    </BinaryTree>
    <BinaryTree type="DecisionTree" boostWeight="1.0000000000000000e+00" itree="304">
      <Node pos="s" depth="0" NCoef="0" IVar="0" Cut="8.7015762329101562e+00" cType="1" res="1.9527876283973455e-03" rms="4.8876172304153442e-01" purity="5.0262594223022461e-01" nType="0">
        <Node pos="l" depth="1" NCoef="0" IVar="4" Cut="5.2270874381065369e-02" cType="1" res="1.0754750110208988e-02" rms="4.9506488442420959e-01" purity="5.1715528964996338e-01" nType="0">
          <Node pos="l" depth="2" NCoef="0" IVar="-1" Cut="0.0000000000000000e+00" cType="1" res="6.1168841784819961e-04" rms="4.9699434638023376e-01" purity="5.0347661972045898e-01" nType="-99"/>
          <Node pos="r" depth="2" NCoef="0" IVar="-1" Cut="0.0000000000000000e+00" cType="1" res="2.6791421696543694e-03" rms="4.8988389968872070e-01" purity="5.5188149213790894e-01" nType="-99"/>
        </Node>
        <Node pos="r" depth="1" NCoef="0" IVar="5" Cut="-6.9064450263977051e-01" cType="1" res="-8.0168450949713588e-04" rms="4.8673975467681885e-01" purity="4.9807915091514587e-01" nType="0">
          <Node pos="l" depth="2" NCoef="0" IVar="-1" Cut="0.0000000000000000e+00" cType="1" res="-3.0647711828351021e-03" rms="4.8398390412330627e-01" purity="4.7521021962165833e-01" nType="-99"/>
          <Node pos="r" depth="2" NCoef="0" IVar="-1" Cut="0.0000000000000000e+00" cType="1" res="2.4863710859790444e-04" rms="4.8709559440612793e-01" purity="5.0135105848312378e-01" nType="-99"/>
        </Node>
      </Node>
    </BinaryTree>
    <BinaryTree type="DecisionTree" boostWeight="1.0000000000000000e+00" itree="305">
      <Node pos="s" depth="0" NCoef="0" IVar="0" Cut="9.4994916915893555e+00" cType="1" res="1.0392959229648113e-03" rms="4.8882043361663818e-01" purity="5.0089865922927856e-01" nType="0">
        <Node pos="l" depth="1" NCoef="0" IVar="1" Cut="2.0000000000000000e+00" cType="1" res="1.7458984802942723e-04" rms="8.7936446070671082e-02" purity="4.9928072094917297e-01" nType="0">
          <Node pos="l" depth="2" NCoef="0" IVar="-1" Cut="0.0000000000000000e+00" cType="1" res="6.0090754413977265e-04" rms="4.9194025993347168e-01" purity="5.0551223754882812e-01" nType="-99"/>
          <Node pos="r" depth="2" NCoef="0" IVar="-1" Cut="0.0000000000000000e+00" cType="1" res="-6.1283464310690761e-04" rms="4.9085882306098938e-01" purity="4.9676185846328735e-01" nType="-99"/>
        </Node>
        <Node pos="r" depth="1" NCoef="0" IVar="4" Cut="-7.0223355293273926e-01" cType="1" res="1.4337636530399323e-02" rms="4.7714713215827942e-01" purity="5.0862199068069458e-01" nType="0">
          <Node pos="l" depth="2" NCoef="0" IVar="-1" Cut="0.0000000000000000e+00" cType="1" res="-6.6324195358902216e-04" rms="4.7106537222862244e-01" purity="4.6940636634826660e-01" nType="-99"/>
          <Node pos="r" depth="2" NCoef="0" IVar="-1" Cut="0.0000000000000000e+00" cType="1" res="5.5666216649115086e-03" rms="4.7920903563499451e-01" purity="5.2297759056091309e-01" nType="-99"/>
        </Node>
      </Node>
    </BinaryTree>
    <BinaryTree type="DecisionTree" boostWeight="1.0000000000000000e+00" itree="306">
      <Node pos="s" depth="0" NCoef="0" IVar="4" Cut="4.6618714928627014e-02" cType="1" res="8.3812855882570148e-04" rms="4.8863452672958374e-01" purity="5.0145524740219116e-01" nType="0">
        <Node pos="l" depth="1" NCoef="0" IVar="4" Cut="-8.4330791234970093e-01" cType="1" res="-2.4493306409567595e-03" rms="4.8970869183540344e-01" purity="4.8924839496612549e-01" nType="0">
          <Node pos="l" depth="2" NCoef="0" IVar="-1" Cut="0.0000000000000000e+00" cType="1" res="-3.9670723490417004e-03" rms="4.7828468680381775e-01" purity="4.4475829601287842e-01" nType="-99"/>
          <Node pos="r" depth="2" NCoef="0" IVar="-1" Cut="0.0000000000000000e+00" cType="1" res="2.8323967853793874e-05" rms="4.9117448925971985e-01" purity="4.9526682496070862e-01" nType="-99"/>
        </Node>
        <Node pos="r" depth="1" NCoef="0" IVar="5" Cut="7.7308630943298340e-01" cType="1" res="9.1629605740308762e-03" rms="4.8580422997474670e-01" purity="5.3236657381057739e-01" nType="0">
          <Node pos="l" depth="2" NCoef="0" IVar="-1" Cut="0.0000000000000000e+00" cType="1" res="2.2879501339048147e-03" rms="4.8609814047813416e-01" purity="5.3417599201202393e-01" nType="-99"/>
          <Node pos="r" depth="2" NCoef="0" IVar="-1" Cut="0.0000000000000000e+00" cType="1" res="-5.0385179929435253e-03" rms="4.8182606697082520e-01" purity="5.1829802989959717e-01" nType="-99"/>
        </Node>
      </Node>
    </BinaryTree>
    <BinaryTree type="DecisionTree" boostWeight="1.0000000000000000e+00" itree="307">
      <Node pos="s" depth="0" NCoef="0" IVar="5" Cut="-7.8307431936264038e-01" cType="1" res="-2.2571769077330828e-03" rms="4.8788723349571228e-01" purity="4.9903857707977295e-01" nType="0">
        <Node pos="l" depth="1" NCoef="0" IVar="4" Cut="7.9544132947921753e-01" cType="1" res="2.4333123117685318e-02" rms="4.8335084319114685e-01" purity="5.1634061336517334e-01" nType="0">
          <Node pos="l" depth="2" NCoef="0" IVar="-1" Cut="0.0000000000000000e+00" cType="1" res="6.0015209019184113e-03" rms="4.8977816104888916e-01" purity="4.9835538864135742e-01" nType="-99"/>
          <Node pos="r" depth="2" NCoef="0" IVar="-1" Cut="0.0000000000000000e+00" cType="1" res="2.4775308556854725e-03" rms="4.7751960158348083e-01" purity="5.3184920549392700e-01" nType="-99"/>
        </Node>
        <Node pos="r" depth="1" NCoef="0" IVar="3" Cut="-8.0168455839157104e-01" cType="1" res="-3.9005186408758163e-03" rms="4.8811870813369751e-01" purity="4.9796929955482483e-01" nType="0">
          <Node pos="l" depth="2" NCoef="0" IVar="-1" Cut="0.0000000000000000e+00" cType="1" res="-1.9883962813764811e-03" rms="4.8318397998809814e-01" purity="3.9700290560722351e-01" nType="-99"/>
          <Node pos="r" depth="2" NCoef="0" IVar="-1" Cut="0.0000000000000000e+00" cType="1" res="1.3837986625730991e-04" rms="4.9082389473915100e-01" purity="5.5509400367736816e-01" nType="-99"/>
        </Node>
      </Node>
    </BinaryTree>
    <BinaryTree type="DecisionTree" boostWeight="1.0000000000000000e+00" itree="308">
      <Node pos="s" depth="0" NCoef="0" IVar="5" Cut="-7.8394150733947754e-01" cType="1" res="-3.4443808253854513e-03" rms="4.8782336711883545e-01" purity="4.9682018160820007e-01" nType="0">
        <Node pos="l" depth="1" NCoef="0" IVar="4" Cut="7.9633444547653198e-01" cType="1" res="1.7812911421060562e-02" rms="4.8359942436218262e-01" purity="5.1068383455276489e-01" nType="0">
          <Node pos="l" depth="2" NCoef="0" IVar="-1" Cut="0.0000000000000000e+00" cType="1" res="6.2000113539397717e-03" rms="4.9167844653129578e-01" purity="4.9744683504104614e-01" nType="-99"/>
          <Node pos="r" depth="2" NCoef="0" IVar="-1" Cut="0.0000000000000000e+00" cType="1" res="4.5560649596154690e-04" rms="4.7600254416465759e-01" purity="5.2209395170211792e-01" nType="-99"/>
        </Node>
        <Node pos="r" depth="1" NCoef="0" IVar="4" Cut="-8.8923543691635132e-01" cType="1" res="-4.7219675034284592e-03" rms="4.8804658651351929e-01" purity="4.9598699808120728e-01" nType="0">
          <Node pos="l" depth="2" NCoef="0" IVar="-1" Cut="0.0000000000000000e+00" cType="1" res="3.8762979675084352e-03" rms="4.7362640500068665e-01" purity="4.8016586899757385e-01" nType="-99"/>
          <Node pos="r" depth="2" NCoef="0" IVar="-1" Cut="0.0000000000000000e+00" cType="1" res="-8.5554702673107386e-04" rms="4.8846408724784851e-01" purity="4.9647250771522522e-01" nType="-99"/>
        </Node>
      </Node>
    </BinaryTree>
    <BinaryTree type="DecisionTree" boostWeight="1.0000000000000000e+00" itree="309">
      <Node pos="s" depth="0" NCoef="0" IVar="0" Cut="8.6420745849609375e+00" cType="1" res="-1.6576991183683276e-03" rms="4.8889970779418945e-01" purity="4.9902808666229248e-01" nType="0">
        <Node pos="l" depth="1" NCoef="0" IVar="3" Cut="-7.8812462091445923e-01" cType="1" res="-1.3459247536957264e-02" rms="4.9518620967864990e-01" purity="4.9319398403167725e-01" nType="0">
          <Node pos="l" depth="2" NCoef="0" IVar="-1" Cut="0.0000000000000000e+00" cType="1" res="-5.6259881239384413e-04" rms="4.9401867389678955e-01" purity="4.4814223051071167e-01" nType="-99"/>
          <Node pos="r" depth="2" NCoef="0" IVar="-1" Cut="0.0000000000000000e+00" cType="1" res="-1.9259229302406311e-03" rms="4.9583303928375244e-01" purity="5.2082026004791260e-01" nType="-99"/>
        </Node>
        <Node pos="r" depth="1" NCoef="0" IVar="0" Cut="8.7644920349121094e+00" cType="1" res="1.5100648161023855e-03" rms="4.8714980483055115e-01" purity="5.0059407949447632e-01" nType="0">
          <Node pos="l" depth="2" NCoef="0" IVar="-1" Cut="0.0000000000000000e+00" cType="1" res="-2.4270629510283470e-03" rms="4.9149039387702942e-01" purity="4.7504717111587524e-01" nType="-99"/>
          <Node pos="r" depth="2" NCoef="0" IVar="-1" Cut="0.0000000000000000e+00" cType="1" res="6.3632539240643382e-04" rms="4.8671460151672363e-01" purity="5.0291222333908081e-01" nType="-99"/>
        </Node>
      </Node>
    </BinaryTree>
    <BinaryTree type="DecisionTree" boostWeight="1.0000000000000000e+00" itree="310">
      <Node pos="s" depth="0" NCoef="0" IVar="2" Cut="2.0000000000000000e+00" cType="1" res="-8.5481267888098955e-05" rms="3.1130297109484673e-02" purity="4.9927058815956116e-01" nType="0">
        <Node pos="l" depth="1" NCoef="0" IVar="0" Cut="9.1560916900634766e+00" cType="1" res="-6.6921664401888847e-03" rms="4.8629391193389893e-01" purity="4.9350523948669434e-01" nType="0">
          <Node pos="l" depth="2" NCoef="0" IVar="-1" Cut="0.0000000000000000e+00" cType="1" res="-1.6349039506167173e-03" rms="4.9133437871932983e-01" purity="4.8845124244689941e-01" nType="-99"/>
          <Node pos="r" depth="2" NCoef="0" IVar="-1" Cut="0.0000000000000000e+00" cType="1" res="4.1062393574975431e-04" rms="4.7938024997711182e-01" purity="5.0022011995315552e-01" nType="-99"/>
        </Node>
        <Node pos="r" depth="1" NCoef="0" IVar="0" Cut="8.9548873901367188e+00" cType="1" res="6.4185531809926033e-03" rms="4.9069482088088989e-01" purity="5.0718903541564941e-01" nType="0">
          <Node pos="l" depth="2" NCoef="0" IVar="-1" Cut="0.0000000000000000e+00" cType="1" res="2.0026215352118015e-03" rms="4.9532014131546021e-01" purity="5.1585757732391357e-01" nType="-99"/>
          <Node pos="r" depth="2" NCoef="0" IVar="-1" Cut="0.0000000000000000e+00" cType="1" res="-6.3792584114708006e-05" rms="4.8728010058403015e-01" purity="5.0104767084121704e-01" nType="-99"/>
        </Node>
      </Node>
    </BinaryTree>
    <BinaryTree type="DecisionTree" boostWeight="1.0000000000000000e+00" itree="311">
      <Node pos="s" depth="0" NCoef="0" IVar="4" Cut="8.8814759254455566e-01" cType="1" res="2.8388020582497120e-03" rms="4.8929280042648315e-01" purity="5.0340449810028076e-01" nType="0">
        <Node pos="l" depth="1" NCoef="0" IVar="0" Cut="8.1408815383911133e+00" cType="1" res="4.1486541740596294e-03" rms="4.8945742845535278e-01" purity="5.0314170122146606e-01" nType="0">
          <Node pos="l" depth="2" NCoef="0" IVar="-1" Cut="0.0000000000000000e+00" cType="1" res="-1.4009288279339671e-03" rms="4.9956715106964111e-01" purity="4.8166310787200928e-01" nType="-99"/>
          <Node pos="r" depth="2" NCoef="0" IVar="-1" Cut="0.0000000000000000e+00" cType="1" res="8.3306519081816077e-04" rms="4.8891451954841614e-01" purity="5.0424522161483765e-01" nType="-99"/>
        </Node>
        <Node pos="r" depth="1" NCoef="0" IVar="-1" Cut="0.0000000000000000e+00" cType="1" res="-5.0810715183615685e-03" rms="4.8430976271629333e-01" purity="5.0966280698776245e-01" nType="-99"/>
      </Node>
    </BinaryTree>
    <BinaryTree type="DecisionTree" boostWeight="1.0000000000000000e+00" itree="312">
      <Node pos="s" depth="0" NCoef="0" IVar="0" Cut="8.1408815383911133e+00" cType="1" res="1.2908601202070713e-03" rms="4.8860335350036621e-01" purity="5.0155580043792725e-01" nType="0">
        <Node pos="l" depth="1" NCoef="0" IVar="-1" Cut="0.0000000000000000e+00" cType="1" res="2.9556909576058388e-03" rms="4.9822056293487549e-01" purity="5.1996433734893799e-01" nType="-99"/>
        <Node pos="r" depth="1" NCoef="0" IVar="0" Cut="8.7315912246704102e+00" cType="1" res="-2.8182516689412296e-04" rms="4.8804768919944763e-01" purity="5.0060039758682251e-01" nType="0">
          <Node pos="l" depth="2" NCoef="0" IVar="-1" Cut="0.0000000000000000e+00" cType="1" res="-1.1555922683328390e-03" rms="4.9438628554344177e-01" purity="4.9444878101348877e-01" nType="-99"/>
          <Node pos="r" depth="2" NCoef="0" IVar="-1" Cut="0.0000000000000000e+00" cType="1" res="5.0435576122254133e-04" rms="4.8614811897277832e-01" purity="5.0239020586013794e-01" nType="-99"/>
        </Node>
      </Node>
    </BinaryTree>
    <BinaryTree type="DecisionTree" boostWeight="1.0000000000000000e+00" itree="313">
      <Node pos="s" depth="0" NCoef="0" IVar="5" Cut="7.9335129261016846e-01" cType="1" res="-1.4991010539233685e-03" rms="4.8831057548522949e-01" purity="4.9907496571540833e-01" nType="0">
        <Node pos="l" depth="1" NCoef="0" IVar="1" Cut="5.0000000000000000e+00" cType="1" res="-8.6394528625532985e-04" rms="2.5414061546325684e-01" purity="4.9694436788558960e-01" nType="0">
          <Node pos="l" depth="2" NCoef="0" IVar="-1" Cut="0.0000000000000000e+00" cType="1" res="-3.1863339245319366e-04" rms="4.8855441808700562e-01" purity="4.9707841873168945e-01" nType="-99"/>
          <Node pos="r" depth="2" NCoef="0" IVar="-1" Cut="0.0000000000000000e+00" cType="1" res="-3.7877641152590513e-03" rms="4.8822072148323059e-01" purity="4.9359667301177979e-01" nType="-99"/>
        </Node>
        <Node pos="r" depth="1" NCoef="0" IVar="1" Cut="4.0000000000000000e+00" cType="1" res="4.6520899049937725e-03" rms="3.1242874264717102e-01" purity="5.3742563724517822e-01" nType="0">
          <Node pos="l" depth="2" NCoef="0" IVar="-1" Cut="0.0000000000000000e+00" cType="1" res="9.0171825140714645e-03" rms="4.8401972651481628e-01" purity="5.6653219461441040e-01" nType="-99"/>
          <Node pos="r" depth="2" NCoef="0" IVar="-1" Cut="0.0000000000000000e+00" cType="1" res="-1.1254064738750458e-03" rms="4.8044833540916443e-01" purity="5.1005059480667114e-01" nType="-99"/>
        </Node>
      </Node>
    </BinaryTree>
    <BinaryTree type="DecisionTree" boostWeight="1.0000000000000000e+00" itree="314">
      <Node pos="s" depth="0" NCoef="0" IVar="1" Cut="2.0000000000000000e+00" cType="1" res="4.3503378401510417e-04" rms="1.6528832912445068e-01" purity="4.9558171629905701e-01" nType="0">
        <Node pos="l" depth="1" NCoef="0" IVar="3" Cut="8.9635115861892700e-01" cType="1" res="3.7992403376847506e-03" rms="4.9009540677070618e-01" purity="5.0527596473693848e-01" nType="0">
          <Node pos="l" depth="2" NCoef="0" IVar="-1" Cut="0.0000000000000000e+00" cType="1" res="1.4882477989885956e-04" rms="4.9377867579460144e-01" purity="4.7964847087860107e-01" nType="-99"/>
          <Node pos="r" depth="2" NCoef="0" IVar="-1" Cut="0.0000000000000000e+00" cType="1" res="4.3023368343710899e-03" rms="4.6366497874259949e-01" purity="6.8061447143554688e-01" nType="-99"/>
        </Node>
        <Node pos="r" depth="1" NCoef="0" IVar="0" Cut="8.3992376327514648e+00" cType="1" res="-8.2853799685835838e-03" rms="4.8823261260986328e-01" purity="4.9159383773803711e-01" nType="0">
          <Node pos="l" depth="2" NCoef="0" IVar="-1" Cut="0.0000000000000000e+00" cType="1" res="1.5106991631910205e-03" rms="4.9668276309967041e-01" purity="5.2026504278182983e-01" nType="-99"/>
          <Node pos="r" depth="2" NCoef="0" IVar="-1" Cut="0.0000000000000000e+00" cType="1" res="-1.8966634524986148e-03" rms="4.8711237311363220e-01" purity="4.8807686567306519e-01" nType="-99"/>
        </Node>
      </Node>
    </BinaryTree>
    <BinaryTree type="DecisionTree" boostWeight="1.0000000000000000e+00" itree="315">
      <Node pos="s" depth="0" NCoef="0" IVar="3" Cut="-7.0673531293869019e-01" cType="1" res="1.8438694532960653e-03" rms="4.8857846856117249e-01" purity="5.0159925222396851e-01" nType="0">
        <Node pos="l" depth="1" NCoef="0" IVar="1" Cut="2.0000000000000000e+00" cType="1" res="2.1295419428497553e-03" rms="2.4174132943153381e-01" purity="4.3272140622138977e-01" nType="0">
          <Node pos="l" depth="2" NCoef="0" IVar="-1" Cut="0.0000000000000000e+00" cType="1" res="-9.7155064577236772e-04" rms="4.8887756466865540e-01" purity="4.2435038089752197e-01" nType="-99"/>
          <Node pos="r" depth="2" NCoef="0" IVar="-1" Cut="0.0000000000000000e+00" cType="1" res="2.1787269506603479e-03" rms="4.8822182416915894e-01" purity="4.3615403771400452e-01" nType="-99"/>
        </Node>
        <Node pos="r" depth="1" NCoef="0" IVar="3" Cut="9.3934983015060425e-01" cType="1" res="-3.9104172028601170e-03" rms="4.8859047889709473e-01" purity="5.6836450099945068e-01" nType="0">
          <Node pos="l" depth="2" NCoef="0" IVar="-1" Cut="0.0000000000000000e+00" cType="1" res="-1.1337008327245712e-03" rms="4.9560222029685974e-01" purity="5.4472690820693970e-01" nType="-99"/>
          <Node pos="r" depth="2" NCoef="0" IVar="-1" Cut="0.0000000000000000e+00" cType="1" res="3.8593336939811707e-03" rms="4.4081535935401917e-01" purity="7.1857130527496338e-01" nType="-99"/>
        </Node>
      </Node>
    </BinaryTree>
    <BinaryTree type="DecisionTree" boostWeight="1.0000000000000000e+00" itree="316">
      <Node pos="s" depth="0" NCoef="0" IVar="4" Cut="8.9001911878585815e-01" cType="1" res="-7.7100950875319541e-05" rms="4.8804414272308350e-01" purity="5.0018185377120972e-01" nType="0">
        <Node pos="l" depth="1" NCoef="0" IVar="2" Cut="2.0000000000000000e+00" cType="1" res="-9.2549715191125870e-04" rms="1.0113865882158279e-01" purity="4.9730068445205688e-01" nType="0">
          <Node pos="l" depth="2" NCoef="0" IVar="-1" Cut="0.0000000000000000e+00" cType="1" res="-8.8484951993450522e-04" rms="4.8663720488548279e-01" purity="4.9151256680488586e-01" nType="-99"/>
          <Node pos="r" depth="2" NCoef="0" IVar="-1" Cut="0.0000000000000000e+00" cType="1" res="7.9826952423900366e-04" rms="4.9048247933387756e-01" purity="5.0483590364456177e-01" nType="-99"/>
        </Node>
        <Node pos="r" depth="1" NCoef="0" IVar="-1" Cut="0.0000000000000000e+00" cType="1" res="5.2584237419068813e-03" rms="4.8006445169448853e-01" purity="5.6966137886047363e-01" nType="-99"/>
      </Node>
    </BinaryTree>
    <BinaryTree type="DecisionTree" boostWeight="1.0000000000000000e+00" itree="317">
      <Node pos="s" depth="0" NCoef="0" IVar="0" Cut="8.9639310836791992e+00" cType="1" res="1.5163240022957325e-03" rms="4.8844170570373535e-01" purity="5.0237232446670532e-01" nType="0">
        <Node pos="l" depth="1" NCoef="0" IVar="2" Cut="2.0000000000000000e+00" cType="1" res="-4.2113562813028693e-05" rms="4.6115075238049030e-03" purity="5.1049453020095825e-01" nType="0">
          <Node pos="l" depth="2" NCoef="0" IVar="-1" Cut="0.0000000000000000e+00" cType="1" res="1.5730652958154678e-03" rms="4.9243882298469543e-01" purity="5.1653254032135010e-01" nType="-99"/>
          <Node pos="r" depth="2" NCoef="0" IVar="-1" Cut="0.0000000000000000e+00" cType="1" res="3.5097633372060955e-04" rms="4.9494534730911255e-01" purity="5.0273180007934570e-01" nType="-99"/>
        </Node>
        <Node pos="r" depth="1" NCoef="0" IVar="4" Cut="-8.9139050245285034e-01" cType="1" res="-3.7432673852890730e-03" rms="4.8462268710136414e-01" purity="4.9647969007492065e-01" nType="0">
          <Node pos="l" depth="2" NCoef="0" IVar="-1" Cut="0.0000000000000000e+00" cType="1" res="-9.9178068339824677e-03" rms="4.7133257985115051e-01" purity="4.1720125079154968e-01" nType="-99"/>
          <Node pos="r" depth="2" NCoef="0" IVar="-1" Cut="0.0000000000000000e+00" cType="1" res="-3.9281832869164646e-04" rms="4.8514819145202637e-01" purity="5.0013709068298340e-01" nType="-99"/>
        </Node>
      </Node>
    </BinaryTree>
    <BinaryTree type="DecisionTree" boostWeight="1.0000000000000000e+00" itree="318">
      <Node pos="s" depth="0" NCoef="0" IVar="5" Cut="-6.9182604551315308e-01" cType="1" res="-2.7805578429251909e-03" rms="4.8855713009834290e-01" purity="4.9715253710746765e-01" nType="0">
        <Node pos="l" depth="1" NCoef="0" IVar="0" Cut="9.4261064529418945e+00" cType="1" res="7.2127645835280418e-03" rms="4.8749059438705444e-01" purity="5.0138002634048462e-01" nType="0">
          <Node pos="l" depth="2" NCoef="0" IVar="-1" Cut="0.0000000000000000e+00" cType="1" res="2.6186837349087000e-03" rms="4.9114483594894409e-01" purity="5.1182597875595093e-01" nType="-99"/>
          <Node pos="r" depth="2" NCoef="0" IVar="-1" Cut="0.0000000000000000e+00" cType="1" res="-9.7491871565580368e-03" rms="4.7054916620254517e-01" purity="4.6026593446731567e-01" nType="-99"/>
        </Node>
        <Node pos="r" depth="1" NCoef="0" IVar="1" Cut="5.0000000000000000e+00" cType="1" res="-1.8949892837554216e-03" rms="3.3591589331626892e-01" purity="4.9654927849769592e-01" nType="0">
          <Node pos="l" depth="2" NCoef="0" IVar="-1" Cut="0.0000000000000000e+00" cType="1" res="-5.0342793110758066e-04" rms="4.8867970705032349e-01" purity="4.9657896161079407e-01" nType="-99"/>
          <Node pos="r" depth="2" NCoef="0" IVar="-1" Cut="0.0000000000000000e+00" cType="1" res="-5.3203767165541649e-03" rms="4.8820725083351135e-01" purity="4.9575045704841614e-01" nType="-99"/>
        </Node>
      </Node>
    </BinaryTree>
    <BinaryTree type="DecisionTree" boostWeight="1.0000000000000000e+00" itree="319">
      <Node pos="s" depth="0" NCoef="0" IVar="0" Cut="8.3911418914794922e+00" cType="1" res="-1.9200121460016817e-04" rms="4.8879081010818481e-01" purity="4.9923306703567505e-01" nType="0">
        <Node pos="l" depth="1" NCoef="0" IVar="2" Cut="2.0000000000000000e+00" cType="1" res="-1.6431410040240735e-04" rms="9.1126915067434311e-03" purity="4.8600223660469055e-01" nType="0">
          <Node pos="l" depth="2" NCoef="0" IVar="-1" Cut="0.0000000000000000e+00" cType="1" res="-6.5065280068665743e-05" rms="4.9609214067459106e-01" purity="5.0846654176712036e-01" nType="-99"/>
          <Node pos="r" depth="2" NCoef="0" IVar="-1" Cut="0.0000000000000000e+00" cType="1" res="-4.8424317501485348e-03" rms="4.9580830335617065e-01" purity="4.5408278703689575e-01" nType="-99"/>
        </Node>
        <Node pos="r" depth="1" NCoef="0" IVar="0" Cut="8.7959880828857422e+00" cType="1" res="2.0690266974270344e-03" rms="4.8781394958496094e-01" purity="5.0082063674926758e-01" nType="0">
          <Node pos="l" depth="2" NCoef="0" IVar="-1" Cut="0.0000000000000000e+00" cType="1" res="1.3575103366747499e-03" rms="4.9426901340484619e-01" purity="5.1159876585006714e-01" nType="-99"/>
          <Node pos="r" depth="2" NCoef="0" IVar="-1" Cut="0.0000000000000000e+00" cType="1" res="-7.8132383350748569e-05" rms="4.8605632781982422e-01" purity="4.9795997142791748e-01" nType="-99"/>
        </Node>
      </Node>
    </BinaryTree>
    <BinaryTree type="DecisionTree" boostWeight="1.0000000000000000e+00" itree="320">
      <Node pos="s" depth="0" NCoef="0" IVar="0" Cut="9.1114721298217773e+00" cType="1" res="-5.9474830050021410e-04" rms="4.8833537101745605e-01" purity="4.9943512678146362e-01" nType="0">
        <Node pos="l" depth="1" NCoef="0" IVar="0" Cut="8.3221206665039062e+00" cType="1" res="3.3215114381164312e-03" rms="4.9229255318641663e-01" purity="5.0381624698638916e-01" nType="0">
          <Node pos="l" depth="2" NCoef="0" IVar="-1" Cut="0.0000000000000000e+00" cType="1" res="-1.6291545471176505e-03" rms="4.9791836738586426e-01" purity="4.8350712656974792e-01" nType="-99"/>
          <Node pos="r" depth="2" NCoef="0" IVar="-1" Cut="0.0000000000000000e+00" cType="1" res="9.5119746401906013e-04" rms="4.9114021658897400e-01" purity="5.0763094425201416e-01" nType="-99"/>
        </Node>
        <Node pos="r" depth="1" NCoef="0" IVar="4" Cut="4.6881776303052902e-02" cType="1" res="-5.2992547862231731e-03" rms="4.8349693417549133e-01" purity="4.9417230486869812e-01" nType="0">
          <Node pos="l" depth="2" NCoef="0" IVar="-1" Cut="0.0000000000000000e+00" cType="1" res="-2.0913849584758282e-03" rms="4.8423361778259277e-01" purity="4.8067787289619446e-01" nType="-99"/>
          <Node pos="r" depth="2" NCoef="0" IVar="-1" Cut="0.0000000000000000e+00" cType="1" res="1.1555221863090992e-03" rms="4.8147425055503845e-01" purity="5.2830129861831665e-01" nType="-99"/>
        </Node>
      </Node>
    </BinaryTree>
    <BinaryTree type="DecisionTree" boostWeight="1.0000000000000000e+00" itree="321">
      <Node pos="s" depth="0" NCoef="0" IVar="4" Cut="7.9645693302154541e-01" cType="1" res="2.0716718863695860e-03" rms="4.8809003829956055e-01" purity="5.0129747390747070e-01" nType="0">
        <Node pos="l" depth="1" NCoef="0" IVar="3" Cut="8.9724975824356079e-01" cType="1" res="-8.8811182649806142e-05" rms="4.8873460292816162e-01" purity="4.9326074123382568e-01" nType="0">
          <Node pos="l" depth="2" NCoef="0" IVar="-1" Cut="0.0000000000000000e+00" cType="1" res="-3.1972178840078413e-04" rms="4.9178943037986755e-01" purity="4.6662619709968567e-01" nType="-99"/>
          <Node pos="r" depth="2" NCoef="0" IVar="-1" Cut="0.0000000000000000e+00" cType="1" res="1.9762341398745775e-03" rms="4.7155418992042542e-01" purity="6.3870716094970703e-01" nType="-99"/>
        </Node>
        <Node pos="r" depth="1" NCoef="0" IVar="3" Cut="8.9491868019104004e-01" cType="1" res="1.3773483224213123e-02" rms="4.8441651463508606e-01" purity="5.4482662677764893e-01" nType="0">
          <Node pos="l" depth="2" NCoef="0" IVar="-1" Cut="0.0000000000000000e+00" cType="1" res="3.8390781264752150e-03" rms="4.9135923385620117e-01" purity="4.9354445934295654e-01" nType="-99"/>
          <Node pos="r" depth="2" NCoef="0" IVar="-1" Cut="0.0000000000000000e+00" cType="1" res="-2.6132038328796625e-03" rms="4.6478030085563660e-01" purity="6.7823463678359985e-01" nType="-99"/>
        </Node>
      </Node>
    </BinaryTree>
    <BinaryTree type="DecisionTree" boostWeight="1.0000000000000000e+00" itree="322">
      <Node pos="s" depth="0" NCoef="0" IVar="1" Cut="5.0000000000000000e+00" cType="1" res="-1.0815338464453816e-03" rms="3.3697953820228577e-01" purity="4.9882417917251587e-01" nType="0">
        <Node pos="l" depth="1" NCoef="0" IVar="2" Cut="3.0000000000000000e+00" cType="1" res="4.1026883991435170e-04" rms="1.7551532387733459e-01" purity="4.9946248531341553e-01" nType="0">
          <Node pos="l" depth="2" NCoef="0" IVar="-1" Cut="0.0000000000000000e+00" cType="1" res="2.5925101363100111e-04" rms="4.8784562945365906e-01" purity="5.0016510486602783e-01" nType="-99"/>
          <Node pos="r" depth="2" NCoef="0" IVar="-1" Cut="0.0000000000000000e+00" cType="1" res="-2.2156855557113886e-03" rms="4.9005860090255737e-01" purity="4.9383962154388428e-01" nType="-99"/>
        </Node>
        <Node pos="r" depth="1" NCoef="0" IVar="-1" Cut="0.0000000000000000e+00" cType="1" res="-4.3678227812051773e-03" rms="4.9178820848464966e-01" purity="4.8609209060668945e-01" nType="-99"/>
      </Node>
    </BinaryTree>
    <BinaryTree type="DecisionTree" boostWeight="1.0000000000000000e+00" itree="323">
      <Node pos="s" depth="0" NCoef="0" IVar="0" Cut="8.1932420730590820e+00" cType="1" res="-3.3641168847680092e-03" rms="4.8770689964294434e-01" purity="4.9619856476783752e-01" nType="0">
        <Node pos="l" depth="1" NCoef="0" IVar="-1" Cut="0.0000000000000000e+00" cType="1" res="1.2927757343277335e-03" rms="4.9893635511398315e-01" purity="5.0458836555480957e-01" nType="-99"/>
        <Node pos="r" depth="1" NCoef="0" IVar="1" Cut="2.0000000000000000e+00" cType="1" res="-3.8039144128561020e-03" rms="4.4245883822441101e-01" purity="4.9569022655487061e-01" nType="0">
          <Node pos="l" depth="2" NCoef="0" IVar="-1" Cut="0.0000000000000000e+00" cType="1" res="4.9730896716937423e-04" rms="4.8778665065765381e-01" purity="5.0358253717422485e-01" nType="-99"/>
          <Node pos="r" depth="2" NCoef="0" IVar="-1" Cut="0.0000000000000000e+00" cType="1" res="-1.2384217698127031e-03" rms="4.8663756251335144e-01" purity="4.9239796400070190e-01" nType="-99"/>
        </Node>
      </Node>
    </BinaryTree>
    <BinaryTree type="DecisionTree" boostWeight="1.0000000000000000e+00" itree="324">
      <Node pos="s" depth="0" NCoef="0" IVar="3" Cut="-7.0749557018280029e-01" cType="1" res="1.7532018246129155e-03" rms="4.8883429169654846e-01" purity="5.0085759162902832e-01" nType="0">
        <Node pos="l" depth="1" NCoef="0" IVar="3" Cut="-7.4578219652175903e-01" cType="1" res="7.8299520537257195e-03" rms="4.8908481001853943e-01" purity="4.3428251147270203e-01" nType="0">
          <Node pos="l" depth="2" NCoef="0" IVar="-1" Cut="0.0000000000000000e+00" cType="1" res="8.0626184353604913e-04" rms="4.8818534612655640e-01" purity="4.2744410037994385e-01" nType="-99"/>
          <Node pos="r" depth="2" NCoef="0" IVar="-1" Cut="0.0000000000000000e+00" cType="1" res="5.9083118103444576e-03" rms="4.9928513169288635e-01" purity="5.2314555644989014e-01" nType="-99"/>
        </Node>
        <Node pos="r" depth="1" NCoef="0" IVar="3" Cut="8.6231076717376709e-01" cType="1" res="-4.2886338196694851e-03" rms="4.8851019144058228e-01" purity="5.6705009937286377e-01" nType="0">
          <Node pos="l" depth="2" NCoef="0" IVar="-1" Cut="0.0000000000000000e+00" cType="1" res="-2.0804819650948048e-03" rms="4.9852746725082397e-01" purity="5.1406896114349365e-01" nType="-99"/>
          <Node pos="r" depth="2" NCoef="0" IVar="-1" Cut="0.0000000000000000e+00" cType="1" res="9.7796088084578514e-04" rms="4.7813567519187927e-01" purity="6.1974620819091797e-01" nType="-99"/>
        </Node>
      </Node>
    </BinaryTree>
    <BinaryTree type="DecisionTree" boostWeight="1.0000000000000000e+00" itree="325">
      <Node pos="s" depth="0" NCoef="0" IVar="4" Cut="8.9240539073944092e-01" cType="1" res="1.0782735189422965e-03" rms="4.8817440867424011e-01" purity="5.0045633316040039e-01" nType="0">
        <Node pos="l" depth="1" NCoef="0" IVar="5" Cut="-7.7209025621414185e-01" cType="1" res="2.1020327694714069e-03" rms="4.8884388804435730e-01" purity="4.9987778067588806e-01" nType="0">
          <Node pos="l" depth="2" NCoef="0" IVar="-1" Cut="0.0000000000000000e+00" cType="1" res="4.4358107261359692e-03" rms="4.8230767250061035e-01" purity="5.1085025072097778e-01" nType="-99"/>
          <Node pos="r" depth="2" NCoef="0" IVar="-1" Cut="0.0000000000000000e+00" cType="1" res="8.6091662524268031e-05" rms="4.8921230435371399e-01" purity="4.9918493628501892e-01" nType="-99"/>
        </Node>
        <Node pos="r" depth="1" NCoef="0" IVar="-1" Cut="0.0000000000000000e+00" cType="1" res="-4.9772616475820541e-03" rms="4.6908375620841980e-01" purity="5.1593297719955444e-01" nType="-99"/>
      </Node>
    </BinaryTree>
    <BinaryTree type="DecisionTree" boostWeight="1.0000000000000000e+00" itree="326">
      <Node pos="s" depth="0" NCoef="0" IVar="0" Cut="8.9639310836791992e+00" cType="1" res="-2.4097359273582697e-03" rms="4.8855137825012207e-01" purity="4.9779585003852844e-01" nType="0">
        <Node pos="l" depth="1" NCoef="0" IVar="3" Cut="-8.8996511697769165e-01" cType="1" res="-7.9419184476137161e-03" rms="4.9469524621963501e-01" purity="4.9369049072265625e-01" nType="0">
          <Node pos="l" depth="2" NCoef="0" IVar="-1" Cut="0.0000000000000000e+00" cType="1" res="1.5312490286305547e-03" rms="4.8727256059646606e-01" purity="3.9876130223274231e-01" nType="-99"/>
          <Node pos="r" depth="2" NCoef="0" IVar="-1" Cut="0.0000000000000000e+00" cType="1" res="-1.3532147277146578e-03" rms="4.9587911367416382e-01" purity="5.1003736257553101e-01" nType="-99"/>
        </Node>
        <Node pos="r" depth="1" NCoef="0" IVar="3" Cut="-7.0798712968826294e-01" cType="1" res="1.6111787408590317e-03" rms="4.8399725556373596e-01" purity="5.0077974796295166e-01" nType="0">
          <Node pos="l" depth="2" NCoef="0" IVar="-1" Cut="0.0000000000000000e+00" cType="1" res="-9.7658892627805471e-04" rms="4.8359021544456482e-01" purity="4.0467953681945801e-01" nType="-99"/>
          <Node pos="r" depth="2" NCoef="0" IVar="-1" Cut="0.0000000000000000e+00" cType="1" res="1.6062994254752994e-03" rms="4.8431044816970825e-01" purity="5.9335011243820190e-01" nType="-99"/>
        </Node>
      </Node>
    </BinaryTree>
    <BinaryTree type="DecisionTree" boostWeight="1.0000000000000000e+00" itree="327">
      <Node pos="s" depth="0" NCoef="0" IVar="0" Cut="9.8168888092041016e+00" cType="1" res="-7.9823844134807587e-04" rms="4.8832005262374878e-01" purity="4.9899545311927795e-01" nType="0">
        <Node pos="l" depth="1" NCoef="0" IVar="4" Cut="-7.9651737213134766e-01" cType="1" res="3.6185505450703204e-04" rms="4.8921930789947510e-01" purity="5.0067269802093506e-01" nType="0">
          <Node pos="l" depth="2" NCoef="0" IVar="-1" Cut="0.0000000000000000e+00" cType="1" res="1.5377264935523272e-03" rms="4.8192214965820312e-01" purity="4.7819355130195618e-01" nType="-99"/>
          <Node pos="r" depth="2" NCoef="0" IVar="-1" Cut="0.0000000000000000e+00" cType="1" res="-1.9669749599415809e-04" rms="4.9051159620285034e-01" purity="5.0474482774734497e-01" nType="-99"/>
        </Node>
        <Node pos="r" depth="1" NCoef="0" IVar="-1" Cut="0.0000000000000000e+00" cType="1" res="-7.3173651471734047e-03" rms="4.7068345546722412e-01" purity="4.6766766905784607e-01" nType="-99"/>
      </Node>
    </BinaryTree>
    <BinaryTree type="DecisionTree" boostWeight="1.0000000000000000e+00" itree="328">
      <Node pos="s" depth="0" NCoef="0" IVar="3" Cut="-8.0208969116210938e-01" cType="1" res="-2.3100033868104219e-03" rms="4.8886349797248840e-01" purity="4.9763098359107971e-01" nType="0">
        <Node pos="l" depth="1" NCoef="0" IVar="0" Cut="9.7048664093017578e+00" cType="1" res="5.4923868738114834e-03" rms="4.8571023344993591e-01" purity="4.1148769855499268e-01" nType="0">
          <Node pos="l" depth="2" NCoef="0" IVar="-1" Cut="0.0000000000000000e+00" cType="1" res="1.3030031695961952e-03" rms="4.8803791403770447e-01" purity="4.1911181807518005e-01" nType="-99"/>
          <Node pos="r" depth="2" NCoef="0" IVar="-1" Cut="0.0000000000000000e+00" cType="1" res="-8.0002853646874428e-03" rms="4.5913553237915039e-01" purity="3.3032542467117310e-01" nType="-99"/>
        </Node>
        <Node pos="r" depth="1" NCoef="0" IVar="1" Cut="3.0000000000000000e+00" cType="1" res="-4.0638991631567478e-03" rms="3.3764457702636719e-01" purity="5.4775929450988770e-01" nType="0">
          <Node pos="l" depth="2" NCoef="0" IVar="-1" Cut="0.0000000000000000e+00" cType="1" res="5.9542260714806616e-05" rms="4.9096807837486267e-01" purity="5.5001461505889893e-01" nType="-99"/>
          <Node pos="r" depth="2" NCoef="0" IVar="-1" Cut="0.0000000000000000e+00" cType="1" res="-3.4379931166768074e-03" rms="4.8960065841674805e-01" purity="5.4310911893844604e-01" nType="-99"/>
        </Node>
      </Node>
    </BinaryTree>
    <BinaryTree type="DecisionTree" boostWeight="1.0000000000000000e+00" itree="329">
      <Node pos="s" depth="0" NCoef="0" IVar="1" Cut="2.0000000000000000e+00" cType="1" res="-6.0969591140747070e-04" rms="3.0665081739425659e-01" purity="4.9996820092201233e-01" nType="0">
        <Node pos="l" depth="1" NCoef="0" IVar="0" Cut="8.8342847824096680e+00" cType="1" res="1.0354467667639256e-02" rms="4.8898828029632568e-01" purity="5.1127839088439941e-01" nType="0">
          <Node pos="l" depth="2" NCoef="0" IVar="-1" Cut="0.0000000000000000e+00" cType="1" res="-5.7795556494966149e-04" rms="4.9541470408439636e-01" purity="4.9788567423820496e-01" nType="-99"/>
          <Node pos="r" depth="2" NCoef="0" IVar="-1" Cut="0.0000000000000000e+00" cType="1" res="3.3805191051214933e-03" rms="4.8571848869323730e-01" purity="5.1766955852508545e-01" nType="-99"/>
        </Node>
        <Node pos="r" depth="1" NCoef="0" IVar="3" Cut="-8.0098485946655273e-01" cType="1" res="-3.6075604148209095e-03" rms="4.8843872547149658e-01" purity="4.9537733197212219e-01" nType="0">
          <Node pos="l" depth="2" NCoef="0" IVar="-1" Cut="0.0000000000000000e+00" cType="1" res="4.8315568710677326e-04" rms="4.8517364263534546e-01" purity="4.1051843762397766e-01" nType="-99"/>
          <Node pos="r" depth="2" NCoef="0" IVar="-1" Cut="0.0000000000000000e+00" cType="1" res="-1.1953883804380894e-03" rms="4.9042430520057678e-01" purity="5.4841220378875732e-01" nType="-99"/>
        </Node>
      </Node>
    </BinaryTree>
    <BinaryTree type="DecisionTree" boostWeight="1.0000000000000000e+00" itree="330">
      <Node pos="s" depth="0" NCoef="0" IVar="4" Cut="-7.0388096570968628e-01" cType="1" res="2.7650170959532261e-03" rms="4.8847001791000366e-01" purity="5.0206965208053589e-01" nType="0">
        <Node pos="l" depth="1" NCoef="0" IVar="5" Cut="7.9185652732849121e-01" cType="1" res="-5.4494566284120083e-03" rms="4.8559311032295227e-01" purity="4.6876764297485352e-01" nType="0">
          <Node pos="l" depth="2" NCoef="0" IVar="-1" Cut="0.0000000000000000e+00" cType="1" res="-1.3805550988763571e-03" rms="4.8598927259445190e-01" purity="4.6331760287284851e-01" nType="-99"/>
          <Node pos="r" depth="2" NCoef="0" IVar="-1" Cut="0.0000000000000000e+00" cType="1" res="3.4935355652123690e-03" rms="4.8140075802803040e-01" purity="5.1433354616165161e-01" nType="-99"/>
        </Node>
        <Node pos="r" depth="1" NCoef="0" IVar="3" Cut="-8.0125766992568970e-01" cType="1" res="5.7999840937554836e-03" rms="4.8949378728866577e-01" purity="5.1437360048294067e-01" nType="0">
          <Node pos="l" depth="2" NCoef="0" IVar="-1" Cut="0.0000000000000000e+00" cType="1" res="2.1207209210842848e-03" rms="4.8981255292892456e-01" purity="4.3752348423004150e-01" nType="-99"/>
          <Node pos="r" depth="2" NCoef="0" IVar="-1" Cut="0.0000000000000000e+00" cType="1" res="2.1471189393196255e-04" rms="4.8925283551216125e-01" purity="5.5936217308044434e-01" nType="-99"/>
        </Node>
      </Node>
    </BinaryTree>
    <BinaryTree type="DecisionTree" boostWeight="1.0000000000000000e+00" itree="331">
      <Node pos="s" depth="0" NCoef="0" IVar="2" Cut="2.0000000000000000e+00" cType="1" res="3.3010517654474825e-05" rms="3.3348876982927322e-02" purity="5.0354129076004028e-01" nType="0">
        <Node pos="l" depth="1" NCoef="0" IVar="0" Cut="8.8663482666015625e+00" cType="1" res="6.5574172185733914e-04" rms="4.8729568719863892e-01" purity="5.0037151575088501e-01" nType="0">
          <Node pos="l" depth="2" NCoef="0" IVar="-1" Cut="0.0000000000000000e+00" cType="1" res="9.9347229115664959e-04" rms="4.9309685826301575e-01" purity="5.0947064161300659e-01" nType="-99"/>
          <Node pos="r" depth="2" NCoef="0" IVar="-1" Cut="0.0000000000000000e+00" cType="1" res="-7.0982135366648436e-04" rms="4.8414880037307739e-01" purity="4.9556887149810791e-01" nType="-99"/>
        </Node>
        <Node pos="r" depth="1" NCoef="0" IVar="0" Cut="9.6356678009033203e+00" cType="1" res="7.8638195991516113e-03" rms="4.9080184102058411e-01" purity="5.0782912969589233e-01" nType="0">
          <Node pos="l" depth="2" NCoef="0" IVar="-1" Cut="0.0000000000000000e+00" cType="1" res="7.6409854227676988e-04" rms="4.9188759922981262e-01" purity="5.0582671165466309e-01" nType="-99"/>
          <Node pos="r" depth="2" NCoef="0" IVar="-1" Cut="0.0000000000000000e+00" cType="1" res="1.1124999262392521e-02" rms="4.8014882206916809e-01" purity="5.2570819854736328e-01" nType="-99"/>
        </Node>
      </Node>
    </BinaryTree>
    <BinaryTree type="DecisionTree" boostWeight="1.0000000000000000e+00" itree="332">
      <Node pos="s" depth="0" NCoef="0" IVar="1" Cut="2.0000000000000000e+00" cType="1" res="9.9018786568194628e-04" rms="2.4805472791194916e-01" purity="5.0398546457290649e-01" nType="0">
        <Node pos="l" depth="1" NCoef="0" IVar="3" Cut="-7.0572739839553833e-01" cType="1" res="-2.6881282683461905e-03" rms="4.8827773332595825e-01" purity="5.0057405233383179e-01" nType="0">
          <Node pos="l" depth="2" NCoef="0" IVar="-1" Cut="0.0000000000000000e+00" cType="1" res="-2.0110411569476128e-03" rms="4.8694366216659546e-01" purity="4.2125174403190613e-01" nType="-99"/>
          <Node pos="r" depth="2" NCoef="0" IVar="-1" Cut="0.0000000000000000e+00" cType="1" res="1.1803023517131805e-03" rms="4.8932677507400513e-01" purity="5.7625180482864380e-01" nType="-99"/>
        </Node>
        <Node pos="r" depth="1" NCoef="0" IVar="3" Cut="8.9732199907302856e-01" cType="1" res="7.2282217442989349e-03" rms="4.8809757828712463e-01" purity="5.0539565086364746e-01" nType="0">
          <Node pos="l" depth="2" NCoef="0" IVar="-1" Cut="0.0000000000000000e+00" cType="1" res="1.5125353820621967e-03" rms="4.9137246608734131e-01" purity="4.7465240955352783e-01" nType="-99"/>
          <Node pos="r" depth="2" NCoef="0" IVar="-1" Cut="0.0000000000000000e+00" cType="1" res="-6.2524224631488323e-04" rms="4.7371080517768860e-01" purity="6.3668471574783325e-01" nType="-99"/>
        </Node>
      </Node>
    </BinaryTree>
    <BinaryTree type="DecisionTree" boostWeight="1.0000000000000000e+00" itree="333">
      <Node pos="s" depth="0" NCoef="0" IVar="0" Cut="8.1768674850463867e+00" cType="1" res="1.4969828771427274e-03" rms="4.8970234394073486e-01" purity="5.0146162509918213e-01" nType="0">
        <Node pos="l" depth="1" NCoef="0" IVar="-1" Cut="0.0000000000000000e+00" cType="1" res="3.0193272978067398e-03" rms="5.0032722949981689e-01" purity="5.2439332008361816e-01" nType="-99"/>
        <Node pos="r" depth="1" NCoef="0" IVar="3" Cut="8.9521527290344238e-01" cType="1" res="-2.4953737738542259e-04" rms="4.8903015255928040e-01" purity="5.0015032291412354e-01" nType="0">
          <Node pos="l" depth="2" NCoef="0" IVar="-1" Cut="0.0000000000000000e+00" cType="1" res="3.4645013511180878e-04" rms="4.9187722802162170e-01" purity="4.7090449929237366e-01" nType="-99"/>
          <Node pos="r" depth="2" NCoef="0" IVar="-1" Cut="0.0000000000000000e+00" cType="1" res="-2.1648202091455460e-03" rms="4.7570610046386719e-01" purity="6.3322329521179199e-01" nType="-99"/>
        </Node>
      </Node>
    </BinaryTree>
    <BinaryTree type="DecisionTree" boostWeight="1.0000000000000000e+00" itree="334">
      <Node pos="s" depth="0" NCoef="0" IVar="5" Cut="4.9103636294603348e-02" cType="1" res="-5.0632801139727235e-04" rms="4.8848372697830200e-01" purity="5.0018036365509033e-01" nType="0">
        <Node pos="l" depth="1" NCoef="0" IVar="3" Cut="8.0293953418731689e-01" cType="1" res="1.3779570581391454e-03" rms="4.8891219496726990e-01" purity="5.0085616111755371e-01" nType="0">
          <Node pos="l" depth="2" NCoef="0" IVar="-1" Cut="0.0000000000000000e+00" cType="1" res="7.4884615605697036e-04" rms="4.9117332696914673e-01" purity="4.5231059193611145e-01" nType="-99"/>
          <Node pos="r" depth="2" NCoef="0" IVar="-1" Cut="0.0000000000000000e+00" cType="1" res="-7.8726524952799082e-04" rms="4.8489031195640564e-01" purity="5.8536285161972046e-01" nType="-99"/>
        </Node>
        <Node pos="r" depth="1" NCoef="0" IVar="0" Cut="9.2690505981445312e+00" cType="1" res="-1.3292830437421799e-02" rms="4.8537310957908630e-01" purity="4.9559405446052551e-01" nType="0">
          <Node pos="l" depth="2" NCoef="0" IVar="-1" Cut="0.0000000000000000e+00" cType="1" res="-2.7983386535197496e-03" rms="4.8837485909461975e-01" purity="4.8755612969398499e-01" nType="-99"/>
          <Node pos="r" depth="2" NCoef="0" IVar="-1" Cut="0.0000000000000000e+00" cType="1" res="5.6558748474344611e-04" rms="4.7862553596496582e-01" purity="5.1249974966049194e-01" nType="-99"/>
        </Node>
      </Node>
    </BinaryTree>
    <BinaryTree type="DecisionTree" boostWeight="1.0000000000000000e+00" itree="335">
      <Node pos="s" depth="0" NCoef="0" IVar="4" Cut="-7.0531642436981201e-01" cType="1" res="1.2583732604980469e-03" rms="4.8875945806503296e-01" purity="5.0087720155715942e-01" nType="0">
        <Node pos="l" depth="1" NCoef="0" IVar="5" Cut="7.9156899452209473e-01" cType="1" res="1.0379021987318993e-02" rms="4.8703199625015259e-01" purity="4.8324039578437805e-01" nType="0">
          <Node pos="l" depth="2" NCoef="0" IVar="-1" Cut="0.0000000000000000e+00" cType="1" res="2.1939966827630997e-03" rms="4.8767229914665222e-01" purity="4.8491725325584412e-01" nType="-99"/>
          <Node pos="r" depth="2" NCoef="0" IVar="-1" Cut="0.0000000000000000e+00" cType="1" res="-2.7373346965759993e-03" rms="4.8096248507499695e-01" purity="4.6969181299209595e-01" nType="-99"/>
        </Node>
        <Node pos="r" depth="1" NCoef="0" IVar="2" Cut="3.0000000000000000e+00" cType="1" res="-1.3536191545426846e-03" rms="1.7696861922740936e-01" purity="5.0743007659912109e-01" nType="0">
          <Node pos="l" depth="2" NCoef="0" IVar="-1" Cut="0.0000000000000000e+00" cType="1" res="-1.6104570022434928e-05" rms="4.8930779099464417e-01" purity="5.0859475135803223e-01" nType="-99"/>
          <Node pos="r" depth="2" NCoef="0" IVar="-1" Cut="0.0000000000000000e+00" cType="1" res="-3.1020878814160824e-03" rms="4.8945876955986023e-01" purity="4.9903813004493713e-01" nType="-99"/>
        </Node>
      </Node>
    </BinaryTree>
    <BinaryTree type="DecisionTree" boostWeight="1.0000000000000000e+00" itree="336">
      <Node pos="s" depth="0" NCoef="0" IVar="4" Cut="-7.9305028915405273e-01" cType="1" res="1.6256765229627490e-03" rms="4.8812213540077209e-01" purity="5.0076073408126831e-01" nType="0">
        <Node pos="l" depth="1" NCoef="0" IVar="1" Cut="3.0000000000000000e+00" cType="1" res="6.8044885993003845e-03" rms="2.8264763951301575e-01" purity="4.8399531841278076e-01" nType="0">
          <Node pos="l" depth="2" NCoef="0" IVar="-1" Cut="0.0000000000000000e+00" cType="1" res="5.3851609118282795e-03" rms="4.8525753617286682e-01" purity="5.0009077787399292e-01" nType="-99"/>
          <Node pos="r" depth="2" NCoef="0" IVar="-1" Cut="0.0000000000000000e+00" cType="1" res="1.0495604947209358e-03" rms="4.8409742116928101e-01" purity="4.7093439102172852e-01" nType="-99"/>
        </Node>
        <Node pos="r" depth="1" NCoef="0" IVar="3" Cut="8.0266726016998291e-01" cType="1" res="-1.5347107546404004e-03" rms="4.8868834972381592e-01" purity="5.0395321846008301e-01" nType="0">
          <Node pos="l" depth="2" NCoef="0" IVar="-1" Cut="0.0000000000000000e+00" cType="1" res="-8.4001454524695873e-04" rms="4.9242034554481506e-01" purity="4.5025950670242310e-01" nType="-99"/>
          <Node pos="r" depth="2" NCoef="0" IVar="-1" Cut="0.0000000000000000e+00" cType="1" res="1.0632672347128391e-03" rms="4.8107284307479858e-01" purity="6.1091053485870361e-01" nType="-99"/>
        </Node>
      </Node>
    </BinaryTree>
    <BinaryTree type="DecisionTree" boostWeight="1.0000000000000000e+00" itree="337">
      <Node pos="s" depth="0" NCoef="0" IVar="5" Cut="-7.8307431936264038e-01" cType="1" res="6.0690910322591662e-04" rms="4.8853471875190735e-01" purity="5.0106996297836304e-01" nType="0">
        <Node pos="l" depth="1" NCoef="0" IVar="5" Cut="-8.1837689876556396e-01" cType="1" res="2.1446760743856430e-02" rms="4.8521855473518372e-01" purity="5.1814323663711548e-01" nType="0">
          <Node pos="l" depth="2" NCoef="0" IVar="-1" Cut="0.0000000000000000e+00" cType="1" res="-1.1997332330793142e-03" rms="4.8487606644630432e-01" purity="4.8878693580627441e-01" nType="-99"/>
          <Node pos="r" depth="2" NCoef="0" IVar="-1" Cut="0.0000000000000000e+00" cType="1" res="9.7888559103012085e-03" rms="4.8312062025070190e-01" purity="5.5766814947128296e-01" nType="-99"/>
        </Node>
        <Node pos="r" depth="1" NCoef="0" IVar="0" Cut="8.3375482559204102e+00" cType="1" res="-7.5422390364110470e-04" rms="4.8871961236000061e-01" purity="4.9995484948158264e-01" nType="0">
          <Node pos="l" depth="2" NCoef="0" IVar="-1" Cut="0.0000000000000000e+00" cType="1" res="-1.4956421218812466e-03" rms="4.9961605668067932e-01" purity="4.8836863040924072e-01" nType="-99"/>
          <Node pos="r" depth="2" NCoef="0" IVar="-1" Cut="0.0000000000000000e+00" cType="1" res="1.1175448889844120e-04" rms="4.8757979273796082e-01" purity="5.0112819671630859e-01" nType="-99"/>
        </Node>
      </Node>
    </BinaryTree>
    <BinaryTree type="DecisionTree" boostWeight="1.0000000000000000e+00" itree="338">
      <Node pos="s" depth="0" NCoef="0" IVar="2" Cut="2.0000000000000000e+00" cType="1" res="1.1556828394532204e-04" rms="1.8571367859840393e-01" purity="4.9655219912528992e-01" nType="0">
        <Node pos="l" depth="1" NCoef="0" IVar="4" Cut="-6.9943785667419434e-01" cType="1" res="-7.7100945636630058e-03" rms="4.8648554086685181e-01" purity="4.9333965778350830e-01" nType="0">
          <Node pos="l" depth="2" NCoef="0" IVar="-1" Cut="0.0000000000000000e+00" cType="1" res="4.3608152191154659e-04" rms="4.8522350192070007e-01" purity="4.8142814636230469e-01" nType="-99"/>
          <Node pos="r" depth="2" NCoef="0" IVar="-1" Cut="0.0000000000000000e+00" cType="1" res="-1.8605407094582915e-03" rms="4.8695516586303711e-01" purity="4.9843522906303406e-01" nType="-99"/>
        </Node>
        <Node pos="r" depth="1" NCoef="0" IVar="1" Cut="2.0000000000000000e+00" cType="1" res="4.0366765460930765e-04" rms="3.3984962105751038e-01" purity="5.0090771913528442e-01" nType="0">
          <Node pos="l" depth="2" NCoef="0" IVar="-1" Cut="0.0000000000000000e+00" cType="1" res="2.3041861131787300e-03" rms="4.9093049764633179e-01" purity="5.1780343055725098e-01" nType="-99"/>
          <Node pos="r" depth="2" NCoef="0" IVar="-1" Cut="0.0000000000000000e+00" cType="1" res="-7.1056868182495236e-04" rms="4.9000880122184753e-01" purity="4.9308073520660400e-01" nType="-99"/>
        </Node>
      </Node>
    </BinaryTree>
    <BinaryTree type="DecisionTree" boostWeight="1.0000000000000000e+00" itree="339">
      <Node pos="s" depth="0" NCoef="0" IVar="3" Cut="8.0142021179199219e-01" cType="1" res="3.6208778619766235e-03" rms="4.8943170905113220e-01" purity="5.0290745496749878e-01" nType="0">
        <Node pos="l" depth="1" NCoef="0" IVar="4" Cut="4.5820787549018860e-02" cType="1" res="8.4405401721596718e-03" rms="4.9182838201522827e-01" purity="4.5228865742683411e-01" nType="0">
          <Node pos="l" depth="2" NCoef="0" IVar="-1" Cut="0.0000000000000000e+00" cType="1" res="1.9128785934299231e-03" rms="4.9153631925582886e-01" purity="4.5349019765853882e-01" nType="-99"/>
          <Node pos="r" depth="2" NCoef="0" IVar="-1" Cut="0.0000000000000000e+00" cType="1" res="-3.3146483474411070e-04" rms="4.9245184659957886e-01" purity="4.4907572865486145e-01" nType="-99"/>
        </Node>
        <Node pos="r" depth="1" NCoef="0" IVar="3" Cut="8.5531932115554810e-01" cType="1" res="-4.4600171968340874e-03" rms="4.8527932167053223e-01" purity="5.8777743577957153e-01" nType="0">
          <Node pos="l" depth="2" NCoef="0" IVar="-1" Cut="0.0000000000000000e+00" cType="1" res="-3.5487643908709288e-03" rms="4.9838131666183472e-01" purity="5.2423799037933350e-01" nType="-99"/>
          <Node pos="r" depth="2" NCoef="0" IVar="-1" Cut="0.0000000000000000e+00" cType="1" res="5.3773511899635196e-04" rms="4.7970944643020630e-01" purity="6.1330193281173706e-01" nType="-99"/>
        </Node>
      </Node>
    </BinaryTree>
    <BinaryTree type="DecisionTree" boostWeight="1.0000000000000000e+00" itree="340">
      <Node pos="s" depth="0" NCoef="0" IVar="4" Cut="4.5133929699659348e-02" cType="1" res="-2.7330254670232534e-03" rms="4.8846265673637390e-01" purity="4.9833348393440247e-01" nType="0">
        <Node pos="l" depth="1" NCoef="0" IVar="1" Cut="2.0000000000000000e+00" cType="1" res="1.4195524854585528e-03" rms="3.4332057833671570e-01" purity="4.9197050929069519e-01" nType="0">
          <Node pos="l" depth="2" NCoef="0" IVar="-1" Cut="0.0000000000000000e+00" cType="1" res="-1.1190673103556037e-03" rms="4.8862969875335693e-01" purity="4.9127388000488281e-01" nType="-99"/>
          <Node pos="r" depth="2" NCoef="0" IVar="-1" Cut="0.0000000000000000e+00" cType="1" res="6.9182604784145951e-04" rms="4.8922672867774963e-01" purity="4.9232929944992065e-01" nType="-99"/>
        </Node>
        <Node pos="r" depth="1" NCoef="0" IVar="5" Cut="4.6157043427228928e-02" cType="1" res="-1.0664070956408978e-02" rms="4.8687997460365295e-01" purity="5.1434540748596191e-01" nType="0">
          <Node pos="l" depth="2" NCoef="0" IVar="-1" Cut="0.0000000000000000e+00" cType="1" res="-9.5567980315536261e-04" rms="4.8636850714683533e-01" purity="5.1484704017639160e-01" nType="-99"/>
          <Node pos="r" depth="2" NCoef="0" IVar="-1" Cut="0.0000000000000000e+00" cType="1" res="-4.4925329275429249e-03" rms="4.8835891485214233e-01" purity="5.1250499486923218e-01" nType="-99"/>
        </Node>
      </Node>
    </BinaryTree>
    <BinaryTree type="DecisionTree" boostWeight="1.0000000000000000e+00" itree="341">
      <Node pos="s" depth="0" NCoef="0" IVar="1" Cut="5.0000000000000000e+00" cType="1" res="-1.3483855873346329e-03" rms="3.0781403183937073e-01" purity="4.9843770265579224e-01" nType="0">
        <Node pos="l" depth="1" NCoef="0" IVar="5" Cut="7.9321867227554321e-01" cType="1" res="-3.5147296730428934e-03" rms="4.8818939924240112e-01" purity="4.9657854437828064e-01" nType="0">
          <Node pos="l" depth="2" NCoef="0" IVar="-1" Cut="0.0000000000000000e+00" cType="1" res="-7.3696742765605450e-04" rms="4.8838159441947937e-01" purity="4.9488410353660583e-01" nType="-99"/>
          <Node pos="r" depth="2" NCoef="0" IVar="-1" Cut="0.0000000000000000e+00" cType="1" res="3.8123098202049732e-03" rms="4.8323181271553040e-01" purity="5.3373044729232788e-01" nType="-99"/>
        </Node>
        <Node pos="r" depth="1" NCoef="0" IVar="-1" Cut="0.0000000000000000e+00" cType="1" res="3.4699570387601852e-03" rms="4.8942434787750244e-01" purity="5.3659468889236450e-01" nType="-99"/>
      </Node>
    </BinaryTree>
    <BinaryTree type="DecisionTree" boostWeight="1.0000000000000000e+00" itree="342">
      <Node pos="s" depth="0" NCoef="0" IVar="3" Cut="8.9724975824356079e-01" cType="1" res="-2.2155975457280874e-03" rms="4.8754599690437317e-01" purity="4.9743446707725525e-01" nType="0">
        <Node pos="l" depth="1" NCoef="0" IVar="0" Cut="8.5612230300903320e+00" cType="1" res="-5.6003807112574577e-03" rms="4.9203187227249146e-01" purity="4.6345707774162292e-01" nType="0">
          <Node pos="l" depth="2" NCoef="0" IVar="-1" Cut="0.0000000000000000e+00" cType="1" res="-2.5228129234164953e-03" rms="4.9550163745880127e-01" purity="4.7084015607833862e-01" nType="-99"/>
          <Node pos="r" depth="2" NCoef="0" IVar="-1" Cut="0.0000000000000000e+00" cType="1" res="-2.3650887305848300e-04" rms="4.9114274978637695e-01" purity="4.6178382635116577e-01" nType="-99"/>
        </Node>
        <Node pos="r" depth="1" NCoef="0" IVar="3" Cut="9.2423987388610840e-01" cType="1" res="1.3857445679605007e-02" rms="4.6531876921653748e-01" purity="6.5878003835678101e-01" nType="0">
          <Node pos="l" depth="2" NCoef="0" IVar="-1" Cut="0.0000000000000000e+00" cType="1" res="-2.2790108341723680e-03" rms="4.9057149887084961e-01" purity="5.8409160375595093e-01" nType="-99"/>
          <Node pos="r" depth="2" NCoef="0" IVar="-1" Cut="0.0000000000000000e+00" cType="1" res="5.9291357174515724e-03" rms="4.4902944564819336e-01" purity="7.0268660783767700e-01" nType="-99"/>
        </Node>
      </Node>
    </BinaryTree>
    <BinaryTree type="DecisionTree" boostWeight="1.0000000000000000e+00" itree="343">
      <Node pos="s" depth="0" NCoef="0" IVar="0" Cut="8.3852252960205078e+00" cType="1" res="3.9882599376142025e-03" rms="4.8794364929199219e-01" purity="5.0354039669036865e-01" nType="0">
        <Node pos="l" depth="1" NCoef="0" IVar="0" Cut="8.1404066085815430e+00" cType="1" res="2.4648474529385567e-02" rms="4.9795159697532654e-01" purity="5.2706140279769897e-01" nType="0">
          <Node pos="l" depth="2" NCoef="0" IVar="-1" Cut="0.0000000000000000e+00" cType="1" res="1.4217530842870474e-03" rms="5.0393277406692505e-01" purity="5.0637817382812500e-01" nType="-99"/>
          <Node pos="r" depth="2" NCoef="0" IVar="-1" Cut="0.0000000000000000e+00" cType="1" res="3.2768424134701490e-03" rms="4.9317419528961182e-01" purity="5.4290890693664551e-01" nType="-99"/>
        </Node>
        <Node pos="r" depth="1" NCoef="0" IVar="4" Cut="-8.9296233654022217e-01" cType="1" res="1.5188754769042134e-03" rms="4.8667502403259277e-01" purity="5.0072908401489258e-01" nType="0">
          <Node pos="l" depth="2" NCoef="0" IVar="-1" Cut="0.0000000000000000e+00" cType="1" res="-6.0831801965832710e-03" rms="4.7069722414016724e-01" purity="4.3527188897132874e-01" nType="-99"/>
          <Node pos="r" depth="2" NCoef="0" IVar="-1" Cut="0.0000000000000000e+00" cType="1" res="4.7056880430318415e-04" rms="4.8725518584251404e-01" purity="5.0332891941070557e-01" nType="-99"/>
        </Node>
      </Node>
    </BinaryTree>
    <BinaryTree type="DecisionTree" boostWeight="1.0000000000000000e+00" itree="344">
      <Node pos="s" depth="0" NCoef="0" IVar="0" Cut="8.6105670928955078e+00" cType="1" res="1.0894917650148273e-03" rms="4.8856201767921448e-01" purity="5.0145381689071655e-01" nType="0">
        <Node pos="l" depth="1" NCoef="0" IVar="0" Cut="8.4580783843994141e+00" cType="1" res="1.4007177203893661e-02" rms="4.9581712484359741e-01" purity="5.2158528566360474e-01" nType="0">
          <Node pos="l" depth="2" NCoef="0" IVar="-1" Cut="0.0000000000000000e+00" cType="1" res="-1.1543874279595912e-05" rms="4.9772003293037415e-01" purity="5.0801801681518555e-01" nType="-99"/>
          <Node pos="r" depth="2" NCoef="0" IVar="-1" Cut="0.0000000000000000e+00" cType="1" res="4.7346190549433231e-03" rms="4.9078175425529480e-01" purity="5.4867327213287354e-01" nType="-99"/>
        </Node>
        <Node pos="r" depth="1" NCoef="0" IVar="2" Cut="3.0000000000000000e+00" cType="1" res="-1.9981493242084980e-03" rms="4.2936158180236816e-01" purity="4.9665740132331848e-01" nType="0">
          <Node pos="l" depth="2" NCoef="0" IVar="-1" Cut="0.0000000000000000e+00" cType="1" res="-6.1017817643005401e-05" rms="4.8629644513130188e-01" purity="4.9784582853317261e-01" nType="-99"/>
          <Node pos="r" depth="2" NCoef="0" IVar="-1" Cut="0.0000000000000000e+00" cType="1" res="-3.3872588537633419e-03" rms="4.9043515324592590e-01" purity="4.8681241273880005e-01" nType="-99"/>
        </Node>
      </Node>
    </BinaryTree>
    <BinaryTree type="DecisionTree" boostWeight="1.0000000000000000e+00" itree="345">
      <Node pos="s" depth="0" NCoef="0" IVar="5" Cut="4.9720384180545807e-02" cType="1" res="1.8970415694639087e-03" rms="4.8821574449539185e-01" purity="5.0306040048599243e-01" nType="0">
        <Node pos="l" depth="1" NCoef="0" IVar="4" Cut="-7.0351266860961914e-01" cType="1" res="4.3961186893284321e-03" rms="4.8870733380317688e-01" purity="5.0497639179229736e-01" nType="0">
          <Node pos="l" depth="2" NCoef="0" IVar="-1" Cut="0.0000000000000000e+00" cType="1" res="-1.0680021950975060e-03" rms="4.8761057853698730e-01" purity="4.6829774975776672e-01" nType="-99"/>
          <Node pos="r" depth="2" NCoef="0" IVar="-1" Cut="0.0000000000000000e+00" cType="1" res="1.2048758799210191e-03" rms="4.8899379372596741e-01" purity="5.1620835065841675e-01" nType="-99"/>
        </Node>
        <Node pos="r" depth="1" NCoef="0" IVar="5" Cut="7.4441230297088623e-01" cType="1" res="-1.5515621751546860e-02" rms="4.8441889882087708e-01" purity="4.8971086740493774e-01" nType="0">
          <Node pos="l" depth="2" NCoef="0" IVar="-1" Cut="0.0000000000000000e+00" cType="1" res="2.3564533330500126e-03" rms="4.8881539702415466e-01" purity="5.1444149017333984e-01" nType="-99"/>
          <Node pos="r" depth="2" NCoef="0" IVar="-1" Cut="0.0000000000000000e+00" cType="1" res="-4.0505137294530869e-03" rms="4.8277291655540466e-01" purity="4.8258063197135925e-01" nType="-99"/>
        </Node>
      </Node>
    </BinaryTree>
    <BinaryTree type="DecisionTree" boostWeight="1.0000000000000000e+00" itree="346">
      <Node pos="s" depth="0" NCoef="0" IVar="5" Cut="-7.8273791074752808e-01" cType="1" res="4.1013155132532120e-03" rms="4.8834264278411865e-01" purity="5.0459921360015869e-01" nType="0">
        <Node pos="l" depth="1" NCoef="0" IVar="5" Cut="-8.2691210508346558e-01" cType="1" res="2.6003766804933548e-02" rms="4.8612546920776367e-01" purity="5.2566093206405640e-01" nType="0">
          <Node pos="l" depth="2" NCoef="0" IVar="-1" Cut="0.0000000000000000e+00" cType="1" res="2.7723619714379311e-03" rms="4.8693329095840454e-01" purity="5.0867223739624023e-01" nType="-99"/>
          <Node pos="r" depth="2" NCoef="0" IVar="-1" Cut="0.0000000000000000e+00" cType="1" res="6.0066934674978256e-03" rms="4.8507910966873169e-01" purity="5.4249799251556396e-01" nType="-99"/>
        </Node>
        <Node pos="r" depth="1" NCoef="0" IVar="0" Cut="8.3821563720703125e+00" cType="1" res="2.7136337012052536e-03" rms="4.8844969272613525e-01" purity="5.0326478481292725e-01" nType="0">
          <Node pos="l" depth="2" NCoef="0" IVar="-1" Cut="0.0000000000000000e+00" cType="1" res="1.3770860387012362e-03" rms="4.9794477224349976e-01" purity="5.1949000358581543e-01" nType="-99"/>
          <Node pos="r" depth="2" NCoef="0" IVar="-1" Cut="0.0000000000000000e+00" cType="1" res="2.4444441078230739e-04" rms="4.8733398318290710e-01" purity="5.0140601396560669e-01" nType="-99"/>
        </Node>
      </Node>
    </BinaryTree>
    <BinaryTree type="DecisionTree" boostWeight="1.0000000000000000e+00" itree="347">
      <Node pos="s" depth="0" NCoef="0" IVar="3" Cut="-8.9649742841720581e-01" cType="1" res="-1.8431546632200480e-03" rms="4.8906996846199036e-01" purity="4.9884584546089172e-01" nType="0">
        <Node pos="l" depth="1" NCoef="0" IVar="3" Cut="-9.4146376848220825e-01" cType="1" res="8.8363429531455040e-03" rms="4.7315320372581482e-01" purity="3.5998210310935974e-01" nType="0">
          <Node pos="l" depth="2" NCoef="0" IVar="-1" Cut="0.0000000000000000e+00" cType="1" res="-9.2925765784457326e-04" rms="4.4745421409606934e-01" purity="2.8809696435928345e-01" nType="-99"/>
          <Node pos="r" depth="2" NCoef="0" IVar="-1" Cut="0.0000000000000000e+00" cType="1" res="3.0362296383827925e-03" rms="4.8840501904487610e-01" purity="4.0511855483055115e-01" nType="-99"/>
        </Node>
        <Node pos="r" depth="1" NCoef="0" IVar="1" Cut="4.0000000000000000e+00" cType="1" res="-3.9697051979601383e-03" rms="3.5335287451744080e-01" purity="5.2694791555404663e-01" nType="0">
          <Node pos="l" depth="2" NCoef="0" IVar="-1" Cut="0.0000000000000000e+00" cType="1" res="-2.1852242934983224e-04" rms="4.9237707257270813e-01" purity="5.2746802568435669e-01" nType="-99"/>
          <Node pos="r" depth="2" NCoef="0" IVar="-1" Cut="0.0000000000000000e+00" cType="1" res="-3.3799880184233189e-03" rms="4.9065092206001282e-01" purity="5.2343732118606567e-01" nType="-99"/>
        </Node>
      </Node>
    </BinaryTree>
    <BinaryTree type="DecisionTree" boostWeight="1.0000000000000000e+00" itree="348">
      <Node pos="s" depth="0" NCoef="0" IVar="0" Cut="9.5736255645751953e+00" cType="1" res="2.6001399382948875e-03" rms="4.8874223232269287e-01" purity="5.0310319662094116e-01" nType="0">
        <Node pos="l" depth="1" NCoef="0" IVar="5" Cut="7.9369640350341797e-01" cType="1" res="1.0868012905120850e-03" rms="4.9043959379196167e-01" purity="5.0238478183746338e-01" nType="0">
          <Node pos="l" depth="2" NCoef="0" IVar="-1" Cut="0.0000000000000000e+00" cType="1" res="3.3541879383847117e-04" rms="4.9070325493812561e-01" purity="5.0275367498397827e-01" nType="-99"/>
          <Node pos="r" depth="2" NCoef="0" IVar="-1" Cut="0.0000000000000000e+00" cType="1" res="-3.4219285007566214e-03" rms="4.8489558696746826e-01" purity="4.9540418386459351e-01" nType="-99"/>
        </Node>
        <Node pos="r" depth="1" NCoef="0" IVar="1" Cut="2.0000000000000000e+00" cType="1" res="1.2677704915404320e-02" rms="4.6211272478103638e-01" purity="5.0776290893554688e-01" nType="0">
          <Node pos="l" depth="2" NCoef="0" IVar="-1" Cut="0.0000000000000000e+00" cType="1" res="-1.1859829537570477e-03" rms="4.7889333963394165e-01" purity="4.8669165372848511e-01" nType="-99"/>
          <Node pos="r" depth="2" NCoef="0" IVar="-1" Cut="0.0000000000000000e+00" cType="1" res="5.6723486632108688e-03" rms="4.7669103741645813e-01" purity="5.1669406890869141e-01" nType="-99"/>
        </Node>
      </Node>
    </BinaryTree>
    <BinaryTree type="DecisionTree" boostWeight="1.0000000000000000e+00" itree="349">
      <Node pos="s" depth="0" NCoef="0" IVar="1" Cut="4.0000000000000000e+00" cType="1" res="1.7240587621927261e-03" rms="3.1545448303222656e-01" purity="5.0031274557113647e-01" nType="0">
        <Node pos="l" depth="1" NCoef="0" IVar="3" Cut="-8.9614665508270264e-01" cType="1" res="-3.4579888451844454e-03" rms="4.8822543025016785e-01" purity="4.9760031700134277e-01" nType="0">
          <Node pos="l" depth="2" NCoef="0" IVar="-1" Cut="0.0000000000000000e+00" cType="1" res="-3.4345670137554407e-03" rms="4.6242988109588623e-01" purity="3.2989561557769775e-01" nType="-99"/>
          <Node pos="r" depth="2" NCoef="0" IVar="-1" Cut="0.0000000000000000e+00" cType="1" res="-1.0844790813280270e-04" rms="4.9281537532806396e-01" purity="5.2872687578201294e-01" nType="-99"/>
        </Node>
        <Node pos="r" depth="1" NCoef="0" IVar="3" Cut="-7.0677375793457031e-01" cType="1" res="1.3260483741760254e-02" rms="4.9021324515342712e-01" purity="5.1651674509048462e-01" nType="0">
          <Node pos="l" depth="2" NCoef="0" IVar="-1" Cut="0.0000000000000000e+00" cType="1" res="3.9467196911573410e-03" rms="4.9197709560394287e-01" purity="4.5100134611129761e-01" nType="-99"/>
          <Node pos="r" depth="2" NCoef="0" IVar="-1" Cut="0.0000000000000000e+00" cType="1" res="2.3282425536308438e-04" rms="4.8814782500267029e-01" purity="5.8234465122222900e-01" nType="-99"/>
        </Node>
      </Node>
    </BinaryTree>
    <BinaryTree type="DecisionTree" boostWeight="1.0000000000000000e+00" itree="350">
      <Node pos="s" depth="0" NCoef="0" IVar="3" Cut="8.9630240201950073e-01" cType="1" res="3.3626393415033817e-03" rms="4.8776894807815552e-01" purity="5.0342404842376709e-01" nType="0">
        <Node pos="l" depth="1" NCoef="0" IVar="0" Cut="9.3186559677124023e+00" cType="1" res="1.2429923517629504e-03" rms="4.9226525425910950e-01" purity="4.7052133083343506e-01" nType="0">
          <Node pos="l" depth="2" NCoef="0" IVar="-1" Cut="0.0000000000000000e+00" cType="1" res="5.1784876268357038e-04" rms="4.9453368782997131e-01" purity="4.8169082403182983e-01" nType="-99"/>
          <Node pos="r" depth="2" NCoef="0" IVar="-1" Cut="0.0000000000000000e+00" cType="1" res="-1.3518780469894409e-03" rms="4.8617938160896301e-01" purity="4.4113054871559143e-01" nType="-99"/>
        </Node>
        <Node pos="r" depth="1" NCoef="0" IVar="5" Cut="-6.9326204061508179e-01" cType="1" res="1.3225438073277473e-02" rms="4.6615087985992432e-01" purity="6.5652143955230713e-01" nType="0">
          <Node pos="l" depth="2" NCoef="0" IVar="-1" Cut="0.0000000000000000e+00" cType="1" res="-2.7974718250334263e-03" rms="4.8244345188140869e-01" purity="5.9527301788330078e-01" nType="-99"/>
          <Node pos="r" depth="2" NCoef="0" IVar="-1" Cut="0.0000000000000000e+00" cType="1" res="3.7635054904967546e-03" rms="4.6141716837882996e-01" purity="6.7286098003387451e-01" nType="-99"/>
        </Node>
      </Node>
    </BinaryTree>
    <BinaryTree type="DecisionTree" boostWeight="1.0000000000000000e+00" itree="351">
      <Node pos="s" depth="0" NCoef="0" IVar="0" Cut="8.6575946807861328e+00" cType="1" res="-4.4789966195821762e-03" rms="4.8872894048690796e-01" purity="4.9614125490188599e-01" nType="0">
        <Node pos="l" depth="1" NCoef="0" IVar="3" Cut="-7.0149290561676025e-01" cType="1" res="-1.5641611069440842e-02" rms="4.9681937694549561e-01" purity="4.9126940965652466e-01" nType="0">
          <Node pos="l" depth="2" NCoef="0" IVar="-1" Cut="0.0000000000000000e+00" cType="1" res="2.3275635612662882e-04" rms="4.9595546722412109e-01" purity="4.6658760309219360e-01" nType="-99"/>
          <Node pos="r" depth="2" NCoef="0" IVar="-1" Cut="0.0000000000000000e+00" cType="1" res="-3.4101011697202921e-03" rms="4.9704498052597046e-01" purity="5.1544457674026489e-01" nType="-99"/>
        </Node>
        <Node pos="r" depth="1" NCoef="0" IVar="5" Cut="7.9323053359985352e-01" cType="1" res="-1.3903815997764468e-03" rms="4.8642137646675110e-01" purity="4.9748930335044861e-01" nType="0">
          <Node pos="l" depth="2" NCoef="0" IVar="-1" Cut="0.0000000000000000e+00" cType="1" res="-5.4805719992145896e-04" rms="4.8678293824195862e-01" purity="4.9507319927215576e-01" nType="-99"/>
          <Node pos="r" depth="2" NCoef="0" IVar="-1" Cut="0.0000000000000000e+00" cType="1" res="4.9676503986120224e-03" rms="4.7934952378273010e-01" purity="5.3909057378768921e-01" nType="-99"/>
        </Node>
      </Node>
    </BinaryTree>
    <BinaryTree type="DecisionTree" boostWeight="1.0000000000000000e+00" itree="352">
      <Node pos="s" depth="0" NCoef="0" IVar="3" Cut="-7.0753949880599976e-01" cType="1" res="6.4729951554909348e-04" rms="4.8844525218009949e-01" purity="5.0084215402603149e-01" nType="0">
        <Node pos="l" depth="1" NCoef="0" IVar="2" Cut="2.0000000000000000e+00" cType="1" res="1.0356260463595390e-03" rms="1.4821811020374298e-01" purity="4.2141669988632202e-01" nType="0">
          <Node pos="l" depth="2" NCoef="0" IVar="-1" Cut="0.0000000000000000e+00" cType="1" res="6.0058460803702474e-04" rms="4.8719912767410278e-01" purity="4.2390549182891846e-01" nType="-99"/>
          <Node pos="r" depth="2" NCoef="0" IVar="-1" Cut="0.0000000000000000e+00" cType="1" res="-2.9764517676085234e-03" rms="4.8918300867080688e-01" purity="4.1802960634231567e-01" nType="-99"/>
        </Node>
        <Node pos="r" depth="1" NCoef="0" IVar="4" Cut="-7.0368498563766479e-01" cType="1" res="6.5572164021432400e-03" rms="4.8865124583244324e-01" purity="5.7861512899398804e-01" nType="0">
          <Node pos="l" depth="2" NCoef="0" IVar="-1" Cut="0.0000000000000000e+00" cType="1" res="2.7046985924243927e-03" rms="4.9126210808753967e-01" purity="5.6716537475585938e-01" nType="-99"/>
          <Node pos="r" depth="2" NCoef="0" IVar="-1" Cut="0.0000000000000000e+00" cType="1" res="3.3339572837576270e-04" rms="4.8746636509895325e-01" purity="5.8349299430847168e-01" nType="-99"/>
        </Node>
      </Node>
    </BinaryTree>
    <BinaryTree type="DecisionTree" boostWeight="1.0000000000000000e+00" itree="353">
      <Node pos="s" depth="0" NCoef="0" IVar="0" Cut="8.3375482559204102e+00" cType="1" res="-4.0157814510166645e-03" rms="4.8906758427619934e-01" purity="4.9672958254814148e-01" nType="0">
        <Node pos="l" depth="1" NCoef="0" IVar="3" Cut="-6.9478791952133179e-01" cType="1" res="-2.2016534581780434e-02" rms="4.9869579076766968e-01" purity="4.8155966401100159e-01" nType="0">
          <Node pos="l" depth="2" NCoef="0" IVar="-1" Cut="0.0000000000000000e+00" cType="1" res="-1.6058947658166289e-03" rms="4.9822705984115601e-01" purity="4.5334500074386597e-01" nType="-99"/>
          <Node pos="r" depth="2" NCoef="0" IVar="-1" Cut="0.0000000000000000e+00" cType="1" res="-2.8894958086311817e-03" rms="4.9906688928604126e-01" purity="5.0849527120590210e-01" nType="-99"/>
        </Node>
        <Node pos="r" depth="1" NCoef="0" IVar="0" Cut="9.3553028106689453e+00" cType="1" res="-2.2059592884033918e-03" rms="4.8805230855941772e-01" purity="4.9825477600097656e-01" nType="0">
          <Node pos="l" depth="2" NCoef="0" IVar="-1" Cut="0.0000000000000000e+00" cType="1" res="-8.4462697850540280e-04" rms="4.9076542258262634e-01" purity="4.9670359492301941e-01" nType="-99"/>
          <Node pos="r" depth="2" NCoef="0" IVar="-1" Cut="0.0000000000000000e+00" cType="1" res="1.6221340047195554e-03" rms="4.8119822144508362e-01" purity="5.0207453966140747e-01" nType="-99"/>
        </Node>
      </Node>
    </BinaryTree>
    <BinaryTree type="DecisionTree" boostWeight="1.0000000000000000e+00" itree="354">
      <Node pos="s" depth="0" NCoef="0" IVar="5" Cut="-6.9014042615890503e-01" cType="1" res="2.9987040907144547e-03" rms="4.8946383595466614e-01" purity="5.0373637676239014e-01" nType="0">
        <Node pos="l" depth="1" NCoef="0" IVar="3" Cut="8.9540570974349976e-01" cType="1" res="2.0675359293818474e-02" rms="4.8887559771537781e-01" purity="5.1688683032989502e-01" nType="0">
          <Node pos="l" depth="2" NCoef="0" IVar="-1" Cut="0.0000000000000000e+00" cType="1" res="5.6181349791586399e-03" rms="4.8988103866577148e-01" purity="4.8105213046073914e-01" nType="-99"/>
          <Node pos="r" depth="2" NCoef="0" IVar="-1" Cut="0.0000000000000000e+00" cType="1" res="-2.3924899287521839e-03" rms="4.8489576578140259e-01" purity="5.9677022695541382e-01" nType="-99"/>
        </Node>
        <Node pos="r" depth="1" NCoef="0" IVar="2" Cut="3.0000000000000000e+00" cType="1" res="-1.2289300502743572e-04" rms="3.5051152110099792e-02" purity="5.0187200307846069e-01" nType="0">
          <Node pos="l" depth="2" NCoef="0" IVar="-1" Cut="0.0000000000000000e+00" cType="1" res="-3.4221785608679056e-04" rms="4.8900035023689270e-01" purity="4.9858906865119934e-01" nType="-99"/>
          <Node pos="r" depth="2" NCoef="0" IVar="-1" Cut="0.0000000000000000e+00" cType="1" res="3.8197145331650972e-03" rms="4.9274721741676331e-01" purity="5.2664422988891602e-01" nType="-99"/>
        </Node>
      </Node>
    </BinaryTree>
    <BinaryTree type="DecisionTree" boostWeight="1.0000000000000000e+00" itree="355">
      <Node pos="s" depth="0" NCoef="0" IVar="0" Cut="8.9637928009033203e+00" cType="1" res="-2.8241712134331465e-03" rms="4.8882573843002319e-01" purity="4.9773764610290527e-01" nType="0">
        <Node pos="l" depth="1" NCoef="0" IVar="2" Cut="2.0000000000000000e+00" cType="1" res="-1.3806228525936604e-04" rms="1.5019818209111691e-02" purity="4.9227309226989746e-01" nType="0">
          <Node pos="l" depth="2" NCoef="0" IVar="-1" Cut="0.0000000000000000e+00" cType="1" res="-2.0182630978524685e-03" rms="4.9430274963378906e-01" purity="4.8446550965309143e-01" nType="-99"/>
          <Node pos="r" depth="2" NCoef="0" IVar="-1" Cut="0.0000000000000000e+00" cType="1" res="1.8659989291336387e-04" rms="4.9545684456825256e-01" purity="5.0251084566116333e-01" nType="-99"/>
        </Node>
        <Node pos="r" depth="1" NCoef="0" IVar="0" Cut="9.2891731262207031e+00" cType="1" res="2.0283360499888659e-03" rms="4.8426994681358337e-01" purity="5.0174474716186523e-01" nType="0">
          <Node pos="l" depth="2" NCoef="0" IVar="-1" Cut="0.0000000000000000e+00" cType="1" res="2.5587708223611116e-03" rms="4.8855414986610413e-01" purity="5.1739776134490967e-01" nType="-99"/>
          <Node pos="r" depth="2" NCoef="0" IVar="-1" Cut="0.0000000000000000e+00" cType="1" res="-2.0884661935269833e-03" rms="4.8030397295951843e-01" purity="4.8828250169754028e-01" nType="-99"/>
        </Node>
      </Node>
    </BinaryTree>
    <BinaryTree type="DecisionTree" boostWeight="1.0000000000000000e+00" itree="356">
      <Node pos="s" depth="0" NCoef="0" IVar="0" Cut="8.8072624206542969e+00" cType="1" res="2.7342485263943672e-03" rms="4.8776683211326599e-01" purity="5.0343739986419678e-01" nType="0">
        <Node pos="l" depth="1" NCoef="0" IVar="3" Cut="-8.8488876819610596e-01" cType="1" res="1.6347484663128853e-02" rms="4.9422869086265564e-01" purity="5.1768028736114502e-01" nType="0">
          <Node pos="l" depth="2" NCoef="0" IVar="-1" Cut="0.0000000000000000e+00" cType="1" res="-4.0567902033217251e-04" rms="4.8945984244346619e-01" purity="4.0192341804504395e-01" nType="-99"/>
          <Node pos="r" depth="2" NCoef="0" IVar="-1" Cut="0.0000000000000000e+00" cType="1" res="2.2602609824389219e-03" rms="4.9499353766441345e-01" purity="5.3847759962081909e-01" nType="-99"/>
        </Node>
        <Node pos="r" depth="1" NCoef="0" IVar="4" Cut="8.9232796430587769e-01" cType="1" res="-3.1442239414900541e-03" rms="4.8483169078826904e-01" purity="4.9728709459304810e-01" nType="0">
          <Node pos="l" depth="2" NCoef="0" IVar="-1" Cut="0.0000000000000000e+00" cType="1" res="-8.0040300963446498e-04" rms="4.8567205667495728e-01" purity="4.9413838982582092e-01" nType="-99"/>
          <Node pos="r" depth="2" NCoef="0" IVar="-1" Cut="0.0000000000000000e+00" cType="1" res="4.1337185539305210e-03" rms="4.6562504768371582e-01" purity="5.6577634811401367e-01" nType="-99"/>
        </Node>
      </Node>
    </BinaryTree>
    <BinaryTree type="DecisionTree" boostWeight="1.0000000000000000e+00" itree="357">
      <Node pos="s" depth="0" NCoef="0" IVar="3" Cut="-7.0768195390701294e-01" cType="1" res="-3.5943658440373838e-04" rms="4.8844259977340698e-01" purity="5.0007790327072144e-01" nType="0">
        <Node pos="l" depth="1" NCoef="0" IVar="0" Cut="8.4540290832519531e+00" cType="1" res="-5.0945552065968513e-03" rms="4.8805919289588928e-01" purity="4.2237699031829834e-01" nType="0">
          <Node pos="l" depth="2" NCoef="0" IVar="-1" Cut="0.0000000000000000e+00" cType="1" res="-2.4998600129038095e-03" rms="4.9438762664794922e-01" purity="4.4342085719108582e-01" nType="-99"/>
          <Node pos="r" depth="2" NCoef="0" IVar="-1" Cut="0.0000000000000000e+00" cType="1" res="-2.9875844484195113e-04" rms="4.8696279525756836e-01" purity="4.1903659701347351e-01" nType="-99"/>
        </Node>
        <Node pos="r" depth="1" NCoef="0" IVar="0" Cut="8.4878902435302734e+00" cType="1" res="4.2971116490662098e-03" rms="4.8877462744712830e-01" purity="5.7648950815200806e-01" nType="0">
          <Node pos="l" depth="2" NCoef="0" IVar="-1" Cut="0.0000000000000000e+00" cType="1" res="3.6524767056107521e-03" rms="4.9194377660751343e-01" purity="5.7882839441299438e-01" nType="-99"/>
          <Node pos="r" depth="2" NCoef="0" IVar="-1" Cut="0.0000000000000000e+00" cType="1" res="-2.0515880896709859e-04" rms="4.8802119493484497e-01" purity="5.7608878612518311e-01" nType="-99"/>
        </Node>
      </Node>
    </BinaryTree>
    <BinaryTree type="DecisionTree" boostWeight="1.0000000000000000e+00" itree="358">
      <Node pos="s" depth="0" NCoef="0" IVar="0" Cut="9.3046350479125977e+00" cType="1" res="3.9420290850102901e-03" rms="4.8853889107704163e-01" purity="5.0387281179428101e-01" nType="0">
        <Node pos="l" depth="1" NCoef="0" IVar="4" Cut="-6.9899934530258179e-01" cType="1" res="8.1215985119342804e-03" rms="4.9204358458518982e-01" purity="5.1007616519927979e-01" nType="0">
          <Node pos="l" depth="2" NCoef="0" IVar="-1" Cut="0.0000000000000000e+00" cType="1" res="2.5170000735670328e-03" rms="4.9109113216400146e-01" purity="4.9482226371765137e-01" nType="-99"/>
          <Node pos="r" depth="2" NCoef="0" IVar="-1" Cut="0.0000000000000000e+00" cType="1" res="5.9397629229351878e-04" rms="4.9235853552818298e-01" purity="5.1595109701156616e-01" nType="-99"/>
        </Node>
        <Node pos="r" depth="1" NCoef="0" IVar="1" Cut="3.0000000000000000e+00" cType="1" res="-6.0475827194750309e-03" rms="4.7799536585807800e-01" purity="4.8947438597679138e-01" nType="0">
          <Node pos="l" depth="2" NCoef="0" IVar="-1" Cut="0.0000000000000000e+00" cType="1" res="-2.8027652297168970e-03" rms="4.8027467727661133e-01" purity="4.8150616884231567e-01" nType="-99"/>
          <Node pos="r" depth="2" NCoef="0" IVar="-1" Cut="0.0000000000000000e+00" cType="1" res="1.2638985645025969e-03" rms="4.7977337241172791e-01" purity="5.0426733493804932e-01" nType="-99"/>
        </Node>
      </Node>
    </BinaryTree>
    <BinaryTree type="DecisionTree" boostWeight="1.0000000000000000e+00" itree="359">
      <Node pos="s" depth="0" NCoef="0" IVar="0" Cut="8.2212305068969727e+00" cType="1" res="-2.7586463838815689e-03" rms="4.8850986361503601e-01" purity="4.9904584884643555e-01" nType="0">
        <Node pos="l" depth="1" NCoef="0" IVar="-1" Cut="0.0000000000000000e+00" cType="1" res="-2.8079322073608637e-03" rms="5.0197410583496094e-01" purity="4.6814736723899841e-01" nType="-99"/>
        <Node pos="r" depth="1" NCoef="0" IVar="5" Cut="5.0952039659023285e-02" cType="1" res="-1.2209218693897128e-03" rms="4.8761042952537537e-01" purity="5.0098723173141479e-01" nType="0">
          <Node pos="l" depth="2" NCoef="0" IVar="-1" Cut="0.0000000000000000e+00" cType="1" res="-5.2412285003811121e-04" rms="4.8795741796493530e-01" purity="4.9803411960601807e-01" nType="-99"/>
          <Node pos="r" depth="2" NCoef="0" IVar="-1" Cut="0.0000000000000000e+00" cType="1" res="2.0471019670367241e-03" rms="4.8497837781906128e-01" purity="5.2146315574645996e-01" nType="-99"/>
        </Node>
      </Node>
    </BinaryTree>
    <BinaryTree type="DecisionTree" boostWeight="1.0000000000000000e+00" itree="360">
      <Node pos="s" depth="0" NCoef="0" IVar="4" Cut="4.5908533036708832e-02" cType="1" res="-1.0867095552384853e-03" rms="4.8891070485115051e-01" purity="4.9933850765228271e-01" nType="0">
        <Node pos="l" depth="1" NCoef="0" IVar="3" Cut="-8.0078196525573730e-01" cType="1" res="1.2117761652916670e-03" rms="4.9005573987960815e-01" purity="4.9215081334114075e-01" nType="0">
          <Node pos="l" depth="2" NCoef="0" IVar="-1" Cut="0.0000000000000000e+00" cType="1" res="1.2901148293167353e-03" rms="4.8336467146873474e-01" purity="3.9922910928726196e-01" nType="-99"/>
          <Node pos="r" depth="2" NCoef="0" IVar="-1" Cut="0.0000000000000000e+00" cType="1" res="-3.0597310978919268e-04" rms="4.9324166774749756e-01" purity="5.3729689121246338e-01" nType="-99"/>
        </Node>
        <Node pos="r" depth="1" NCoef="0" IVar="0" Cut="8.7281847000122070e+00" cType="1" res="-7.0178513415157795e-03" rms="4.8589336872100830e-01" purity="5.1788604259490967e-01" nType="0">
          <Node pos="l" depth="2" NCoef="0" IVar="-1" Cut="0.0000000000000000e+00" cType="1" res="-2.8672702610492706e-03" rms="4.9335154891014099e-01" purity="5.0202000141143799e-01" nType="-99"/>
          <Node pos="r" depth="2" NCoef="0" IVar="-1" Cut="0.0000000000000000e+00" cType="1" res="-1.3289712660480291e-04" rms="4.8325237631797791e-01" purity="5.2309393882751465e-01" nType="-99"/>
        </Node>
      </Node>
    </BinaryTree>
    <BinaryTree type="DecisionTree" boostWeight="1.0000000000000000e+00" itree="361">
      <Node pos="s" depth="0" NCoef="0" IVar="4" Cut="7.9837298393249512e-01" cType="1" res="-9.3458639457821846e-04" rms="4.8853841423988342e-01" purity="5.0024104118347168e-01" nType="0">
        <Node pos="l" depth="1" NCoef="0" IVar="1" Cut="4.0000000000000000e+00" cType="1" res="2.4486368056386709e-03" rms="3.7475273013114929e-01" purity="4.9643269181251526e-01" nType="0">
          <Node pos="l" depth="2" NCoef="0" IVar="-1" Cut="0.0000000000000000e+00" cType="1" res="-1.7084898718167096e-04" rms="4.8919403553009033e-01" purity="4.9453261494636536e-01" nType="-99"/>
          <Node pos="r" depth="2" NCoef="0" IVar="-1" Cut="0.0000000000000000e+00" cType="1" res="3.0785631388425827e-03" rms="4.8863494396209717e-01" purity="5.1065957546234131e-01" nType="-99"/>
        </Node>
        <Node pos="r" depth="1" NCoef="0" IVar="1" Cut="3.0000000000000000e+00" cType="1" res="-6.0210302472114563e-03" rms="3.0927443504333496e-01" purity="5.2142739295959473e-01" nType="0">
          <Node pos="l" depth="2" NCoef="0" IVar="-1" Cut="0.0000000000000000e+00" cType="1" res="-4.6875313855707645e-03" rms="4.8095959424972534e-01" purity="5.0569105148315430e-01" nType="-99"/>
          <Node pos="r" depth="2" NCoef="0" IVar="-1" Cut="0.0000000000000000e+00" cType="1" res="-3.3310745493508875e-04" rms="4.8754766583442688e-01" purity="5.3394705057144165e-01" nType="-99"/>
        </Node>
      </Node>
    </BinaryTree>
    <BinaryTree type="DecisionTree" boostWeight="1.0000000000000000e+00" itree="362">
      <Node pos="s" depth="0" NCoef="0" IVar="1" Cut="2.0000000000000000e+00" cType="1" res="-5.7432561879977584e-04" rms="1.6585430502891541e-01" purity="5.0222605466842651e-01" nType="0">
        <Node pos="l" depth="1" NCoef="0" IVar="0" Cut="9.4202260971069336e+00" cType="1" res="-4.5481259003281593e-03" rms="4.8931074142456055e-01" purity="4.9809679388999939e-01" nType="0">
          <Node pos="l" depth="2" NCoef="0" IVar="-1" Cut="0.0000000000000000e+00" cType="1" res="-1.2447830522432923e-04" rms="4.9200773239135742e-01" purity="5.0418728590011597e-01" nType="-99"/>
          <Node pos="r" depth="2" NCoef="0" IVar="-1" Cut="0.0000000000000000e+00" cType="1" res="-4.2332955636084080e-03" rms="4.7961938381195068e-01" purity="4.7695806622505188e-01" nType="-99"/>
        </Node>
        <Node pos="r" depth="1" NCoef="0" IVar="3" Cut="8.0103492736816406e-01" cType="1" res="3.9360136725008488e-03" rms="4.8865553736686707e-01" purity="5.0392198562622070e-01" nType="0">
          <Node pos="l" depth="2" NCoef="0" IVar="-1" Cut="0.0000000000000000e+00" cType="1" res="1.3415754074230790e-03" rms="4.9078789353370667e-01" purity="4.4882333278656006e-01" nType="-99"/>
          <Node pos="r" depth="2" NCoef="0" IVar="-1" Cut="0.0000000000000000e+00" cType="1" res="-5.3131760796532035e-04" rms="4.8530665040016174e-01" purity="5.8778244256973267e-01" nType="-99"/>
        </Node>
      </Node>
    </BinaryTree>
    <BinaryTree type="DecisionTree" boostWeight="1.0000000000000000e+00" itree="363">
      <Node pos="s" depth="0" NCoef="0" IVar="1" Cut="2.0000000000000000e+00" cType="1" res="2.9380302294157445e-05" rms="2.7574124932289124e-01" purity="4.9707037210464478e-01" nType="0">
        <Node pos="l" depth="1" NCoef="0" IVar="3" Cut="-7.0683807134628296e-01" cType="1" res="5.1986011676490307e-03" rms="4.8942944407463074e-01" purity="5.0543379783630371e-01" nType="0">
          <Node pos="l" depth="2" NCoef="0" IVar="-1" Cut="0.0000000000000000e+00" cType="1" res="-5.6454149307683110e-04" rms="4.9030396342277527e-01" purity="4.2639291286468506e-01" nType="-99"/>
          <Node pos="r" depth="2" NCoef="0" IVar="-1" Cut="0.0000000000000000e+00" cType="1" res="2.1828056778758764e-03" rms="4.8841828107833862e-01" purity="5.8256691694259644e-01" nType="-99"/>
        </Node>
        <Node pos="r" depth="1" NCoef="0" IVar="0" Cut="8.3375482559204102e+00" cType="1" res="-6.0687670484185219e-03" rms="4.8834350705146790e-01" purity="4.9366194009780884e-01" nType="0">
          <Node pos="l" depth="2" NCoef="0" IVar="-1" Cut="0.0000000000000000e+00" cType="1" res="1.2591200647875667e-03" rms="5.0037115812301636e-01" purity="5.1346141099929810e-01" nType="-99"/>
          <Node pos="r" depth="2" NCoef="0" IVar="-1" Cut="0.0000000000000000e+00" cType="1" res="-1.3398341834545135e-03" rms="4.8708018660545349e-01" purity="4.9167418479919434e-01" nType="-99"/>
        </Node>
      </Node>
    </BinaryTree>
    <BinaryTree type="DecisionTree" boostWeight="1.0000000000000000e+00" itree="364">
      <Node pos="s" depth="0" NCoef="0" IVar="0" Cut="8.4702129364013672e+00" cType="1" res="4.5689684338867664e-03" rms="4.8867812752723694e-01" purity="5.0400471687316895e-01" nType="0">
        <Node pos="l" depth="1" NCoef="0" IVar="2" Cut="2.0000000000000000e+00" cType="1" res="5.8557890588417649e-04" rms="4.8299714922904968e-02" purity="5.2558475732803345e-01" nType="0">
          <Node pos="l" depth="2" NCoef="0" IVar="-1" Cut="0.0000000000000000e+00" cType="1" res="2.8634662739932537e-03" rms="4.9481537938117981e-01" purity="5.4166001081466675e-01" nType="-99"/>
          <Node pos="r" depth="2" NCoef="0" IVar="-1" Cut="0.0000000000000000e+00" cType="1" res="4.4323308975435793e-04" rms="4.9849733710289001e-01" purity="5.0455343723297119e-01" nType="-99"/>
        </Node>
        <Node pos="r" depth="1" NCoef="0" IVar="1" Cut="5.0000000000000000e+00" cType="1" res="3.0350720044225454e-03" rms="4.7562259435653687e-01" purity="5.0063413381576538e-01" nType="0">
          <Node pos="l" depth="2" NCoef="0" IVar="-1" Cut="0.0000000000000000e+00" cType="1" res="2.7936242986470461e-04" rms="4.8737218976020813e-01" purity="4.9893322587013245e-01" nType="-99"/>
          <Node pos="r" depth="2" NCoef="0" IVar="-1" Cut="0.0000000000000000e+00" cType="1" res="3.2043841201812029e-03" rms="4.8768594861030579e-01" purity="5.3332710266113281e-01" nType="-99"/>
        </Node>
      </Node>
    </BinaryTree>
    <BinaryTree type="DecisionTree" boostWeight="1.0000000000000000e+00" itree="365">
      <Node pos="s" depth="0" NCoef="0" IVar="1" Cut="2.0000000000000000e+00" cType="1" res="3.6961690057069063e-05" rms="1.7658762633800507e-01" purity="4.9850377440452576e-01" nType="0">
        <Node pos="l" depth="1" NCoef="0" IVar="0" Cut="9.3009614944458008e+00" cType="1" res="9.0034902095794678e-03" rms="4.8816749453544617e-01" purity="5.1023113727569580e-01" nType="0">
          <Node pos="l" depth="2" NCoef="0" IVar="-1" Cut="0.0000000000000000e+00" cType="1" res="2.1389934699982405e-03" rms="4.9100133776664734e-01" purity="5.2119642496109009e-01" nType="-99"/>
          <Node pos="r" depth="2" NCoef="0" IVar="-1" Cut="0.0000000000000000e+00" cType="1" res="-1.5845813322812319e-03" rms="4.8116058111190796e-01" purity="4.8474055528640747e-01" nType="-99"/>
        </Node>
        <Node pos="r" depth="1" NCoef="0" IVar="4" Cut="4.6237733215093613e-02" cType="1" res="-6.2391711398959160e-03" rms="4.8737448453903198e-01" purity="4.9367624521255493e-01" nType="0">
          <Node pos="l" depth="2" NCoef="0" IVar="-1" Cut="0.0000000000000000e+00" cType="1" res="-1.7907971050590277e-03" rms="4.8822695016860962e-01" purity="4.7749364376068115e-01" nType="-99"/>
          <Node pos="r" depth="2" NCoef="0" IVar="-1" Cut="0.0000000000000000e+00" cType="1" res="6.2980217626318336e-04" rms="4.8550060391426086e-01" purity="5.2617686986923218e-01" nType="-99"/>
        </Node>
      </Node>
    </BinaryTree>
    <BinaryTree type="DecisionTree" boostWeight="1.0000000000000000e+00" itree="366">
      <Node pos="s" depth="0" NCoef="0" IVar="0" Cut="8.3125705718994141e+00" cType="1" res="2.0780495833605528e-03" rms="4.8786750435829163e-01" purity="5.0151193141937256e-01" nType="0">
        <Node pos="l" depth="1" NCoef="0" IVar="-1" Cut="0.0000000000000000e+00" cType="1" res="-1.8850907217711210e-03" rms="4.9659976363182068e-01" purity="4.7983857989311218e-01" nType="-99"/>
        <Node pos="r" depth="1" NCoef="0" IVar="4" Cut="-7.9913491010665894e-01" cType="1" res="4.0359594859182835e-03" rms="4.8701873421669006e-01" purity="5.0348204374313354e-01" nType="0">
          <Node pos="l" depth="2" NCoef="0" IVar="-1" Cut="0.0000000000000000e+00" cType="1" res="-1.8630576087161899e-03" rms="4.8024711012840271e-01" purity="4.5650172233581543e-01" nType="-99"/>
          <Node pos="r" depth="2" NCoef="0" IVar="-1" Cut="0.0000000000000000e+00" cType="1" res="1.1011380702257156e-03" rms="4.8817920684814453e-01" purity="5.1192104816436768e-01" nType="-99"/>
        </Node>
      </Node>
    </BinaryTree>
    <BinaryTree type="DecisionTree" boostWeight="1.0000000000000000e+00" itree="367">
      <Node pos="s" depth="0" NCoef="0" IVar="4" Cut="-7.9779016971588135e-01" cType="1" res="2.6862480808631517e-05" rms="4.8808282613754272e-01" purity="5.0089353322982788e-01" nType="0">
        <Node pos="l" depth="1" NCoef="0" IVar="5" Cut="-6.8634521961212158e-01" cType="1" res="-1.0391329415142536e-02" rms="4.7951135039329529e-01" purity="4.5881083607673645e-01" nType="0">
          <Node pos="l" depth="2" NCoef="0" IVar="-1" Cut="0.0000000000000000e+00" cType="1" res="1.5165153890848160e-03" rms="4.8625287413597107e-01" purity="4.6742123365402222e-01" nType="-99"/>
          <Node pos="r" depth="2" NCoef="0" IVar="-1" Cut="0.0000000000000000e+00" cType="1" res="-2.9824280645698309e-03" rms="4.7670361399650574e-01" purity="4.5551988482475281e-01" nType="-99"/>
        </Node>
        <Node pos="r" depth="1" NCoef="0" IVar="3" Cut="-8.0218440294265747e-01" cType="1" res="1.8779507372528315e-03" rms="4.8956692218780518e-01" purity="5.0837075710296631e-01" nType="0">
          <Node pos="l" depth="2" NCoef="0" IVar="-1" Cut="0.0000000000000000e+00" cType="1" res="1.4155829558148980e-03" rms="4.8880666494369507e-01" purity="4.2984676361083984e-01" nType="-99"/>
          <Node pos="r" depth="2" NCoef="0" IVar="-1" Cut="0.0000000000000000e+00" cType="1" res="-3.1564742675982416e-04" rms="4.8995140194892883e-01" purity="5.5260896682739258e-01" nType="-99"/>
        </Node>
      </Node>
    </BinaryTree>
    <BinaryTree type="DecisionTree" boostWeight="1.0000000000000000e+00" itree="368">
      <Node pos="s" depth="0" NCoef="0" IVar="0" Cut="9.0013980865478516e+00" cType="1" res="-2.1094903058838099e-04" rms="4.8855212330818176e-01" purity="5.0047469139099121e-01" nType="0">
        <Node pos="l" depth="1" NCoef="0" IVar="4" Cut="4.0722437202930450e-02" cType="1" res="3.9979666471481323e-03" rms="4.9377873539924622e-01" purity="5.0695562362670898e-01" nType="0">
          <Node pos="l" depth="2" NCoef="0" IVar="-1" Cut="0.0000000000000000e+00" cType="1" res="1.0642090346664190e-03" rms="4.9442732334136963e-01" purity="5.0368797779083252e-01" nType="-99"/>
          <Node pos="r" depth="2" NCoef="0" IVar="-1" Cut="0.0000000000000000e+00" cType="1" res="-9.6547947032377124e-04" rms="4.9192148447036743e-01" purity="5.1527994871139526e-01" nType="-99"/>
        </Node>
        <Node pos="r" depth="1" NCoef="0" IVar="1" Cut="3.0000000000000000e+00" cType="1" res="-3.4502635244280100e-03" rms="4.8180502653121948e-01" purity="4.9520367383956909e-01" nType="0">
          <Node pos="l" depth="2" NCoef="0" IVar="-1" Cut="0.0000000000000000e+00" cType="1" res="-1.7807128606364131e-03" rms="4.8448830842971802e-01" purity="4.8964789509773254e-01" nType="-99"/>
          <Node pos="r" depth="2" NCoef="0" IVar="-1" Cut="0.0000000000000000e+00" cType="1" res="1.1452425969764590e-03" rms="4.8363542556762695e-01" purity="5.0538933277130127e-01" nType="-99"/>
        </Node>
      </Node>
    </BinaryTree>
    <BinaryTree type="DecisionTree" boostWeight="1.0000000000000000e+00" itree="369">
      <Node pos="s" depth="0" NCoef="0" IVar="4" Cut="-7.9639738798141479e-01" cType="1" res="3.6921873688697815e-03" rms="4.8777514696121216e-01" purity="5.0394231081008911e-01" nType="0">
        <Node pos="l" depth="1" NCoef="0" IVar="0" Cut="9.1017169952392578e+00" cType="1" res="-1.3487787917256355e-02" rms="4.8183795809745789e-01" purity="4.5613256096839905e-01" nType="0">
          <Node pos="l" depth="2" NCoef="0" IVar="-1" Cut="0.0000000000000000e+00" cType="1" res="-3.5703764297068119e-03" rms="4.8365619778633118e-01" purity="4.4302111864089966e-01" nType="-99"/>
          <Node pos="r" depth="2" NCoef="0" IVar="-1" Cut="0.0000000000000000e+00" cType="1" res="-5.6639735703356564e-05" rms="4.7966620326042175e-01" purity="4.6909025311470032e-01" nType="-99"/>
        </Node>
        <Node pos="r" depth="1" NCoef="0" IVar="3" Cut="8.0256366729736328e-01" cType="1" res="6.7857354879379272e-03" rms="4.8877245187759399e-01" purity="5.1255130767822266e-01" nType="0">
          <Node pos="l" depth="2" NCoef="0" IVar="-1" Cut="0.0000000000000000e+00" cType="1" res="3.1066761584952474e-04" rms="4.9328964948654175e-01" purity="4.5809441804885864e-01" nType="-99"/>
          <Node pos="r" depth="2" NCoef="0" IVar="-1" Cut="0.0000000000000000e+00" cType="1" res="2.6955108623951674e-03" rms="4.7965914011001587e-01" purity="6.1928921937942505e-01" nType="-99"/>
        </Node>
      </Node>
    </BinaryTree>
    <BinaryTree type="DecisionTree" boostWeight="1.0000000000000000e+00" itree="370">
      <Node pos="s" depth="0" NCoef="0" IVar="1" Cut="5.0000000000000000e+00" cType="1" res="-1.1186103802174330e-03" rms="2.5220197439193726e-01" purity="4.9996364116668701e-01" nType="0">
        <Node pos="l" depth="1" NCoef="0" IVar="1" Cut="4.0000000000000000e+00" cType="1" res="-5.2644070819951594e-05" rms="1.8352754414081573e-02" purity="4.9975615739822388e-01" nType="0">
          <Node pos="l" depth="2" NCoef="0" IVar="-1" Cut="0.0000000000000000e+00" cType="1" res="-1.7437149654142559e-04" rms="4.8830720782279968e-01" purity="4.9782782793045044e-01" nType="-99"/>
          <Node pos="r" depth="2" NCoef="0" IVar="-1" Cut="0.0000000000000000e+00" cType="1" res="2.6218080893158913e-03" rms="4.8974424600601196e-01" purity="5.1724880933761597e-01" nType="-99"/>
        </Node>
        <Node pos="r" depth="1" NCoef="0" IVar="-1" Cut="0.0000000000000000e+00" cType="1" res="-3.1277996022254229e-03" rms="4.8898789286613464e-01" purity="5.0401407480239868e-01" nType="-99"/>
      </Node>
    </BinaryTree>
    <BinaryTree type="DecisionTree" boostWeight="1.0000000000000000e+00" itree="371">
      <Node pos="s" depth="0" NCoef="0" IVar="5" Cut="-7.8396582603454590e-01" cType="1" res="2.4770507588982582e-03" rms="4.8822838068008423e-01" purity="5.0348573923110962e-01" nType="0">
        <Node pos="l" depth="1" NCoef="0" IVar="4" Cut="-7.9565894603729248e-01" cType="1" res="-1.9211715087294579e-02" rms="4.8127382993698120e-01" purity="4.8376029729843140e-01" nType="0">
          <Node pos="l" depth="2" NCoef="0" IVar="-1" Cut="0.0000000000000000e+00" cType="1" res="-8.4232017397880554e-03" rms="4.7721630334854126e-01" purity="4.2102122306823730e-01" nType="-99"/>
          <Node pos="r" depth="2" NCoef="0" IVar="-1" Cut="0.0000000000000000e+00" cType="1" res="6.4452522201463580e-04" rms="4.8341515660285950e-01" purity="5.3571218252182007e-01" nType="-99"/>
        </Node>
        <Node pos="r" depth="1" NCoef="0" IVar="5" Cut="5.5386938154697418e-02" cType="1" res="3.8075037300586700e-03" rms="4.8862043023109436e-01" purity="5.0469571352005005e-01" nType="0">
          <Node pos="l" depth="2" NCoef="0" IVar="-1" Cut="0.0000000000000000e+00" cType="1" res="8.9060934260487556e-04" rms="4.8909193277359009e-01" purity="5.0560545921325684e-01" nType="-99"/>
          <Node pos="r" depth="2" NCoef="0" IVar="-1" Cut="0.0000000000000000e+00" cType="1" res="-1.2534046545624733e-03" rms="4.8547211289405823e-01" purity="4.9894976615905762e-01" nType="-99"/>
        </Node>
      </Node>
    </BinaryTree>
    <BinaryTree type="DecisionTree" boostWeight="1.0000000000000000e+00" itree="372">
      <Node pos="s" depth="0" NCoef="0" IVar="1" Cut="3.0000000000000000e+00" cType="1" res="-7.2739896131679416e-04" rms="1.0504991561174393e-01" purity="4.9965015053749084e-01" nType="0">
        <Node pos="l" depth="1" NCoef="0" IVar="2" Cut="2.0000000000000000e+00" cType="1" res="-3.2386096427217126e-04" rms="3.2266136258840561e-02" purity="4.9413087964057922e-01" nType="0">
          <Node pos="l" depth="2" NCoef="0" IVar="-1" Cut="0.0000000000000000e+00" cType="1" res="-1.9019035389646888e-03" rms="4.8836451768875122e-01" purity="4.8400241136550903e-01" nType="-99"/>
          <Node pos="r" depth="2" NCoef="0" IVar="-1" Cut="0.0000000000000000e+00" cType="1" res="4.8923841677606106e-04" rms="4.9102160334587097e-01" purity="5.0657171010971069e-01" nType="-99"/>
        </Node>
        <Node pos="r" depth="1" NCoef="0" IVar="0" Cut="9.1616897583007812e+00" cType="1" res="7.7272555790841579e-03" rms="4.8787704110145569e-01" purity="5.1002287864685059e-01" nType="0">
          <Node pos="l" depth="2" NCoef="0" IVar="-1" Cut="0.0000000000000000e+00" cType="1" res="2.1000520791858435e-04" rms="4.9132028222084045e-01" purity="5.0430136919021606e-01" nType="-99"/>
          <Node pos="r" depth="2" NCoef="0" IVar="-1" Cut="0.0000000000000000e+00" cType="1" res="3.8204346783459187e-03" rms="4.8286515474319458e-01" purity="5.1806163787841797e-01" nType="-99"/>
        </Node>
      </Node>
    </BinaryTree>
    <BinaryTree type="DecisionTree" boostWeight="1.0000000000000000e+00" itree="373">
      <Node pos="s" depth="0" NCoef="0" IVar="4" Cut="8.9232796430587769e-01" cType="1" res="1.2384215369820595e-03" rms="4.8833140730857849e-01" purity="5.0157272815704346e-01" nType="0">
        <Node pos="l" depth="1" NCoef="0" IVar="4" Cut="8.0279272794723511e-01" cType="1" res="2.1333524491637945e-03" rms="4.8870289325714111e-01" purity="5.0090193748474121e-01" nType="0">
          <Node pos="l" depth="2" NCoef="0" IVar="-1" Cut="0.0000000000000000e+00" cType="1" res="8.0915866419672966e-05" rms="4.8910850286483765e-01" purity="4.9549448490142822e-01" nType="-99"/>
          <Node pos="r" depth="2" NCoef="0" IVar="-1" Cut="0.0000000000000000e+00" cType="1" res="2.4536433629691601e-03" rms="4.8532384634017944e-01" purity="5.4331827163696289e-01" nType="-99"/>
        </Node>
        <Node pos="r" depth="1" NCoef="0" IVar="-1" Cut="0.0000000000000000e+00" cType="1" res="-4.0889414958655834e-03" rms="4.7792929410934448e-01" purity="5.1910060644149780e-01" nType="-99"/>
      </Node>
    </BinaryTree>
    <BinaryTree type="DecisionTree" boostWeight="1.0000000000000000e+00" itree="374">
      <Node pos="s" depth="0" NCoef="0" IVar="3" Cut="8.9658260345458984e-01" cType="1" res="-5.5594334844499826e-04" rms="4.8774021863937378e-01" purity="5.0024294853210449e-01" nType="0">
        <Node pos="l" depth="1" NCoef="0" IVar="5" Cut="5.3616993129253387e-02" cType="1" res="-2.7005735319107771e-03" rms="4.9189347028732300e-01" purity="4.6748101711273193e-01" nType="0">
          <Node pos="l" depth="2" NCoef="0" IVar="-1" Cut="0.0000000000000000e+00" cType="1" res="-8.3778977568726987e-05" rms="4.9214106798171997e-01" purity="4.7124472260475159e-01" nType="-99"/>
          <Node pos="r" depth="2" NCoef="0" IVar="-1" Cut="0.0000000000000000e+00" cType="1" res="-3.1205646228045225e-03" rms="4.8958444595336914e-01" purity="4.3756878376007080e-01" nType="-99"/>
        </Node>
        <Node pos="r" depth="1" NCoef="0" IVar="3" Cut="9.5051103830337524e-01" cType="1" res="9.7441561520099640e-03" rms="4.6714192628860474e-01" purity="6.5758973360061646e-01" nType="0">
          <Node pos="l" depth="2" NCoef="0" IVar="-1" Cut="0.0000000000000000e+00" cType="1" res="-3.3700588392093778e-04" rms="4.8529264330863953e-01" purity="6.1213141679763794e-01" nType="-99"/>
          <Node pos="r" depth="2" NCoef="0" IVar="-1" Cut="0.0000000000000000e+00" cType="1" res="8.4167709574103355e-03" rms="4.1834399104118347e-01" purity="7.6821213960647583e-01" nType="-99"/>
        </Node>
      </Node>
    </BinaryTree>
    <BinaryTree type="DecisionTree" boostWeight="1.0000000000000000e+00" itree="375">
      <Node pos="s" depth="0" NCoef="0" IVar="5" Cut="-6.9337666034698486e-01" cType="1" res="1.2726645218208432e-03" rms="4.8854354023933411e-01" purity="5.0120902061462402e-01" nType="0">
        <Node pos="l" depth="1" NCoef="0" IVar="5" Cut="-8.2696634531021118e-01" cType="1" res="1.5627829357981682e-02" rms="4.8392534255981445e-01" purity="5.1400083303451538e-01" nType="0">
          <Node pos="l" depth="2" NCoef="0" IVar="-1" Cut="0.0000000000000000e+00" cType="1" res="-1.4406299451366067e-03" rms="4.7582972049713135e-01" purity="4.9377831816673279e-01" nType="-99"/>
          <Node pos="r" depth="2" NCoef="0" IVar="-1" Cut="0.0000000000000000e+00" cType="1" res="3.7822569720447063e-03" rms="4.8638650774955750e-01" purity="5.2088403701782227e-01" nType="-99"/>
        </Node>
        <Node pos="r" depth="1" NCoef="0" IVar="3" Cut="8.0048710107803345e-01" cType="1" res="-7.5106031727045774e-04" rms="4.8915722966194153e-01" purity="4.9940571188926697e-01" nType="0">
          <Node pos="l" depth="2" NCoef="0" IVar="-1" Cut="0.0000000000000000e+00" cType="1" res="3.9685485535301268e-04" rms="4.9136668443679810e-01" purity="4.4976258277893066e-01" nType="-99"/>
          <Node pos="r" depth="2" NCoef="0" IVar="-1" Cut="0.0000000000000000e+00" cType="1" res="-1.1304087238386273e-03" rms="4.8509541153907776e-01" purity="5.8878630399703979e-01" nType="-99"/>
        </Node>
      </Node>
    </BinaryTree>
    <BinaryTree type="DecisionTree" boostWeight="1.0000000000000000e+00" itree="376">
      <Node pos="s" depth="0" NCoef="0" IVar="2" Cut="3.0000000000000000e+00" cType="1" res="-4.7651692875660956e-04" rms="2.9393255710601807e-02" purity="4.9611496925354004e-01" nType="0">
        <Node pos="l" depth="1" NCoef="0" IVar="4" Cut="-7.0241034030914307e-01" cType="1" res="-2.6076112408190966e-03" rms="4.8888489603996277e-01" purity="4.9719175696372986e-01" nType="0">
          <Node pos="l" depth="2" NCoef="0" IVar="-1" Cut="0.0000000000000000e+00" cType="1" res="9.0149708557873964e-04" rms="4.8596924543380737e-01" purity="4.8097217082977295e-01" nType="-99"/>
          <Node pos="r" depth="2" NCoef="0" IVar="-1" Cut="0.0000000000000000e+00" cType="1" res="-8.9142209617421031e-04" rms="4.8995909094810486e-01" purity="5.0339734554290771e-01" nType="-99"/>
        </Node>
        <Node pos="r" depth="1" NCoef="0" IVar="1" Cut="3.0000000000000000e+00" cType="1" res="-7.0910169743001461e-03" rms="2.8042528033256531e-01" purity="4.8738425970077515e-01" nType="0">
          <Node pos="l" depth="2" NCoef="0" IVar="-1" Cut="0.0000000000000000e+00" cType="1" res="-1.7246931092813611e-03" rms="4.9216783046722412e-01" purity="4.9987065792083740e-01" nType="-99"/>
          <Node pos="r" depth="2" NCoef="0" IVar="-1" Cut="0.0000000000000000e+00" cType="1" res="-7.8486995771527290e-03" rms="4.9135479331016541e-01" purity="4.5757845044136047e-01" nType="-99"/>
        </Node>
      </Node>
    </BinaryTree>
    <BinaryTree type="DecisionTree" boostWeight="1.0000000000000000e+00" itree="377">
      <Node pos="s" depth="0" NCoef="0" IVar="2" Cut="3.0000000000000000e+00" cType="1" res="-5.8539456222206354e-04" rms="1.6774691641330719e-01" purity="4.9822083115577698e-01" nType="0">
        <Node pos="l" depth="1" NCoef="0" IVar="0" Cut="8.8107280731201172e+00" cType="1" res="-4.1391858831048012e-03" rms="4.8876383900642395e-01" purity="4.9574056267738342e-01" nType="0">
          <Node pos="l" depth="2" NCoef="0" IVar="-1" Cut="0.0000000000000000e+00" cType="1" res="-1.3899147743359208e-03" rms="4.9512514472007751e-01" purity="4.9008122086524963e-01" nType="-99"/>
          <Node pos="r" depth="2" NCoef="0" IVar="-1" Cut="0.0000000000000000e+00" cType="1" res="-8.6304920841939747e-05" rms="4.8589950799942017e-01" purity="4.9822467565536499e-01" nType="-99"/>
        </Node>
        <Node pos="r" depth="1" NCoef="0" IVar="0" Cut="8.8114023208618164e+00" cType="1" res="1.3695426285266876e-02" rms="4.9272921681404114e-01" purity="5.1869070529937744e-01" nType="0">
          <Node pos="l" depth="2" NCoef="0" IVar="-1" Cut="0.0000000000000000e+00" cType="1" res="4.8443418927490711e-03" rms="4.9497008323669434e-01" purity="5.4755121469497681e-01" nType="-99"/>
          <Node pos="r" depth="2" NCoef="0" IVar="-1" Cut="0.0000000000000000e+00" cType="1" res="5.7926098816096783e-04" rms="4.9129402637481689e-01" purity="5.0549280643463135e-01" nType="-99"/>
        </Node>
      </Node>
    </BinaryTree>
    <BinaryTree type="DecisionTree" boostWeight="1.0000000000000000e+00" itree="378">
      <Node pos="s" depth="0" NCoef="0" IVar="1" Cut="2.0000000000000000e+00" cType="1" res="-1.5688159037381411e-03" rms="2.7093583345413208e-01" purity="4.9534422159194946e-01" nType="0">
        <Node pos="l" depth="1" NCoef="0" IVar="3" Cut="-8.9427590370178223e-01" cType="1" res="2.5042272172868252e-03" rms="4.9008357524871826e-01" purity="5.0220429897308350e-01" nType="0">
          <Node pos="l" depth="2" NCoef="0" IVar="-1" Cut="0.0000000000000000e+00" cType="1" res="5.2345986478030682e-03" rms="4.7252631187438965e-01" purity="3.6140328645706177e-01" nType="-99"/>
          <Node pos="r" depth="2" NCoef="0" IVar="-1" Cut="0.0000000000000000e+00" cType="1" res="-2.6964797871187329e-04" rms="4.9274584650993347e-01" purity="5.2507734298706055e-01" nType="-99"/>
        </Node>
        <Node pos="r" depth="1" NCoef="0" IVar="3" Cut="-7.0667922496795654e-01" cType="1" res="-7.7279363758862019e-03" rms="4.8772487044334412e-01" purity="4.9256965517997742e-01" nType="0">
          <Node pos="l" depth="2" NCoef="0" IVar="-1" Cut="0.0000000000000000e+00" cType="1" res="-2.0662364549934864e-03" rms="4.8667675256729126e-01" purity="4.1324481368064880e-01" nType="-99"/>
          <Node pos="r" depth="2" NCoef="0" IVar="-1" Cut="0.0000000000000000e+00" cType="1" res="-4.1473421151749790e-04" rms="4.8871102929115295e-01" purity="5.7149070501327515e-01" nType="-99"/>
        </Node>
      </Node>
    </BinaryTree>
    <BinaryTree type="DecisionTree" boostWeight="1.0000000000000000e+00" itree="379">
      <Node pos="s" depth="0" NCoef="0" IVar="5" Cut="5.3790640085935593e-02" cType="1" res="1.0814875131472945e-03" rms="4.8829221725463867e-01" purity="5.0135254859924316e-01" nType="0">
        <Node pos="l" depth="1" NCoef="0" IVar="0" Cut="8.1916484832763672e+00" cType="1" res="-1.2206131359562278e-03" rms="4.8913997411727905e-01" purity="4.9770054221153259e-01" nType="0">
          <Node pos="l" depth="2" NCoef="0" IVar="-1" Cut="0.0000000000000000e+00" cType="1" res="2.4320948868989944e-03" rms="4.9997583031654358e-01" purity="5.1634699106216431e-01" nType="-99"/>
          <Node pos="r" depth="2" NCoef="0" IVar="-1" Cut="0.0000000000000000e+00" cType="1" res="-4.5463841524906456e-04" rms="4.8846274614334106e-01" purity="4.9662062525749207e-01" nType="-99"/>
        </Node>
        <Node pos="r" depth="1" NCoef="0" IVar="5" Cut="7.4463695287704468e-01" cType="1" res="1.7353208735585213e-02" rms="4.8194399476051331e-01" purity="5.2716565132141113e-01" nType="0">
          <Node pos="l" depth="2" NCoef="0" IVar="-1" Cut="0.0000000000000000e+00" cType="1" res="9.7741466015577316e-03" rms="4.7935163974761963e-01" purity="5.6615024805068970e-01" nType="-99"/>
          <Node pos="r" depth="2" NCoef="0" IVar="-1" Cut="0.0000000000000000e+00" cType="1" res="7.2426663246005774e-04" rms="4.8190855979919434e-01" purity="5.1594579219818115e-01" nType="-99"/>
        </Node>
      </Node>
    </BinaryTree>
    <BinaryTree type="DecisionTree" boostWeight="1.0000000000000000e+00" itree="380">
      <Node pos="s" depth="0" NCoef="0" IVar="4" Cut="-7.9537516832351685e-01" cType="1" res="6.9710233947262168e-04" rms="4.8809567093849182e-01" purity="5.0185894966125488e-01" nType="0">
        <Node pos="l" depth="1" NCoef="0" IVar="0" Cut="9.2924642562866211e+00" cType="1" res="-9.1045144945383072e-03" rms="4.8266312479972839e-01" purity="4.6001777052879333e-01" nType="0">
          <Node pos="l" depth="2" NCoef="0" IVar="-1" Cut="0.0000000000000000e+00" cType="1" res="-2.6529715396463871e-03" rms="4.8610538244247437e-01" purity="4.5020741224288940e-01" nType="-99"/>
          <Node pos="r" depth="2" NCoef="0" IVar="-1" Cut="0.0000000000000000e+00" cType="1" res="2.7952822856605053e-03" rms="4.7498956322669983e-01" purity="4.7992509603500366e-01" nType="-99"/>
        </Node>
        <Node pos="r" depth="1" NCoef="0" IVar="4" Cut="-7.1066886186599731e-01" cType="1" res="2.5162957608699799e-03" rms="4.8907572031021118e-01" purity="5.0962471961975098e-01" nType="0">
          <Node pos="l" depth="2" NCoef="0" IVar="-1" Cut="0.0000000000000000e+00" cType="1" res="1.9762762822210789e-03" rms="4.9016490578651428e-01" purity="5.0081962347030640e-01" nType="-99"/>
          <Node pos="r" depth="2" NCoef="0" IVar="-1" Cut="0.0000000000000000e+00" cType="1" res="1.4247385843191296e-04" rms="4.8888188600540161e-01" purity="5.1103484630584717e-01" nType="-99"/>
        </Node>
      </Node>
    </BinaryTree>
    <BinaryTree type="DecisionTree" boostWeight="1.0000000000000000e+00" itree="381">
      <Node pos="s" depth="0" NCoef="0" IVar="1" Cut="2.0000000000000000e+00" cType="1" res="-1.2278689537197351e-03" rms="3.3432644605636597e-01" purity="4.9854081869125366e-01" nType="0">
        <Node pos="l" depth="1" NCoef="0" IVar="0" Cut="8.8336725234985352e+00" cType="1" res="-1.1403336189687252e-02" rms="4.8853987455368042e-01" purity="4.9118080735206604e-01" nType="0">
          <Node pos="l" depth="2" NCoef="0" IVar="-1" Cut="0.0000000000000000e+00" cType="1" res="-2.7543697506189346e-03" rms="4.9565741419792175e-01" purity="4.7571265697479248e-01" nType="-99"/>
          <Node pos="r" depth="2" NCoef="0" IVar="-1" Cut="0.0000000000000000e+00" cType="1" res="-9.5480261370539665e-04" rms="4.8499262332916260e-01" purity="4.9852961301803589e-01" nType="-99"/>
        </Node>
        <Node pos="r" depth="1" NCoef="0" IVar="4" Cut="8.9018809795379639e-01" cType="1" res="2.0098891109228134e-03" rms="4.8774731159210205e-01" purity="5.0162351131439209e-01" nType="0">
          <Node pos="l" depth="2" NCoef="0" IVar="-1" Cut="0.0000000000000000e+00" cType="1" res="5.1391724264249206e-04" rms="4.8810857534408569e-01" purity="5.0089353322982788e-01" nType="-99"/>
          <Node pos="r" depth="2" NCoef="0" IVar="-1" Cut="0.0000000000000000e+00" cType="1" res="-4.1397358290851116e-03" rms="4.8001384735107422e-01" purity="5.1584023237228394e-01" nType="-99"/>
        </Node>
      </Node>
    </BinaryTree>
    <BinaryTree type="DecisionTree" boostWeight="1.0000000000000000e+00" itree="382">
      <Node pos="s" depth="0" NCoef="0" IVar="1" Cut="5.0000000000000000e+00" cType="1" res="-7.8224024036899209e-04" rms="1.8214082717895508e-01" purity="5.0180310010910034e-01" nType="0">
        <Node pos="l" depth="1" NCoef="0" IVar="5" Cut="-6.8787312507629395e-01" cType="1" res="1.8138332525268197e-03" rms="4.8843604326248169e-01" purity="5.0150471925735474e-01" nType="0">
          <Node pos="l" depth="2" NCoef="0" IVar="-1" Cut="0.0000000000000000e+00" cType="1" res="1.6583682736381888e-03" rms="4.8513889312744141e-01" purity="5.0813323259353638e-01" nType="-99"/>
          <Node pos="r" depth="2" NCoef="0" IVar="-1" Cut="0.0000000000000000e+00" cType="1" res="1.2324027193244547e-04" rms="4.8884558677673340e-01" purity="5.0065857172012329e-01" nType="-99"/>
        </Node>
        <Node pos="r" depth="1" NCoef="0" IVar="-1" Cut="0.0000000000000000e+00" cType="1" res="-1.8815896473824978e-03" rms="4.9082389473915100e-01" purity="5.0794583559036255e-01" nType="-99"/>
      </Node>
    </BinaryTree>
    <BinaryTree type="DecisionTree" boostWeight="1.0000000000000000e+00" itree="383">
      <Node pos="s" depth="0" NCoef="0" IVar="0" Cut="8.3911418914794922e+00" cType="1" res="-2.6440236251801252e-04" rms="4.8858225345611572e-01" purity="5.0053203105926514e-01" nType="0">
        <Node pos="l" depth="1" NCoef="0" IVar="3" Cut="-7.0115649700164795e-01" cType="1" res="1.6843212768435478e-02" rms="4.9826657772064209e-01" purity="5.2129292488098145e-01" nType="0">
          <Node pos="l" depth="2" NCoef="0" IVar="-1" Cut="0.0000000000000000e+00" cType="1" res="4.4428077526390553e-03" rms="4.9814951419830322e-01" purity="5.1320958137512207e-01" nType="-99"/>
          <Node pos="r" depth="2" NCoef="0" IVar="-1" Cut="0.0000000000000000e+00" cType="1" res="-1.0798270814120770e-03" rms="4.9688506126403809e-01" purity="5.2942627668380737e-01" nType="-99"/>
        </Node>
        <Node pos="r" depth="1" NCoef="0" IVar="0" Cut="8.6611604690551758e+00" cType="1" res="-2.3188400082290173e-03" rms="4.8736596107482910e-01" purity="4.9803885817527771e-01" nType="0">
          <Node pos="l" depth="2" NCoef="0" IVar="-1" Cut="0.0000000000000000e+00" cType="1" res="9.9802913609892130e-04" rms="4.9078908562660217e-01" purity="5.1641118526458740e-01" nType="-99"/>
          <Node pos="r" depth="2" NCoef="0" IVar="-1" Cut="0.0000000000000000e+00" cType="1" res="-7.2537641972303391e-04" rms="4.8685604333877563e-01" purity="4.9542590975761414e-01" nType="-99"/>
        </Node>
      </Node>
    </BinaryTree>
    <BinaryTree type="DecisionTree" boostWeight="1.0000000000000000e+00" itree="384">
      <Node pos="s" depth="0" NCoef="0" IVar="0" Cut="8.4392223358154297e+00" cType="1" res="1.2302548857405782e-03" rms="4.8852711915969849e-01" purity="5.0194215774536133e-01" nType="0">
        <Node pos="l" depth="1" NCoef="0" IVar="2" Cut="2.0000000000000000e+00" cType="1" res="1.9772646191995591e-04" rms="1.5752954408526421e-02" purity="4.8871862888336182e-01" nType="0">
          <Node pos="l" depth="2" NCoef="0" IVar="-1" Cut="0.0000000000000000e+00" cType="1" res="-7.4189330916851759e-04" rms="4.9657633900642395e-01" purity="5.0452339649200439e-01" nType="-99"/>
          <Node pos="r" depth="2" NCoef="0" IVar="-1" Cut="0.0000000000000000e+00" cType="1" res="-3.2389098778367043e-03" rms="4.9376004934310913e-01" purity="4.6759536862373352e-01" nType="-99"/>
        </Node>
        <Node pos="r" depth="1" NCoef="0" IVar="4" Cut="-7.9913491010665894e-01" cType="1" res="4.0598935447633266e-03" rms="4.8744410276412964e-01" purity="5.0384789705276489e-01" nType="0">
          <Node pos="l" depth="2" NCoef="0" IVar="-1" Cut="0.0000000000000000e+00" cType="1" res="4.1426219977438450e-03" rms="4.7901874780654907e-01" purity="4.9230551719665527e-01" nType="-99"/>
          <Node pos="r" depth="2" NCoef="0" IVar="-1" Cut="0.0000000000000000e+00" cType="1" res="1.5096487186383456e-04" rms="4.8885685205459595e-01" purity="5.0589811801910400e-01" nType="-99"/>
        </Node>
      </Node>
    </BinaryTree>
    <BinaryTree type="DecisionTree" boostWeight="1.0000000000000000e+00" itree="385">
      <Node pos="s" depth="0" NCoef="0" IVar="4" Cut="8.8959836959838867e-01" cType="1" res="2.7642541099339724e-03" rms="4.8815265297889709e-01" purity="5.0312411785125732e-01" nType="0">
        <Node pos="l" depth="1" NCoef="0" IVar="5" Cut="-7.7591663599014282e-01" cType="1" res="1.5412122011184692e-03" rms="4.8882600665092468e-01" purity="5.0020730495452881e-01" nType="0">
          <Node pos="l" depth="2" NCoef="0" IVar="-1" Cut="0.0000000000000000e+00" cType="1" res="-3.0067681800574064e-03" rms="4.8927596211433411e-01" purity="4.7609943151473999e-01" nType="-99"/>
          <Node pos="r" depth="2" NCoef="0" IVar="-1" Cut="0.0000000000000000e+00" cType="1" res="4.1479474748484790e-04" rms="4.8877695202827454e-01" purity="5.0159859657287598e-01" nType="-99"/>
        </Node>
        <Node pos="r" depth="1" NCoef="0" IVar="-1" Cut="0.0000000000000000e+00" cType="1" res="5.9042787179350853e-03" rms="4.7068873047828674e-01" purity="5.7336270809173584e-01" nType="-99"/>
      </Node>
    </BinaryTree>
    <BinaryTree type="DecisionTree" boostWeight="1.0000000000000000e+00" itree="386">
      <Node pos="s" depth="0" NCoef="0" IVar="3" Cut="-7.0768195390701294e-01" cType="1" res="-7.8172044595703483e-04" rms="4.8823934793472290e-01" purity="4.9961695075035095e-01" nType="0">
        <Node pos="l" depth="1" NCoef="0" IVar="2" Cut="2.0000000000000000e+00" cType="1" res="-2.5561158545315266e-03" rms="1.6795745491981506e-01" purity="4.2203417420387268e-01" nType="0">
          <Node pos="l" depth="2" NCoef="0" IVar="-1" Cut="0.0000000000000000e+00" cType="1" res="2.8539483901113272e-04" rms="4.8719239234924316e-01" purity="4.2200034856796265e-01" nType="-99"/>
          <Node pos="r" depth="2" NCoef="0" IVar="-1" Cut="0.0000000000000000e+00" cType="1" res="-2.2199728991836309e-03" rms="4.8913079500198364e-01" purity="4.2207953333854675e-01" nType="-99"/>
        </Node>
        <Node pos="r" depth="1" NCoef="0" IVar="3" Cut="7.7176010608673096e-01" cType="1" res="3.0994936823844910e-03" rms="4.8836579918861389e-01" purity="5.7636797428131104e-01" nType="0">
          <Node pos="l" depth="2" NCoef="0" IVar="-1" Cut="0.0000000000000000e+00" cType="1" res="3.2367231324315071e-03" rms="4.9832093715667725e-01" purity="5.3299802541732788e-01" nType="-99"/>
          <Node pos="r" depth="2" NCoef="0" IVar="-1" Cut="0.0000000000000000e+00" cType="1" res="-7.0027526817284524e-05" rms="4.8647612333297729e-01" purity="5.8414101600646973e-01" nType="-99"/>
        </Node>
      </Node>
    </BinaryTree>
    <BinaryTree type="DecisionTree" boostWeight="1.0000000000000000e+00" itree="387">
      <Node pos="s" depth="0" NCoef="0" IVar="0" Cut="9.2262859344482422e+00" cType="1" res="3.6350111477077007e-03" rms="4.8890763521194458e-01" purity="5.0474542379379272e-01" nType="0">
        <Node pos="l" depth="1" NCoef="0" IVar="0" Cut="8.2518100738525391e+00" cType="1" res="7.6244180090725422e-03" rms="4.9239501357078552e-01" purity="5.1078736782073975e-01" nType="0">
          <Node pos="l" depth="2" NCoef="0" IVar="-1" Cut="0.0000000000000000e+00" cType="1" res="-1.8142700428143144e-03" rms="4.9896463751792908e-01" purity="4.7697705030441284e-01" nType="-99"/>
          <Node pos="r" depth="2" NCoef="0" IVar="-1" Cut="0.0000000000000000e+00" cType="1" res="1.5127819497138262e-03" rms="4.9150362610816956e-01" purity="5.1484572887420654e-01" nType="-99"/>
        </Node>
        <Node pos="r" depth="1" NCoef="0" IVar="2" Cut="2.0000000000000000e+00" cType="1" res="-2.3707761429250240e-03" rms="4.6225354075431824e-01" purity="4.9410545825958252e-01" nType="0">
          <Node pos="l" depth="2" NCoef="0" IVar="-1" Cut="0.0000000000000000e+00" cType="1" res="1.0937990155071020e-03" rms="4.8271417617797852e-01" purity="5.0088399648666382e-01" nType="-99"/>
          <Node pos="r" depth="2" NCoef="0" IVar="-1" Cut="0.0000000000000000e+00" cType="1" res="-3.8012361619621515e-03" rms="4.8226043581962585e-01" purity="4.8451989889144897e-01" nType="-99"/>
        </Node>
      </Node>
    </BinaryTree>
    <BinaryTree type="DecisionTree" boostWeight="1.0000000000000000e+00" itree="388">
      <Node pos="s" depth="0" NCoef="0" IVar="5" Cut="5.1539145410060883e-02" cType="1" res="6.7054544342681766e-04" rms="4.8878520727157593e-01" purity="5.0192707777023315e-01" nType="0">
        <Node pos="l" depth="1" NCoef="0" IVar="4" Cut="8.8958954811096191e-01" cType="1" res="-2.1724202670156956e-03" rms="4.8960956931114197e-01" purity="4.9807676672935486e-01" nType="0">
          <Node pos="l" depth="2" NCoef="0" IVar="-1" Cut="0.0000000000000000e+00" cType="1" res="-1.4982196444179863e-04" rms="4.8993721604347229e-01" purity="4.9805554747581482e-01" nType="-99"/>
          <Node pos="r" depth="2" NCoef="0" IVar="-1" Cut="0.0000000000000000e+00" cType="1" res="-8.2924570888280869e-03" rms="4.7684702277183533e-01" purity="4.9878120422363281e-01" nType="-99"/>
        </Node>
        <Node pos="r" depth="1" NCoef="0" IVar="0" Cut="9.3828792572021484e+00" cType="1" res="2.0121248438954353e-02" rms="4.8265850543975830e-01" purity="5.2826941013336182e-01" nType="0">
          <Node pos="l" depth="2" NCoef="0" IVar="-1" Cut="0.0000000000000000e+00" cType="1" res="3.6521579604595900e-03" rms="4.8572984337806702e-01" purity="5.3059399127960205e-01" nType="-99"/>
          <Node pos="r" depth="2" NCoef="0" IVar="-1" Cut="0.0000000000000000e+00" cType="1" res="1.3866364024579525e-03" rms="4.7226676344871521e-01" purity="5.2074247598648071e-01" nType="-99"/>
        </Node>
      </Node>
    </BinaryTree>
    <BinaryTree type="DecisionTree" boostWeight="1.0000000000000000e+00" itree="389">
      <Node pos="s" depth="0" NCoef="0" IVar="0" Cut="8.6421813964843750e+00" cType="1" res="-1.1236751452088356e-03" rms="4.8871925473213196e-01" purity="5.0009858608245850e-01" nType="0">
        <Node pos="l" depth="1" NCoef="0" IVar="1" Cut="2.0000000000000000e+00" cType="1" res="-1.0867220407817513e-04" rms="1.9405964761972427e-02" purity="4.9823036789894104e-01" nType="0">
          <Node pos="l" depth="2" NCoef="0" IVar="-1" Cut="0.0000000000000000e+00" cType="1" res="5.6982832029461861e-04" rms="4.9540176987648010e-01" purity="5.1206409931182861e-01" nType="-99"/>
          <Node pos="r" depth="2" NCoef="0" IVar="-1" Cut="0.0000000000000000e+00" cType="1" res="-1.4428072609007359e-03" rms="4.9678343534469604e-01" purity="4.9255773425102234e-01" nType="-99"/>
        </Node>
        <Node pos="r" depth="1" NCoef="0" IVar="4" Cut="7.9865670204162598e-01" cType="1" res="6.8336562253534794e-04" rms="4.8665961623191833e-01" purity="5.0058710575103760e-01" nType="0">
          <Node pos="l" depth="2" NCoef="0" IVar="-1" Cut="0.0000000000000000e+00" cType="1" res="-4.1274458635598421e-04" rms="4.8754882812500000e-01" purity="4.9174883961677551e-01" nType="-99"/>
          <Node pos="r" depth="2" NCoef="0" IVar="-1" Cut="0.0000000000000000e+00" cType="1" res="3.2149057369679213e-03" rms="4.8162594437599182e-01" purity="5.4732400178909302e-01" nType="-99"/>
        </Node>
      </Node>
    </BinaryTree>
    <BinaryTree type="DecisionTree" boostWeight="1.0000000000000000e+00" itree="390">
      <Node pos="s" depth="0" NCoef="0" IVar="4" Cut="7.9561090469360352e-01" cType="1" res="2.1046298570581712e-05" rms="4.8876532912254333e-01" purity="5.0177365541458130e-01" nType="0">
        <Node pos="l" depth="1" NCoef="0" IVar="0" Cut="8.2049665451049805e+00" cType="1" res="2.0096730440855026e-03" rms="4.8986336588859558e-01" purity="4.9782532453536987e-01" nType="0">
          <Node pos="l" depth="2" NCoef="0" IVar="-1" Cut="0.0000000000000000e+00" cType="1" res="-1.4242231845855713e-03" rms="4.9774864315986633e-01" purity="4.7695586085319519e-01" nType="-99"/>
          <Node pos="r" depth="2" NCoef="0" IVar="-1" Cut="0.0000000000000000e+00" cType="1" res="5.0733529496937990e-04" rms="4.8933151364326477e-01" purity="4.9916848540306091e-01" nType="-99"/>
        </Node>
        <Node pos="r" depth="1" NCoef="0" IVar="4" Cut="8.8496941328048706e-01" cType="1" res="-1.0646922513842583e-02" rms="4.8269248008728027e-01" purity="5.2295458316802979e-01" nType="0">
          <Node pos="l" depth="2" NCoef="0" IVar="-1" Cut="0.0000000000000000e+00" cType="1" res="-3.3176548313349485e-03" rms="4.8565781116485596e-01" purity="5.1054245233535767e-01" nType="-99"/>
          <Node pos="r" depth="2" NCoef="0" IVar="-1" Cut="0.0000000000000000e+00" cType="1" res="2.4783259723335505e-03" rms="4.7433894872665405e-01" purity="5.5401331186294556e-01" nType="-99"/>
        </Node>
      </Node>
    </BinaryTree>
    <BinaryTree type="DecisionTree" boostWeight="1.0000000000000000e+00" itree="391">
      <Node pos="s" depth="0" NCoef="0" IVar="4" Cut="7.9837298393249512e-01" cType="1" res="-6.1487808125093579e-04" rms="4.8800775408744812e-01" purity="5.0063884258270264e-01" nType="0">
        <Node pos="l" depth="1" NCoef="0" IVar="3" Cut="-7.0727038383483887e-01" cType="1" res="-2.2807435598224401e-03" rms="4.8875543475151062e-01" purity="4.9292981624603271e-01" nType="0">
          <Node pos="l" depth="2" NCoef="0" IVar="-1" Cut="0.0000000000000000e+00" cType="1" res="-1.3611009344458580e-03" rms="4.8696693778038025e-01" purity="4.1548672318458557e-01" nType="-99"/>
          <Node pos="r" depth="2" NCoef="0" IVar="-1" Cut="0.0000000000000000e+00" cType="1" res="6.0431071324273944e-04" rms="4.9032491445541382e-01" purity="5.6454920768737793e-01" nType="-99"/>
        </Node>
        <Node pos="r" depth="1" NCoef="0" IVar="1" Cut="4.0000000000000000e+00" cType="1" res="8.1956144422292709e-03" rms="2.8256040811538696e-01" purity="5.4414337873458862e-01" nType="0">
          <Node pos="l" depth="2" NCoef="0" IVar="-1" Cut="0.0000000000000000e+00" cType="1" res="-2.8670451138168573e-04" rms="4.8246428370475769e-01" purity="5.2919602394104004e-01" nType="-99"/>
          <Node pos="r" depth="2" NCoef="0" IVar="-1" Cut="0.0000000000000000e+00" cType="1" res="6.5866070799529552e-03" rms="4.8580908775329590e-01" purity="5.8662074804306030e-01" nType="-99"/>
        </Node>
      </Node>
    </BinaryTree>
    <BinaryTree type="DecisionTree" boostWeight="1.0000000000000000e+00" itree="392">
      <Node pos="s" depth="0" NCoef="0" IVar="3" Cut="8.0286270380020142e-01" cType="1" res="-1.9875590223819017e-03" rms="4.8854321241378784e-01" purity="4.9898743629455566e-01" nType="0">
        <Node pos="l" depth="1" NCoef="0" IVar="3" Cut="-9.0528196096420288e-01" cType="1" res="-5.5568907409906387e-03" rms="4.9122494459152222e-01" purity="4.4023025035858154e-01" nType="0">
          <Node pos="l" depth="2" NCoef="0" IVar="-1" Cut="0.0000000000000000e+00" cType="1" res="1.4002419775351882e-03" rms="4.7083547711372375e-01" purity="3.5349851846694946e-01" nType="-99"/>
          <Node pos="r" depth="2" NCoef="0" IVar="-1" Cut="0.0000000000000000e+00" cType="1" res="-1.3992839958518744e-03" rms="4.9727970361709595e-01" purity="4.6700900793075562e-01" nType="-99"/>
        </Node>
        <Node pos="r" depth="1" NCoef="0" IVar="0" Cut="8.8215007781982422e+00" cType="1" res="4.0352609939873219e-03" rms="4.8392471671104431e-01" purity="5.9813314676284790e-01" nType="0">
          <Node pos="l" depth="2" NCoef="0" IVar="-1" Cut="0.0000000000000000e+00" cType="1" res="2.1496277768164873e-03" rms="4.8884212970733643e-01" purity="5.8572840690612793e-01" nType="-99"/>
          <Node pos="r" depth="2" NCoef="0" IVar="-1" Cut="0.0000000000000000e+00" cType="1" res="-3.9290729910135269e-04" rms="4.8177012801170349e-01" purity="6.0321021080017090e-01" nType="-99"/>
        </Node>
      </Node>
    </BinaryTree>
    <BinaryTree type="DecisionTree" boostWeight="1.0000000000000000e+00" itree="393">
      <Node pos="s" depth="0" NCoef="0" IVar="4" Cut="-7.9909282922744751e-01" cType="1" res="-3.9086324250092730e-05" rms="4.8752489686012268e-01" purity="5.0069350004196167e-01" nType="0">
        <Node pos="l" depth="1" NCoef="0" IVar="1" Cut="3.0000000000000000e+00" cType="1" res="-9.1594206169247627e-03" rms="2.3463715612888336e-01" purity="4.5303231477737427e-01" nType="0">
          <Node pos="l" depth="2" NCoef="0" IVar="-1" Cut="0.0000000000000000e+00" cType="1" res="1.1915514187421650e-04" rms="4.7667419910430908e-01" purity="4.6738043427467346e-01" nType="-99"/>
          <Node pos="r" depth="2" NCoef="0" IVar="-1" Cut="0.0000000000000000e+00" cType="1" res="-5.0958115607500076e-03" rms="4.8049527406692505e-01" purity="4.4121256470680237e-01" nType="-99"/>
        </Node>
        <Node pos="r" depth="1" NCoef="0" IVar="0" Cut="8.3911418914794922e+00" cType="1" res="2.7391139883548021e-03" rms="4.8893013596534729e-01" purity="5.0894868373870850e-01" nType="0">
          <Node pos="l" depth="2" NCoef="0" IVar="-1" Cut="0.0000000000000000e+00" cType="1" res="2.2918179165571928e-03" rms="4.9517196416854858e-01" purity="5.3311169147491455e-01" nType="-99"/>
          <Node pos="r" depth="2" NCoef="0" IVar="-1" Cut="0.0000000000000000e+00" cType="1" res="5.4206906497711316e-05" rms="4.8811429738998413e-01" purity="5.0602632761001587e-01" nType="-99"/>
        </Node>
      </Node>
    </BinaryTree>
    <BinaryTree type="DecisionTree" boostWeight="1.0000000000000000e+00" itree="394">
      <Node pos="s" depth="0" NCoef="0" IVar="5" Cut="5.0366669893264771e-02" cType="1" res="4.4065429392503574e-05" rms="4.8895788192749023e-01" purity="5.0097197294235229e-01" nType="0">
        <Node pos="l" depth="1" NCoef="0" IVar="5" Cut="-8.2983940839767456e-01" cType="1" res="2.0840077195316553e-03" rms="4.8929700255393982e-01" purity="5.0169891119003296e-01" nType="0">
          <Node pos="l" depth="2" NCoef="0" IVar="-1" Cut="0.0000000000000000e+00" cType="1" res="-5.2458215504884720e-03" rms="4.9165418744087219e-01" purity="4.6403026580810547e-01" nType="-99"/>
          <Node pos="r" depth="2" NCoef="0" IVar="-1" Cut="0.0000000000000000e+00" cType="1" res="4.9873336683958769e-04" rms="4.8918139934539795e-01" purity="5.0295424461364746e-01" nType="-99"/>
        </Node>
        <Node pos="r" depth="1" NCoef="0" IVar="5" Cut="7.4443125724792480e-01" cType="1" res="-1.4424048364162445e-02" rms="4.8630037903785706e-01" purity="4.9581578373908997e-01" nType="0">
          <Node pos="l" depth="2" NCoef="0" IVar="-1" Cut="0.0000000000000000e+00" cType="1" res="3.2602744176983833e-03" rms="4.8664888739585876e-01" purity="5.2445435523986816e-01" nType="-99"/>
          <Node pos="r" depth="2" NCoef="0" IVar="-1" Cut="0.0000000000000000e+00" cType="1" res="-3.9902045391499996e-03" rms="4.8575490713119507e-01" purity="4.8785775899887085e-01" nType="-99"/>
        </Node>
      </Node>
    </BinaryTree>
    <BinaryTree type="DecisionTree" boostWeight="1.0000000000000000e+00" itree="395">
      <Node pos="s" depth="0" NCoef="0" IVar="0" Cut="8.7015762329101562e+00" cType="1" res="-2.5127148255705833e-03" rms="4.8894658684730530e-01" purity="4.9748447537422180e-01" nType="0">
        <Node pos="l" depth="1" NCoef="0" IVar="4" Cut="5.2270874381065369e-02" cType="1" res="-1.4551208354532719e-02" rms="4.9413806200027466e-01" purity="4.8997452855110168e-01" nType="0">
          <Node pos="l" depth="2" NCoef="0" IVar="-1" Cut="0.0000000000000000e+00" cType="1" res="-2.1776224020868540e-03" rms="4.9481549859046936e-01" purity="4.7570282220840454e-01" nType="-99"/>
          <Node pos="r" depth="2" NCoef="0" IVar="-1" Cut="0.0000000000000000e+00" cType="1" res="2.3842160589993000e-04" rms="4.9185690283775330e-01" purity="5.2985215187072754e-01" nType="-99"/>
        </Node>
        <Node pos="r" depth="1" NCoef="0" IVar="4" Cut="4.6237733215093613e-02" cType="1" res="1.2963624903932214e-03" rms="4.8723047971725464e-01" purity="4.9986067414283752e-01" nType="0">
          <Node pos="l" depth="2" NCoef="0" IVar="-1" Cut="0.0000000000000000e+00" cType="1" res="9.8149420227855444e-04" rms="4.8739090561866760e-01" purity="4.9434933066368103e-01" nType="-99"/>
          <Node pos="r" depth="2" NCoef="0" IVar="-1" Cut="0.0000000000000000e+00" cType="1" res="-1.6467459499835968e-03" rms="4.8668849468231201e-01" purity="5.1365810632705688e-01" nType="-99"/>
        </Node>
      </Node>
    </BinaryTree>
    <BinaryTree type="DecisionTree" boostWeight="1.0000000000000000e+00" itree="396">
      <Node pos="s" depth="0" NCoef="0" IVar="3" Cut="8.0266124010086060e-01" cType="1" res="-1.5315003693103790e-03" rms="4.8907998204231262e-01" purity="4.9960657954216003e-01" nType="0">
        <Node pos="l" depth="1" NCoef="0" IVar="3" Cut="-8.1916391849517822e-01" cType="1" res="3.0009788461029530e-03" rms="4.9098226428031921e-01" purity="4.4808691740036011e-01" nType="0">
          <Node pos="l" depth="2" NCoef="0" IVar="-1" Cut="0.0000000000000000e+00" cType="1" res="-5.9990258887410164e-04" rms="4.8383536934852600e-01" purity="4.0064746141433716e-01" nType="-99"/>
          <Node pos="r" depth="2" NCoef="0" IVar="-1" Cut="0.0000000000000000e+00" cType="1" res="1.4745098305866122e-03" rms="4.9892875552177429e-01" purity="5.0237351655960083e-01" nType="-99"/>
        </Node>
        <Node pos="r" depth="1" NCoef="0" IVar="1" Cut="3.0000000000000000e+00" cType="1" res="-3.9561199955642223e-03" rms="1.6987709701061249e-01" purity="5.8508914709091187e-01" nType="0">
          <Node pos="l" depth="2" NCoef="0" IVar="-1" Cut="0.0000000000000000e+00" cType="1" res="-2.9017709312029183e-04" rms="4.8488149046897888e-01" purity="5.9392392635345459e-01" nType="-99"/>
          <Node pos="r" depth="2" NCoef="0" IVar="-1" Cut="0.0000000000000000e+00" cType="1" res="-3.4749868791550398e-03" rms="4.8708841204643250e-01" purity="5.7076692581176758e-01" nType="-99"/>
        </Node>
      </Node>
    </BinaryTree>
    <BinaryTree type="DecisionTree" boostWeight="1.0000000000000000e+00" itree="397">
      <Node pos="s" depth="0" NCoef="0" IVar="0" Cut="8.9159507751464844e+00" cType="1" res="3.5849807318300009e-03" rms="4.8865801095962524e-01" purity="5.0468534231185913e-01" nType="0">
        <Node pos="l" depth="1" NCoef="0" IVar="1" Cut="2.0000000000000000e+00" cType="1" res="-3.0191846235538833e-05" rms="1.5486815012991428e-02" purity="5.1361304521560669e-01" nType="0">
          <Node pos="l" depth="2" NCoef="0" IVar="-1" Cut="0.0000000000000000e+00" cType="1" res="-1.2664797250181437e-03" rms="4.9605670571327209e-01" purity="4.9332141876220703e-01" nType="-99"/>
          <Node pos="r" depth="2" NCoef="0" IVar="-1" Cut="0.0000000000000000e+00" cType="1" res="2.4080856237560511e-03" rms="4.9172899127006531e-01" purity="5.2212852239608765e-01" nType="-99"/>
        </Node>
        <Node pos="r" depth="1" NCoef="0" IVar="3" Cut="8.0266124010086060e-01" cType="1" res="-1.1637784773483872e-03" rms="4.8566251993179321e-01" purity="4.9898484349250793e-01" nType="0">
          <Node pos="l" depth="2" NCoef="0" IVar="-1" Cut="0.0000000000000000e+00" cType="1" res="6.6789833363145590e-04" rms="4.8768430948257446e-01" purity="4.3355986475944519e-01" nType="-99"/>
          <Node pos="r" depth="2" NCoef="0" IVar="-1" Cut="0.0000000000000000e+00" cType="1" res="-1.7055580392479897e-03" rms="4.8247021436691284e-01" purity="5.9912014007568359e-01" nType="-99"/>
        </Node>
      </Node>
    </BinaryTree>
    <BinaryTree type="DecisionTree" boostWeight="1.0000000000000000e+00" itree="398">
      <Node pos="s" depth="0" NCoef="0" IVar="0" Cut="9.2668752670288086e+00" cType="1" res="-4.7866406384855509e-04" rms="4.8885458707809448e-01" purity="5.0056737661361694e-01" nType="0">
        <Node pos="l" depth="1" NCoef="0" IVar="1" Cut="4.0000000000000000e+00" cType="1" res="2.2157937928568572e-04" rms="2.7480956166982651e-02" purity="4.9792060256004333e-01" nType="0">
          <Node pos="l" depth="2" NCoef="0" IVar="-1" Cut="0.0000000000000000e+00" cType="1" res="-1.0822472395375371e-03" rms="4.9221205711364746e-01" purity="4.9432566761970520e-01" nType="-99"/>
          <Node pos="r" depth="2" NCoef="0" IVar="-1" Cut="0.0000000000000000e+00" cType="1" res="1.5706111444160342e-03" rms="4.9165403842926025e-01" purity="5.1915568113327026e-01" nType="-99"/>
        </Node>
        <Node pos="r" depth="1" NCoef="0" IVar="3" Cut="-7.0782405138015747e-01" cType="1" res="9.0767731890082359e-03" rms="4.8179623484611511e-01" purity="5.0601673126220703e-01" nType="0">
          <Node pos="l" depth="2" NCoef="0" IVar="-1" Cut="0.0000000000000000e+00" cType="1" res="4.0609496645629406e-03" rms="4.8198336362838745e-01" purity="4.1373828053474426e-01" nType="-99"/>
          <Node pos="r" depth="2" NCoef="0" IVar="-1" Cut="0.0000000000000000e+00" cType="1" res="4.0960308979265392e-04" rms="4.8150041699409485e-01" purity="5.9422850608825684e-01" nType="-99"/>
        </Node>
      </Node>
    </BinaryTree>
    <BinaryTree type="DecisionTree" boostWeight="1.0000000000000000e+00" itree="399">
      <Node pos="s" depth="0" NCoef="0" IVar="2" Cut="2.0000000000000000e+00" cType="1" res="-1.4446735149249434e-03" rms="1.8608543276786804e-01" purity="4.9950754642486572e-01" nType="0">
        <Node pos="l" depth="1" NCoef="0" IVar="0" Cut="9.5309743881225586e+00" cType="1" res="-7.7592493034899235e-03" rms="4.8619973659515381e-01" purity="4.9226471781730652e-01" nType="0">
          <Node pos="l" depth="2" NCoef="0" IVar="-1" Cut="0.0000000000000000e+00" cType="1" res="-6.9145107408985496e-04" rms="4.8872756958007812e-01" purity="4.9644729495048523e-01" nType="-99"/>
          <Node pos="r" depth="2" NCoef="0" IVar="-1" Cut="0.0000000000000000e+00" cType="1" res="-6.2647061422467232e-03" rms="4.7233757376670837e-01" purity="4.7018948197364807e-01" nType="-99"/>
        </Node>
        <Node pos="r" depth="1" NCoef="0" IVar="4" Cut="4.8678986728191376e-02" cType="1" res="8.0025931820273399e-03" rms="4.8931470513343811e-01" purity="5.0931739807128906e-01" nType="0">
          <Node pos="l" depth="2" NCoef="0" IVar="-1" Cut="0.0000000000000000e+00" cType="1" res="5.8153289137408137e-04" rms="4.9095597863197327e-01" purity="4.9602243304252625e-01" nType="-99"/>
          <Node pos="r" depth="2" NCoef="0" IVar="-1" Cut="0.0000000000000000e+00" cType="1" res="3.8815841544419527e-03" rms="4.8394531011581421e-01" purity="5.5035793781280518e-01" nType="-99"/>
        </Node>
      </Node>
    </BinaryTree>
    <BinaryTree type="DecisionTree" boostWeight="1.0000000000000000e+00" itree="400">
      <Node pos="s" depth="0" NCoef="0" IVar="3" Cut="-7.0768195390701294e-01" cType="1" res="4.7013871371746063e-03" rms="4.8743450641632080e-01" purity="5.0499588251113892e-01" nType="0">
        <Node pos="l" depth="1" NCoef="0" IVar="3" Cut="-7.5873017311096191e-01" cType="1" res="-2.3973432835191488e-03" rms="4.8807051777839661e-01" purity="4.2541715502738953e-01" nType="0">
          <Node pos="l" depth="2" NCoef="0" IVar="-1" Cut="0.0000000000000000e+00" cType="1" res="1.4329337864182889e-04" rms="4.8682773113250732e-01" purity="4.2215278744697571e-01" nType="-99"/>
          <Node pos="r" depth="2" NCoef="0" IVar="-1" Cut="0.0000000000000000e+00" cType="1" res="-3.9192042313516140e-03" rms="4.9711513519287109e-01" purity="4.5153960585594177e-01" nType="-99"/>
        </Node>
        <Node pos="r" depth="1" NCoef="0" IVar="0" Cut="8.9778385162353516e+00" cType="1" res="1.1667754501104355e-02" rms="4.8670890927314758e-01" purity="5.8309072256088257e-01" nType="0">
          <Node pos="l" depth="2" NCoef="0" IVar="-1" Cut="0.0000000000000000e+00" cType="1" res="2.4395929649472237e-03" rms="4.8981463909149170e-01" purity="5.7444232702255249e-01" nType="-99"/>
          <Node pos="r" depth="2" NCoef="0" IVar="-1" Cut="0.0000000000000000e+00" cType="1" res="1.0558998910710216e-03" rms="4.8421958088874817e-01" purity="5.8968800306320190e-01" nType="-99"/>
        </Node>
      </Node>
    </BinaryTree>
    <BinaryTree type="DecisionTree" boostWeight="1.0000000000000000e+00" itree="401">
      <Node pos="s" depth="0" NCoef="0" IVar="4" Cut="-7.0230138301849365e-01" cType="1" res="9.2954898718744516e-04" rms="4.8783868551254272e-01" purity="5.0177001953125000e-01" nType="0">
        <Node pos="l" depth="1" NCoef="0" IVar="4" Cut="-7.4511229991912842e-01" cType="1" res="-9.6428366377949715e-03" rms="4.8396086692810059e-01" purity="4.6834474802017212e-01" nType="0">
          <Node pos="l" depth="2" NCoef="0" IVar="-1" Cut="0.0000000000000000e+00" cType="1" res="-7.7113625593483448e-04" rms="4.8283314704895020e-01" purity="4.7165521979331970e-01" nType="-99"/>
          <Node pos="r" depth="2" NCoef="0" IVar="-1" Cut="0.0000000000000000e+00" cType="1" res="-6.0388674028217793e-03" rms="4.8946070671081543e-01" purity="4.4908815622329712e-01" nType="-99"/>
        </Node>
        <Node pos="r" depth="1" NCoef="0" IVar="0" Cut="9.1604394912719727e+00" cType="1" res="4.9093933776021004e-03" rms="4.8923131823539734e-01" purity="5.1435256004333496e-01" nType="0">
          <Node pos="l" depth="2" NCoef="0" IVar="-1" Cut="0.0000000000000000e+00" cType="1" res="1.1663126060739160e-03" rms="4.9293440580368042e-01" purity="5.2048051357269287e-01" nType="-99"/>
          <Node pos="r" depth="2" NCoef="0" IVar="-1" Cut="0.0000000000000000e+00" cType="1" res="-1.1841042578453198e-04" rms="4.8385259509086609e-01" purity="5.0561863183975220e-01" nType="-99"/>
        </Node>
      </Node>
    </BinaryTree>
    <BinaryTree type="DecisionTree" boostWeight="1.0000000000000000e+00" itree="402">
      <Node pos="s" depth="0" NCoef="0" IVar="2" Cut="2.0000000000000000e+00" cType="1" res="1.5620002523064613e-04" rms="3.0750129371881485e-02" purity="5.0190126895904541e-01" nType="0">
        <Node pos="l" depth="1" NCoef="0" IVar="0" Cut="8.3852252960205078e+00" cType="1" res="7.2076581418514252e-03" rms="4.8638260364532471e-01" purity="5.0769114494323730e-01" nType="0">
          <Node pos="l" depth="2" NCoef="0" IVar="-1" Cut="0.0000000000000000e+00" cType="1" res="3.0452492646872997e-03" rms="4.9651896953582764e-01" purity="5.3831452131271362e-01" nType="-99"/>
          <Node pos="r" depth="2" NCoef="0" IVar="-1" Cut="0.0000000000000000e+00" cType="1" res="7.2943541454151273e-04" rms="4.8511841893196106e-01" purity="5.0414323806762695e-01" nType="-99"/>
        </Node>
        <Node pos="r" depth="1" NCoef="0" IVar="3" Cut="8.9052444696426392e-01" cType="1" res="-7.8740194439888000e-03" rms="4.9048563838005066e-01" purity="4.9416089057922363e-01" nType="0">
          <Node pos="l" depth="2" NCoef="0" IVar="-1" Cut="0.0000000000000000e+00" cType="1" res="-1.8429619958624244e-03" rms="4.9334859848022461e-01" purity="4.6797859668731689e-01" nType="-99"/>
          <Node pos="r" depth="2" NCoef="0" IVar="-1" Cut="0.0000000000000000e+00" cType="1" res="2.0751988049596548e-03" rms="4.7304159402847290e-01" purity="6.4643317461013794e-01" nType="-99"/>
        </Node>
      </Node>
    </BinaryTree>
    <BinaryTree type="DecisionTree" boostWeight="1.0000000000000000e+00" itree="403">
      <Node pos="s" depth="0" NCoef="0" IVar="0" Cut="8.4704437255859375e+00" cType="1" res="2.4998267181217670e-03" rms="4.8826113343238831e-01" purity="5.0290393829345703e-01" nType="0">
        <Node pos="l" depth="1" NCoef="0" IVar="1" Cut="3.0000000000000000e+00" cType="1" res="-1.2831187632400542e-04" rms="8.0934315919876099e-03" purity="5.1909452676773071e-01" nType="0">
          <Node pos="l" depth="2" NCoef="0" IVar="-1" Cut="0.0000000000000000e+00" cType="1" res="4.5055046211928129e-04" rms="4.9775287508964539e-01" purity="5.1096349954605103e-01" nType="-99"/>
          <Node pos="r" depth="2" NCoef="0" IVar="-1" Cut="0.0000000000000000e+00" cType="1" res="2.5889084208756685e-03" rms="4.9167507886886597e-01" purity="5.3468966484069824e-01" nType="-99"/>
        </Node>
        <Node pos="r" depth="1" NCoef="0" IVar="0" Cut="8.6095924377441406e+00" cType="1" res="1.0347820352762938e-03" rms="4.8703014850616455e-01" purity="5.0031000375747681e-01" nType="0">
          <Node pos="l" depth="2" NCoef="0" IVar="-1" Cut="0.0000000000000000e+00" cType="1" res="-1.9407068612053990e-03" rms="4.8956146836280823e-01" purity="4.8975285887718201e-01" nType="-99"/>
          <Node pos="r" depth="2" NCoef="0" IVar="-1" Cut="0.0000000000000000e+00" cType="1" res="4.3860910227522254e-04" rms="4.8681202530860901e-01" purity="5.0110137462615967e-01" nType="-99"/>
        </Node>
      </Node>
    </BinaryTree>
    <BinaryTree type="DecisionTree" boostWeight="1.0000000000000000e+00" itree="404">
      <Node pos="s" depth="0" NCoef="0" IVar="1" Cut="2.0000000000000000e+00" cType="1" res="-1.6673736972734332e-03" rms="2.6504713296890259e-01" purity="4.9762451648712158e-01" nType="0">
        <Node pos="l" depth="1" NCoef="0" IVar="0" Cut="8.6269807815551758e+00" cType="1" res="7.4029895476996899e-03" rms="4.8808965086936951e-01" purity="5.0710439682006836e-01" nType="0">
          <Node pos="l" depth="2" NCoef="0" IVar="-1" Cut="0.0000000000000000e+00" cType="1" res="2.8496151790022850e-03" rms="4.9456158280372620e-01" purity="5.3466355800628662e-01" nType="-99"/>
          <Node pos="r" depth="2" NCoef="0" IVar="-1" Cut="0.0000000000000000e+00" cType="1" res="3.8305457565002143e-04" rms="4.8625484108924866e-01" purity="4.9993929266929626e-01" nType="-99"/>
        </Node>
        <Node pos="r" depth="1" NCoef="0" IVar="4" Cut="-8.9024293422698975e-01" cType="1" res="-6.2618628144264221e-03" rms="4.8833519220352173e-01" purity="4.9374535679817200e-01" nType="0">
          <Node pos="l" depth="2" NCoef="0" IVar="-1" Cut="0.0000000000000000e+00" cType="1" res="3.4408981446176767e-03" rms="4.8383507132530212e-01" purity="4.6984955668449402e-01" nType="-99"/>
          <Node pos="r" depth="2" NCoef="0" IVar="-1" Cut="0.0000000000000000e+00" cType="1" res="-1.1993892258033156e-03" rms="4.8852661252021790e-01" purity="4.9495643377304077e-01" nType="-99"/>
        </Node>
      </Node>
    </BinaryTree>
    <BinaryTree type="DecisionTree" boostWeight="1.0000000000000000e+00" itree="405">
      <Node pos="s" depth="0" NCoef="0" IVar="4" Cut="-7.0394879579544067e-01" cType="1" res="-8.7151466868817806e-04" rms="4.8849329352378845e-01" purity="4.9983739852905273e-01" nType="0">
        <Node pos="l" depth="1" NCoef="0" IVar="0" Cut="8.8033418655395508e+00" cType="1" res="1.4301156625151634e-02" rms="4.8641920089721680e-01" purity="4.9041280150413513e-01" nType="0">
          <Node pos="l" depth="2" NCoef="0" IVar="-1" Cut="0.0000000000000000e+00" cType="1" res="4.9002439482137561e-04" rms="4.9327275156974792e-01" purity="4.8170796036720276e-01" nType="-99"/>
          <Node pos="r" depth="2" NCoef="0" IVar="-1" Cut="0.0000000000000000e+00" cType="1" res="3.7856081034988165e-03" rms="4.8330053687095642e-01" purity="4.9425444006919861e-01" nType="-99"/>
        </Node>
        <Node pos="r" depth="1" NCoef="0" IVar="1" Cut="3.0000000000000000e+00" cType="1" res="-4.9608801491558552e-03" rms="3.3759373426437378e-01" purity="5.0341367721557617e-01" nType="0">
          <Node pos="l" depth="2" NCoef="0" IVar="-1" Cut="0.0000000000000000e+00" cType="1" res="-6.0707516240654513e-05" rms="4.8916274309158325e-01" purity="5.0622248649597168e-01" nType="-99"/>
          <Node pos="r" depth="2" NCoef="0" IVar="-1" Cut="0.0000000000000000e+00" cType="1" res="-3.0630968976765871e-03" rms="4.8887050151824951e-01" purity="4.9740475416183472e-01" nType="-99"/>
        </Node>
      </Node>
    </BinaryTree>
    <BinaryTree type="DecisionTree" boostWeight="1.0000000000000000e+00" itree="406">
      <Node pos="s" depth="0" NCoef="0" IVar="3" Cut="-7.0731437206268311e-01" cType="1" res="-2.2773901582695544e-04" rms="4.8914399743080139e-01" purity="5.0028657913208008e-01" nType="0">
        <Node pos="l" depth="1" NCoef="0" IVar="0" Cut="8.6288938522338867e+00" cType="1" res="6.8130670115351677e-03" rms="4.8892080783843994e-01" purity="4.3375444412231445e-01" nType="0">
          <Node pos="l" depth="2" NCoef="0" IVar="-1" Cut="0.0000000000000000e+00" cType="1" res="2.9540904797613621e-03" rms="4.9758836627006531e-01" purity="4.9304524064064026e-01" nType="-99"/>
          <Node pos="r" depth="2" NCoef="0" IVar="-1" Cut="0.0000000000000000e+00" cType="1" res="2.1937974088359624e-04" rms="4.8652404546737671e-01" purity="4.1860109567642212e-01" nType="-99"/>
        </Node>
        <Node pos="r" depth="1" NCoef="0" IVar="0" Cut="8.6527681350708008e+00" cType="1" res="-7.1557206101715565e-03" rms="4.8926463723182678e-01" purity="5.6575256586074829e-01" nType="0">
          <Node pos="l" depth="2" NCoef="0" IVar="-1" Cut="0.0000000000000000e+00" cType="1" res="-2.7109519578516483e-03" rms="4.9737882614135742e-01" purity="5.2429467439651489e-01" nType="-99"/>
          <Node pos="r" depth="2" NCoef="0" IVar="-1" Cut="0.0000000000000000e+00" cType="1" res="-3.6591631942428648e-04" rms="4.8690772056579590e-01" purity="5.7702058553695679e-01" nType="-99"/>
        </Node>
      </Node>
    </BinaryTree>
    <BinaryTree type="DecisionTree" boostWeight="1.0000000000000000e+00" itree="407">
      <Node pos="s" depth="0" NCoef="0" IVar="2" Cut="2.0000000000000000e+00" cType="1" res="-3.3819881082308711e-06" rms="9.1197557747364044e-02" purity="4.9897727370262146e-01" nType="0">
        <Node pos="l" depth="1" NCoef="0" IVar="3" Cut="-7.0778203010559082e-01" cType="1" res="-9.0050715953111649e-03" rms="4.8702612519264221e-01" purity="4.9093818664550781e-01" nType="0">
          <Node pos="l" depth="2" NCoef="0" IVar="-1" Cut="0.0000000000000000e+00" cType="1" res="-4.7138083027675748e-04" rms="4.8517873883247375e-01" purity="4.1882109642028809e-01" nType="-99"/>
          <Node pos="r" depth="2" NCoef="0" IVar="-1" Cut="0.0000000000000000e+00" cType="1" res="-2.2418366279453039e-03" rms="4.8876166343688965e-01" purity="5.6165319681167603e-01" nType="-99"/>
        </Node>
        <Node pos="r" depth="1" NCoef="0" IVar="4" Cut="-6.9167530536651611e-01" cType="1" res="8.8963219895958900e-03" rms="4.9013853073120117e-01" purity="5.0995397567749023e-01" nType="0">
          <Node pos="l" depth="2" NCoef="0" IVar="-1" Cut="0.0000000000000000e+00" cType="1" res="-8.5916667012497783e-04" rms="4.8834612965583801e-01" purity="4.6585500240325928e-01" nType="-99"/>
          <Node pos="r" depth="2" NCoef="0" IVar="-1" Cut="0.0000000000000000e+00" cType="1" res="2.1548282820731401e-03" rms="4.9061366915702820e-01" purity="5.2363872528076172e-01" nType="-99"/>
        </Node>
      </Node>
    </BinaryTree>
    <BinaryTree type="DecisionTree" boostWeight="1.0000000000000000e+00" itree="408">
      <Node pos="s" depth="0" NCoef="0" IVar="0" Cut="8.9639310836791992e+00" cType="1" res="-1.5841067070141435e-03" rms="4.8881277441978455e-01" purity="4.9813994765281677e-01" nType="0">
        <Node pos="l" depth="1" NCoef="0" IVar="2" Cut="2.0000000000000000e+00" cType="1" res="-1.4965192531235516e-04" rms="8.6937379091978073e-03" purity="4.9196636676788330e-01" nType="0">
          <Node pos="l" depth="2" NCoef="0" IVar="-1" Cut="0.0000000000000000e+00" cType="1" res="-1.6500704805366695e-04" rms="4.9240234494209290e-01" purity="5.0097268819808960e-01" nType="-99"/>
          <Node pos="r" depth="2" NCoef="0" IVar="-1" Cut="0.0000000000000000e+00" cType="1" res="-2.6867443230003119e-03" rms="4.9639376997947693e-01" purity="4.8040786385536194e-01" nType="-99"/>
        </Node>
        <Node pos="r" depth="1" NCoef="0" IVar="0" Cut="9.0763845443725586e+00" cType="1" res="4.9244263209402561e-03" rms="4.8467165231704712e-01" purity="5.0267201662063599e-01" nType="0">
          <Node pos="l" depth="2" NCoef="0" IVar="-1" Cut="0.0000000000000000e+00" cType="1" res="3.4774572122842073e-03" rms="4.8823776841163635e-01" purity="5.2224481105804443e-01" nType="-99"/>
          <Node pos="r" depth="2" NCoef="0" IVar="-1" Cut="0.0000000000000000e+00" cType="1" res="4.2949934140779078e-04" rms="4.8395285010337830e-01" purity="4.9906015396118164e-01" nType="-99"/>
        </Node>
      </Node>
    </BinaryTree>
    <BinaryTree type="DecisionTree" boostWeight="1.0000000000000000e+00" itree="409">
      <Node pos="s" depth="0" NCoef="0" IVar="5" Cut="-7.8418982028961182e-01" cType="1" res="2.8540220228023827e-04" rms="4.8861849308013916e-01" purity="5.0078266859054565e-01" nType="0">
        <Node pos="l" depth="1" NCoef="0" IVar="5" Cut="-8.2832634449005127e-01" cType="1" res="-2.3404080420732498e-02" rms="4.8319616913795471e-01" purity="4.6965098381042480e-01" nType="0">
          <Node pos="l" depth="2" NCoef="0" IVar="-1" Cut="0.0000000000000000e+00" cType="1" res="-8.8068959303200245e-04" rms="4.7906765341758728e-01" purity="4.7861123085021973e-01" nType="-99"/>
          <Node pos="r" depth="2" NCoef="0" IVar="-1" Cut="0.0000000000000000e+00" cType="1" res="-6.8368921056389809e-03" rms="4.8645901679992676e-01" purity="4.6104776859283447e-01" nType="-99"/>
        </Node>
        <Node pos="r" depth="1" NCoef="0" IVar="4" Cut="8.8992655277252197e-01" cType="1" res="1.7245690105482936e-03" rms="4.8890897631645203e-01" purity="5.0267392396926880e-01" nType="0">
          <Node pos="l" depth="2" NCoef="0" IVar="-1" Cut="0.0000000000000000e+00" cType="1" res="1.5670349239371717e-04" rms="4.8943704366683960e-01" purity="5.0071179866790771e-01" nType="-99"/>
          <Node pos="r" depth="2" NCoef="0" IVar="-1" Cut="0.0000000000000000e+00" cType="1" res="5.2831000648438931e-03" rms="4.6978193521499634e-01" purity="5.6982964277267456e-01" nType="-99"/>
        </Node>
      </Node>
    </BinaryTree>
    <BinaryTree type="DecisionTree" boostWeight="1.0000000000000000e+00" itree="410">
      <Node pos="s" depth="0" NCoef="0" IVar="0" Cut="8.4702129364013672e+00" cType="1" res="-1.6611500177532434e-03" rms="4.8935338854789734e-01" purity="4.9959596991539001e-01" nType="0">
        <Node pos="l" depth="1" NCoef="0" IVar="3" Cut="7.8720253705978394e-01" cType="1" res="-1.6369923949241638e-02" rms="4.9803733825683594e-01" purity="4.9248820543289185e-01" nType="0">
          <Node pos="l" depth="2" NCoef="0" IVar="-1" Cut="0.0000000000000000e+00" cType="1" res="-1.8277429626323283e-04" rms="4.9751338362693787e-01" purity="4.7906261682510376e-01" nType="-99"/>
          <Node pos="r" depth="2" NCoef="0" IVar="-1" Cut="0.0000000000000000e+00" cType="1" res="-4.2292708531022072e-03" rms="4.9797582626342773e-01" purity="5.1438504457473755e-01" nType="-99"/>
        </Node>
        <Node pos="r" depth="1" NCoef="0" IVar="0" Cut="9.5828619003295898e+00" cType="1" res="6.3479848904535174e-04" rms="4.8794394731521606e-01" purity="5.0070536136627197e-01" nType="0">
          <Node pos="l" depth="2" NCoef="0" IVar="-1" Cut="0.0000000000000000e+00" cType="1" res="-2.6883473037742078e-04" rms="4.8978453874588013e-01" purity="4.9988830089569092e-01" nType="-99"/>
          <Node pos="r" depth="2" NCoef="0" IVar="-1" Cut="0.0000000000000000e+00" cType="1" res="3.8730616215616465e-03" rms="4.7716239094734192e-01" purity="5.0534075498580933e-01" nType="-99"/>
        </Node>
      </Node>
    </BinaryTree>
    <BinaryTree type="DecisionTree" boostWeight="1.0000000000000000e+00" itree="411">
      <Node pos="s" depth="0" NCoef="0" IVar="2" Cut="2.0000000000000000e+00" cType="1" res="-1.2062375753885135e-04" rms="1.3212014734745026e-01" purity="5.0010704994201660e-01" nType="0">
        <Node pos="l" depth="1" NCoef="0" IVar="3" Cut="-7.0782405138015747e-01" cType="1" res="-3.6415476351976395e-03" rms="4.8692655563354492e-01" purity="4.9524179100990295e-01" nType="0">
          <Node pos="l" depth="2" NCoef="0" IVar="-1" Cut="0.0000000000000000e+00" cType="1" res="4.5825590495951474e-04" rms="4.8620331287384033e-01" purity="4.2385286092758179e-01" nType="-99"/>
          <Node pos="r" depth="2" NCoef="0" IVar="-1" Cut="0.0000000000000000e+00" cType="1" res="-1.5902236336842179e-03" rms="4.8755279183387756e-01" purity="5.6602746248245239e-01" nType="-99"/>
        </Node>
        <Node pos="r" depth="1" NCoef="0" IVar="4" Cut="-7.8761529922485352e-01" cType="1" res="5.7466663420200348e-03" rms="4.9051097035408020e-01" purity="5.0669103860855103e-01" nType="0">
          <Node pos="l" depth="2" NCoef="0" IVar="-1" Cut="0.0000000000000000e+00" cType="1" res="3.9649554528295994e-03" rms="4.9160078167915344e-01" purity="4.8340716958045959e-01" nType="-99"/>
          <Node pos="r" depth="2" NCoef="0" IVar="-1" Cut="0.0000000000000000e+00" cType="1" res="5.2071944810450077e-04" rms="4.9029120802879333e-01" purity="5.1031965017318726e-01" nType="-99"/>
        </Node>
      </Node>
    </BinaryTree>
    <BinaryTree type="DecisionTree" boostWeight="1.0000000000000000e+00" itree="412">
      <Node pos="s" depth="0" NCoef="0" IVar="4" Cut="8.9240539073944092e-01" cType="1" res="2.2352437954396009e-03" rms="4.8886790871620178e-01" purity="5.0265407562255859e-01" nType="0">
        <Node pos="l" depth="1" NCoef="0" IVar="5" Cut="4.5596931129693985e-02" cType="1" res="3.2381280325353146e-03" rms="4.8941999673843384e-01" purity="5.0203317403793335e-01" nType="0">
          <Node pos="l" depth="2" NCoef="0" IVar="-1" Cut="0.0000000000000000e+00" cType="1" res="8.1859971396625042e-04" rms="4.8980680108070374e-01" purity="5.0346291065216064e-01" nType="-99"/>
          <Node pos="r" depth="2" NCoef="0" IVar="-1" Cut="0.0000000000000000e+00" cType="1" res="-1.7706187209114432e-03" rms="4.8624548316001892e-01" purity="4.9123701453208923e-01" nType="-99"/>
        </Node>
        <Node pos="r" depth="1" NCoef="0" IVar="-1" Cut="0.0000000000000000e+00" cType="1" res="-4.5201163738965988e-03" rms="4.7268491983413696e-01" purity="5.1964467763900757e-01" nType="-99"/>
      </Node>
    </BinaryTree>
    <BinaryTree type="DecisionTree" boostWeight="1.0000000000000000e+00" itree="413">
      <Node pos="s" depth="0" NCoef="0" IVar="0" Cut="8.6121253967285156e+00" cType="1" res="-6.0748499818146229e-03" rms="4.8776897788047791e-01" purity="4.9550542235374451e-01" nType="0">
        <Node pos="l" depth="1" NCoef="0" IVar="3" Cut="-7.9518896341323853e-01" cType="1" res="-1.7821004614233971e-02" rms="4.9473264813423157e-01" purity="4.8825588822364807e-01" nType="0">
          <Node pos="l" depth="2" NCoef="0" IVar="-1" Cut="0.0000000000000000e+00" cType="1" res="-3.4142395015805960e-03" rms="4.9012696743011475e-01" purity="4.2493057250976562e-01" nType="-99"/>
          <Node pos="r" depth="2" NCoef="0" IVar="-1" Cut="0.0000000000000000e+00" cType="1" res="-9.0119702508673072e-04" rms="4.9722504615783691e-01" purity="5.2582335472106934e-01" nType="-99"/>
        </Node>
        <Node pos="r" depth="1" NCoef="0" IVar="2" Cut="2.0000000000000000e+00" cType="1" res="-2.6846774853765965e-03" rms="4.2612126469612122e-01" purity="4.9729222059249878e-01" nType="0">
          <Node pos="l" depth="2" NCoef="0" IVar="-1" Cut="0.0000000000000000e+00" cType="1" res="-1.2565816286951303e-03" rms="4.8311865329742432e-01" purity="4.9115571379661560e-01" nType="-99"/>
          <Node pos="r" depth="2" NCoef="0" IVar="-1" Cut="0.0000000000000000e+00" cType="1" res="4.1881162906065583e-04" rms="4.8981478810310364e-01" purity="5.0561463832855225e-01" nType="-99"/>
        </Node>
      </Node>
    </BinaryTree>
    <BinaryTree type="DecisionTree" boostWeight="1.0000000000000000e+00" itree="414">
      <Node pos="s" depth="0" NCoef="0" IVar="5" Cut="-7.8396582603454590e-01" cType="1" res="-1.2604778166860342e-03" rms="4.8894509673118591e-01" purity="4.9924194812774658e-01" nType="0">
        <Node pos="l" depth="1" NCoef="0" IVar="4" Cut="-7.0385897159576416e-01" cType="1" res="1.7451044172048569e-02" rms="4.8775711655616760e-01" purity="5.1331931352615356e-01" nType="0">
          <Node pos="l" depth="2" NCoef="0" IVar="-1" Cut="0.0000000000000000e+00" cType="1" res="4.4283899478614330e-03" rms="4.8908144235610962e-01" purity="4.8860719799995422e-01" nType="-99"/>
          <Node pos="r" depth="2" NCoef="0" IVar="-1" Cut="0.0000000000000000e+00" cType="1" res="1.7744156066328287e-03" rms="4.8650139570236206e-01" purity="5.3456842899322510e-01" nType="-99"/>
        </Node>
        <Node pos="r" depth="1" NCoef="0" IVar="0" Cut="8.3743715286254883e+00" cType="1" res="-2.4012711364775896e-03" rms="4.8899427056312561e-01" purity="4.9838367104530334e-01" nType="0">
          <Node pos="l" depth="2" NCoef="0" IVar="-1" Cut="0.0000000000000000e+00" cType="1" res="-1.4494298957288265e-03" rms="4.9488040804862976e-01" purity="4.9016457796096802e-01" nType="-99"/>
          <Node pos="r" depth="2" NCoef="0" IVar="-1" Cut="0.0000000000000000e+00" cType="1" res="-1.6935437452048063e-04" rms="4.8827266693115234e-01" purity="4.9935808777809143e-01" nType="-99"/>
        </Node>
      </Node>
    </BinaryTree>
    <BinaryTree type="DecisionTree" boostWeight="1.0000000000000000e+00" itree="415">
      <Node pos="s" depth="0" NCoef="0" IVar="4" Cut="-7.9886198043823242e-01" cType="1" res="1.1089195031672716e-03" rms="4.8760592937469482e-01" purity="5.0216645002365112e-01" nType="0">
        <Node pos="l" depth="1" NCoef="0" IVar="0" Cut="8.9175729751586914e+00" cType="1" res="1.1363171041011810e-02" rms="4.8357611894607544e-01" purity="4.7673878073692322e-01" nType="0">
          <Node pos="l" depth="2" NCoef="0" IVar="-1" Cut="0.0000000000000000e+00" cType="1" res="4.5284423977136612e-03" rms="4.9093520641326904e-01" purity="5.0342291593551636e-01" nType="-99"/>
          <Node pos="r" depth="2" NCoef="0" IVar="-1" Cut="0.0000000000000000e+00" cType="1" res="-6.4646382816135883e-04" rms="4.7909006476402283e-01" purity="4.6289163827896118e-01" nType="-99"/>
        </Node>
        <Node pos="r" depth="1" NCoef="0" IVar="3" Cut="-8.9654481410980225e-01" cType="1" res="-6.6551996860653162e-04" rms="4.8827803134918213e-01" purity="5.0656658411026001e-01" nType="0">
          <Node pos="l" depth="2" NCoef="0" IVar="-1" Cut="0.0000000000000000e+00" cType="1" res="-2.5040931068360806e-03" rms="4.6899053454399109e-01" purity="3.5421487689018250e-01" nType="-99"/>
          <Node pos="r" depth="2" NCoef="0" IVar="-1" Cut="0.0000000000000000e+00" cType="1" res="2.8380969888530672e-04" rms="4.9165999889373779e-01" purity="5.3425139188766479e-01" nType="-99"/>
        </Node>
      </Node>
    </BinaryTree>
    <BinaryTree type="DecisionTree" boostWeight="1.0000000000000000e+00" itree="416">
      <Node pos="s" depth="0" NCoef="0" IVar="0" Cut="8.2430858612060547e+00" cType="1" res="2.8269425965845585e-03" rms="4.8875826597213745e-01" purity="5.0368064641952515e-01" nType="0">
        <Node pos="l" depth="1" NCoef="0" IVar="-1" Cut="0.0000000000000000e+00" cType="1" res="-2.0480172242969275e-03" rms="4.9686074256896973e-01" purity="4.7174546122550964e-01" nType="-99"/>
        <Node pos="r" depth="1" NCoef="0" IVar="2" Cut="2.0000000000000000e+00" cType="1" res="3.6592073738574982e-03" rms="4.0325379371643066e-01" purity="5.0593400001525879e-01" nType="0">
          <Node pos="l" depth="2" NCoef="0" IVar="-1" Cut="0.0000000000000000e+00" cType="1" res="1.5802945708855987e-03" rms="4.8585790395736694e-01" purity="5.0970011949539185e-01" nType="-99"/>
          <Node pos="r" depth="2" NCoef="0" IVar="-1" Cut="0.0000000000000000e+00" cType="1" res="-4.2375994962640107e-04" rms="4.9105402827262878e-01" purity="5.0094300508499146e-01" nType="-99"/>
        </Node>
      </Node>
    </BinaryTree>
    <BinaryTree type="DecisionTree" boostWeight="1.0000000000000000e+00" itree="417">
      <Node pos="s" depth="0" NCoef="0" IVar="5" Cut="4.4748786836862564e-02" cType="1" res="-5.7580801658332348e-03" rms="4.8848760128021240e-01" purity="4.9494239687919617e-01" nType="0">
        <Node pos="l" depth="1" NCoef="0" IVar="5" Cut="-7.3772972822189331e-01" cType="1" res="-8.8648749515414238e-03" rms="4.8870283365249634e-01" purity="4.9056109786033630e-01" nType="0">
          <Node pos="l" depth="2" NCoef="0" IVar="-1" Cut="0.0000000000000000e+00" cType="1" res="-4.3177790939807892e-03" rms="4.8381406068801880e-01" purity="4.7237607836723328e-01" nType="-99"/>
          <Node pos="r" depth="2" NCoef="0" IVar="-1" Cut="0.0000000000000000e+00" cType="1" res="-1.0360328014940023e-03" rms="4.8931387066841125e-01" purity="4.9301585555076599e-01" nType="-99"/>
        </Node>
        <Node pos="r" depth="1" NCoef="0" IVar="5" Cut="8.3699047565460205e-01" cType="1" res="1.5420850366353989e-02" rms="4.8648953437805176e-01" purity="5.2480971813201904e-01" nType="0">
          <Node pos="l" depth="2" NCoef="0" IVar="-1" Cut="0.0000000000000000e+00" cType="1" res="1.6226575244218111e-03" rms="4.8616904020309448e-01" purity="5.1815271377563477e-01" nType="-99"/>
          <Node pos="r" depth="2" NCoef="0" IVar="-1" Cut="0.0000000000000000e+00" cType="1" res="6.1842547729611397e-03" rms="4.8720464110374451e-01" purity="5.5156230926513672e-01" nType="-99"/>
        </Node>
      </Node>
    </BinaryTree>
    <BinaryTree type="DecisionTree" boostWeight="1.0000000000000000e+00" itree="418">
      <Node pos="s" depth="0" NCoef="0" IVar="0" Cut="9.0013980865478516e+00" cType="1" res="4.5109656639397144e-04" rms="4.8792260885238647e-01" purity="5.0112640857696533e-01" nType="0">
        <Node pos="l" depth="1" NCoef="0" IVar="3" Cut="7.9890018701553345e-01" cType="1" res="-5.4033868946135044e-03" rms="4.9360194802284241e-01" purity="4.9756255745887756e-01" nType="0">
          <Node pos="l" depth="2" NCoef="0" IVar="-1" Cut="0.0000000000000000e+00" cType="1" res="-1.5069126384332776e-03" rms="4.9500873684883118e-01" purity="4.5064488053321838e-01" nType="-99"/>
          <Node pos="r" depth="2" NCoef="0" IVar="-1" Cut="0.0000000000000000e+00" cType="1" res="8.7499700020998716e-04" rms="4.9092856049537659e-01" purity="5.7825452089309692e-01" nType="-99"/>
        </Node>
        <Node pos="r" depth="1" NCoef="0" IVar="0" Cut="9.2290563583374023e+00" cType="1" res="5.3274245001375675e-03" rms="4.8308706283569336e-01" purity="5.0409477949142456e-01" nType="0">
          <Node pos="l" depth="2" NCoef="0" IVar="-1" Cut="0.0000000000000000e+00" cType="1" res="2.5757011026144028e-03" rms="4.8919060826301575e-01" purity="5.1593804359436035e-01" nType="-99"/>
          <Node pos="r" depth="2" NCoef="0" IVar="-1" Cut="0.0000000000000000e+00" cType="1" res="1.3299431884661317e-04" rms="4.7977387905120850e-01" purity="4.9785968661308289e-01" nType="-99"/>
        </Node>
      </Node>
    </BinaryTree>
    <BinaryTree type="DecisionTree" boostWeight="1.0000000000000000e+00" itree="419">
      <Node pos="s" depth="0" NCoef="0" IVar="1" Cut="4.0000000000000000e+00" cType="1" res="4.6090729301795363e-04" rms="2.3257628083229065e-01" purity="4.9752509593963623e-01" nType="0">
        <Node pos="l" depth="1" NCoef="0" IVar="3" Cut="8.0295848846435547e-01" cType="1" res="-1.2478874996304512e-03" rms="4.8770067095756531e-01" purity="4.9840062856674194e-01" nType="0">
          <Node pos="l" depth="2" NCoef="0" IVar="-1" Cut="0.0000000000000000e+00" cType="1" res="-8.5938652046024799e-04" rms="4.9020892381668091e-01" purity="4.3959170579910278e-01" nType="-99"/>
          <Node pos="r" depth="2" NCoef="0" IVar="-1" Cut="0.0000000000000000e+00" cType="1" res="1.0486927349120378e-03" rms="4.8323899507522583e-01" purity="6.0011970996856689e-01" nType="-99"/>
        </Node>
        <Node pos="r" depth="1" NCoef="0" IVar="5" Cut="-6.9112634658813477e-01" cType="1" res="-1.6093904152512550e-02" rms="4.8741409182548523e-01" purity="4.9216026067733765e-01" nType="0">
          <Node pos="l" depth="2" NCoef="0" IVar="-1" Cut="0.0000000000000000e+00" cType="1" res="3.0521332519128919e-04" rms="4.8711356520652771e-01" purity="5.0556021928787231e-01" nType="-99"/>
          <Node pos="r" depth="2" NCoef="0" IVar="-1" Cut="0.0000000000000000e+00" cType="1" res="-3.7720857653766870e-03" rms="4.8733678460121155e-01" purity="4.8623317480087280e-01" nType="-99"/>
        </Node>
      </Node>
    </BinaryTree>
    <BinaryTree type="DecisionTree" boostWeight="1.0000000000000000e+00" itree="420">
      <Node pos="s" depth="0" NCoef="0" IVar="1" Cut="2.0000000000000000e+00" cType="1" res="2.4516710545867682e-03" rms="3.7145432829856873e-01" purity="5.0232213735580444e-01" nType="0">
        <Node pos="l" depth="1" NCoef="0" IVar="4" Cut="5.0641585141420364e-02" cType="1" res="-1.1735605075955391e-02" rms="4.8941922187805176e-01" purity="4.9190139770507812e-01" nType="0">
          <Node pos="l" depth="2" NCoef="0" IVar="-1" Cut="0.0000000000000000e+00" cType="1" res="-2.4469876661896706e-03" rms="4.8995509743690491e-01" purity="4.8424050211906433e-01" nType="-99"/>
          <Node pos="r" depth="2" NCoef="0" IVar="-1" Cut="0.0000000000000000e+00" cType="1" res="1.7796544125303626e-03" rms="4.8598238825798035e-01" purity="5.3194731473922729e-01" nType="-99"/>
        </Node>
        <Node pos="r" depth="1" NCoef="0" IVar="0" Cut="8.9175729751586914e+00" cType="1" res="6.8715340457856655e-03" rms="4.8875355720520020e-01" purity="5.0655949115753174e-01" nType="0">
          <Node pos="l" depth="2" NCoef="0" IVar="-1" Cut="0.0000000000000000e+00" cType="1" res="1.7876474885270000e-03" rms="4.9412035942077637e-01" purity="5.1585537195205688e-01" nType="-99"/>
          <Node pos="r" depth="2" NCoef="0" IVar="-1" Cut="0.0000000000000000e+00" cType="1" res="3.3324433024972677e-04" rms="4.8533722758293152e-01" purity="5.0082266330718994e-01" nType="-99"/>
        </Node>
      </Node>
    </BinaryTree>
    <BinaryTree type="DecisionTree" boostWeight="1.0000000000000000e+00" itree="421">
      <Node pos="s" depth="0" NCoef="0" IVar="1" Cut="4.0000000000000000e+00" cType="1" res="2.7768328436650336e-04" rms="1.6463702917098999e-01" purity="4.9607864022254944e-01" nType="0">
        <Node pos="l" depth="1" NCoef="0" IVar="0" Cut="9.1743068695068359e+00" cType="1" res="-5.8366744779050350e-03" rms="4.8844057321548462e-01" purity="4.9235719442367554e-01" nType="0">
          <Node pos="l" depth="2" NCoef="0" IVar="-1" Cut="0.0000000000000000e+00" cType="1" res="-1.2611774727702141e-03" rms="4.9274456501007080e-01" purity="4.9007856845855713e-01" nType="-99"/>
          <Node pos="r" depth="2" NCoef="0" IVar="-1" Cut="0.0000000000000000e+00" cType="1" res="-7.9616955190431327e-05" rms="4.8192411661148071e-01" purity="4.9574175477027893e-01" nType="-99"/>
        </Node>
        <Node pos="r" depth="1" NCoef="0" IVar="4" Cut="7.9472798109054565e-01" cType="1" res="1.3162464834749699e-02" rms="4.8948866128921509e-01" purity="5.1930069923400879e-01" nType="0">
          <Node pos="l" depth="2" NCoef="0" IVar="-1" Cut="0.0000000000000000e+00" cType="1" res="3.1497345771640539e-03" rms="4.9071252346038818e-01" purity="5.1195931434631348e-01" nType="-99"/>
          <Node pos="r" depth="2" NCoef="0" IVar="-1" Cut="0.0000000000000000e+00" cType="1" res="-7.4417225550860167e-04" rms="4.8591110110282898e-01" purity="5.3808432817459106e-01" nType="-99"/>
        </Node>
      </Node>
    </BinaryTree>
    <BinaryTree type="DecisionTree" boostWeight="1.0000000000000000e+00" itree="422">
      <Node pos="s" depth="0" NCoef="0" IVar="0" Cut="8.7359209060668945e+00" cType="1" res="-2.5381774175912142e-03" rms="4.8867109417915344e-01" purity="4.9725559353828430e-01" nType="0">
        <Node pos="l" depth="1" NCoef="0" IVar="4" Cut="-7.7961820363998413e-01" cType="1" res="5.5659250356256962e-03" rms="4.9401625990867615e-01" purity="5.0691205263137817e-01" nType="0">
          <Node pos="l" depth="2" NCoef="0" IVar="-1" Cut="0.0000000000000000e+00" cType="1" res="-2.4378029629588127e-03" rms="4.8818770051002502e-01" purity="4.4335353374481201e-01" nType="-99"/>
          <Node pos="r" depth="2" NCoef="0" IVar="-1" Cut="0.0000000000000000e+00" cType="1" res="1.2255309848114848e-03" rms="4.9493834376335144e-01" purity="5.1913583278656006e-01" nType="-99"/>
        </Node>
        <Node pos="r" depth="1" NCoef="0" IVar="0" Cut="8.9887676239013672e+00" cType="1" res="-5.4300818592309952e-03" rms="4.8671683669090271e-01" purity="4.9380975961685181e-01" nType="0">
          <Node pos="l" depth="2" NCoef="0" IVar="-1" Cut="0.0000000000000000e+00" cType="1" res="-2.6960745453834534e-03" rms="4.9176722764968872e-01" purity="4.8050823807716370e-01" nType="-99"/>
          <Node pos="r" depth="2" NCoef="0" IVar="-1" Cut="0.0000000000000000e+00" cType="1" res="-1.9554603204596788e-04" rms="4.8494133353233337e-01" purity="4.9823451042175293e-01" nType="-99"/>
        </Node>
      </Node>
    </BinaryTree>
    <BinaryTree type="DecisionTree" boostWeight="1.0000000000000000e+00" itree="423">
      <Node pos="s" depth="0" NCoef="0" IVar="4" Cut="4.7507602721452713e-02" cType="1" res="8.4589875768870115e-04" rms="4.8904204368591309e-01" purity="4.9973231554031372e-01" nType="0">
        <Node pos="l" depth="1" NCoef="0" IVar="3" Cut="-8.0184549093246460e-01" cType="1" res="-2.3062832187861204e-03" rms="4.8996391892433167e-01" purity="4.8803049325942993e-01" nType="0">
          <Node pos="l" depth="2" NCoef="0" IVar="-1" Cut="0.0000000000000000e+00" cType="1" res="1.2906857300549746e-03" rms="4.8166665434837341e-01" purity="3.9854171872138977e-01" nType="-99"/>
          <Node pos="r" depth="2" NCoef="0" IVar="-1" Cut="0.0000000000000000e+00" cType="1" res="-1.1172159574925900e-03" rms="4.9386551976203918e-01" purity="5.3146779537200928e-01" nType="-99"/>
        </Node>
        <Node pos="r" depth="1" NCoef="0" IVar="3" Cut="8.9701491594314575e-01" cType="1" res="8.8153956457972527e-03" rms="4.8661243915557861e-01" purity="5.2931749820709229e-01" nType="0">
          <Node pos="l" depth="2" NCoef="0" IVar="-1" Cut="0.0000000000000000e+00" cType="1" res="1.8421880668029189e-03" rms="4.9234825372695923e-01" purity="4.9196121096611023e-01" nType="-99"/>
          <Node pos="r" depth="2" NCoef="0" IVar="-1" Cut="0.0000000000000000e+00" cType="1" res="-7.2633993113413453e-04" rms="4.6177491545677185e-01" purity="6.8475335836410522e-01" nType="-99"/>
        </Node>
      </Node>
    </BinaryTree>
    <BinaryTree type="DecisionTree" boostWeight="1.0000000000000000e+00" itree="424">
      <Node pos="s" depth="0" NCoef="0" IVar="5" Cut="-6.9119721651077271e-01" cType="1" res="4.1102725663222373e-04" rms="4.8764890432357788e-01" purity="4.9987500905990601e-01" nType="0">
        <Node pos="l" depth="1" NCoef="0" IVar="5" Cut="-7.4379748106002808e-01" cType="1" res="1.3426960445940495e-02" rms="4.8593422770500183e-01" purity="5.1173573732376099e-01" nType="0">
          <Node pos="l" depth="2" NCoef="0" IVar="-1" Cut="0.0000000000000000e+00" cType="1" res="1.1439311783760786e-03" rms="4.8610311746597290e-01" purity="5.0523084402084351e-01" nType="-99"/>
          <Node pos="r" depth="2" NCoef="0" IVar="-1" Cut="0.0000000000000000e+00" cType="1" res="6.0147466138005257e-03" rms="4.8458173871040344e-01" purity="5.3541886806488037e-01" nType="-99"/>
        </Node>
        <Node pos="r" depth="1" NCoef="0" IVar="0" Cut="8.9548873901367188e+00" cType="1" res="-1.4085024595260620e-03" rms="4.8786047101020813e-01" purity="4.9821695685386658e-01" nType="0">
          <Node pos="l" depth="2" NCoef="0" IVar="-1" Cut="0.0000000000000000e+00" cType="1" res="5.3849676623940468e-04" rms="4.9308028817176819e-01" purity="5.0450795888900757e-01" nType="-99"/>
          <Node pos="r" depth="2" NCoef="0" IVar="-1" Cut="0.0000000000000000e+00" cType="1" res="-1.1880522361025214e-03" rms="4.8401716351509094e-01" purity="4.9368241429328918e-01" nType="-99"/>
        </Node>
      </Node>
    </BinaryTree>
    <BinaryTree type="DecisionTree" boostWeight="1.0000000000000000e+00" itree="425">
      <Node pos="s" depth="0" NCoef="0" IVar="0" Cut="8.2430858612060547e+00" cType="1" res="2.7112748939543962e-03" rms="4.8889106512069702e-01" purity="5.0317984819412231e-01" nType="0">
        <Node pos="l" depth="1" NCoef="0" IVar="-1" Cut="0.0000000000000000e+00" cType="1" res="-1.9661288242787123e-03" rms="4.9864366650581360e-01" purity="4.7500091791152954e-01" nType="-99"/>
        <Node pos="r" depth="1" NCoef="0" IVar="2" Cut="3.0000000000000000e+00" cType="1" res="2.0548722241073847e-03" rms="4.0238445997238159e-01" purity="5.0515908002853394e-01" nType="0">
          <Node pos="l" depth="2" NCoef="0" IVar="-1" Cut="0.0000000000000000e+00" cType="1" res="3.3241833443753421e-04" rms="4.8782366514205933e-01" purity="5.0209969282150269e-01" nType="-99"/>
          <Node pos="r" depth="2" NCoef="0" IVar="-1" Cut="0.0000000000000000e+00" cType="1" res="4.3216845951974392e-03" rms="4.9049603939056396e-01" purity="5.2994036674499512e-01" nType="-99"/>
        </Node>
      </Node>
    </BinaryTree>
    <BinaryTree type="DecisionTree" boostWeight="1.0000000000000000e+00" itree="426">
      <Node pos="s" depth="0" NCoef="0" IVar="0" Cut="8.8072624206542969e+00" cType="1" res="9.1871735639870167e-04" rms="4.8792243003845215e-01" purity="5.0120848417282104e-01" nType="0">
        <Node pos="l" depth="1" NCoef="0" IVar="3" Cut="-7.0073646306991577e-01" cType="1" res="1.0764532722532749e-02" rms="4.9376055598258972e-01" purity="5.1421916484832764e-01" nType="0">
          <Node pos="l" depth="2" NCoef="0" IVar="-1" Cut="0.0000000000000000e+00" cType="1" res="1.6070762649178505e-04" rms="4.9545934796333313e-01" purity="4.5572575926780701e-01" nType="-99"/>
          <Node pos="r" depth="2" NCoef="0" IVar="-1" Cut="0.0000000000000000e+00" cType="1" res="2.2521542850881815e-03" rms="4.9195426702499390e-01" purity="5.7048064470291138e-01" nType="-99"/>
        </Node>
        <Node pos="r" depth="1" NCoef="0" IVar="3" Cut="-8.9639681577682495e-01" cType="1" res="-3.3922416623681784e-03" rms="4.8528125882148743e-01" purity="4.9551177024841309e-01" nType="0">
          <Node pos="l" depth="2" NCoef="0" IVar="-1" Cut="0.0000000000000000e+00" cType="1" res="-2.7571253012865782e-03" rms="4.6222633123397827e-01" purity="3.3137735724449158e-01" nType="-99"/>
          <Node pos="r" depth="2" NCoef="0" IVar="-1" Cut="0.0000000000000000e+00" cType="1" res="-2.1650327835232019e-04" rms="4.9057906866073608e-01" purity="5.3455317020416260e-01" nType="-99"/>
        </Node>
      </Node>
    </BinaryTree>
    <BinaryTree type="DecisionTree" boostWeight="1.0000000000000000e+00" itree="427">
      <Node pos="s" depth="0" NCoef="0" IVar="3" Cut="-8.9534908533096313e-01" cType="1" res="-1.3000009348616004e-03" rms="4.8763680458068848e-01" purity="4.9845761060714722e-01" nType="0">
        <Node pos="l" depth="1" NCoef="0" IVar="3" Cut="-9.5374917984008789e-01" cType="1" res="-1.3615824282169342e-02" rms="4.6378606557846069e-01" purity="3.3908462524414062e-01" nType="0">
          <Node pos="l" depth="2" NCoef="0" IVar="-1" Cut="0.0000000000000000e+00" cType="1" res="-1.1287002824246883e-02" rms="4.0592131018638611e-01" purity="2.1971109509468079e-01" nType="-99"/>
          <Node pos="r" depth="2" NCoef="0" IVar="-1" Cut="0.0000000000000000e+00" cType="1" res="-3.9119523717090487e-04" rms="4.8005437850952148e-01" purity="3.7675800919532776e-01" nType="-99"/>
        </Node>
        <Node pos="r" depth="1" NCoef="0" IVar="5" Cut="7.8059160709381104e-01" cType="1" res="1.2898554559797049e-03" rms="4.9246615171432495e-01" purity="5.3197163343429565e-01" nType="0">
          <Node pos="l" depth="2" NCoef="0" IVar="-1" Cut="0.0000000000000000e+00" cType="1" res="4.0814658859744668e-04" rms="4.9274834990501404e-01" purity="5.3044784069061279e-01" nType="-99"/>
          <Node pos="r" depth="2" NCoef="0" IVar="-1" Cut="0.0000000000000000e+00" cType="1" res="-4.2300838977098465e-03" rms="4.8586067557334900e-01" purity="5.6303077936172485e-01" nType="-99"/>
        </Node>
      </Node>
    </BinaryTree>
    <BinaryTree type="DecisionTree" boostWeight="1.0000000000000000e+00" itree="428">
      <Node pos="s" depth="0" NCoef="0" IVar="0" Cut="9.9815483093261719e+00" cType="1" res="-2.3822237271815538e-03" rms="4.8872211575508118e-01" purity="4.9782961606979370e-01" nType="0">
        <Node pos="l" depth="1" NCoef="0" IVar="5" Cut="7.9097390174865723e-01" cType="1" res="-3.0167335644364357e-03" rms="4.8908033967018127e-01" purity="4.9781450629234314e-01" nType="0">
          <Node pos="l" depth="2" NCoef="0" IVar="-1" Cut="0.0000000000000000e+00" cType="1" res="-3.3378822263330221e-04" rms="4.8923051357269287e-01" purity="4.9767461419105530e-01" nType="-99"/>
          <Node pos="r" depth="2" NCoef="0" IVar="-1" Cut="0.0000000000000000e+00" cType="1" res="-2.9151905328035355e-03" rms="4.8626756668090820e-01" purity="5.0019824504852295e-01" nType="-99"/>
        </Node>
        <Node pos="r" depth="1" NCoef="0" IVar="-1" Cut="0.0000000000000000e+00" cType="1" res="7.5349621474742889e-03" rms="4.7441050410270691e-01" purity="4.9839770793914795e-01" nType="-99"/>
      </Node>
    </BinaryTree>
    <BinaryTree type="DecisionTree" boostWeight="1.0000000000000000e+00" itree="429">
      <Node pos="s" depth="0" NCoef="0" IVar="3" Cut="-7.0731437206268311e-01" cType="1" res="5.6358464062213898e-03" rms="4.8875409364700317e-01" purity="5.0583720207214355e-01" nType="0">
        <Node pos="l" depth="1" NCoef="0" IVar="0" Cut="8.3452653884887695e+00" cType="1" res="1.0452914051711559e-02" rms="4.8886460065841675e-01" purity="4.3632262945175171e-01" nType="0">
          <Node pos="l" depth="2" NCoef="0" IVar="-1" Cut="0.0000000000000000e+00" cType="1" res="4.6856235712766647e-03" rms="5.0109893083572388e-01" purity="5.1363879442214966e-01" nType="-99"/>
          <Node pos="r" depth="2" NCoef="0" IVar="-1" Cut="0.0000000000000000e+00" cType="1" res="1.1254578130319715e-03" rms="4.8740482330322266e-01" purity="4.2818289995193481e-01" nType="-99"/>
        </Node>
        <Node pos="r" depth="1" NCoef="0" IVar="1" Cut="3.0000000000000000e+00" cType="1" res="-1.1425688862800598e-03" rms="1.2087224423885345e-01" purity="5.7337790727615356e-01" nType="0">
          <Node pos="l" depth="2" NCoef="0" IVar="-1" Cut="0.0000000000000000e+00" cType="1" res="-1.0717520490288734e-03" rms="4.9076020717620850e-01" purity="5.6236284971237183e-01" nType="-99"/>
          <Node pos="r" depth="2" NCoef="0" IVar="-1" Cut="0.0000000000000000e+00" cType="1" res="2.5605857372283936e-03" rms="4.8413392901420593e-01" purity="5.9428340196609497e-01" nType="-99"/>
        </Node>
      </Node>
    </BinaryTree>
    <BinaryTree type="DecisionTree" boostWeight="1.0000000000000000e+00" itree="430">
      <Node pos="s" depth="0" NCoef="0" IVar="0" Cut="8.3125705718994141e+00" cType="1" res="-2.3165384773164988e-03" rms="4.8836442828178406e-01" purity="4.9657765030860901e-01" nType="0">
        <Node pos="l" depth="1" NCoef="0" IVar="-1" Cut="0.0000000000000000e+00" cType="1" res="-1.8150423420593143e-03" rms="4.9975422024726868e-01" purity="4.8041340708732605e-01" nType="-99"/>
        <Node pos="r" depth="1" NCoef="0" IVar="1" Cut="2.0000000000000000e+00" cType="1" res="-1.0867185192182660e-03" rms="4.7791036963462830e-01" purity="4.9809482693672180e-01" nType="0">
          <Node pos="l" depth="2" NCoef="0" IVar="-1" Cut="0.0000000000000000e+00" cType="1" res="8.8376848725602031e-04" rms="4.8763617873191833e-01" purity="5.0560986995697021e-01" nType="-99"/>
          <Node pos="r" depth="2" NCoef="0" IVar="-1" Cut="0.0000000000000000e+00" cType="1" res="-5.7970965281128883e-04" rms="4.8707664012908936e-01" purity="4.9500268697738647e-01" nType="-99"/>
        </Node>
      </Node>
    </BinaryTree>
    <BinaryTree type="DecisionTree" boostWeight="1.0000000000000000e+00" itree="431">
      <Node pos="s" depth="0" NCoef="0" IVar="2" Cut="2.0000000000000000e+00" cType="1" res="-9.0225110761821270e-04" rms="1.6258691251277924e-01" purity="5.0099277496337891e-01" nType="0">
        <Node pos="l" depth="1" NCoef="0" IVar="5" Cut="-7.8017467260360718e-01" cType="1" res="-3.1229420565068722e-03" rms="4.8671558499336243e-01" purity="4.9422892928123474e-01" nType="0">
          <Node pos="l" depth="2" NCoef="0" IVar="-1" Cut="0.0000000000000000e+00" cType="1" res="5.0314632244408131e-03" rms="4.8683217167854309e-01" purity="5.2760511636734009e-01" nType="-99"/>
          <Node pos="r" depth="2" NCoef="0" IVar="-1" Cut="0.0000000000000000e+00" cType="1" res="-8.7661226280033588e-04" rms="4.8660933971405029e-01" purity="4.9156412482261658e-01" nType="-99"/>
        </Node>
        <Node pos="r" depth="1" NCoef="0" IVar="2" Cut="3.0000000000000000e+00" cType="1" res="8.2182661572005600e-05" rms="1.0864353924989700e-01" purity="5.1001811027526855e-01" nType="0">
          <Node pos="l" depth="2" NCoef="0" IVar="-1" Cut="0.0000000000000000e+00" cType="1" res="1.8252311274409294e-03" rms="4.9017524719238281e-01" purity="5.1170462369918823e-01" nType="-99"/>
          <Node pos="r" depth="2" NCoef="0" IVar="-1" Cut="0.0000000000000000e+00" cType="1" res="-4.6049215598031878e-04" rms="4.9208340048789978e-01" purity="5.0496697425842285e-01" nType="-99"/>
        </Node>
      </Node>
    </BinaryTree>
    <BinaryTree type="DecisionTree" boostWeight="1.0000000000000000e+00" itree="432">
      <Node pos="s" depth="0" NCoef="0" IVar="1" Cut="5.0000000000000000e+00" cType="1" res="4.1468950803391635e-04" rms="3.7220615148544312e-01" purity="4.9873206019401550e-01" nType="0">
        <Node pos="l" depth="1" NCoef="0" IVar="5" Cut="-6.9003391265869141e-01" cType="1" res="-2.5003142654895782e-03" rms="4.8829621076583862e-01" purity="4.9658629298210144e-01" nType="0">
          <Node pos="l" depth="2" NCoef="0" IVar="-1" Cut="0.0000000000000000e+00" cType="1" res="-2.4465851020067930e-03" rms="4.8211172223091125e-01" purity="4.7954300045967102e-01" nType="-99"/>
          <Node pos="r" depth="2" NCoef="0" IVar="-1" Cut="0.0000000000000000e+00" cType="1" res="-1.3349943037610501e-04" rms="4.8907104134559631e-01" purity="4.9880418181419373e-01" nType="-99"/>
        </Node>
        <Node pos="r" depth="1" NCoef="0" IVar="-1" Cut="0.0000000000000000e+00" cType="1" res="3.6282790824770927e-03" rms="4.8866787552833557e-01" purity="5.4267966747283936e-01" nType="-99"/>
      </Node>
    </BinaryTree>
    <BinaryTree type="DecisionTree" boostWeight="1.0000000000000000e+00" itree="433">
      <Node pos="s" depth="0" NCoef="0" IVar="4" Cut="4.5463126152753830e-02" cType="1" res="2.0073286723345518e-03" rms="4.8844796419143677e-01" purity="5.0170820951461792e-01" nType="0">
        <Node pos="l" depth="1" NCoef="0" IVar="2" Cut="3.0000000000000000e+00" cType="1" res="3.6236533196642995e-04" rms="1.6630375385284424e-01" purity="4.9495747685432434e-01" nType="0">
          <Node pos="l" depth="2" NCoef="0" IVar="-1" Cut="0.0000000000000000e+00" cType="1" res="4.1693824459798634e-04" rms="4.8884430527687073e-01" purity="4.9191603064537048e-01" nType="-99"/>
          <Node pos="r" depth="2" NCoef="0" IVar="-1" Cut="0.0000000000000000e+00" cType="1" res="3.1739717815071344e-03" rms="4.9126419425010681e-01" purity="5.1728814840316772e-01" nType="-99"/>
        </Node>
        <Node pos="r" depth="1" NCoef="0" IVar="3" Cut="-7.9964798688888550e-01" cType="1" res="-4.1937627829611301e-03" rms="4.8658016324043274e-01" purity="5.1889407634735107e-01" nType="0">
          <Node pos="l" depth="2" NCoef="0" IVar="-1" Cut="0.0000000000000000e+00" cType="1" res="1.4914453495293856e-03" rms="4.9063503742218018e-01" purity="4.4711229205131531e-01" nType="-99"/>
          <Node pos="r" depth="2" NCoef="0" IVar="-1" Cut="0.0000000000000000e+00" cType="1" res="-2.9208133928477764e-03" rms="4.8228380084037781e-01" purity="5.8799761533737183e-01" nType="-99"/>
        </Node>
      </Node>
    </BinaryTree>
    <BinaryTree type="DecisionTree" boostWeight="1.0000000000000000e+00" itree="434">
      <Node pos="s" depth="0" NCoef="0" IVar="2" Cut="2.0000000000000000e+00" cType="1" res="-5.1927688764408231e-04" rms="9.0149879455566406e-02" purity="5.0236392021179199e-01" nType="0">
        <Node pos="l" depth="1" NCoef="0" IVar="0" Cut="8.5774354934692383e+00" cType="1" res="7.8980149701237679e-03" rms="4.8724290728569031e-01" purity="5.0692981481552124e-01" nType="0">
          <Node pos="l" depth="2" NCoef="0" IVar="-1" Cut="0.0000000000000000e+00" cType="1" res="2.1643543150275946e-03" rms="4.9550142884254456e-01" purity="5.3249883651733398e-01" nType="-99"/>
          <Node pos="r" depth="2" NCoef="0" IVar="-1" Cut="0.0000000000000000e+00" cType="1" res="8.5788476280868053e-04" rms="4.8535615205764771e-01" purity="5.0130575895309448e-01" nType="-99"/>
        </Node>
        <Node pos="r" depth="1" NCoef="0" IVar="0" Cut="8.4956216812133789e+00" cType="1" res="-6.3918246887624264e-03" rms="4.9020278453826904e-01" purity="4.9623098969459534e-01" nType="0">
          <Node pos="l" depth="2" NCoef="0" IVar="-1" Cut="0.0000000000000000e+00" cType="1" res="8.3568308036774397e-04" rms="4.9670082330703735e-01" purity="5.0965613126754761e-01" nType="-99"/>
          <Node pos="r" depth="2" NCoef="0" IVar="-1" Cut="0.0000000000000000e+00" cType="1" res="-1.6709049232304096e-03" rms="4.8899269104003906e-01" purity="4.9384039640426636e-01" nType="-99"/>
        </Node>
      </Node>
    </BinaryTree>
    <BinaryTree type="DecisionTree" boostWeight="1.0000000000000000e+00" itree="435">
      <Node pos="s" depth="0" NCoef="0" IVar="0" Cut="8.7359209060668945e+00" cType="1" res="5.5872177472338080e-04" rms="4.8834431171417236e-01" purity="5.0167828798294067e-01" nType="0">
        <Node pos="l" depth="1" NCoef="0" IVar="0" Cut="8.4575996398925781e+00" cType="1" res="1.2325941585004330e-02" rms="4.9471348524093628e-01" purity="5.1575934886932373e-01" nType="0">
          <Node pos="l" depth="2" NCoef="0" IVar="-1" Cut="0.0000000000000000e+00" cType="1" res="-2.4207748356275260e-04" rms="4.9596896767616272e-01" purity="5.0471508502960205e-01" nType="-99"/>
          <Node pos="r" depth="2" NCoef="0" IVar="-1" Cut="0.0000000000000000e+00" cType="1" res="3.2708991784602404e-03" rms="4.9301153421401978e-01" purity="5.2683728933334351e-01" nType="-99"/>
        </Node>
        <Node pos="r" depth="1" NCoef="0" IVar="1" Cut="3.0000000000000000e+00" cType="1" res="-3.3418107777833939e-03" rms="4.8224106431007385e-01" purity="4.9680384993553162e-01" nType="0">
          <Node pos="l" depth="2" NCoef="0" IVar="-1" Cut="0.0000000000000000e+00" cType="1" res="9.3164315330795944e-05" rms="4.8602893948554993e-01" purity="4.9985340237617493e-01" nType="-99"/>
          <Node pos="r" depth="2" NCoef="0" IVar="-1" Cut="0.0000000000000000e+00" cType="1" res="-2.0991435740143061e-03" rms="4.8601233959197998e-01" purity="4.9115291237831116e-01" nType="-99"/>
        </Node>
      </Node>
    </BinaryTree>
    <BinaryTree type="DecisionTree" boostWeight="1.0000000000000000e+00" itree="436">
      <Node pos="s" depth="0" NCoef="0" IVar="4" Cut="7.9434394836425781e-01" cType="1" res="-3.1284058932214975e-03" rms="4.8823156952857971e-01" purity="4.9850904941558838e-01" nType="0">
        <Node pos="l" depth="1" NCoef="0" IVar="1" Cut="2.0000000000000000e+00" cType="1" res="-1.1351616121828556e-03" rms="1.8659602105617523e-01" purity="4.8964807391166687e-01" nType="0">
          <Node pos="l" depth="2" NCoef="0" IVar="-1" Cut="0.0000000000000000e+00" cType="1" res="6.5068196272477508e-04" rms="4.9014669656753540e-01" purity="5.0320333242416382e-01" nType="-99"/>
          <Node pos="r" depth="2" NCoef="0" IVar="-1" Cut="0.0000000000000000e+00" cType="1" res="-1.7088649328798056e-03" rms="4.8880818486213684e-01" purity="4.8329240083694458e-01" nType="-99"/>
        </Node>
        <Node pos="r" depth="1" NCoef="0" IVar="4" Cut="8.2111006975173950e-01" cType="1" res="1.2037743814289570e-02" rms="4.8234394192695618e-01" purity="5.4529392719268799e-01" nType="0">
          <Node pos="l" depth="2" NCoef="0" IVar="-1" Cut="0.0000000000000000e+00" cType="1" res="-2.3534179199486971e-03" rms="4.8581025004386902e-01" purity="5.0663727521896362e-01" nType="-99"/>
          <Node pos="r" depth="2" NCoef="0" IVar="-1" Cut="0.0000000000000000e+00" cType="1" res="3.6591475363820791e-03" rms="4.8077034950256348e-01" purity="5.5873841047286987e-01" nType="-99"/>
        </Node>
      </Node>
    </BinaryTree>
    <BinaryTree type="DecisionTree" boostWeight="1.0000000000000000e+00" itree="437">
      <Node pos="s" depth="0" NCoef="0" IVar="3" Cut="-7.0772588253021240e-01" cType="1" res="-3.8863762747496367e-03" rms="4.8830279707908630e-01" purity="4.9711698293685913e-01" nType="0">
        <Node pos="l" depth="1" NCoef="0" IVar="0" Cut="9.1747150421142578e+00" cType="1" res="-6.5432935953140259e-03" rms="4.8801949620246887e-01" purity="4.2092618346214294e-01" nType="0">
          <Node pos="l" depth="2" NCoef="0" IVar="-1" Cut="0.0000000000000000e+00" cType="1" res="-1.7540415283292532e-03" rms="4.9144941568374634e-01" purity="4.2966961860656738e-01" nType="-99"/>
          <Node pos="r" depth="2" NCoef="0" IVar="-1" Cut="0.0000000000000000e+00" cType="1" res="9.2023093020543456e-04" rms="4.8266464471817017e-01" purity="4.0787827968597412e-01" nType="-99"/>
        </Node>
        <Node pos="r" depth="1" NCoef="0" IVar="2" Cut="3.0000000000000000e+00" cType="1" res="9.6792454132810235e-04" rms="1.3067413866519928e-01" purity="5.7070595026016235e-01" nType="0">
          <Node pos="l" depth="2" NCoef="0" IVar="-1" Cut="0.0000000000000000e+00" cType="1" res="7.0640759076923132e-05" rms="4.8825123906135559e-01" purity="5.7322120666503906e-01" nType="-99"/>
          <Node pos="r" depth="2" NCoef="0" IVar="-1" Cut="0.0000000000000000e+00" cType="1" res="-2.8336157556623220e-03" rms="4.9080932140350342e-01" purity="5.5065625905990601e-01" nType="-99"/>
        </Node>
      </Node>
    </BinaryTree>
    <BinaryTree type="DecisionTree" boostWeight="1.0000000000000000e+00" itree="438">
      <Node pos="s" depth="0" NCoef="0" IVar="0" Cut="9.8127355575561523e+00" cType="1" res="1.0050927521660924e-03" rms="4.8829984664916992e-01" purity="5.0086015462875366e-01" nType="0">
        <Node pos="l" depth="1" NCoef="0" IVar="2" Cut="3.0000000000000000e+00" cType="1" res="7.7363429227261804e-06" rms="3.0193187296390533e-02" purity="5.0262218713760376e-01" nType="0">
          <Node pos="l" depth="2" NCoef="0" IVar="-1" Cut="0.0000000000000000e+00" cType="1" res="5.8333150809630752e-04" rms="4.8859775066375732e-01" purity="5.0368148088455200e-01" nType="-99"/>
          <Node pos="r" depth="2" NCoef="0" IVar="-1" Cut="0.0000000000000000e+00" cType="1" res="-2.0280508324503899e-03" rms="4.9326604604721069e-01" purity="4.9415376782417297e-01" nType="-99"/>
        </Node>
        <Node pos="r" depth="1" NCoef="0" IVar="3" Cut="-7.0763766765594482e-01" cType="1" res="-1.8847286701202393e-02" rms="4.7235307097434998e-01" purity="4.6900603175163269e-01" nType="0">
          <Node pos="l" depth="2" NCoef="0" IVar="-1" Cut="0.0000000000000000e+00" cType="1" res="-7.8465808182954788e-03" rms="4.6367290616035461e-01" purity="3.4975880384445190e-01" nType="-99"/>
          <Node pos="r" depth="2" NCoef="0" IVar="-1" Cut="0.0000000000000000e+00" cType="1" res="-4.9262735992670059e-03" rms="4.8058155179023743e-01" purity="5.8461099863052368e-01" nType="-99"/>
        </Node>
      </Node>
    </BinaryTree>
    <BinaryTree type="DecisionTree" boostWeight="1.0000000000000000e+00" itree="439">
      <Node pos="s" depth="0" NCoef="0" IVar="0" Cut="8.1335945129394531e+00" cType="1" res="1.1924632126465440e-03" rms="4.8860651254653931e-01" purity="5.0144863128662109e-01" nType="0">
        <Node pos="l" depth="1" NCoef="0" IVar="-1" Cut="0.0000000000000000e+00" cType="1" res="3.6360458470880985e-03" rms="5.0315916538238525e-01" purity="5.2880954742431641e-01" nType="-99"/>
        <Node pos="r" depth="1" NCoef="0" IVar="3" Cut="-8.0175000429153442e-01" cType="1" res="-5.1253737183287740e-04" rms="4.8784291744232178e-01" purity="5.0015753507614136e-01" nType="0">
          <Node pos="l" depth="2" NCoef="0" IVar="-1" Cut="0.0000000000000000e+00" cType="1" res="-9.4395910855382681e-04" rms="4.8419147729873657e-01" purity="4.0031349658966064e-01" nType="-99"/>
          <Node pos="r" depth="2" NCoef="0" IVar="-1" Cut="0.0000000000000000e+00" cType="1" res="3.8357035373337567e-04" rms="4.8992824554443359e-01" purity="5.5815494060516357e-01" nType="-99"/>
        </Node>
      </Node>
    </BinaryTree>
    <BinaryTree type="DecisionTree" boostWeight="1.0000000000000000e+00" itree="440">
      <Node pos="s" depth="0" NCoef="0" IVar="0" Cut="8.8033571243286133e+00" cType="1" res="1.2782320845872164e-04" rms="4.8852381110191345e-01" purity="5.0094836950302124e-01" nType="0">
        <Node pos="l" depth="1" NCoef="0" IVar="4" Cut="4.7308191657066345e-02" cType="1" res="8.2639651373028755e-03" rms="4.9584206938743591e-01" purity="5.1226335763931274e-01" nType="0">
          <Node pos="l" depth="2" NCoef="0" IVar="-1" Cut="0.0000000000000000e+00" cType="1" res="1.7669972730800509e-03" rms="4.9616321921348572e-01" purity="5.1123207807540894e-01" nType="-99"/>
          <Node pos="r" depth="2" NCoef="0" IVar="-1" Cut="0.0000000000000000e+00" cType="1" res="-1.3249027542769909e-03" rms="4.9444070458412170e-01" purity="5.1504236459732056e-01" nType="-99"/>
        </Node>
        <Node pos="r" depth="1" NCoef="0" IVar="0" Cut="9.1636247634887695e+00" cType="1" res="-3.3940477296710014e-03" rms="4.8527944087982178e-01" purity="4.9605041742324829e-01" nType="0">
          <Node pos="l" depth="2" NCoef="0" IVar="-1" Cut="0.0000000000000000e+00" cType="1" res="-1.4247146900743246e-03" rms="4.9079647660255432e-01" purity="4.9108156561851501e-01" nType="-99"/>
          <Node pos="r" depth="2" NCoef="0" IVar="-1" Cut="0.0000000000000000e+00" cType="1" res="1.1735692532965913e-04" rms="4.8137959837913513e-01" purity="4.9949467182159424e-01" nType="-99"/>
        </Node>
      </Node>
    </BinaryTree>
    <BinaryTree type="DecisionTree" boostWeight="1.0000000000000000e+00" itree="441">
      <Node pos="s" depth="0" NCoef="0" IVar="1" Cut="3.0000000000000000e+00" cType="1" res="1.6603399999439716e-03" rms="3.5876691341400146e-01" purity="5.0216037034988403e-01" nType="0">
        <Node pos="l" depth="1" NCoef="0" IVar="2" Cut="2.0000000000000000e+00" cType="1" res="-4.8032842460088432e-04" rms="1.7398552596569061e-01" purity="4.9733123183250427e-01" nType="0">
          <Node pos="l" depth="2" NCoef="0" IVar="-1" Cut="0.0000000000000000e+00" cType="1" res="-8.8956457329913974e-04" rms="4.8697763681411743e-01" purity="4.9045619368553162e-01" nType="-99"/>
          <Node pos="r" depth="2" NCoef="0" IVar="-1" Cut="0.0000000000000000e+00" cType="1" res="5.8981479378417134e-04" rms="4.9096897244453430e-01" purity="5.0578224658966064e-01" nType="-99"/>
        </Node>
        <Node pos="r" depth="1" NCoef="0" IVar="0" Cut="9.5132408142089844e+00" cType="1" res="9.9338274449110031e-03" rms="4.8836839199066162e-01" purity="5.1133567094802856e-01" nType="0">
          <Node pos="l" depth="2" NCoef="0" IVar="-1" Cut="0.0000000000000000e+00" cType="1" res="2.1149443928152323e-03" rms="4.9042147397994995e-01" purity="5.1598668098449707e-01" nType="-99"/>
          <Node pos="r" depth="2" NCoef="0" IVar="-1" Cut="0.0000000000000000e+00" cType="1" res="-3.5740013699978590e-03" rms="4.7647726535797119e-01" purity="4.8620846867561340e-01" nType="-99"/>
        </Node>
      </Node>
    </BinaryTree>
    <BinaryTree type="DecisionTree" boostWeight="1.0000000000000000e+00" itree="442">
      <Node pos="s" depth="0" NCoef="0" IVar="5" Cut="-6.9058358669281006e-01" cType="1" res="-1.9723542209248990e-04" rms="4.8816940188407898e-01" purity="4.9965563416481018e-01" nType="0">
        <Node pos="l" depth="1" NCoef="0" IVar="3" Cut="-8.9533257484436035e-01" cType="1" res="-1.4751719310879707e-02" rms="4.8892560601234436e-01" purity="4.8347455263137817e-01" nType="0">
          <Node pos="l" depth="2" NCoef="0" IVar="-1" Cut="0.0000000000000000e+00" cType="1" res="3.2596257515251637e-03" rms="4.7775295376777649e-01" purity="3.8417389988899231e-01" nType="-99"/>
          <Node pos="r" depth="2" NCoef="0" IVar="-1" Cut="0.0000000000000000e+00" cType="1" res="-4.1927173733711243e-03" rms="4.9214568734169006e-01" purity="5.1743453741073608e-01" nType="-99"/>
        </Node>
        <Node pos="r" depth="1" NCoef="0" IVar="0" Cut="8.2104768753051758e+00" cType="1" res="1.8224401865154505e-03" rms="4.8803007602691650e-01" purity="5.0190103054046631e-01" nType="0">
          <Node pos="l" depth="2" NCoef="0" IVar="-1" Cut="0.0000000000000000e+00" cType="1" res="2.0507436711341143e-03" rms="4.9788308143615723e-01" purity="5.1108556985855103e-01" nType="-99"/>
          <Node pos="r" depth="2" NCoef="0" IVar="-1" Cut="0.0000000000000000e+00" cType="1" res="1.0502370423637331e-04" rms="4.8738008737564087e-01" purity="5.0132417678833008e-01" nType="-99"/>
        </Node>
      </Node>
    </BinaryTree>
    <BinaryTree type="DecisionTree" boostWeight="1.0000000000000000e+00" itree="443">
      <Node pos="s" depth="0" NCoef="0" IVar="3" Cut="-8.0165529251098633e-01" cType="1" res="-5.9926166431978345e-04" rms="4.8935803771018982e-01" purity="4.9919065833091736e-01" nType="0">
        <Node pos="l" depth="1" NCoef="0" IVar="5" Cut="7.9388058185577393e-01" cType="1" res="9.1330381110310555e-03" rms="4.8678675293922424e-01" purity="4.1670569777488708e-01" nType="0">
          <Node pos="l" depth="2" NCoef="0" IVar="-1" Cut="0.0000000000000000e+00" cType="1" res="1.0755497496575117e-03" rms="4.8608443140983582e-01" purity="4.1308063268661499e-01" nType="-99"/>
          <Node pos="r" depth="2" NCoef="0" IVar="-1" Cut="0.0000000000000000e+00" cType="1" res="7.0359893143177032e-03" rms="4.9428382515907288e-01" purity="4.6180170774459839e-01" nType="-99"/>
        </Node>
        <Node pos="r" depth="1" NCoef="0" IVar="3" Cut="8.2086724042892456e-01" cType="1" res="-6.3245156779885292e-03" rms="4.9077421426773071e-01" purity="5.4771441221237183e-01" nType="0">
          <Node pos="l" depth="2" NCoef="0" IVar="-1" Cut="0.0000000000000000e+00" cType="1" res="-1.8987327348440886e-03" rms="4.9907302856445312e-01" purity="4.8884922266006470e-01" nType="-99"/>
          <Node pos="r" depth="2" NCoef="0" IVar="-1" Cut="0.0000000000000000e+00" cType="1" res="-7.1809408836998045e-05" rms="4.8352700471878052e-01" purity="5.9776777029037476e-01" nType="-99"/>
        </Node>
      </Node>
    </BinaryTree>
    <BinaryTree type="DecisionTree" boostWeight="1.0000000000000000e+00" itree="444">
      <Node pos="s" depth="0" NCoef="0" IVar="0" Cut="8.2741060256958008e+00" cType="1" res="-3.7136946339160204e-03" rms="4.8860132694244385e-01" purity="4.9670791625976562e-01" nType="0">
        <Node pos="l" depth="1" NCoef="0" IVar="-1" Cut="0.0000000000000000e+00" cType="1" res="-3.3345934934914112e-03" rms="4.9723801016807556e-01" purity="4.6357294917106628e-01" nType="-99"/>
        <Node pos="r" depth="1" NCoef="0" IVar="5" Cut="-6.8957567214965820e-01" cType="1" res="-1.3784063048660755e-03" rms="4.8781856894493103e-01" purity="4.9939984083175659e-01" nType="0">
          <Node pos="l" depth="2" NCoef="0" IVar="-1" Cut="0.0000000000000000e+00" cType="1" res="-2.7943090535700321e-03" rms="4.8683425784111023e-01" purity="4.8321536183357239e-01" nType="-99"/>
          <Node pos="r" depth="2" NCoef="0" IVar="-1" Cut="0.0000000000000000e+00" cType="1" res="1.1527696187840775e-04" rms="4.8792207241058350e-01" purity="5.0168704986572266e-01" nType="-99"/>
        </Node>
      </Node>
    </BinaryTree>
    <BinaryTree type="DecisionTree" boostWeight="1.0000000000000000e+00" itree="445">
      <Node pos="s" depth="0" NCoef="0" IVar="5" Cut="4.9896527081727982e-02" cType="1" res="1.8753568874672055e-03" rms="4.8888295888900757e-01" purity="5.0175660848617554e-01" nType="0">
        <Node pos="l" depth="1" NCoef="0" IVar="2" Cut="2.0000000000000000e+00" cType="1" res="2.5682459818199277e-04" rms="3.8513962179422379e-02" purity="5.0241053104400635e-01" nType="0">
          <Node pos="l" depth="2" NCoef="0" IVar="-1" Cut="0.0000000000000000e+00" cType="1" res="-2.1011843637097627e-04" rms="4.8768666386604309e-01" purity="4.9557676911354065e-01" nType="-99"/>
          <Node pos="r" depth="2" NCoef="0" IVar="-1" Cut="0.0000000000000000e+00" cType="1" res="1.7509933095425367e-03" rms="4.9124827980995178e-01" purity="5.1101064682006836e-01" nType="-99"/>
        </Node>
        <Node pos="r" depth="1" NCoef="0" IVar="4" Cut="-7.9660695791244507e-01" cType="1" res="-1.1919771321117878e-02" rms="4.8576605319976807e-01" purity="4.9726015329360962e-01" nType="0">
          <Node pos="l" depth="2" NCoef="0" IVar="-1" Cut="0.0000000000000000e+00" cType="1" res="1.4897288056090474e-03" rms="4.8350524902343750e-01" purity="4.8913934826850891e-01" nType="-99"/>
          <Node pos="r" depth="2" NCoef="0" IVar="-1" Cut="0.0000000000000000e+00" cType="1" res="-4.2421086691319942e-03" rms="4.8677784204483032e-01" purity="5.0269967317581177e-01" nType="-99"/>
        </Node>
      </Node>
    </BinaryTree>
    <BinaryTree type="DecisionTree" boostWeight="1.0000000000000000e+00" itree="446">
      <Node pos="s" depth="0" NCoef="0" IVar="0" Cut="8.5443048477172852e+00" cType="1" res="3.1934713479131460e-03" rms="4.8780694603919983e-01" purity="5.0325232744216919e-01" nType="0">
        <Node pos="l" depth="1" NCoef="0" IVar="4" Cut="4.4652335345745087e-02" cType="1" res="1.7646165564656258e-02" rms="4.9560043215751648e-01" purity="5.2275556325912476e-01" nType="0">
          <Node pos="l" depth="2" NCoef="0" IVar="-1" Cut="0.0000000000000000e+00" cType="1" res="1.4038430526852608e-03" rms="4.9568918347358704e-01" purity="5.1100558042526245e-01" nType="-99"/>
          <Node pos="r" depth="2" NCoef="0" IVar="-1" Cut="0.0000000000000000e+00" cType="1" res="2.8405766934156418e-03" rms="4.9521213769912720e-01" purity="5.5475741624832153e-01" nType="-99"/>
        </Node>
        <Node pos="r" depth="1" NCoef="0" IVar="5" Cut="-7.8418982028961182e-01" cType="1" res="3.2729009399190545e-04" rms="4.8619550466537476e-01" purity="4.9938455224037170e-01" nType="0">
          <Node pos="l" depth="2" NCoef="0" IVar="-1" Cut="0.0000000000000000e+00" cType="1" res="5.1509412005543709e-03" rms="4.7876277565956116e-01" purity="5.2886110544204712e-01" nType="-99"/>
          <Node pos="r" depth="2" NCoef="0" IVar="-1" Cut="0.0000000000000000e+00" cType="1" res="-2.4192992714233696e-04" rms="4.8661223053932190e-01" purity="4.9752259254455566e-01" nType="-99"/>
        </Node>
      </Node>
    </BinaryTree>
    <BinaryTree type="DecisionTree" boostWeight="1.0000000000000000e+00" itree="447">
      <Node pos="s" depth="0" NCoef="0" IVar="0" Cut="9.1637821197509766e+00" cType="1" res="-3.7412082310765982e-03" rms="4.8771816492080688e-01" purity="4.9527508020401001e-01" nType="0">
        <Node pos="l" depth="1" NCoef="0" IVar="0" Cut="8.6854763031005859e+00" cType="1" res="-8.8068619370460510e-03" rms="4.9133259057998657e-01" purity="4.9243640899658203e-01" nType="0">
          <Node pos="l" depth="2" NCoef="0" IVar="-1" Cut="0.0000000000000000e+00" cType="1" res="-5.7593391829868779e-05" rms="4.9381163716316223e-01" purity="5.0611734390258789e-01" nType="-99"/>
          <Node pos="r" depth="2" NCoef="0" IVar="-1" Cut="0.0000000000000000e+00" cType="1" res="-2.1619694307446480e-03" rms="4.8959812521934509e-01" purity="4.8333096504211426e-01" nType="-99"/>
        </Node>
        <Node pos="r" depth="1" NCoef="0" IVar="5" Cut="-7.8282511234283447e-01" cType="1" res="3.5290399100631475e-03" rms="4.8239046335220337e-01" purity="4.9934917688369751e-01" nType="0">
          <Node pos="l" depth="2" NCoef="0" IVar="-1" Cut="0.0000000000000000e+00" cType="1" res="-8.2787573337554932e-03" rms="4.8023658990859985e-01" purity="4.6314734220504761e-01" nType="-99"/>
          <Node pos="r" depth="2" NCoef="0" IVar="-1" Cut="0.0000000000000000e+00" cType="1" res="1.4264456694945693e-03" rms="4.8242717981338501e-01" purity="5.0188565254211426e-01" nType="-99"/>
        </Node>
      </Node>
    </BinaryTree>
    <BinaryTree type="DecisionTree" boostWeight="1.0000000000000000e+00" itree="448">
      <Node pos="s" depth="0" NCoef="0" IVar="1" Cut="4.0000000000000000e+00" cType="1" res="1.2543032644316554e-03" rms="1.6274517774581909e-01" purity="5.0537735223770142e-01" nType="0">
        <Node pos="l" depth="1" NCoef="0" IVar="3" Cut="-8.9629036188125610e-01" cType="1" res="8.2387365400791168e-03" rms="4.8736166954040527e-01" purity="5.0651240348815918e-01" nType="0">
          <Node pos="l" depth="2" NCoef="0" IVar="-1" Cut="0.0000000000000000e+00" cType="1" res="-9.0987852308899164e-04" rms="4.6644237637519836e-01" purity="3.3926299214363098e-01" nType="-99"/>
          <Node pos="r" depth="2" NCoef="0" IVar="-1" Cut="0.0000000000000000e+00" cType="1" res="1.6641191905364394e-03" rms="4.9126419425010681e-01" purity="5.3886538743972778e-01" nType="-99"/>
        </Node>
        <Node pos="r" depth="1" NCoef="0" IVar="3" Cut="-8.9522504806518555e-01" cType="1" res="-8.5443574935197830e-03" rms="4.8912486433982849e-01" purity="4.9860838055610657e-01" nType="0">
          <Node pos="l" depth="2" NCoef="0" IVar="-1" Cut="0.0000000000000000e+00" cType="1" res="2.5841365568339825e-03" rms="4.8487168550491333e-01" purity="3.9856570959091187e-01" nType="-99"/>
          <Node pos="r" depth="2" NCoef="0" IVar="-1" Cut="0.0000000000000000e+00" cType="1" res="-2.5300292763859034e-03" rms="4.9019184708595276e-01" purity="5.2960819005966187e-01" nType="-99"/>
        </Node>
      </Node>
    </BinaryTree>
    <BinaryTree type="DecisionTree" boostWeight="1.0000000000000000e+00" itree="449">
      <Node pos="s" depth="0" NCoef="0" IVar="3" Cut="8.9632523059844971e-01" cType="1" res="2.9377106111496687e-03" rms="4.8912048339843750e-01" purity="5.0320053100585938e-01" nType="0">
        <Node pos="l" depth="1" NCoef="0" IVar="5" Cut="-7.7765345573425293e-01" cType="1" res="4.9889679066836834e-03" rms="4.9234911799430847e-01" purity="4.7424468398094177e-01" nType="0">
          <Node pos="l" depth="2" NCoef="0" IVar="-1" Cut="0.0000000000000000e+00" cType="1" res="-3.1818808056414127e-03" rms="4.8495474457740784e-01" purity="4.0791037678718567e-01" nType="-99"/>
          <Node pos="r" depth="2" NCoef="0" IVar="-1" Cut="0.0000000000000000e+00" cType="1" res="9.6129678422585130e-04" rms="4.9269804358482361e-01" purity="4.7770032286643982e-01" nType="-99"/>
        </Node>
        <Node pos="r" depth="1" NCoef="0" IVar="4" Cut="-7.0623850822448730e-01" cType="1" res="-6.6591324284672737e-03" rms="4.7360509634017944e-01" purity="6.3867056369781494e-01" nType="0">
          <Node pos="l" depth="2" NCoef="0" IVar="-1" Cut="0.0000000000000000e+00" cType="1" res="1.5897349221631885e-03" rms="4.8201715946197510e-01" purity="6.0633707046508789e-01" nType="-99"/>
          <Node pos="r" depth="2" NCoef="0" IVar="-1" Cut="0.0000000000000000e+00" cType="1" res="-3.5818221513181925e-03" rms="4.6729299426078796e-01" purity="6.6129714250564575e-01" nType="-99"/>
        </Node>
      </Node>
    </BinaryTree>
    <BinaryTree type="DecisionTree" boostWeight="1.0000000000000000e+00" itree="450">
      <Node pos="s" depth="0" NCoef="0" IVar="1" Cut="2.0000000000000000e+00" cType="1" res="-1.3939396012574434e-03" rms="2.4365818500518799e-01" purity="5.0234466791152954e-01" nType="0">
        <Node pos="l" depth="1" NCoef="0" IVar="2" Cut="3.0000000000000000e+00" cType="1" res="9.6251297509297729e-04" rms="1.0473647713661194e-01" purity="4.9547305703163147e-01" nType="0">
          <Node pos="l" depth="2" NCoef="0" IVar="-1" Cut="0.0000000000000000e+00" cType="1" res="-1.4787729596719146e-03" rms="4.8763135075569153e-01" purity="4.8996141552925110e-01" nType="-99"/>
          <Node pos="r" depth="2" NCoef="0" IVar="-1" Cut="0.0000000000000000e+00" cType="1" res="1.4806393301114440e-03" rms="4.9399539828300476e-01" purity="5.3333580493927002e-01" nType="-99"/>
        </Node>
        <Node pos="r" depth="1" NCoef="0" IVar="0" Cut="8.4392223358154297e+00" cType="1" res="5.1648593507707119e-03" rms="4.8833668231964111e-01" purity="5.0520294904708862e-01" nType="0">
          <Node pos="l" depth="2" NCoef="0" IVar="-1" Cut="0.0000000000000000e+00" cType="1" res="-1.6087359981611371e-03" rms="4.9845069646835327e-01" purity="4.9079304933547974e-01" nType="-99"/>
          <Node pos="r" depth="2" NCoef="0" IVar="-1" Cut="0.0000000000000000e+00" cType="1" res="1.4060362009331584e-03" rms="4.8682746291160583e-01" purity="5.0722706317901611e-01" nType="-99"/>
        </Node>
      </Node>
    </BinaryTree>
    <BinaryTree type="DecisionTree" boostWeight="1.0000000000000000e+00" itree="451">
      <Node pos="s" depth="0" NCoef="0" IVar="0" Cut="9.5605325698852539e+00" cType="1" res="-5.7761778589338064e-04" rms="4.8841899633407593e-01" purity="5.0038695335388184e-01" nType="0">
        <Node pos="l" depth="1" NCoef="0" IVar="3" Cut="-7.0667922496795654e-01" cType="1" res="1.1113368673250079e-03" rms="4.9070215225219727e-01" purity="5.0321239233016968e-01" nType="0">
          <Node pos="l" depth="2" NCoef="0" IVar="-1" Cut="0.0000000000000000e+00" cType="1" res="1.1577854165807366e-03" rms="4.9013760685920715e-01" purity="4.4143915176391602e-01" nType="-99"/>
          <Node pos="r" depth="2" NCoef="0" IVar="-1" Cut="0.0000000000000000e+00" cType="1" res="-8.0565444659441710e-04" rms="4.9116080999374390e-01" purity="5.6296086311340332e-01" nType="-99"/>
        </Node>
        <Node pos="r" depth="1" NCoef="0" IVar="3" Cut="8.0286270380020142e-01" cType="1" res="-1.0697473771870136e-02" rms="4.7438284754753113e-01" purity="4.8345756530761719e-01" nType="0">
          <Node pos="l" depth="2" NCoef="0" IVar="-1" Cut="0.0000000000000000e+00" cType="1" res="-5.3933137096464634e-03" rms="4.7740671038627625e-01" purity="3.8479465246200562e-01" nType="-99"/>
          <Node pos="r" depth="2" NCoef="0" IVar="-1" Cut="0.0000000000000000e+00" cType="1" res="1.0021060006693006e-03" rms="4.6945106983184814e-01" purity="6.3172501325607300e-01" nType="-99"/>
        </Node>
      </Node>
    </BinaryTree>
    <BinaryTree type="DecisionTree" boostWeight="1.0000000000000000e+00" itree="452">
      <Node pos="s" depth="0" NCoef="0" IVar="0" Cut="8.2293577194213867e+00" cType="1" res="-4.4957706704735756e-03" rms="4.8894423246383667e-01" purity="4.9548479914665222e-01" nType="0">
        <Node pos="l" depth="1" NCoef="0" IVar="-1" Cut="0.0000000000000000e+00" cType="1" res="-3.7989169359207153e-03" rms="5.0075519084930420e-01" purity="4.5367318391799927e-01" nType="-99"/>
        <Node pos="r" depth="1" NCoef="0" IVar="5" Cut="-7.8307431936264038e-01" cType="1" res="-2.2097199689596891e-03" rms="4.8804518580436707e-01" purity="4.9833360314369202e-01" nType="0">
          <Node pos="l" depth="2" NCoef="0" IVar="-1" Cut="0.0000000000000000e+00" cType="1" res="3.1701021362096071e-03" rms="4.8587343096733093e-01" purity="5.1395601034164429e-01" nType="-99"/>
          <Node pos="r" depth="2" NCoef="0" IVar="-1" Cut="0.0000000000000000e+00" cType="1" res="-5.7670520618557930e-04" rms="4.8815634846687317e-01" purity="4.9733665585517883e-01" nType="-99"/>
        </Node>
      </Node>
    </BinaryTree>
    <BinaryTree type="DecisionTree" boostWeight="1.0000000000000000e+00" itree="453">
      <Node pos="s" depth="0" NCoef="0" IVar="0" Cut="8.9131307601928711e+00" cType="1" res="-3.3115146216005087e-03" rms="4.8829400539398193e-01" purity="4.9724024534225464e-01" nType="0">
        <Node pos="l" depth="1" NCoef="0" IVar="3" Cut="7.9938608407974243e-01" cType="1" res="4.3353461660444736e-03" rms="4.9331364035606384e-01" purity="5.0737947225570679e-01" nType="0">
          <Node pos="l" depth="2" NCoef="0" IVar="-1" Cut="0.0000000000000000e+00" cType="1" res="-4.6905141789466143e-04" rms="4.9538406729698181e-01" purity="4.6189019083976746e-01" nType="-99"/>
          <Node pos="r" depth="2" NCoef="0" IVar="-1" Cut="0.0000000000000000e+00" cType="1" res="2.2984894458204508e-03" rms="4.8928213119506836e-01" purity="5.8787912130355835e-01" nType="-99"/>
        </Node>
        <Node pos="r" depth="1" NCoef="0" IVar="1" Cut="4.0000000000000000e+00" cType="1" res="-8.6962711066007614e-03" rms="4.8003640770912170e-01" purity="4.9107465147972107e-01" nType="0">
          <Node pos="l" depth="2" NCoef="0" IVar="-1" Cut="0.0000000000000000e+00" cType="1" res="-9.6535391639918089e-04" rms="4.8553720116615295e-01" purity="4.9333778023719788e-01" nType="-99"/>
          <Node pos="r" depth="2" NCoef="0" IVar="-1" Cut="0.0000000000000000e+00" cType="1" res="-5.7622804306447506e-03" rms="4.8230257630348206e-01" purity="4.7695037722587585e-01" nType="-99"/>
        </Node>
      </Node>
    </BinaryTree>
    <BinaryTree type="DecisionTree" boostWeight="1.0000000000000000e+00" itree="454">
      <Node pos="s" depth="0" NCoef="0" IVar="5" Cut="5.2947405725717545e-02" cType="1" res="1.4676696155220270e-03" rms="4.8854857683181763e-01" purity="5.0126785039901733e-01" nType="0">
        <Node pos="l" depth="1" NCoef="0" IVar="0" Cut="8.9989309310913086e+00" cType="1" res="-6.1944680055603385e-04" rms="4.8898929357528687e-01" purity="4.9781399965286255e-01" nType="0">
          <Node pos="l" depth="2" NCoef="0" IVar="-1" Cut="0.0000000000000000e+00" cType="1" res="-8.1513723125681281e-04" rms="4.9477425217628479e-01" purity="4.9454534053802490e-01" nType="-99"/>
          <Node pos="r" depth="2" NCoef="0" IVar="-1" Cut="0.0000000000000000e+00" cType="1" res="9.4145291950553656e-04" rms="4.8405304551124573e-01" purity="5.0054025650024414e-01" nType="-99"/>
        </Node>
        <Node pos="r" depth="1" NCoef="0" IVar="0" Cut="8.8719272613525391e+00" cType="1" res="1.5907375141978264e-02" rms="4.8524278402328491e-01" purity="5.2516329288482666e-01" nType="0">
          <Node pos="l" depth="2" NCoef="0" IVar="-1" Cut="0.0000000000000000e+00" cType="1" res="5.4257782176136971e-03" rms="4.8512756824493408e-01" purity="5.5864173173904419e-01" nType="-99"/>
          <Node pos="r" depth="2" NCoef="0" IVar="-1" Cut="0.0000000000000000e+00" cType="1" res="1.8899540009442717e-04" rms="4.8458859324455261e-01" purity="5.0897926092147827e-01" nType="-99"/>
        </Node>
      </Node>
    </BinaryTree>
    <BinaryTree type="DecisionTree" boostWeight="1.0000000000000000e+00" itree="455">
      <Node pos="s" depth="0" NCoef="0" IVar="0" Cut="8.4704437255859375e+00" cType="1" res="7.7582232188433409e-04" rms="4.8803788423538208e-01" purity="5.0034469366073608e-01" nType="0">
        <Node pos="l" depth="1" NCoef="0" IVar="1" Cut="3.0000000000000000e+00" cType="1" res="-2.5866582291200757e-04" rms="1.1219245381653309e-02" purity="4.8943760991096497e-01" nType="0">
          <Node pos="l" depth="2" NCoef="0" IVar="-1" Cut="0.0000000000000000e+00" cType="1" res="-1.3910317793488503e-03" rms="4.9981459975242615e-01" purity="4.9270743131637573e-01" nType="-99"/>
          <Node pos="r" depth="2" NCoef="0" IVar="-1" Cut="0.0000000000000000e+00" cType="1" res="-2.3605858441442251e-03" rms="4.9350652098655701e-01" purity="4.8306870460510254e-01" nType="-99"/>
        </Node>
        <Node pos="r" depth="1" NCoef="0" IVar="0" Cut="9.4438915252685547e+00" cType="1" res="3.4754436928778887e-03" rms="4.8649793863296509e-01" purity="5.0199937820434570e-01" nType="0">
          <Node pos="l" depth="2" NCoef="0" IVar="-1" Cut="0.0000000000000000e+00" cType="1" res="8.9716352522373199e-04" rms="4.8907464742660522e-01" purity="5.0588023662567139e-01" nType="-99"/>
          <Node pos="r" depth="2" NCoef="0" IVar="-1" Cut="0.0000000000000000e+00" cType="1" res="-9.5548277022317052e-04" rms="4.7811302542686462e-01" purity="4.8961317539215088e-01" nType="-99"/>
        </Node>
      </Node>
    </BinaryTree>
    <BinaryTree type="DecisionTree" boostWeight="1.0000000000000000e+00" itree="456">
      <Node pos="s" depth="0" NCoef="0" IVar="5" Cut="7.9110312461853027e-01" cType="1" res="3.6615788121707737e-04" rms="4.8816898465156555e-01" purity="5.0024873018264771e-01" nType="0">
        <Node pos="l" depth="1" NCoef="0" IVar="4" Cut="-8.9293241500854492e-01" cType="1" res="1.9511628197506070e-03" rms="4.8862415552139282e-01" purity="5.0079512596130371e-01" nType="0">
          <Node pos="l" depth="2" NCoef="0" IVar="-1" Cut="0.0000000000000000e+00" cType="1" res="-4.2197974398732185e-03" rms="4.6737727522850037e-01" purity="4.3046048283576965e-01" nType="-99"/>
          <Node pos="r" depth="2" NCoef="0" IVar="-1" Cut="0.0000000000000000e+00" cType="1" res="4.1066360427066684e-04" rms="4.8917937278747559e-01" purity="5.0272947549819946e-01" nType="-99"/>
        </Node>
        <Node pos="r" depth="1" NCoef="0" IVar="5" Cut="8.3520400524139404e-01" cType="1" res="-2.7283282950520515e-02" rms="4.7931656241416931e-01" purity="4.9071753025054932e-01" nType="0">
          <Node pos="l" depth="2" NCoef="0" IVar="-1" Cut="0.0000000000000000e+00" cType="1" res="-6.6005978733301163e-03" rms="4.8165044188499451e-01" purity="4.8224696516990662e-01" nType="-99"/>
          <Node pos="r" depth="2" NCoef="0" IVar="-1" Cut="0.0000000000000000e+00" cType="1" res="-1.9571918528527021e-03" rms="4.7638174891471863e-01" purity="4.9969336390495300e-01" nType="-99"/>
        </Node>
      </Node>
    </BinaryTree>
    <BinaryTree type="DecisionTree" boostWeight="1.0000000000000000e+00" itree="457">
      <Node pos="s" depth="0" NCoef="0" IVar="4" Cut="-8.8906830549240112e-01" cType="1" res="-4.7493173042312264e-04" rms="4.8866021633148193e-01" purity="4.9904239177703857e-01" nType="0">
        <Node pos="l" depth="1" NCoef="0" IVar="-1" Cut="0.0000000000000000e+00" cType="1" res="2.9099672101438046e-03" rms="4.8254290223121643e-01" purity="4.6827968955039978e-01" nType="-99"/>
        <Node pos="r" depth="1" NCoef="0" IVar="3" Cut="-8.9605480432510376e-01" cType="1" res="-1.1232765391469002e-03" rms="4.8889175057411194e-01" purity="5.0027084350585938e-01" nType="0">
          <Node pos="l" depth="2" NCoef="0" IVar="-1" Cut="0.0000000000000000e+00" cType="1" res="-1.8445327877998352e-03" rms="4.6816721558570862e-01" purity="3.4883052110671997e-01" nType="-99"/>
          <Node pos="r" depth="2" NCoef="0" IVar="-1" Cut="0.0000000000000000e+00" cType="1" res="1.0044108785223216e-04" rms="4.9282389879226685e-01" purity="5.2989113330841064e-01" nType="-99"/>
        </Node>
      </Node>
    </BinaryTree>
    <BinaryTree type="DecisionTree" boostWeight="1.0000000000000000e+00" itree="458">
      <Node pos="s" depth="0" NCoef="0" IVar="4" Cut="8.9009654521942139e-01" cType="1" res="3.1519012991338968e-03" rms="4.8794698715209961e-01" purity="5.0400012731552124e-01" nType="0">
        <Node pos="l" depth="1" NCoef="0" IVar="0" Cut="8.2831573486328125e+00" cType="1" res="1.9230535253882408e-03" rms="4.8853829503059387e-01" purity="5.0097608566284180e-01" nType="0">
          <Node pos="l" depth="2" NCoef="0" IVar="-1" Cut="0.0000000000000000e+00" cType="1" res="2.0743631757795811e-03" rms="4.9931129813194275e-01" purity="5.1461619138717651e-01" nType="-99"/>
          <Node pos="r" depth="2" NCoef="0" IVar="-1" Cut="0.0000000000000000e+00" cType="1" res="3.9264643419301137e-05" rms="4.8756280541419983e-01" purity="4.9980160593986511e-01" nType="-99"/>
        </Node>
        <Node pos="r" depth="1" NCoef="0" IVar="-1" Cut="0.0000000000000000e+00" cType="1" res="6.0671386308968067e-03" rms="4.7131758928298950e-01" purity="5.8206963539123535e-01" nType="-99"/>
      </Node>
    </BinaryTree>
    <BinaryTree type="DecisionTree" boostWeight="1.0000000000000000e+00" itree="459">
      <Node pos="s" depth="0" NCoef="0" IVar="0" Cut="8.1729154586791992e+00" cType="1" res="4.3232985772192478e-03" rms="4.8829266428947449e-01" purity="5.0385802984237671e-01" nType="0">
        <Node pos="l" depth="1" NCoef="0" IVar="-1" Cut="0.0000000000000000e+00" cType="1" res="3.2993236090987921e-03" rms="5.0042659044265747e-01" purity="5.2344417572021484e-01" nType="-99"/>
        <Node pos="r" depth="1" NCoef="0" IVar="1" Cut="5.0000000000000000e+00" cType="1" res="2.5745581369847059e-03" rms="4.6454980969429016e-01" purity="5.0283700227737427e-01" nType="0">
          <Node pos="l" depth="2" NCoef="0" IVar="-1" Cut="0.0000000000000000e+00" cType="1" res="6.1832752544432878e-04" rms="4.8747351765632629e-01" purity="5.0272357463836670e-01" nType="-99"/>
          <Node pos="r" depth="2" NCoef="0" IVar="-1" Cut="0.0000000000000000e+00" cType="1" res="-2.4297505151480436e-03" rms="4.8990768194198608e-01" purity="5.0510674715042114e-01" nType="-99"/>
        </Node>
      </Node>
    </BinaryTree>
    <BinaryTree type="DecisionTree" boostWeight="1.0000000000000000e+00" itree="460">
      <Node pos="s" depth="0" NCoef="0" IVar="3" Cut="-8.0189293622970581e-01" cType="1" res="1.0970504954457283e-03" rms="4.8772406578063965e-01" purity="5.0091576576232910e-01" nType="0">
        <Node pos="l" depth="1" NCoef="0" IVar="5" Cut="5.1715750247240067e-02" cType="1" res="-7.1183671243488789e-03" rms="4.8339581489562988e-01" purity="4.0132349729537964e-01" nType="0">
          <Node pos="l" depth="2" NCoef="0" IVar="-1" Cut="0.0000000000000000e+00" cType="1" res="-4.6987787936814129e-04" rms="4.8392742872238159e-01" purity="4.0338549017906189e-01" nType="-99"/>
          <Node pos="r" depth="2" NCoef="0" IVar="-1" Cut="0.0000000000000000e+00" cType="1" res="-4.6419319696724415e-03" rms="4.8021948337554932e-01" purity="3.9120411872863770e-01" nType="-99"/>
        </Node>
        <Node pos="r" depth="1" NCoef="0" IVar="0" Cut="9.0960302352905273e+00" cType="1" res="5.8974479325115681e-03" rms="4.9017173051834106e-01" purity="5.5910909175872803e-01" nType="0">
          <Node pos="l" depth="2" NCoef="0" IVar="-1" Cut="0.0000000000000000e+00" cType="1" res="1.4409290160983801e-03" rms="4.9216145277023315e-01" purity="5.5433708429336548e-01" nType="-99"/>
          <Node pos="r" depth="2" NCoef="0" IVar="-1" Cut="0.0000000000000000e+00" cType="1" res="-1.2229477579239756e-04" rms="4.8779144883155823e-01" purity="5.6460207700729370e-01" nType="-99"/>
        </Node>
      </Node>
    </BinaryTree>
    <BinaryTree type="DecisionTree" boostWeight="1.0000000000000000e+00" itree="461">
      <Node pos="s" depth="0" NCoef="0" IVar="0" Cut="9.7978286743164062e+00" cType="1" res="5.9953675372526050e-04" rms="4.8855671286582947e-01" purity="5.0070333480834961e-01" nType="0">
        <Node pos="l" depth="1" NCoef="0" IVar="4" Cut="4.6732999384403229e-02" cType="1" res="-6.2024226645007730e-04" rms="4.8942136764526367e-01" purity="5.0056368112564087e-01" nType="0">
          <Node pos="l" depth="2" NCoef="0" IVar="-1" Cut="0.0000000000000000e+00" cType="1" res="-5.4821826051920652e-04" rms="4.9091711640357971e-01" purity="4.8950874805450439e-01" nType="-99"/>
          <Node pos="r" depth="2" NCoef="0" IVar="-1" Cut="0.0000000000000000e+00" cType="1" res="1.0756246047094464e-03" rms="4.8553383350372314e-01" purity="5.2854937314987183e-01" nType="-99"/>
        </Node>
        <Node pos="r" depth="1" NCoef="0" IVar="3" Cut="-7.0678895711898804e-01" cType="1" res="2.1118648350238800e-02" rms="4.7330358624458313e-01" purity="5.0305277109146118e-01" nType="0">
          <Node pos="l" depth="2" NCoef="0" IVar="-1" Cut="0.0000000000000000e+00" cType="1" res="4.8389909788966179e-03" rms="4.7244414687156677e-01" purity="3.8056486845016479e-01" nType="-99"/>
          <Node pos="r" depth="2" NCoef="0" IVar="-1" Cut="0.0000000000000000e+00" cType="1" res="9.0763019397854805e-03" rms="4.7404915094375610e-01" purity="6.2192875146865845e-01" nType="-99"/>
        </Node>
      </Node>
    </BinaryTree>
    <BinaryTree type="DecisionTree" boostWeight="1.0000000000000000e+00" itree="462">
      <Node pos="s" depth="0" NCoef="0" IVar="0" Cut="8.4044733047485352e+00" cType="1" res="-4.6459017321467400e-03" rms="4.8798960447311401e-01" purity="4.9630704522132874e-01" nType="0">
        <Node pos="l" depth="1" NCoef="0" IVar="2" Cut="2.0000000000000000e+00" cType="1" res="-2.4211072013713419e-04" rms="2.2961536422371864e-02" purity="5.1680338382720947e-01" nType="0">
          <Node pos="l" depth="2" NCoef="0" IVar="-1" Cut="0.0000000000000000e+00" cType="1" res="-5.0000444753095508e-04" rms="4.9664363265037537e-01" purity="5.0368535518646240e-01" nType="-99"/>
          <Node pos="r" depth="2" NCoef="0" IVar="-1" Cut="0.0000000000000000e+00" cType="1" res="3.3948046620935202e-03" rms="4.9888393282890320e-01" purity="5.3361994028091431e-01" nType="-99"/>
        </Node>
        <Node pos="r" depth="1" NCoef="0" IVar="0" Cut="9.4786663055419922e+00" cType="1" res="-6.6815055906772614e-03" rms="4.8668155074119568e-01" purity="4.9373409152030945e-01" nType="0">
          <Node pos="l" depth="2" NCoef="0" IVar="-1" Cut="0.0000000000000000e+00" cType="1" res="-1.6310028731822968e-03" rms="4.8868876695632935e-01" purity="4.9179920554161072e-01" nType="-99"/>
          <Node pos="r" depth="2" NCoef="0" IVar="-1" Cut="0.0000000000000000e+00" cType="1" res="2.1728784777224064e-03" rms="4.7852364182472229e-01" purity="5.0124806165695190e-01" nType="-99"/>
        </Node>
      </Node>
    </BinaryTree>
    <BinaryTree type="DecisionTree" boostWeight="1.0000000000000000e+00" itree="463">
      <Node pos="s" depth="0" NCoef="0" IVar="3" Cut="-8.9538180828094482e-01" cType="1" res="1.4584278687834740e-04" rms="4.8856279253959656e-01" purity="5.0019073486328125e-01" nType="0">
        <Node pos="l" depth="1" NCoef="0" IVar="3" Cut="-9.2232805490493774e-01" cType="1" res="1.1869818903505802e-02" rms="4.7226974368095398e-01" purity="3.6603188514709473e-01" nType="0">
          <Node pos="l" depth="2" NCoef="0" IVar="-1" Cut="0.0000000000000000e+00" cType="1" res="-5.0343218026682734e-04" rms="4.5924919843673706e-01" purity="3.2493659853935242e-01" nType="-99"/>
          <Node pos="r" depth="2" NCoef="0" IVar="-1" Cut="0.0000000000000000e+00" cType="1" res="5.8764950372278690e-03" rms="4.9254992604255676e-01" purity="4.3555897474288940e-01" nType="-99"/>
        </Node>
        <Node pos="r" depth="1" NCoef="0" IVar="5" Cut="-6.9101172685623169e-01" cType="1" res="-2.3776721209287643e-03" rms="4.9196267127990723e-01" purity="5.2906757593154907e-01" nType="0">
          <Node pos="l" depth="2" NCoef="0" IVar="-1" Cut="0.0000000000000000e+00" cType="1" res="-2.3461855016648769e-03" rms="4.9097767472267151e-01" purity="5.3036999702453613e-01" nType="-99"/>
          <Node pos="r" depth="2" NCoef="0" IVar="-1" Cut="0.0000000000000000e+00" cType="1" res="-1.3922818470746279e-04" rms="4.9206465482711792e-01" purity="5.2890580892562866e-01" nType="-99"/>
        </Node>
      </Node>
    </BinaryTree>
    <BinaryTree type="DecisionTree" boostWeight="1.0000000000000000e+00" itree="464">
      <Node pos="s" depth="0" NCoef="0" IVar="4" Cut="4.8119999468326569e-02" cType="1" res="1.2159255566075444e-03" rms="4.8839297890663147e-01" purity="5.0104647874832153e-01" nType="0">
        <Node pos="l" depth="1" NCoef="0" IVar="4" Cut="-7.9645746946334839e-01" cType="1" res="4.1535580530762672e-03" rms="4.8962479829788208e-01" purity="4.9506279826164246e-01" nType="0">
          <Node pos="l" depth="2" NCoef="0" IVar="-1" Cut="0.0000000000000000e+00" cType="1" res="-1.3735292013734579e-03" rms="4.8043546080589294e-01" purity="4.6117979288101196e-01" nType="-99"/>
          <Node pos="r" depth="2" NCoef="0" IVar="-1" Cut="0.0000000000000000e+00" cType="1" res="1.1435069609433413e-03" rms="4.9200904369354248e-01" purity="5.0415199995040894e-01" nType="-99"/>
        </Node>
        <Node pos="r" depth="1" NCoef="0" IVar="3" Cut="-8.0121403932571411e-01" cType="1" res="-6.2683606520295143e-03" rms="4.8516011238098145e-01" purity="5.1629137992858887e-01" nType="0">
          <Node pos="l" depth="2" NCoef="0" IVar="-1" Cut="0.0000000000000000e+00" cType="1" res="-2.8711529448628426e-03" rms="4.8896542191505432e-01" purity="4.1978651285171509e-01" nType="-99"/>
          <Node pos="r" depth="2" NCoef="0" IVar="-1" Cut="0.0000000000000000e+00" cType="1" res="8.2983291940763593e-04" rms="4.8125830292701721e-01" purity="6.0754919052124023e-01" nType="-99"/>
        </Node>
      </Node>
    </BinaryTree>
    <BinaryTree type="DecisionTree" boostWeight="1.0000000000000000e+00" itree="465">
      <Node pos="s" depth="0" NCoef="0" IVar="3" Cut="-8.9657336473464966e-01" cType="1" res="-2.5203938130289316e-03" rms="4.8816797137260437e-01" purity="4.9804699420928955e-01" nType="0">
        <Node pos="l" depth="1" NCoef="0" IVar="3" Cut="-9.5946687459945679e-01" cType="1" res="1.0269373655319214e-02" rms="4.7244581580162048e-01" purity="3.6255666613578796e-01" nType="0">
          <Node pos="l" depth="2" NCoef="0" IVar="-1" Cut="0.0000000000000000e+00" cType="1" res="-4.8038265667855740e-03" rms="4.2054778337478638e-01" purity="2.4189594388008118e-01" nType="-99"/>
          <Node pos="r" depth="2" NCoef="0" IVar="-1" Cut="0.0000000000000000e+00" cType="1" res="2.9709716327488422e-03" rms="4.8233097791671753e-01" purity="3.8778203725814819e-01" nType="-99"/>
        </Node>
        <Node pos="r" depth="1" NCoef="0" IVar="0" Cut="8.2212305068969727e+00" cType="1" res="-5.1777996122837067e-03" rms="4.9132975935935974e-01" purity="5.2619862556457520e-01" nType="0">
          <Node pos="l" depth="2" NCoef="0" IVar="-1" Cut="0.0000000000000000e+00" cType="1" res="-4.1300440207123756e-03" rms="4.9645793437957764e-01" purity="4.6100056171417236e-01" nType="-99"/>
          <Node pos="r" depth="2" NCoef="0" IVar="-1" Cut="0.0000000000000000e+00" cType="1" res="-3.9821575046516955e-04" rms="4.9083748459815979e-01" purity="5.3100973367691040e-01" nType="-99"/>
        </Node>
      </Node>
    </BinaryTree>
    <BinaryTree type="DecisionTree" boostWeight="1.0000000000000000e+00" itree="466">
      <Node pos="s" depth="0" NCoef="0" IVar="3" Cut="-8.9546138048171997e-01" cType="1" res="-1.5406416787300259e-04" rms="4.8886865377426147e-01" purity="5.0023084878921509e-01" nType="0">
        <Node pos="l" depth="1" NCoef="0" IVar="0" Cut="8.8343725204467773e+00" cType="1" res="1.0793644003570080e-02" rms="4.7301071882247925e-01" purity="3.6462351679801941e-01" nType="0">
          <Node pos="l" depth="2" NCoef="0" IVar="-1" Cut="0.0000000000000000e+00" cType="1" res="4.0483754128217697e-03" rms="4.9268287420272827e-01" purity="4.2123076319694519e-01" nType="-99"/>
          <Node pos="r" depth="2" NCoef="0" IVar="-1" Cut="0.0000000000000000e+00" cType="1" res="9.1524131130427122e-04" rms="4.6659901738166809e-01" purity="3.4723421931266785e-01" nType="-99"/>
        </Node>
        <Node pos="r" depth="1" NCoef="0" IVar="0" Cut="8.9159507751464844e+00" cType="1" res="-2.4295134935528040e-03" rms="4.9206995964050293e-01" purity="5.2841639518737793e-01" nType="0">
          <Node pos="l" depth="2" NCoef="0" IVar="-1" Cut="0.0000000000000000e+00" cType="1" res="-1.1483294656500220e-03" rms="4.9535226821899414e-01" purity="5.1100385189056396e-01" nType="-99"/>
          <Node pos="r" depth="2" NCoef="0" IVar="-1" Cut="0.0000000000000000e+00" cType="1" res="5.1636039279401302e-04" rms="4.8975783586502075e-01" purity="5.4027611017227173e-01" nType="-99"/>
        </Node>
      </Node>
    </BinaryTree>
    <BinaryTree type="DecisionTree" boostWeight="1.0000000000000000e+00" itree="467">
      <Node pos="s" depth="0" NCoef="0" IVar="0" Cut="9.5118331909179688e+00" cType="1" res="-5.6673708604648709e-04" rms="4.8862844705581665e-01" purity="4.9968975782394409e-01" nType="0">
        <Node pos="l" depth="1" NCoef="0" IVar="2" Cut="3.0000000000000000e+00" cType="1" res="-2.3314954887609929e-04" rms="1.4480035752058029e-02" purity="4.9808713793754578e-01" nType="0">
          <Node pos="l" depth="2" NCoef="0" IVar="-1" Cut="0.0000000000000000e+00" cType="1" res="-3.1728524481877685e-04" rms="4.8986604809761047e-01" purity="4.9845278263092041e-01" nType="-99"/>
          <Node pos="r" depth="2" NCoef="0" IVar="-1" Cut="0.0000000000000000e+00" cType="1" res="-2.5644141715019941e-03" rms="4.9439629912376404e-01" purity="4.9513465166091919e-01" nType="-99"/>
        </Node>
        <Node pos="r" depth="1" NCoef="0" IVar="0" Cut="9.6013050079345703e+00" cType="1" res="1.5103907324373722e-02" rms="4.7930294275283813e-01" purity="5.0783216953277588e-01" nType="0">
          <Node pos="l" depth="2" NCoef="0" IVar="-1" Cut="0.0000000000000000e+00" cType="1" res="7.1536116302013397e-03" rms="4.8018461465835571e-01" purity="5.2591538429260254e-01" nType="-99"/>
          <Node pos="r" depth="2" NCoef="0" IVar="-1" Cut="0.0000000000000000e+00" cType="1" res="2.8787069022655487e-03" rms="4.7886601090431213e-01" purity="5.0119888782501221e-01" nType="-99"/>
        </Node>
      </Node>
    </BinaryTree>
    <BinaryTree type="DecisionTree" boostWeight="1.0000000000000000e+00" itree="468">
      <Node pos="s" depth="0" NCoef="0" IVar="1" Cut="2.0000000000000000e+00" cType="1" res="-4.5410319580696523e-04" rms="2.5320228934288025e-01" purity="5.0181430578231812e-01" nType="0">
        <Node pos="l" depth="1" NCoef="0" IVar="4" Cut="7.8894257545471191e-01" cType="1" res="-6.5408325754106045e-03" rms="4.8752403259277344e-01" purity="4.9341341853141785e-01" nType="0">
          <Node pos="l" depth="2" NCoef="0" IVar="-1" Cut="0.0000000000000000e+00" cType="1" res="-1.4960586559027433e-03" rms="4.8775106668472290e-01" purity="4.8758590221405029e-01" nType="-99"/>
          <Node pos="r" depth="2" NCoef="0" IVar="-1" Cut="0.0000000000000000e+00" cType="1" res="4.4784583151340485e-03" rms="4.8389798402786255e-01" purity="5.5314546823501587e-01" nType="-99"/>
        </Node>
        <Node pos="r" depth="1" NCoef="0" IVar="4" Cut="7.9611778259277344e-01" cType="1" res="4.4413306750357151e-03" rms="4.8831796646118164e-01" purity="5.0526845455169678e-01" nType="0">
          <Node pos="l" depth="2" NCoef="0" IVar="-1" Cut="0.0000000000000000e+00" cType="1" res="1.0494176531210542e-03" rms="4.8923677206039429e-01" purity="4.9976640939712524e-01" nType="-99"/>
          <Node pos="r" depth="2" NCoef="0" IVar="-1" Cut="0.0000000000000000e+00" cType="1" res="-8.5745990509167314e-04" rms="4.8429259657859802e-01" purity="5.2857553958892822e-01" nType="-99"/>
        </Node>
      </Node>
    </BinaryTree>
    <BinaryTree type="DecisionTree" boostWeight="1.0000000000000000e+00" itree="469">
      <Node pos="s" depth="0" NCoef="0" IVar="1" Cut="5.0000000000000000e+00" cType="1" res="-1.5061809681355953e-03" rms="3.9779987931251526e-01" purity="4.9862033128738403e-01" nType="0">
        <Node pos="l" depth="1" NCoef="0" IVar="3" Cut="-8.0204480886459351e-01" cType="1" res="-2.9707639478147030e-03" rms="4.8845505714416504e-01" purity="4.9654006958007812e-01" nType="0">
          <Node pos="l" depth="2" NCoef="0" IVar="-1" Cut="0.0000000000000000e+00" cType="1" res="6.4908707281574607e-04" rms="4.8420122265815735e-01" purity="4.1098430752754211e-01" nType="-99"/>
          <Node pos="r" depth="2" NCoef="0" IVar="-1" Cut="0.0000000000000000e+00" cType="1" res="-1.0713059455156326e-03" rms="4.9084511399269104e-01" purity="5.4582345485687256e-01" nType="-99"/>
        </Node>
        <Node pos="r" depth="1" NCoef="0" IVar="-1" Cut="0.0000000000000000e+00" cType="1" res="3.9005165454000235e-03" rms="4.8609483242034912e-01" purity="5.3947478532791138e-01" nType="-99"/>
      </Node>
    </BinaryTree>
    <BinaryTree type="DecisionTree" boostWeight="1.0000000000000000e+00" itree="470">
      <Node pos="s" depth="0" NCoef="0" IVar="3" Cut="-8.9538180828094482e-01" cType="1" res="-4.0832594968378544e-03" rms="4.8801812529563904e-01" purity="4.9637743830680847e-01" nType="0">
        <Node pos="l" depth="1" NCoef="0" IVar="0" Cut="9.1953544616699219e+00" cType="1" res="-1.5352081507444382e-02" rms="4.6714705228805542e-01" purity="3.4135207533836365e-01" nType="0">
          <Node pos="l" depth="2" NCoef="0" IVar="-1" Cut="0.0000000000000000e+00" cType="1" res="-3.6875819787383080e-03" rms="4.7296324372291565e-01" purity="3.5036513209342957e-01" nType="-99"/>
          <Node pos="r" depth="2" NCoef="0" IVar="-1" Cut="0.0000000000000000e+00" cType="1" res="-5.7569122873246670e-04" rms="4.5998075604438782e-01" purity="3.3093458414077759e-01" nType="-99"/>
        </Node>
        <Node pos="r" depth="1" NCoef="0" IVar="2" Cut="3.0000000000000000e+00" cType="1" res="-5.4246507352218032e-04" rms="1.8063201010227203e-01" purity="5.2856773138046265e-01" nType="0">
          <Node pos="l" depth="2" NCoef="0" IVar="-1" Cut="0.0000000000000000e+00" cType="1" res="-4.9730093451216817e-04" rms="4.9209371209144592e-01" purity="5.2829998731613159e-01" nType="-99"/>
          <Node pos="r" depth="2" NCoef="0" IVar="-1" Cut="0.0000000000000000e+00" cType="1" res="1.7764494987204671e-03" rms="4.9290993809700012e-01" purity="5.3054684400558472e-01" nType="-99"/>
        </Node>
      </Node>
    </BinaryTree>
    <BinaryTree type="DecisionTree" boostWeight="1.0000000000000000e+00" itree="471">
      <Node pos="s" depth="0" NCoef="0" IVar="0" Cut="8.4049177169799805e+00" cType="1" res="2.4056369438767433e-03" rms="4.8850694298744202e-01" purity="5.0284796953201294e-01" nType="0">
        <Node pos="l" depth="1" NCoef="0" IVar="2" Cut="2.0000000000000000e+00" cType="1" res="4.9404182936996222e-04" rms="4.2955145239830017e-02" purity="5.2544343471527100e-01" nType="0">
          <Node pos="l" depth="2" NCoef="0" IVar="-1" Cut="0.0000000000000000e+00" cType="1" res="3.3351839520037174e-03" rms="4.9600416421890259e-01" purity="5.4422062635421753e-01" nType="-99"/>
          <Node pos="r" depth="2" NCoef="0" IVar="-1" Cut="0.0000000000000000e+00" cType="1" res="-3.6366171116242185e-05" rms="4.9913153052330017e-01" purity="4.9911457300186157e-01" nType="-99"/>
        </Node>
        <Node pos="r" depth="1" NCoef="0" IVar="0" Cut="8.5471096038818359e+00" cType="1" res="1.2921028428536374e-05" rms="4.8726007342338562e-01" purity="4.9991753697395325e-01" nType="0">
          <Node pos="l" depth="2" NCoef="0" IVar="-1" Cut="0.0000000000000000e+00" cType="1" res="-2.8868231456726789e-03" rms="4.9438428878784180e-01" purity="4.8768249154090881e-01" nType="-99"/>
          <Node pos="r" depth="2" NCoef="0" IVar="-1" Cut="0.0000000000000000e+00" cType="1" res="2.9291750979609787e-04" rms="4.8676234483718872e-01" purity="5.0068771839141846e-01" nType="-99"/>
        </Node>
      </Node>
    </BinaryTree>
    <BinaryTree type="DecisionTree" boostWeight="1.0000000000000000e+00" itree="472">
      <Node pos="s" depth="0" NCoef="0" IVar="0" Cut="9.1637821197509766e+00" cType="1" res="2.2904893849045038e-03" rms="4.8850148916244507e-01" purity="5.0262689590454102e-01" nType="0">
        <Node pos="l" depth="1" NCoef="0" IVar="4" Cut="4.6383343636989594e-02" cType="1" res="5.7101827114820480e-03" rms="4.9236175417900085e-01" purity="5.0773358345031738e-01" nType="0">
          <Node pos="l" depth="2" NCoef="0" IVar="-1" Cut="0.0000000000000000e+00" cType="1" res="1.3750122161582112e-04" rms="4.9358040094375610e-01" purity="4.9494883418083191e-01" nType="-99"/>
          <Node pos="r" depth="2" NCoef="0" IVar="-1" Cut="0.0000000000000000e+00" cType="1" res="2.2845319472253323e-03" rms="4.8910048604011536e-01" purity="5.3975439071655273e-01" nType="-99"/>
        </Node>
        <Node pos="r" depth="1" NCoef="0" IVar="2" Cut="2.0000000000000000e+00" cType="1" res="-3.0115568079054356e-03" rms="4.5714706182479858e-01" purity="4.9534550309181213e-01" nType="0">
          <Node pos="l" depth="2" NCoef="0" IVar="-1" Cut="0.0000000000000000e+00" cType="1" res="7.1567768463864923e-04" rms="4.8082146048545837e-01" purity="4.9864026904106140e-01" nType="-99"/>
          <Node pos="r" depth="2" NCoef="0" IVar="-1" Cut="0.0000000000000000e+00" cType="1" res="-2.7353719342499971e-03" rms="4.8577365279197693e-01" purity="4.9057736992835999e-01" nType="-99"/>
        </Node>
      </Node>
    </BinaryTree>
    <BinaryTree type="DecisionTree" boostWeight="1.0000000000000000e+00" itree="473">
      <Node pos="s" depth="0" NCoef="0" IVar="0" Cut="8.3125705718994141e+00" cType="1" res="-7.7872397378087044e-04" rms="4.8799183964729309e-01" purity="4.9917486310005188e-01" nType="0">
        <Node pos="l" depth="1" NCoef="0" IVar="3" Cut="-7.0152652263641357e-01" cType="1" res="1.6043478623032570e-02" rms="4.9582049250602722e-01" purity="5.1415163278579712e-01" nType="0">
          <Node pos="l" depth="2" NCoef="0" IVar="-1" Cut="0.0000000000000000e+00" cType="1" res="1.2031978694722056e-03" rms="4.9622556567192078e-01" purity="4.7603628039360046e-01" nType="-99"/>
          <Node pos="r" depth="2" NCoef="0" IVar="-1" Cut="0.0000000000000000e+00" cType="1" res="1.9888987299054861e-03" rms="4.9537345767021179e-01" purity="5.5313354730606079e-01" nType="-99"/>
        </Node>
        <Node pos="r" depth="1" NCoef="0" IVar="4" Cut="-7.0525330305099487e-01" cType="1" res="-2.4371489416807890e-03" rms="4.8718178272247314e-01" purity="4.9769833683967590e-01" nType="0">
          <Node pos="l" depth="2" NCoef="0" IVar="-1" Cut="0.0000000000000000e+00" cType="1" res="-1.9736518152058125e-03" rms="4.8420724272727966e-01" purity="4.6413782238960266e-01" nType="-99"/>
          <Node pos="r" depth="2" NCoef="0" IVar="-1" Cut="0.0000000000000000e+00" cType="1" res="1.5433529915753752e-04" rms="4.8824799060821533e-01" purity="5.1025599241256714e-01" nType="-99"/>
        </Node>
      </Node>
    </BinaryTree>
    <BinaryTree type="DecisionTree" boostWeight="1.0000000000000000e+00" itree="474">
      <Node pos="s" depth="0" NCoef="0" IVar="0" Cut="8.2049665451049805e+00" cType="1" res="-9.8793802317231894e-04" rms="4.8867505788803101e-01" purity="4.9890857934951782e-01" nType="0">
        <Node pos="l" depth="1" NCoef="0" IVar="-1" Cut="0.0000000000000000e+00" cType="1" res="-2.2425937931984663e-03" rms="4.9947267770767212e-01" purity="4.7024449706077576e-01" nType="-99"/>
        <Node pos="r" depth="1" NCoef="0" IVar="4" Cut="-7.0490694046020508e-01" cType="1" res="3.8734468398615718e-04" rms="4.8795521259307861e-01" purity="5.0071138143539429e-01" nType="0">
          <Node pos="l" depth="2" NCoef="0" IVar="-1" Cut="0.0000000000000000e+00" cType="1" res="-9.2581845819950104e-04" rms="4.8599472641944885e-01" purity="4.6994698047637939e-01" nType="-99"/>
          <Node pos="r" depth="2" NCoef="0" IVar="-1" Cut="0.0000000000000000e+00" cType="1" res="4.2574835242703557e-04" rms="4.8866933584213257e-01" purity="5.1223814487457275e-01" nType="-99"/>
        </Node>
      </Node>
    </BinaryTree>
    <BinaryTree type="DecisionTree" boostWeight="1.0000000000000000e+00" itree="475">
      <Node pos="s" depth="0" NCoef="0" IVar="1" Cut="3.0000000000000000e+00" cType="1" res="-8.8651833357289433e-04" rms="3.0215835571289062e-01" purity="4.9832075834274292e-01" nType="0">
        <Node pos="l" depth="1" NCoef="0" IVar="2" Cut="2.0000000000000000e+00" cType="1" res="5.4526742314919829e-04" rms="1.7361725866794586e-01" purity="5.0122749805450439e-01" nType="0">
          <Node pos="l" depth="2" NCoef="0" IVar="-1" Cut="0.0000000000000000e+00" cType="1" res="-7.5392471626400948e-04" rms="4.8629218339920044e-01" purity="4.9068516492843628e-01" nType="-99"/>
          <Node pos="r" depth="2" NCoef="0" IVar="-1" Cut="0.0000000000000000e+00" cType="1" res="1.6814155969768763e-03" rms="4.9194553494453430e-01" purity="5.1407992839813232e-01" nType="-99"/>
        </Node>
        <Node pos="r" depth="1" NCoef="0" IVar="0" Cut="9.4058752059936523e+00" cType="1" res="-9.4369286671280861e-03" rms="4.8800161480903625e-01" purity="4.9293112754821777e-01" nType="0">
          <Node pos="l" depth="2" NCoef="0" IVar="-1" Cut="0.0000000000000000e+00" cType="1" res="-2.0950075704604387e-03" rms="4.9007353186607361e-01" purity="4.8813953995704651e-01" nType="-99"/>
          <Node pos="r" depth="2" NCoef="0" IVar="-1" Cut="0.0000000000000000e+00" cType="1" res="2.4548775982111692e-03" rms="4.8014509677886963e-01" purity="5.0982767343521118e-01" nType="-99"/>
        </Node>
      </Node>
    </BinaryTree>
    <BinaryTree type="DecisionTree" boostWeight="1.0000000000000000e+00" itree="476">
      <Node pos="s" depth="0" NCoef="0" IVar="0" Cut="8.4392223358154297e+00" cType="1" res="2.3597329854965210e-03" rms="4.8801544308662415e-01" purity="5.0198537111282349e-01" nType="0">
        <Node pos="l" depth="1" NCoef="0" IVar="3" Cut="-6.9598984718322754e-01" cType="1" res="1.6318522393703461e-02" rms="4.9524483084678650e-01" purity="5.2470690011978149e-01" nType="0">
          <Node pos="l" depth="2" NCoef="0" IVar="-1" Cut="0.0000000000000000e+00" cType="1" res="-1.8262209778185934e-04" rms="4.9842986464500427e-01" purity="4.7062093019485474e-01" nType="-99"/>
          <Node pos="r" depth="2" NCoef="0" IVar="-1" Cut="0.0000000000000000e+00" cType="1" res="3.3210264518857002e-03" rms="4.9141499400138855e-01" purity="5.7829076051712036e-01" nType="-99"/>
        </Node>
        <Node pos="r" depth="1" NCoef="0" IVar="4" Cut="8.9015781879425049e-01" cType="1" res="3.5826597013510764e-04" rms="4.8693728446960449e-01" purity="4.9872744083404541e-01" nType="0">
          <Node pos="l" depth="2" NCoef="0" IVar="-1" Cut="0.0000000000000000e+00" cType="1" res="-9.7919255495071411e-05" rms="4.8743113875389099e-01" purity="4.9612849950790405e-01" nType="-99"/>
          <Node pos="r" depth="2" NCoef="0" IVar="-1" Cut="0.0000000000000000e+00" cType="1" res="4.0513155981898308e-03" rms="4.7527402639389038e-01" purity="5.5691200494766235e-01" nType="-99"/>
        </Node>
      </Node>
    </BinaryTree>
    <BinaryTree type="DecisionTree" boostWeight="1.0000000000000000e+00" itree="477">
      <Node pos="s" depth="0" NCoef="0" IVar="5" Cut="-6.8945097923278809e-01" cType="1" res="9.8851724033011124e-06" rms="4.8753798007965088e-01" purity="4.9994570016860962e-01" nType="0">
        <Node pos="l" depth="1" NCoef="0" IVar="3" Cut="-8.9496403932571411e-01" cType="1" res="-1.7085494473576546e-02" rms="4.8769837617874146e-01" purity="4.7700390219688416e-01" nType="0">
          <Node pos="l" depth="2" NCoef="0" IVar="-1" Cut="0.0000000000000000e+00" cType="1" res="4.1897129267454147e-03" rms="4.7602611780166626e-01" purity="3.8975042104721069e-01" nType="-99"/>
          <Node pos="r" depth="2" NCoef="0" IVar="-1" Cut="0.0000000000000000e+00" cType="1" res="-5.2486709319055080e-03" rms="4.9104297161102295e-01" purity="5.0885218381881714e-01" nType="-99"/>
        </Node>
        <Node pos="r" depth="1" NCoef="0" IVar="3" Cut="8.0194199085235596e-01" cType="1" res="2.3974080104380846e-03" rms="4.8746785521507263e-01" purity="5.0314974784851074e-01" nType="0">
          <Node pos="l" depth="2" NCoef="0" IVar="-1" Cut="0.0000000000000000e+00" cType="1" res="-4.8274177243001759e-04" rms="4.9054047465324402e-01" purity="4.4434884190559387e-01" nType="-99"/>
          <Node pos="r" depth="2" NCoef="0" IVar="-1" Cut="0.0000000000000000e+00" cType="1" res="2.0412488374859095e-03" rms="4.8172613978385925e-01" purity="6.0906064510345459e-01" nType="-99"/>
        </Node>
      </Node>
    </BinaryTree>
    <BinaryTree type="DecisionTree" boostWeight="1.0000000000000000e+00" itree="478">
      <Node pos="s" depth="0" NCoef="0" IVar="0" Cut="8.3992376327514648e+00" cType="1" res="1.2988824164494872e-03" rms="4.8914113640785217e-01" purity="5.0270193815231323e-01" nType="0">
        <Node pos="l" depth="1" NCoef="0" IVar="0" Cut="8.1529979705810547e+00" cType="1" res="-1.5561600215733051e-02" rms="4.9764853715896606e-01" purity="4.9568000435829163e-01" nType="0">
          <Node pos="l" depth="2" NCoef="0" IVar="-1" Cut="0.0000000000000000e+00" cType="1" res="-1.1284316860837862e-04" rms="4.9945157766342163e-01" purity="4.9397164583206177e-01" nType="-99"/>
          <Node pos="r" depth="2" NCoef="0" IVar="-1" Cut="0.0000000000000000e+00" cType="1" res="-2.6205456815660000e-03" rms="4.9599349498748779e-01" purity="4.9697732925415039e-01" nType="-99"/>
        </Node>
        <Node pos="r" depth="1" NCoef="0" IVar="4" Cut="-7.9948288202285767e-01" cType="1" res="3.4405966289341450e-03" rms="4.8800817131996155e-01" purity="5.0359392166137695e-01" nType="0">
          <Node pos="l" depth="2" NCoef="0" IVar="-1" Cut="0.0000000000000000e+00" cType="1" res="2.8714959044009447e-03" rms="4.8332682251930237e-01" purity="4.8311957716941833e-01" nType="-99"/>
          <Node pos="r" depth="2" NCoef="0" IVar="-1" Cut="0.0000000000000000e+00" cType="1" res="2.1244076197035611e-04" rms="4.8880419135093689e-01" purity="5.0723779201507568e-01" nType="-99"/>
        </Node>
      </Node>
    </BinaryTree>
    <BinaryTree type="DecisionTree" boostWeight="1.0000000000000000e+00" itree="479">
      <Node pos="s" depth="0" NCoef="0" IVar="4" Cut="8.9021366834640503e-01" cType="1" res="-3.8361577317118645e-03" rms="4.8801288008689880e-01" purity="4.9719828367233276e-01" nType="0">
        <Node pos="l" depth="1" NCoef="0" IVar="4" Cut="8.0101370811462402e-01" cType="1" res="-2.7982683386653662e-03" rms="4.8884207010269165e-01" purity="4.9635088443756104e-01" nType="0">
          <Node pos="l" depth="2" NCoef="0" IVar="-1" Cut="0.0000000000000000e+00" cType="1" res="-7.3950929800048470e-04" rms="4.8968482017517090e-01" purity="4.9071538448333740e-01" nType="-99"/>
          <Node pos="r" depth="2" NCoef="0" IVar="-1" Cut="0.0000000000000000e+00" cType="1" res="2.0169347990304232e-03" rms="4.8189345002174377e-01" purity="5.4070216417312622e-01" nType="-99"/>
        </Node>
        <Node pos="r" depth="1" NCoef="0" IVar="-1" Cut="0.0000000000000000e+00" cType="1" res="-5.2022500894963741e-03" rms="4.6696922183036804e-01" purity="5.1754629611968994e-01" nType="-99"/>
      </Node>
    </BinaryTree>
    <BinaryTree type="DecisionTree" boostWeight="1.0000000000000000e+00" itree="480">
      <Node pos="s" depth="0" NCoef="0" IVar="5" Cut="-7.8418982028961182e-01" cType="1" res="1.2405902089085430e-04" rms="4.8760905861854553e-01" purity="5.0062596797943115e-01" nType="0">
        <Node pos="l" depth="1" NCoef="0" IVar="5" Cut="-8.3714991807937622e-01" cType="1" res="-2.2070754319429398e-02" rms="4.8380848765373230e-01" purity="4.7379174828529358e-01" nType="0">
          <Node pos="l" depth="2" NCoef="0" IVar="-1" Cut="0.0000000000000000e+00" cType="1" res="-1.1080106487497687e-03" rms="4.8668605089187622e-01" purity="4.8997768759727478e-01" nType="-99"/>
          <Node pos="r" depth="2" NCoef="0" IVar="-1" Cut="0.0000000000000000e+00" cType="1" res="-5.6941118091344833e-03" rms="4.8127025365829468e-01" purity="4.6154302358627319e-01" nType="-99"/>
        </Node>
        <Node pos="r" depth="1" NCoef="0" IVar="3" Cut="8.9697962999343872e-01" cType="1" res="1.4995738165453076e-03" rms="4.8781040310859680e-01" purity="5.0228893756866455e-01" nType="0">
          <Node pos="l" depth="2" NCoef="0" IVar="-1" Cut="0.0000000000000000e+00" cType="1" res="-1.4943588757887483e-04" rms="4.9210333824157715e-01" purity="4.7069275379180908e-01" nType="-99"/>
          <Node pos="r" depth="2" NCoef="0" IVar="-1" Cut="0.0000000000000000e+00" cType="1" res="2.6847186964005232e-03" rms="4.6459910273551941e-01" purity="6.6683971881866455e-01" nType="-99"/>
        </Node>
      </Node>
    </BinaryTree>
    <BinaryTree type="DecisionTree" boostWeight="1.0000000000000000e+00" itree="481">
      <Node pos="s" depth="0" NCoef="0" IVar="0" Cut="9.8705482482910156e+00" cType="1" res="-3.1063947826623917e-03" rms="4.8808851838111877e-01" purity="4.9675142765045166e-01" nType="0">
        <Node pos="l" depth="1" NCoef="0" IVar="0" Cut="8.4654741287231445e+00" cType="1" res="-2.0889851730316877e-03" rms="4.8880624771118164e-01" purity="4.9832516908645630e-01" nType="0">
          <Node pos="l" depth="2" NCoef="0" IVar="-1" Cut="0.0000000000000000e+00" cType="1" res="-1.1918208329007030e-03" rms="4.9610674381256104e-01" purity="4.9552267789840698e-01" nType="-99"/>
          <Node pos="r" depth="2" NCoef="0" IVar="-1" Cut="0.0000000000000000e+00" cType="1" res="-8.2772756286431104e-05" rms="4.8755520582199097e-01" purity="4.9879419803619385e-01" nType="-99"/>
        </Node>
        <Node pos="r" depth="1" NCoef="0" IVar="-1" Cut="0.0000000000000000e+00" cType="1" res="-9.3581620603799820e-03" rms="4.7038775682449341e-01" purity="4.5999273657798767e-01" nType="-99"/>
      </Node>
    </BinaryTree>
    <BinaryTree type="DecisionTree" boostWeight="1.0000000000000000e+00" itree="482">
      <Node pos="s" depth="0" NCoef="0" IVar="4" Cut="8.8987272977828979e-01" cType="1" res="7.6621695188805461e-04" rms="4.8835161328315735e-01" purity="5.0063693523406982e-01" nType="0">
        <Node pos="l" depth="1" NCoef="0" IVar="4" Cut="-8.0804443359375000e-01" cType="1" res="-2.6907946448773146e-04" rms="4.8890301585197449e-01" purity="4.9762845039367676e-01" nType="0">
          <Node pos="l" depth="2" NCoef="0" IVar="-1" Cut="0.0000000000000000e+00" cType="1" res="2.2986799012869596e-03" rms="4.8165082931518555e-01" purity="4.8000094294548035e-01" nType="-99"/>
          <Node pos="r" depth="2" NCoef="0" IVar="-1" Cut="0.0000000000000000e+00" cType="1" res="-3.9617423317395151e-04" rms="4.9006021022796631e-01" purity="5.0055581331253052e-01" nType="-99"/>
        </Node>
        <Node pos="r" depth="1" NCoef="0" IVar="-1" Cut="0.0000000000000000e+00" cType="1" res="4.7162794508039951e-03" rms="4.7466111183166504e-01" purity="5.7084643840789795e-01" nType="-99"/>
      </Node>
    </BinaryTree>
    <BinaryTree type="DecisionTree" boostWeight="1.0000000000000000e+00" itree="483">
      <Node pos="s" depth="0" NCoef="0" IVar="0" Cut="8.3911418914794922e+00" cType="1" res="3.7078987807035446e-03" rms="4.8737907409667969e-01" purity="5.0345307588577271e-01" nType="0">
        <Node pos="l" depth="1" NCoef="0" IVar="2" Cut="2.0000000000000000e+00" cType="1" res="3.8688849599566311e-05" rms="1.3793283142149448e-02" purity="5.3498810529708862e-01" nType="0">
          <Node pos="l" depth="2" NCoef="0" IVar="-1" Cut="0.0000000000000000e+00" cType="1" res="2.6409430429339409e-03" rms="4.9641323089599609e-01" purity="5.3823912143707275e-01" nType="-99"/>
          <Node pos="r" depth="2" NCoef="0" IVar="-1" Cut="0.0000000000000000e+00" cType="1" res="3.3807754516601562e-03" rms="4.9784636497497559e-01" purity="5.3023612499237061e-01" nType="-99"/>
        </Node>
        <Node pos="r" depth="1" NCoef="0" IVar="3" Cut="-8.9636623859405518e-01" cType="1" res="5.7953968644142151e-04" rms="4.8611548542976379e-01" purity="4.9966102838516235e-01" nType="0">
          <Node pos="l" depth="2" NCoef="0" IVar="-1" Cut="0.0000000000000000e+00" cType="1" res="-3.5149874165654182e-03" rms="4.6388220787048340e-01" purity="3.2998967170715332e-01" nType="-99"/>
          <Node pos="r" depth="2" NCoef="0" IVar="-1" Cut="0.0000000000000000e+00" cType="1" res="7.8553968342021108e-04" rms="4.9078857898712158e-01" purity="5.3709375858306885e-01" nType="-99"/>
        </Node>
      </Node>
    </BinaryTree>
    <BinaryTree type="DecisionTree" boostWeight="1.0000000000000000e+00" itree="484">
      <Node pos="s" depth="0" NCoef="0" IVar="0" Cut="8.4704437255859375e+00" cType="1" res="2.8084942605346441e-03" rms="4.8760300874710083e-01" purity="5.0224137306213379e-01" nType="0">
        <Node pos="l" depth="1" NCoef="0" IVar="3" Cut="-7.9443371295928955e-01" cType="1" res="-1.2945974245667458e-02" rms="4.9754476547241211e-01" purity="4.9433687329292297e-01" nType="0">
          <Node pos="l" depth="2" NCoef="0" IVar="-1" Cut="0.0000000000000000e+00" cType="1" res="4.2985304025933146e-04" rms="4.9797663092613220e-01" purity="4.6595820784568787e-01" nType="-99"/>
          <Node pos="r" depth="2" NCoef="0" IVar="-1" Cut="0.0000000000000000e+00" cType="1" res="-2.2234758362174034e-03" rms="4.9703994393348694e-01" purity="5.1018476486206055e-01" nType="-99"/>
        </Node>
        <Node pos="r" depth="1" NCoef="0" IVar="1" Cut="5.0000000000000000e+00" cType="1" res="4.8079974949359894e-03" rms="4.8001947999000549e-01" purity="5.0349491834640503e-01" nType="0">
          <Node pos="l" depth="2" NCoef="0" IVar="-1" Cut="0.0000000000000000e+00" cType="1" res="6.8335037212818861e-04" rms="4.8621186614036560e-01" purity="5.0120383501052856e-01" nType="-99"/>
          <Node pos="r" depth="2" NCoef="0" IVar="-1" Cut="0.0000000000000000e+00" cType="1" res="5.9579350054264069e-03" rms="4.8018488287925720e-01" purity="5.4835420846939087e-01" nType="-99"/>
        </Node>
      </Node>
    </BinaryTree>
    <BinaryTree type="DecisionTree" boostWeight="1.0000000000000000e+00" itree="485">
      <Node pos="s" depth="0" NCoef="0" IVar="0" Cut="8.1446762084960938e+00" cType="1" res="-3.5885328543372452e-04" rms="4.8819449543952942e-01" purity="4.9982002377510071e-01" nType="0">
        <Node pos="l" depth="1" NCoef="0" IVar="-1" Cut="0.0000000000000000e+00" cType="1" res="1.9327185582369566e-03" rms="4.9987486004829407e-01" purity="5.1401025056838989e-01" nType="-99"/>
        <Node pos="r" depth="1" NCoef="0" IVar="2" Cut="2.0000000000000000e+00" cType="1" res="6.8729469785466790e-04" rms="3.8898965716362000e-01" purity="4.9915012717247009e-01" nType="0">
          <Node pos="l" depth="2" NCoef="0" IVar="-1" Cut="0.0000000000000000e+00" cType="1" res="3.7814024835824966e-04" rms="4.8659765720367432e-01" purity="5.0087213516235352e-01" nType="-99"/>
          <Node pos="r" depth="2" NCoef="0" IVar="-1" Cut="0.0000000000000000e+00" cType="1" res="-1.0482770157977939e-03" rms="4.8894557356834412e-01" purity="4.9682947993278503e-01" nType="-99"/>
        </Node>
      </Node>
    </BinaryTree>
    <BinaryTree type="DecisionTree" boostWeight="1.0000000000000000e+00" itree="486">
      <Node pos="s" depth="0" NCoef="0" IVar="2" Cut="2.0000000000000000e+00" cType="1" res="-1.7489408492110670e-04" rms="2.9374958947300911e-02" purity="4.9849948287010193e-01" nType="0">
        <Node pos="l" depth="1" NCoef="0" IVar="1" Cut="5.0000000000000000e+00" cType="1" res="-1.7586791655048728e-03" rms="1.0864772647619247e-01" purity="4.9382340908050537e-01" nType="0">
          <Node pos="l" depth="2" NCoef="0" IVar="-1" Cut="0.0000000000000000e+00" cType="1" res="-1.1363085359334946e-03" rms="4.8557695746421814e-01" purity="4.9079167842864990e-01" nType="-99"/>
          <Node pos="r" depth="2" NCoef="0" IVar="-1" Cut="0.0000000000000000e+00" cType="1" res="3.2757271546870470e-03" rms="4.8271104693412781e-01" purity="5.4608470201492310e-01" nType="-99"/>
        </Node>
        <Node pos="r" depth="1" NCoef="0" IVar="1" Cut="3.0000000000000000e+00" cType="1" res="1.9919944461435080e-03" rms="2.4942454695701599e-01" purity="5.0487446784973145e-01" nType="0">
          <Node pos="l" depth="2" NCoef="0" IVar="-1" Cut="0.0000000000000000e+00" cType="1" res="1.4709789538756013e-03" rms="4.9141019582748413e-01" purity="5.1277011632919312e-01" nType="-99"/>
          <Node pos="r" depth="2" NCoef="0" IVar="-1" Cut="0.0000000000000000e+00" cType="1" res="-1.2655684258788824e-03" rms="4.9103036522865295e-01" purity="4.8796561360359192e-01" nType="-99"/>
        </Node>
      </Node>
    </BinaryTree>
    <BinaryTree type="DecisionTree" boostWeight="1.0000000000000000e+00" itree="487">
      <Node pos="s" depth="0" NCoef="0" IVar="0" Cut="8.4704437255859375e+00" cType="1" res="1.3108302373439074e-03" rms="4.8896506428718567e-01" purity="5.0139361619949341e-01" nType="0">
        <Node pos="l" depth="1" NCoef="0" IVar="3" Cut="-6.9381773471832275e-01" cType="1" res="-1.1255903169512749e-02" rms="4.9872440099716187e-01" purity="4.9626392126083374e-01" nType="0">
          <Node pos="l" depth="2" NCoef="0" IVar="-1" Cut="0.0000000000000000e+00" cType="1" res="6.8936613388359547e-04" rms="4.9822670221328735e-01" purity="4.7840556502342224e-01" nType="-99"/>
          <Node pos="r" depth="2" NCoef="0" IVar="-1" Cut="0.0000000000000000e+00" cType="1" res="-3.0523659661412239e-03" rms="4.9855339527130127e-01" purity="5.1439839601516724e-01" nType="-99"/>
        </Node>
        <Node pos="r" depth="1" NCoef="0" IVar="0" Cut="9.1657772064208984e+00" cType="1" res="3.3098992425948381e-03" rms="4.8736470937728882e-01" purity="5.0220966339111328e-01" nType="0">
          <Node pos="l" depth="2" NCoef="0" IVar="-1" Cut="0.0000000000000000e+00" cType="1" res="1.3531675795093179e-03" rms="4.9128377437591553e-01" purity="5.0842285156250000e-01" nType="-99"/>
          <Node pos="r" depth="2" NCoef="0" IVar="-1" Cut="0.0000000000000000e+00" cType="1" res="-7.4350385693833232e-04" rms="4.8296830058097839e-01" purity="4.9543201923370361e-01" nType="-99"/>
        </Node>
      </Node>
    </BinaryTree>
    <BinaryTree type="DecisionTree" boostWeight="1.0000000000000000e+00" itree="488">
      <Node pos="s" depth="0" NCoef="0" IVar="0" Cut="8.7360563278198242e+00" cType="1" res="1.2388699688017368e-03" rms="4.8878943920135498e-01" purity="5.0224798917770386e-01" nType="0">
        <Node pos="l" depth="1" NCoef="0" IVar="3" Cut="-7.8841477632522583e-01" cType="1" res="-8.8208196684718132e-03" rms="4.9505436420440674e-01" purity="4.9684950709342957e-01" nType="0">
          <Node pos="l" depth="2" NCoef="0" IVar="-1" Cut="0.0000000000000000e+00" cType="1" res="1.3074526796117425e-03" rms="4.9457308650016785e-01" purity="4.6406653523445129e-01" nType="-99"/>
          <Node pos="r" depth="2" NCoef="0" IVar="-1" Cut="0.0000000000000000e+00" cType="1" res="-2.3000747896730900e-03" rms="4.9492958188056946e-01" purity="5.1628994941711426e-01" nType="-99"/>
        </Node>
        <Node pos="r" depth="1" NCoef="0" IVar="3" Cut="8.9573132991790771e-01" cType="1" res="4.7570439055562019e-03" rms="4.8653030395507812e-01" purity="5.0413608551025391e-01" nType="0">
          <Node pos="l" depth="2" NCoef="0" IVar="-1" Cut="0.0000000000000000e+00" cType="1" res="1.5677866758778691e-03" rms="4.9030441045761108e-01" purity="4.6987873315811157e-01" nType="-99"/>
          <Node pos="r" depth="2" NCoef="0" IVar="-1" Cut="0.0000000000000000e+00" cType="1" res="-2.3402094375342131e-03" rms="4.7049343585968018e-01" purity="6.4392435550689697e-01" nType="-99"/>
        </Node>
      </Node>
    </BinaryTree>
    <BinaryTree type="DecisionTree" boostWeight="1.0000000000000000e+00" itree="489">
      <Node pos="s" depth="0" NCoef="0" IVar="3" Cut="8.9730155467987061e-01" cType="1" res="-1.4024238334968686e-03" rms="4.8943969607353210e-01" purity="4.9925982952117920e-01" nType="0">
        <Node pos="l" depth="1" NCoef="0" IVar="0" Cut="8.2692956924438477e+00" cType="1" res="1.7591395881026983e-03" rms="4.9256956577301025e-01" purity="4.7233444452285767e-01" nType="0">
          <Node pos="l" depth="2" NCoef="0" IVar="-1" Cut="0.0000000000000000e+00" cType="1" res="2.8337584808468819e-03" rms="4.9686378240585327e-01" purity="5.1534086465835571e-01" nType="-99"/>
          <Node pos="r" depth="2" NCoef="0" IVar="-1" Cut="0.0000000000000000e+00" cType="1" res="-9.4692979473620653e-05" rms="4.9212303757667542e-01" purity="4.6858343482017517e-01" nType="-99"/>
        </Node>
        <Node pos="r" depth="1" NCoef="0" IVar="0" Cut="9.5004148483276367e+00" cType="1" res="-1.6737882047891617e-02" rms="4.7366547584533691e-01" purity="6.2986385822296143e-01" nType="0">
          <Node pos="l" depth="2" NCoef="0" IVar="-1" Cut="0.0000000000000000e+00" cType="1" res="-3.9378171786665916e-03" rms="4.8037070035934448e-01" purity="6.1113041639328003e-01" nType="-99"/>
          <Node pos="r" depth="2" NCoef="0" IVar="-1" Cut="0.0000000000000000e+00" cType="1" res="2.6607082691043615e-03" rms="4.4788932800292969e-01" purity="6.9710969924926758e-01" nType="-99"/>
        </Node>
      </Node>
    </BinaryTree>
    <BinaryTree type="DecisionTree" boostWeight="1.0000000000000000e+00" itree="490">
      <Node pos="s" depth="0" NCoef="0" IVar="0" Cut="9.4886407852172852e+00" cType="1" res="1.5779687964823097e-04" rms="4.8877933621406555e-01" purity="5.0032484531402588e-01" nType="0">
        <Node pos="l" depth="1" NCoef="0" IVar="4" Cut="-8.9140421152114868e-01" cType="1" res="2.3006575647741556e-03" rms="4.9138316512107849e-01" purity="5.0365459918975830e-01" nType="0">
          <Node pos="l" depth="2" NCoef="0" IVar="-1" Cut="0.0000000000000000e+00" cType="1" res="5.8410926721990108e-03" rms="4.7703978419303894e-01" purity="4.8660260438919067e-01" nType="-99"/>
          <Node pos="r" depth="2" NCoef="0" IVar="-1" Cut="0.0000000000000000e+00" cType="1" res="1.6919292102102190e-04" rms="4.9184173345565796e-01" purity="5.0425422191619873e-01" nType="-99"/>
        </Node>
        <Node pos="r" depth="1" NCoef="0" IVar="4" Cut="-7.0171338319778442e-01" cType="1" res="-1.0025965049862862e-02" rms="4.7607854008674622e-01" purity="4.8450049757957458e-01" nType="0">
          <Node pos="l" depth="2" NCoef="0" IVar="-1" Cut="0.0000000000000000e+00" cType="1" res="-7.5191524811089039e-03" rms="4.7240495681762695e-01" purity="4.4266045093536377e-01" nType="-99"/>
          <Node pos="r" depth="2" NCoef="0" IVar="-1" Cut="0.0000000000000000e+00" cType="1" res="-1.0479731718078256e-03" rms="4.7731167078018188e-01" purity="5.0029933452606201e-01" nType="-99"/>
        </Node>
      </Node>
    </BinaryTree>
    <BinaryTree type="DecisionTree" boostWeight="1.0000000000000000e+00" itree="491">
      <Node pos="s" depth="0" NCoef="0" IVar="5" Cut="4.9720384180545807e-02" cType="1" res="3.0488155316561460e-03" rms="4.8822000622749329e-01" purity="5.0368344783782959e-01" nType="0">
        <Node pos="l" depth="1" NCoef="0" IVar="0" Cut="8.7189750671386719e+00" cType="1" res="4.7418917529284954e-03" rms="4.8898953199386597e-01" purity="5.0437539815902710e-01" nType="0">
          <Node pos="l" depth="2" NCoef="0" IVar="-1" Cut="0.0000000000000000e+00" cType="1" res="1.3110404834151268e-03" rms="4.9549177289009094e-01" purity="5.1723611354827881e-01" nType="-99"/>
          <Node pos="r" depth="2" NCoef="0" IVar="-1" Cut="0.0000000000000000e+00" cType="1" res="4.2311608558520675e-04" rms="4.8672398924827576e-01" purity="4.9998399615287781e-01" nType="-99"/>
        </Node>
        <Node pos="r" depth="1" NCoef="0" IVar="3" Cut="8.9259994029998779e-01" cType="1" res="-8.5375588387250900e-03" rms="4.8276156187057495e-01" purity="4.9894809722900391e-01" nType="0">
          <Node pos="l" depth="2" NCoef="0" IVar="-1" Cut="0.0000000000000000e+00" cType="1" res="-3.0421502888202667e-03" rms="4.8875361680984497e-01" purity="4.3417882919311523e-01" nType="-99"/>
          <Node pos="r" depth="2" NCoef="0" IVar="-1" Cut="0.0000000000000000e+00" cType="1" res="3.7703525740653276e-03" rms="4.6577405929565430e-01" purity="6.6598224639892578e-01" nType="-99"/>
        </Node>
      </Node>
    </BinaryTree>
    <BinaryTree type="DecisionTree" boostWeight="1.0000000000000000e+00" itree="492">
      <Node pos="s" depth="0" NCoef="0" IVar="5" Cut="5.1539145410060883e-02" cType="1" res="-2.5643445551395416e-03" rms="4.8775807023048401e-01" purity="4.9789223074913025e-01" nType="0">
        <Node pos="l" depth="1" NCoef="0" IVar="4" Cut="8.9015781879425049e-01" cType="1" res="-5.1647974178195000e-03" rms="4.8814812302589417e-01" purity="4.9428653717041016e-01" nType="0">
          <Node pos="l" depth="2" NCoef="0" IVar="-1" Cut="0.0000000000000000e+00" cType="1" res="-6.3108716858550906e-04" rms="4.8844879865646362e-01" purity="4.9409109354019165e-01" nType="-99"/>
          <Node pos="r" depth="2" NCoef="0" IVar="-1" Cut="0.0000000000000000e+00" cType="1" res="-7.1803978644311428e-03" rms="4.7762066125869751e-01" purity="5.0022208690643311e-01" nType="-99"/>
        </Node>
        <Node pos="r" depth="1" NCoef="0" IVar="0" Cut="9.2690505981445312e+00" cType="1" res="1.5386326238512993e-02" rms="4.8467671871185303e-01" purity="5.2278208732604980e-01" nType="0">
          <Node pos="l" depth="2" NCoef="0" IVar="-1" Cut="0.0000000000000000e+00" cType="1" res="3.2946665305644274e-03" rms="4.8975661396980286e-01" purity="5.3092157840728760e-01" nType="-99"/>
          <Node pos="r" depth="2" NCoef="0" IVar="-1" Cut="0.0000000000000000e+00" cType="1" res="-6.8272557109594345e-04" rms="4.7352144122123718e-01" purity="5.0600230693817139e-01" nType="-99"/>
        </Node>
      </Node>
    </BinaryTree>
    <BinaryTree type="DecisionTree" boostWeight="1.0000000000000000e+00" itree="493">
      <Node pos="s" depth="0" NCoef="0" IVar="1" Cut="4.0000000000000000e+00" cType="1" res="-4.9355305964127183e-04" rms="3.9210101962089539e-01" purity="4.9914336204528809e-01" nType="0">
        <Node pos="l" depth="1" NCoef="0" IVar="2" Cut="3.0000000000000000e+00" cType="1" res="-4.8950675409287214e-04" rms="1.7463606595993042e-01" purity="4.9637237191200256e-01" nType="0">
          <Node pos="l" depth="2" NCoef="0" IVar="-1" Cut="0.0000000000000000e+00" cType="1" res="-2.8064611251465976e-04" rms="4.8835834860801697e-01" purity="4.9695372581481934e-01" nType="-99"/>
          <Node pos="r" depth="2" NCoef="0" IVar="-1" Cut="0.0000000000000000e+00" cType="1" res="-3.0346820130944252e-03" rms="4.9070209264755249e-01" purity="4.9179691076278687e-01" nType="-99"/>
        </Node>
        <Node pos="r" depth="1" NCoef="0" IVar="5" Cut="-6.9304913282394409e-01" cType="1" res="1.1602329090237617e-02" rms="4.8623517155647278e-01" purity="5.1644748449325562e-01" nType="0">
          <Node pos="l" depth="2" NCoef="0" IVar="-1" Cut="0.0000000000000000e+00" cType="1" res="-1.7744128126651049e-03" rms="4.8424553871154785e-01" purity="4.8478749394416809e-01" nType="-99"/>
          <Node pos="r" depth="2" NCoef="0" IVar="-1" Cut="0.0000000000000000e+00" cType="1" res="3.4402180463075638e-03" rms="4.8677790164947510e-01" purity="5.3024500608444214e-01" nType="-99"/>
        </Node>
      </Node>
    </BinaryTree>
    <BinaryTree type="DecisionTree" boostWeight="1.0000000000000000e+00" itree="494">
      <Node pos="s" depth="0" NCoef="0" IVar="3" Cut="8.0286270380020142e-01" cType="1" res="-3.0397900845855474e-03" rms="4.8901507258415222e-01" purity="4.9659448862075806e-01" nType="0">
        <Node pos="l" depth="1" NCoef="0" IVar="0" Cut="9.6210384368896484e+00" cType="1" res="2.0184486638754606e-03" rms="4.9056175351142883e-01" purity="4.4582891464233398e-01" nType="0">
          <Node pos="l" depth="2" NCoef="0" IVar="-1" Cut="0.0000000000000000e+00" cType="1" res="6.7210773704573512e-04" rms="4.9218511581420898e-01" purity="4.5386376976966858e-01" nType="-99"/>
          <Node pos="r" depth="2" NCoef="0" IVar="-1" Cut="0.0000000000000000e+00" cType="1" res="-5.4379524663090706e-03" rms="4.7658145427703857e-01" purity="3.8030722737312317e-01" nType="-99"/>
        </Node>
        <Node pos="r" depth="1" NCoef="0" IVar="3" Cut="8.7478566169738770e-01" cType="1" res="-1.1556815356016159e-02" rms="4.8628079891204834e-01" purity="5.8207315206527710e-01" nType="0">
          <Node pos="l" depth="2" NCoef="0" IVar="-1" Cut="0.0000000000000000e+00" cType="1" res="-3.8003891240805387e-03" rms="4.9911898374557495e-01" purity="5.2180129289627075e-01" nType="-99"/>
          <Node pos="r" depth="2" NCoef="0" IVar="-1" Cut="0.0000000000000000e+00" cType="1" res="-3.8768624654039741e-04" rms="4.7739440202713013e-01" purity="6.2182229757308960e-01" nType="-99"/>
        </Node>
      </Node>
    </BinaryTree>
    <BinaryTree type="DecisionTree" boostWeight="1.0000000000000000e+00" itree="495">
      <Node pos="s" depth="0" NCoef="0" IVar="0" Cut="8.1768674850463867e+00" cType="1" res="1.0822280310094357e-03" rms="4.8852825164794922e-01" purity="5.0179255008697510e-01" nType="0">
        <Node pos="l" depth="1" NCoef="0" IVar="-1" Cut="0.0000000000000000e+00" cType="1" res="2.0996371749788523e-03" rms="4.9885159730911255e-01" purity="5.1523095369338989e-01" nType="-99"/>
        <Node pos="r" depth="1" NCoef="0" IVar="0" Cut="9.0770320892333984e+00" cType="1" res="-9.6823445346672088e-05" rms="4.8790320754051208e-01" purity="5.0102174282073975e-01" nType="0">
          <Node pos="l" depth="2" NCoef="0" IVar="-1" Cut="0.0000000000000000e+00" cType="1" res="-6.0024985577911139e-04" rms="4.9176645278930664e-01" purity="4.9922963976860046e-01" nType="-99"/>
          <Node pos="r" depth="2" NCoef="0" IVar="-1" Cut="0.0000000000000000e+00" cType="1" res="9.0671028010547161e-04" rms="4.8421761393547058e-01" purity="5.0270074605941772e-01" nType="-99"/>
        </Node>
      </Node>
    </BinaryTree>
    <BinaryTree type="DecisionTree" boostWeight="1.0000000000000000e+00" itree="496">
      <Node pos="s" depth="0" NCoef="0" IVar="0" Cut="8.7015762329101562e+00" cType="1" res="-5.9565305709838867e-03" rms="4.8821696639060974e-01" purity="4.9472394585609436e-01" nType="0">
        <Node pos="l" depth="1" NCoef="0" IVar="0" Cut="8.1518526077270508e+00" cType="1" res="-1.4337814413011074e-02" rms="4.9418038129806519e-01" purity="4.9265655875205994e-01" nType="0">
          <Node pos="l" depth="2" NCoef="0" IVar="-1" Cut="0.0000000000000000e+00" cType="1" res="-2.8030748944729567e-03" rms="4.9799525737762451e-01" purity="4.6782040596008301e-01" nType="-99"/>
          <Node pos="r" depth="2" NCoef="0" IVar="-1" Cut="0.0000000000000000e+00" cType="1" res="-1.1763543589040637e-03" rms="4.9317216873168945e-01" purity="4.9873337149620056e-01" nType="-99"/>
        </Node>
        <Node pos="r" depth="1" NCoef="0" IVar="5" Cut="4.4950645416975021e-02" cType="1" res="-3.2922241371124983e-03" rms="4.8627567291259766e-01" purity="4.9538108706474304e-01" nType="0">
          <Node pos="l" depth="2" NCoef="0" IVar="-1" Cut="0.0000000000000000e+00" cType="1" res="-2.5193867622874677e-04" rms="4.8671856522560120e-01" purity="4.9605706334114075e-01" nType="-99"/>
          <Node pos="r" depth="2" NCoef="0" IVar="-1" Cut="0.0000000000000000e+00" cType="1" res="-3.1211299356073141e-03" rms="4.8310577869415283e-01" purity="4.9086618423461914e-01" nType="-99"/>
        </Node>
      </Node>
    </BinaryTree>
    <BinaryTree type="DecisionTree" boostWeight="1.0000000000000000e+00" itree="497">
      <Node pos="s" depth="0" NCoef="0" IVar="3" Cut="-7.0749557018280029e-01" cType="1" res="-8.5191021207720041e-04" rms="4.8839315772056580e-01" purity="4.9902060627937317e-01" nType="0">
        <Node pos="l" depth="1" NCoef="0" IVar="5" Cut="5.0641696900129318e-02" cType="1" res="-4.7911303117871284e-03" rms="4.8808407783508301e-01" purity="4.2236986756324768e-01" nType="0">
          <Node pos="l" depth="2" NCoef="0" IVar="-1" Cut="0.0000000000000000e+00" cType="1" res="-1.2437113327905536e-03" rms="4.8766544461250305e-01" purity="4.1994315385818481e-01" nType="-99"/>
          <Node pos="r" depth="2" NCoef="0" IVar="-1" Cut="0.0000000000000000e+00" cType="1" res="2.3349488619714975e-03" rms="4.9030855298042297e-01" purity="4.3795612454414368e-01" nType="-99"/>
        </Node>
        <Node pos="r" depth="1" NCoef="0" IVar="0" Cut="8.8384904861450195e+00" cType="1" res="2.9903133399784565e-03" rms="4.8866385221481323e-01" purity="5.7378393411636353e-01" nType="0">
          <Node pos="l" depth="2" NCoef="0" IVar="-1" Cut="0.0000000000000000e+00" cType="1" res="1.6406890936195850e-03" rms="4.9186050891876221e-01" purity="5.6350028514862061e-01" nType="-99"/>
          <Node pos="r" depth="2" NCoef="0" IVar="-1" Cut="0.0000000000000000e+00" cType="1" res="-4.9789377953857183e-04" rms="4.8702520132064819e-01" purity="5.7872641086578369e-01" nType="-99"/>
        </Node>
      </Node>
    </BinaryTree>
    <BinaryTree type="DecisionTree" boostWeight="1.0000000000000000e+00" itree="498">
      <Node pos="s" depth="0" NCoef="0" IVar="0" Cut="9.0421190261840820e+00" cType="1" res="2.3779619950801134e-03" rms="4.8799851536750793e-01" purity="5.0180727243423462e-01" nType="0">
        <Node pos="l" depth="1" NCoef="0" IVar="3" Cut="-7.9962879419326782e-01" cType="1" res="6.1923125758767128e-03" rms="4.9368870258331299e-01" purity="5.0746256113052368e-01" nType="0">
          <Node pos="l" depth="2" NCoef="0" IVar="-1" Cut="0.0000000000000000e+00" cType="1" res="2.3506998550146818e-03" rms="4.9402198195457458e-01" purity="4.5199477672576904e-01" nType="-99"/>
          <Node pos="r" depth="2" NCoef="0" IVar="-1" Cut="0.0000000000000000e+00" cType="1" res="-1.5780812827870250e-04" rms="4.9334418773651123e-01" purity="5.3875166177749634e-01" nType="-99"/>
        </Node>
        <Node pos="r" depth="1" NCoef="0" IVar="0" Cut="9.3776321411132812e+00" cType="1" res="-1.2256077025085688e-03" rms="4.8253342509269714e-01" purity="4.9646463990211487e-01" nType="0">
          <Node pos="l" depth="2" NCoef="0" IVar="-1" Cut="0.0000000000000000e+00" cType="1" res="-1.5058793360367417e-03" rms="4.8675557971000671e-01" purity="4.9312192201614380e-01" nType="-99"/>
          <Node pos="r" depth="2" NCoef="0" IVar="-1" Cut="0.0000000000000000e+00" cType="1" res="1.5862133586779237e-03" rms="4.7784850001335144e-01" purity="5.0005477666854858e-01" nType="-99"/>
        </Node>
      </Node>
    </BinaryTree>
    <BinaryTree type="DecisionTree" boostWeight="1.0000000000000000e+00" itree="499">
      <Node pos="s" depth="0" NCoef="0" IVar="0" Cut="9.4886407852172852e+00" cType="1" res="-1.7192522063851357e-03" rms="4.8792576789855957e-01" purity="4.9932834506034851e-01" nType="0">
        <Node pos="l" depth="1" NCoef="0" IVar="1" Cut="3.0000000000000000e+00" cType="1" res="-1.7448165453970432e-04" rms="3.2512169331312180e-02" purity="4.9846148490905762e-01" nType="0">
          <Node pos="l" depth="2" NCoef="0" IVar="-1" Cut="0.0000000000000000e+00" cType="1" res="-1.0722099104896188e-03" rms="4.9084496498107910e-01" purity="4.9475166201591492e-01" nType="-99"/>
          <Node pos="r" depth="2" NCoef="0" IVar="-1" Cut="0.0000000000000000e+00" cType="1" res="3.6359293153509498e-04" rms="4.8823398351669312e-01" purity="5.0536555051803589e-01" nType="-99"/>
        </Node>
        <Node pos="r" depth="1" NCoef="0" IVar="2" Cut="2.0000000000000000e+00" cType="1" res="8.7223732843995094e-03" rms="4.4999322295188904e-01" purity="5.0339043140411377e-01" nType="0">
          <Node pos="l" depth="2" NCoef="0" IVar="-1" Cut="0.0000000000000000e+00" cType="1" res="-9.8814191005658358e-05" rms="4.7656127810478210e-01" purity="4.9193489551544189e-01" nType="-99"/>
          <Node pos="r" depth="2" NCoef="0" IVar="-1" Cut="0.0000000000000000e+00" cType="1" res="6.2279957346618176e-03" rms="4.8015427589416504e-01" purity="5.1980006694793701e-01" nType="-99"/>
        </Node>
      </Node>
    </BinaryTree>
    <BinaryTree type="DecisionTree" boostWeight="1.0000000000000000e+00" itree="500">
      <Node pos="s" depth="0" NCoef="0" IVar="0" Cut="8.2212305068969727e+00" cType="1" res="-4.3698139488697052e-03" rms="4.8794156312942505e-01" purity="4.9525633454322815e-01" nType="0">
        <Node pos="l" depth="1" NCoef="0" IVar="-1" Cut="0.0000000000000000e+00" cType="1" res="-2.3269406519830227e-03" rms="5.0067144632339478e-01" purity="4.6896821260452271e-01" nType="-99"/>
        <Node pos="r" depth="1" NCoef="0" IVar="0" Cut="8.5171127319335938e+00" cType="1" res="-3.1202395912259817e-03" rms="4.8707020282745361e-01" purity="4.9697789549827576e-01" nType="0">
          <Node pos="l" depth="2" NCoef="0" IVar="-1" Cut="0.0000000000000000e+00" cType="1" res="1.2313422048464417e-03" rms="4.9344357848167419e-01" purity="5.2751553058624268e-01" nType="-99"/>
          <Node pos="r" depth="2" NCoef="0" IVar="-1" Cut="0.0000000000000000e+00" cType="1" res="-8.4787682862952352e-04" rms="4.8634132742881775e-01" purity="4.9364328384399414e-01" nType="-99"/>
        </Node>
      </Node>
    </BinaryTree>
    <BinaryTree type="DecisionTree" boostWeight="1.0000000000000000e+00" itree="501">
      <Node pos="s" depth="0" NCoef="0" IVar="3" Cut="-8.9649742841720581e-01" cType="1" res="5.0763483159244061e-04" rms="4.8889312148094177e-01" purity="4.9997910857200623e-01" nType="0">
        <Node pos="l" depth="1" NCoef="0" IVar="3" Cut="-9.5944052934646606e-01" cType="1" res="1.1742325499653816e-02" rms="4.7304731607437134e-01" purity="3.6350569128990173e-01" nType="0">
          <Node pos="l" depth="2" NCoef="0" IVar="-1" Cut="0.0000000000000000e+00" cType="1" res="-5.4947077296674252e-03" rms="4.1700911521911621e-01" purity="2.3642936348915100e-01" nType="-99"/>
          <Node pos="r" depth="2" NCoef="0" IVar="-1" Cut="0.0000000000000000e+00" cType="1" res="3.4570549614727497e-03" rms="4.8428401350975037e-01" purity="3.9175471663475037e-01" nType="-99"/>
        </Node>
        <Node pos="r" depth="1" NCoef="0" IVar="3" Cut="-8.0658495426177979e-01" cType="1" res="-1.7766107339411974e-03" rms="4.9202108383178711e-01" purity="5.2772700786590576e-01" nType="0">
          <Node pos="l" depth="2" NCoef="0" IVar="-1" Cut="0.0000000000000000e+00" cType="1" res="-1.3720516581088305e-03" rms="4.9607405066490173e-01" purity="4.4742766022682190e-01" nType="-99"/>
          <Node pos="r" depth="2" NCoef="0" IVar="-1" Cut="0.0000000000000000e+00" cType="1" res="6.5394306147936732e-05" rms="4.9077716469764709e-01" purity="5.5182021856307983e-01" nType="-99"/>
        </Node>
      </Node>
    </BinaryTree>
    <BinaryTree type="DecisionTree" boostWeight="1.0000000000000000e+00" itree="502">
      <Node pos="s" depth="0" NCoef="0" IVar="4" Cut="-7.0385897159576416e-01" cType="1" res="5.4609416984021664e-03" rms="4.8860827088356018e-01" purity="5.0499469041824341e-01" nType="0">
        <Node pos="l" depth="1" NCoef="0" IVar="2" Cut="2.0000000000000000e+00" cType="1" res="-8.4982538828626275e-04" rms="1.1943798512220383e-01" purity="4.9193909764289856e-01" nType="0">
          <Node pos="l" depth="2" NCoef="0" IVar="-1" Cut="0.0000000000000000e+00" cType="1" res="4.1275029070675373e-03" rms="4.8548763990402222e-01" purity="5.0311869382858276e-01" nType="-99"/>
          <Node pos="r" depth="2" NCoef="0" IVar="-1" Cut="0.0000000000000000e+00" cType="1" res="1.2876052642241120e-04" rms="4.8428094387054443e-01" purity="4.7313418984413147e-01" nType="-99"/>
        </Node>
        <Node pos="r" depth="1" NCoef="0" IVar="4" Cut="7.4960660934448242e-01" cType="1" res="1.3094064779579639e-03" rms="4.8980936408042908e-01" purity="5.0985622406005859e-01" nType="0">
          <Node pos="l" depth="2" NCoef="0" IVar="-1" Cut="0.0000000000000000e+00" cType="1" res="-3.9095597458072007e-04" rms="4.9075883626937866e-01" purity="4.9825012683868408e-01" nType="-99"/>
          <Node pos="r" depth="2" NCoef="0" IVar="-1" Cut="0.0000000000000000e+00" cType="1" res="1.6217966331169009e-03" rms="4.8761242628097534e-01" purity="5.3534847497940063e-01" nType="-99"/>
        </Node>
      </Node>
    </BinaryTree>
    <BinaryTree type="DecisionTree" boostWeight="1.0000000000000000e+00" itree="503">
      <Node pos="s" depth="0" NCoef="0" IVar="0" Cut="8.1335945129394531e+00" cType="1" res="-1.5612822026014328e-03" rms="4.8825469613075256e-01" purity="4.9790936708450317e-01" nType="0">
        <Node pos="l" depth="1" NCoef="0" IVar="-1" Cut="0.0000000000000000e+00" cType="1" res="2.6017322670668364e-03" rms="5.0013870000839233e-01" purity="5.1853340864181519e-01" nType="-99"/>
        <Node pos="r" depth="1" NCoef="0" IVar="4" Cut="8.8959836959838867e-01" cType="1" res="-2.9861407820135355e-03" rms="4.8763418197631836e-01" purity="4.9692425131797791e-01" nType="0">
          <Node pos="l" depth="2" NCoef="0" IVar="-1" Cut="0.0000000000000000e+00" cType="1" res="-6.6407077247276902e-04" rms="4.8822584748268127e-01" purity="4.9406078457832336e-01" nType="-99"/>
          <Node pos="r" depth="2" NCoef="0" IVar="-1" Cut="0.0000000000000000e+00" cType="1" res="4.3639438226819038e-03" rms="4.7261288762092590e-01" purity="5.6514918804168701e-01" nType="-99"/>
        </Node>
      </Node>
    </BinaryTree>
    <BinaryTree type="DecisionTree" boostWeight="1.0000000000000000e+00" itree="504">
      <Node pos="s" depth="0" NCoef="0" IVar="5" Cut="-6.9283396005630493e-01" cType="1" res="-3.0368552543222904e-03" rms="4.8837956786155701e-01" purity="4.9626627564430237e-01" nType="0">
        <Node pos="l" depth="1" NCoef="0" IVar="0" Cut="8.9561061859130859e+00" cType="1" res="1.4082556590437889e-02" rms="4.8691254854202271e-01" purity="5.0574636459350586e-01" nType="0">
          <Node pos="l" depth="2" NCoef="0" IVar="-1" Cut="0.0000000000000000e+00" cType="1" res="2.9147701570764184e-04" rms="4.9048724770545959e-01" purity="4.9412122368812561e-01" nType="-99"/>
          <Node pos="r" depth="2" NCoef="0" IVar="-1" Cut="0.0000000000000000e+00" cType="1" res="4.6534189023077488e-03" rms="4.8436364531517029e-01" purity="5.1347893476486206e-01" nType="-99"/>
        </Node>
        <Node pos="r" depth="1" NCoef="0" IVar="2" Cut="3.0000000000000000e+00" cType="1" res="-3.2969765015877783e-05" rms="3.4194085747003555e-02" purity="4.9491775035858154e-01" nType="0">
          <Node pos="l" depth="2" NCoef="0" IVar="-1" Cut="0.0000000000000000e+00" cType="1" res="-1.1338096810504794e-03" rms="4.8801413178443909e-01" purity="4.9208521842956543e-01" nType="-99"/>
          <Node pos="r" depth="2" NCoef="0" IVar="-1" Cut="0.0000000000000000e+00" cType="1" res="1.6846067737787962e-03" rms="4.9243274331092834e-01" purity="5.1734924316406250e-01" nType="-99"/>
        </Node>
      </Node>
    </BinaryTree>
    <BinaryTree type="DecisionTree" boostWeight="1.0000000000000000e+00" itree="505">
      <Node pos="s" depth="0" NCoef="0" IVar="0" Cut="9.2649688720703125e+00" cType="1" res="-2.9904319671913981e-04" rms="4.8838856816291809e-01" purity="4.9848085641860962e-01" nType="0">
        <Node pos="l" depth="1" NCoef="0" IVar="0" Cut="8.7705211639404297e+00" cType="1" res="-4.3273931369185448e-03" rms="4.9191471934318542e-01" purity="4.9696245789527893e-01" nType="0">
          <Node pos="l" depth="2" NCoef="0" IVar="-1" Cut="0.0000000000000000e+00" cType="1" res="-1.4666891656816006e-03" rms="4.9527052044868469e-01" purity="4.9177047610282898e-01" nType="-99"/>
          <Node pos="r" depth="2" NCoef="0" IVar="-1" Cut="0.0000000000000000e+00" cType="1" res="3.7097497261129320e-04" rms="4.8934277892112732e-01" purity="5.0075608491897583e-01" nType="-99"/>
        </Node>
        <Node pos="r" depth="1" NCoef="0" IVar="0" Cut="9.5430917739868164e+00" cType="1" res="7.6481476426124573e-03" rms="4.8125749826431274e-01" purity="5.0147634744644165e-01" nType="0">
          <Node pos="l" depth="2" NCoef="0" IVar="-1" Cut="0.0000000000000000e+00" cType="1" res="3.2208310440182686e-03" rms="4.8595365881919861e-01" purity="5.1006591320037842e-01" nType="-99"/>
          <Node pos="r" depth="2" NCoef="0" IVar="-1" Cut="0.0000000000000000e+00" cType="1" res="-2.9702877509407699e-04" rms="4.7519135475158691e-01" purity="4.9076253175735474e-01" nType="-99"/>
        </Node>
      </Node>
    </BinaryTree>
    <BinaryTree type="DecisionTree" boostWeight="1.0000000000000000e+00" itree="506">
      <Node pos="s" depth="0" NCoef="0" IVar="0" Cut="8.3125705718994141e+00" cType="1" res="5.4713636636734009e-03" rms="4.8858469724655151e-01" purity="5.0476408004760742e-01" nType="0">
        <Node pos="l" depth="1" NCoef="0" IVar="-1" Cut="0.0000000000000000e+00" cType="1" res="2.3893734905868769e-03" rms="4.9874562025070190e-01" purity="5.2101081609725952e-01" nType="-99"/>
        <Node pos="r" depth="1" NCoef="0" IVar="4" Cut="-8.9126771688461304e-01" cType="1" res="3.7319937255233526e-03" rms="4.8759034276008606e-01" purity="5.0324958562850952e-01" nType="0">
          <Node pos="l" depth="2" NCoef="0" IVar="-1" Cut="0.0000000000000000e+00" cType="1" res="-3.4086371306329966e-03" rms="4.7844624519348145e-01" purity="4.4424539804458618e-01" nType="-99"/>
          <Node pos="r" depth="2" NCoef="0" IVar="-1" Cut="0.0000000000000000e+00" cType="1" res="7.7320233685895801e-04" rms="4.8793989419937134e-01" purity="5.0565576553344727e-01" nType="-99"/>
        </Node>
      </Node>
    </BinaryTree>
    <BinaryTree type="DecisionTree" boostWeight="1.0000000000000000e+00" itree="507">
      <Node pos="s" depth="0" NCoef="0" IVar="0" Cut="8.5443048477172852e+00" cType="1" res="8.2344439579173923e-04" rms="4.8812365531921387e-01" purity="5.0169169902801514e-01" nType="0">
        <Node pos="l" depth="1" NCoef="0" IVar="3" Cut="-6.9440615177154541e-01" cType="1" res="-7.9526836052536964e-03" rms="4.9768579006195068e-01" purity="4.9871760606765747e-01" nType="0">
          <Node pos="l" depth="2" NCoef="0" IVar="-1" Cut="0.0000000000000000e+00" cType="1" res="1.0376112768426538e-03" rms="4.9753707647323608e-01" purity="4.8045837879180908e-01" nType="-99"/>
          <Node pos="r" depth="2" NCoef="0" IVar="-1" Cut="0.0000000000000000e+00" cType="1" res="-2.8059196192771196e-03" rms="4.9711209535598755e-01" purity="5.1826900243759155e-01" nType="-99"/>
        </Node>
        <Node pos="r" depth="1" NCoef="0" IVar="3" Cut="8.9658260345458984e-01" cType="1" res="2.5361143052577972e-03" rms="4.8621717095375061e-01" purity="5.0227200984954834e-01" nType="0">
          <Node pos="l" depth="2" NCoef="0" IVar="-1" Cut="0.0000000000000000e+00" cType="1" res="-2.8065129299648106e-05" rms="4.9126279354095459e-01" purity="4.6383532881736755e-01" nType="-99"/>
          <Node pos="r" depth="2" NCoef="0" IVar="-1" Cut="0.0000000000000000e+00" cType="1" res="2.8593000024557114e-03" rms="4.6413263678550720e-01" purity="6.6458773612976074e-01" nType="-99"/>
        </Node>
      </Node>
    </BinaryTree>
    <BinaryTree type="DecisionTree" boostWeight="1.0000000000000000e+00" itree="508">
      <Node pos="s" depth="0" NCoef="0" IVar="5" Cut="4.8646334558725357e-02" cType="1" res="1.7194584943354130e-03" rms="4.8868671059608459e-01" purity="5.0229120254516602e-01" nType="0">
        <Node pos="l" depth="1" NCoef="0" IVar="3" Cut="8.9522558450698853e-01" cType="1" res="-1.5398421965073794e-04" rms="4.8947644233703613e-01" purity="4.9909749627113342e-01" nType="0">
          <Node pos="l" depth="2" NCoef="0" IVar="-1" Cut="0.0000000000000000e+00" cType="1" res="3.0184394563548267e-04" rms="4.9247047305107117e-01" purity="4.7276058793067932e-01" nType="-99"/>
          <Node pos="r" depth="2" NCoef="0" IVar="-1" Cut="0.0000000000000000e+00" cType="1" res="-2.0080453250557184e-03" rms="4.7398513555526733e-01" purity="6.3159805536270142e-01" nType="-99"/>
        </Node>
        <Node pos="r" depth="1" NCoef="0" IVar="5" Cut="8.2896113395690918e-01" cType="1" res="1.4776504598557949e-02" rms="4.8294493556022644e-01" purity="5.2454966306686401e-01" nType="0">
          <Node pos="l" depth="2" NCoef="0" IVar="-1" Cut="0.0000000000000000e+00" cType="1" res="1.2854610104113817e-03" rms="4.8577550053596497e-01" purity="5.1415169239044189e-01" nType="-99"/>
          <Node pos="r" depth="2" NCoef="0" IVar="-1" Cut="0.0000000000000000e+00" cType="1" res="6.4920955337584019e-03" rms="4.7291156649589539e-01" purity="5.5853116512298584e-01" nType="-99"/>
        </Node>
      </Node>
    </BinaryTree>
    <BinaryTree type="DecisionTree" boostWeight="1.0000000000000000e+00" itree="509">
      <Node pos="s" depth="0" NCoef="0" IVar="0" Cut="8.8990201950073242e+00" cType="1" res="-1.2613293947651982e-03" rms="4.8888882994651794e-01" purity="4.9916496872901917e-01" nType="0">
        <Node pos="l" depth="1" NCoef="0" IVar="5" Cut="4.5622743666172028e-02" cType="1" res="5.2090990357100964e-03" rms="4.9380967020988464e-01" purity="5.0784814357757568e-01" nType="0">
          <Node pos="l" depth="2" NCoef="0" IVar="-1" Cut="0.0000000000000000e+00" cType="1" res="1.2223751982674003e-03" rms="4.9458041787147522e-01" purity="5.1179111003875732e-01" nType="-99"/>
          <Node pos="r" depth="2" NCoef="0" IVar="-1" Cut="0.0000000000000000e+00" cType="1" res="-3.7466285284608603e-03" rms="4.8674714565277100e-01" purity="4.8004004359245300e-01" nType="-99"/>
        </Node>
        <Node pos="r" depth="1" NCoef="0" IVar="3" Cut="8.0205845832824707e-01" cType="1" res="-5.0456514582037926e-03" rms="4.8594775795936584e-01" purity="4.9408647418022156e-01" nType="0">
          <Node pos="l" depth="2" NCoef="0" IVar="-1" Cut="0.0000000000000000e+00" cType="1" res="9.9393728305585682e-05" rms="4.8750802874565125e-01" purity="4.3159705400466919e-01" nType="-99"/>
          <Node pos="r" depth="2" NCoef="0" IVar="-1" Cut="0.0000000000000000e+00" cType="1" res="-2.8666397556662560e-03" rms="4.8339149355888367e-01" purity="5.9101110696792603e-01" nType="-99"/>
        </Node>
      </Node>
    </BinaryTree>
    <BinaryTree type="DecisionTree" boostWeight="1.0000000000000000e+00" itree="510">
      <Node pos="s" depth="0" NCoef="0" IVar="4" Cut="-8.9015841484069824e-01" cType="1" res="1.7923334380611777e-03" rms="4.8843738436698914e-01" purity="5.0166445970535278e-01" nType="0">
        <Node pos="l" depth="1" NCoef="0" IVar="-1" Cut="0.0000000000000000e+00" cType="1" res="-5.2132760174572468e-03" rms="4.7207504510879517e-01" purity="4.2526787519454956e-01" nType="-99"/>
        <Node pos="r" depth="1" NCoef="0" IVar="2" Cut="3.0000000000000000e+00" cType="1" res="-1.4914588246028870e-04" rms="9.2872902750968933e-02" purity="5.0474238395690918e-01" nType="0">
          <Node pos="l" depth="2" NCoef="0" IVar="-1" Cut="0.0000000000000000e+00" cType="1" res="2.0965310977771878e-04" rms="4.8849380016326904e-01" purity="5.0223004817962646e-01" nType="-99"/>
          <Node pos="r" depth="2" NCoef="0" IVar="-1" Cut="0.0000000000000000e+00" cType="1" res="2.9831007122993469e-03" rms="4.9335086345672607e-01" purity="5.2525824308395386e-01" nType="-99"/>
        </Node>
      </Node>
    </BinaryTree>
    <BinaryTree type="DecisionTree" boostWeight="1.0000000000000000e+00" itree="511">
      <Node pos="s" depth="0" NCoef="0" IVar="4" Cut="4.6801287680864334e-02" cType="1" res="-2.9026090633124113e-03" rms="4.8801648616790771e-01" purity="4.9791795015335083e-01" nType="0">
        <Node pos="l" depth="1" NCoef="0" IVar="2" Cut="2.0000000000000000e+00" cType="1" res="1.6951310681179166e-04" rms="3.0506517738103867e-02" purity="4.9218669533729553e-01" nType="0">
          <Node pos="l" depth="2" NCoef="0" IVar="-1" Cut="0.0000000000000000e+00" cType="1" res="7.3979562148451805e-04" rms="4.8741969466209412e-01" purity="4.9391663074493408e-01" nType="-99"/>
          <Node pos="r" depth="2" NCoef="0" IVar="-1" Cut="0.0000000000000000e+00" cType="1" res="-6.7162251798436046e-04" rms="4.9048337340354919e-01" purity="4.9004578590393066e-01" nType="-99"/>
        </Node>
        <Node pos="r" depth="1" NCoef="0" IVar="2" Cut="2.0000000000000000e+00" cType="1" res="-2.1627957466989756e-03" rms="1.4467875659465790e-01" purity="5.1279938220977783e-01" nType="0">
          <Node pos="l" depth="2" NCoef="0" IVar="-1" Cut="0.0000000000000000e+00" cType="1" res="-3.1829888466745615e-03" rms="4.8451995849609375e-01" purity="5.0371915102005005e-01" nType="-99"/>
          <Node pos="r" depth="2" NCoef="0" IVar="-1" Cut="0.0000000000000000e+00" cType="1" res="-1.2347340816631913e-04" rms="4.8768264055252075e-01" purity="5.2777224779129028e-01" nType="-99"/>
        </Node>
      </Node>
    </BinaryTree>
    <BinaryTree type="DecisionTree" boostWeight="1.0000000000000000e+00" itree="512">
      <Node pos="s" depth="0" NCoef="0" IVar="3" Cut="-8.9649742841720581e-01" cType="1" res="7.3222909122705460e-04" rms="4.8905631899833679e-01" purity="5.0073957443237305e-01" nType="0">
        <Node pos="l" depth="1" NCoef="0" IVar="0" Cut="9.1161460876464844e+00" cType="1" res="1.0798842646181583e-02" rms="4.7266122698783875e-01" purity="3.6320942640304565e-01" nType="0">
          <Node pos="l" depth="2" NCoef="0" IVar="-1" Cut="0.0000000000000000e+00" cType="1" res="3.4531110431998968e-03" rms="4.8695284128189087e-01" purity="4.0072280168533325e-01" nType="-99"/>
          <Node pos="r" depth="2" NCoef="0" IVar="-1" Cut="0.0000000000000000e+00" cType="1" res="-1.9621859246399254e-04" rms="4.6047785878181458e-01" purity="3.3293086290359497e-01" nType="-99"/>
        </Node>
        <Node pos="r" depth="1" NCoef="0" IVar="2" Cut="2.0000000000000000e+00" cType="1" res="-8.4387407696340233e-05" rms="3.1599886715412140e-02" purity="5.2871781587600708e-01" nType="0">
          <Node pos="l" depth="2" NCoef="0" IVar="-1" Cut="0.0000000000000000e+00" cType="1" res="-9.4170583179220557e-04" rms="4.9182739853858948e-01" purity="5.2767711877822876e-01" nType="-99"/>
          <Node pos="r" depth="2" NCoef="0" IVar="-1" Cut="0.0000000000000000e+00" cType="1" res="8.5293332813307643e-04" rms="4.9282047152519226e-01" purity="5.3003937005996704e-01" nType="-99"/>
        </Node>
      </Node>
    </BinaryTree>
    <BinaryTree type="DecisionTree" boostWeight="1.0000000000000000e+00" itree="513">
      <Node pos="s" depth="0" NCoef="0" IVar="4" Cut="8.9240539073944092e-01" cType="1" res="1.2792084598913789e-03" rms="4.8842290043830872e-01" purity="5.0167691707611084e-01" nType="0">
        <Node pos="l" depth="1" NCoef="0" IVar="1" Cut="5.0000000000000000e+00" cType="1" res="1.4170577051118016e-03" rms="1.6676281392574310e-01" purity="5.0081551074981689e-01" nType="0">
          <Node pos="l" depth="2" NCoef="0" IVar="-1" Cut="0.0000000000000000e+00" cType="1" res="1.6312910884153098e-04" rms="4.8867842555046082e-01" purity="4.9881258606910706e-01" nType="-99"/>
          <Node pos="r" depth="2" NCoef="0" IVar="-1" Cut="0.0000000000000000e+00" cType="1" res="4.1511617600917816e-03" rms="4.8894098401069641e-01" purity="5.4591226577758789e-01" nType="-99"/>
        </Node>
        <Node pos="r" depth="1" NCoef="0" IVar="-1" Cut="0.0000000000000000e+00" cType="1" res="-4.0685995481908321e-03" rms="4.8024865984916687e-01" purity="5.2360457181930542e-01" nType="-99"/>
      </Node>
    </BinaryTree>
    <BinaryTree type="DecisionTree" boostWeight="1.0000000000000000e+00" itree="514">
      <Node pos="s" depth="0" NCoef="0" IVar="0" Cut="8.2049665451049805e+00" cType="1" res="3.3356740605086088e-03" rms="4.8760026693344116e-01" purity="5.0399351119995117e-01" nType="0">
        <Node pos="l" depth="1" NCoef="0" IVar="-1" Cut="0.0000000000000000e+00" cType="1" res="-1.8478097626939416e-03" rms="4.9812206625938416e-01" purity="4.7588184475898743e-01" nType="-99"/>
        <Node pos="r" depth="1" NCoef="0" IVar="3" Cut="-7.0768195390701294e-01" cType="1" res="4.7318441793322563e-03" rms="4.8690000176429749e-01" purity="5.0575345754623413e-01" nType="0">
          <Node pos="l" depth="2" NCoef="0" IVar="-1" Cut="0.0000000000000000e+00" cType="1" res="-1.3733569358009845e-04" rms="4.8763051629066467e-01" purity="4.2549374699592590e-01" nType="-99"/>
          <Node pos="r" depth="2" NCoef="0" IVar="-1" Cut="0.0000000000000000e+00" cType="1" res="1.6902521019801497e-03" rms="4.8612380027770996e-01" purity="5.8413487672805786e-01" nType="-99"/>
        </Node>
      </Node>
    </BinaryTree>
    <BinaryTree type="DecisionTree" boostWeight="1.0000000000000000e+00" itree="515">
      <Node pos="s" depth="0" NCoef="0" IVar="0" Cut="8.4702129364013672e+00" cType="1" res="8.7042321683838964e-04" rms="4.8834532499313354e-01" purity="5.0081777572631836e-01" nType="0">
        <Node pos="l" depth="1" NCoef="0" IVar="3" Cut="7.9031586647033691e-01" cType="1" res="-1.2014065869152546e-02" rms="4.9774855375289917e-01" purity="4.9462592601776123e-01" nType="0">
          <Node pos="l" depth="2" NCoef="0" IVar="-1" Cut="0.0000000000000000e+00" cType="1" res="-3.1020957976579666e-04" rms="4.9773034453392029e-01" purity="4.7828564047813416e-01" nType="-99"/>
          <Node pos="r" depth="2" NCoef="0" IVar="-1" Cut="0.0000000000000000e+00" cType="1" res="-2.7506765909492970e-03" rms="4.9739468097686768e-01" purity="5.2350741624832153e-01" nType="-99"/>
        </Node>
        <Node pos="r" depth="1" NCoef="0" IVar="4" Cut="8.8828629255294800e-01" cType="1" res="2.9467646963894367e-03" rms="4.8678109049797058e-01" purity="5.0181561708450317e-01" nType="0">
          <Node pos="l" depth="2" NCoef="0" IVar="-1" Cut="0.0000000000000000e+00" cType="1" res="6.9749675458297133e-04" rms="4.8730552196502686e-01" purity="5.0133824348449707e-01" nType="-99"/>
          <Node pos="r" depth="2" NCoef="0" IVar="-1" Cut="0.0000000000000000e+00" cType="1" res="-4.1182101704180241e-03" rms="4.7426781058311462e-01" purity="5.1249247789382935e-01" nType="-99"/>
        </Node>
      </Node>
    </BinaryTree>
    <BinaryTree type="DecisionTree" boostWeight="1.0000000000000000e+00" itree="516">
      <Node pos="s" depth="0" NCoef="0" IVar="4" Cut="8.9001458883285522e-01" cType="1" res="-1.7523365095257759e-03" rms="4.8924794793128967e-01" purity="4.9855783581733704e-01" nType="0">
        <Node pos="l" depth="1" NCoef="0" IVar="1" Cut="5.0000000000000000e+00" cType="1" res="-2.7859100373461843e-04" rms="1.8573351204395294e-01" purity="4.9593207240104675e-01" nType="0">
          <Node pos="l" depth="2" NCoef="0" IVar="-1" Cut="0.0000000000000000e+00" cType="1" res="-2.0990349003113806e-04" rms="4.8977065086364746e-01" purity="4.9640336632728577e-01" nType="-99"/>
          <Node pos="r" depth="2" NCoef="0" IVar="-1" Cut="0.0000000000000000e+00" cType="1" res="-5.2889161743223667e-03" rms="4.8992684483528137e-01" purity="4.8599126935005188e-01" nType="-99"/>
        </Node>
        <Node pos="r" depth="1" NCoef="0" IVar="-1" Cut="0.0000000000000000e+00" cType="1" res="4.8564355820417404e-03" rms="4.7395822405815125e-01" purity="5.6352341175079346e-01" nType="-99"/>
      </Node>
    </BinaryTree>
    <BinaryTree type="DecisionTree" boostWeight="1.0000000000000000e+00" itree="517">
      <Node pos="s" depth="0" NCoef="0" IVar="2" Cut="3.0000000000000000e+00" cType="1" res="8.5964391473680735e-05" rms="8.8582850992679596e-02" purity="5.0293290615081787e-01" nType="0">
        <Node pos="l" depth="1" NCoef="0" IVar="1" Cut="5.0000000000000000e+00" cType="1" res="3.3147288486361504e-03" rms="3.1456986069679260e-01" purity="5.0403219461441040e-01" nType="0">
          <Node pos="l" depth="2" NCoef="0" IVar="-1" Cut="0.0000000000000000e+00" cType="1" res="5.4327235557138920e-04" rms="4.8718208074569702e-01" purity="5.0136399269104004e-01" nType="-99"/>
          <Node pos="r" depth="2" NCoef="0" IVar="-1" Cut="0.0000000000000000e+00" cType="1" res="4.5200833119452000e-03" rms="4.8675638437271118e-01" purity="5.5477428436279297e-01" nType="-99"/>
        </Node>
        <Node pos="r" depth="1" NCoef="0" IVar="0" Cut="9.3022518157958984e+00" cType="1" res="-1.5214424580335617e-02" rms="4.9118381738662720e-01" purity="4.9376887083053589e-01" nType="0">
          <Node pos="l" depth="2" NCoef="0" IVar="-1" Cut="0.0000000000000000e+00" cType="1" res="-3.7389309145510197e-03" rms="4.9498268961906433e-01" purity="4.8781433701515198e-01" nType="-99"/>
          <Node pos="r" depth="2" NCoef="0" IVar="-1" Cut="0.0000000000000000e+00" cType="1" res="9.6059811767190695e-04" rms="4.8117983341217041e-01" purity="5.0848031044006348e-01" nType="-99"/>
        </Node>
      </Node>
    </BinaryTree>
    <BinaryTree type="DecisionTree" boostWeight="1.0000000000000000e+00" itree="518">
      <Node pos="s" depth="0" NCoef="0" IVar="1" Cut="4.0000000000000000e+00" cType="1" res="6.2552117742598057e-04" rms="2.8114554286003113e-01" purity="5.0092238187789917e-01" nType="0">
        <Node pos="l" depth="1" NCoef="0" IVar="4" Cut="-7.9592424631118774e-01" cType="1" res="2.2449605166912079e-03" rms="4.8844346404075623e-01" purity="5.0185340642929077e-01" nType="0">
          <Node pos="l" depth="2" NCoef="0" IVar="-1" Cut="0.0000000000000000e+00" cType="1" res="3.3844902645796537e-03" rms="4.8170992732048035e-01" purity="4.8988485336303711e-01" nType="-99"/>
          <Node pos="r" depth="2" NCoef="0" IVar="-1" Cut="0.0000000000000000e+00" cType="1" res="-8.1266756751574576e-05" rms="4.8943436145782471e-01" purity="5.0373107194900513e-01" nType="-99"/>
        </Node>
        <Node pos="r" depth="1" NCoef="0" IVar="3" Cut="-8.9377313852310181e-01" cType="1" res="-1.4311724342405796e-02" rms="4.8951435089111328e-01" purity="4.9525350332260132e-01" nType="0">
          <Node pos="l" depth="2" NCoef="0" IVar="-1" Cut="0.0000000000000000e+00" cType="1" res="1.3368303189054132e-03" rms="4.8219272494316101e-01" purity="3.9995118975639343e-01" nType="-99"/>
          <Node pos="r" depth="2" NCoef="0" IVar="-1" Cut="0.0000000000000000e+00" cType="1" res="-3.3041923306882381e-03" rms="4.9169045686721802e-01" purity="5.2673894166946411e-01" nType="-99"/>
        </Node>
      </Node>
    </BinaryTree>
    <BinaryTree type="DecisionTree" boostWeight="1.0000000000000000e+00" itree="519">
      <Node pos="s" depth="0" NCoef="0" IVar="3" Cut="8.9727258682250977e-01" cType="1" res="3.8337884470820427e-03" rms="4.8756903409957886e-01" purity="5.0436186790466309e-01" nType="0">
        <Node pos="l" depth="1" NCoef="0" IVar="2" Cut="2.0000000000000000e+00" cType="1" res="8.1583777500782162e-05" rms="2.8828661888837814e-02" purity="4.7101053595542908e-01" nType="0">
          <Node pos="l" depth="2" NCoef="0" IVar="-1" Cut="0.0000000000000000e+00" cType="1" res="8.4322533803060651e-04" rms="4.9103853106498718e-01" purity="4.6696677803993225e-01" nType="-99"/>
          <Node pos="r" depth="2" NCoef="0" IVar="-1" Cut="0.0000000000000000e+00" cType="1" res="-8.2012847997248173e-04" rms="4.9331226944923401e-01" purity="4.7597920894622803e-01" nType="-99"/>
        </Node>
        <Node pos="r" depth="1" NCoef="0" IVar="4" Cut="7.8993964195251465e-01" cType="1" res="1.7821181565523148e-02" rms="4.6494236588478088e-01" purity="6.6489678621292114e-01" nType="0">
          <Node pos="l" depth="2" NCoef="0" IVar="-1" Cut="0.0000000000000000e+00" cType="1" res="4.5822882093489170e-03" rms="4.6641847491264343e-01" purity="6.5582191944122314e-01" nType="-99"/>
          <Node pos="r" depth="2" NCoef="0" IVar="-1" Cut="0.0000000000000000e+00" cType="1" res="-6.3360657077282667e-04" rms="4.6013841032981873e-01" purity="6.9030255079269409e-01" nType="-99"/>
        </Node>
      </Node>
    </BinaryTree>
    <BinaryTree type="DecisionTree" boostWeight="1.0000000000000000e+00" itree="520">
      <Node pos="s" depth="0" NCoef="0" IVar="0" Cut="9.1114721298217773e+00" cType="1" res="-4.3108803220093250e-04" rms="4.8828288912773132e-01" purity="5.0027883052825928e-01" nType="0">
        <Node pos="l" depth="1" NCoef="0" IVar="4" Cut="7.9554122686386108e-01" cType="1" res="4.7980118542909622e-03" rms="4.9229174852371216e-01" purity="5.0688672065734863e-01" nType="0">
          <Node pos="l" depth="2" NCoef="0" IVar="-1" Cut="0.0000000000000000e+00" cType="1" res="1.4953027130104601e-04" rms="4.9358153343200684e-01" purity="4.9806499481201172e-01" nType="-99"/>
          <Node pos="r" depth="2" NCoef="0" IVar="-1" Cut="0.0000000000000000e+00" cType="1" res="3.4942070487886667e-03" rms="4.8384892940521240e-01" purity="5.6019467115402222e-01" nType="-99"/>
        </Node>
        <Node pos="r" depth="1" NCoef="0" IVar="3" Cut="8.9632523059844971e-01" cType="1" res="-6.7052133381366730e-03" rms="4.8335433006286621e-01" purity="4.9235028028488159e-01" nType="0">
          <Node pos="l" depth="2" NCoef="0" IVar="-1" Cut="0.0000000000000000e+00" cType="1" res="-2.1734926849603653e-03" rms="4.8874208331108093e-01" purity="4.4507834315299988e-01" nType="-99"/>
          <Node pos="r" depth="2" NCoef="0" IVar="-1" Cut="0.0000000000000000e+00" cType="1" res="1.5456196852028370e-03" rms="4.6193262934684753e-01" purity="6.7326807975769043e-01" nType="-99"/>
        </Node>
      </Node>
    </BinaryTree>
    <BinaryTree type="DecisionTree" boostWeight="1.0000000000000000e+00" itree="521">
      <Node pos="s" depth="0" NCoef="0" IVar="5" Cut="4.9233440309762955e-02" cType="1" res="4.0867039933800697e-03" rms="4.8764550685882568e-01" purity="5.0446826219558716e-01" nType="0">
        <Node pos="l" depth="1" NCoef="0" IVar="1" Cut="5.0000000000000000e+00" cType="1" res="3.1694653443992138e-03" rms="2.4146711826324463e-01" purity="5.0506108999252319e-01" nType="0">
          <Node pos="l" depth="2" NCoef="0" IVar="-1" Cut="0.0000000000000000e+00" cType="1" res="8.1978301750496030e-04" rms="4.8815771937370300e-01" purity="5.0315994024276733e-01" nType="-99"/>
          <Node pos="r" depth="2" NCoef="0" IVar="-1" Cut="0.0000000000000000e+00" cType="1" res="5.3166178986430168e-03" rms="4.8688226938247681e-01" purity="5.5333369970321655e-01" nType="-99"/>
        </Node>
        <Node pos="r" depth="1" NCoef="0" IVar="5" Cut="8.2896113395690918e-01" cType="1" res="-1.0666258633136749e-02" rms="4.8391634225845337e-01" purity="5.0030344724655151e-01" nType="0">
          <Node pos="l" depth="2" NCoef="0" IVar="-1" Cut="0.0000000000000000e+00" cType="1" res="-2.9710165690630674e-03" rms="4.8439016938209534e-01" purity="4.8823812603950500e-01" nType="-99"/>
          <Node pos="r" depth="2" NCoef="0" IVar="-1" Cut="0.0000000000000000e+00" cType="1" res="2.6098962407559156e-03" rms="4.8155164718627930e-01" purity="5.3880643844604492e-01" nType="-99"/>
        </Node>
      </Node>
    </BinaryTree>
    <BinaryTree type="DecisionTree" boostWeight="1.0000000000000000e+00" itree="522">
      <Node pos="s" depth="0" NCoef="0" IVar="3" Cut="-8.0198770761489868e-01" cType="1" res="2.5656279176473618e-03" rms="4.8829108476638794e-01" purity="5.0249755382537842e-01" nType="0">
        <Node pos="l" depth="1" NCoef="0" IVar="3" Cut="-9.3678838014602661e-01" cType="1" res="-2.6352503336966038e-03" rms="4.8482307791709900e-01" purity="4.0752476453781128e-01" nType="0">
          <Node pos="l" depth="2" NCoef="0" IVar="-1" Cut="0.0000000000000000e+00" cType="1" res="-3.1086876988410950e-03" rms="4.4748690724372864e-01" purity="2.9036816954612732e-01" nType="-99"/>
          <Node pos="r" depth="2" NCoef="0" IVar="-1" Cut="0.0000000000000000e+00" cType="1" res="1.7603149171918631e-04" rms="4.9441936612129211e-01" purity="4.3937635421752930e-01" nType="-99"/>
        </Node>
        <Node pos="r" depth="1" NCoef="0" IVar="5" Cut="-7.7695715427398682e-01" cType="1" res="5.6497277691960335e-03" rms="4.9030995368957520e-01" purity="5.5881601572036743e-01" nType="0">
          <Node pos="l" depth="2" NCoef="0" IVar="-1" Cut="0.0000000000000000e+00" cType="1" res="4.2138556018471718e-03" rms="4.8290389776229858e-01" purity="6.0232007503509521e-01" nType="-99"/>
          <Node pos="r" depth="2" NCoef="0" IVar="-1" Cut="0.0000000000000000e+00" cType="1" res="6.9410383002832532e-04" rms="4.9072071909904480e-01" purity="5.5623495578765869e-01" nType="-99"/>
        </Node>
      </Node>
    </BinaryTree>
    <BinaryTree type="DecisionTree" boostWeight="1.0000000000000000e+00" itree="523">
      <Node pos="s" depth="0" NCoef="0" IVar="4" Cut="-7.9541009664535522e-01" cType="1" res="8.0708565656095743e-04" rms="4.8845046758651733e-01" purity="5.0226020812988281e-01" nType="0">
        <Node pos="l" depth="1" NCoef="0" IVar="4" Cut="-8.5784000158309937e-01" cType="1" res="-1.4445437118411064e-02" rms="4.8104447126388550e-01" purity="4.5504009723663330e-01" nType="0">
          <Node pos="l" depth="2" NCoef="0" IVar="-1" Cut="0.0000000000000000e+00" cType="1" res="1.1884304694831371e-04" rms="4.7945353388786316e-01" purity="4.6285882592201233e-01" nType="-99"/>
          <Node pos="r" depth="2" NCoef="0" IVar="-1" Cut="0.0000000000000000e+00" cType="1" res="-4.4827847741544247e-03" rms="4.8205664753913879e-01" purity="4.4808843731880188e-01" nType="-99"/>
        </Node>
        <Node pos="r" depth="1" NCoef="0" IVar="3" Cut="8.0235379934310913e-01" cType="1" res="3.5660557914525270e-03" rms="4.8972740769386292e-01" purity="5.1080167293548584e-01" nType="0">
          <Node pos="l" depth="2" NCoef="0" IVar="-1" Cut="0.0000000000000000e+00" cType="1" res="1.0137889767065644e-03" rms="4.9374946951866150e-01" purity="4.6403223276138306e-01" nType="-99"/>
          <Node pos="r" depth="2" NCoef="0" IVar="-1" Cut="0.0000000000000000e+00" cType="1" res="-4.6877621207386255e-04" rms="4.8167231678962708e-01" purity="6.0260331630706787e-01" nType="-99"/>
        </Node>
      </Node>
    </BinaryTree>
    <BinaryTree type="DecisionTree" boostWeight="1.0000000000000000e+00" itree="524">
      <Node pos="s" depth="0" NCoef="0" IVar="1" Cut="5.0000000000000000e+00" cType="1" res="-1.1811555305030197e-04" rms="1.8332132697105408e-01" purity="5.0182533264160156e-01" nType="0">
        <Node pos="l" depth="1" NCoef="0" IVar="0" Cut="9.0013980865478516e+00" cType="1" res="2.0023065153509378e-03" rms="4.8826885223388672e-01" purity="5.0239139795303345e-01" nType="0">
          <Node pos="l" depth="2" NCoef="0" IVar="-1" Cut="0.0000000000000000e+00" cType="1" res="-2.7118224534206092e-04" rms="4.9354666471481323e-01" purity="4.9959486722946167e-01" nType="-99"/>
          <Node pos="r" depth="2" NCoef="0" IVar="-1" Cut="0.0000000000000000e+00" cType="1" res="1.1692576808854938e-03" rms="4.8381444811820984e-01" purity="5.0471329689025879e-01" nType="-99"/>
        </Node>
        <Node pos="r" depth="1" NCoef="0" IVar="-1" Cut="0.0000000000000000e+00" cType="1" res="-5.3759124130010605e-03" rms="4.8845845460891724e-01" purity="4.9076426029205322e-01" nType="-99"/>
      </Node>
    </BinaryTree>
    <BinaryTree type="DecisionTree" boostWeight="1.0000000000000000e+00" itree="525">
      <Node pos="s" depth="0" NCoef="0" IVar="2" Cut="2.0000000000000000e+00" cType="1" res="-3.5714186378754675e-04" rms="3.3162437379360199e-02" purity="5.0314110517501831e-01" nType="0">
        <Node pos="l" depth="1" NCoef="0" IVar="3" Cut="8.0258440971374512e-01" cType="1" res="7.1160621009767056e-03" rms="4.8562604188919067e-01" purity="5.0589990615844727e-01" nType="0">
          <Node pos="l" depth="2" NCoef="0" IVar="-1" Cut="0.0000000000000000e+00" cType="1" res="-2.4141442554537207e-04" rms="4.8900994658470154e-01" purity="4.3547204136848450e-01" nType="-99"/>
          <Node pos="r" depth="2" NCoef="0" IVar="-1" Cut="0.0000000000000000e+00" cType="1" res="3.2746514771133661e-03" rms="4.8003992438316345e-01" purity="6.1466258764266968e-01" nType="-99"/>
        </Node>
        <Node pos="r" depth="1" NCoef="0" IVar="0" Cut="8.6269807815551758e+00" cType="1" res="-4.5530814677476883e-03" rms="4.9068620800971985e-01" purity="4.9933528900146484e-01" nType="0">
          <Node pos="l" depth="2" NCoef="0" IVar="-1" Cut="0.0000000000000000e+00" cType="1" res="1.0319909779354930e-03" rms="4.9736359715461731e-01" purity="5.1458060741424561e-01" nType="-99"/>
          <Node pos="r" depth="2" NCoef="0" IVar="-1" Cut="0.0000000000000000e+00" cType="1" res="-1.6340989386662841e-03" rms="4.8883843421936035e-01" purity="4.9531203508377075e-01" nType="-99"/>
        </Node>
      </Node>
    </BinaryTree>
    <BinaryTree type="DecisionTree" boostWeight="1.0000000000000000e+00" itree="526">
      <Node pos="s" depth="0" NCoef="0" IVar="0" Cut="9.0551691055297852e+00" cType="1" res="-4.3083038181066513e-03" rms="4.8818400502204895e-01" purity="4.9756532907485962e-01" nType="0">
        <Node pos="l" depth="1" NCoef="0" IVar="3" Cut="-7.0313096046447754e-01" cType="1" res="-9.1396961361169815e-03" rms="4.9257275462150574e-01" purity="4.9448066949844360e-01" nType="0">
          <Node pos="l" depth="2" NCoef="0" IVar="-1" Cut="0.0000000000000000e+00" cType="1" res="-2.1469288039952517e-03" rms="4.9192705750465393e-01" purity="4.3051320314407349e-01" nType="-99"/>
          <Node pos="r" depth="2" NCoef="0" IVar="-1" Cut="0.0000000000000000e+00" cType="1" res="-1.9178663205821067e-04" rms="4.9306625127792358e-01" purity="5.5536878108978271e-01" nType="-99"/>
        </Node>
        <Node pos="r" depth="1" NCoef="0" IVar="0" Cut="9.2617664337158203e+00" cType="1" res="3.8806765223853290e-04" rms="4.8383352160453796e-01" purity="5.0056385993957520e-01" nType="0">
          <Node pos="l" depth="2" NCoef="0" IVar="-1" Cut="0.0000000000000000e+00" cType="1" res="2.0903539843857288e-03" rms="4.8931950330734253e-01" purity="5.1519584655761719e-01" nType="-99"/>
          <Node pos="r" depth="2" NCoef="0" IVar="-1" Cut="0.0000000000000000e+00" cType="1" res="-1.3311465736478567e-03" rms="4.8082998394966125e-01" purity="4.9289840459823608e-01" nType="-99"/>
        </Node>
      </Node>
    </BinaryTree>
    <BinaryTree type="DecisionTree" boostWeight="1.0000000000000000e+00" itree="527">
      <Node pos="s" depth="0" NCoef="0" IVar="0" Cut="8.7015762329101562e+00" cType="1" res="-8.6330180056393147e-04" rms="4.8834630846977234e-01" purity="4.9993231892585754e-01" nType="0">
        <Node pos="l" depth="1" NCoef="0" IVar="1" Cut="2.0000000000000000e+00" cType="1" res="-4.1423551738262177e-04" rms="2.1874738857150078e-02" purity="4.9241158366203308e-01" nType="0">
          <Node pos="l" depth="2" NCoef="0" IVar="-1" Cut="0.0000000000000000e+00" cType="1" res="2.3929563758429140e-04" rms="4.9750635027885437e-01" purity="5.0505465269088745e-01" nType="-99"/>
          <Node pos="r" depth="2" NCoef="0" IVar="-1" Cut="0.0000000000000000e+00" cType="1" res="-1.9722818396985531e-03" rms="4.9356567859649658e-01" purity="4.8721709847450256e-01" nType="-99"/>
        </Node>
        <Node pos="r" depth="1" NCoef="0" IVar="0" Cut="9.4512348175048828e+00" cType="1" res="2.8434307314455509e-03" rms="4.8619011044502258e-01" purity="5.0235402584075928e-01" nType="0">
          <Node pos="l" depth="2" NCoef="0" IVar="-1" Cut="0.0000000000000000e+00" cType="1" res="9.5791969215497375e-04" rms="4.8830088973045349e-01" purity="5.0650274753570557e-01" nType="-99"/>
          <Node pos="r" depth="2" NCoef="0" IVar="-1" Cut="0.0000000000000000e+00" cType="1" res="-1.3997579226270318e-03" rms="4.8012110590934753e-01" purity="4.9070411920547485e-01" nType="-99"/>
        </Node>
      </Node>
    </BinaryTree>
    <BinaryTree type="DecisionTree" boostWeight="1.0000000000000000e+00" itree="528">
      <Node pos="s" depth="0" NCoef="0" IVar="3" Cut="-7.0684790611267090e-01" cType="1" res="2.7480541029945016e-04" rms="4.8814815282821655e-01" purity="5.0115770101547241e-01" nType="0">
        <Node pos="l" depth="1" NCoef="0" IVar="3" Cut="-7.5855773687362671e-01" cType="1" res="-5.1456214860081673e-03" rms="4.8871067166328430e-01" purity="4.2221787571907043e-01" nType="0">
          <Node pos="l" depth="2" NCoef="0" IVar="-1" Cut="0.0000000000000000e+00" cType="1" res="-4.4845536467619240e-04" rms="4.8756441473960876e-01" purity="4.1837340593338013e-01" nType="-99"/>
          <Node pos="r" depth="2" NCoef="0" IVar="-1" Cut="0.0000000000000000e+00" cType="1" res="-3.4913227427750826e-03" rms="4.9765858054161072e-01" purity="4.5401573181152344e-01" nType="-99"/>
        </Node>
        <Node pos="r" depth="1" NCoef="0" IVar="2" Cut="2.0000000000000000e+00" cType="1" res="7.7895051799714565e-04" rms="1.1689946055412292e-01" purity="5.7835012674331665e-01" nType="0">
          <Node pos="l" depth="2" NCoef="0" IVar="-1" Cut="0.0000000000000000e+00" cType="1" res="1.8664525123313069e-03" rms="4.8472633957862854e-01" purity="5.8922606706619263e-01" nType="-99"/>
          <Node pos="r" depth="2" NCoef="0" IVar="-1" Cut="0.0000000000000000e+00" cType="1" res="-6.2713387887924910e-04" rms="4.9122473597526550e-01" purity="5.6341457366943359e-01" nType="-99"/>
        </Node>
      </Node>
    </BinaryTree>
    <BinaryTree type="DecisionTree" boostWeight="1.0000000000000000e+00" itree="529">
      <Node pos="s" depth="0" NCoef="0" IVar="0" Cut="9.0013980865478516e+00" cType="1" res="-3.0609671957790852e-03" rms="4.8910114169120789e-01" purity="4.9823155999183655e-01" nType="0">
        <Node pos="l" depth="1" NCoef="0" IVar="0" Cut="8.3944110870361328e+00" cType="1" res="4.9604843370616436e-03" rms="4.9442446231842041e-01" purity="5.0776529312133789e-01" nType="0">
          <Node pos="l" depth="2" NCoef="0" IVar="-1" Cut="0.0000000000000000e+00" cType="1" res="-1.1307530803605914e-03" rms="4.9818125367164612e-01" purity="4.9495169520378113e-01" nType="-99"/>
          <Node pos="r" depth="2" NCoef="0" IVar="-1" Cut="0.0000000000000000e+00" cType="1" res="1.3250516494736075e-03" rms="4.9309548735618591e-01" purity="5.1189249753952026e-01" nType="-99"/>
        </Node>
        <Node pos="r" depth="1" NCoef="0" IVar="0" Cut="9.6840772628784180e+00" cType="1" res="-9.7021739929914474e-03" rms="4.8454910516738892e-01" purity="4.9033826589584351e-01" nType="0">
          <Node pos="l" depth="2" NCoef="0" IVar="-1" Cut="0.0000000000000000e+00" cType="1" res="-2.4031510110944510e-03" rms="4.8657020926475525e-01" purity="4.8968988656997681e-01" nType="-99"/>
          <Node pos="r" depth="2" NCoef="0" IVar="-1" Cut="0.0000000000000000e+00" cType="1" res="4.3313295464031398e-04" rms="4.7413352131843567e-01" purity="4.9358785152435303e-01" nType="-99"/>
        </Node>
      </Node>
    </BinaryTree>
    <BinaryTree type="DecisionTree" boostWeight="1.0000000000000000e+00" itree="530">
      <Node pos="s" depth="0" NCoef="0" IVar="2" Cut="3.0000000000000000e+00" cType="1" res="-3.4318669349886477e-04" rms="3.5466089844703674e-02" purity="4.9851110577583313e-01" nType="0">
        <Node pos="l" depth="1" NCoef="0" IVar="3" Cut="-8.0165529251098633e-01" cType="1" res="-3.7267946172505617e-03" rms="4.8788604140281677e-01" purity="4.9619966745376587e-01" nType="0">
          <Node pos="l" depth="2" NCoef="0" IVar="-1" Cut="0.0000000000000000e+00" cType="1" res="-1.6803008038550615e-03" rms="4.8251315951347351e-01" purity="3.9714840054512024e-01" nType="-99"/>
          <Node pos="r" depth="2" NCoef="0" IVar="-1" Cut="0.0000000000000000e+00" cType="1" res="3.3765529224183410e-05" rms="4.9103760719299316e-01" purity="5.5559998750686646e-01" nType="-99"/>
        </Node>
        <Node pos="r" depth="1" NCoef="0" IVar="3" Cut="-7.8839647769927979e-01" cType="1" res="1.0745177976787090e-02" rms="4.9331921339035034e-01" purity="5.1717787981033325e-01" nType="0">
          <Node pos="l" depth="2" NCoef="0" IVar="-1" Cut="0.0000000000000000e+00" cType="1" res="6.7605376243591309e-03" rms="4.9129766225814819e-01" purity="4.6609997749328613e-01" nType="-99"/>
          <Node pos="r" depth="2" NCoef="0" IVar="-1" Cut="0.0000000000000000e+00" cType="1" res="-4.1599915130063891e-04" rms="4.9381759762763977e-01" purity="5.4288488626480103e-01" nType="-99"/>
        </Node>
      </Node>
    </BinaryTree>
    <BinaryTree type="DecisionTree" boostWeight="1.0000000000000000e+00" itree="531">
      <Node pos="s" depth="0" NCoef="0" IVar="0" Cut="8.3375482559204102e+00" cType="1" res="-4.0962910279631615e-03" rms="4.8794913291931152e-01" purity="4.9634936451911926e-01" nType="0">
        <Node pos="l" depth="1" NCoef="0" IVar="3" Cut="-6.9422841072082520e-01" cType="1" res="1.4311973005533218e-02" rms="4.9715813994407654e-01" purity="5.1383006572723389e-01" nType="0">
          <Node pos="l" depth="2" NCoef="0" IVar="-1" Cut="0.0000000000000000e+00" cType="1" res="1.0533011518418789e-03" rms="4.9907836318016052e-01" purity="4.7770336270332336e-01" nType="-99"/>
          <Node pos="r" depth="2" NCoef="0" IVar="-1" Cut="0.0000000000000000e+00" cType="1" res="1.7672907561063766e-03" rms="4.9515908956527710e-01" purity="5.5076932907104492e-01" nType="-99"/>
        </Node>
        <Node pos="r" depth="1" NCoef="0" IVar="5" Cut="4.9749918282032013e-02" cType="1" res="-5.9454133734107018e-03" rms="4.8697599768638611e-01" purity="4.9459341168403625e-01" nType="0">
          <Node pos="l" depth="2" NCoef="0" IVar="-1" Cut="0.0000000000000000e+00" cType="1" res="-6.7597749875858426e-04" rms="4.8761335015296936e-01" purity="4.9519097805023193e-01" nType="-99"/>
          <Node pos="r" depth="2" NCoef="0" IVar="-1" Cut="0.0000000000000000e+00" cType="1" res="-3.4168655984103680e-03" rms="4.8224520683288574e-01" purity="4.9038794636726379e-01" nType="-99"/>
        </Node>
      </Node>
    </BinaryTree>
    <BinaryTree type="DecisionTree" boostWeight="1.0000000000000000e+00" itree="532">
      <Node pos="s" depth="0" NCoef="0" IVar="5" Cut="-6.9003391265869141e-01" cType="1" res="4.5336838811635971e-03" rms="4.8854705691337585e-01" purity="5.0492346286773682e-01" nType="0">
        <Node pos="l" depth="1" NCoef="0" IVar="3" Cut="8.9404785633087158e-01" cType="1" res="1.9408725202083588e-02" rms="4.8771291971206665e-01" purity="5.1649487018585205e-01" nType="0">
          <Node pos="l" depth="2" NCoef="0" IVar="-1" Cut="0.0000000000000000e+00" cType="1" res="4.0652165189385414e-03" rms="4.9107792973518372e-01" purity="4.7473248839378357e-01" nType="-99"/>
          <Node pos="r" depth="2" NCoef="0" IVar="-1" Cut="0.0000000000000000e+00" cType="1" res="9.3514641048386693e-04" rms="4.7985768318176270e-01" purity="6.0916978120803833e-01" nType="-99"/>
        </Node>
        <Node pos="r" depth="1" NCoef="0" IVar="3" Cut="8.0256366729736328e-01" cType="1" res="2.4432120844721794e-03" rms="4.8862785100936890e-01" purity="5.0329732894897461e-01" nType="0">
          <Node pos="l" depth="2" NCoef="0" IVar="-1" Cut="0.0000000000000000e+00" cType="1" res="8.8937144028022885e-04" rms="4.9209973216056824e-01" purity="4.5272988080978394e-01" nType="-99"/>
          <Node pos="r" depth="2" NCoef="0" IVar="-1" Cut="0.0000000000000000e+00" cType="1" res="-6.2667799647897482e-04" rms="4.8223033547401428e-01" purity="5.9466612339019775e-01" nType="-99"/>
        </Node>
      </Node>
    </BinaryTree>
    <BinaryTree type="DecisionTree" boostWeight="1.0000000000000000e+00" itree="533">
      <Node pos="s" depth="0" NCoef="0" IVar="5" Cut="5.2558984607458115e-02" cType="1" res="-3.0336300842463970e-03" rms="4.8845374584197998e-01" purity="4.9681150913238525e-01" nType="0">
        <Node pos="l" depth="1" NCoef="0" IVar="3" Cut="-8.0208969116210938e-01" cType="1" res="-1.2479878496378660e-03" rms="4.8930251598358154e-01" purity="4.9810615181922913e-01" nType="0">
          <Node pos="l" depth="2" NCoef="0" IVar="-1" Cut="0.0000000000000000e+00" cType="1" res="9.0115115744993091e-04" rms="4.8513552546501160e-01" purity="4.1198340058326721e-01" nType="-99"/>
          <Node pos="r" depth="2" NCoef="0" IVar="-1" Cut="0.0000000000000000e+00" cType="1" res="-7.4444769416004419e-04" rms="4.9148744344711304e-01" purity="5.4434400796890259e-01" nType="-99"/>
        </Node>
        <Node pos="r" depth="1" NCoef="0" IVar="0" Cut="9.0877199172973633e+00" cType="1" res="-1.5383969061076641e-02" rms="4.8236152529716492e-01" purity="4.8785695433616638e-01" nType="0">
          <Node pos="l" depth="2" NCoef="0" IVar="-1" Cut="0.0000000000000000e+00" cType="1" res="-4.0347171016037464e-03" rms="4.8454540967941284e-01" purity="4.6939519047737122e-01" nType="-99"/>
          <Node pos="r" depth="2" NCoef="0" IVar="-1" Cut="0.0000000000000000e+00" cType="1" res="8.2633504644036293e-04" rms="4.7925934195518494e-01" purity="5.0789248943328857e-01" nType="-99"/>
        </Node>
      </Node>
    </BinaryTree>
    <BinaryTree type="DecisionTree" boostWeight="1.0000000000000000e+00" itree="534">
      <Node pos="s" depth="0" NCoef="0" IVar="2" Cut="2.0000000000000000e+00" cType="1" res="-3.4957014577230439e-05" rms="1.2496334314346313e-01" purity="5.0036609172821045e-01" nType="0">
        <Node pos="l" depth="1" NCoef="0" IVar="3" Cut="8.0258440971374512e-01" cType="1" res="4.4084386900067329e-03" rms="4.8565301299095154e-01" purity="5.0345283746719360e-01" nType="0">
          <Node pos="l" depth="2" NCoef="0" IVar="-1" Cut="0.0000000000000000e+00" cType="1" res="-4.7776132123544812e-04" rms="4.8886013031005859e-01" purity="4.3193152546882629e-01" nType="-99"/>
          <Node pos="r" depth="2" NCoef="0" IVar="-1" Cut="0.0000000000000000e+00" cType="1" res="2.6010947767645121e-03" rms="4.8046129941940308e-01" purity="6.1305683851242065e-01" nType="-99"/>
        </Node>
        <Node pos="r" depth="1" NCoef="0" IVar="0" Cut="8.6788768768310547e+00" cType="1" res="-5.9684808366000652e-03" rms="4.9175551533699036e-01" purity="4.9620535969734192e-01" nType="0">
          <Node pos="l" depth="2" NCoef="0" IVar="-1" Cut="0.0000000000000000e+00" cType="1" res="-1.9233387429267168e-03" rms="4.9678084254264832e-01" purity="4.8348572850227356e-01" nType="-99"/>
          <Node pos="r" depth="2" NCoef="0" IVar="-1" Cut="0.0000000000000000e+00" cType="1" res="-4.4591678306460381e-04" rms="4.9009326100349426e-01" purity="5.0023853778839111e-01" nType="-99"/>
        </Node>
      </Node>
    </BinaryTree>
    <BinaryTree type="DecisionTree" boostWeight="1.0000000000000000e+00" itree="535">
      <Node pos="s" depth="0" NCoef="0" IVar="5" Cut="-7.8430193662643433e-01" cType="1" res="8.4719568258151412e-04" rms="4.8867034912109375e-01" purity="5.0119239091873169e-01" nType="0">
        <Node pos="l" depth="1" NCoef="0" IVar="5" Cut="-8.2842564582824707e-01" cType="1" res="2.7656588703393936e-02" rms="4.8418387770652771e-01" purity="5.3019845485687256e-01" nType="0">
          <Node pos="l" depth="2" NCoef="0" IVar="-1" Cut="0.0000000000000000e+00" cType="1" res="3.9706774987280369e-03" rms="4.8580899834632874e-01" purity="5.2044975757598877e-01" nType="-99"/>
          <Node pos="r" depth="2" NCoef="0" IVar="-1" Cut="0.0000000000000000e+00" cType="1" res="5.5274902842938900e-03" rms="4.8245519399642944e-01" purity="5.4012936353683472e-01" nType="-99"/>
        </Node>
        <Node pos="r" depth="1" NCoef="0" IVar="0" Cut="8.6575946807861328e+00" cType="1" res="-8.0207211431115866e-04" rms="4.8889702558517456e-01" purity="4.9940794706344604e-01" nType="0">
          <Node pos="l" depth="2" NCoef="0" IVar="-1" Cut="0.0000000000000000e+00" cType="1" res="8.9607940753921866e-04" rms="4.9392908811569214e-01" purity="5.1487344503402710e-01" nType="-99"/>
          <Node pos="r" depth="2" NCoef="0" IVar="-1" Cut="0.0000000000000000e+00" cType="1" res="-6.2107958365231752e-04" rms="4.8743793368339539e-01" purity="4.9504807591438293e-01" nType="-99"/>
        </Node>
      </Node>
    </BinaryTree>
    <BinaryTree type="DecisionTree" boostWeight="1.0000000000000000e+00" itree="536">
      <Node pos="s" depth="0" NCoef="0" IVar="1" Cut="5.0000000000000000e+00" cType="1" res="2.2177228238433599e-03" rms="3.7924367189407349e-01" purity="5.0449216365814209e-01" nType="0">
        <Node pos="l" depth="1" NCoef="0" IVar="2" Cut="3.0000000000000000e+00" cType="1" res="9.0427673421800137e-04" rms="1.5419234335422516e-01" purity="5.0472688674926758e-01" nType="0">
          <Node pos="l" depth="2" NCoef="0" IVar="-1" Cut="0.0000000000000000e+00" cType="1" res="7.4453005800023675e-04" rms="4.8814746737480164e-01" purity="5.0211447477340698e-01" nType="-99"/>
          <Node pos="r" depth="2" NCoef="0" IVar="-1" Cut="0.0000000000000000e+00" cType="1" res="3.3293657470494509e-03" rms="4.9094659090042114e-01" purity="5.2577745914459229e-01" nType="-99"/>
        </Node>
        <Node pos="r" depth="1" NCoef="0" IVar="-1" Cut="0.0000000000000000e+00" cType="1" res="-3.0247275717556477e-03" rms="4.8949190974235535e-01" purity="4.9981692433357239e-01" nType="-99"/>
      </Node>
    </BinaryTree>
    <BinaryTree type="DecisionTree" boostWeight="1.0000000000000000e+00" itree="537">
      <Node pos="s" depth="0" NCoef="0" IVar="3" Cut="-8.0172199010848999e-01" cType="1" res="-2.3913430050015450e-03" rms="4.8735135793685913e-01" purity="4.9857300519943237e-01" nType="0">
        <Node pos="l" depth="1" NCoef="0" IVar="0" Cut="8.6166343688964844e+00" cType="1" res="-1.0242533870041370e-02" rms="4.8260113596916199e-01" purity="3.9884003996849060e-01" nType="0">
          <Node pos="l" depth="2" NCoef="0" IVar="-1" Cut="0.0000000000000000e+00" cType="1" res="-3.0287429690361023e-03" rms="4.9340850114822388e-01" purity="4.2878514528274536e-01" nType="-99"/>
          <Node pos="r" depth="2" NCoef="0" IVar="-1" Cut="0.0000000000000000e+00" cType="1" res="-1.1208046926185489e-03" rms="4.8003315925598145e-01" purity="3.9210176467895508e-01" nType="-99"/>
        </Node>
        <Node pos="r" depth="1" NCoef="0" IVar="0" Cut="8.6286582946777344e+00" cType="1" res="2.1809900645166636e-03" rms="4.9003863334655762e-01" purity="5.5665498971939087e-01" nType="0">
          <Node pos="l" depth="2" NCoef="0" IVar="-1" Cut="0.0000000000000000e+00" cType="1" res="1.9962056539952755e-03" rms="4.9506565928459167e-01" purity="5.5434721708297729e-01" nType="-99"/>
          <Node pos="r" depth="2" NCoef="0" IVar="-1" Cut="0.0000000000000000e+00" cType="1" res="-4.5284646330401301e-04" rms="4.8855343461036682e-01" purity="5.5728530883789062e-01" nType="-99"/>
        </Node>
      </Node>
    </BinaryTree>
    <BinaryTree type="DecisionTree" boostWeight="1.0000000000000000e+00" itree="538">
      <Node pos="s" depth="0" NCoef="0" IVar="3" Cut="8.0108064413070679e-01" cType="1" res="-6.1109159141778946e-03" rms="4.8823547363281250e-01" purity="4.9415823817253113e-01" nType="0">
        <Node pos="l" depth="1" NCoef="0" IVar="0" Cut="8.4559755325317383e+00" cType="1" res="-9.6264351159334183e-03" rms="4.8974511027336121e-01" purity="4.3361860513687134e-01" nType="0">
          <Node pos="l" depth="2" NCoef="0" IVar="-1" Cut="0.0000000000000000e+00" cType="1" res="-2.8912590350955725e-03" rms="4.9759557843208313e-01" purity="4.5116546750068665e-01" nType="-99"/>
          <Node pos="r" depth="2" NCoef="0" IVar="-1" Cut="0.0000000000000000e+00" cType="1" res="-1.1044746497645974e-03" rms="4.8838847875595093e-01" purity="4.3077307939529419e-01" nType="-99"/>
        </Node>
        <Node pos="r" depth="1" NCoef="0" IVar="0" Cut="8.6646442413330078e+00" cType="1" res="-4.0431550587527454e-04" rms="4.8572081327438354e-01" purity="5.9242993593215942e-01" nType="0">
          <Node pos="l" depth="2" NCoef="0" IVar="-1" Cut="0.0000000000000000e+00" cType="1" res="1.9569802097976208e-03" rms="4.9005129933357239e-01" purity="5.8198475837707520e-01" nType="-99"/>
          <Node pos="r" depth="2" NCoef="0" IVar="-1" Cut="0.0000000000000000e+00" cType="1" res="-1.0750952642410994e-03" rms="4.8442736268043518e-01" purity="5.9523123502731323e-01" nType="-99"/>
        </Node>
      </Node>
    </BinaryTree>
    <BinaryTree type="DecisionTree" boostWeight="1.0000000000000000e+00" itree="539">
      <Node pos="s" depth="0" NCoef="0" IVar="4" Cut="-7.0490694046020508e-01" cType="1" res="5.2889267681166530e-04" rms="4.8838961124420166e-01" purity="5.0054895877838135e-01" nType="0">
        <Node pos="l" depth="1" NCoef="0" IVar="1" Cut="2.0000000000000000e+00" cType="1" res="8.0759241245687008e-04" rms="9.5399141311645508e-02" purity="4.6749481558799744e-01" nType="0">
          <Node pos="l" depth="2" NCoef="0" IVar="-1" Cut="0.0000000000000000e+00" cType="1" res="-4.7148903831839561e-03" rms="4.8196494579315186e-01" purity="4.5046761631965637e-01" nType="-99"/>
          <Node pos="r" depth="2" NCoef="0" IVar="-1" Cut="0.0000000000000000e+00" cType="1" res="-7.7710632467642426e-04" rms="4.8606377840042114e-01" purity="4.7083136439323425e-01" nType="-99"/>
        </Node>
        <Node pos="r" depth="1" NCoef="0" IVar="3" Cut="8.9505481719970703e-01" cType="1" res="3.9849667809903622e-03" rms="4.8942026495933533e-01" purity="5.1282984018325806e-01" nType="0">
          <Node pos="l" depth="2" NCoef="0" IVar="-1" Cut="0.0000000000000000e+00" cType="1" res="1.0293768718838692e-03" rms="4.9339404702186584e-01" purity="4.8744398355484009e-01" nType="-99"/>
          <Node pos="r" depth="2" NCoef="0" IVar="-1" Cut="0.0000000000000000e+00" cType="1" res="-2.4760181549936533e-03" rms="4.6444508433341980e-01" purity="6.6555631160736084e-01" nType="-99"/>
        </Node>
      </Node>
    </BinaryTree>
    <BinaryTree type="DecisionTree" boostWeight="1.0000000000000000e+00" itree="540">
      <Node pos="s" depth="0" NCoef="0" IVar="1" Cut="4.0000000000000000e+00" cType="1" res="1.2224938254803419e-03" rms="1.6608995199203491e-01" purity="5.0211650133132935e-01" nType="0">
        <Node pos="l" depth="1" NCoef="0" IVar="4" Cut="-7.9589682817459106e-01" cType="1" res="-5.2150589181110263e-04" rms="4.8803159594535828e-01" purity="4.9820634722709656e-01" nType="0">
          <Node pos="l" depth="2" NCoef="0" IVar="-1" Cut="0.0000000000000000e+00" cType="1" res="-2.5398028083145618e-03" rms="4.7898051142692566e-01" purity="4.5332679152488708e-01" nType="-99"/>
          <Node pos="r" depth="2" NCoef="0" IVar="-1" Cut="0.0000000000000000e+00" cType="1" res="2.5758714764378965e-04" rms="4.8934921622276306e-01" purity="5.0499212741851807e-01" nType="-99"/>
        </Node>
        <Node pos="r" depth="1" NCoef="0" IVar="4" Cut="-7.9664468765258789e-01" cType="1" res="1.8946317955851555e-02" rms="4.8744404315948486e-01" purity="5.2630162239074707e-01" nType="0">
          <Node pos="l" depth="2" NCoef="0" IVar="-1" Cut="0.0000000000000000e+00" cType="1" res="-1.0082802036777139e-03" rms="4.8061513900756836e-01" purity="4.6555459499359131e-01" nType="-99"/>
          <Node pos="r" depth="2" NCoef="0" IVar="-1" Cut="0.0000000000000000e+00" cType="1" res="4.5295557938516140e-03" rms="4.8966050148010254e-01" purity="5.4911756515502930e-01" nType="-99"/>
        </Node>
      </Node>
    </BinaryTree>
    <BinaryTree type="DecisionTree" boostWeight="1.0000000000000000e+00" itree="541">
      <Node pos="s" depth="0" NCoef="0" IVar="0" Cut="8.1405181884765625e+00" cType="1" res="2.8771311044692993e-03" rms="4.8874738812446594e-01" purity="5.0324267148971558e-01" nType="0">
        <Node pos="l" depth="1" NCoef="0" IVar="-1" Cut="0.0000000000000000e+00" cType="1" res="3.9791739545762539e-03" rms="4.9678710103034973e-01" purity="5.3329896926879883e-01" nType="-99"/>
        <Node pos="r" depth="1" NCoef="0" IVar="4" Cut="4.6732999384403229e-02" cType="1" res="9.0433162404224277e-04" rms="4.8824781179428101e-01" purity="5.0169223546981812e-01" nType="0">
          <Node pos="l" depth="2" NCoef="0" IVar="-1" Cut="0.0000000000000000e+00" cType="1" res="5.6106026750057936e-04" rms="4.8935753107070923e-01" purity="4.9484267830848694e-01" nType="-99"/>
          <Node pos="r" depth="2" NCoef="0" IVar="-1" Cut="0.0000000000000000e+00" cType="1" res="-9.2728325398638844e-04" rms="4.8536950349807739e-01" purity="5.1901990175247192e-01" nType="-99"/>
        </Node>
      </Node>
    </BinaryTree>
    <BinaryTree type="DecisionTree" boostWeight="1.0000000000000000e+00" itree="542">
      <Node pos="s" depth="0" NCoef="0" IVar="3" Cut="-8.9514541625976562e-01" cType="1" res="1.3713435328099877e-04" rms="4.8768544197082520e-01" purity="5.0092548131942749e-01" nType="0">
        <Node pos="l" depth="1" NCoef="0" IVar="3" Cut="-9.2210489511489868e-01" cType="1" res="-9.4265099614858627e-03" rms="4.6780651807785034e-01" purity="3.4602457284927368e-01" nType="0">
          <Node pos="l" depth="2" NCoef="0" IVar="-1" Cut="0.0000000000000000e+00" cType="1" res="-3.9706481620669365e-03" rms="4.5358487963676453e-01" purity="3.0756288766860962e-01" nType="-99"/>
          <Node pos="r" depth="2" NCoef="0" IVar="-1" Cut="0.0000000000000000e+00" cType="1" res="1.5731147723272443e-03" rms="4.9081766605377197e-01" purity="4.1246533393859863e-01" nType="-99"/>
        </Node>
        <Node pos="r" depth="1" NCoef="0" IVar="0" Cut="8.8874244689941406e+00" cType="1" res="2.1046875044703484e-03" rms="4.9165242910385132e-01" purity="5.3279370069503784e-01" nType="0">
          <Node pos="l" depth="2" NCoef="0" IVar="-1" Cut="0.0000000000000000e+00" cType="1" res="9.1377703938633204e-04" rms="4.9514701962471008e-01" purity="5.2903974056243896e-01" nType="-99"/>
          <Node pos="r" depth="2" NCoef="0" IVar="-1" Cut="0.0000000000000000e+00" cType="1" res="-3.0182694899849594e-04" rms="4.8942235112190247e-01" purity="5.3513753414154053e-01" nType="-99"/>
        </Node>
      </Node>
    </BinaryTree>
    <BinaryTree type="DecisionTree" boostWeight="1.0000000000000000e+00" itree="543">
      <Node pos="s" depth="0" NCoef="0" IVar="1" Cut="5.0000000000000000e+00" cType="1" res="7.4123305967077613e-04" rms="1.6316443681716919e-01" purity="5.0468844175338745e-01" nType="0">
        <Node pos="l" depth="1" NCoef="0" IVar="3" Cut="-7.0772588253021240e-01" cType="1" res="6.4849853515625000e-03" rms="4.8763665556907654e-01" purity="5.0503045320510864e-01" nType="0">
          <Node pos="l" depth="2" NCoef="0" IVar="-1" Cut="0.0000000000000000e+00" cType="1" res="2.5924526198650710e-05" rms="4.8843753337860107e-01" purity="4.2475131154060364e-01" nType="-99"/>
          <Node pos="r" depth="2" NCoef="0" IVar="-1" Cut="0.0000000000000000e+00" cType="1" res="2.0275202114135027e-03" rms="4.8675918579101562e-01" purity="5.8471643924713135e-01" nType="-99"/>
        </Node>
        <Node pos="r" depth="1" NCoef="0" IVar="-1" Cut="0.0000000000000000e+00" cType="1" res="-3.7062969058752060e-03" rms="4.9124762415885925e-01" purity="4.9804687500000000e-01" nType="-99"/>
      </Node>
    </BinaryTree>
    <BinaryTree type="DecisionTree" boostWeight="1.0000000000000000e+00" itree="544">
      <Node pos="s" depth="0" NCoef="0" IVar="0" Cut="9.4886407852172852e+00" cType="1" res="-5.1029529422521591e-03" rms="4.8872676491737366e-01" purity="4.9517962336540222e-01" nType="0">
        <Node pos="l" depth="1" NCoef="0" IVar="5" Cut="-7.8505700826644897e-01" cType="1" res="-7.7837184071540833e-03" rms="4.9069234728813171e-01" purity="4.9393412470817566e-01" nType="0">
          <Node pos="l" depth="2" NCoef="0" IVar="-1" Cut="0.0000000000000000e+00" cType="1" res="2.3676834534853697e-03" rms="4.8741227388381958e-01" purity="5.1568263769149780e-01" nType="-99"/>
          <Node pos="r" depth="2" NCoef="0" IVar="-1" Cut="0.0000000000000000e+00" cType="1" res="-1.3294451637193561e-03" rms="4.9085351824760437e-01" purity="4.9263718724250793e-01" nType="-99"/>
        </Node>
        <Node pos="r" depth="1" NCoef="0" IVar="2" Cut="2.0000000000000000e+00" cType="1" res="7.3618139140307903e-03" rms="4.5107093453407288e-01" purity="5.0092482566833496e-01" nType="0">
          <Node pos="l" depth="2" NCoef="0" IVar="-1" Cut="0.0000000000000000e+00" cType="1" res="-1.6218563541769981e-04" rms="4.7593611478805542e-01" purity="4.9025762081146240e-01" nType="-99"/>
          <Node pos="r" depth="2" NCoef="0" IVar="-1" Cut="0.0000000000000000e+00" cType="1" res="5.2987146191298962e-03" rms="4.8391976952552795e-01" purity="5.1592415571212769e-01" nType="-99"/>
        </Node>
      </Node>
    </BinaryTree>
    <BinaryTree type="DecisionTree" boostWeight="1.0000000000000000e+00" itree="545">
      <Node pos="s" depth="0" NCoef="0" IVar="3" Cut="-8.0070656538009644e-01" cType="1" res="-8.3271169569343328e-04" rms="4.8893025517463684e-01" purity="4.9867120385169983e-01" nType="0">
        <Node pos="l" depth="1" NCoef="0" IVar="0" Cut="9.1388568878173828e+00" cType="1" res="6.9916923530399799e-03" rms="4.8567077517509460e-01" purity="4.1377526521682739e-01" nType="0">
          <Node pos="l" depth="2" NCoef="0" IVar="-1" Cut="0.0000000000000000e+00" cType="1" res="1.9073830917477608e-03" rms="4.9370357394218445e-01" purity="4.4251087307929993e-01" nType="-99"/>
          <Node pos="r" depth="2" NCoef="0" IVar="-1" Cut="0.0000000000000000e+00" cType="1" res="-4.5501373824663460e-04" rms="4.7552073001861572e-01" purity="3.7866607308387756e-01" nType="-99"/>
        </Node>
        <Node pos="r" depth="1" NCoef="0" IVar="0" Cut="9.7978286743164062e+00" cType="1" res="-5.4383357055485249e-03" rms="4.9078041315078735e-01" purity="5.4864293336868286e-01" nType="0">
          <Node pos="l" depth="2" NCoef="0" IVar="-1" Cut="0.0000000000000000e+00" cType="1" res="-9.9612493067979813e-04" rms="4.9144381284713745e-01" purity="5.4625195264816284e-01" nType="-99"/>
          <Node pos="r" depth="2" NCoef="0" IVar="-1" Cut="0.0000000000000000e+00" cType="1" res="4.8652477562427521e-03" rms="4.7774383425712585e-01" purity="5.9332156181335449e-01" nType="-99"/>
        </Node>
      </Node>
    </BinaryTree>
    <BinaryTree type="DecisionTree" boostWeight="1.0000000000000000e+00" itree="546">
      <Node pos="s" depth="0" NCoef="0" IVar="4" Cut="-7.0527523756027222e-01" cType="1" res="-3.1526468228548765e-03" rms="4.8737496137619019e-01" purity="4.9593210220336914e-01" nType="0">
        <Node pos="l" depth="1" NCoef="0" IVar="3" Cut="-8.0082267522811890e-01" cType="1" res="8.4167839959263802e-03" rms="4.8365908861160278e-01" purity="4.8021420836448669e-01" nType="0">
          <Node pos="l" depth="2" NCoef="0" IVar="-1" Cut="0.0000000000000000e+00" cType="1" res="-8.2554132677614689e-04" rms="4.7353941202163696e-01" purity="3.5905110836029053e-01" nType="-99"/>
          <Node pos="r" depth="2" NCoef="0" IVar="-1" Cut="0.0000000000000000e+00" cType="1" res="2.6402412913739681e-03" rms="4.8994559049606323e-01" purity="5.5916506052017212e-01" nType="-99"/>
        </Node>
        <Node pos="r" depth="1" NCoef="0" IVar="4" Cut="7.4948948621749878e-01" cType="1" res="-7.4876304715871811e-03" rms="4.8868948221206665e-01" purity="5.0182145833969116e-01" nType="0">
          <Node pos="l" depth="2" NCoef="0" IVar="-1" Cut="0.0000000000000000e+00" cType="1" res="-2.0248049404472113e-03" rms="4.9148824810981750e-01" purity="4.8831978440284729e-01" nType="-99"/>
          <Node pos="r" depth="2" NCoef="0" IVar="-1" Cut="0.0000000000000000e+00" cType="1" res="6.7329569719731808e-04" rms="4.8248690366744995e-01" purity="5.3049331903457642e-01" nType="-99"/>
        </Node>
      </Node>
    </BinaryTree>
    <BinaryTree type="DecisionTree" boostWeight="1.0000000000000000e+00" itree="547">
      <Node pos="s" depth="0" NCoef="0" IVar="3" Cut="-8.0165529251098633e-01" cType="1" res="2.1102635655552149e-03" rms="4.8903864622116089e-01" purity="5.0133579969406128e-01" nType="0">
        <Node pos="l" depth="1" NCoef="0" IVar="5" Cut="7.9137295484542847e-01" cType="1" res="1.1056130751967430e-02" rms="4.8568898439407349e-01" purity="4.1719233989715576e-01" nType="0">
          <Node pos="l" depth="2" NCoef="0" IVar="-1" Cut="0.0000000000000000e+00" cType="1" res="1.3769832439720631e-03" rms="4.8523533344268799e-01" purity="4.1383504867553711e-01" nType="-99"/>
          <Node pos="r" depth="2" NCoef="0" IVar="-1" Cut="0.0000000000000000e+00" cType="1" res="6.9676083512604237e-03" rms="4.8987746238708496e-01" purity="4.5652332901954651e-01" nType="-99"/>
        </Node>
        <Node pos="r" depth="1" NCoef="0" IVar="2" Cut="2.0000000000000000e+00" cType="1" res="-3.5876582842320204e-04" rms="3.7545181810855865e-02" purity="5.5103284120559692e-01" nType="0">
          <Node pos="l" depth="2" NCoef="0" IVar="-1" Cut="0.0000000000000000e+00" cType="1" res="-1.6705042216926813e-03" rms="4.8981013894081116e-01" purity="5.4919129610061646e-01" nType="-99"/>
          <Node pos="r" depth="2" NCoef="0" IVar="-1" Cut="0.0000000000000000e+00" cType="1" res="1.1544381268322468e-03" rms="4.9216607213020325e-01" purity="5.5338537693023682e-01" nType="-99"/>
        </Node>
      </Node>
    </BinaryTree>
    <BinaryTree type="DecisionTree" boostWeight="1.0000000000000000e+00" itree="548">
      <Node pos="s" depth="0" NCoef="0" IVar="1" Cut="2.0000000000000000e+00" cType="1" res="-2.5674965581856668e-04" rms="4.0717655420303345e-01" purity="4.9781084060668945e-01" nType="0">
        <Node pos="l" depth="1" NCoef="0" IVar="3" Cut="8.9637517929077148e-01" cType="1" res="5.2320249378681183e-03" rms="4.8866888880729675e-01" purity="5.0536251068115234e-01" nType="0">
          <Node pos="l" depth="2" NCoef="0" IVar="-1" Cut="0.0000000000000000e+00" cType="1" res="4.5416175271384418e-04" rms="4.9249410629272461e-01" purity="4.7919714450836182e-01" nType="-99"/>
          <Node pos="r" depth="2" NCoef="0" IVar="-1" Cut="0.0000000000000000e+00" cType="1" res="4.0070237591862679e-03" rms="4.6089965105056763e-01" purity="6.8723225593566895e-01" nType="-99"/>
        </Node>
        <Node pos="r" depth="1" NCoef="0" IVar="0" Cut="8.9277524948120117e+00" cType="1" res="-5.6143989786505699e-03" rms="4.8777607083320618e-01" purity="4.9476182460784912e-01" nType="0">
          <Node pos="l" depth="2" NCoef="0" IVar="-1" Cut="0.0000000000000000e+00" cType="1" res="-9.9992248578928411e-06" rms="4.9178335070610046e-01" purity="5.0285375118255615e-01" nType="-99"/>
          <Node pos="r" depth="2" NCoef="0" IVar="-1" Cut="0.0000000000000000e+00" cType="1" res="-1.8863845616579056e-03" rms="4.8512715101242065e-01" purity="4.8951652646064758e-01" nType="-99"/>
        </Node>
      </Node>
    </BinaryTree>
    <BinaryTree type="DecisionTree" boostWeight="1.0000000000000000e+00" itree="549">
      <Node pos="s" depth="0" NCoef="0" IVar="3" Cut="8.9512044191360474e-01" cType="1" res="2.2260840050876141e-03" rms="4.8832213878631592e-01" purity="5.0240945816040039e-01" nType="0">
        <Node pos="l" depth="1" NCoef="0" IVar="4" Cut="4.8711817711591721e-02" cType="1" res="4.2146835476160049e-03" rms="4.9145308136940002e-01" purity="4.7276109457015991e-01" nType="0">
          <Node pos="l" depth="2" NCoef="0" IVar="-1" Cut="0.0000000000000000e+00" cType="1" res="1.9899770268239081e-04" rms="4.9105963110923767e-01" purity="4.6508008241653442e-01" nType="-99"/>
          <Node pos="r" depth="2" NCoef="0" IVar="-1" Cut="0.0000000000000000e+00" cType="1" res="1.8886098405346274e-03" rms="4.9241685867309570e-01" purity="4.9325764179229736e-01" nType="-99"/>
        </Node>
        <Node pos="r" depth="1" NCoef="0" IVar="4" Cut="4.5231714844703674e-02" cType="1" res="-6.9394530728459358e-03" rms="4.7351601719856262e-01" purity="6.3905996084213257e-01" nType="0">
          <Node pos="l" depth="2" NCoef="0" IVar="-1" Cut="0.0000000000000000e+00" cType="1" res="6.6428363788872957e-04" rms="4.7465604543685913e-01" purity="6.2947654724121094e-01" nType="-99"/>
          <Node pos="r" depth="2" NCoef="0" IVar="-1" Cut="0.0000000000000000e+00" cType="1" res="-5.5018006823956966e-03" rms="4.7035187482833862e-01" purity="6.5906524658203125e-01" nType="-99"/>
        </Node>
      </Node>
    </BinaryTree>
    <BinaryTree type="DecisionTree" boostWeight="1.0000000000000000e+00" itree="550">
      <Node pos="s" depth="0" NCoef="0" IVar="4" Cut="7.9617953300476074e-01" cType="1" res="-5.4908380843698978e-04" rms="4.8810076713562012e-01" purity="4.9973678588867188e-01" nType="0">
        <Node pos="l" depth="1" NCoef="0" IVar="0" Cut="8.1875743865966797e+00" cType="1" res="1.3184747658669949e-03" rms="4.8928612470626831e-01" purity="4.9551531672477722e-01" nType="0">
          <Node pos="l" depth="2" NCoef="0" IVar="-1" Cut="0.0000000000000000e+00" cType="1" res="-2.3005269467830658e-03" rms="4.9811378121376038e-01" purity="4.6795758605003357e-01" nType="-99"/>
          <Node pos="r" depth="2" NCoef="0" IVar="-1" Cut="0.0000000000000000e+00" cType="1" res="4.5865110587328672e-04" rms="4.8871073126792908e-01" purity="4.9716952443122864e-01" nType="-99"/>
        </Node>
        <Node pos="r" depth="1" NCoef="0" IVar="3" Cut="-8.9545327425003052e-01" cType="1" res="-1.0935280472040176e-02" rms="4.8132312297821045e-01" purity="5.2321386337280273e-01" nType="0">
          <Node pos="l" depth="2" NCoef="0" IVar="-1" Cut="0.0000000000000000e+00" cType="1" res="-4.0675606578588486e-03" rms="4.8230049014091492e-01" purity="3.9206829667091370e-01" nType="-99"/>
          <Node pos="r" depth="2" NCoef="0" IVar="-1" Cut="0.0000000000000000e+00" cType="1" res="-6.1709067085757852e-04" rms="4.8061922192573547e-01" purity="5.9670799970626831e-01" nType="-99"/>
        </Node>
      </Node>
    </BinaryTree>
    <BinaryTree type="DecisionTree" boostWeight="1.0000000000000000e+00" itree="551">
      <Node pos="s" depth="0" NCoef="0" IVar="1" Cut="5.0000000000000000e+00" cType="1" res="-1.4998350525274873e-03" rms="2.9637801647186279e-01" purity="4.9748194217681885e-01" nType="0">
        <Node pos="l" depth="1" NCoef="0" IVar="0" Cut="8.2212305068969727e+00" cType="1" res="-1.3516178587451577e-03" rms="4.8872298002243042e-01" purity="4.9748587608337402e-01" nType="0">
          <Node pos="l" depth="2" NCoef="0" IVar="-1" Cut="0.0000000000000000e+00" cType="1" res="-1.6195764765143394e-03" rms="4.9819731712341309e-01" purity="4.7371679544448853e-01" nType="-99"/>
          <Node pos="r" depth="2" NCoef="0" IVar="-1" Cut="0.0000000000000000e+00" cType="1" res="-5.0494643801357597e-05" rms="4.8805800080299377e-01" purity="4.9909338355064392e-01" nType="-99"/>
        </Node>
        <Node pos="r" depth="1" NCoef="0" IVar="-1" Cut="0.0000000000000000e+00" cType="1" res="-3.7012093234807253e-03" rms="4.9057999253273010e-01" purity="4.9740099906921387e-01" nType="-99"/>
      </Node>
    </BinaryTree>
    <BinaryTree type="DecisionTree" boostWeight="1.0000000000000000e+00" itree="552">
      <Node pos="s" depth="0" NCoef="0" IVar="1" Cut="4.0000000000000000e+00" cType="1" res="-4.1585357394069433e-04" rms="3.0989655852317810e-01" purity="5.0031685829162598e-01" nType="0">
        <Node pos="l" depth="1" NCoef="0" IVar="0" Cut="9.5320987701416016e+00" cType="1" res="-2.3998585529625416e-03" rms="4.8838049173355103e-01" purity="4.9697783589363098e-01" nType="0">
          <Node pos="l" depth="2" NCoef="0" IVar="-1" Cut="0.0000000000000000e+00" cType="1" res="-3.0673193123220699e-06" rms="4.9060770869255066e-01" purity="5.0078564882278442e-01" nType="-99"/>
          <Node pos="r" depth="2" NCoef="0" IVar="-1" Cut="0.0000000000000000e+00" cType="1" res="-4.2844573035836220e-03" rms="4.7579646110534668e-01" purity="4.7613894939422607e-01" nType="-99"/>
        </Node>
        <Node pos="r" depth="1" NCoef="0" IVar="5" Cut="4.2960621416568756e-02" cType="1" res="1.3835795223712921e-02" rms="4.8762899637222290e-01" purity="5.2075546979904175e-01" nType="0">
          <Node pos="l" depth="2" NCoef="0" IVar="-1" Cut="0.0000000000000000e+00" cType="1" res="2.7179461903870106e-04" rms="4.9012827873229980e-01" purity="5.0871908664703369e-01" nType="-99"/>
          <Node pos="r" depth="2" NCoef="0" IVar="-1" Cut="0.0000000000000000e+00" cType="1" res="6.9652902893722057e-03" rms="4.8052376508712769e-01" purity="5.4900258779525757e-01" nType="-99"/>
        </Node>
      </Node>
    </BinaryTree>
    <BinaryTree type="DecisionTree" boostWeight="1.0000000000000000e+00" itree="553">
      <Node pos="s" depth="0" NCoef="0" IVar="0" Cut="8.6421813964843750e+00" cType="1" res="5.3919048514217138e-04" rms="4.8844978213310242e-01" purity="5.0058543682098389e-01" nType="0">
        <Node pos="l" depth="1" NCoef="0" IVar="4" Cut="-6.7948836088180542e-01" cType="1" res="-1.5326097607612610e-02" rms="4.9416336417198181e-01" purity="4.9283090233802795e-01" nType="0">
          <Node pos="l" depth="2" NCoef="0" IVar="-1" Cut="0.0000000000000000e+00" cType="1" res="-3.6271272692829370e-03" rms="4.8948642611503601e-01" purity="4.4588768482208252e-01" nType="-99"/>
          <Node pos="r" depth="2" NCoef="0" IVar="-1" Cut="0.0000000000000000e+00" cType="1" res="-8.4258115384727716e-04" rms="4.9572741985321045e-01" purity="5.1064640283584595e-01" nType="-99"/>
        </Node>
        <Node pos="r" depth="1" NCoef="0" IVar="0" Cut="9.2540283203125000e+00" cType="1" res="4.8406911082565784e-03" rms="4.8680004477500916e-01" purity="5.0268793106079102e-01" nType="0">
          <Node pos="l" depth="2" NCoef="0" IVar="-1" Cut="0.0000000000000000e+00" cType="1" res="-8.2772559835575521e-05" rms="4.9055716395378113e-01" purity="4.9839475750923157e-01" nType="-99"/>
          <Node pos="r" depth="2" NCoef="0" IVar="-1" Cut="0.0000000000000000e+00" cType="1" res="2.8961403295397758e-03" rms="4.8170852661132812e-01" purity="5.0834995508193970e-01" nType="-99"/>
        </Node>
      </Node>
    </BinaryTree>
    <BinaryTree type="DecisionTree" boostWeight="1.0000000000000000e+00" itree="554">
      <Node pos="s" depth="0" NCoef="0" IVar="3" Cut="8.9696711301803589e-01" cType="1" res="-5.3690201602876186e-03" rms="4.8903989791870117e-01" purity="4.9478423595428467e-01" nType="0">
        <Node pos="l" depth="1" NCoef="0" IVar="0" Cut="9.6110630035400391e+00" cType="1" res="-1.8135333666577935e-03" rms="4.9178913235664368e-01" purity="4.6716594696044922e-01" nType="0">
          <Node pos="l" depth="2" NCoef="0" IVar="-1" Cut="0.0000000000000000e+00" cType="1" res="-5.4918695241212845e-04" rms="4.9268275499343872e-01" purity="4.6951827406883240e-01" nType="-99"/>
          <Node pos="r" depth="2" NCoef="0" IVar="-1" Cut="0.0000000000000000e+00" cType="1" res="3.8529762532562017e-03" rms="4.8422077298164368e-01" purity="4.4814184308052063e-01" nType="-99"/>
        </Node>
        <Node pos="r" depth="1" NCoef="0" IVar="3" Cut="9.5988970994949341e-01" cType="1" res="-2.2383889183402061e-02" rms="4.7529539465904236e-01" purity="6.2695217132568359e-01" nType="0">
          <Node pos="l" depth="2" NCoef="0" IVar="-1" Cut="0.0000000000000000e+00" cType="1" res="-5.0808908417820930e-03" rms="4.8570448160171509e-01" purity="5.9911531209945679e-01" nType="-99"/>
          <Node pos="r" depth="2" NCoef="0" IVar="-1" Cut="0.0000000000000000e+00" cType="1" res="1.8605943769216537e-03" rms="4.2078110575675964e-01" purity="7.5990837812423706e-01" nType="-99"/>
        </Node>
      </Node>
    </BinaryTree>
    <BinaryTree type="DecisionTree" boostWeight="1.0000000000000000e+00" itree="555">
      <Node pos="s" depth="0" NCoef="0" IVar="0" Cut="8.2639322280883789e+00" cType="1" res="6.2052835710346699e-04" rms="4.8914483189582825e-01" purity="5.0097560882568359e-01" nType="0">
        <Node pos="l" depth="1" NCoef="0" IVar="-1" Cut="0.0000000000000000e+00" cType="1" res="1.6756018158048391e-03" rms="4.9687474966049194e-01" purity="5.1048094034194946e-01" nType="-99"/>
        <Node pos="r" depth="1" NCoef="0" IVar="4" Cut="-7.9909282922744751e-01" cType="1" res="-6.6854048054665327e-04" rms="4.8851293325424194e-01" purity="5.0023370981216431e-01" nType="0">
          <Node pos="l" depth="2" NCoef="0" IVar="-1" Cut="0.0000000000000000e+00" cType="1" res="1.5769569436088204e-03" rms="4.8168912529945374e-01" purity="4.7906634211540222e-01" nType="-99"/>
          <Node pos="r" depth="2" NCoef="0" IVar="-1" Cut="0.0000000000000000e+00" cType="1" res="-3.8698737625963986e-04" rms="4.8970514535903931e-01" purity="5.0402283668518066e-01" nType="-99"/>
        </Node>
      </Node>
    </BinaryTree>
    <BinaryTree type="DecisionTree" boostWeight="1.0000000000000000e+00" itree="556">
      <Node pos="s" depth="0" NCoef="0" IVar="0" Cut="8.3852252960205078e+00" cType="1" res="-1.5849934425204992e-03" rms="4.8877850174903870e-01" purity="4.9777320027351379e-01" nType="0">
        <Node pos="l" depth="1" NCoef="0" IVar="2" Cut="2.0000000000000000e+00" cType="1" res="-1.6375089762732387e-04" rms="9.1159734874963760e-03" purity="5.2095866203308105e-01" nType="0">
          <Node pos="l" depth="2" NCoef="0" IVar="-1" Cut="0.0000000000000000e+00" cType="1" res="2.1450808271765709e-03" rms="4.9482601881027222e-01" purity="5.2966588735580444e-01" nType="-99"/>
          <Node pos="r" depth="2" NCoef="0" IVar="-1" Cut="0.0000000000000000e+00" cType="1" res="9.7468629246577621e-04" rms="4.9918124079704285e-01" purity="5.0937926769256592e-01" nType="-99"/>
        </Node>
        <Node pos="r" depth="1" NCoef="0" IVar="3" Cut="8.0269706249237061e-01" cType="1" res="-3.7314929068088531e-03" rms="4.8777067661285400e-01" purity="4.9499022960662842e-01" nType="0">
          <Node pos="l" depth="2" NCoef="0" IVar="-1" Cut="0.0000000000000000e+00" cType="1" res="-2.1503899915842339e-05" rms="4.8900043964385986e-01" purity="4.3837127089500427e-01" nType="-99"/>
          <Node pos="r" depth="2" NCoef="0" IVar="-1" Cut="0.0000000000000000e+00" cType="1" res="-1.7211314989253879e-03" rms="4.8568809032440186e-01" purity="5.8789706230163574e-01" nType="-99"/>
        </Node>
      </Node>
    </BinaryTree>
    <BinaryTree type="DecisionTree" boostWeight="1.0000000000000000e+00" itree="557">
      <Node pos="s" depth="0" NCoef="0" IVar="0" Cut="8.6486883163452148e+00" cType="1" res="1.3341717422008514e-03" rms="4.8786523938179016e-01" purity="5.0112980604171753e-01" nType="0">
        <Node pos="l" depth="1" NCoef="0" IVar="3" Cut="-7.0220637321472168e-01" cType="1" res="1.1834267526865005e-02" rms="4.9612313508987427e-01" purity="5.1923173666000366e-01" nType="0">
          <Node pos="l" depth="2" NCoef="0" IVar="-1" Cut="0.0000000000000000e+00" cType="1" res="2.2259717807173729e-03" rms="4.9817994236946106e-01" purity="4.8743292689323425e-01" nType="-99"/>
          <Node pos="r" depth="2" NCoef="0" IVar="-1" Cut="0.0000000000000000e+00" cType="1" res="1.9968120614066720e-04" rms="4.9381569027900696e-01" purity="5.5174952745437622e-01" nType="-99"/>
        </Node>
        <Node pos="r" depth="1" NCoef="0" IVar="3" Cut="-7.0768195390701294e-01" cType="1" res="-1.5027406625449657e-03" rms="4.8557105660438538e-01" purity="4.9623897671699524e-01" nType="0">
          <Node pos="l" depth="2" NCoef="0" IVar="-1" Cut="0.0000000000000000e+00" cType="1" res="-1.6303235897794366e-03" rms="4.8455169796943665e-01" purity="4.0694656968116760e-01" nType="-99"/>
          <Node pos="r" depth="2" NCoef="0" IVar="-1" Cut="0.0000000000000000e+00" cType="1" res="1.0580871021375060e-03" rms="4.8645472526550293e-01" purity="5.8322530984878540e-01" nType="-99"/>
        </Node>
      </Node>
    </BinaryTree>
    <BinaryTree type="DecisionTree" boostWeight="1.0000000000000000e+00" itree="558">
      <Node pos="s" depth="0" NCoef="0" IVar="0" Cut="8.1408815383911133e+00" cType="1" res="2.8398148715496063e-03" rms="4.8850369453430176e-01" purity="5.0226056575775146e-01" nType="0">
        <Node pos="l" depth="1" NCoef="0" IVar="-1" Cut="0.0000000000000000e+00" cType="1" res="3.0745884869247675e-03" rms="4.9663349986076355e-01" purity="5.2614372968673706e-01" nType="-99"/>
        <Node pos="r" depth="1" NCoef="0" IVar="0" Cut="8.7314481735229492e+00" cType="1" res="1.3935128226876259e-03" rms="4.8803806304931641e-01" purity="5.0103217363357544e-01" nType="0">
          <Node pos="l" depth="2" NCoef="0" IVar="-1" Cut="0.0000000000000000e+00" cType="1" res="-1.1393480235710740e-03" rms="4.9249362945556641e-01" purity="4.9798035621643066e-01" nType="-99"/>
          <Node pos="r" depth="2" NCoef="0" IVar="-1" Cut="0.0000000000000000e+00" cType="1" res="9.0662011643871665e-04" rms="4.8669159412384033e-01" purity="5.0191330909729004e-01" nType="-99"/>
        </Node>
      </Node>
    </BinaryTree>
    <BinaryTree type="DecisionTree" boostWeight="1.0000000000000000e+00" itree="559">
      <Node pos="s" depth="0" NCoef="0" IVar="3" Cut="-8.0215638875961304e-01" cType="1" res="4.3492164695635438e-04" rms="4.8846295475959778e-01" purity="5.0102460384368896e-01" nType="0">
        <Node pos="l" depth="1" NCoef="0" IVar="3" Cut="-9.1900634765625000e-01" cType="1" res="5.6362417526543140e-03" rms="4.8458236455917358e-01" purity="4.1341286897659302e-01" nType="0">
          <Node pos="l" depth="2" NCoef="0" IVar="-1" Cut="0.0000000000000000e+00" cType="1" res="-1.9980648066848516e-03" rms="4.5887693762779236e-01" purity="3.2023379206657410e-01" nType="-99"/>
          <Node pos="r" depth="2" NCoef="0" IVar="-1" Cut="0.0000000000000000e+00" cType="1" res="2.0642417948693037e-03" rms="4.9610018730163574e-01" purity="4.5749568939208984e-01" nType="-99"/>
        </Node>
        <Node pos="r" depth="1" NCoef="0" IVar="0" Cut="8.8072624206542969e+00" cType="1" res="-2.5719299446791410e-03" rms="4.9066713452339172e-01" purity="5.5167239904403687e-01" nType="0">
          <Node pos="l" depth="2" NCoef="0" IVar="-1" Cut="0.0000000000000000e+00" cType="1" res="2.9874508618377149e-04" rms="4.9379959702491760e-01" purity="5.3964447975158691e-01" nType="-99"/>
          <Node pos="r" depth="2" NCoef="0" IVar="-1" Cut="0.0000000000000000e+00" cType="1" res="-9.5622759545221925e-04" rms="4.8921424150466919e-01" purity="5.5715346336364746e-01" nType="-99"/>
        </Node>
      </Node>
    </BinaryTree>
    <BinaryTree type="DecisionTree" boostWeight="1.0000000000000000e+00" itree="560">
      <Node pos="s" depth="0" NCoef="0" IVar="1" Cut="4.0000000000000000e+00" cType="1" res="-8.5857609519734979e-05" rms="2.7182394266128540e-01" purity="4.9970087409019470e-01" nType="0">
        <Node pos="l" depth="1" NCoef="0" IVar="3" Cut="-7.0749557018280029e-01" cType="1" res="1.4693983830511570e-03" rms="4.8863115906715393e-01" purity="5.0096428394317627e-01" nType="0">
          <Node pos="l" depth="2" NCoef="0" IVar="-1" Cut="0.0000000000000000e+00" cType="1" res="8.5560401203110814e-04" rms="4.8918503522872925e-01" purity="4.3046149611473083e-01" nType="-99"/>
          <Node pos="r" depth="2" NCoef="0" IVar="-1" Cut="0.0000000000000000e+00" cType="1" res="-3.7817834527231753e-04" rms="4.8806229233741760e-01" purity="5.6945961713790894e-01" nType="-99"/>
        </Node>
        <Node pos="r" depth="1" NCoef="0" IVar="2" Cut="2.0000000000000000e+00" cType="1" res="-1.1762893700506538e-04" rms="4.2005293071269989e-02" purity="4.9196529388427734e-01" nType="0">
          <Node pos="l" depth="2" NCoef="0" IVar="-1" Cut="0.0000000000000000e+00" cType="1" res="-3.8158816751092672e-03" rms="4.8517507314682007e-01" purity="4.8672536015510559e-01" nType="-99"/>
          <Node pos="r" depth="2" NCoef="0" IVar="-1" Cut="0.0000000000000000e+00" cType="1" res="-1.6136742488015443e-04" rms="4.9050417542457581e-01" purity="5.0152587890625000e-01" nType="-99"/>
        </Node>
      </Node>
    </BinaryTree>
    <BinaryTree type="DecisionTree" boostWeight="1.0000000000000000e+00" itree="561">
      <Node pos="s" depth="0" NCoef="0" IVar="3" Cut="-8.9536780118942261e-01" cType="1" res="-1.7485591815784574e-03" rms="4.8841798305511475e-01" purity="4.9826139211654663e-01" nType="0">
        <Node pos="l" depth="1" NCoef="0" IVar="4" Cut="-7.0241034030914307e-01" cType="1" res="1.0247678495943546e-02" rms="4.7317931056022644e-01" purity="3.6166015267372131e-01" nType="0">
          <Node pos="l" depth="2" NCoef="0" IVar="-1" Cut="0.0000000000000000e+00" cType="1" res="7.0684789679944515e-03" rms="4.6924611926078796e-01" purity="3.4388223290443420e-01" nType="-99"/>
          <Node pos="r" depth="2" NCoef="0" IVar="-1" Cut="0.0000000000000000e+00" cType="1" res="-2.5217048823833466e-04" rms="4.7448322176933289e-01" purity="3.6968916654586792e-01" nType="-99"/>
        </Node>
        <Node pos="r" depth="1" NCoef="0" IVar="0" Cut="8.4704437255859375e+00" cType="1" res="-4.2385561391711235e-03" rms="4.9148508906364441e-01" purity="5.2661502361297607e-01" nType="0">
          <Node pos="l" depth="2" NCoef="0" IVar="-1" Cut="0.0000000000000000e+00" cType="1" res="-2.0810277201235294e-03" rms="4.9819889664649963e-01" purity="4.9727362394332886e-01" nType="-99"/>
          <Node pos="r" depth="2" NCoef="0" IVar="-1" Cut="0.0000000000000000e+00" cType="1" res="-2.3343173961620778e-04" rms="4.9024596810340881e-01" purity="5.3174394369125366e-01" nType="-99"/>
        </Node>
      </Node>
    </BinaryTree>
    <BinaryTree type="DecisionTree" boostWeight="1.0000000000000000e+00" itree="562">
      <Node pos="s" depth="0" NCoef="0" IVar="0" Cut="8.7359209060668945e+00" cType="1" res="-2.5610513985157013e-03" rms="4.8930218815803528e-01" purity="4.9686667323112488e-01" nType="0">
        <Node pos="l" depth="1" NCoef="0" IVar="2" Cut="2.0000000000000000e+00" cType="1" res="-6.7954315454699099e-05" rms="5.8824261650443077e-03" purity="5.1104909181594849e-01" nType="0">
          <Node pos="l" depth="2" NCoef="0" IVar="-1" Cut="0.0000000000000000e+00" cType="1" res="1.6688563628122211e-03" rms="4.9393111467361450e-01" purity="5.2404683828353882e-01" nType="-99"/>
          <Node pos="r" depth="2" NCoef="0" IVar="-1" Cut="0.0000000000000000e+00" cType="1" res="-8.4070774028077722e-04" rms="4.9562755227088928e-01" purity="4.9433180689811707e-01" nType="-99"/>
        </Node>
        <Node pos="r" depth="1" NCoef="0" IVar="0" Cut="9.2416009902954102e+00" cType="1" res="-5.5198739282786846e-03" rms="4.8731347918510437e-01" purity="4.9187242984771729e-01" nType="0">
          <Node pos="l" depth="2" NCoef="0" IVar="-1" Cut="0.0000000000000000e+00" cType="1" res="-1.8298485083505511e-03" rms="4.9156856536865234e-01" purity="4.8614647984504700e-01" nType="-99"/>
          <Node pos="r" depth="2" NCoef="0" IVar="-1" Cut="0.0000000000000000e+00" cType="1" res="2.8085141093470156e-04" rms="4.8241338133811951e-01" purity="4.9828812479972839e-01" nType="-99"/>
        </Node>
      </Node>
    </BinaryTree>
    <BinaryTree type="DecisionTree" boostWeight="1.0000000000000000e+00" itree="563">
      <Node pos="s" depth="0" NCoef="0" IVar="4" Cut="-7.0241034030914307e-01" cType="1" res="-3.6023935535922647e-05" rms="4.8758885264396667e-01" purity="5.0044322013854980e-01" nType="0">
        <Node pos="l" depth="1" NCoef="0" IVar="5" Cut="4.4147692620754242e-02" cType="1" res="-9.9481586366891861e-03" rms="4.8513162136077881e-01" purity="4.6753799915313721e-01" nType="0">
          <Node pos="l" depth="2" NCoef="0" IVar="-1" Cut="0.0000000000000000e+00" cType="1" res="-2.4378709495067596e-03" rms="4.8517799377441406e-01" purity="4.6056339144706726e-01" nType="-99"/>
          <Node pos="r" depth="2" NCoef="0" IVar="-1" Cut="0.0000000000000000e+00" cType="1" res="8.7361736223101616e-04" rms="4.8466184735298157e-01" purity="4.8820510506629944e-01" nType="-99"/>
        </Node>
        <Node pos="r" depth="1" NCoef="0" IVar="1" Cut="2.0000000000000000e+00" cType="1" res="1.5468152705579996e-03" rms="2.6587855815887451e-01" purity="5.1248061656951904e-01" nType="0">
          <Node pos="l" depth="2" NCoef="0" IVar="-1" Cut="0.0000000000000000e+00" cType="1" res="-6.7772984039038420e-04" rms="4.8908820748329163e-01" purity="5.0076895952224731e-01" nType="-99"/>
          <Node pos="r" depth="2" NCoef="0" IVar="-1" Cut="0.0000000000000000e+00" cType="1" res="1.2381994165480137e-03" rms="4.8804330825805664e-01" purity="5.1855665445327759e-01" nType="-99"/>
        </Node>
      </Node>
    </BinaryTree>
    <BinaryTree type="DecisionTree" boostWeight="1.0000000000000000e+00" itree="564">
      <Node pos="s" depth="0" NCoef="0" IVar="0" Cut="8.2805833816528320e+00" cType="1" res="2.2824420011602342e-04" rms="4.8798149824142456e-01" purity="5.0051426887512207e-01" nType="0">
        <Node pos="l" depth="1" NCoef="0" IVar="-1" Cut="0.0000000000000000e+00" cType="1" res="-2.3072229232639074e-03" rms="4.9671328067779541e-01" purity="4.7502842545509338e-01" nType="-99"/>
        <Node pos="r" depth="1" NCoef="0" IVar="5" Cut="-6.9079875946044922e-01" cType="1" res="2.1552613470703363e-03" rms="4.8720145225524902e-01" purity="5.0262516736984253e-01" nType="0">
          <Node pos="l" depth="2" NCoef="0" IVar="-1" Cut="0.0000000000000000e+00" cType="1" res="2.5622085668146610e-03" rms="4.8655250668525696e-01" purity="5.1286548376083374e-01" nType="-99"/>
          <Node pos="r" depth="2" NCoef="0" IVar="-1" Cut="0.0000000000000000e+00" cType="1" res="4.6991637645987794e-05" rms="4.8726555705070496e-01" purity="5.0115895271301270e-01" nType="-99"/>
        </Node>
      </Node>
    </BinaryTree>
    <BinaryTree type="DecisionTree" boostWeight="1.0000000000000000e+00" itree="565">
      <Node pos="s" depth="0" NCoef="0" IVar="3" Cut="-8.9550876617431641e-01" cType="1" res="5.8863572776317596e-03" rms="4.8906478285789490e-01" purity="5.0525397062301636e-01" nType="0">
        <Node pos="l" depth="1" NCoef="0" IVar="0" Cut="9.1203022003173828e+00" cType="1" res="1.7597179859876633e-02" rms="4.7614073753356934e-01" purity="3.7216284871101379e-01" nType="0">
          <Node pos="l" depth="2" NCoef="0" IVar="-1" Cut="0.0000000000000000e+00" cType="1" res="4.0197083726525307e-03" rms="4.9036249518394470e-01" purity="4.0851002931594849e-01" nType="-99"/>
          <Node pos="r" depth="2" NCoef="0" IVar="-1" Cut="0.0000000000000000e+00" cType="1" res="2.0066495053470135e-03" rms="4.6356251835823059e-01" purity="3.4145042300224304e-01" nType="-99"/>
        </Node>
        <Node pos="r" depth="1" NCoef="0" IVar="0" Cut="8.3375482559204102e+00" cType="1" res="3.4414159599691629e-03" rms="4.9168494343757629e-01" purity="5.3304022550582886e-01" nType="0">
          <Node pos="l" depth="2" NCoef="0" IVar="-1" Cut="0.0000000000000000e+00" cType="1" res="-1.7402827506884933e-03" rms="4.9784687161445618e-01" purity="4.9356347322463989e-01" nType="-99"/>
          <Node pos="r" depth="2" NCoef="0" IVar="-1" Cut="0.0000000000000000e+00" cType="1" res="9.3434151494875550e-04" rms="4.9095398187637329e-01" purity="5.3736174106597900e-01" nType="-99"/>
        </Node>
      </Node>
    </BinaryTree>
    <BinaryTree type="DecisionTree" boostWeight="1.0000000000000000e+00" itree="566">
      <Node pos="s" depth="0" NCoef="0" IVar="2" Cut="2.0000000000000000e+00" cType="1" res="-6.5417269070167094e-05" rms="9.4333440065383911e-02" purity="4.9768751859664917e-01" nType="0">
        <Node pos="l" depth="1" NCoef="0" IVar="5" Cut="-6.9014042615890503e-01" cType="1" res="4.3606040999293327e-03" rms="4.8677015304565430e-01" purity="5.0311702489852905e-01" nType="0">
          <Node pos="l" depth="2" NCoef="0" IVar="-1" Cut="0.0000000000000000e+00" cType="1" res="-2.5865610223263502e-03" rms="4.8625826835632324e-01" purity="4.8507082462310791e-01" nType="-99"/>
          <Node pos="r" depth="2" NCoef="0" IVar="-1" Cut="0.0000000000000000e+00" cType="1" res="1.2233305023983121e-03" rms="4.8676976561546326e-01" purity="5.0628066062927246e-01" nType="-99"/>
        </Node>
        <Node pos="r" depth="1" NCoef="0" IVar="0" Cut="9.1745986938476562e+00" cType="1" res="-1.0207403451204300e-02" rms="4.9016186594963074e-01" purity="4.9034738540649414e-01" nType="0">
          <Node pos="l" depth="2" NCoef="0" IVar="-1" Cut="0.0000000000000000e+00" cType="1" res="-2.3681817110627890e-03" rms="4.9306029081344604e-01" purity="4.8415517807006836e-01" nType="-99"/>
          <Node pos="r" depth="2" NCoef="0" IVar="-1" Cut="0.0000000000000000e+00" cType="1" res="1.7880799714475870e-04" rms="4.8540160059928894e-01" purity="5.0001215934753418e-01" nType="-99"/>
        </Node>
      </Node>
    </BinaryTree>
    <BinaryTree type="DecisionTree" boostWeight="1.0000000000000000e+00" itree="567">
      <Node pos="s" depth="0" NCoef="0" IVar="1" Cut="5.0000000000000000e+00" cType="1" res="1.4794139424338937e-03" rms="1.6284464299678802e-01" purity="5.0125646591186523e-01" nType="0">
        <Node pos="l" depth="1" NCoef="0" IVar="0" Cut="8.3911418914794922e+00" cType="1" res="2.6631951332092285e-03" rms="4.8817682266235352e-01" purity="5.0128412246704102e-01" nType="0">
          <Node pos="l" depth="2" NCoef="0" IVar="-1" Cut="0.0000000000000000e+00" cType="1" res="1.5531907556578517e-03" rms="4.9712964892387390e-01" purity="5.1989179849624634e-01" nType="-99"/>
          <Node pos="r" depth="2" NCoef="0" IVar="-1" Cut="0.0000000000000000e+00" cType="1" res="1.9634209456853569e-04" rms="4.8707410693168640e-01" purity="4.9906095862388611e-01" nType="-99"/>
        </Node>
        <Node pos="r" depth="1" NCoef="0" IVar="-1" Cut="0.0000000000000000e+00" cType="1" res="-3.1468214001506567e-03" rms="4.9029663205146790e-01" purity="5.0069916248321533e-01" nType="-99"/>
      </Node>
    </BinaryTree>
    <BinaryTree type="DecisionTree" boostWeight="1.0000000000000000e+00" itree="568">
      <Node pos="s" depth="0" NCoef="0" IVar="0" Cut="8.4702129364013672e+00" cType="1" res="-2.6573881041258574e-03" rms="4.8728808760643005e-01" purity="4.9746182560920715e-01" nType="0">
        <Node pos="l" depth="1" NCoef="0" IVar="3" Cut="-6.9585204124450684e-01" cType="1" res="1.6342086717486382e-02" rms="4.9546661972999573e-01" purity="5.2283996343612671e-01" nType="0">
          <Node pos="l" depth="2" NCoef="0" IVar="-1" Cut="0.0000000000000000e+00" cType="1" res="7.3710706783458591e-04" rms="4.9735575914382935e-01" purity="4.7805821895599365e-01" nType="-99"/>
          <Node pos="r" depth="2" NCoef="0" IVar="-1" Cut="0.0000000000000000e+00" cType="1" res="2.6176178362220526e-03" rms="4.9343445897102356e-01" purity="5.6688380241394043e-01" nType="-99"/>
        </Node>
        <Node pos="r" depth="1" NCoef="0" IVar="1" Cut="2.0000000000000000e+00" cType="1" res="-5.4764943197369576e-03" rms="4.6551683545112610e-01" purity="4.9344670772552490e-01" nType="0">
          <Node pos="l" depth="2" NCoef="0" IVar="-1" Cut="0.0000000000000000e+00" cType="1" res="3.8626400055363774e-04" rms="4.8762729763984680e-01" purity="5.0319516658782959e-01" nType="-99"/>
          <Node pos="r" depth="2" NCoef="0" IVar="-1" Cut="0.0000000000000000e+00" cType="1" res="-1.5661881770938635e-03" rms="4.8517748713493347e-01" purity="4.8948177695274353e-01" nType="-99"/>
        </Node>
      </Node>
    </BinaryTree>
    <BinaryTree type="DecisionTree" boostWeight="1.0000000000000000e+00" itree="569">
      <Node pos="s" depth="0" NCoef="0" IVar="0" Cut="8.2430858612060547e+00" cType="1" res="-2.9105825815349817e-03" rms="4.8854583501815796e-01" purity="4.9740052223205566e-01" nType="0">
        <Node pos="l" depth="1" NCoef="0" IVar="-1" Cut="0.0000000000000000e+00" cType="1" res="1.3070874847471714e-03" rms="4.9636882543563843e-01" purity="5.0673276185989380e-01" nType="-99"/>
        <Node pos="r" depth="1" NCoef="0" IVar="0" Cut="9.7420797348022461e+00" cType="1" res="-4.0855030529201031e-03" rms="4.8795118927955627e-01" purity="4.9672183394432068e-01" nType="0">
          <Node pos="l" depth="2" NCoef="0" IVar="-1" Cut="0.0000000000000000e+00" cType="1" res="-8.2910188939422369e-04" rms="4.8918041586875916e-01" purity="4.9621322751045227e-01" nType="-99"/>
          <Node pos="r" depth="2" NCoef="0" IVar="-1" Cut="0.0000000000000000e+00" cType="1" res="3.1696679070591927e-03" rms="4.7212114930152893e-01" purity="5.0306761264801025e-01" nType="-99"/>
        </Node>
      </Node>
    </BinaryTree>
    <BinaryTree type="DecisionTree" boostWeight="1.0000000000000000e+00" itree="570">
      <Node pos="s" depth="0" NCoef="0" IVar="4" Cut="-7.0527523756027222e-01" cType="1" res="-2.1862979338038713e-04" rms="4.8879155516624451e-01" purity="4.9950259923934937e-01" nType="0">
        <Node pos="l" depth="1" NCoef="0" IVar="4" Cut="-8.9784938097000122e-01" cType="1" res="7.5154174119234085e-03" rms="4.8484459519386292e-01" purity="4.8262220621109009e-01" nType="0">
          <Node pos="l" depth="2" NCoef="0" IVar="-1" Cut="0.0000000000000000e+00" cType="1" res="-3.4226134885102510e-03" rms="4.6901586651802063e-01" purity="4.4176983833312988e-01" nType="-99"/>
          <Node pos="r" depth="2" NCoef="0" IVar="-1" Cut="0.0000000000000000e+00" cType="1" res="1.7084258142858744e-03" rms="4.8677808046340942e-01" purity="4.8794564604759216e-01" nType="-99"/>
        </Node>
        <Node pos="r" depth="1" NCoef="0" IVar="3" Cut="8.9529144763946533e-01" cType="1" res="-3.1142847146838903e-03" rms="4.9022972583770752e-01" purity="5.0582265853881836e-01" nType="0">
          <Node pos="l" depth="2" NCoef="0" IVar="-1" Cut="0.0000000000000000e+00" cType="1" res="-2.0858689094893634e-04" rms="4.9383160471916199e-01" purity="4.7987496852874756e-01" nType="-99"/>
          <Node pos="r" depth="2" NCoef="0" IVar="-1" Cut="0.0000000000000000e+00" cType="1" res="-2.6155398227274418e-03" rms="4.6805268526077271e-01" purity="6.6047656536102295e-01" nType="-99"/>
        </Node>
      </Node>
    </BinaryTree>
    <BinaryTree type="DecisionTree" boostWeight="1.0000000000000000e+00" itree="571">
      <Node pos="s" depth="0" NCoef="0" IVar="4" Cut="-7.9910749197006226e-01" cType="1" res="-2.4346210993826389e-03" rms="4.8833367228507996e-01" purity="4.9745401740074158e-01" nType="0">
        <Node pos="l" depth="1" NCoef="0" IVar="4" Cut="-9.0635424852371216e-01" cType="1" res="-1.9142806529998779e-02" rms="4.8070737719535828e-01" purity="4.5180574059486389e-01" nType="0">
          <Node pos="l" depth="2" NCoef="0" IVar="-1" Cut="0.0000000000000000e+00" cType="1" res="1.0357548017054796e-03" rms="4.7427558898925781e-01" purity="4.7324246168136597e-01" nType="-99"/>
          <Node pos="r" depth="2" NCoef="0" IVar="-1" Cut="0.0000000000000000e+00" cType="1" res="-4.0348009206354618e-03" rms="4.8189920186996460e-01" purity="4.4725212454795837e-01" nType="-99"/>
        </Node>
        <Node pos="r" depth="1" NCoef="0" IVar="0" Cut="9.1915292739868164e+00" cType="1" res="4.6125074732117355e-04" rms="4.8958539962768555e-01" purity="5.0536584854125977e-01" nType="0">
          <Node pos="l" depth="2" NCoef="0" IVar="-1" Cut="0.0000000000000000e+00" cType="1" res="-5.1303353393450379e-04" rms="4.9349224567413330e-01" purity="5.0248867273330688e-01" nType="-99"/>
          <Node pos="r" depth="2" NCoef="0" IVar="-1" Cut="0.0000000000000000e+00" cType="1" res="1.7283562337979674e-03" rms="4.8308974504470825e-01" purity="5.1003718376159668e-01" nType="-99"/>
        </Node>
      </Node>
    </BinaryTree>
    <BinaryTree type="DecisionTree" boostWeight="1.0000000000000000e+00" itree="572">
      <Node pos="s" depth="0" NCoef="0" IVar="0" Cut="8.9159507751464844e+00" cType="1" res="-3.8481263909488916e-03" rms="4.8876553773880005e-01" purity="4.9554389715194702e-01" nType="0">
        <Node pos="l" depth="1" NCoef="0" IVar="1" Cut="2.0000000000000000e+00" cType="1" res="-8.0945086665451527e-05" rms="1.9687071442604065e-02" purity="4.8905301094055176e-01" nType="0">
          <Node pos="l" depth="2" NCoef="0" IVar="-1" Cut="0.0000000000000000e+00" cType="1" res="-3.2967133447527885e-03" rms="4.9514207243919373e-01" purity="4.7632929682731628e-01" nType="-99"/>
          <Node pos="r" depth="2" NCoef="0" IVar="-1" Cut="0.0000000000000000e+00" cType="1" res="-9.2386157484725118e-04" rms="4.9379646778106689e-01" purity="4.9421995878219604e-01" nType="-99"/>
        </Node>
        <Node pos="r" depth="1" NCoef="0" IVar="2" Cut="3.0000000000000000e+00" cType="1" res="2.6766879018396139e-03" rms="4.5205172896385193e-01" purity="4.9964365363121033e-01" nType="0">
          <Node pos="l" depth="2" NCoef="0" IVar="-1" Cut="0.0000000000000000e+00" cType="1" res="9.0326776262372732e-04" rms="4.8477342724800110e-01" purity="5.0111365318298340e-01" nType="-99"/>
          <Node pos="r" depth="2" NCoef="0" IVar="-1" Cut="0.0000000000000000e+00" cType="1" res="-3.9258319884538651e-03" rms="4.8803004622459412e-01" purity="4.8690181970596313e-01" nType="-99"/>
        </Node>
      </Node>
    </BinaryTree>
    <BinaryTree type="DecisionTree" boostWeight="1.0000000000000000e+00" itree="573">
      <Node pos="s" depth="0" NCoef="0" IVar="1" Cut="5.0000000000000000e+00" cType="1" res="2.7721896767616272e-03" rms="2.7908280491828918e-01" purity="5.0339275598526001e-01" nType="0">
        <Node pos="l" depth="1" NCoef="0" IVar="4" Cut="-7.9886198043823242e-01" cType="1" res="4.7366512008011341e-03" rms="4.8734772205352783e-01" purity="5.0379878282546997e-01" nType="0">
          <Node pos="l" depth="2" NCoef="0" IVar="-1" Cut="0.0000000000000000e+00" cType="1" res="-1.5606809174641967e-03" rms="4.8131656646728516e-01" purity="4.5730480551719666e-01" nType="-99"/>
          <Node pos="r" depth="2" NCoef="0" IVar="-1" Cut="0.0000000000000000e+00" cType="1" res="1.1097968090325594e-03" rms="4.8828312754631042e-01" purity="5.1134198904037476e-01" nType="-99"/>
        </Node>
        <Node pos="r" depth="1" NCoef="0" IVar="-1" Cut="0.0000000000000000e+00" cType="1" res="-3.5198754630982876e-03" rms="4.8834547400474548e-01" purity="4.9497333168983459e-01" nType="-99"/>
      </Node>
    </BinaryTree>
    <BinaryTree type="DecisionTree" boostWeight="1.0000000000000000e+00" itree="574">
      <Node pos="s" depth="0" NCoef="0" IVar="4" Cut="8.9009654521942139e-01" cType="1" res="7.3364929994568229e-04" rms="4.8747169971466064e-01" purity="5.0010740756988525e-01" nType="0">
        <Node pos="l" depth="1" NCoef="0" IVar="3" Cut="-7.0772331953048706e-01" cType="1" res="-3.1711874180473387e-04" rms="4.8803529143333435e-01" purity="4.9732232093811035e-01" nType="0">
          <Node pos="l" depth="2" NCoef="0" IVar="-1" Cut="0.0000000000000000e+00" cType="1" res="-1.0312242666259408e-03" rms="4.8687702417373657e-01" purity="4.1964909434318542e-01" nType="-99"/>
          <Node pos="r" depth="2" NCoef="0" IVar="-1" Cut="0.0000000000000000e+00" cType="1" res="8.8160793529823422e-04" rms="4.8907527327537537e-01" purity="5.7218009233474731e-01" nType="-99"/>
        </Node>
        <Node pos="r" depth="1" NCoef="0" IVar="-1" Cut="0.0000000000000000e+00" cType="1" res="4.7940141521394253e-03" rms="4.7308313846588135e-01" purity="5.6678068637847900e-01" nType="-99"/>
      </Node>
    </BinaryTree>
    <BinaryTree type="DecisionTree" boostWeight="1.0000000000000000e+00" itree="575">
      <Node pos="s" depth="0" NCoef="0" IVar="0" Cut="9.7509956359863281e+00" cType="1" res="4.2756216134876013e-04" rms="4.8854565620422363e-01" purity="4.9957013130187988e-01" nType="0">
        <Node pos="l" depth="1" NCoef="0" IVar="4" Cut="-7.0275670289993286e-01" cType="1" res="1.7347895773127675e-03" rms="4.8963859677314758e-01" purity="5.0119400024414062e-01" nType="0">
          <Node pos="l" depth="2" NCoef="0" IVar="-1" Cut="0.0000000000000000e+00" cType="1" res="1.1959070106968284e-03" rms="4.8885640501976013e-01" purity="4.8329949378967285e-01" nType="-99"/>
          <Node pos="r" depth="2" NCoef="0" IVar="-1" Cut="0.0000000000000000e+00" cType="1" res="-8.6188098066486418e-05" rms="4.8991718888282776e-01" purity="5.0802630186080933e-01" nType="-99"/>
        </Node>
        <Node pos="r" depth="1" NCoef="0" IVar="0" Cut="9.9009866714477539e+00" cType="1" res="-1.7435051500797272e-02" rms="4.7299674153327942e-01" purity="4.7738072276115417e-01" nType="0">
          <Node pos="l" depth="2" NCoef="0" IVar="-1" Cut="0.0000000000000000e+00" cType="1" res="-8.8349422439932823e-03" rms="4.7597980499267578e-01" purity="4.6823611855506897e-01" nType="-99"/>
          <Node pos="r" depth="2" NCoef="0" IVar="-1" Cut="0.0000000000000000e+00" cType="1" res="-1.9314636010676622e-03" rms="4.7010451555252075e-01" purity="4.8518911004066467e-01" nType="-99"/>
        </Node>
      </Node>
    </BinaryTree>
    <BinaryTree type="DecisionTree" boostWeight="1.0000000000000000e+00" itree="576">
      <Node pos="s" depth="0" NCoef="0" IVar="3" Cut="-8.0208969116210938e-01" cType="1" res="-4.9613282317295671e-04" rms="4.8733872175216675e-01" purity="4.9903023242950439e-01" nType="0">
        <Node pos="l" depth="1" NCoef="0" IVar="2" Cut="3.0000000000000000e+00" cType="1" res="-1.1510144686326385e-03" rms="1.4438638091087341e-01" purity="3.9991280436515808e-01" nType="0">
          <Node pos="l" depth="2" NCoef="0" IVar="-1" Cut="0.0000000000000000e+00" cType="1" res="-1.8084694165736437e-03" rms="4.8258700966835022e-01" purity="3.9548975229263306e-01" nType="-99"/>
          <Node pos="r" depth="2" NCoef="0" IVar="-1" Cut="0.0000000000000000e+00" cType="1" res="3.6129199434071779e-03" rms="4.8964399099349976e-01" purity="4.4351693987846375e-01" nType="-99"/>
        </Node>
        <Node pos="r" depth="1" NCoef="0" IVar="4" Cut="4.6006318181753159e-02" cType="1" res="4.1308249346911907e-03" rms="4.8960831761360168e-01" purity="5.5692076683044434e-01" nType="0">
          <Node pos="l" depth="2" NCoef="0" IVar="-1" Cut="0.0000000000000000e+00" cType="1" res="-1.1491418263176456e-04" rms="4.9330779910087585e-01" purity="5.3720217943191528e-01" nType="-99"/>
          <Node pos="r" depth="2" NCoef="0" IVar="-1" Cut="0.0000000000000000e+00" cType="1" res="3.4600680228322744e-03" rms="4.7671067714691162e-01" purity="6.2263542413711548e-01" nType="-99"/>
        </Node>
      </Node>
    </BinaryTree>
    <BinaryTree type="DecisionTree" boostWeight="1.0000000000000000e+00" itree="577">
      <Node pos="s" depth="0" NCoef="0" IVar="1" Cut="2.0000000000000000e+00" cType="1" res="6.0429383302107453e-04" rms="2.5134149193763733e-01" purity="5.0127732753753662e-01" nType="0">
        <Node pos="l" depth="1" NCoef="0" IVar="4" Cut="-6.9730234146118164e-01" cType="1" res="-5.6780236773192883e-03" rms="4.8792859911918640e-01" purity="4.9495705962181091e-01" nType="0">
          <Node pos="l" depth="2" NCoef="0" IVar="-1" Cut="0.0000000000000000e+00" cType="1" res="2.3604815360158682e-03" rms="4.8279234766960144e-01" purity="5.0043874979019165e-01" nType="-99"/>
          <Node pos="r" depth="2" NCoef="0" IVar="-1" Cut="0.0000000000000000e+00" cType="1" res="-1.5415233792737126e-03" rms="4.8879414796829224e-01" purity="4.9391537904739380e-01" nType="-99"/>
        </Node>
        <Node pos="r" depth="1" NCoef="0" IVar="2" Cut="3.0000000000000000e+00" cType="1" res="1.2109336967114359e-04" rms="3.6181032657623291e-02" purity="5.0388479232788086e-01" nType="0">
          <Node pos="l" depth="2" NCoef="0" IVar="-1" Cut="0.0000000000000000e+00" cType="1" res="9.5670868176966906e-04" rms="4.8641386628150940e-01" purity="5.0514644384384155e-01" nType="-99"/>
          <Node pos="r" depth="2" NCoef="0" IVar="-1" Cut="0.0000000000000000e+00" cType="1" res="-1.3253022916615009e-03" rms="4.9165582656860352e-01" purity="4.9220445752143860e-01" nType="-99"/>
        </Node>
      </Node>
    </BinaryTree>
    <BinaryTree type="DecisionTree" boostWeight="1.0000000000000000e+00" itree="578">
      <Node pos="s" depth="0" NCoef="0" IVar="3" Cut="-8.9553654193878174e-01" cType="1" res="-5.7417189236730337e-04" rms="4.8902010917663574e-01" purity="4.9887415766716003e-01" nType="0">
        <Node pos="l" depth="1" NCoef="0" IVar="3" Cut="-9.1351294517517090e-01" cType="1" res="1.1338557116687298e-02" rms="4.7264003753662109e-01" purity="3.6428153514862061e-01" nType="0">
          <Node pos="l" depth="2" NCoef="0" IVar="-1" Cut="0.0000000000000000e+00" cType="1" res="1.7341903003398329e-04" rms="4.6391454339027405e-01" purity="3.3598113059997559e-01" nType="-99"/>
          <Node pos="r" depth="2" NCoef="0" IVar="-1" Cut="0.0000000000000000e+00" cType="1" res="7.2220661677420139e-03" rms="4.9687811732292175e-01" purity="4.5029157400131226e-01" nType="-99"/>
        </Node>
        <Node pos="r" depth="1" NCoef="0" IVar="2" Cut="2.0000000000000000e+00" cType="1" res="-5.7767942780628800e-04" rms="1.7480787634849548e-01" purity="5.2728831768035889e-01" nType="0">
          <Node pos="l" depth="2" NCoef="0" IVar="-1" Cut="0.0000000000000000e+00" cType="1" res="-1.0336026316508651e-03" rms="4.9104094505310059e-01" purity="5.2962434291839600e-01" nType="-99"/>
          <Node pos="r" depth="2" NCoef="0" IVar="-1" Cut="0.0000000000000000e+00" cType="1" res="3.2369696418754756e-04" rms="4.9399939179420471e-01" purity="5.2434068918228149e-01" nType="-99"/>
        </Node>
      </Node>
    </BinaryTree>
    <BinaryTree type="DecisionTree" boostWeight="1.0000000000000000e+00" itree="579">
      <Node pos="s" depth="0" NCoef="0" IVar="4" Cut="-8.9140421152114868e-01" cType="1" res="7.2231556987389922e-04" rms="4.8852965235710144e-01" purity="5.0078105926513672e-01" nType="0">
        <Node pos="l" depth="1" NCoef="0" IVar="-1" Cut="0.0000000000000000e+00" cType="1" res="-4.7277742996811867e-03" rms="4.6884527802467346e-01" purity="4.3339958786964417e-01" nType="-99"/>
        <Node pos="r" depth="1" NCoef="0" IVar="4" Cut="-7.1280747652053833e-01" cType="1" res="1.6541897784918547e-03" rms="4.8925110697746277e-01" purity="5.0338673591613770e-01" nType="0">
          <Node pos="l" depth="2" NCoef="0" IVar="-1" Cut="0.0000000000000000e+00" cType="1" res="2.1468824706971645e-03" rms="4.9039104580879211e-01" purity="4.9231636524200439e-01" nType="-99"/>
          <Node pos="r" depth="2" NCoef="0" IVar="-1" Cut="0.0000000000000000e+00" cType="1" res="-3.4113758010789752e-04" rms="4.8882108926773071e-01" purity="5.0696229934692383e-01" nType="-99"/>
        </Node>
      </Node>
    </BinaryTree>
    <BinaryTree type="DecisionTree" boostWeight="1.0000000000000000e+00" itree="580">
      <Node pos="s" depth="0" NCoef="0" IVar="4" Cut="-8.8955277204513550e-01" cType="1" res="1.5058082062751055e-03" rms="4.8854580521583557e-01" purity="5.0137627124786377e-01" nType="0">
        <Node pos="l" depth="1" NCoef="0" IVar="-1" Cut="0.0000000000000000e+00" cType="1" res="4.7006648965179920e-03" rms="4.8108625411987305e-01" purity="4.7854569554328918e-01" nType="-99"/>
        <Node pos="r" depth="1" NCoef="0" IVar="1" Cut="5.0000000000000000e+00" cType="1" res="8.8933207734953612e-05" rms="1.0686213523149490e-01" purity="5.0232458114624023e-01" nType="0">
          <Node pos="l" depth="2" NCoef="0" IVar="-1" Cut="0.0000000000000000e+00" cType="1" res="2.8865024796687067e-04" rms="4.8873689770698547e-01" purity="5.0243496894836426e-01" nType="-99"/>
          <Node pos="r" depth="2" NCoef="0" IVar="-1" Cut="0.0000000000000000e+00" cType="1" res="-4.2908382602035999e-03" rms="4.9003642797470093e-01" purity="4.9988371133804321e-01" nType="-99"/>
        </Node>
      </Node>
    </BinaryTree>
    <BinaryTree type="DecisionTree" boostWeight="1.0000000000000000e+00" itree="581">
      <Node pos="s" depth="0" NCoef="0" IVar="0" Cut="8.6646442413330078e+00" cType="1" res="1.4158315025269985e-03" rms="4.8782390356063843e-01" purity="5.0141799449920654e-01" nType="0">
        <Node pos="l" depth="1" NCoef="0" IVar="0" Cut="8.4745950698852539e+00" cType="1" res="-9.0321740135550499e-03" rms="4.9387431144714355e-01" purity="4.9703818559646606e-01" nType="0">
          <Node pos="l" depth="2" NCoef="0" IVar="-1" Cut="0.0000000000000000e+00" cType="1" res="6.5259839175269008e-05" rms="4.9637803435325623e-01" purity="5.0817674398422241e-01" nType="-99"/>
          <Node pos="r" depth="2" NCoef="0" IVar="-1" Cut="0.0000000000000000e+00" cType="1" res="-2.9376347083598375e-03" rms="4.8910906910896301e-01" purity="4.7795900702476501e-01" nType="-99"/>
        </Node>
        <Node pos="r" depth="1" NCoef="0" IVar="0" Cut="9.0447969436645508e+00" cType="1" res="4.4442769140005112e-03" rms="4.8601406812667847e-01" purity="5.0268751382827759e-01" nType="0">
          <Node pos="l" depth="2" NCoef="0" IVar="-1" Cut="0.0000000000000000e+00" cType="1" res="2.3298729211091995e-03" rms="4.9061599373817444e-01" purity="5.1274067163467407e-01" nType="-99"/>
          <Node pos="r" depth="2" NCoef="0" IVar="-1" Cut="0.0000000000000000e+00" cType="1" res="-3.1065134680829942e-04" rms="4.8353752493858337e-01" purity="4.9754410982131958e-01" nType="-99"/>
        </Node>
      </Node>
    </BinaryTree>
    <BinaryTree type="DecisionTree" boostWeight="1.0000000000000000e+00" itree="582">
      <Node pos="s" depth="0" NCoef="0" IVar="0" Cut="8.2805833816528320e+00" cType="1" res="-1.7595568206161261e-03" rms="4.8848366737365723e-01" purity="4.9742200970649719e-01" nType="0">
        <Node pos="l" depth="1" NCoef="0" IVar="-1" Cut="0.0000000000000000e+00" cType="1" res="-1.5813384670764208e-03" rms="4.9862188100814819e-01" purity="4.8195061087608337e-01" nType="-99"/>
        <Node pos="r" depth="1" NCoef="0" IVar="0" Cut="9.1267137527465820e+00" cType="1" res="-5.1833945326507092e-04" rms="4.8758903145790100e-01" purity="4.9874171614646912e-01" nType="0">
          <Node pos="l" depth="2" NCoef="0" IVar="-1" Cut="0.0000000000000000e+00" cType="1" res="7.5340346666052938e-04" rms="4.9134436249732971e-01" purity="5.0722956657409668e-01" nType="-99"/>
          <Node pos="r" depth="2" NCoef="0" IVar="-1" Cut="0.0000000000000000e+00" cType="1" res="-1.6005084617063403e-03" rms="4.8344483971595764e-01" purity="4.8964184522628784e-01" nType="-99"/>
        </Node>
      </Node>
    </BinaryTree>
    <BinaryTree type="DecisionTree" boostWeight="1.0000000000000000e+00" itree="583">
      <Node pos="s" depth="0" NCoef="0" IVar="0" Cut="8.7729616165161133e+00" cType="1" res="-1.7957338131964207e-03" rms="4.8869881033897400e-01" purity="4.9749985337257385e-01" nType="0">
        <Node pos="l" depth="1" NCoef="0" IVar="2" Cut="2.0000000000000000e+00" cType="1" res="-7.7794236131012440e-04" rms="5.4799992591142654e-02" purity="4.9339118599891663e-01" nType="0">
          <Node pos="l" depth="2" NCoef="0" IVar="-1" Cut="0.0000000000000000e+00" cType="1" res="-1.3571103045251220e-04" rms="4.9362596869468689e-01" purity="5.0491499900817871e-01" nType="-99"/>
          <Node pos="r" depth="2" NCoef="0" IVar="-1" Cut="0.0000000000000000e+00" cType="1" res="-2.6600121054798365e-03" rms="4.9661159515380859e-01" purity="4.7774022817611694e-01" nType="-99"/>
        </Node>
        <Node pos="r" depth="1" NCoef="0" IVar="0" Cut="9.5208892822265625e+00" cType="1" res="1.6266755992546678e-03" rms="4.8616835474967957e-01" purity="4.9910411238670349e-01" nType="0">
          <Node pos="l" depth="2" NCoef="0" IVar="-1" Cut="0.0000000000000000e+00" cType="1" res="8.5296115139499307e-04" rms="4.8900553584098816e-01" purity="5.0386619567871094e-01" nType="-99"/>
          <Node pos="r" depth="2" NCoef="0" IVar="-1" Cut="0.0000000000000000e+00" cType="1" res="-2.7064788155257702e-03" rms="4.7598823904991150e-01" purity="4.8252332210540771e-01" nType="-99"/>
        </Node>
      </Node>
    </BinaryTree>
    <BinaryTree type="DecisionTree" boostWeight="1.0000000000000000e+00" itree="584">
      <Node pos="s" depth="0" NCoef="0" IVar="0" Cut="8.3992376327514648e+00" cType="1" res="3.3895822707563639e-03" rms="4.8815852403640747e-01" purity="5.0314462184906006e-01" nType="0">
        <Node pos="l" depth="1" NCoef="0" IVar="3" Cut="-6.9446063041687012e-01" cType="1" res="-7.2625665925443172e-03" rms="4.9484127759933472e-01" purity="4.9762347340583801e-01" nType="0">
          <Node pos="l" depth="2" NCoef="0" IVar="-1" Cut="0.0000000000000000e+00" cType="1" res="-1.2700598454102874e-03" rms="4.9487993121147156e-01" purity="4.5841890573501587e-01" nType="-99"/>
          <Node pos="r" depth="2" NCoef="0" IVar="-1" Cut="0.0000000000000000e+00" cType="1" res="-1.5490321675315499e-04" rms="4.9473661184310913e-01" purity="5.3850054740905762e-01" nType="-99"/>
        </Node>
        <Node pos="r" depth="1" NCoef="0" IVar="4" Cut="4.7507602721452713e-02" cType="1" res="4.7090156003832817e-03" rms="4.8730817437171936e-01" purity="5.0382852554321289e-01" nType="0">
          <Node pos="l" depth="2" NCoef="0" IVar="-1" Cut="0.0000000000000000e+00" cType="1" res="3.1958657200448215e-04" rms="4.8822128772735596e-01" purity="4.9185889959335327e-01" nType="-99"/>
          <Node pos="r" depth="2" NCoef="0" IVar="-1" Cut="0.0000000000000000e+00" cType="1" res="2.1144484635442495e-03" rms="4.8491081595420837e-01" purity="5.3418242931365967e-01" nType="-99"/>
        </Node>
      </Node>
    </BinaryTree>
    <BinaryTree type="DecisionTree" boostWeight="1.0000000000000000e+00" itree="585">
      <Node pos="s" depth="0" NCoef="0" IVar="1" Cut="5.0000000000000000e+00" cType="1" res="-1.5517426654696465e-03" rms="3.4873685240745544e-01" purity="4.9872079491615295e-01" nType="0">
        <Node pos="l" depth="1" NCoef="0" IVar="3" Cut="-8.9630496501922607e-01" cType="1" res="-2.7418022509664297e-03" rms="4.8726084828376770e-01" purity="4.9627283215522766e-01" nType="0">
          <Node pos="l" depth="2" NCoef="0" IVar="-1" Cut="0.0000000000000000e+00" cType="1" res="-3.3598828595131636e-03" rms="4.6453058719635010e-01" purity="3.3190521597862244e-01" nType="-99"/>
          <Node pos="r" depth="2" NCoef="0" IVar="-1" Cut="0.0000000000000000e+00" cType="1" res="6.5908629039768130e-05" rms="4.9166622757911682e-01" purity="5.2948987483978271e-01" nType="-99"/>
        </Node>
        <Node pos="r" depth="1" NCoef="0" IVar="-1" Cut="0.0000000000000000e+00" cType="1" res="4.6393927186727524e-03" rms="4.8848831653594971e-01" purity="5.4749512672424316e-01" nType="-99"/>
      </Node>
    </BinaryTree>
    <BinaryTree type="DecisionTree" boostWeight="1.0000000000000000e+00" itree="586">
      <Node pos="s" depth="0" NCoef="0" IVar="4" Cut="7.9865038394927979e-01" cType="1" res="3.5800924524664879e-04" rms="4.8773157596588135e-01" purity="5.0016742944717407e-01" nType="0">
        <Node pos="l" depth="1" NCoef="0" IVar="0" Cut="8.8314571380615234e+00" cType="1" res="2.4738563224673271e-03" rms="4.8859384655952454e-01" purity="4.9646398425102234e-01" nType="0">
          <Node pos="l" depth="2" NCoef="0" IVar="-1" Cut="0.0000000000000000e+00" cType="1" res="1.1777590261772275e-03" rms="4.9333906173706055e-01" purity="5.0893986225128174e-01" nType="-99"/>
          <Node pos="r" depth="2" NCoef="0" IVar="-1" Cut="0.0000000000000000e+00" cType="1" res="-2.6853458257392049e-04" rms="4.8619857430458069e-01" purity="4.9033239483833313e-01" nType="-99"/>
        </Node>
        <Node pos="r" depth="1" NCoef="0" IVar="2" Cut="2.0000000000000000e+00" cType="1" res="-1.4199407305568457e-03" rms="1.4328293502330780e-01" purity="5.2101135253906250e-01" nType="0">
          <Node pos="l" depth="2" NCoef="0" IVar="-1" Cut="0.0000000000000000e+00" cType="1" res="-3.6420160904526711e-03" rms="4.8161023855209351e-01" purity="5.0687396526336670e-01" nType="-99"/>
          <Node pos="r" depth="2" NCoef="0" IVar="-1" Cut="0.0000000000000000e+00" cType="1" res="1.9914931617677212e-03" rms="4.8404568433761597e-01" purity="5.4942834377288818e-01" nType="-99"/>
        </Node>
      </Node>
    </BinaryTree>
    <BinaryTree type="DecisionTree" boostWeight="1.0000000000000000e+00" itree="587">
      <Node pos="s" depth="0" NCoef="0" IVar="4" Cut="7.9645693302154541e-01" cType="1" res="2.2298528347164392e-03" rms="4.8846483230590820e-01" purity="5.0090003013610840e-01" nType="0">
        <Node pos="l" depth="1" NCoef="0" IVar="5" Cut="-6.7802864313125610e-01" cType="1" res="4.8842797987163067e-03" rms="4.8920753598213196e-01" purity="4.9719390273094177e-01" nType="0">
          <Node pos="l" depth="2" NCoef="0" IVar="-1" Cut="0.0000000000000000e+00" cType="1" res="3.5227718763053417e-03" rms="4.8688825964927673e-01" purity="4.9491712450981140e-01" nType="-99"/>
          <Node pos="r" depth="2" NCoef="0" IVar="-1" Cut="0.0000000000000000e+00" cType="1" res="5.2918831352144480e-04" rms="4.8939397931098938e-01" purity="4.9740529060363770e-01" nType="-99"/>
        </Node>
        <Node pos="r" depth="1" NCoef="0" IVar="0" Cut="9.3650951385498047e+00" cType="1" res="-1.2097112834453583e-02" rms="4.8418530821800232e-01" purity="5.2090322971343994e-01" nType="0">
          <Node pos="l" depth="2" NCoef="0" IVar="-1" Cut="0.0000000000000000e+00" cType="1" res="2.0106113515794277e-04" rms="4.8653474450111389e-01" purity="5.3539454936981201e-01" nType="-99"/>
          <Node pos="r" depth="2" NCoef="0" IVar="-1" Cut="0.0000000000000000e+00" cType="1" res="-1.2473165057599545e-02" rms="4.7644621133804321e-01" purity="4.8400703072547913e-01" nType="-99"/>
        </Node>
      </Node>
    </BinaryTree>
    <BinaryTree type="DecisionTree" boostWeight="1.0000000000000000e+00" itree="588">
      <Node pos="s" depth="0" NCoef="0" IVar="1" Cut="4.0000000000000000e+00" cType="1" res="-8.8731164578348398e-04" rms="3.8252905011177063e-01" purity="5.0055235624313354e-01" nType="0">
        <Node pos="l" depth="1" NCoef="0" IVar="0" Cut="9.3858184814453125e+00" cType="1" res="-1.8098586006090045e-03" rms="4.8868232965469360e-01" purity="4.9715521931648254e-01" nType="0">
          <Node pos="l" depth="2" NCoef="0" IVar="-1" Cut="0.0000000000000000e+00" cType="1" res="-7.2581431595608592e-04" rms="4.9134460091590881e-01" purity="4.9615126848220825e-01" nType="-99"/>
          <Node pos="r" depth="2" NCoef="0" IVar="-1" Cut="0.0000000000000000e+00" cType="1" res="2.3175636306405067e-03" rms="4.8003739118576050e-01" purity="5.0031918287277222e-01" nType="-99"/>
        </Node>
        <Node pos="r" depth="1" NCoef="0" IVar="4" Cut="-6.9945561885833740e-01" cType="1" res="1.5909422188997269e-02" rms="4.8540887236595154e-01" purity="5.2146220207214355e-01" nType="0">
          <Node pos="l" depth="2" NCoef="0" IVar="-1" Cut="0.0000000000000000e+00" cType="1" res="-1.9003433408215642e-03" rms="4.7830861806869507e-01" purity="4.6010628342628479e-01" nType="-99"/>
          <Node pos="r" depth="2" NCoef="0" IVar="-1" Cut="0.0000000000000000e+00" cType="1" res="4.6601784415543079e-03" rms="4.8835280537605286e-01" purity="5.5221891403198242e-01" nType="-99"/>
        </Node>
      </Node>
    </BinaryTree>
    <BinaryTree type="DecisionTree" boostWeight="1.0000000000000000e+00" itree="589">
      <Node pos="s" depth="0" NCoef="0" IVar="5" Cut="-6.9064450263977051e-01" cType="1" res="4.3227295391261578e-03" rms="4.8887836933135986e-01" purity="5.0425028800964355e-01" nType="0">
        <Node pos="l" depth="1" NCoef="0" IVar="3" Cut="-8.9533257484436035e-01" cType="1" res="-1.1892815120518208e-02" rms="4.8765847086906433e-01" purity="4.8252299427986145e-01" nType="0">
          <Node pos="l" depth="2" NCoef="0" IVar="-1" Cut="0.0000000000000000e+00" cType="1" res="1.4848200371488929e-03" rms="4.7623082995414734e-01" purity="3.7875813245773315e-01" nType="-99"/>
          <Node pos="r" depth="2" NCoef="0" IVar="-1" Cut="0.0000000000000000e+00" cType="1" res="-3.1734218355268240e-03" rms="4.9175828695297241e-01" purity="5.2242702245712280e-01" nType="-99"/>
        </Node>
        <Node pos="r" depth="1" NCoef="0" IVar="0" Cut="9.2702913284301758e+00" cType="1" res="6.6097439266741276e-03" rms="4.8900690674781799e-01" purity="5.0731468200683594e-01" nType="0">
          <Node pos="l" depth="2" NCoef="0" IVar="-1" Cut="0.0000000000000000e+00" cType="1" res="1.5303705586120486e-03" rms="4.9280154705047607e-01" purity="5.1343619823455811e-01" nType="-99"/>
          <Node pos="r" depth="2" NCoef="0" IVar="-1" Cut="0.0000000000000000e+00" cType="1" res="-7.4320286512374878e-04" rms="4.8091438412666321e-01" purity="4.9464553594589233e-01" nType="-99"/>
        </Node>
      </Node>
    </BinaryTree>
    <BinaryTree type="DecisionTree" boostWeight="1.0000000000000000e+00" itree="590">
      <Node pos="s" depth="0" NCoef="0" IVar="3" Cut="-7.0772588253021240e-01" cType="1" res="-5.6969380239024758e-04" rms="4.8874530196189880e-01" purity="5.0027877092361450e-01" nType="0">
        <Node pos="l" depth="1" NCoef="0" IVar="3" Cut="-9.2640489339828491e-01" cType="1" res="4.8197903670370579e-03" rms="4.8848876357078552e-01" purity="4.3131965398788452e-01" nType="0">
          <Node pos="l" depth="2" NCoef="0" IVar="-1" Cut="0.0000000000000000e+00" cType="1" res="-1.7735807923600078e-03" rms="4.5275399088859558e-01" purity="3.0783930420875549e-01" nType="-99"/>
          <Node pos="r" depth="2" NCoef="0" IVar="-1" Cut="0.0000000000000000e+00" cType="1" res="1.2390201445668936e-03" rms="4.9688589572906494e-01" purity="4.6191859245300293e-01" nType="-99"/>
        </Node>
        <Node pos="r" depth="1" NCoef="0" IVar="0" Cut="9.5323514938354492e+00" cType="1" res="-5.8475970290601254e-03" rms="4.8893880844116211e-01" purity="5.6781017780303955e-01" nType="0">
          <Node pos="l" depth="2" NCoef="0" IVar="-1" Cut="0.0000000000000000e+00" cType="1" res="-4.6414771350100636e-04" rms="4.9075725674629211e-01" purity="5.6541711091995239e-01" nType="-99"/>
          <Node pos="r" depth="2" NCoef="0" IVar="-1" Cut="0.0000000000000000e+00" cType="1" res="-5.8391988277435303e-03" rms="4.7886016964912415e-01" purity="5.8056676387786865e-01" nType="-99"/>
        </Node>
      </Node>
    </BinaryTree>
    <BinaryTree type="DecisionTree" boostWeight="1.0000000000000000e+00" itree="591">
      <Node pos="s" depth="0" NCoef="0" IVar="5" Cut="-6.9170129299163818e-01" cType="1" res="-2.1579854656010866e-03" rms="4.8891550302505493e-01" purity="4.9779450893402100e-01" nType="0">
        <Node pos="l" depth="1" NCoef="0" IVar="5" Cut="-7.4392354488372803e-01" cType="1" res="-1.5442673116922379e-02" rms="4.8636060953140259e-01" purity="4.8121017217636108e-01" nType="0">
          <Node pos="l" depth="2" NCoef="0" IVar="-1" Cut="0.0000000000000000e+00" cType="1" res="-3.6044961307197809e-03" rms="4.8447099328041077e-01" purity="4.7418251633644104e-01" nType="-99"/>
          <Node pos="r" depth="2" NCoef="0" IVar="-1" Cut="0.0000000000000000e+00" cType="1" res="1.8671508878469467e-03" rms="4.9249294400215149e-01" purity="5.0772368907928467e-01" nType="-99"/>
        </Node>
        <Node pos="r" depth="1" NCoef="0" IVar="1" Cut="3.0000000000000000e+00" cType="1" res="-1.1053822236135602e-03" rms="2.8098639845848083e-01" purity="5.0010240077972412e-01" nType="0">
          <Node pos="l" depth="2" NCoef="0" IVar="-1" Cut="0.0000000000000000e+00" cType="1" res="-6.0308491811156273e-04" rms="4.8971462249755859e-01" purity="4.9568778276443481e-01" nType="-99"/>
          <Node pos="r" depth="2" NCoef="0" IVar="-1" Cut="0.0000000000000000e+00" cType="1" res="1.3380636228248477e-03" rms="4.8792868852615356e-01" purity="5.1129144430160522e-01" nType="-99"/>
        </Node>
      </Node>
    </BinaryTree>
    <BinaryTree type="DecisionTree" boostWeight="1.0000000000000000e+00" itree="592">
      <Node pos="s" depth="0" NCoef="0" IVar="2" Cut="3.0000000000000000e+00" cType="1" res="-2.9713337426073849e-04" rms="1.1603070795536041e-01" purity="4.9994331598281860e-01" nType="0">
        <Node pos="l" depth="1" NCoef="0" IVar="0" Cut="8.4109497070312500e+00" cType="1" res="1.5283279353752732e-03" rms="4.8743987083435059e-01" purity="5.0123214721679688e-01" nType="0">
          <Node pos="l" depth="2" NCoef="0" IVar="-1" Cut="0.0000000000000000e+00" cType="1" res="-9.4575434923171997e-04" rms="4.9727362394332886e-01" purity="4.9357679486274719e-01" nType="-99"/>
          <Node pos="r" depth="2" NCoef="0" IVar="-1" Cut="0.0000000000000000e+00" cType="1" res="5.0526036648079753e-04" rms="4.8614642024040222e-01" purity="5.0221318006515503e-01" nType="-99"/>
        </Node>
        <Node pos="r" depth="1" NCoef="0" IVar="3" Cut="-7.0259124040603638e-01" cType="1" res="-1.7465081065893173e-02" rms="4.9171000719070435e-01" purity="4.8920160531997681e-01" nType="0">
          <Node pos="l" depth="2" NCoef="0" IVar="-1" Cut="0.0000000000000000e+00" cType="1" res="-5.3298813290894032e-03" rms="4.9093949794769287e-01" purity="4.1994589567184448e-01" nType="-99"/>
          <Node pos="r" depth="2" NCoef="0" IVar="-1" Cut="0.0000000000000000e+00" cType="1" res="-1.2839386472478509e-03" rms="4.9223834276199341e-01" purity="5.5772089958190918e-01" nType="-99"/>
        </Node>
      </Node>
    </BinaryTree>
    <BinaryTree type="DecisionTree" boostWeight="1.0000000000000000e+00" itree="593">
      <Node pos="s" depth="0" NCoef="0" IVar="0" Cut="9.2668752670288086e+00" cType="1" res="1.1898266384378076e-03" rms="4.8928490281105042e-01" purity="5.0045508146286011e-01" nType="0">
        <Node pos="l" depth="1" NCoef="0" IVar="3" Cut="7.9921948909759521e-01" cType="1" res="-2.6715805288404226e-03" rms="4.9332839250564575e-01" purity="4.9883449077606201e-01" nType="0">
          <Node pos="l" depth="2" NCoef="0" IVar="-1" Cut="0.0000000000000000e+00" cType="1" res="3.4169526770710945e-04" rms="4.9454131722450256e-01" purity="4.5821204781532288e-01" nType="-99"/>
          <Node pos="r" depth="2" NCoef="0" IVar="-1" Cut="0.0000000000000000e+00" cType="1" res="-1.6362435417249799e-03" rms="4.9112421274185181e-01" purity="5.6813961267471313e-01" nType="-99"/>
        </Node>
        <Node pos="r" depth="1" NCoef="0" IVar="4" Cut="-7.9589682817459106e-01" cType="1" res="9.1156121343374252e-03" rms="4.8078173398971558e-01" purity="5.0378155708312988e-01" nType="0">
          <Node pos="l" depth="2" NCoef="0" IVar="-1" Cut="0.0000000000000000e+00" cType="1" res="6.1836657114326954e-03" rms="4.7105455398559570e-01" purity="4.8833721876144409e-01" nType="-99"/>
          <Node pos="r" depth="2" NCoef="0" IVar="-1" Cut="0.0000000000000000e+00" cType="1" res="1.4893875923007727e-03" rms="4.8261776566505432e-01" purity="5.0681751966476440e-01" nType="-99"/>
        </Node>
      </Node>
    </BinaryTree>
    <BinaryTree type="DecisionTree" boostWeight="1.0000000000000000e+00" itree="594">
      <Node pos="s" depth="0" NCoef="0" IVar="0" Cut="8.4660348892211914e+00" cType="1" res="1.2494366383180022e-03" rms="4.8903170228004456e-01" purity="5.0029659271240234e-01" nType="0">
        <Node pos="l" depth="1" NCoef="0" IVar="2" Cut="2.0000000000000000e+00" cType="1" res="-8.9736533118411899e-04" rms="5.5090602487325668e-02" purity="4.9453553557395935e-01" nType="0">
          <Node pos="l" depth="2" NCoef="0" IVar="-1" Cut="0.0000000000000000e+00" cType="1" res="-1.6269189654849470e-04" rms="4.9484178423881531e-01" purity="5.0987952947616577e-01" nType="-99"/>
          <Node pos="r" depth="2" NCoef="0" IVar="-1" Cut="0.0000000000000000e+00" cType="1" res="-2.3986718151718378e-03" rms="4.9788802862167358e-01" purity="4.7567701339721680e-01" nType="-99"/>
        </Node>
        <Node pos="r" depth="1" NCoef="0" IVar="0" Cut="9.5552988052368164e+00" cType="1" res="3.2481763046234846e-03" rms="4.8785445094108582e-01" purity="5.0119358301162720e-01" nType="0">
          <Node pos="l" depth="2" NCoef="0" IVar="-1" Cut="0.0000000000000000e+00" cType="1" res="8.5463980212807655e-04" rms="4.8946815729141235e-01" purity="5.0491249561309814e-01" nType="-99"/>
          <Node pos="r" depth="2" NCoef="0" IVar="-1" Cut="0.0000000000000000e+00" cType="1" res="-2.0147084724158049e-03" rms="4.7941508889198303e-01" purity="4.8224258422851562e-01" nType="-99"/>
        </Node>
      </Node>
    </BinaryTree>
    <BinaryTree type="DecisionTree" boostWeight="1.0000000000000000e+00" itree="595">
      <Node pos="s" depth="0" NCoef="0" IVar="5" Cut="-7.8520047664642334e-01" cType="1" res="2.1161064505577087e-03" rms="4.8826885223388672e-01" purity="5.0213539600372314e-01" nType="0">
        <Node pos="l" depth="1" NCoef="0" IVar="1" Cut="4.0000000000000000e+00" cType="1" res="-1.4232195913791656e-02" rms="3.5846537351608276e-01" purity="4.8316836357116699e-01" nType="0">
          <Node pos="l" depth="2" NCoef="0" IVar="-1" Cut="0.0000000000000000e+00" cType="1" res="-7.8268791548907757e-04" rms="4.8773950338363647e-01" purity="4.8847323656082153e-01" nType="-99"/>
          <Node pos="r" depth="2" NCoef="0" IVar="-1" Cut="0.0000000000000000e+00" cType="1" res="-4.0329908952116966e-03" rms="4.8566898703575134e-01" purity="4.7784239053726196e-01" nType="-99"/>
        </Node>
        <Node pos="r" depth="1" NCoef="0" IVar="4" Cut="-7.9910749197006226e-01" cType="1" res="3.1039477325975895e-03" rms="4.8834413290023804e-01" purity="5.0332134962081909e-01" nType="0">
          <Node pos="l" depth="2" NCoef="0" IVar="-1" Cut="0.0000000000000000e+00" cType="1" res="2.7272053994238377e-03" rms="4.7753778100013733e-01" purity="4.8465910553932190e-01" nType="-99"/>
          <Node pos="r" depth="2" NCoef="0" IVar="-1" Cut="0.0000000000000000e+00" cType="1" res="1.9645094289444387e-04" rms="4.8989018797874451e-01" purity="5.0607287883758545e-01" nType="-99"/>
        </Node>
      </Node>
    </BinaryTree>
    <BinaryTree type="DecisionTree" boostWeight="1.0000000000000000e+00" itree="596">
      <Node pos="s" depth="0" NCoef="0" IVar="3" Cut="8.0196273326873779e-01" cType="1" res="7.2739276220090687e-05" rms="4.8779028654098511e-01" purity="5.0056129693984985e-01" nType="0">
        <Node pos="l" depth="1" NCoef="0" IVar="3" Cut="-9.0532362461090088e-01" cType="1" res="-3.4572267904877663e-03" rms="4.9035173654556274e-01" purity="4.4046315550804138e-01" nType="0">
          <Node pos="l" depth="2" NCoef="0" IVar="-1" Cut="0.0000000000000000e+00" cType="1" res="1.1411296436563134e-03" rms="4.6736696362495422e-01" purity="3.4988236427307129e-01" nType="-99"/>
          <Node pos="r" depth="2" NCoef="0" IVar="-1" Cut="0.0000000000000000e+00" cType="1" res="-9.5697370124980807e-04" rms="4.9743673205375671e-01" purity="4.6942192316055298e-01" nType="-99"/>
        </Node>
        <Node pos="r" depth="1" NCoef="0" IVar="3" Cut="8.2893401384353638e-01" cType="1" res="5.8840368874371052e-03" rms="4.8348775506019592e-01" purity="5.9949940443038940e-01" nType="0">
          <Node pos="l" depth="2" NCoef="0" IVar="-1" Cut="0.0000000000000000e+00" cType="1" res="-4.7939647920429707e-03" rms="4.9831712245941162e-01" purity="5.1199984550476074e-01" nType="-99"/>
          <Node pos="r" depth="2" NCoef="0" IVar="-1" Cut="0.0000000000000000e+00" cType="1" res="2.0463550463318825e-03" rms="4.8076865077018738e-01" purity="6.1363196372985840e-01" nType="-99"/>
        </Node>
      </Node>
    </BinaryTree>
    <BinaryTree type="DecisionTree" boostWeight="1.0000000000000000e+00" itree="597">
      <Node pos="s" depth="0" NCoef="0" IVar="1" Cut="5.0000000000000000e+00" cType="1" res="-3.1546098180115223e-03" rms="3.7222021818161011e-01" purity="4.9665844440460205e-01" nType="0">
        <Node pos="l" depth="1" NCoef="0" IVar="5" Cut="-6.9036978483200073e-01" cType="1" res="-4.9577662721276283e-03" rms="4.8829817771911621e-01" purity="4.9455881118774414e-01" nType="0">
          <Node pos="l" depth="2" NCoef="0" IVar="-1" Cut="0.0000000000000000e+00" cType="1" res="-2.8840817976742983e-03" rms="4.8531416058540344e-01" purity="4.7538232803344727e-01" nType="-99"/>
          <Node pos="r" depth="2" NCoef="0" IVar="-1" Cut="0.0000000000000000e+00" cType="1" res="-5.1631336100399494e-04" rms="4.8865395784378052e-01" purity="4.9701836705207825e-01" nType="-99"/>
        </Node>
        <Node pos="r" depth="1" NCoef="0" IVar="-1" Cut="0.0000000000000000e+00" cType="1" res="2.7969651855528355e-03" rms="4.8874688148498535e-01" purity="5.3803354501724243e-01" nType="-99"/>
      </Node>
    </BinaryTree>
    <BinaryTree type="DecisionTree" boostWeight="1.0000000000000000e+00" itree="598">
      <Node pos="s" depth="0" NCoef="0" IVar="3" Cut="-8.0211895704269409e-01" cType="1" res="-3.8833875441923738e-04" rms="4.8780593276023865e-01" purity="5.0004613399505615e-01" nType="0">
        <Node pos="l" depth="1" NCoef="0" IVar="3" Cut="-8.7403923273086548e-01" cType="1" res="-7.5296061113476753e-03" rms="4.8347905278205872e-01" purity="4.0234756469726562e-01" nType="0">
          <Node pos="l" depth="2" NCoef="0" IVar="-1" Cut="0.0000000000000000e+00" cType="1" res="-2.6002950035035610e-03" rms="4.7351202368736267e-01" purity="3.6309686303138733e-01" nType="-99"/>
          <Node pos="r" depth="2" NCoef="0" IVar="-1" Cut="0.0000000000000000e+00" cType="1" res="5.4883467964828014e-04" rms="4.9785026907920837e-01" purity="4.6126005053520203e-01" nType="-99"/>
        </Node>
        <Node pos="r" depth="1" NCoef="0" IVar="3" Cut="9.0594863891601562e-01" cType="1" res="3.8339595776051283e-03" rms="4.9029734730720520e-01" purity="5.5781072378158569e-01" nType="0">
          <Node pos="l" depth="2" NCoef="0" IVar="-1" Cut="0.0000000000000000e+00" cType="1" res="1.1358003830537200e-03" rms="4.9700400233268738e-01" purity="5.2898794412612915e-01" nType="-99"/>
          <Node pos="r" depth="2" NCoef="0" IVar="-1" Cut="0.0000000000000000e+00" cType="1" res="-1.5871342038735747e-03" rms="4.6855378150939941e-01" purity="6.4772754907608032e-01" nType="-99"/>
        </Node>
      </Node>
    </BinaryTree>
    <BinaryTree type="DecisionTree" boostWeight="1.0000000000000000e+00" itree="599">
      <Node pos="s" depth="0" NCoef="0" IVar="3" Cut="8.0194199085235596e-01" cType="1" res="-1.7326009401585907e-04" rms="4.8778903484344482e-01" purity="5.0038051605224609e-01" nType="0">
        <Node pos="l" depth="1" NCoef="0" IVar="0" Cut="8.5146942138671875e+00" cType="1" res="-4.4683921150863171e-03" rms="4.9016809463500977e-01" purity="4.4016411900520325e-01" nType="0">
          <Node pos="l" depth="2" NCoef="0" IVar="-1" Cut="0.0000000000000000e+00" cType="1" res="-1.5994751593098044e-03" rms="4.9662214517593384e-01" purity="4.6416476368904114e-01" nType="-99"/>
          <Node pos="r" depth="2" NCoef="0" IVar="-1" Cut="0.0000000000000000e+00" cType="1" res="-3.7444630288518965e-04" rms="4.8883703351020813e-01" purity="4.3537157773971558e-01" nType="-99"/>
        </Node>
        <Node pos="r" depth="1" NCoef="0" IVar="0" Cut="8.7479839324951172e+00" cType="1" res="6.8571930751204491e-03" rms="4.8378738760948181e-01" purity="5.9894526004791260e-01" nType="0">
          <Node pos="l" depth="2" NCoef="0" IVar="-1" Cut="0.0000000000000000e+00" cType="1" res="2.0839043427258730e-03" rms="4.8675006628036499e-01" purity="5.8263957500457764e-01" nType="-99"/>
          <Node pos="r" depth="2" NCoef="0" IVar="-1" Cut="0.0000000000000000e+00" cType="1" res="5.5536738364025950e-04" rms="4.8272389173507690e-01" purity="6.0440433025360107e-01" nType="-99"/>
        </Node>
      </Node>
    </BinaryTree>
    <BinaryTree type="DecisionTree" boostWeight="1.0000000000000000e+00" itree="600">
      <Node pos="s" depth="0" NCoef="0" IVar="3" Cut="-7.0731437206268311e-01" cType="1" res="1.3570082373917103e-03" rms="4.8863562941551208e-01" purity="5.0108981132507324e-01" nType="0">
        <Node pos="l" depth="1" NCoef="0" IVar="0" Cut="8.7220439910888672e+00" cType="1" res="6.2479153275489807e-03" rms="4.8896622657775879e-01" purity="4.3264698982238770e-01" nType="0">
          <Node pos="l" depth="2" NCoef="0" IVar="-1" Cut="0.0000000000000000e+00" cType="1" res="-9.1151369269937277e-04" rms="4.9573877453804016e-01" purity="4.5196551084518433e-01" nType="-99"/>
          <Node pos="r" depth="2" NCoef="0" IVar="-1" Cut="0.0000000000000000e+00" cType="1" res="2.1937813144177198e-03" rms="4.8636925220489502e-01" purity="4.2562624812126160e-01" nType="-99"/>
        </Node>
        <Node pos="r" depth="1" NCoef="0" IVar="4" Cut="7.9593473672866821e-01" cType="1" res="-3.5148877650499344e-03" rms="4.8825737833976746e-01" purity="5.6926667690277100e-01" nType="0">
          <Node pos="l" depth="2" NCoef="0" IVar="-1" Cut="0.0000000000000000e+00" cType="1" res="-9.3971448950469494e-04" rms="4.9108552932739258e-01" purity="5.5444467067718506e-01" nType="-99"/>
          <Node pos="r" depth="2" NCoef="0" IVar="-1" Cut="0.0000000000000000e+00" cType="1" res="2.0772449206560850e-03" rms="4.7010818123817444e-01" purity="6.6089582443237305e-01" nType="-99"/>
        </Node>
      </Node>
    </BinaryTree>
    <BinaryTree type="DecisionTree" boostWeight="1.0000000000000000e+00" itree="601">
      <Node pos="s" depth="0" NCoef="0" IVar="3" Cut="8.9573132991790771e-01" cType="1" res="1.2554442510008812e-03" rms="4.8887908458709717e-01" purity="5.0201988220214844e-01" nType="0">
        <Node pos="l" depth="1" NCoef="0" IVar="3" Cut="-8.1122583150863647e-01" cType="1" res="3.5963738337159157e-03" rms="4.9188637733459473e-01" purity="4.7328814864158630e-01" nType="0">
          <Node pos="l" depth="2" NCoef="0" IVar="-1" Cut="0.0000000000000000e+00" cType="1" res="-3.0318670906126499e-04" rms="4.8366335034370422e-01" purity="4.0439754724502563e-01" nType="-99"/>
          <Node pos="r" depth="2" NCoef="0" IVar="-1" Cut="0.0000000000000000e+00" cType="1" res="1.1211077217012644e-03" rms="4.9785104393959045e-01" purity="5.2431178092956543e-01" nType="-99"/>
        </Node>
        <Node pos="r" depth="1" NCoef="0" IVar="1" Cut="4.0000000000000000e+00" cType="1" res="-2.8287903405725956e-03" rms="3.1440737843513489e-01" purity="6.3425046205520630e-01" nType="0">
          <Node pos="l" depth="2" NCoef="0" IVar="-1" Cut="0.0000000000000000e+00" cType="1" res="-3.2758347224444151e-03" rms="4.7511488199234009e-01" purity="6.3165074586868286e-01" nType="-99"/>
          <Node pos="r" depth="2" NCoef="0" IVar="-1" Cut="0.0000000000000000e+00" cType="1" res="3.9981845766305923e-03" rms="4.7149762511253357e-01" purity="6.4442002773284912e-01" nType="-99"/>
        </Node>
      </Node>
    </BinaryTree>
    <BinaryTree type="DecisionTree" boostWeight="1.0000000000000000e+00" itree="602">
      <Node pos="s" depth="0" NCoef="0" IVar="4" Cut="-7.9913491010665894e-01" cType="1" res="-2.0471375901252031e-03" rms="4.8865902423858643e-01" purity="4.9778333306312561e-01" nType="0">
        <Node pos="l" depth="1" NCoef="0" IVar="1" Cut="3.0000000000000000e+00" cType="1" res="5.7648899964988232e-03" rms="2.2745536267757416e-01" purity="4.8281180858612061e-01" nType="0">
          <Node pos="l" depth="2" NCoef="0" IVar="-1" Cut="0.0000000000000000e+00" cType="1" res="4.5191482640802860e-03" rms="4.8440936207771301e-01" purity="4.9978464841842651e-01" nType="-99"/>
          <Node pos="r" depth="2" NCoef="0" IVar="-1" Cut="0.0000000000000000e+00" cType="1" res="-1.5673806046834216e-05" rms="4.8046720027923584e-01" purity="4.6861267089843750e-01" nType="-99"/>
        </Node>
        <Node pos="r" depth="1" NCoef="0" IVar="0" Cut="8.4446926116943359e+00" cType="1" res="-4.5113326050341129e-03" rms="4.8967143893241882e-01" purity="5.0034904479980469e-01" nType="0">
          <Node pos="l" depth="2" NCoef="0" IVar="-1" Cut="0.0000000000000000e+00" cType="1" res="-1.8132261466234922e-03" rms="4.9923506379127502e-01" purity="4.9312680959701538e-01" nType="-99"/>
          <Node pos="r" depth="2" NCoef="0" IVar="-1" Cut="0.0000000000000000e+00" cType="1" res="-4.4617091771215200e-04" rms="4.8822417855262756e-01" purity="5.0140804052352905e-01" nType="-99"/>
        </Node>
      </Node>
    </BinaryTree>
    <BinaryTree type="DecisionTree" boostWeight="1.0000000000000000e+00" itree="603">
      <Node pos="s" depth="0" NCoef="0" IVar="4" Cut="-7.0556759834289551e-01" cType="1" res="1.9062297651544213e-03" rms="4.8754036426544189e-01" purity="5.0262802839279175e-01" nType="0">
        <Node pos="l" depth="1" NCoef="0" IVar="4" Cut="-7.5811308622360229e-01" cType="1" res="-7.5084213167428970e-03" rms="4.8585057258605957e-01" purity="4.7017976641654968e-01" nType="0">
          <Node pos="l" depth="2" NCoef="0" IVar="-1" Cut="0.0000000000000000e+00" cType="1" res="-3.8600992411375046e-04" rms="4.8439159989356995e-01" purity="4.7350233793258667e-01" nType="-99"/>
          <Node pos="r" depth="2" NCoef="0" IVar="-1" Cut="0.0000000000000000e+00" cType="1" res="-4.0901023894548416e-03" rms="4.9066984653472900e-01" purity="4.5811033248901367e-01" nType="-99"/>
        </Node>
        <Node pos="r" depth="1" NCoef="0" IVar="0" Cut="8.7546739578247070e+00" cType="1" res="5.3944927640259266e-03" rms="4.8811885714530945e-01" purity="5.1465058326721191e-01" nType="0">
          <Node pos="l" depth="2" NCoef="0" IVar="-1" Cut="0.0000000000000000e+00" cType="1" res="2.0632692612707615e-03" rms="4.9359637498855591e-01" purity="5.3104621171951294e-01" nType="-99"/>
          <Node pos="r" depth="2" NCoef="0" IVar="-1" Cut="0.0000000000000000e+00" cType="1" res="8.8100699940696359e-05" rms="4.8596227169036865e-01" purity="5.0851768255233765e-01" nType="-99"/>
        </Node>
      </Node>
    </BinaryTree>
    <BinaryTree type="DecisionTree" boostWeight="1.0000000000000000e+00" itree="604">
      <Node pos="s" depth="0" NCoef="0" IVar="4" Cut="-8.9010238647460938e-01" cType="1" res="-1.0069034760817885e-03" rms="4.8855718970298767e-01" purity="4.9805983901023865e-01" nType="0">
        <Node pos="l" depth="1" NCoef="0" IVar="-1" Cut="0.0000000000000000e+00" cType="1" res="-6.1877775005996227e-03" rms="4.6928498148918152e-01" purity="4.2062497138977051e-01" nType="-99"/>
        <Node pos="r" depth="1" NCoef="0" IVar="1" Cut="4.0000000000000000e+00" cType="1" res="-1.7240406014025211e-03" rms="3.3795672655105591e-01" purity="5.0122171640396118e-01" nType="0">
          <Node pos="l" depth="2" NCoef="0" IVar="-1" Cut="0.0000000000000000e+00" cType="1" res="-2.6529593742452562e-04" rms="4.8925662040710449e-01" purity="4.9763292074203491e-01" nType="-99"/>
          <Node pos="r" depth="2" NCoef="0" IVar="-1" Cut="0.0000000000000000e+00" cType="1" res="2.1679119672626257e-03" rms="4.8923975229263306e-01" purity="5.2572703361511230e-01" nType="-99"/>
        </Node>
      </Node>
    </BinaryTree>
    <BinaryTree type="DecisionTree" boostWeight="1.0000000000000000e+00" itree="605">
      <Node pos="s" depth="0" NCoef="0" IVar="4" Cut="-7.9886198043823242e-01" cType="1" res="-3.1533555593341589e-03" rms="4.8900842666625977e-01" purity="4.9718534946441650e-01" nType="0">
        <Node pos="l" depth="1" NCoef="0" IVar="5" Cut="-7.7966684103012085e-01" cType="1" res="-1.5916874632239342e-02" rms="4.8271396756172180e-01" purity="4.5273479819297791e-01" nType="0">
          <Node pos="l" depth="2" NCoef="0" IVar="-1" Cut="0.0000000000000000e+00" cType="1" res="3.8386182859539986e-03" rms="4.8799458146095276e-01" purity="4.8634400963783264e-01" nType="-99"/>
          <Node pos="r" depth="2" NCoef="0" IVar="-1" Cut="0.0000000000000000e+00" cType="1" res="-4.0764487348496914e-03" rms="4.8113858699798584e-01" purity="4.4530209898948669e-01" nType="-99"/>
        </Node>
        <Node pos="r" depth="1" NCoef="0" IVar="1" Cut="5.0000000000000000e+00" cType="1" res="5.7753932196646929e-04" rms="1.6723446547985077e-01" purity="5.0505965948104858e-01" nType="0">
          <Node pos="l" depth="2" NCoef="0" IVar="-1" Cut="0.0000000000000000e+00" cType="1" res="5.2504841733025387e-05" rms="4.8994523286819458e-01" purity="5.0499415397644043e-01" nType="-99"/>
          <Node pos="r" depth="2" NCoef="0" IVar="-1" Cut="0.0000000000000000e+00" cType="1" res="-4.6217245981097221e-03" rms="4.9238431453704834e-01" purity="5.0661796331405640e-01" nType="-99"/>
        </Node>
      </Node>
    </BinaryTree>
    <BinaryTree type="DecisionTree" boostWeight="1.0000000000000000e+00" itree="606">
      <Node pos="s" depth="0" NCoef="0" IVar="0" Cut="8.4878902435302734e+00" cType="1" res="-2.0174630917608738e-03" rms="4.8840925097465515e-01" purity="4.9722698330879211e-01" nType="0">
        <Node pos="l" depth="1" NCoef="0" IVar="2" Cut="2.0000000000000000e+00" cType="1" res="7.3772366158664227e-04" rms="5.7313188910484314e-02" purity="5.1564490795135498e-01" nType="0">
          <Node pos="l" depth="2" NCoef="0" IVar="-1" Cut="0.0000000000000000e+00" cType="1" res="1.7222047608811408e-04" rms="4.9467334151268005e-01" purity="5.1486670970916748e-01" nType="-99"/>
          <Node pos="r" depth="2" NCoef="0" IVar="-1" Cut="0.0000000000000000e+00" cType="1" res="1.9918580073863268e-03" rms="4.9867597222328186e-01" purity="5.1660883426666260e-01" nType="-99"/>
        </Node>
        <Node pos="r" depth="1" NCoef="0" IVar="0" Cut="9.0408611297607422e+00" cType="1" res="-3.8624305743724108e-03" rms="4.8701953887939453e-01" purity="4.9416133761405945e-01" nType="0">
          <Node pos="l" depth="2" NCoef="0" IVar="-1" Cut="0.0000000000000000e+00" cType="1" res="-1.3801327440887690e-03" rms="4.9273958802223206e-01" purity="4.8936784267425537e-01" nType="-99"/>
          <Node pos="r" depth="2" NCoef="0" IVar="-1" Cut="0.0000000000000000e+00" cType="1" res="3.3036296372301877e-05" rms="4.8321840167045593e-01" purity="4.9728080630302429e-01" nType="-99"/>
        </Node>
      </Node>
    </BinaryTree>
    <BinaryTree type="DecisionTree" boostWeight="1.0000000000000000e+00" itree="607">
      <Node pos="s" depth="0" NCoef="0" IVar="4" Cut="8.8921761512756348e-01" cType="1" res="1.8631774000823498e-03" rms="4.8814943432807922e-01" purity="5.0096523761749268e-01" nType="0">
        <Node pos="l" depth="1" NCoef="0" IVar="2" Cut="2.0000000000000000e+00" cType="1" res="8.2058075349777937e-04" rms="1.3015936315059662e-01" purity="4.9845591187477112e-01" nType="0">
          <Node pos="l" depth="2" NCoef="0" IVar="-1" Cut="0.0000000000000000e+00" cType="1" res="-3.7106906529515982e-04" rms="4.8672839999198914e-01" purity="4.9403885006904602e-01" nType="-99"/>
          <Node pos="r" depth="2" NCoef="0" IVar="-1" Cut="0.0000000000000000e+00" cType="1" res="8.9364039013162255e-04" rms="4.9051344394683838e-01" purity="5.0428295135498047e-01" nType="-99"/>
        </Node>
        <Node pos="r" depth="1" NCoef="0" IVar="-1" Cut="0.0000000000000000e+00" cType="1" res="4.7623887658119202e-03" rms="4.8187768459320068e-01" purity="5.6254923343658447e-01" nType="-99"/>
      </Node>
    </BinaryTree>
    <BinaryTree type="DecisionTree" boostWeight="1.0000000000000000e+00" itree="608">
      <Node pos="s" depth="0" NCoef="0" IVar="2" Cut="3.0000000000000000e+00" cType="1" res="-3.6292849108576775e-04" rms="1.6651810705661774e-01" purity="5.0012522935867310e-01" nType="0">
        <Node pos="l" depth="1" NCoef="0" IVar="4" Cut="4.6237733215093613e-02" cType="1" res="-1.8195915035903454e-03" rms="4.8837912082672119e-01" purity="4.9758335947990417e-01" nType="0">
          <Node pos="l" depth="2" NCoef="0" IVar="-1" Cut="0.0000000000000000e+00" cType="1" res="1.3393918925430626e-04" rms="4.8891133069992065e-01" purity="4.9057310819625854e-01" nType="-99"/>
          <Node pos="r" depth="2" NCoef="0" IVar="-1" Cut="0.0000000000000000e+00" cType="1" res="-1.3507936382666230e-03" rms="4.8701444268226624e-01" purity="5.1470696926116943e-01" nType="-99"/>
        </Node>
        <Node pos="r" depth="1" NCoef="0" IVar="0" Cut="8.9171838760375977e+00" cType="1" res="1.5164519660174847e-02" rms="4.9149918556213379e-01" purity="5.2071231603622437e-01" nType="0">
          <Node pos="l" depth="2" NCoef="0" IVar="-1" Cut="0.0000000000000000e+00" cType="1" res="3.7895778659731150e-03" rms="4.9085444211959839e-01" purity="5.4045337438583374e-01" nType="-99"/>
          <Node pos="r" depth="2" NCoef="0" IVar="-1" Cut="0.0000000000000000e+00" cType="1" res="1.3354922411963344e-03" rms="4.9170172214508057e-01" purity="5.0730830430984497e-01" nType="-99"/>
        </Node>
      </Node>
    </BinaryTree>
    <BinaryTree type="DecisionTree" boostWeight="1.0000000000000000e+00" itree="609">
      <Node pos="s" depth="0" NCoef="0" IVar="3" Cut="-7.0780074596405029e-01" cType="1" res="-3.1771101057529449e-03" rms="4.8924097418785095e-01" purity="4.9687591195106506e-01" nType="0">
        <Node pos="l" depth="1" NCoef="0" IVar="3" Cut="-7.4578666687011719e-01" cType="1" res="3.1671021133661270e-03" rms="4.8795744776725769e-01" purity="4.2809590697288513e-01" nType="0">
          <Node pos="l" depth="2" NCoef="0" IVar="-1" Cut="0.0000000000000000e+00" cType="1" res="-7.0129567575349938e-06" rms="4.8693445324897766e-01" purity="4.2074739933013916e-01" nType="-99"/>
          <Node pos="r" depth="2" NCoef="0" IVar="-1" Cut="0.0000000000000000e+00" cType="1" res="6.3327914103865623e-03" rms="4.9890691041946411e-01" purity="5.2074086666107178e-01" nType="-99"/>
        </Node>
        <Node pos="r" depth="1" NCoef="0" IVar="4" Cut="7.9577982425689697e-01" cType="1" res="-9.2595191672444344e-03" rms="4.9039131402969360e-01" purity="5.6281757354736328e-01" nType="0">
          <Node pos="l" depth="2" NCoef="0" IVar="-1" Cut="0.0000000000000000e+00" cType="1" res="-1.1079635005444288e-03" rms="4.9223378300666809e-01" purity="5.5332696437835693e-01" nType="-99"/>
          <Node pos="r" depth="2" NCoef="0" IVar="-1" Cut="0.0000000000000000e+00" cType="1" res="-4.2232340201735497e-03" rms="4.7844228148460388e-01" purity="6.2227177619934082e-01" nType="-99"/>
        </Node>
      </Node>
    </BinaryTree>
    <BinaryTree type="DecisionTree" boostWeight="1.0000000000000000e+00" itree="610">
      <Node pos="s" depth="0" NCoef="0" IVar="2" Cut="3.0000000000000000e+00" cType="1" res="-9.7553257364779711e-04" rms="1.6788011789321899e-01" purity="4.9837884306907654e-01" nType="0">
        <Node pos="l" depth="1" NCoef="0" IVar="0" Cut="8.6974954605102539e+00" cType="1" res="-1.0988360736519098e-04" rms="4.8833587765693665e-01" purity="4.9888435006141663e-01" nType="0">
          <Node pos="l" depth="2" NCoef="0" IVar="-1" Cut="0.0000000000000000e+00" cType="1" res="-1.1938514653593302e-03" rms="4.9553018808364868e-01" purity="4.9245947599411011e-01" nType="-99"/>
          <Node pos="r" depth="2" NCoef="0" IVar="-1" Cut="0.0000000000000000e+00" cType="1" res="6.4265029504895210e-04" rms="4.8596701025962830e-01" purity="5.0093090534210205e-01" nType="-99"/>
        </Node>
        <Node pos="r" depth="1" NCoef="0" IVar="1" Cut="3.0000000000000000e+00" cType="1" res="1.4353876467794180e-03" rms="2.0012429356575012e-01" purity="4.9424248933792114e-01" nType="0">
          <Node pos="l" depth="2" NCoef="0" IVar="-1" Cut="0.0000000000000000e+00" cType="1" res="-8.8341324590146542e-04" rms="4.9308714270591736e-01" purity="5.0652855634689331e-01" nType="-99"/>
          <Node pos="r" depth="2" NCoef="0" IVar="-1" Cut="0.0000000000000000e+00" cType="1" res="-6.4838835969567299e-03" rms="4.8935386538505554e-01" purity="4.6308958530426025e-01" nType="-99"/>
        </Node>
      </Node>
    </BinaryTree>
    <BinaryTree type="DecisionTree" boostWeight="1.0000000000000000e+00" itree="611">
      <Node pos="s" depth="0" NCoef="0" IVar="0" Cut="8.7359209060668945e+00" cType="1" res="2.7215331792831421e-03" rms="4.8912581801414490e-01" purity="5.0300496816635132e-01" nType="0">
        <Node pos="l" depth="1" NCoef="0" IVar="1" Cut="3.0000000000000000e+00" cType="1" res="-8.0865960626397282e-05" rms="2.0528899505734444e-02" purity="4.9691930413246155e-01" nType="0">
          <Node pos="l" depth="2" NCoef="0" IVar="-1" Cut="0.0000000000000000e+00" cType="1" res="7.6156684372108430e-05" rms="4.9576857686042786e-01" purity="5.0266754627227783e-01" nType="-99"/>
          <Node pos="r" depth="2" NCoef="0" IVar="-1" Cut="0.0000000000000000e+00" cType="1" res="-2.4895626120269299e-03" rms="4.9127200245857239e-01" purity="4.8606675863265991e-01" nType="-99"/>
        </Node>
        <Node pos="r" depth="1" NCoef="0" IVar="3" Cut="-8.0100727081298828e-01" cType="1" res="6.2421532347798347e-03" rms="4.8725724220275879e-01" purity="5.0511199235916138e-01" nType="0">
          <Node pos="l" depth="2" NCoef="0" IVar="-1" Cut="0.0000000000000000e+00" cType="1" res="2.4722705129534006e-03" rms="4.8404723405838013e-01" purity="4.0887561440467834e-01" nType="-99"/>
          <Node pos="r" depth="2" NCoef="0" IVar="-1" Cut="0.0000000000000000e+00" cType="1" res="4.3405551696196198e-04" rms="4.8913630843162537e-01" purity="5.6299901008605957e-01" nType="-99"/>
        </Node>
      </Node>
    </BinaryTree>
    <BinaryTree type="DecisionTree" boostWeight="1.0000000000000000e+00" itree="612">
      <Node pos="s" depth="0" NCoef="0" IVar="0" Cut="9.0802497863769531e+00" cType="1" res="9.5067087386269122e-05" rms="4.8801752924919128e-01" purity="4.9994629621505737e-01" nType="0">
        <Node pos="l" depth="1" NCoef="0" IVar="1" Cut="2.0000000000000000e+00" cType="1" res="4.3711593025363982e-04" rms="9.5091290771961212e-02" purity="4.9572592973709106e-01" nType="0">
          <Node pos="l" depth="2" NCoef="0" IVar="-1" Cut="0.0000000000000000e+00" cType="1" res="-2.4733808822929859e-03" rms="4.9487686157226562e-01" purity="4.8380726575851440e-01" nType="-99"/>
          <Node pos="r" depth="2" NCoef="0" IVar="-1" Cut="0.0000000000000000e+00" cType="1" res="-6.1711740272585303e-05" rms="4.9262416362762451e-01" purity="5.0067859888076782e-01" nType="-99"/>
        </Node>
        <Node pos="r" depth="1" NCoef="0" IVar="0" Cut="9.1872110366821289e+00" cType="1" res="6.7731975577771664e-03" rms="4.8216849565505981e-01" purity="5.0443989038467407e-01" nType="0">
          <Node pos="l" depth="2" NCoef="0" IVar="-1" Cut="0.0000000000000000e+00" cType="1" res="3.6081916186958551e-03" rms="4.8626628518104553e-01" purity="5.1797205209732056e-01" nType="-99"/>
          <Node pos="r" depth="2" NCoef="0" IVar="-1" Cut="0.0000000000000000e+00" cType="1" res="8.4477517521008849e-04" rms="4.8115941882133484e-01" purity="5.0130832195281982e-01" nType="-99"/>
        </Node>
      </Node>
    </BinaryTree>
    <BinaryTree type="DecisionTree" boostWeight="1.0000000000000000e+00" itree="613">
      <Node pos="s" depth="0" NCoef="0" IVar="3" Cut="-8.9546138048171997e-01" cType="1" res="2.3173997178673744e-03" rms="4.8830920457839966e-01" purity="5.0191205739974976e-01" nType="0">
        <Node pos="l" depth="1" NCoef="0" IVar="0" Cut="9.0324859619140625e+00" cType="1" res="-3.4101528581231833e-03" rms="4.6967896819114685e-01" purity="3.5102283954620361e-01" nType="0">
          <Node pos="l" depth="2" NCoef="0" IVar="-1" Cut="0.0000000000000000e+00" cType="1" res="-2.2416226565837860e-03" rms="4.7674205899238586e-01" purity="3.6627933382987976e-01" nType="-99"/>
          <Node pos="r" depth="2" NCoef="0" IVar="-1" Cut="0.0000000000000000e+00" cType="1" res="1.2969047529622912e-03" rms="4.6489325165748596e-01" purity="3.4126046299934387e-01" nType="-99"/>
        </Node>
        <Node pos="r" depth="1" NCoef="0" IVar="4" Cut="4.5231714844703674e-02" cType="1" res="3.5204307641834021e-03" rms="4.9212428927421570e-01" purity="5.3360521793365479e-01" nType="0">
          <Node pos="l" depth="2" NCoef="0" IVar="-1" Cut="0.0000000000000000e+00" cType="1" res="8.8150735246017575e-04" rms="4.9339956045150757e-01" purity="5.2346014976501465e-01" nType="-99"/>
          <Node pos="r" depth="2" NCoef="0" IVar="-1" Cut="0.0000000000000000e+00" cType="1" res="-4.5205096830613911e-04" rms="4.8822975158691406e-01" purity="5.6399768590927124e-01" nType="-99"/>
        </Node>
      </Node>
    </BinaryTree>
    <BinaryTree type="DecisionTree" boostWeight="1.0000000000000000e+00" itree="614">
      <Node pos="s" depth="0" NCoef="0" IVar="0" Cut="8.1340055465698242e+00" cType="1" res="3.5188684705644846e-03" rms="4.8872414231300354e-01" purity="5.0476425886154175e-01" nType="0">
        <Node pos="l" depth="1" NCoef="0" IVar="-1" Cut="0.0000000000000000e+00" cType="1" res="3.8225632160902023e-03" rms="5.0305211544036865e-01" purity="5.3226566314697266e-01" nType="-99"/>
        <Node pos="r" depth="1" NCoef="0" IVar="1" Cut="3.0000000000000000e+00" cType="1" res="1.6686441376805305e-03" rms="4.5604345202445984e-01" purity="5.0337606668472290e-01" nType="0">
          <Node pos="l" depth="2" NCoef="0" IVar="-1" Cut="0.0000000000000000e+00" cType="1" res="7.7875226270407438e-04" rms="4.8783525824546814e-01" purity="5.0494027137756348e-01" nType="-99"/>
          <Node pos="r" depth="2" NCoef="0" IVar="-1" Cut="0.0000000000000000e+00" cType="1" res="-6.3960591796785593e-04" rms="4.8801788687705994e-01" purity="5.0049018859863281e-01" nType="-99"/>
        </Node>
      </Node>
    </BinaryTree>
    <BinaryTree type="DecisionTree" boostWeight="1.0000000000000000e+00" itree="615">
      <Node pos="s" depth="0" NCoef="0" IVar="3" Cut="8.9660543203353882e-01" cType="1" res="-2.2362160962074995e-04" rms="4.8798844218254089e-01" purity="4.9948543310165405e-01" nType="0">
        <Node pos="l" depth="1" NCoef="0" IVar="2" Cut="3.0000000000000000e+00" cType="1" res="-1.1206672934349626e-04" rms="1.7692111432552338e-01" purity="4.6847119927406311e-01" nType="0">
          <Node pos="l" depth="2" NCoef="0" IVar="-1" Cut="0.0000000000000000e+00" cType="1" res="-5.0902867224067450e-04" rms="4.9108493328094482e-01" purity="4.6393197774887085e-01" nType="-99"/>
          <Node pos="r" depth="2" NCoef="0" IVar="-1" Cut="0.0000000000000000e+00" cType="1" res="1.7531069461256266e-03" rms="4.9580621719360352e-01" purity="5.0232201814651489e-01" nType="-99"/>
        </Node>
        <Node pos="r" depth="1" NCoef="0" IVar="4" Cut="7.9491102695465088e-01" cType="1" res="7.5818523764610291e-03" rms="4.6978554129600525e-01" purity="6.4900112152099609e-01" nType="0">
          <Node pos="l" depth="2" NCoef="0" IVar="-1" Cut="0.0000000000000000e+00" cType="1" res="2.8502482455223799e-03" rms="4.7123870253562927e-01" purity="6.4296311140060425e-01" nType="-99"/>
          <Node pos="r" depth="2" NCoef="0" IVar="-1" Cut="0.0000000000000000e+00" cType="1" res="-3.6610923707485199e-03" rms="4.6420916914939880e-01" purity="6.6813963651657104e-01" nType="-99"/>
        </Node>
      </Node>
    </BinaryTree>
    <BinaryTree type="DecisionTree" boostWeight="1.0000000000000000e+00" itree="616">
      <Node pos="s" depth="0" NCoef="0" IVar="0" Cut="8.1916484832763672e+00" cType="1" res="2.6213303499389440e-05" rms="4.8828101158142090e-01" purity="5.0150001049041748e-01" nType="0">
        <Node pos="l" depth="1" NCoef="0" IVar="-1" Cut="0.0000000000000000e+00" cType="1" res="2.2956936154514551e-03" rms="4.9988117814064026e-01" purity="5.1962971687316895e-01" nType="-99"/>
        <Node pos="r" depth="1" NCoef="0" IVar="0" Cut="8.4963712692260742e+00" cType="1" res="-1.3061382342129946e-03" rms="4.8756495118141174e-01" purity="5.0044596195220947e-01" nType="0">
          <Node pos="l" depth="2" NCoef="0" IVar="-1" Cut="0.0000000000000000e+00" cType="1" res="1.4358398038893938e-03" rms="4.9431812763214111e-01" purity="5.2918976545333862e-01" nType="-99"/>
          <Node pos="r" depth="2" NCoef="0" IVar="-1" Cut="0.0000000000000000e+00" cType="1" res="-5.1170634105801582e-04" rms="4.8680895566940308e-01" purity="4.9736630916595459e-01" nType="-99"/>
        </Node>
      </Node>
    </BinaryTree>
    <BinaryTree type="DecisionTree" boostWeight="1.0000000000000000e+00" itree="617">
      <Node pos="s" depth="0" NCoef="0" IVar="0" Cut="8.3125705718994141e+00" cType="1" res="3.3702788641676307e-04" rms="4.8860743641853333e-01" purity="5.0069057941436768e-01" nType="0">
        <Node pos="l" depth="1" NCoef="0" IVar="-1" Cut="0.0000000000000000e+00" cType="1" res="-1.9503181101754308e-03" rms="4.9986821413040161e-01" purity="4.7857189178466797e-01" nType="-99"/>
        <Node pos="r" depth="1" NCoef="0" IVar="0" Cut="8.5994892120361328e+00" cType="1" res="2.1771446336060762e-03" rms="4.8752415180206299e-01" purity="5.0271141529083252e-01" nType="0">
          <Node pos="l" depth="2" NCoef="0" IVar="-1" Cut="0.0000000000000000e+00" cType="1" res="1.5955591807141900e-03" rms="4.9320223927497864e-01" purity="5.2616107463836670e-01" nType="-99"/>
          <Node pos="r" depth="2" NCoef="0" IVar="-1" Cut="0.0000000000000000e+00" cType="1" res="8.0886260548140854e-05" rms="4.8673206567764282e-01" purity="4.9956884980201721e-01" nType="-99"/>
        </Node>
      </Node>
    </BinaryTree>
    <BinaryTree type="DecisionTree" boostWeight="1.0000000000000000e+00" itree="618">
      <Node pos="s" depth="0" NCoef="0" IVar="4" Cut="-8.9139050245285034e-01" cType="1" res="1.3887092063669115e-04" rms="4.8847553133964539e-01" purity="5.0051796436309814e-01" nType="0">
        <Node pos="l" depth="1" NCoef="0" IVar="-1" Cut="0.0000000000000000e+00" cType="1" res="3.6530871875584126e-03" rms="4.7813740372657776e-01" purity="4.6727851033210754e-01" nType="-99"/>
        <Node pos="r" depth="1" NCoef="0" IVar="0" Cut="9.4772863388061523e+00" cType="1" res="-5.7869241572916508e-04" rms="4.8884409666061401e-01" purity="5.0176346302032471e-01" nType="0">
          <Node pos="l" depth="2" NCoef="0" IVar="-1" Cut="0.0000000000000000e+00" cType="1" res="-3.9990813820622861e-04" rms="4.9184709787368774e-01" purity="5.0115543603897095e-01" nType="-99"/>
          <Node pos="r" depth="2" NCoef="0" IVar="-1" Cut="0.0000000000000000e+00" cType="1" res="2.5043564382940531e-03" rms="4.7504073381423950e-01" purity="5.0448602437973022e-01" nType="-99"/>
        </Node>
      </Node>
    </BinaryTree>
    <BinaryTree type="DecisionTree" boostWeight="1.0000000000000000e+00" itree="619">
      <Node pos="s" depth="0" NCoef="0" IVar="5" Cut="5.1598325371742249e-02" cType="1" res="5.4987787734717131e-04" rms="4.8859637975692749e-01" purity="5.0029212236404419e-01" nType="0">
        <Node pos="l" depth="1" NCoef="0" IVar="0" Cut="9.0384016036987305e+00" cType="1" res="-1.2810486368834972e-03" rms="4.8892390727996826e-01" purity="4.9777439236640930e-01" nType="0">
          <Node pos="l" depth="2" NCoef="0" IVar="-1" Cut="0.0000000000000000e+00" cType="1" res="-8.2051841309294105e-04" rms="4.9340704083442688e-01" purity="4.9362727999687195e-01" nType="-99"/>
          <Node pos="r" depth="2" NCoef="0" IVar="-1" Cut="0.0000000000000000e+00" cType="1" res="8.0182659439742565e-04" rms="4.8462951183319092e-01" purity="5.0166326761245728e-01" nType="-99"/>
        </Node>
        <Node pos="r" depth="1" NCoef="0" IVar="4" Cut="-7.9554259777069092e-01" cType="1" res="1.3291668146848679e-02" rms="4.8612007498741150e-01" purity="5.1781368255615234e-01" nType="0">
          <Node pos="l" depth="2" NCoef="0" IVar="-1" Cut="0.0000000000000000e+00" cType="1" res="4.7754431143403053e-03" rms="4.8084542155265808e-01" purity="5.0747191905975342e-01" nType="-99"/>
          <Node pos="r" depth="2" NCoef="0" IVar="-1" Cut="0.0000000000000000e+00" cType="1" res="3.5443424712866545e-04" rms="4.8935970664024353e-01" purity="5.2483296394348145e-01" nType="-99"/>
        </Node>
      </Node>
    </BinaryTree>
    <BinaryTree type="DecisionTree" boostWeight="1.0000000000000000e+00" itree="620">
      <Node pos="s" depth="0" NCoef="0" IVar="4" Cut="-7.0527523756027222e-01" cType="1" res="3.5694278776645660e-03" rms="4.8766255378723145e-01" purity="5.0400733947753906e-01" nType="0">
        <Node pos="l" depth="1" NCoef="0" IVar="4" Cut="-8.0892837047576904e-01" cType="1" res="-6.3350512646138668e-03" rms="4.8502936959266663e-01" purity="4.7116234898567200e-01" nType="0">
          <Node pos="l" depth="2" NCoef="0" IVar="-1" Cut="0.0000000000000000e+00" cType="1" res="4.3096495210193098e-04" rms="4.8027041554450989e-01" purity="4.7184649109840393e-01" nType="-99"/>
          <Node pos="r" depth="2" NCoef="0" IVar="-1" Cut="0.0000000000000000e+00" cType="1" res="-2.3527480661869049e-03" rms="4.8949009180068970e-01" purity="4.7049251198768616e-01" nType="-99"/>
        </Node>
        <Node pos="r" depth="1" NCoef="0" IVar="3" Cut="-7.0703172683715820e-01" cType="1" res="7.1962419897317886e-03" rms="4.8857301473617554e-01" purity="5.1603448390960693e-01" nType="0">
          <Node pos="l" depth="2" NCoef="0" IVar="-1" Cut="0.0000000000000000e+00" cType="1" res="1.0851668048417196e-04" rms="4.9113169312477112e-01" purity="4.4299170374870300e-01" nType="-99"/>
          <Node pos="r" depth="2" NCoef="0" IVar="-1" Cut="0.0000000000000000e+00" cType="1" res="2.2377818822860718e-03" rms="4.8573002219200134e-01" purity="5.9402751922607422e-01" nType="-99"/>
        </Node>
      </Node>
    </BinaryTree>
    <BinaryTree type="DecisionTree" boostWeight="1.0000000000000000e+00" itree="621">
      <Node pos="s" depth="0" NCoef="0" IVar="0" Cut="9.1818141937255859e+00" cType="1" res="4.6507259830832481e-03" rms="4.8844310641288757e-01" purity="5.0551134347915649e-01" nType="0">
        <Node pos="l" depth="1" NCoef="0" IVar="1" Cut="2.0000000000000000e+00" cType="1" res="-2.2028281819075346e-04" rms="5.3311873227357864e-02" purity="5.1299422979354858e-01" nType="0">
          <Node pos="l" depth="2" NCoef="0" IVar="-1" Cut="0.0000000000000000e+00" cType="1" res="3.2410537824034691e-03" rms="4.9403333663940430e-01" purity="5.2864199876785278e-01" nType="-99"/>
          <Node pos="r" depth="2" NCoef="0" IVar="-1" Cut="0.0000000000000000e+00" cType="1" res="7.0387945743277669e-04" rms="4.9238276481628418e-01" purity="5.0651884078979492e-01" nType="-99"/>
        </Node>
        <Node pos="r" depth="1" NCoef="0" IVar="3" Cut="8.9700555801391602e-01" cType="1" res="-4.9668285064399242e-03" rms="4.8140189051628113e-01" purity="4.9420416355133057e-01" nType="0">
          <Node pos="l" depth="2" NCoef="0" IVar="-1" Cut="0.0000000000000000e+00" cType="1" res="-1.6892697894945741e-03" rms="4.8670119047164917e-01" purity="4.4616287946701050e-01" nType="-99"/>
          <Node pos="r" depth="2" NCoef="0" IVar="-1" Cut="0.0000000000000000e+00" cType="1" res="1.2712510069832206e-03" rms="4.6053627133369446e-01" purity="6.7712455987930298e-01" nType="-99"/>
        </Node>
      </Node>
    </BinaryTree>
    <BinaryTree type="DecisionTree" boostWeight="1.0000000000000000e+00" itree="622">
      <Node pos="s" depth="0" NCoef="0" IVar="3" Cut="-8.0189293622970581e-01" cType="1" res="-2.7623150963336229e-03" rms="4.8698133230209351e-01" purity="4.9837023019790649e-01" nType="0">
        <Node pos="l" depth="1" NCoef="0" IVar="5" Cut="-7.8059387207031250e-01" cType="1" res="-1.1361598037183285e-02" rms="4.8176711797714233e-01" purity="3.9786174893379211e-01" nType="0">
          <Node pos="l" depth="2" NCoef="0" IVar="-1" Cut="0.0000000000000000e+00" cType="1" res="-9.0371957048773766e-03" rms="4.6510502696037292e-01" purity="3.4381833672523499e-01" nType="-99"/>
          <Node pos="r" depth="2" NCoef="0" IVar="-1" Cut="0.0000000000000000e+00" cType="1" res="-1.3668236788362265e-03" rms="4.8292109370231628e-01" purity="4.0214025974273682e-01" nType="-99"/>
        </Node>
        <Node pos="r" depth="1" NCoef="0" IVar="4" Cut="4.4533070176839828e-02" cType="1" res="2.2178106009960175e-03" rms="4.8990663886070251e-01" purity="5.5657798051834106e-01" nType="0">
          <Node pos="l" depth="2" NCoef="0" IVar="-1" Cut="0.0000000000000000e+00" cType="1" res="-1.4712495612911880e-04" rms="4.9290612339973450e-01" purity="5.3884977102279663e-01" nType="-99"/>
          <Node pos="r" depth="2" NCoef="0" IVar="-1" Cut="0.0000000000000000e+00" cType="1" res="2.1611105185002089e-03" rms="4.7946083545684814e-01" purity="6.1656224727630615e-01" nType="-99"/>
        </Node>
      </Node>
    </BinaryTree>
    <BinaryTree type="DecisionTree" boostWeight="1.0000000000000000e+00" itree="623">
      <Node pos="s" depth="0" NCoef="0" IVar="5" Cut="-7.8396582603454590e-01" cType="1" res="2.3094280622899532e-03" rms="4.8823845386505127e-01" purity="5.0367593765258789e-01" nType="0">
        <Node pos="l" depth="1" NCoef="0" IVar="5" Cut="-8.2815515995025635e-01" cType="1" res="2.3805730044841766e-02" rms="4.8492914438247681e-01" purity="5.2077811956405640e-01" nType="0">
          <Node pos="l" depth="2" NCoef="0" IVar="-1" Cut="0.0000000000000000e+00" cType="1" res="6.3747144304215908e-03" rms="4.8400545120239258e-01" purity="5.2904766798019409e-01" nType="-99"/>
          <Node pos="r" depth="2" NCoef="0" IVar="-1" Cut="0.0000000000000000e+00" cType="1" res="2.1470149513334036e-03" rms="4.8563277721405029e-01" purity="5.1248544454574585e-01" nType="-99"/>
        </Node>
        <Node pos="r" depth="1" NCoef="0" IVar="1" Cut="5.0000000000000000e+00" cType="1" res="2.7713400777429342e-04" rms="1.6487371921539307e-01" purity="5.0262701511383057e-01" nType="0">
          <Node pos="l" depth="2" NCoef="0" IVar="-1" Cut="0.0000000000000000e+00" cType="1" res="3.1594056054018438e-04" rms="4.8849904537200928e-01" purity="5.0302970409393311e-01" nType="-99"/>
          <Node pos="r" depth="2" NCoef="0" IVar="-1" Cut="0.0000000000000000e+00" cType="1" res="-4.0499703027307987e-03" rms="4.8528495430946350e-01" purity="4.9196314811706543e-01" nType="-99"/>
        </Node>
      </Node>
    </BinaryTree>
    <BinaryTree type="DecisionTree" boostWeight="1.0000000000000000e+00" itree="624">
      <Node pos="s" depth="0" NCoef="0" IVar="5" Cut="7.9097390174865723e-01" cType="1" res="-5.4425303824245930e-03" rms="4.8874509334564209e-01" purity="4.9590510129928589e-01" nType="0">
        <Node pos="l" depth="1" NCoef="0" IVar="0" Cut="8.4704437255859375e+00" cType="1" res="-4.0308083407580853e-03" rms="4.8910483717918396e-01" purity="4.9617293477058411e-01" nType="0">
          <Node pos="l" depth="2" NCoef="0" IVar="-1" Cut="0.0000000000000000e+00" cType="1" res="1.0171192698180676e-03" rms="4.9696108698844910e-01" purity="5.1650583744049072e-01" nType="-99"/>
          <Node pos="r" depth="2" NCoef="0" IVar="-1" Cut="0.0000000000000000e+00" cType="1" res="-1.1077045928686857e-03" rms="4.8776304721832275e-01" purity="4.9283298850059509e-01" nType="-99"/>
        </Node>
        <Node pos="r" depth="1" NCoef="0" IVar="5" Cut="8.3509832620620728e-01" cType="1" res="-3.0424959957599640e-02" rms="4.8165020346641541e-01" purity="4.9116563796997070e-01" nType="0">
          <Node pos="l" depth="2" NCoef="0" IVar="-1" Cut="0.0000000000000000e+00" cType="1" res="-7.4939057230949402e-03" rms="4.8189675807952881e-01" purity="4.7617980837821960e-01" nType="-99"/>
          <Node pos="r" depth="2" NCoef="0" IVar="-1" Cut="0.0000000000000000e+00" cType="1" res="-2.7342175599187613e-03" rms="4.8094815015792847e-01" purity="5.0788390636444092e-01" nType="-99"/>
        </Node>
      </Node>
    </BinaryTree>
    <BinaryTree type="DecisionTree" boostWeight="1.0000000000000000e+00" itree="625">
      <Node pos="s" depth="0" NCoef="0" IVar="3" Cut="8.9630240201950073e-01" cType="1" res="-3.6247796379029751e-03" rms="4.8862230777740479e-01" purity="4.9775412678718567e-01" nType="0">
        <Node pos="l" depth="1" NCoef="0" IVar="1" Cut="5.0000000000000000e+00" cType="1" res="-9.4153190730139613e-04" rms="1.6813074052333832e-01" purity="4.6799767017364502e-01" nType="0">
          <Node pos="l" depth="2" NCoef="0" IVar="-1" Cut="0.0000000000000000e+00" cType="1" res="-5.0236313836649060e-04" rms="4.9142533540725708e-01" purity="4.6703967452049255e-01" nType="-99"/>
          <Node pos="r" depth="2" NCoef="0" IVar="-1" Cut="0.0000000000000000e+00" cType="1" res="2.5768210180103779e-03" rms="4.9518075585365295e-01" purity="4.8931822180747986e-01" nType="-99"/>
        </Node>
        <Node pos="r" depth="1" NCoef="0" IVar="0" Cut="9.5736150741577148e+00" cType="1" res="-9.3634473159909248e-03" rms="4.7444900870323181e-01" purity="6.3631689548492432e-01" nType="0">
          <Node pos="l" depth="2" NCoef="0" IVar="-1" Cut="0.0000000000000000e+00" cType="1" res="-2.3683707695454359e-03" rms="4.7946453094482422e-01" purity="6.2283021211624146e-01" nType="-99"/>
          <Node pos="r" depth="2" NCoef="0" IVar="-1" Cut="0.0000000000000000e+00" cType="1" res="4.4862027280032635e-03" rms="4.4861173629760742e-01" purity="7.0177716016769409e-01" nType="-99"/>
        </Node>
      </Node>
    </BinaryTree>
    <BinaryTree type="DecisionTree" boostWeight="1.0000000000000000e+00" itree="626">
      <Node pos="s" depth="0" NCoef="0" IVar="4" Cut="-8.9138317108154297e-01" cType="1" res="-4.9329437315464020e-03" rms="4.8893219232559204e-01" purity="4.9568301439285278e-01" nType="0">
        <Node pos="l" depth="1" NCoef="0" IVar="-1" Cut="0.0000000000000000e+00" cType="1" res="-6.4724739640951157e-03" rms="4.6241545677185059e-01" purity="4.2059594392776489e-01" nType="-99"/>
        <Node pos="r" depth="1" NCoef="0" IVar="3" Cut="-8.9654481410980225e-01" cType="1" res="-3.8839210756123066e-03" rms="4.8986569046974182e-01" purity="4.9849349260330200e-01" nType="0">
          <Node pos="l" depth="2" NCoef="0" IVar="-1" Cut="0.0000000000000000e+00" cType="1" res="1.5501957386732101e-03" rms="4.7538149356842041e-01" purity="3.6894026398658752e-01" nType="-99"/>
          <Node pos="r" depth="2" NCoef="0" IVar="-1" Cut="0.0000000000000000e+00" cType="1" res="-9.6290832152590156e-04" rms="4.9255275726318359e-01" purity="5.2328729629516602e-01" nType="-99"/>
        </Node>
      </Node>
    </BinaryTree>
    <BinaryTree type="DecisionTree" boostWeight="1.0000000000000000e+00" itree="627">
      <Node pos="s" depth="0" NCoef="0" IVar="4" Cut="-7.0351266860961914e-01" cType="1" res="-1.0413909330964088e-03" rms="4.8773965239524841e-01" purity="4.9868857860565186e-01" nType="0">
        <Node pos="l" depth="1" NCoef="0" IVar="5" Cut="-7.8426945209503174e-01" cType="1" res="-8.6751673370599747e-03" rms="4.8466354608535767e-01" purity="4.6659210324287415e-01" nType="0">
          <Node pos="l" depth="2" NCoef="0" IVar="-1" Cut="0.0000000000000000e+00" cType="1" res="6.4732073806226254e-03" rms="4.8658078908920288e-01" purity="4.9855089187622070e-01" nType="-99"/>
          <Node pos="r" depth="2" NCoef="0" IVar="-1" Cut="0.0000000000000000e+00" cType="1" res="-2.2561845835298300e-03" rms="4.8414367437362671e-01" purity="4.6294540166854858e-01" nType="-99"/>
        </Node>
        <Node pos="r" depth="1" NCoef="0" IVar="4" Cut="4.6965856105089188e-02" cType="1" res="1.8734411569312215e-03" rms="4.8887768387794495e-01" purity="5.1094400882720947e-01" nType="0">
          <Node pos="l" depth="2" NCoef="0" IVar="-1" Cut="0.0000000000000000e+00" cType="1" res="1.2759122764691710e-03" rms="4.9161201715469360e-01" purity="5.0798040628433228e-01" nType="-99"/>
          <Node pos="r" depth="2" NCoef="0" IVar="-1" Cut="0.0000000000000000e+00" cType="1" res="-1.3035212177783251e-03" rms="4.8445537686347961e-01" purity="5.1552867889404297e-01" nType="-99"/>
        </Node>
      </Node>
    </BinaryTree>
    <BinaryTree type="DecisionTree" boostWeight="1.0000000000000000e+00" itree="628">
      <Node pos="s" depth="0" NCoef="0" IVar="1" Cut="5.0000000000000000e+00" cType="1" res="3.8635269447695464e-05" rms="2.2853490710258484e-01" purity="5.0159496068954468e-01" nType="0">
        <Node pos="l" depth="1" NCoef="0" IVar="3" Cut="-8.0231434106826782e-01" cType="1" res="1.2673215242102742e-03" rms="4.8914599418640137e-01" purity="4.9922785162925720e-01" nType="0">
          <Node pos="l" depth="2" NCoef="0" IVar="-1" Cut="0.0000000000000000e+00" cType="1" res="1.2768093729391694e-03" rms="4.8521831631660461e-01" purity="4.1356027126312256e-01" nType="-99"/>
          <Node pos="r" depth="2" NCoef="0" IVar="-1" Cut="0.0000000000000000e+00" cType="1" res="-4.0824033203534782e-04" rms="4.9138125777244568e-01" purity="5.4920309782028198e-01" nType="-99"/>
        </Node>
        <Node pos="r" depth="1" NCoef="0" IVar="-1" Cut="0.0000000000000000e+00" cType="1" res="4.2331353761255741e-03" rms="4.8698630928993225e-01" purity="5.4746478796005249e-01" nType="-99"/>
      </Node>
    </BinaryTree>
    <BinaryTree type="DecisionTree" boostWeight="1.0000000000000000e+00" itree="629">
      <Node pos="s" depth="0" NCoef="0" IVar="4" Cut="-8.9281696081161499e-01" cType="1" res="2.4058145936578512e-03" rms="4.8765489459037781e-01" purity="5.0317496061325073e-01" nType="0">
        <Node pos="l" depth="1" NCoef="0" IVar="-1" Cut="0.0000000000000000e+00" cType="1" res="5.6176986545324326e-03" rms="4.7352585196495056e-01" purity="4.8591241240501404e-01" nType="-99"/>
        <Node pos="r" depth="1" NCoef="0" IVar="3" Cut="-8.9605480432510376e-01" cType="1" res="1.3354566181078553e-03" rms="4.8817631602287292e-01" purity="5.0385987758636475e-01" nType="0">
          <Node pos="l" depth="2" NCoef="0" IVar="-1" Cut="0.0000000000000000e+00" cType="1" res="-1.4204974286258221e-03" rms="4.6900105476379395e-01" purity="3.5310265421867371e-01" nType="-99"/>
          <Node pos="r" depth="2" NCoef="0" IVar="-1" Cut="0.0000000000000000e+00" cType="1" res="4.8280460759997368e-04" rms="4.9182486534118652e-01" purity="5.3339350223541260e-01" nType="-99"/>
        </Node>
      </Node>
    </BinaryTree>
    <BinaryTree type="DecisionTree" boostWeight="1.0000000000000000e+00" itree="630">
      <Node pos="s" depth="0" NCoef="0" IVar="1" Cut="4.0000000000000000e+00" cType="1" res="1.6639915993437171e-03" rms="3.7785553932189941e-01" purity="5.0088012218475342e-01" nType="0">
        <Node pos="l" depth="1" NCoef="0" IVar="4" Cut="-7.0235341787338257e-01" cType="1" res="2.9620239511132240e-03" rms="4.8810741305351257e-01" purity="5.0189924240112305e-01" nType="0">
          <Node pos="l" depth="2" NCoef="0" IVar="-1" Cut="0.0000000000000000e+00" cType="1" res="-1.1401218362152576e-03" rms="4.8523324728012085e-01" purity="4.6744072437286377e-01" nType="-99"/>
          <Node pos="r" depth="2" NCoef="0" IVar="-1" Cut="0.0000000000000000e+00" cType="1" res="1.0160784004256129e-03" rms="4.8905414342880249e-01" purity="5.1385283470153809e-01" nType="-99"/>
        </Node>
        <Node pos="r" depth="1" NCoef="0" IVar="3" Cut="-7.0697188377380371e-01" cType="1" res="-1.3247988186776638e-02" rms="4.8635298013687134e-01" purity="4.9480906128883362e-01" nType="0">
          <Node pos="l" depth="2" NCoef="0" IVar="-1" Cut="0.0000000000000000e+00" cType="1" res="-3.9239246398210526e-03" rms="4.8583453893661499e-01" purity="4.0509080886840820e-01" nType="-99"/>
          <Node pos="r" depth="2" NCoef="0" IVar="-1" Cut="0.0000000000000000e+00" cType="1" res="-2.1784059936180711e-04" rms="4.8654225468635559e-01" purity="5.7937878370285034e-01" nType="-99"/>
        </Node>
      </Node>
    </BinaryTree>
    <BinaryTree type="DecisionTree" boostWeight="1.0000000000000000e+00" itree="631">
      <Node pos="s" depth="0" NCoef="0" IVar="2" Cut="2.0000000000000000e+00" cType="1" res="4.7642693971283734e-05" rms="3.9295077323913574e-02" purity="4.9760520458221436e-01" nType="0">
        <Node pos="l" depth="1" NCoef="0" IVar="4" Cut="4.5463126152753830e-02" cType="1" res="1.7906547291204333e-03" rms="4.8690128326416016e-01" purity="5.0045597553253174e-01" nType="0">
          <Node pos="l" depth="2" NCoef="0" IVar="-1" Cut="0.0000000000000000e+00" cType="1" res="-2.8257005033083260e-04" rms="4.8767712712287903e-01" purity="4.8758471012115479e-01" nType="-99"/>
          <Node pos="r" depth="2" NCoef="0" IVar="-1" Cut="0.0000000000000000e+00" cType="1" res="1.5643405495211482e-03" rms="4.8507386445999146e-01" purity="5.2906376123428345e-01" nType="-99"/>
        </Node>
        <Node pos="r" depth="1" NCoef="0" IVar="2" Cut="3.0000000000000000e+00" cType="1" res="7.4397149728611112e-04" rms="5.1652371883392334e-02" purity="4.9374040961265564e-01" nType="0">
          <Node pos="l" depth="2" NCoef="0" IVar="-1" Cut="0.0000000000000000e+00" cType="1" res="-1.8803079146891832e-03" rms="4.9065721035003662e-01" purity="4.8781177401542664e-01" nType="-99"/>
          <Node pos="r" depth="2" NCoef="0" IVar="-1" Cut="0.0000000000000000e+00" cType="1" res="5.4209801601245999e-04" rms="4.9077415466308594e-01" purity="5.1105886697769165e-01" nType="-99"/>
        </Node>
      </Node>
    </BinaryTree>
    <BinaryTree type="DecisionTree" boostWeight="1.0000000000000000e+00" itree="632">
      <Node pos="s" depth="0" NCoef="0" IVar="0" Cut="8.2049665451049805e+00" cType="1" res="-1.5283437096513808e-04" rms="4.8798367381095886e-01" purity="4.9994307756423950e-01" nType="0">
        <Node pos="l" depth="1" NCoef="0" IVar="-1" Cut="0.0000000000000000e+00" cType="1" res="1.4441076200455427e-03" rms="5.0078475475311279e-01" purity="5.0832366943359375e-01" nType="-99"/>
        <Node pos="r" depth="1" NCoef="0" IVar="3" Cut="8.9729851484298706e-01" cType="1" res="-1.1020947713404894e-03" rms="4.8715299367904663e-01" purity="4.9941688776016235e-01" nType="0">
          <Node pos="l" depth="2" NCoef="0" IVar="-1" Cut="0.0000000000000000e+00" cType="1" res="-4.5840779785066843e-04" rms="4.9113512039184570e-01" purity="4.6603450179100037e-01" nType="-99"/>
          <Node pos="r" depth="2" NCoef="0" IVar="-1" Cut="0.0000000000000000e+00" cType="1" res="1.3835125137120485e-03" rms="4.6809828281402588e-01" purity="6.5469181537628174e-01" nType="-99"/>
        </Node>
      </Node>
    </BinaryTree>
    <BinaryTree type="DecisionTree" boostWeight="1.0000000000000000e+00" itree="633">
      <Node pos="s" depth="0" NCoef="0" IVar="3" Cut="8.0150306224822998e-01" cType="1" res="-2.2720757406204939e-03" rms="4.8910236358642578e-01" purity="4.9722483754158020e-01" nType="0">
        <Node pos="l" depth="1" NCoef="0" IVar="1" Cut="3.0000000000000000e+00" cType="1" res="2.7273930027149618e-04" rms="2.5471296906471252e-01" purity="4.4604372978210449e-01" nType="0">
          <Node pos="l" depth="2" NCoef="0" IVar="-1" Cut="0.0000000000000000e+00" cType="1" res="1.2677784543484449e-03" rms="4.9161902070045471e-01" purity="4.5393261313438416e-01" nType="-99"/>
          <Node pos="r" depth="2" NCoef="0" IVar="-1" Cut="0.0000000000000000e+00" cType="1" res="-1.4852826716378331e-03" rms="4.8663240671157837e-01" purity="4.2950549721717834e-01" nType="-99"/>
        </Node>
        <Node pos="r" depth="1" NCoef="0" IVar="4" Cut="-7.0235204696655273e-01" cType="1" res="-1.0235375724732876e-02" rms="4.8736923933029175e-01" purity="5.8214366436004639e-01" nType="0">
          <Node pos="l" depth="2" NCoef="0" IVar="-1" Cut="0.0000000000000000e+00" cType="1" res="9.3274103710427880e-04" rms="4.8987308144569397e-01" purity="5.6318330764770508e-01" nType="-99"/>
          <Node pos="r" depth="2" NCoef="0" IVar="-1" Cut="0.0000000000000000e+00" cType="1" res="-3.3158983569592237e-03" rms="4.8568478226661682e-01" purity="5.9303444623947144e-01" nType="-99"/>
        </Node>
      </Node>
    </BinaryTree>
    <BinaryTree type="DecisionTree" boostWeight="1.0000000000000000e+00" itree="634">
      <Node pos="s" depth="0" NCoef="0" IVar="2" Cut="2.0000000000000000e+00" cType="1" res="-4.5948257320560515e-04" rms="1.0020629316568375e-01" purity="5.0305640697479248e-01" nType="0">
        <Node pos="l" depth="1" NCoef="0" IVar="3" Cut="8.0284202098846436e-01" cType="1" res="7.1869953535497189e-03" rms="4.8613700270652771e-01" purity="5.0549703836441040e-01" nType="0">
          <Node pos="l" depth="2" NCoef="0" IVar="-1" Cut="0.0000000000000000e+00" cType="1" res="3.4545213566161692e-04" rms="4.8932093381881714e-01" purity="4.3737509846687317e-01" nType="-99"/>
          <Node pos="r" depth="2" NCoef="0" IVar="-1" Cut="0.0000000000000000e+00" cType="1" res="2.3455575574189425e-03" rms="4.8103633522987366e-01" purity="6.1164075136184692e-01" nType="-99"/>
        </Node>
        <Node pos="r" depth="1" NCoef="0" IVar="3" Cut="-8.9210498332977295e-01" cType="1" res="-1.3289402704685926e-03" rms="4.9014776945114136e-01" purity="4.9972239136695862e-01" nType="0">
          <Node pos="l" depth="2" NCoef="0" IVar="-1" Cut="0.0000000000000000e+00" cType="1" res="-2.9720568563789129e-03" rms="4.6824461221694946e-01" purity="3.4425079822540283e-01" nType="-99"/>
          <Node pos="r" depth="2" NCoef="0" IVar="-1" Cut="0.0000000000000000e+00" cType="1" res="1.9178660295438021e-04" rms="4.9356082081794739e-01" purity="5.2491909265518188e-01" nType="-99"/>
        </Node>
      </Node>
    </BinaryTree>
    <BinaryTree type="DecisionTree" boostWeight="1.0000000000000000e+00" itree="635">
      <Node pos="s" depth="0" NCoef="0" IVar="0" Cut="8.5443048477172852e+00" cType="1" res="-4.1489391587674618e-03" rms="4.8808711767196655e-01" purity="4.9636805057525635e-01" nType="0">
        <Node pos="l" depth="1" NCoef="0" IVar="2" Cut="2.0000000000000000e+00" cType="1" res="7.3596194852143526e-04" rms="2.0240550860762596e-02" purity="5.1324343681335449e-01" nType="0">
          <Node pos="l" depth="2" NCoef="0" IVar="-1" Cut="0.0000000000000000e+00" cType="1" res="1.5773958293721080e-03" rms="4.9457779526710510e-01" purity="5.2665972709655762e-01" nType="-99"/>
          <Node pos="r" depth="2" NCoef="0" IVar="-1" Cut="0.0000000000000000e+00" cType="1" res="-6.4950698288157582e-04" rms="4.9708229303359985e-01" purity="4.9548932909965515e-01" nType="-99"/>
        </Node>
        <Node pos="r" depth="1" NCoef="0" IVar="1" Cut="5.0000000000000000e+00" cType="1" res="-6.4476057887077332e-03" rms="4.8007020354270935e-01" purity="4.9309334158897400e-01" nType="0">
          <Node pos="l" depth="2" NCoef="0" IVar="-1" Cut="0.0000000000000000e+00" cType="1" res="-9.5745432190597057e-04" rms="4.8658454418182373e-01" purity="4.9314701557159424e-01" nType="-99"/>
          <Node pos="r" depth="2" NCoef="0" IVar="-1" Cut="0.0000000000000000e+00" cType="1" res="-4.2393403127789497e-03" rms="4.8564544320106506e-01" purity="4.9199843406677246e-01" nType="-99"/>
        </Node>
      </Node>
    </BinaryTree>
    <BinaryTree type="DecisionTree" boostWeight="1.0000000000000000e+00" itree="636">
      <Node pos="s" depth="0" NCoef="0" IVar="0" Cut="8.4929466247558594e+00" cType="1" res="1.1856039054691792e-03" rms="4.8863196372985840e-01" purity="5.0090897083282471e-01" nType="0">
        <Node pos="l" depth="1" NCoef="0" IVar="0" Cut="8.2990703582763672e+00" cType="1" res="-7.9584857448935509e-03" rms="4.9530562758445740e-01" purity="4.9843567609786987e-01" nType="0">
          <Node pos="l" depth="2" NCoef="0" IVar="-1" Cut="0.0000000000000000e+00" cType="1" res="-1.4971169875934720e-03" rms="4.9979233741760254e-01" purity="4.8090651631355286e-01" nType="-99"/>
          <Node pos="r" depth="2" NCoef="0" IVar="-1" Cut="0.0000000000000000e+00" cType="1" res="1.1440542584750801e-04" rms="4.8947355151176453e-01" purity="5.2040624618530273e-01" nType="-99"/>
        </Node>
        <Node pos="r" depth="1" NCoef="0" IVar="5" Cut="-6.8794143199920654e-01" cType="1" res="2.7401712723076344e-03" rms="4.8747122287750244e-01" purity="5.0132948160171509e-01" nType="0">
          <Node pos="l" depth="2" NCoef="0" IVar="-1" Cut="0.0000000000000000e+00" cType="1" res="2.3560572881251574e-03" rms="4.8774769902229309e-01" purity="5.0451064109802246e-01" nType="-99"/>
          <Node pos="r" depth="2" NCoef="0" IVar="-1" Cut="0.0000000000000000e+00" cType="1" res="2.1914870012551546e-04" rms="4.8741304874420166e-01" purity="5.0087392330169678e-01" nType="-99"/>
        </Node>
      </Node>
    </BinaryTree>
    <BinaryTree type="DecisionTree" boostWeight="1.0000000000000000e+00" itree="637">
      <Node pos="s" depth="0" NCoef="0" IVar="0" Cut="8.7359209060668945e+00" cType="1" res="6.7038589622825384e-04" rms="4.8907145857810974e-01" purity="5.0116688013076782e-01" nType="0">
        <Node pos="l" depth="1" NCoef="0" IVar="0" Cut="8.5965843200683594e+00" cType="1" res="1.1364522390067577e-02" rms="4.9671074748039246e-01" purity="5.1516228914260864e-01" nType="0">
          <Node pos="l" depth="2" NCoef="0" IVar="-1" Cut="0.0000000000000000e+00" cType="1" res="3.7099333712831140e-04" rms="4.9804046750068665e-01" purity="5.0964057445526123e-01" nType="-99"/>
          <Node pos="r" depth="2" NCoef="0" IVar="-1" Cut="0.0000000000000000e+00" cType="1" res="4.0975427255034447e-03" rms="4.9241760373115540e-01" purity="5.3033769130706787e-01" nType="-99"/>
        </Node>
        <Node pos="r" depth="1" NCoef="0" IVar="5" Cut="-6.9167065620422363e-01" cType="1" res="-3.1124472152441740e-03" rms="4.8628419637680054e-01" purity="4.9621623754501343e-01" nType="0">
          <Node pos="l" depth="2" NCoef="0" IVar="-1" Cut="0.0000000000000000e+00" cType="1" res="1.8343976698815823e-03" rms="4.8479038476943970e-01" purity="5.0697326660156250e-01" nType="-99"/>
          <Node pos="r" depth="2" NCoef="0" IVar="-1" Cut="0.0000000000000000e+00" cType="1" res="-9.3220098642632365e-04" rms="4.8646950721740723e-01" purity="4.9468198418617249e-01" nType="-99"/>
        </Node>
      </Node>
    </BinaryTree>
    <BinaryTree type="DecisionTree" boostWeight="1.0000000000000000e+00" itree="638">
      <Node pos="s" depth="0" NCoef="0" IVar="5" Cut="-7.8396582603454590e-01" cType="1" res="-1.3713741209357977e-03" rms="4.8812118172645569e-01" purity="4.9846956133842468e-01" nType="0">
        <Node pos="l" depth="1" NCoef="0" IVar="1" Cut="4.0000000000000000e+00" cType="1" res="1.6911314800381660e-02" rms="4.0228074789047241e-01" purity="5.0836348533630371e-01" nType="0">
          <Node pos="l" depth="2" NCoef="0" IVar="-1" Cut="0.0000000000000000e+00" cType="1" res="7.2258654981851578e-03" rms="4.8126348853111267e-01" purity="5.2987504005432129e-01" nType="-99"/>
          <Node pos="r" depth="2" NCoef="0" IVar="-1" Cut="0.0000000000000000e+00" cType="1" res="-1.2711817398667336e-03" rms="4.8422479629516602e-01" purity="4.8679530620574951e-01" nType="-99"/>
        </Node>
        <Node pos="r" depth="1" NCoef="0" IVar="4" Cut="-7.9565131664276123e-01" cType="1" res="-2.4643742945045233e-03" rms="4.8839700222015381e-01" purity="4.9785566329956055e-01" nType="0">
          <Node pos="l" depth="2" NCoef="0" IVar="-1" Cut="0.0000000000000000e+00" cType="1" res="-2.4813644122332335e-03" rms="4.7763332724571228e-01" purity="4.5541033148765564e-01" nType="-99"/>
          <Node pos="r" depth="2" NCoef="0" IVar="-1" Cut="0.0000000000000000e+00" cType="1" res="-7.1696289523970336e-05" rms="4.9006089568138123e-01" purity="5.0462102890014648e-01" nType="-99"/>
        </Node>
      </Node>
    </BinaryTree>
    <BinaryTree type="DecisionTree" boostWeight="1.0000000000000000e+00" itree="639">
      <Node pos="s" depth="0" NCoef="0" IVar="0" Cut="9.0421190261840820e+00" cType="1" res="6.2303571030497551e-04" rms="4.8808470368385315e-01" purity="4.9971038103103638e-01" nType="0">
        <Node pos="l" depth="1" NCoef="0" IVar="5" Cut="-6.7045938968658447e-01" cType="1" res="5.6075700558722019e-03" rms="4.9375262856483459e-01" purity="5.0689572095870972e-01" nType="0">
          <Node pos="l" depth="2" NCoef="0" IVar="-1" Cut="0.0000000000000000e+00" cType="1" res="-2.2646938450634480e-03" rms="4.8907214403152466e-01" purity="4.8096373677253723e-01" nType="-99"/>
          <Node pos="r" depth="2" NCoef="0" IVar="-1" Cut="0.0000000000000000e+00" cType="1" res="1.0587174911051989e-03" rms="4.9428397417068481e-01" purity="5.1029700040817261e-01" nType="-99"/>
        </Node>
        <Node pos="r" depth="1" NCoef="0" IVar="4" Cut="4.6732999384403229e-02" cType="1" res="-4.1161850094795227e-03" rms="4.8258623480796814e-01" purity="4.9287855625152588e-01" nType="0">
          <Node pos="l" depth="2" NCoef="0" IVar="-1" Cut="0.0000000000000000e+00" cType="1" res="-1.8418940016999841e-03" rms="4.8292705416679382e-01" purity="4.7903114557266235e-01" nType="-99"/>
          <Node pos="r" depth="2" NCoef="0" IVar="-1" Cut="0.0000000000000000e+00" cType="1" res="1.5275692567229271e-03" rms="4.8156887292861938e-01" purity="5.2706712484359741e-01" nType="-99"/>
        </Node>
      </Node>
    </BinaryTree>
    <BinaryTree type="DecisionTree" boostWeight="1.0000000000000000e+00" itree="640">
      <Node pos="s" depth="0" NCoef="0" IVar="1" Cut="5.0000000000000000e+00" cType="1" res="1.6798041760921478e-03" rms="1.7102025449275970e-01" purity="5.0372463464736938e-01" nType="0">
        <Node pos="l" depth="1" NCoef="0" IVar="4" Cut="8.9246666431427002e-01" cType="1" res="2.8411974199116230e-03" rms="4.8826253414154053e-01" purity="5.0118517875671387e-01" nType="0">
          <Node pos="l" depth="2" NCoef="0" IVar="-1" Cut="0.0000000000000000e+00" cType="1" res="5.8970769168809056e-04" rms="4.8888069391250610e-01" purity="5.0074958801269531e-01" nType="-99"/>
          <Node pos="r" depth="2" NCoef="0" IVar="-1" Cut="0.0000000000000000e+00" cType="1" res="-4.0482645854353905e-03" rms="4.6881544589996338e-01" purity="5.1411318778991699e-01" nType="-99"/>
        </Node>
        <Node pos="r" depth="1" NCoef="0" IVar="-1" Cut="0.0000000000000000e+00" cType="1" res="6.2738647684454918e-03" rms="4.8531407117843628e-01" purity="5.5294579267501831e-01" nType="-99"/>
      </Node>
    </BinaryTree>
    <BinaryTree type="DecisionTree" boostWeight="1.0000000000000000e+00" itree="641">
      <Node pos="s" depth="0" NCoef="0" IVar="4" Cut="-8.9138317108154297e-01" cType="1" res="3.2801728229969740e-03" rms="4.8743849992752075e-01" purity="5.0318306684494019e-01" nType="0">
        <Node pos="l" depth="1" NCoef="0" IVar="-1" Cut="0.0000000000000000e+00" cType="1" res="5.2762418054044247e-03" rms="4.7369846701622009e-01" purity="4.8161584138870239e-01" nType="-99"/>
        <Node pos="r" depth="1" NCoef="0" IVar="4" Cut="8.0526554584503174e-01" cType="1" res="2.3005306720733643e-03" rms="4.8794120550155640e-01" purity="5.0402557849884033e-01" nType="0">
          <Node pos="l" depth="2" NCoef="0" IVar="-1" Cut="0.0000000000000000e+00" cType="1" res="-1.9881888874806464e-05" rms="4.8928767442703247e-01" purity="4.9621701240539551e-01" nType="-99"/>
          <Node pos="r" depth="2" NCoef="0" IVar="-1" Cut="0.0000000000000000e+00" cType="1" res="2.8836219571530819e-03" rms="4.7982409596443176e-01" purity="5.4926341772079468e-01" nType="-99"/>
        </Node>
      </Node>
    </BinaryTree>
    <BinaryTree type="DecisionTree" boostWeight="1.0000000000000000e+00" itree="642">
      <Node pos="s" depth="0" NCoef="0" IVar="4" Cut="-8.9293241500854492e-01" cType="1" res="-4.7594073112122715e-04" rms="4.8794895410537720e-01" purity="5.0017118453979492e-01" nType="0">
        <Node pos="l" depth="1" NCoef="0" IVar="-1" Cut="0.0000000000000000e+00" cType="1" res="-4.3675838969647884e-03" rms="4.6667742729187012e-01" purity="4.3342709541320801e-01" nType="-99"/>
        <Node pos="r" depth="1" NCoef="0" IVar="1" Cut="5.0000000000000000e+00" cType="1" res="1.1039740638807416e-03" rms="2.5346329808235168e-01" purity="5.0260150432586670e-01" nType="0">
          <Node pos="l" depth="2" NCoef="0" IVar="-1" Cut="0.0000000000000000e+00" cType="1" res="1.9323182641528547e-04" rms="4.8868197202682495e-01" purity="5.0228726863861084e-01" nType="-99"/>
          <Node pos="r" depth="2" NCoef="0" IVar="-1" Cut="0.0000000000000000e+00" cType="1" res="-3.0124986078590155e-03" rms="4.8836752772331238e-01" purity="5.0961744785308838e-01" nType="-99"/>
        </Node>
      </Node>
    </BinaryTree>
    <BinaryTree type="DecisionTree" boostWeight="1.0000000000000000e+00" itree="643">
      <Node pos="s" depth="0" NCoef="0" IVar="3" Cut="-8.0211895704269409e-01" cType="1" res="2.9214976821094751e-03" rms="4.8695594072341919e-01" purity="5.0352001190185547e-01" nType="0">
        <Node pos="l" depth="1" NCoef="0" IVar="3" Cut="-8.2012373208999634e-01" cType="1" res="-5.7211578823626041e-03" rms="4.8323905467987061e-01" purity="4.0229290723800659e-01" nType="0">
          <Node pos="l" depth="2" NCoef="0" IVar="-1" Cut="0.0000000000000000e+00" cType="1" res="-4.0428698412142694e-04" rms="4.8213270306587219e-01" purity="4.0030753612518311e-01" nType="-99"/>
          <Node pos="r" depth="2" NCoef="0" IVar="-1" Cut="0.0000000000000000e+00" cType="1" res="-5.4646716453135014e-03" rms="4.9304416775703430e-01" purity="4.2228215932846069e-01" nType="-99"/>
        </Node>
        <Node pos="r" depth="1" NCoef="0" IVar="5" Cut="7.8014129400253296e-01" cType="1" res="7.9807378351688385e-03" rms="4.8904773592948914e-01" purity="5.6277632713317871e-01" nType="0">
          <Node pos="l" depth="2" NCoef="0" IVar="-1" Cut="0.0000000000000000e+00" cType="1" res="9.8247861023992300e-04" rms="4.9012073874473572e-01" purity="5.5762898921966553e-01" nType="-99"/>
          <Node pos="r" depth="2" NCoef="0" IVar="-1" Cut="0.0000000000000000e+00" cType="1" res="6.9097960367798805e-03" rms="4.6684896945953369e-01" purity="6.6170126199722290e-01" nType="-99"/>
        </Node>
      </Node>
    </BinaryTree>
    <BinaryTree type="DecisionTree" boostWeight="1.0000000000000000e+00" itree="644">
      <Node pos="s" depth="0" NCoef="0" IVar="3" Cut="8.0115139484405518e-01" cType="1" res="4.9359892727807164e-04" rms="4.8907136917114258e-01" purity="5.0071322917938232e-01" nType="0">
        <Node pos="l" depth="1" NCoef="0" IVar="2" Cut="3.0000000000000000e+00" cType="1" res="8.8819611119106412e-04" rms="1.1187689751386642e-01" purity="4.4923850893974304e-01" nType="0">
          <Node pos="l" depth="2" NCoef="0" IVar="-1" Cut="0.0000000000000000e+00" cType="1" res="4.6919289161451161e-04" rms="4.9020397663116455e-01" purity="4.4408506155014038e-01" nType="-99"/>
          <Node pos="r" depth="2" NCoef="0" IVar="-1" Cut="0.0000000000000000e+00" cType="1" res="3.5308564547449350e-03" rms="4.9464803934097290e-01" purity="4.8845908045768738e-01" nType="-99"/>
        </Node>
        <Node pos="r" depth="1" NCoef="0" IVar="5" Cut="-7.8419089317321777e-01" cType="1" res="-7.0003462024033070e-03" rms="4.8618960380554199e-01" purity="5.8576440811157227e-01" nType="0">
          <Node pos="l" depth="2" NCoef="0" IVar="-1" Cut="0.0000000000000000e+00" cType="1" res="-4.5331562869250774e-03" rms="4.9060240387916565e-01" purity="5.5905842781066895e-01" nType="-99"/>
          <Node pos="r" depth="2" NCoef="0" IVar="-1" Cut="0.0000000000000000e+00" cType="1" res="-8.5728324484080076e-04" rms="4.8575684428215027e-01" purity="5.8812791109085083e-01" nType="-99"/>
        </Node>
      </Node>
    </BinaryTree>
    <BinaryTree type="DecisionTree" boostWeight="1.0000000000000000e+00" itree="645">
      <Node pos="s" depth="0" NCoef="0" IVar="0" Cut="8.4704437255859375e+00" cType="1" res="-1.0947028640657663e-03" rms="4.8863419890403748e-01" purity="4.9968111515045166e-01" nType="0">
        <Node pos="l" depth="1" NCoef="0" IVar="0" Cut="8.2175245285034180e+00" cType="1" res="1.2904508970677853e-02" rms="4.9807208776473999e-01" purity="5.2007007598876953e-01" nType="0">
          <Node pos="l" depth="2" NCoef="0" IVar="-1" Cut="0.0000000000000000e+00" cType="1" res="-3.6445929436013103e-04" rms="5.0085580348968506e-01" purity="4.8843485116958618e-01" nType="-99"/>
          <Node pos="r" depth="2" NCoef="0" IVar="-1" Cut="0.0000000000000000e+00" cType="1" res="2.7566689532250166e-03" rms="4.9530985951423645e-01" purity="5.4640072584152222e-01" nType="-99"/>
        </Node>
        <Node pos="r" depth="1" NCoef="0" IVar="4" Cut="7.9633444547653198e-01" cType="1" res="-3.3602216280996799e-03" rms="4.8705181479454041e-01" purity="4.9638149142265320e-01" nType="0">
          <Node pos="l" depth="2" NCoef="0" IVar="-1" Cut="0.0000000000000000e+00" cType="1" res="-9.0029934654012322e-04" rms="4.8794475197792053e-01" purity="4.8892086744308472e-01" nType="-99"/>
          <Node pos="r" depth="2" NCoef="0" IVar="-1" Cut="0.0000000000000000e+00" cType="1" res="1.1086841113865376e-03" rms="4.8222598433494568e-01" purity="5.3558176755905151e-01" nType="-99"/>
        </Node>
      </Node>
    </BinaryTree>
    <BinaryTree type="DecisionTree" boostWeight="1.0000000000000000e+00" itree="646">
      <Node pos="s" depth="0" NCoef="0" IVar="3" Cut="-8.0218440294265747e-01" cType="1" res="1.8097746651619673e-03" rms="4.8761814832687378e-01" purity="5.0142753124237061e-01" nType="0">
        <Node pos="l" depth="1" NCoef="0" IVar="2" Cut="2.0000000000000000e+00" cType="1" res="5.6671909987926483e-04" rms="1.1973084509372711e-01" purity="4.0101897716522217e-01" nType="0">
          <Node pos="l" depth="2" NCoef="0" IVar="-1" Cut="0.0000000000000000e+00" cType="1" res="-1.8635274609550834e-03" rms="4.8180302977561951e-01" purity="3.9134895801544189e-01" nType="-99"/>
          <Node pos="r" depth="2" NCoef="0" IVar="-1" Cut="0.0000000000000000e+00" cType="1" res="8.0603778769727796e-05" rms="4.8733788728713989e-01" purity="4.1565459966659546e-01" nType="-99"/>
        </Node>
        <Node pos="r" depth="1" NCoef="0" IVar="2" Cut="2.0000000000000000e+00" cType="1" res="4.5648886589333415e-04" rms="1.2780250608921051e-01" purity="5.6146210432052612e-01" nType="0">
          <Node pos="l" depth="2" NCoef="0" IVar="-1" Cut="0.0000000000000000e+00" cType="1" res="2.6846083346754313e-04" rms="4.8829492926597595e-01" purity="5.6263405084609985e-01" nType="-99"/>
          <Node pos="r" depth="2" NCoef="0" IVar="-1" Cut="0.0000000000000000e+00" cType="1" res="2.2217978257685900e-03" rms="4.9127981066703796e-01" purity="5.6001549959182739e-01" nType="-99"/>
        </Node>
      </Node>
    </BinaryTree>
    <BinaryTree type="DecisionTree" boostWeight="1.0000000000000000e+00" itree="647">
      <Node pos="s" depth="0" NCoef="0" IVar="3" Cut="8.9700859785079956e-01" cType="1" res="-2.7886927127838135e-03" rms="4.8921614885330200e-01" purity="4.9755385518074036e-01" nType="0">
        <Node pos="l" depth="1" NCoef="0" IVar="4" Cut="-6.9812846183776855e-01" cType="1" res="-4.4152507325634360e-04" rms="4.9207797646522522e-01" purity="4.7018530964851379e-01" nType="0">
          <Node pos="l" depth="2" NCoef="0" IVar="-1" Cut="0.0000000000000000e+00" cType="1" res="1.4971217606216669e-03" rms="4.8873114585876465e-01" purity="4.3752101063728333e-01" nType="-99"/>
          <Node pos="r" depth="2" NCoef="0" IVar="-1" Cut="0.0000000000000000e+00" cType="1" res="-5.2006542682647705e-04" rms="4.9305796623229980e-01" purity="4.8017084598541260e-01" nType="-99"/>
        </Node>
        <Node pos="r" depth="1" NCoef="0" IVar="3" Cut="9.2396420240402222e-01" cType="1" res="-1.4119332656264305e-02" rms="4.7499558329582214e-01" purity="6.2967175245285034e-01" nType="0">
          <Node pos="l" depth="2" NCoef="0" IVar="-1" Cut="0.0000000000000000e+00" cType="1" res="-4.5361388474702835e-03" rms="4.9290221929550171e-01" purity="5.6774020195007324e-01" nType="-99"/>
          <Node pos="r" depth="2" NCoef="0" IVar="-1" Cut="0.0000000000000000e+00" cType="1" res="-9.8911544773727655e-04" rms="4.6302670240402222e-01" purity="6.6900819540023804e-01" nType="-99"/>
        </Node>
      </Node>
    </BinaryTree>
    <BinaryTree type="DecisionTree" boostWeight="1.0000000000000000e+00" itree="648">
      <Node pos="s" depth="0" NCoef="0" IVar="2" Cut="3.0000000000000000e+00" cType="1" res="2.4003493308555335e-04" rms="3.1320877373218536e-02" purity="5.0128477811813354e-01" nType="0">
        <Node pos="l" depth="1" NCoef="0" IVar="4" Cut="8.9232796430587769e-01" cType="1" res="2.6073828339576721e-03" rms="4.8796778917312622e-01" purity="5.0233781337738037e-01" nType="0">
          <Node pos="l" depth="2" NCoef="0" IVar="-1" Cut="0.0000000000000000e+00" cType="1" res="2.5048284442164004e-04" rms="4.8871338367462158e-01" purity="4.9941897392272949e-01" nType="-99"/>
          <Node pos="r" depth="2" NCoef="0" IVar="-1" Cut="0.0000000000000000e+00" cType="1" res="5.2107349038124084e-03" rms="4.6950381994247437e-01" purity="5.7088983058929443e-01" nType="-99"/>
        </Node>
        <Node pos="r" depth="1" NCoef="0" IVar="3" Cut="7.9415100812911987e-01" cType="1" res="-1.8381930887699127e-02" rms="4.8976323008537292e-01" purity="4.9245506525039673e-01" nType="0">
          <Node pos="l" depth="2" NCoef="0" IVar="-1" Cut="0.0000000000000000e+00" cType="1" res="-5.7100965641438961e-03" rms="4.9176129698753357e-01" purity="4.3689626455307007e-01" nType="-99"/>
          <Node pos="r" depth="2" NCoef="0" IVar="-1" Cut="0.0000000000000000e+00" cType="1" res="1.1746959062293172e-03" rms="4.8524954915046692e-01" purity="5.9044057130813599e-01" nType="-99"/>
        </Node>
      </Node>
    </BinaryTree>
    <BinaryTree type="DecisionTree" boostWeight="1.0000000000000000e+00" itree="649">
      <Node pos="s" depth="0" NCoef="0" IVar="4" Cut="8.9001911878585815e-01" cType="1" res="1.9092418951913714e-03" rms="4.8821592330932617e-01" purity="5.0289875268936157e-01" nType="0">
        <Node pos="l" depth="1" NCoef="0" IVar="1" Cut="2.0000000000000000e+00" cType="1" res="3.5386622130317846e-06" rms="2.6827827095985413e-01" purity="4.9977600574493408e-01" nType="0">
          <Node pos="l" depth="2" NCoef="0" IVar="-1" Cut="0.0000000000000000e+00" cType="1" res="1.4827752020210028e-03" rms="4.8964229226112366e-01" purity="5.1020723581314087e-01" nType="-99"/>
          <Node pos="r" depth="2" NCoef="0" IVar="-1" Cut="0.0000000000000000e+00" cType="1" res="-5.2156863966956735e-04" rms="4.8839068412780762e-01" purity="4.9532216787338257e-01" nType="-99"/>
        </Node>
        <Node pos="r" depth="1" NCoef="0" IVar="-1" Cut="0.0000000000000000e+00" cType="1" res="6.4719412475824356e-03" rms="4.7289699316024780e-01" purity="5.7742249965667725e-01" nType="-99"/>
      </Node>
    </BinaryTree>
    <BinaryTree type="DecisionTree" boostWeight="1.0000000000000000e+00" itree="650">
      <Node pos="s" depth="0" NCoef="0" IVar="3" Cut="-7.0710915327072144e-01" cType="1" res="1.3617404038086534e-03" rms="4.8838949203491211e-01" purity="5.0237625837326050e-01" nType="0">
        <Node pos="l" depth="1" NCoef="0" IVar="3" Cut="-8.7421876192092896e-01" cType="1" res="5.6282584555447102e-03" rms="4.8835754394531250e-01" purity="4.3204241991043091e-01" nType="0">
          <Node pos="l" depth="2" NCoef="0" IVar="-1" Cut="0.0000000000000000e+00" cType="1" res="-7.1030360413715243e-04" rms="4.7539532184600830e-01" purity="3.7094032764434814e-01" nType="-99"/>
          <Node pos="r" depth="2" NCoef="0" IVar="-1" Cut="0.0000000000000000e+00" cType="1" res="1.9894116558134556e-03" rms="4.9842101335525513e-01" purity="4.8128086328506470e-01" nType="-99"/>
        </Node>
        <Node pos="r" depth="1" NCoef="0" IVar="0" Cut="8.6218538284301758e+00" cType="1" res="-2.7810153551399708e-03" rms="4.8838484287261963e-01" purity="5.7066988945007324e-01" nType="0">
          <Node pos="l" depth="2" NCoef="0" IVar="-1" Cut="0.0000000000000000e+00" cType="1" res="-2.2667928133159876e-03" rms="4.9681094288825989e-01" purity="5.2975845336914062e-01" nType="-99"/>
          <Node pos="r" depth="2" NCoef="0" IVar="-1" Cut="0.0000000000000000e+00" cType="1" res="3.4784444142132998e-04" rms="4.8616507649421692e-01" purity="5.8078896999359131e-01" nType="-99"/>
        </Node>
      </Node>
    </BinaryTree>
    <BinaryTree type="DecisionTree" boostWeight="1.0000000000000000e+00" itree="651">
      <Node pos="s" depth="0" NCoef="0" IVar="0" Cut="8.2805471420288086e+00" cType="1" res="-1.8765218555927277e-03" rms="4.8811900615692139e-01" purity="4.9820664525032043e-01" nType="0">
        <Node pos="l" depth="1" NCoef="0" IVar="-1" Cut="0.0000000000000000e+00" cType="1" res="1.3352445093914866e-03" rms="4.9927574396133423e-01" purity="5.1119923591613770e-01" nType="-99"/>
        <Node pos="r" depth="1" NCoef="0" IVar="4" Cut="4.8119999468326569e-02" cType="1" res="-3.2290697563439608e-03" rms="4.8712909221649170e-01" purity="4.9709540605545044e-01" nType="0">
          <Node pos="l" depth="2" NCoef="0" IVar="-1" Cut="0.0000000000000000e+00" cType="1" res="-1.0255690431222320e-03" rms="4.8805704712867737e-01" purity="4.8437610268592834e-01" nType="-99"/>
          <Node pos="r" depth="2" NCoef="0" IVar="-1" Cut="0.0000000000000000e+00" cType="1" res="7.7367288758978248e-04" rms="4.8462244868278503e-01" purity="5.3017044067382812e-01" nType="-99"/>
        </Node>
      </Node>
    </BinaryTree>
    <BinaryTree type="DecisionTree" boostWeight="1.0000000000000000e+00" itree="652">
      <Node pos="s" depth="0" NCoef="0" IVar="2" Cut="2.0000000000000000e+00" cType="1" res="6.9532264024019241e-04" rms="8.8367074728012085e-02" purity="5.0452554225921631e-01" nType="0">
        <Node pos="l" depth="1" NCoef="0" IVar="3" Cut="8.0256366729736328e-01" cType="1" res="8.6328928591683507e-04" rms="4.8458442091941833e-01" purity="5.0029677152633667e-01" nType="0">
          <Node pos="l" depth="2" NCoef="0" IVar="-1" Cut="0.0000000000000000e+00" cType="1" res="-5.9899385087192059e-04" rms="4.8744755983352661e-01" purity="4.3219107389450073e-01" nType="-99"/>
          <Node pos="r" depth="2" NCoef="0" IVar="-1" Cut="0.0000000000000000e+00" cType="1" res="1.3803645269945264e-03" rms="4.7999566793441772e-01" purity="6.0632085800170898e-01" nType="-99"/>
        </Node>
        <Node pos="r" depth="1" NCoef="0" IVar="4" Cut="-6.9678127765655518e-01" cType="1" res="8.1851705908775330e-03" rms="4.9103894829750061e-01" purity="5.1028221845626831e-01" nType="0">
          <Node pos="l" depth="2" NCoef="0" IVar="-1" Cut="0.0000000000000000e+00" cType="1" res="-1.0005579097196460e-03" rms="4.8716309666633606e-01" purity="4.6164730191230774e-01" nType="-99"/>
          <Node pos="r" depth="2" NCoef="0" IVar="-1" Cut="0.0000000000000000e+00" cType="1" res="2.0037803333252668e-03" rms="4.9210914969444275e-01" purity="5.2474230527877808e-01" nType="-99"/>
        </Node>
      </Node>
    </BinaryTree>
    <BinaryTree type="DecisionTree" boostWeight="1.0000000000000000e+00" itree="653">
      <Node pos="s" depth="0" NCoef="0" IVar="4" Cut="4.5463126152753830e-02" cType="1" res="3.9883805438876152e-03" rms="4.8896929621696472e-01" purity="5.0483191013336182e-01" nType="0">
        <Node pos="l" depth="1" NCoef="0" IVar="3" Cut="-7.0749557018280029e-01" cType="1" res="8.2130953669548035e-03" rms="4.9013301730155945e-01" purity="4.9939170479774475e-01" nType="0">
          <Node pos="l" depth="2" NCoef="0" IVar="-1" Cut="0.0000000000000000e+00" cType="1" res="2.4016087409108877e-03" rms="4.8803845047950745e-01" purity="4.3171277642250061e-01" nType="-99"/>
          <Node pos="r" depth="2" NCoef="0" IVar="-1" Cut="0.0000000000000000e+00" cType="1" res="3.2167506287805736e-04" rms="4.9189811944961548e-01" purity="5.5929088592529297e-01" nType="-99"/>
        </Node>
        <Node pos="r" depth="1" NCoef="0" IVar="3" Cut="-8.0081188678741455e-01" cType="1" res="-6.8920953199267387e-03" rms="4.8579031229019165e-01" purity="5.1884281635284424e-01" nType="0">
          <Node pos="l" depth="2" NCoef="0" IVar="-1" Cut="0.0000000000000000e+00" cType="1" res="4.1204239823855460e-04" rms="4.8983132839202881e-01" purity="4.4121256470680237e-01" nType="-99"/>
          <Node pos="r" depth="2" NCoef="0" IVar="-1" Cut="0.0000000000000000e+00" cType="1" res="-2.6158064138144255e-03" rms="4.8180189728736877e-01" purity="5.9159684181213379e-01" nType="-99"/>
        </Node>
      </Node>
    </BinaryTree>
    <BinaryTree type="DecisionTree" boostWeight="1.0000000000000000e+00" itree="654">
      <Node pos="s" depth="0" NCoef="0" IVar="4" Cut="4.8665184527635574e-02" cType="1" res="-1.3570130977313966e-04" rms="4.8793554306030273e-01" purity="5.0075912475585938e-01" nType="0">
        <Node pos="l" depth="1" NCoef="0" IVar="0" Cut="8.6927433013916016e+00" cType="1" res="-3.9189690724015236e-03" rms="4.8883014917373657e-01" purity="4.8735755681991577e-01" nType="0">
          <Node pos="l" depth="2" NCoef="0" IVar="-1" Cut="0.0000000000000000e+00" cType="1" res="-1.8599049653857946e-03" rms="4.9479860067367554e-01" purity="4.8105889558792114e-01" nType="-99"/>
          <Node pos="r" depth="2" NCoef="0" IVar="-1" Cut="0.0000000000000000e+00" cType="1" res="6.8872723204549402e-05" rms="4.8680749535560608e-01" purity="4.8939400911331177e-01" nType="-99"/>
        </Node>
        <Node pos="r" depth="1" NCoef="0" IVar="4" Cut="7.5804919004440308e-01" cType="1" res="9.4934906810522079e-03" rms="4.8551821708679199e-01" purity="5.3486889600753784e-01" nType="0">
          <Node pos="l" depth="2" NCoef="0" IVar="-1" Cut="0.0000000000000000e+00" cType="1" res="-2.1686556283384562e-03" rms="4.9143776297569275e-01" purity="4.9858066439628601e-01" nType="-99"/>
          <Node pos="r" depth="2" NCoef="0" IVar="-1" Cut="0.0000000000000000e+00" cType="1" res="2.7863334398716688e-03" rms="4.8353224992752075e-01" purity="5.4563891887664795e-01" nType="-99"/>
        </Node>
      </Node>
    </BinaryTree>
    <BinaryTree type="DecisionTree" boostWeight="1.0000000000000000e+00" itree="655">
      <Node pos="s" depth="0" NCoef="0" IVar="4" Cut="-8.9281696081161499e-01" cType="1" res="2.3461924865841866e-03" rms="4.8843443393707275e-01" purity="5.0350171327590942e-01" nType="0">
        <Node pos="l" depth="1" NCoef="0" IVar="-1" Cut="0.0000000000000000e+00" cType="1" res="6.5705138258635998e-03" rms="4.7594502568244934e-01" purity="4.8842099308967590e-01" nType="-99"/>
        <Node pos="r" depth="1" NCoef="0" IVar="2" Cut="3.0000000000000000e+00" cType="1" res="-5.1757914479821920e-04" rms="1.5258857607841492e-01" purity="5.0407779216766357e-01" nType="0">
          <Node pos="l" depth="2" NCoef="0" IVar="-1" Cut="0.0000000000000000e+00" cType="1" res="4.0607462869957089e-04" rms="4.8840317130088806e-01" purity="5.0469988584518433e-01" nType="-99"/>
          <Node pos="r" depth="2" NCoef="0" IVar="-1" Cut="0.0000000000000000e+00" cType="1" res="-2.0649663638323545e-03" rms="4.9245089292526245e-01" purity="4.9898377060890198e-01" nType="-99"/>
        </Node>
      </Node>
    </BinaryTree>
    <BinaryTree type="DecisionTree" boostWeight="1.0000000000000000e+00" itree="656">
      <Node pos="s" depth="0" NCoef="0" IVar="4" Cut="8.9015781879425049e-01" cType="1" res="3.0604805797338486e-03" rms="4.8813158273696899e-01" purity="5.0452995300292969e-01" nType="0">
        <Node pos="l" depth="1" NCoef="0" IVar="5" Cut="-6.7891854047775269e-01" cType="1" res="3.9337822236120701e-03" rms="4.8867508769035339e-01" purity="5.0354665517807007e-01" nType="0">
          <Node pos="l" depth="2" NCoef="0" IVar="-1" Cut="0.0000000000000000e+00" cType="1" res="3.3017625100910664e-03" rms="4.8603805899620056e-01" purity="5.0860023498535156e-01" nType="-99"/>
          <Node pos="r" depth="2" NCoef="0" IVar="-1" Cut="0.0000000000000000e+00" cType="1" res="2.9374289442785084e-04" rms="4.8896363377571106e-01" purity="5.0291603803634644e-01" nType="-99"/>
        </Node>
        <Node pos="r" depth="1" NCoef="0" IVar="-1" Cut="0.0000000000000000e+00" cType="1" res="-3.1572473235428333e-03" rms="4.7421094775199890e-01" purity="5.2847152948379517e-01" nType="-99"/>
      </Node>
    </BinaryTree>
    <BinaryTree type="DecisionTree" boostWeight="1.0000000000000000e+00" itree="657">
      <Node pos="s" depth="0" NCoef="0" IVar="0" Cut="8.4049177169799805e+00" cType="1" res="-3.5080944653600454e-03" rms="4.8796325922012329e-01" purity="4.9843320250511169e-01" nType="0">
        <Node pos="l" depth="1" NCoef="0" IVar="0" Cut="8.1916446685791016e+00" cType="1" res="-1.4835990965366364e-02" rms="4.9591037631034851e-01" purity="4.9208101630210876e-01" nType="0">
          <Node pos="l" depth="2" NCoef="0" IVar="-1" Cut="0.0000000000000000e+00" cType="1" res="-3.5691619268618524e-04" rms="4.9737527966499329e-01" purity="4.9213919043540955e-01" nType="-99"/>
          <Node pos="r" depth="2" NCoef="0" IVar="-1" Cut="0.0000000000000000e+00" cType="1" res="-2.7427605818957090e-03" rms="4.9419331550598145e-01" purity="4.9202299118041992e-01" nType="-99"/>
        </Node>
        <Node pos="r" depth="1" NCoef="0" IVar="0" Cut="8.5472507476806641e+00" cType="1" res="-2.0079000387340784e-03" rms="4.8688131570816040e-01" purity="4.9927440285682678e-01" nType="0">
          <Node pos="l" depth="2" NCoef="0" IVar="-1" Cut="0.0000000000000000e+00" cType="1" res="1.8268133280798793e-03" rms="4.9271893501281738e-01" purity="5.2834916114807129e-01" nType="-99"/>
          <Node pos="r" depth="2" NCoef="0" IVar="-1" Cut="0.0000000000000000e+00" cType="1" res="-5.8177148457616568e-04" rms="4.8646953701972961e-01" purity="4.9736112356185913e-01" nType="-99"/>
        </Node>
      </Node>
    </BinaryTree>
    <BinaryTree type="DecisionTree" boostWeight="1.0000000000000000e+00" itree="658">
      <Node pos="s" depth="0" NCoef="0" IVar="0" Cut="8.4898672103881836e+00" cType="1" res="8.7027339031919837e-04" rms="4.8826825618743896e-01" purity="5.0319510698318481e-01" nType="0">
        <Node pos="l" depth="1" NCoef="0" IVar="2" Cut="2.0000000000000000e+00" cType="1" res="7.6260435162112117e-04" rms="4.5834280550479889e-02" purity="5.2505630254745483e-01" nType="0">
          <Node pos="l" depth="2" NCoef="0" IVar="-1" Cut="0.0000000000000000e+00" cType="1" res="3.6123656173003837e-05" rms="4.9453946948051453e-01" purity="5.1754444837570190e-01" nType="-99"/>
          <Node pos="r" depth="2" NCoef="0" IVar="-1" Cut="0.0000000000000000e+00" cType="1" res="3.6959485150873661e-03" rms="4.9821907281875610e-01" purity="5.3536438941955566e-01" nType="-99"/>
        </Node>
        <Node pos="r" depth="1" NCoef="0" IVar="4" Cut="4.8151645809412003e-02" cType="1" res="-1.4520717086270452e-03" rms="4.8685339093208313e-01" purity="4.9952054023742676e-01" nType="0">
          <Node pos="l" depth="2" NCoef="0" IVar="-1" Cut="0.0000000000000000e+00" cType="1" res="-8.6241739336401224e-04" rms="4.8795911669731140e-01" purity="4.8616710305213928e-01" nType="-99"/>
          <Node pos="r" depth="2" NCoef="0" IVar="-1" Cut="0.0000000000000000e+00" cType="1" res="1.3953734887763858e-03" rms="4.8387446999549866e-01" purity="5.3391009569168091e-01" nType="-99"/>
        </Node>
      </Node>
    </BinaryTree>
    <BinaryTree type="DecisionTree" boostWeight="1.0000000000000000e+00" itree="659">
      <Node pos="s" depth="0" NCoef="0" IVar="2" Cut="3.0000000000000000e+00" cType="1" res="5.2561413031071424e-04" rms="1.8571737408638000e-01" purity="5.0247091054916382e-01" nType="0">
        <Node pos="l" depth="1" NCoef="0" IVar="4" Cut="-7.0351266860961914e-01" cType="1" res="2.6363695506006479e-03" rms="4.8727062344551086e-01" purity="5.0307649374008179e-01" nType="0">
          <Node pos="l" depth="2" NCoef="0" IVar="-1" Cut="0.0000000000000000e+00" cType="1" res="-5.7986989850178361e-04" rms="4.8553514480590820e-01" purity="4.7200205922126770e-01" nType="-99"/>
          <Node pos="r" depth="2" NCoef="0" IVar="-1" Cut="0.0000000000000000e+00" cType="1" res="8.0499041359871626e-04" rms="4.8792427778244019e-01" purity="5.1522189378738403e-01" nType="-99"/>
        </Node>
        <Node pos="r" depth="1" NCoef="0" IVar="3" Cut="7.9342520236968994e-01" cType="1" res="-1.1655626818537712e-02" rms="4.9164026975631714e-01" purity="4.9752986431121826e-01" nType="0">
          <Node pos="l" depth="2" NCoef="0" IVar="-1" Cut="0.0000000000000000e+00" cType="1" res="-4.3504419736564159e-03" rms="4.9393829703330994e-01" purity="4.4554758071899414e-01" nType="-99"/>
          <Node pos="r" depth="2" NCoef="0" IVar="-1" Cut="0.0000000000000000e+00" cType="1" res="2.1856811363250017e-03" rms="4.8642832040786743e-01" purity="5.9592801332473755e-01" nType="-99"/>
        </Node>
      </Node>
    </BinaryTree>
    <BinaryTree type="DecisionTree" boostWeight="1.0000000000000000e+00" itree="660">
      <Node pos="s" depth="0" NCoef="0" IVar="0" Cut="9.5258750915527344e+00" cType="1" res="4.9902731552720070e-04" rms="4.8859399557113647e-01" purity="5.0169169902801514e-01" nType="0">
        <Node pos="l" depth="1" NCoef="0" IVar="0" Cut="9.1706447601318359e+00" cType="1" res="3.0645700171589851e-03" rms="4.9042183160781860e-01" purity="5.0561141967773438e-01" nType="0">
          <Node pos="l" depth="2" NCoef="0" IVar="-1" Cut="0.0000000000000000e+00" cType="1" res="-2.6993014034815133e-04" rms="4.9183657765388489e-01" purity="5.0075018405914307e-01" nType="-99"/>
          <Node pos="r" depth="2" NCoef="0" IVar="-1" Cut="0.0000000000000000e+00" cType="1" res="3.2918727956712246e-03" rms="4.8673769831657410e-01" purity="5.1743614673614502e-01" nType="-99"/>
        </Node>
        <Node pos="r" depth="1" NCoef="0" IVar="0" Cut="9.6146917343139648e+00" cType="1" res="-1.3275897130370140e-02" rms="4.7842544317245483e-01" purity="4.8064571619033813e-01" nType="0">
          <Node pos="l" depth="2" NCoef="0" IVar="-1" Cut="0.0000000000000000e+00" cType="1" res="-8.1169530749320984e-03" rms="4.7899341583251953e-01" purity="4.6297100186347961e-01" nType="-99"/>
          <Node pos="r" depth="2" NCoef="0" IVar="-1" Cut="0.0000000000000000e+00" cType="1" res="-1.7214927356690168e-03" rms="4.7799810767173767e-01" purity="4.8714867234230042e-01" nType="-99"/>
        </Node>
      </Node>
    </BinaryTree>
    <BinaryTree type="DecisionTree" boostWeight="1.0000000000000000e+00" itree="661">
      <Node pos="s" depth="0" NCoef="0" IVar="0" Cut="8.1408815383911133e+00" cType="1" res="-4.8363115638494492e-03" rms="4.8827531933784485e-01" purity="4.9660369753837585e-01" nType="0">
        <Node pos="l" depth="1" NCoef="0" IVar="-1" Cut="0.0000000000000000e+00" cType="1" res="-3.9447676390409470e-03" rms="4.9470636248588562e-01" purity="4.5670816302299500e-01" nType="-99"/>
        <Node pos="r" depth="1" NCoef="0" IVar="4" Cut="4.5133929699659348e-02" cType="1" res="-2.8964746743440628e-03" rms="4.8786172270774841e-01" purity="4.9866914749145508e-01" nType="0">
          <Node pos="l" depth="2" NCoef="0" IVar="-1" Cut="0.0000000000000000e+00" cType="1" res="9.7575728432275355e-05" rms="4.8883479833602905e-01" purity="4.9234837293624878e-01" nType="-99"/>
          <Node pos="r" depth="2" NCoef="0" IVar="-1" Cut="0.0000000000000000e+00" cType="1" res="-2.0472658798098564e-03" rms="4.8519530892372131e-01" purity="5.1515859365463257e-01" nType="-99"/>
        </Node>
      </Node>
    </BinaryTree>
    <BinaryTree type="DecisionTree" boostWeight="1.0000000000000000e+00" itree="662">
      <Node pos="s" depth="0" NCoef="0" IVar="5" Cut="-6.9047629833221436e-01" cType="1" res="-3.0719579663127661e-03" rms="4.8751652240753174e-01" purity="4.9792456626892090e-01" nType="0">
        <Node pos="l" depth="1" NCoef="0" IVar="3" Cut="-8.0069810152053833e-01" cType="1" res="-2.7727060019969940e-02" rms="4.8299276828765869e-01" purity="4.6954634785652161e-01" nType="0">
          <Node pos="l" depth="2" NCoef="0" IVar="-1" Cut="0.0000000000000000e+00" cType="1" res="-8.0944234505295753e-03" rms="4.7076159715652466e-01" purity="3.5638958215713501e-01" nType="-99"/>
          <Node pos="r" depth="2" NCoef="0" IVar="-1" Cut="0.0000000000000000e+00" cType="1" res="-1.6059518093243241e-03" rms="4.9155133962631226e-01" purity="5.5744594335556030e-01" nType="-99"/>
        </Node>
        <Node pos="r" depth="1" NCoef="0" IVar="1" Cut="5.0000000000000000e+00" cType="1" res="7.1674823993816972e-04" rms="2.5138953328132629e-01" purity="5.0189477205276489e-01" nType="0">
          <Node pos="l" depth="2" NCoef="0" IVar="-1" Cut="0.0000000000000000e+00" cType="1" res="2.3196720576379448e-04" rms="4.8826277256011963e-01" purity="5.0203090906143188e-01" nType="-99"/>
          <Node pos="r" depth="2" NCoef="0" IVar="-1" Cut="0.0000000000000000e+00" cType="1" res="-4.3446649797260761e-03" rms="4.8136699199676514e-01" purity="4.9827560782432556e-01" nType="-99"/>
        </Node>
      </Node>
    </BinaryTree>
    <BinaryTree type="DecisionTree" boostWeight="1.0000000000000000e+00" itree="663">
      <Node pos="s" depth="0" NCoef="0" IVar="0" Cut="8.2212305068969727e+00" cType="1" res="-1.7780110938474536e-03" rms="4.8784956336021423e-01" purity="4.9951031804084778e-01" nType="0">
        <Node pos="l" depth="1" NCoef="0" IVar="-1" Cut="0.0000000000000000e+00" cType="1" res="-2.4690832942724228e-03" rms="4.9660900235176086e-01" purity="4.6789038181304932e-01" nType="-99"/>
        <Node pos="r" depth="1" NCoef="0" IVar="5" Cut="7.9321867227554321e-01" cType="1" res="-2.2394653933588415e-04" rms="4.8724004626274109e-01" purity="5.0154298543930054e-01" nType="0">
          <Node pos="l" depth="2" NCoef="0" IVar="-1" Cut="0.0000000000000000e+00" cType="1" res="-2.3824613890610635e-04" rms="4.8755684494972229e-01" purity="4.9933475255966187e-01" nType="-99"/>
          <Node pos="r" depth="2" NCoef="0" IVar="-1" Cut="0.0000000000000000e+00" cType="1" res="3.8259595166891813e-03" rms="4.8104897141456604e-01" purity="5.4083883762359619e-01" nType="-99"/>
        </Node>
      </Node>
    </BinaryTree>
    <BinaryTree type="DecisionTree" boostWeight="1.0000000000000000e+00" itree="664">
      <Node pos="s" depth="0" NCoef="0" IVar="4" Cut="-8.9139050245285034e-01" cType="1" res="8.5128343198448420e-04" rms="4.8826810717582703e-01" purity="5.0062996149063110e-01" nType="0">
        <Node pos="l" depth="1" NCoef="0" IVar="-1" Cut="0.0000000000000000e+00" cType="1" res="3.8126837462186813e-03" rms="4.7692140936851501e-01" purity="4.7538015246391296e-01" nType="-99"/>
        <Node pos="r" depth="1" NCoef="0" IVar="5" Cut="5.2947405725717545e-02" cType="1" res="9.2656511696986854e-05" rms="4.8869007825851440e-01" purity="5.0161576271057129e-01" nType="0">
          <Node pos="l" depth="2" NCoef="0" IVar="-1" Cut="0.0000000000000000e+00" cType="1" res="2.7939208666794002e-04" rms="4.8903244733810425e-01" purity="5.0223666429519653e-01" nType="-99"/>
          <Node pos="r" depth="2" NCoef="0" IVar="-1" Cut="0.0000000000000000e+00" cType="1" res="-2.0499103702604771e-03" rms="4.8587158322334290e-01" purity="4.9686136841773987e-01" nType="-99"/>
        </Node>
      </Node>
    </BinaryTree>
    <BinaryTree type="DecisionTree" boostWeight="1.0000000000000000e+00" itree="665">
      <Node pos="s" depth="0" NCoef="0" IVar="0" Cut="9.3747940063476562e+00" cType="1" res="-4.1094562038779259e-03" rms="4.8779714107513428e-01" purity="4.9664834141731262e-01" nType="0">
        <Node pos="l" depth="1" NCoef="0" IVar="0" Cut="8.1884126663208008e+00" cType="1" res="-6.8575092591345310e-03" rms="4.9073576927185059e-01" purity="4.9599114060401917e-01" nType="0">
          <Node pos="l" depth="2" NCoef="0" IVar="-1" Cut="0.0000000000000000e+00" cType="1" res="1.5783958369866014e-03" rms="4.9778646230697632e-01" purity="5.1086306571960449e-01" nType="-99"/>
          <Node pos="r" depth="2" NCoef="0" IVar="-1" Cut="0.0000000000000000e+00" cType="1" res="-1.2685903348028660e-03" rms="4.9015754461288452e-01" purity="4.9487304687500000e-01" nType="-99"/>
        </Node>
        <Node pos="r" depth="1" NCoef="0" IVar="4" Cut="-7.0527523756027222e-01" cType="1" res="4.1662380099296570e-03" rms="4.7874331474304199e-01" purity="4.9862769246101379e-01" nType="0">
          <Node pos="l" depth="2" NCoef="0" IVar="-1" Cut="0.0000000000000000e+00" cType="1" res="-2.4246212560683489e-03" rms="4.7285208106040955e-01" purity="4.6326437592506409e-01" nType="-99"/>
          <Node pos="r" depth="2" NCoef="0" IVar="-1" Cut="0.0000000000000000e+00" cType="1" res="2.3183398880064487e-03" rms="4.8084953427314758e-01" purity="5.1195186376571655e-01" nType="-99"/>
        </Node>
      </Node>
    </BinaryTree>
    <BinaryTree type="DecisionTree" boostWeight="1.0000000000000000e+00" itree="666">
      <Node pos="s" depth="0" NCoef="0" IVar="2" Cut="3.0000000000000000e+00" cType="1" res="1.7409789143130183e-04" rms="3.5403270274400711e-02" purity="4.9859127402305603e-01" nType="0">
        <Node pos="l" depth="1" NCoef="0" IVar="1" Cut="2.0000000000000000e+00" cType="1" res="-1.5258126659318805e-03" rms="1.8340957164764404e-01" purity="4.9521350860595703e-01" nType="0">
          <Node pos="l" depth="2" NCoef="0" IVar="-1" Cut="0.0000000000000000e+00" cType="1" res="-2.2049681283533573e-03" rms="4.8888564109802246e-01" purity="4.8448213934898376e-01" nType="-99"/>
          <Node pos="r" depth="2" NCoef="0" IVar="-1" Cut="0.0000000000000000e+00" cType="1" res="1.9529333803802729e-04" rms="4.8788481950759888e-01" purity="4.9949407577514648e-01" nType="-99"/>
        </Node>
        <Node pos="r" depth="1" NCoef="0" IVar="0" Cut="8.9564390182495117e+00" cType="1" res="2.0356809720396996e-02" rms="4.9062699079513550e-01" purity="5.2648204565048218e-01" nType="0">
          <Node pos="l" depth="2" NCoef="0" IVar="-1" Cut="0.0000000000000000e+00" cType="1" res="3.9829667657613754e-03" rms="4.9196586012840271e-01" purity="5.4205071926116943e-01" nType="-99"/>
          <Node pos="r" depth="2" NCoef="0" IVar="-1" Cut="0.0000000000000000e+00" cType="1" res="3.1802570447325706e-03" rms="4.8943188786506653e-01" purity="5.1419872045516968e-01" nType="-99"/>
        </Node>
      </Node>
    </BinaryTree>
    <BinaryTree type="DecisionTree" boostWeight="1.0000000000000000e+00" itree="667">
      <Node pos="s" depth="0" NCoef="0" IVar="4" Cut="4.6881776303052902e-02" cType="1" res="3.8369668181985617e-03" rms="4.8785421252250671e-01" purity="5.0461387634277344e-01" nType="0">
        <Node pos="l" depth="1" NCoef="0" IVar="3" Cut="8.0286270380020142e-01" cType="1" res="1.0649678297340870e-03" rms="4.8933163285255432e-01" purity="4.9241971969604492e-01" nType="0">
          <Node pos="l" depth="2" NCoef="0" IVar="-1" Cut="0.0000000000000000e+00" cType="1" res="7.9506251495331526e-04" rms="4.8984411358833313e-01" purity="4.4617086648941040e-01" nType="-99"/>
          <Node pos="r" depth="2" NCoef="0" IVar="-1" Cut="0.0000000000000000e+00" cType="1" res="-9.4328686827793717e-04" rms="4.8838537931442261e-01" purity="5.7083696126937866e-01" nType="-99"/>
        </Node>
        <Node pos="r" depth="1" NCoef="0" IVar="2" Cut="2.0000000000000000e+00" cType="1" res="2.5775132235139608e-03" rms="1.4761500060558319e-01" purity="5.3624320030212402e-01" nType="0">
          <Node pos="l" depth="2" NCoef="0" IVar="-1" Cut="0.0000000000000000e+00" cType="1" res="3.6248031537979841e-03" rms="4.8113870620727539e-01" purity="5.4594528675079346e-01" nType="-99"/>
          <Node pos="r" depth="2" NCoef="0" IVar="-1" Cut="0.0000000000000000e+00" cType="1" res="-1.6790746012702584e-03" rms="4.8799231648445129e-01" purity="5.1951491832733154e-01" nType="-99"/>
        </Node>
      </Node>
    </BinaryTree>
    <BinaryTree type="DecisionTree" boostWeight="1.0000000000000000e+00" itree="668">
      <Node pos="s" depth="0" NCoef="0" IVar="4" Cut="7.9593473672866821e-01" cType="1" res="-2.0766812376677990e-03" rms="4.8734980821609497e-01" purity="4.9867069721221924e-01" nType="0">
        <Node pos="l" depth="1" NCoef="0" IVar="0" Cut="8.6788187026977539e+00" cType="1" res="-5.0427736714482307e-03" rms="4.8813474178314209e-01" purity="4.8923793435096741e-01" nType="0">
          <Node pos="l" depth="2" NCoef="0" IVar="-1" Cut="0.0000000000000000e+00" cType="1" res="4.6668175491504371e-04" rms="4.9493741989135742e-01" purity="5.0416815280914307e-01" nType="-99"/>
          <Node pos="r" depth="2" NCoef="0" IVar="-1" Cut="0.0000000000000000e+00" cType="1" res="-1.4748808462172747e-03" rms="4.8597785830497742e-01" purity="4.8462760448455811e-01" nType="-99"/>
        </Node>
        <Node pos="r" depth="1" NCoef="0" IVar="0" Cut="8.8202857971191406e+00" cType="1" res="1.4070781879127026e-02" rms="4.8273479938507080e-01" purity="5.5002260208129883e-01" nType="0">
          <Node pos="l" depth="2" NCoef="0" IVar="-1" Cut="0.0000000000000000e+00" cType="1" res="3.8354613352566957e-03" rms="4.9143922328948975e-01" purity="5.7279658317565918e-01" nType="-99"/>
          <Node pos="r" depth="2" NCoef="0" IVar="-1" Cut="0.0000000000000000e+00" cType="1" res="1.4769688714295626e-03" rms="4.7945460677146912e-01" purity="5.4200315475463867e-01" nType="-99"/>
        </Node>
      </Node>
    </BinaryTree>
    <BinaryTree type="DecisionTree" boostWeight="1.0000000000000000e+00" itree="669">
      <Node pos="s" depth="0" NCoef="0" IVar="4" Cut="4.6801287680864334e-02" cType="1" res="-2.5390409864485264e-03" rms="4.8819765448570251e-01" purity="4.9822494387626648e-01" nType="0">
        <Node pos="l" depth="1" NCoef="0" IVar="1" Cut="4.0000000000000000e+00" cType="1" res="-1.3418660964816809e-03" rms="1.8156126141548157e-01" purity="4.9278113245964050e-01" nType="0">
          <Node pos="l" depth="2" NCoef="0" IVar="-1" Cut="0.0000000000000000e+00" cType="1" res="5.3462211508303881e-04" rms="4.8974692821502686e-01" purity="4.9479493498802185e-01" nType="-99"/>
          <Node pos="r" depth="2" NCoef="0" IVar="-1" Cut="0.0000000000000000e+00" cType="1" res="-2.1500329021364450e-03" rms="4.8736149072647095e-01" purity="4.7899419069290161e-01" nType="-99"/>
        </Node>
        <Node pos="r" depth="1" NCoef="0" IVar="3" Cut="8.9419835805892944e-01" cType="1" res="-1.2125306762754917e-02" rms="4.8482662439346313e-01" purity="5.1195919513702393e-01" nType="0">
          <Node pos="l" depth="2" NCoef="0" IVar="-1" Cut="0.0000000000000000e+00" cType="1" res="-2.7950152289122343e-03" rms="4.9172800779342651e-01" purity="4.6599441766738892e-01" nType="-99"/>
          <Node pos="r" depth="2" NCoef="0" IVar="-1" Cut="0.0000000000000000e+00" cType="1" res="2.0645083859562874e-03" rms="4.5526370406150818e-01" purity="6.9707691669464111e-01" nType="-99"/>
        </Node>
      </Node>
    </BinaryTree>
    <BinaryTree type="DecisionTree" boostWeight="1.0000000000000000e+00" itree="670">
      <Node pos="s" depth="0" NCoef="0" IVar="1" Cut="5.0000000000000000e+00" cType="1" res="-2.3799748159945011e-03" rms="3.1989753246307373e-01" purity="4.9676528573036194e-01" nType="0">
        <Node pos="l" depth="1" NCoef="0" IVar="3" Cut="-8.9533442258834839e-01" cType="1" res="-5.3470535203814507e-03" rms="4.8811396956443787e-01" purity="4.9477946758270264e-01" nType="0">
          <Node pos="l" depth="2" NCoef="0" IVar="-1" Cut="0.0000000000000000e+00" cType="1" res="-3.2171106431633234e-03" rms="4.6391120553016663e-01" purity="3.3279076218605042e-01" nType="-99"/>
          <Node pos="r" depth="2" NCoef="0" IVar="-1" Cut="0.0000000000000000e+00" cType="1" res="-4.4812401756644249e-04" rms="4.9275237321853638e-01" purity="5.2701711654663086e-01" nType="-99"/>
        </Node>
        <Node pos="r" depth="1" NCoef="0" IVar="-1" Cut="0.0000000000000000e+00" cType="1" res="3.2547709997743368e-03" rms="4.8836582899093628e-01" purity="5.3762322664260864e-01" nType="-99"/>
      </Node>
    </BinaryTree>
    <BinaryTree type="DecisionTree" boostWeight="1.0000000000000000e+00" itree="671">
      <Node pos="s" depth="0" NCoef="0" IVar="3" Cut="-8.0208969116210938e-01" cType="1" res="-3.5052176099270582e-03" rms="4.8841738700866699e-01" purity="4.9690565466880798e-01" nType="0">
        <Node pos="l" depth="1" NCoef="0" IVar="1" Cut="4.0000000000000000e+00" cType="1" res="-7.1006570942699909e-04" rms="2.9832297563552856e-01" purity="4.1054990887641907e-01" nType="0">
          <Node pos="l" depth="2" NCoef="0" IVar="-1" Cut="0.0000000000000000e+00" cType="1" res="-5.6693257647566497e-05" rms="4.8346906900405884e-01" purity="4.0530511736869812e-01" nType="-99"/>
          <Node pos="r" depth="2" NCoef="0" IVar="-1" Cut="0.0000000000000000e+00" cType="1" res="3.0084140598773956e-03" rms="4.8854678869247437e-01" purity="4.3786111474037170e-01" nType="-99"/>
        </Node>
        <Node pos="r" depth="1" NCoef="0" IVar="3" Cut="8.2082486152648926e-01" cType="1" res="-7.0795528590679169e-03" rms="4.9070951342582703e-01" purity="5.4654181003570557e-01" nType="0">
          <Node pos="l" depth="2" NCoef="0" IVar="-1" Cut="0.0000000000000000e+00" cType="1" res="-2.1601039916276932e-03" rms="4.9853068590164185e-01" purity="4.8719736933708191e-01" nType="-99"/>
          <Node pos="r" depth="2" NCoef="0" IVar="-1" Cut="0.0000000000000000e+00" cType="1" res="-2.0485851564444602e-05" rms="4.8375219106674194e-01" purity="5.9774076938629150e-01" nType="-99"/>
        </Node>
      </Node>
    </BinaryTree>
    <BinaryTree type="DecisionTree" boostWeight="1.0000000000000000e+00" itree="672">
      <Node pos="s" depth="0" NCoef="0" IVar="3" Cut="-8.9649742841720581e-01" cType="1" res="-4.4408249668776989e-03" rms="4.8845118284225464e-01" purity="4.9555534124374390e-01" nType="0">
        <Node pos="l" depth="1" NCoef="0" IVar="3" Cut="-9.5945614576339722e-01" cType="1" res="5.4119536653161049e-03" rms="4.6972867846488953e-01" purity="3.5570588707923889e-01" nType="0">
          <Node pos="l" depth="2" NCoef="0" IVar="-1" Cut="0.0000000000000000e+00" cType="1" res="-7.4933981522917747e-03" rms="4.0708068013191223e-01" purity="2.2077274322509766e-01" nType="-99"/>
          <Node pos="r" depth="2" NCoef="0" IVar="-1" Cut="0.0000000000000000e+00" cType="1" res="2.2830958478152752e-03" rms="4.8178634047508240e-01" purity="3.8467371463775635e-01" nType="-99"/>
        </Node>
        <Node pos="r" depth="1" NCoef="0" IVar="1" Cut="3.0000000000000000e+00" cType="1" res="-3.0255613382905722e-03" rms="3.2778280973434448e-01" purity="5.2400773763656616e-01" nType="0">
          <Node pos="l" depth="2" NCoef="0" IVar="-1" Cut="0.0000000000000000e+00" cType="1" res="-1.5024819876998663e-03" rms="4.9319633841514587e-01" purity="5.1718801259994507e-01" nType="-99"/>
          <Node pos="r" depth="2" NCoef="0" IVar="-1" Cut="0.0000000000000000e+00" cType="1" res="2.6894451366388239e-05" rms="4.8994782567024231e-01" purity="5.3786051273345947e-01" nType="-99"/>
        </Node>
      </Node>
    </BinaryTree>
    <BinaryTree type="DecisionTree" boostWeight="1.0000000000000000e+00" itree="673">
      <Node pos="s" depth="0" NCoef="0" IVar="1" Cut="4.0000000000000000e+00" cType="1" res="2.9736309079453349e-04" rms="3.6319571733474731e-01" purity="5.0006437301635742e-01" nType="0">
        <Node pos="l" depth="1" NCoef="0" IVar="0" Cut="8.2212305068969727e+00" cType="1" res="2.6953662745654583e-03" rms="4.8860374093055725e-01" purity="5.0083822011947632e-01" nType="0">
          <Node pos="l" depth="2" NCoef="0" IVar="-1" Cut="0.0000000000000000e+00" cType="1" res="-1.9073798321187496e-03" rms="4.9896591901779175e-01" purity="4.7506082057952881e-01" nType="-99"/>
          <Node pos="r" depth="2" NCoef="0" IVar="-1" Cut="0.0000000000000000e+00" cType="1" res="6.8556523183360696e-04" rms="4.8787567019462585e-01" purity="5.0254577398300171e-01" nType="-99"/>
        </Node>
        <Node pos="r" depth="1" NCoef="0" IVar="4" Cut="-7.0487028360366821e-01" cType="1" res="-1.2564234435558319e-02" rms="4.8716834187507629e-01" purity="4.9533241987228394e-01" nType="0">
          <Node pos="l" depth="2" NCoef="0" IVar="-1" Cut="0.0000000000000000e+00" cType="1" res="1.0855174623429775e-03" rms="4.8277744650840759e-01" purity="4.8140352964401245e-01" nType="-99"/>
          <Node pos="r" depth="2" NCoef="0" IVar="-1" Cut="0.0000000000000000e+00" cType="1" res="-3.5877567715942860e-03" rms="4.8919147253036499e-01" purity="5.0283312797546387e-01" nType="-99"/>
        </Node>
      </Node>
    </BinaryTree>
    <BinaryTree type="DecisionTree" boostWeight="1.0000000000000000e+00" itree="674">
      <Node pos="s" depth="0" NCoef="0" IVar="3" Cut="-8.9654481410980225e-01" cType="1" res="5.7927542366087437e-04" rms="4.8899137973785400e-01" purity="5.0077748298645020e-01" nType="0">
        <Node pos="l" depth="1" NCoef="0" IVar="1" Cut="2.0000000000000000e+00" cType="1" res="2.0636650733649731e-03" rms="2.3359809815883636e-01" purity="3.6304363608360291e-01" nType="0">
          <Node pos="l" depth="2" NCoef="0" IVar="-1" Cut="0.0000000000000000e+00" cType="1" res="6.4123966731131077e-03" rms="4.7699636220932007e-01" purity="3.6705648899078369e-01" nType="-99"/>
          <Node pos="r" depth="2" NCoef="0" IVar="-1" Cut="0.0000000000000000e+00" cType="1" res="6.7035207757726312e-04" rms="4.7411978244781494e-01" purity="3.6188182234764099e-01" nType="-99"/>
        </Node>
        <Node pos="r" depth="1" NCoef="0" IVar="4" Cut="-7.9913491010665894e-01" cType="1" res="-1.5309292357414961e-03" rms="4.9173951148986816e-01" purity="5.2850300073623657e-01" nType="0">
          <Node pos="l" depth="2" NCoef="0" IVar="-1" Cut="0.0000000000000000e+00" cType="1" res="2.1410910412669182e-03" rms="4.8733395338058472e-01" purity="5.3865432739257812e-01" nType="-99"/>
          <Node pos="r" depth="2" NCoef="0" IVar="-1" Cut="0.0000000000000000e+00" cType="1" res="-5.7080364786088467e-04" rms="4.9236708879470825e-01" purity="5.2696287631988525e-01" nType="-99"/>
        </Node>
      </Node>
    </BinaryTree>
    <BinaryTree type="DecisionTree" boostWeight="1.0000000000000000e+00" itree="675">
      <Node pos="s" depth="0" NCoef="0" IVar="0" Cut="9.0421190261840820e+00" cType="1" res="-1.9615041092038155e-03" rms="4.8828101158142090e-01" purity="4.9797126650810242e-01" nType="0">
        <Node pos="l" depth="1" NCoef="0" IVar="2" Cut="2.0000000000000000e+00" cType="1" res="2.2127949250716483e-06" rms="1.3933662325143814e-02" purity="4.9240452051162720e-01" nType="0">
          <Node pos="l" depth="2" NCoef="0" IVar="-1" Cut="0.0000000000000000e+00" cType="1" res="-2.8252325137145817e-04" rms="4.9179783463478088e-01" purity="4.9968588352203369e-01" nType="-99"/>
          <Node pos="r" depth="2" NCoef="0" IVar="-1" Cut="0.0000000000000000e+00" cType="1" res="-2.3235373664647341e-03" rms="4.9345001578330994e-01" purity="4.8307591676712036e-01" nType="-99"/>
        </Node>
        <Node pos="r" depth="1" NCoef="0" IVar="4" Cut="-8.9020538330078125e-01" cType="1" res="4.8211393877863884e-03" rms="4.8406273126602173e-01" purity="5.0325888395309448e-01" nType="0">
          <Node pos="l" depth="2" NCoef="0" IVar="-1" Cut="0.0000000000000000e+00" cType="1" res="-5.5856225080788136e-03" rms="4.7832366824150085e-01" purity="4.3536609411239624e-01" nType="-99"/>
          <Node pos="r" depth="2" NCoef="0" IVar="-1" Cut="0.0000000000000000e+00" cType="1" res="1.3699957635253668e-03" rms="4.8431056737899780e-01" purity="5.0676101446151733e-01" nType="-99"/>
        </Node>
      </Node>
    </BinaryTree>
    <BinaryTree type="DecisionTree" boostWeight="1.0000000000000000e+00" itree="676">
      <Node pos="s" depth="0" NCoef="0" IVar="4" Cut="7.9528635740280151e-01" cType="1" res="2.5708230677992105e-03" rms="4.8863443732261658e-01" purity="5.0211757421493530e-01" nType="0">
        <Node pos="l" depth="1" NCoef="0" IVar="0" Cut="9.2720680236816406e+00" cType="1" res="4.7772098332643509e-03" rms="4.8984697461128235e-01" purity="4.9768128991127014e-01" nType="0">
          <Node pos="l" depth="2" NCoef="0" IVar="-1" Cut="0.0000000000000000e+00" cType="1" res="1.0385577334091067e-03" rms="4.9348253011703491e-01" purity="5.0116980075836182e-01" nType="-99"/>
          <Node pos="r" depth="2" NCoef="0" IVar="-1" Cut="0.0000000000000000e+00" cType="1" res="-3.3723810338415205e-04" rms="4.8202446103096008e-01" purity="4.9031749367713928e-01" nType="-99"/>
        </Node>
        <Node pos="r" depth="1" NCoef="0" IVar="1" Cut="4.0000000000000000e+00" cType="1" res="-2.5530664715915918e-03" rms="3.2332000136375427e-01" purity="5.2628296613693237e-01" nType="0">
          <Node pos="l" depth="2" NCoef="0" IVar="-1" Cut="0.0000000000000000e+00" cType="1" res="-2.8828256763517857e-03" rms="4.8147019743919373e-01" purity="5.1593464612960815e-01" nType="-99"/>
          <Node pos="r" depth="2" NCoef="0" IVar="-1" Cut="0.0000000000000000e+00" cType="1" res="2.4656211026012897e-03" rms="4.8206239938735962e-01" purity="5.5785149335861206e-01" nType="-99"/>
        </Node>
      </Node>
    </BinaryTree>
    <BinaryTree type="DecisionTree" boostWeight="1.0000000000000000e+00" itree="677">
      <Node pos="s" depth="0" NCoef="0" IVar="1" Cut="3.0000000000000000e+00" cType="1" res="8.2036283856723458e-05" rms="2.5458618998527527e-01" purity="4.9628230929374695e-01" nType="0">
        <Node pos="l" depth="1" NCoef="0" IVar="0" Cut="8.8990201950073242e+00" cType="1" res="1.6437739832326770e-03" rms="4.8861867189407349e-01" purity="5.0061970949172974e-01" nType="0">
          <Node pos="l" depth="2" NCoef="0" IVar="-1" Cut="0.0000000000000000e+00" cType="1" res="1.3115010224282742e-03" rms="4.9542686343193054e-01" purity="5.1250261068344116e-01" nType="-99"/>
          <Node pos="r" depth="2" NCoef="0" IVar="-1" Cut="0.0000000000000000e+00" cType="1" res="-8.5907982429489493e-04" rms="4.8424592614173889e-01" purity="4.9323785305023193e-01" nType="-99"/>
        </Node>
        <Node pos="r" depth="1" NCoef="0" IVar="0" Cut="9.5118331909179688e+00" cType="1" res="-1.2745779938995838e-02" rms="4.8698216676712036e-01" purity="4.8828059434890747e-01" nType="0">
          <Node pos="l" depth="2" NCoef="0" IVar="-1" Cut="0.0000000000000000e+00" cType="1" res="-2.4768372531980276e-03" rms="4.8843213915824890e-01" purity="4.8483285307884216e-01" nType="-99"/>
          <Node pos="r" depth="2" NCoef="0" IVar="-1" Cut="0.0000000000000000e+00" cType="1" res="2.2133139427751303e-03" rms="4.7874754667282104e-01" purity="5.0643831491470337e-01" nType="-99"/>
        </Node>
      </Node>
    </BinaryTree>
    <BinaryTree type="DecisionTree" boostWeight="1.0000000000000000e+00" itree="678">
      <Node pos="s" depth="0" NCoef="0" IVar="4" Cut="8.9240539073944092e-01" cType="1" res="-2.8413028921931982e-03" rms="4.8845306038856506e-01" purity="4.9746352434158325e-01" nType="0">
        <Node pos="l" depth="1" NCoef="0" IVar="4" Cut="-8.9574140310287476e-01" cType="1" res="-1.6020436305552721e-03" rms="4.8895424604415894e-01" purity="4.9699255824089050e-01" nType="0">
          <Node pos="l" depth="2" NCoef="0" IVar="-1" Cut="0.0000000000000000e+00" cType="1" res="3.9939084090292454e-03" rms="4.7430154681205750e-01" purity="4.8125544190406799e-01" nType="-99"/>
          <Node pos="r" depth="2" NCoef="0" IVar="-1" Cut="0.0000000000000000e+00" cType="1" res="-3.8513436447829008e-04" rms="4.8948815464973450e-01" purity="4.9759605526924133e-01" nType="-99"/>
        </Node>
        <Node pos="r" depth="1" NCoef="0" IVar="-1" Cut="0.0000000000000000e+00" cType="1" res="-6.7775445058941841e-03" rms="4.7369396686553955e-01" purity="5.1002669334411621e-01" nType="-99"/>
      </Node>
    </BinaryTree>
    <BinaryTree type="DecisionTree" boostWeight="1.0000000000000000e+00" itree="679">
      <Node pos="s" depth="0" NCoef="0" IVar="4" Cut="4.6769637614488602e-02" cType="1" res="1.3067158870398998e-03" rms="4.8861014842987061e-01" purity="5.0051927566528320e-01" nType="0">
        <Node pos="l" depth="1" NCoef="0" IVar="3" Cut="8.0294561386108398e-01" cType="1" res="-1.8743956461548805e-03" rms="4.8972994089126587e-01" purity="4.8810940980911255e-01" nType="0">
          <Node pos="l" depth="2" NCoef="0" IVar="-1" Cut="0.0000000000000000e+00" cType="1" res="4.6956507139839232e-04" rms="4.9039533734321594e-01" purity="4.4358730316162109e-01" nType="-99"/>
          <Node pos="r" depth="2" NCoef="0" IVar="-1" Cut="0.0000000000000000e+00" cType="1" res="-1.7379760975018144e-03" rms="4.8844718933105469e-01" purity="5.6582653522491455e-01" nType="-99"/>
        </Node>
        <Node pos="r" depth="1" NCoef="0" IVar="5" Cut="4.1024193167686462e-02" cType="1" res="9.4344448298215866e-03" rms="4.8564273118972778e-01" purity="5.3222650289535522e-01" nType="0">
          <Node pos="l" depth="2" NCoef="0" IVar="-1" Cut="0.0000000000000000e+00" cType="1" res="2.1244718227535486e-03" rms="4.8544606566429138e-01" purity="5.3351449966430664e-01" nType="-99"/>
          <Node pos="r" depth="2" NCoef="0" IVar="-1" Cut="0.0000000000000000e+00" cType="1" res="-9.3743245815858245e-04" rms="4.8611724376678467e-01" purity="5.2719849348068237e-01" nType="-99"/>
        </Node>
      </Node>
    </BinaryTree>
    <BinaryTree type="DecisionTree" boostWeight="1.0000000000000000e+00" itree="680">
      <Node pos="s" depth="0" NCoef="0" IVar="3" Cut="-8.9605480432510376e-01" cType="1" res="3.4193950705230236e-03" rms="4.8749139904975891e-01" purity="5.0369828939437866e-01" nType="0">
        <Node pos="l" depth="1" NCoef="0" IVar="3" Cut="-9.5896917581558228e-01" cType="1" res="-8.9906109496951103e-03" rms="4.6576291322708130e-01" purity="3.4507605433464050e-01" nType="0">
          <Node pos="l" depth="2" NCoef="0" IVar="-1" Cut="0.0000000000000000e+00" cType="1" res="-7.9115657135844231e-03" rms="4.0233835577964783e-01" purity="2.1363435685634613e-01" nType="-99"/>
          <Node pos="r" depth="2" NCoef="0" IVar="-1" Cut="0.0000000000000000e+00" cType="1" res="-5.4348236881196499e-04" rms="4.7871786355972290e-01" purity="3.7473398447036743e-01" nType="-99"/>
        </Node>
        <Node pos="r" depth="1" NCoef="0" IVar="1" Cut="3.0000000000000000e+00" cType="1" res="4.7902441583573818e-03" rms="3.6739018559455872e-01" purity="5.3662961721420288e-01" nType="0">
          <Node pos="l" depth="2" NCoef="0" IVar="-1" Cut="0.0000000000000000e+00" cType="1" res="4.3579534394666553e-04" rms="4.9277287721633911e-01" purity="5.2965855598449707e-01" nType="-99"/>
          <Node pos="r" depth="2" NCoef="0" IVar="-1" Cut="0.0000000000000000e+00" cType="1" res="1.9448124803602695e-03" rms="4.8987168073654175e-01" purity="5.5088126659393311e-01" nType="-99"/>
        </Node>
      </Node>
    </BinaryTree>
    <BinaryTree type="DecisionTree" boostWeight="1.0000000000000000e+00" itree="681">
      <Node pos="s" depth="0" NCoef="0" IVar="4" Cut="-7.0527523756027222e-01" cType="1" res="-6.0319917974993587e-04" rms="4.8849877715110779e-01" purity="4.9924352765083313e-01" nType="0">
        <Node pos="l" depth="1" NCoef="0" IVar="4" Cut="-7.4540984630584717e-01" cType="1" res="8.2829957827925682e-03" rms="4.8579233884811401e-01" purity="4.8339298367500305e-01" nType="0">
          <Node pos="l" depth="2" NCoef="0" IVar="-1" Cut="0.0000000000000000e+00" cType="1" res="7.2654802352190018e-04" rms="4.8498216271400452e-01" purity="4.7885999083518982e-01" nType="-99"/>
          <Node pos="r" depth="2" NCoef="0" IVar="-1" Cut="0.0000000000000000e+00" cType="1" res="4.8891678452491760e-03" rms="4.9003952741622925e-01" purity="5.1068145036697388e-01" nType="-99"/>
        </Node>
        <Node pos="r" depth="1" NCoef="0" IVar="0" Cut="8.2428741455078125e+00" cType="1" res="-3.9040248375386000e-03" rms="4.8945921659469604e-01" purity="5.0513136386871338e-01" nType="0">
          <Node pos="l" depth="2" NCoef="0" IVar="-1" Cut="0.0000000000000000e+00" cType="1" res="-2.3744357749819756e-03" rms="4.9829345941543579e-01" purity="4.7719183564186096e-01" nType="-99"/>
          <Node pos="r" depth="2" NCoef="0" IVar="-1" Cut="0.0000000000000000e+00" cType="1" res="-3.9742235094308853e-04" rms="4.8876878619194031e-01" purity="5.0718832015991211e-01" nType="-99"/>
        </Node>
      </Node>
    </BinaryTree>
    <BinaryTree type="DecisionTree" boostWeight="1.0000000000000000e+00" itree="682">
      <Node pos="s" depth="0" NCoef="0" IVar="0" Cut="9.2843294143676758e+00" cType="1" res="3.2128999009728432e-03" rms="4.8774489760398865e-01" purity="5.0240123271942139e-01" nType="0">
        <Node pos="l" depth="1" NCoef="0" IVar="4" Cut="4.8848886042833328e-02" cType="1" res="7.4796257540583611e-03" rms="4.9158734083175659e-01" purity="5.0866794586181641e-01" nType="0">
          <Node pos="l" depth="2" NCoef="0" IVar="-1" Cut="0.0000000000000000e+00" cType="1" res="6.4983172342181206e-04" rms="4.9210569262504578e-01" purity="4.9707078933715820e-01" nType="-99"/>
          <Node pos="r" depth="2" NCoef="0" IVar="-1" Cut="0.0000000000000000e+00" cType="1" res="1.9913183059543371e-03" rms="4.9019703269004822e-01" purity="5.3820347785949707e-01" nType="-99"/>
        </Node>
        <Node pos="r" depth="1" NCoef="0" IVar="4" Cut="7.9605722427368164e-01" cType="1" res="-6.0990368947386742e-03" rms="4.7912001609802246e-01" purity="4.8872444033622742e-01" nType="0">
          <Node pos="l" depth="2" NCoef="0" IVar="-1" Cut="0.0000000000000000e+00" cType="1" res="-2.5512652937322855e-03" rms="4.8105707764625549e-01" purity="4.7767475247383118e-01" nType="-99"/>
          <Node pos="r" depth="2" NCoef="0" IVar="-1" Cut="0.0000000000000000e+00" cType="1" res="3.8982154801487923e-03" rms="4.6900624036788940e-01" purity="5.4247730970382690e-01" nType="-99"/>
        </Node>
      </Node>
    </BinaryTree>
    <BinaryTree type="DecisionTree" boostWeight="1.0000000000000000e+00" itree="683">
      <Node pos="s" depth="0" NCoef="0" IVar="4" Cut="-7.9886198043823242e-01" cType="1" res="-4.6088523231446743e-04" rms="4.8825690150260925e-01" purity="4.9903577566146851e-01" nType="0">
        <Node pos="l" depth="1" NCoef="0" IVar="4" Cut="-8.3466976881027222e-01" cType="1" res="-1.4525702223181725e-02" rms="4.8182395100593567e-01" purity="4.5306339859962463e-01" nType="0">
          <Node pos="l" depth="2" NCoef="0" IVar="-1" Cut="0.0000000000000000e+00" cType="1" res="-4.1278223507106304e-03" rms="4.7994676232337952e-01" purity="4.4328391551971436e-01" nType="-99"/>
          <Node pos="r" depth="2" NCoef="0" IVar="-1" Cut="0.0000000000000000e+00" cType="1" res="4.4344743946567178e-04" rms="4.8511877655982971e-01" purity="4.7274792194366455e-01" nType="-99"/>
        </Node>
        <Node pos="r" depth="1" NCoef="0" IVar="5" Cut="5.2947405725717545e-02" cType="1" res="1.9955339375883341e-03" rms="4.8933026194572449e-01" purity="5.0706481933593750e-01" nType="0">
          <Node pos="l" depth="2" NCoef="0" IVar="-1" Cut="0.0000000000000000e+00" cType="1" res="3.3324187825201079e-05" rms="4.8942026495933533e-01" purity="5.0337719917297363e-01" nType="-99"/>
          <Node pos="r" depth="2" NCoef="0" IVar="-1" Cut="0.0000000000000000e+00" cType="1" res="2.9862453229725361e-03" rms="4.8811951279640198e-01" purity="5.4280126094818115e-01" nType="-99"/>
        </Node>
      </Node>
    </BinaryTree>
    <BinaryTree type="DecisionTree" boostWeight="1.0000000000000000e+00" itree="684">
      <Node pos="s" depth="0" NCoef="0" IVar="3" Cut="-8.0175000429153442e-01" cType="1" res="5.3431559354066849e-03" rms="4.8769661784172058e-01" purity="5.0502729415893555e-01" nType="0">
        <Node pos="l" depth="1" NCoef="0" IVar="0" Cut="8.7609720230102539e+00" cType="1" res="-3.2800217159092426e-03" rms="4.8401129245758057e-01" purity="4.0379571914672852e-01" nType="0">
          <Node pos="l" depth="2" NCoef="0" IVar="-1" Cut="0.0000000000000000e+00" cType="1" res="-2.4828414898365736e-03" rms="4.9223873019218445e-01" purity="4.2334675788879395e-01" nType="-99"/>
          <Node pos="r" depth="2" NCoef="0" IVar="-1" Cut="0.0000000000000000e+00" cType="1" res="6.8796845152974129e-04" rms="4.8095238208770752e-01" purity="3.9704960584640503e-01" nType="-99"/>
        </Node>
        <Node pos="r" depth="1" NCoef="0" IVar="2" Cut="2.0000000000000000e+00" cType="1" res="-2.6195478858426213e-04" rms="3.6097321659326553e-02" purity="5.6428951025009155e-01" nType="0">
          <Node pos="l" depth="2" NCoef="0" IVar="-1" Cut="0.0000000000000000e+00" cType="1" res="8.6164590902626514e-04" rms="4.8852095007896423e-01" purity="5.6560760736465454e-01" nType="-99"/>
          <Node pos="r" depth="2" NCoef="0" IVar="-1" Cut="0.0000000000000000e+00" cType="1" res="2.7142839971929789e-03" rms="4.9131587147712708e-01" purity="5.6258279085159302e-01" nType="-99"/>
        </Node>
      </Node>
    </BinaryTree>
    <BinaryTree type="DecisionTree" boostWeight="1.0000000000000000e+00" itree="685">
      <Node pos="s" depth="0" NCoef="0" IVar="4" Cut="8.8987272977828979e-01" cType="1" res="1.2418446131050587e-03" rms="4.8845922946929932e-01" purity="5.0145560503005981e-01" nType="0">
        <Node pos="l" depth="1" NCoef="0" IVar="1" Cut="4.0000000000000000e+00" cType="1" res="-2.0426318224053830e-04" rms="1.6340295970439911e-01" purity="4.9858710169792175e-01" nType="0">
          <Node pos="l" depth="2" NCoef="0" IVar="-1" Cut="0.0000000000000000e+00" cType="1" res="3.1285887234844267e-04" rms="4.8922049999237061e-01" purity="4.9983367323875427e-01" nType="-99"/>
          <Node pos="r" depth="2" NCoef="0" IVar="-1" Cut="0.0000000000000000e+00" cType="1" res="-1.8322858959436417e-03" rms="4.8772633075714111e-01" purity="4.9032768607139587e-01" nType="-99"/>
        </Node>
        <Node pos="r" depth="1" NCoef="0" IVar="-1" Cut="0.0000000000000000e+00" cType="1" res="5.2825897000730038e-03" rms="4.7299617528915405e-01" purity="5.7231456041336060e-01" nType="-99"/>
      </Node>
    </BinaryTree>
    <BinaryTree type="DecisionTree" boostWeight="1.0000000000000000e+00" itree="686">
      <Node pos="s" depth="0" NCoef="0" IVar="0" Cut="8.6132850646972656e+00" cType="1" res="-2.4431203491985798e-03" rms="4.8800033330917358e-01" purity="4.9780550599098206e-01" nType="0">
        <Node pos="l" depth="1" NCoef="0" IVar="3" Cut="7.8702646493911743e-01" cType="1" res="-1.6025366261601448e-02" rms="4.9513068795204163e-01" purity="4.9136707186698914e-01" nType="0">
          <Node pos="l" depth="2" NCoef="0" IVar="-1" Cut="0.0000000000000000e+00" cType="1" res="-1.0279101552441716e-03" rms="4.9474945664405823e-01" purity="4.6535187959671021e-01" nType="-99"/>
          <Node pos="r" depth="2" NCoef="0" IVar="-1" Cut="0.0000000000000000e+00" cType="1" res="-2.8232363983988762e-03" rms="4.9557563662528992e-01" purity="5.3386074304580688e-01" nType="-99"/>
        </Node>
        <Node pos="r" depth="1" NCoef="0" IVar="0" Cut="9.6008367538452148e+00" cType="1" res="8.6451903916895390e-04" rms="4.8619064688682556e-01" purity="4.9937340617179871e-01" nType="0">
          <Node pos="l" depth="2" NCoef="0" IVar="-1" Cut="0.0000000000000000e+00" cType="1" res="-1.4280923642218113e-04" rms="4.8841923475265503e-01" purity="4.9867692589759827e-01" nType="-99"/>
          <Node pos="r" depth="2" NCoef="0" IVar="-1" Cut="0.0000000000000000e+00" cType="1" res="3.1256577931344509e-03" rms="4.7318693995475769e-01" purity="5.0333851575851440e-01" nType="-99"/>
        </Node>
      </Node>
    </BinaryTree>
    <BinaryTree type="DecisionTree" boostWeight="1.0000000000000000e+00" itree="687">
      <Node pos="s" depth="0" NCoef="0" IVar="3" Cut="-7.0772588253021240e-01" cType="1" res="-3.8574167992919683e-03" rms="4.8855197429656982e-01" purity="4.9681919813156128e-01" nType="0">
        <Node pos="l" depth="1" NCoef="0" IVar="3" Cut="-8.1030350923538208e-01" cType="1" res="1.0752340313047171e-03" rms="4.8821568489074707e-01" purity="4.2820739746093750e-01" nType="0">
          <Node pos="l" depth="2" NCoef="0" IVar="-1" Cut="0.0000000000000000e+00" cType="1" res="-4.5665769721381366e-04" rms="4.8378130793571472e-01" purity="4.0369352698326111e-01" nType="-99"/>
          <Node pos="r" depth="2" NCoef="0" IVar="-1" Cut="0.0000000000000000e+00" cType="1" res="1.5473485691472888e-03" rms="4.9912801384925842e-01" purity="4.9024614691734314e-01" nType="-99"/>
        </Node>
        <Node pos="r" depth="1" NCoef="0" IVar="3" Cut="8.3630394935607910e-01" cType="1" res="-8.6661847308278084e-03" rms="4.8883166909217834e-01" purity="5.6370788812637329e-01" nType="0">
          <Node pos="l" depth="2" NCoef="0" IVar="-1" Cut="0.0000000000000000e+00" cType="1" res="-3.0146916396915913e-03" rms="4.9906072020530701e-01" purity="5.0047212839126587e-01" nType="-99"/>
          <Node pos="r" depth="2" NCoef="0" IVar="-1" Cut="0.0000000000000000e+00" cType="1" res="-1.1524908768478781e-04" rms="4.8201262950897217e-01" purity="6.0410803556442261e-01" nType="-99"/>
        </Node>
      </Node>
    </BinaryTree>
    <BinaryTree type="DecisionTree" boostWeight="1.0000000000000000e+00" itree="688">
      <Node pos="s" depth="0" NCoef="0" IVar="0" Cut="9.2262859344482422e+00" cType="1" res="-4.2249611578881741e-03" rms="4.8773100972175598e-01" purity="4.9559718370437622e-01" nType="0">
        <Node pos="l" depth="1" NCoef="0" IVar="3" Cut="-8.9376157522201538e-01" cType="1" res="-1.0795419802889228e-03" rms="4.9100568890571594e-01" purity="5.0020742416381836e-01" nType="0">
          <Node pos="l" depth="2" NCoef="0" IVar="-1" Cut="0.0000000000000000e+00" cType="1" res="-1.8986042123287916e-03" rms="4.7483921051025391e-01" purity="3.6267548799514771e-01" nType="-99"/>
          <Node pos="r" depth="2" NCoef="0" IVar="-1" Cut="0.0000000000000000e+00" cType="1" res="1.6140825755428523e-04" rms="4.9391719698905945e-01" purity="5.2576005458831787e-01" nType="-99"/>
        </Node>
        <Node pos="r" depth="1" NCoef="0" IVar="0" Cut="9.6261434555053711e+00" cType="1" res="-9.7586307674646378e-03" rms="4.8186606168746948e-01" purity="4.8748645186424255e-01" nType="0">
          <Node pos="l" depth="2" NCoef="0" IVar="-1" Cut="0.0000000000000000e+00" cType="1" res="-3.2694633118808270e-03" rms="4.8462256789207458e-01" purity="4.8449027538299561e-01" nType="-99"/>
          <Node pos="r" depth="2" NCoef="0" IVar="-1" Cut="0.0000000000000000e+00" cType="1" res="5.3088692948222160e-04" rms="4.7545489668846130e-01" purity="4.9417284131050110e-01" nType="-99"/>
        </Node>
      </Node>
    </BinaryTree>
    <BinaryTree type="DecisionTree" boostWeight="1.0000000000000000e+00" itree="689">
      <Node pos="s" depth="0" NCoef="0" IVar="0" Cut="8.1255083084106445e+00" cType="1" res="1.4976290985941887e-03" rms="4.8823881149291992e-01" purity="5.0190669298171997e-01" nType="0">
        <Node pos="l" depth="1" NCoef="0" IVar="-1" Cut="0.0000000000000000e+00" cType="1" res="2.0264480262994766e-03" rms="4.9817907810211182e-01" purity="5.1411598920822144e-01" nType="-99"/>
        <Node pos="r" depth="1" NCoef="0" IVar="0" Cut="9.1521348953247070e+00" cType="1" res="5.4307183017954230e-04" rms="4.8773947358131409e-01" purity="5.0132483243942261e-01" nType="0">
          <Node pos="l" depth="2" NCoef="0" IVar="-1" Cut="0.0000000000000000e+00" cType="1" res="-3.7432156386785209e-04" rms="4.9148094654083252e-01" purity="4.9955010414123535e-01" nType="-99"/>
          <Node pos="r" depth="2" NCoef="0" IVar="-1" Cut="0.0000000000000000e+00" cType="1" res="1.1336198076605797e-03" rms="4.8288536071777344e-01" purity="5.0359070301055908e-01" nType="-99"/>
        </Node>
      </Node>
    </BinaryTree>
    <BinaryTree type="DecisionTree" boostWeight="1.0000000000000000e+00" itree="690">
      <Node pos="s" depth="0" NCoef="0" IVar="3" Cut="-7.0772588253021240e-01" cType="1" res="8.9976558228954673e-04" rms="4.8891645669937134e-01" purity="5.0088733434677124e-01" nType="0">
        <Node pos="l" depth="1" NCoef="0" IVar="0" Cut="8.3451976776123047e+00" cType="1" res="7.3564085178077221e-03" rms="4.8859119415283203e-01" purity="4.3377384543418884e-01" nType="0">
          <Node pos="l" depth="2" NCoef="0" IVar="-1" Cut="0.0000000000000000e+00" cType="1" res="3.0967546626925468e-03" rms="4.9903419613838196e-01" purity="4.9887832999229431e-01" nType="-99"/>
          <Node pos="r" depth="2" NCoef="0" IVar="-1" Cut="0.0000000000000000e+00" cType="1" res="8.5161539027467370e-04" rms="4.8746860027313232e-01" purity="4.2722013592720032e-01" nType="-99"/>
        </Node>
        <Node pos="r" depth="1" NCoef="0" IVar="3" Cut="8.4922444820404053e-01" cType="1" res="-5.3997258655726910e-03" rms="4.8915147781372070e-01" purity="5.6636732816696167e-01" nType="0">
          <Node pos="l" depth="2" NCoef="0" IVar="-1" Cut="0.0000000000000000e+00" cType="1" res="-1.9452347187325358e-03" rms="4.9904328584671021e-01" purity="5.1018393039703369e-01" nType="-99"/>
          <Node pos="r" depth="2" NCoef="0" IVar="-1" Cut="0.0000000000000000e+00" cType="1" res="1.8488778732717037e-04" rms="4.8101750016212463e-01" purity="6.1118167638778687e-01" nType="-99"/>
        </Node>
      </Node>
    </BinaryTree>
    <BinaryTree type="DecisionTree" boostWeight="1.0000000000000000e+00" itree="691">
      <Node pos="s" depth="0" NCoef="0" IVar="1" Cut="2.0000000000000000e+00" cType="1" res="-7.5196538819000125e-04" rms="3.4487313032150269e-01" purity="4.9838879704475403e-01" nType="0">
        <Node pos="l" depth="1" NCoef="0" IVar="3" Cut="-8.0080133676528931e-01" cType="1" res="5.9591275639832020e-03" rms="4.8936617374420166e-01" purity="5.0757861137390137e-01" nType="0">
          <Node pos="l" depth="2" NCoef="0" IVar="-1" Cut="0.0000000000000000e+00" cType="1" res="-1.0633742203935981e-03" rms="4.8486682772636414e-01" purity="4.0001556277275085e-01" nType="-99"/>
          <Node pos="r" depth="2" NCoef="0" IVar="-1" Cut="0.0000000000000000e+00" cType="1" res="1.8403208814561367e-03" rms="4.9139636754989624e-01" purity="5.5910634994506836e-01" nType="-99"/>
        </Node>
        <Node pos="r" depth="1" NCoef="0" IVar="5" Cut="4.6946011483669281e-02" cType="1" res="-4.6786144375801086e-03" rms="4.8768144845962524e-01" purity="4.9462905526161194e-01" nType="0">
          <Node pos="l" depth="2" NCoef="0" IVar="-1" Cut="0.0000000000000000e+00" cType="1" res="-1.0729075875133276e-03" rms="4.8800653219223022e-01" purity="4.9097436666488647e-01" nType="-99"/>
          <Node pos="r" depth="2" NCoef="0" IVar="-1" Cut="0.0000000000000000e+00" cType="1" res="1.0848991805687547e-03" rms="4.8580238223075867e-01" purity="5.1398670673370361e-01" nType="-99"/>
        </Node>
      </Node>
    </BinaryTree>
    <BinaryTree type="DecisionTree" boostWeight="1.0000000000000000e+00" itree="692">
      <Node pos="s" depth="0" NCoef="0" IVar="0" Cut="8.2616081237792969e+00" cType="1" res="-1.8476965487934649e-04" rms="4.8855295777320862e-01" purity="4.9992701411247253e-01" nType="0">
        <Node pos="l" depth="1" NCoef="0" IVar="-1" Cut="0.0000000000000000e+00" cType="1" res="-2.3364671505987644e-03" rms="4.9770653247833252e-01" purity="4.6813902258872986e-01" nType="-99"/>
        <Node pos="r" depth="1" NCoef="0" IVar="5" Cut="7.8923612833023071e-01" cType="1" res="1.7198564019054174e-03" rms="4.8778241872787476e-01" purity="5.0239884853363037e-01" nType="0">
          <Node pos="l" depth="2" NCoef="0" IVar="-1" Cut="0.0000000000000000e+00" cType="1" res="4.5937323011457920e-04" rms="4.8778077960014343e-01" purity="5.0222134590148926e-01" nType="-99"/>
          <Node pos="r" depth="2" NCoef="0" IVar="-1" Cut="0.0000000000000000e+00" cType="1" res="-2.8699063695967197e-03" rms="4.8746275901794434e-01" purity="5.0544208288192749e-01" nType="-99"/>
        </Node>
      </Node>
    </BinaryTree>
    <BinaryTree type="DecisionTree" boostWeight="1.0000000000000000e+00" itree="693">
      <Node pos="s" depth="0" NCoef="0" IVar="5" Cut="5.1539145410060883e-02" cType="1" res="-7.1369024226441979e-04" rms="4.8813447356224060e-01" purity="4.9860292673110962e-01" nType="0">
        <Node pos="l" depth="1" NCoef="0" IVar="1" Cut="5.0000000000000000e+00" cType="1" res="4.8726025852374732e-04" rms="1.6362266242504120e-01" purity="4.9565750360488892e-01" nType="0">
          <Node pos="l" depth="2" NCoef="0" IVar="-1" Cut="0.0000000000000000e+00" cType="1" res="-5.5394746595993638e-04" rms="4.8866647481918335e-01" purity="4.9419364333152771e-01" nType="-99"/>
          <Node pos="r" depth="2" NCoef="0" IVar="-1" Cut="0.0000000000000000e+00" cType="1" res="3.7162334192544222e-03" rms="4.8855346441268921e-01" purity="5.3245234489440918e-01" nType="-99"/>
        </Node>
        <Node pos="r" depth="1" NCoef="0" IVar="5" Cut="8.3084762096405029e-01" cType="1" res="1.1268294416368008e-02" rms="4.8412188887596130e-01" purity="5.1895624399185181e-01" nType="0">
          <Node pos="l" depth="2" NCoef="0" IVar="-1" Cut="0.0000000000000000e+00" cType="1" res="2.7779382653534412e-03" rms="4.8527845740318298e-01" purity="5.1761174201965332e-01" nType="-99"/>
          <Node pos="r" depth="2" NCoef="0" IVar="-1" Cut="0.0000000000000000e+00" cType="1" res="-1.1892160400748253e-03" rms="4.8004829883575439e-01" purity="5.2314609289169312e-01" nType="-99"/>
        </Node>
      </Node>
    </BinaryTree>
    <BinaryTree type="DecisionTree" boostWeight="1.0000000000000000e+00" itree="694">
      <Node pos="s" depth="0" NCoef="0" IVar="5" Cut="-6.8794143199920654e-01" cType="1" res="4.7027533873915672e-03" rms="4.8797109723091125e-01" purity="5.0395053625106812e-01" nType="0">
        <Node pos="l" depth="1" NCoef="0" IVar="5" Cut="-7.5507038831710815e-01" cType="1" res="-1.0909548960626125e-02" rms="4.8527476191520691e-01" purity="4.8515489697456360e-01" nType="0">
          <Node pos="l" depth="2" NCoef="0" IVar="-1" Cut="0.0000000000000000e+00" cType="1" res="-3.5543919075280428e-03" rms="4.8604592680931091e-01" purity="4.7363755106925964e-01" nType="-99"/>
          <Node pos="r" depth="2" NCoef="0" IVar="-1" Cut="0.0000000000000000e+00" cType="1" res="2.5682351551949978e-03" rms="4.8241707682609558e-01" purity="5.1246112585067749e-01" nType="-99"/>
        </Node>
        <Node pos="r" depth="1" NCoef="0" IVar="0" Cut="8.3125705718994141e+00" cType="1" res="6.9621796719729900e-03" rms="4.8831871151924133e-01" purity="5.0667065382003784e-01" nType="0">
          <Node pos="l" depth="2" NCoef="0" IVar="-1" Cut="0.0000000000000000e+00" cType="1" res="2.0153019577264786e-03" rms="4.9758461117744446e-01" purity="5.1675701141357422e-01" nType="-99"/>
          <Node pos="r" depth="2" NCoef="0" IVar="-1" Cut="0.0000000000000000e+00" cType="1" res="9.5832627266645432e-04" rms="4.8742341995239258e-01" purity="5.0572723150253296e-01" nType="-99"/>
        </Node>
      </Node>
    </BinaryTree>
    <BinaryTree type="DecisionTree" boostWeight="1.0000000000000000e+00" itree="695">
      <Node pos="s" depth="0" NCoef="0" IVar="1" Cut="2.0000000000000000e+00" cType="1" res="-1.3724288437515497e-03" rms="2.6968428492546082e-01" purity="5.0062960386276245e-01" nType="0">
        <Node pos="l" depth="1" NCoef="0" IVar="4" Cut="-6.9937455654144287e-01" cType="1" res="-1.0833453387022018e-02" rms="4.8987653851509094e-01" purity="4.9219980835914612e-01" nType="0">
          <Node pos="l" depth="2" NCoef="0" IVar="-1" Cut="0.0000000000000000e+00" cType="1" res="3.7452103570103645e-03" rms="4.8902821540832520e-01" purity="5.0454676151275635e-01" nType="-99"/>
          <Node pos="r" depth="2" NCoef="0" IVar="-1" Cut="0.0000000000000000e+00" cType="1" res="-2.6980754919350147e-03" rms="4.8975360393524170e-01" purity="4.8998597264289856e-01" nType="-99"/>
        </Node>
        <Node pos="r" depth="1" NCoef="0" IVar="3" Cut="-8.0082267522811890e-01" cType="1" res="4.5657809823751450e-03" rms="4.8659536242485046e-01" purity="5.0411021709442139e-01" nType="0">
          <Node pos="l" depth="2" NCoef="0" IVar="-1" Cut="0.0000000000000000e+00" cType="1" res="-4.0287742740474641e-04" rms="4.8387956619262695e-01" purity="4.0604659914970398e-01" nType="-99"/>
          <Node pos="r" depth="2" NCoef="0" IVar="-1" Cut="0.0000000000000000e+00" cType="1" res="1.4260567259043455e-03" rms="4.8823827505111694e-01" purity="5.6555378437042236e-01" nType="-99"/>
        </Node>
      </Node>
    </BinaryTree>
    <BinaryTree type="DecisionTree" boostWeight="1.0000000000000000e+00" itree="696">
      <Node pos="s" depth="0" NCoef="0" IVar="1" Cut="3.0000000000000000e+00" cType="1" res="3.7188568967394531e-04" rms="2.4153414368629456e-01" purity="5.0400269031524658e-01" nType="0">
        <Node pos="l" depth="1" NCoef="0" IVar="0" Cut="8.4392223358154297e+00" cType="1" res="2.2828810324426740e-04" rms="4.8837846517562866e-01" purity="4.9897316098213196e-01" nType="0">
          <Node pos="l" depth="2" NCoef="0" IVar="-1" Cut="0.0000000000000000e+00" cType="1" res="1.5158681198954582e-03" rms="4.9788433313369751e-01" purity="5.1701843738555908e-01" nType="-99"/>
          <Node pos="r" depth="2" NCoef="0" IVar="-1" Cut="0.0000000000000000e+00" cType="1" res="-3.3974408870562911e-04" rms="4.8695993423461914e-01" purity="4.9638319015502930e-01" nType="-99"/>
        </Node>
        <Node pos="r" depth="1" NCoef="0" IVar="0" Cut="8.7321720123291016e+00" cType="1" res="1.2139782309532166e-02" rms="4.8632282018661499e-01" purity="5.1335990428924561e-01" nType="0">
          <Node pos="l" depth="2" NCoef="0" IVar="-1" Cut="0.0000000000000000e+00" cType="1" res="-6.8122230004519224e-04" rms="4.8900625109672546e-01" purity="5.0065809488296509e-01" nType="-99"/>
          <Node pos="r" depth="2" NCoef="0" IVar="-1" Cut="0.0000000000000000e+00" cType="1" res="3.4613197203725576e-03" rms="4.8527938127517700e-01" purity="5.1755678653717041e-01" nType="-99"/>
        </Node>
      </Node>
    </BinaryTree>
    <BinaryTree type="DecisionTree" boostWeight="1.0000000000000000e+00" itree="697">
      <Node pos="s" depth="0" NCoef="0" IVar="3" Cut="8.9700859785079956e-01" cType="1" res="-2.9500827658921480e-03" rms="4.8900151252746582e-01" purity="4.9823126196861267e-01" nType="0">
        <Node pos="l" depth="1" NCoef="0" IVar="1" Cut="2.0000000000000000e+00" cType="1" res="7.1575545007362962e-04" rms="1.7121398448944092e-01" purity="4.6984609961509705e-01" nType="0">
          <Node pos="l" depth="2" NCoef="0" IVar="-1" Cut="0.0000000000000000e+00" cType="1" res="1.2942656176164746e-03" rms="4.9404552578926086e-01" purity="4.8665142059326172e-01" nType="-99"/>
          <Node pos="r" depth="2" NCoef="0" IVar="-1" Cut="0.0000000000000000e+00" cType="1" res="-7.3643773794174194e-04" rms="4.9115240573883057e-01" purity="4.6224695444107056e-01" nType="-99"/>
        </Node>
        <Node pos="r" depth="1" NCoef="0" IVar="1" Cut="2.0000000000000000e+00" cType="1" res="-8.1300009042024612e-03" rms="3.5431262850761414e-01" purity="6.3340818881988525e-01" nType="0">
          <Node pos="l" depth="2" NCoef="0" IVar="-1" Cut="0.0000000000000000e+00" cType="1" res="-1.0380166582763195e-02" rms="4.7753301262855530e-01" purity="6.1449086666107178e-01" nType="-99"/>
          <Node pos="r" depth="2" NCoef="0" IVar="-1" Cut="0.0000000000000000e+00" cType="1" res="-5.2790908375754952e-04" rms="4.7214192152023315e-01" purity="6.3883364200592041e-01" nType="-99"/>
        </Node>
      </Node>
    </BinaryTree>
    <BinaryTree type="DecisionTree" boostWeight="1.0000000000000000e+00" itree="698">
      <Node pos="s" depth="0" NCoef="0" IVar="4" Cut="4.6157244592905045e-02" cType="1" res="-2.3494781926274300e-03" rms="4.8846065998077393e-01" purity="4.9707475304603577e-01" nType="0">
        <Node pos="l" depth="1" NCoef="0" IVar="0" Cut="8.6575946807861328e+00" cType="1" res="2.1547426003962755e-03" rms="4.8908802866935730e-01" purity="4.9164059758186340e-01" nType="0">
          <Node pos="l" depth="2" NCoef="0" IVar="-1" Cut="0.0000000000000000e+00" cType="1" res="-8.7364256614819169e-04" rms="4.9487552046775818e-01" purity="4.8745253682136536e-01" nType="-99"/>
          <Node pos="r" depth="2" NCoef="0" IVar="-1" Cut="0.0000000000000000e+00" cType="1" res="9.5077842706814408e-04" rms="4.8735931515693665e-01" purity="4.9285221099853516e-01" nType="-99"/>
        </Node>
        <Node pos="r" depth="1" NCoef="0" IVar="0" Cut="9.5293884277343750e+00" cType="1" res="-1.3882510364055634e-02" rms="4.8666056990623474e-01" purity="5.1098901033401489e-01" nType="0">
          <Node pos="l" depth="2" NCoef="0" IVar="-1" Cut="0.0000000000000000e+00" cType="1" res="-1.6491697169840336e-03" rms="4.8846229910850525e-01" purity="5.1496016979217529e-01" nType="-99"/>
          <Node pos="r" depth="2" NCoef="0" IVar="-1" Cut="0.0000000000000000e+00" cType="1" res="-9.1077787801623344e-03" rms="4.7613394260406494e-01" purity="4.8878413438796997e-01" nType="-99"/>
        </Node>
      </Node>
    </BinaryTree>
    <BinaryTree type="DecisionTree" boostWeight="1.0000000000000000e+00" itree="699">
      <Node pos="s" depth="0" NCoef="0" IVar="1" Cut="2.0000000000000000e+00" cType="1" res="3.1775125535205007e-04" rms="2.5172799825668335e-01" purity="4.9813771247863770e-01" nType="0">
        <Node pos="l" depth="1" NCoef="0" IVar="3" Cut="-8.0091953277587891e-01" cType="1" res="7.6755168847739697e-03" rms="4.8827919363975525e-01" purity="5.1001179218292236e-01" nType="0">
          <Node pos="l" depth="2" NCoef="0" IVar="-1" Cut="0.0000000000000000e+00" cType="1" res="-1.2739544035866857e-03" rms="4.8438304662704468e-01" purity="3.9946284890174866e-01" nType="-99"/>
          <Node pos="r" depth="2" NCoef="0" IVar="-1" Cut="0.0000000000000000e+00" cType="1" res="2.4035614915192127e-03" rms="4.9002683162689209e-01" purity="5.6544739007949829e-01" nType="-99"/>
        </Node>
        <Node pos="r" depth="1" NCoef="0" IVar="4" Cut="-7.9649960994720459e-01" cType="1" res="-5.9356479905545712e-03" rms="4.8716914653778076e-01" purity="4.9322593212127686e-01" nType="0">
          <Node pos="l" depth="2" NCoef="0" IVar="-1" Cut="0.0000000000000000e+00" cType="1" res="-2.9819211922585964e-03" rms="4.7870647907257080e-01" purity="4.4700267910957336e-01" nType="-99"/>
          <Node pos="r" depth="2" NCoef="0" IVar="-1" Cut="0.0000000000000000e+00" cType="1" res="-5.4450787138193846e-04" rms="4.8898026347160339e-01" purity="5.0341653823852539e-01" nType="-99"/>
        </Node>
      </Node>
    </BinaryTree>
    <BinaryTree type="DecisionTree" boostWeight="1.0000000000000000e+00" itree="700">
      <Node pos="s" depth="0" NCoef="0" IVar="4" Cut="8.9240539073944092e-01" cType="1" res="-6.0571538051590323e-04" rms="4.8876687884330750e-01" purity="5.0001233816146851e-01" nType="0">
        <Node pos="l" depth="1" NCoef="0" IVar="4" Cut="-8.9573830366134644e-01" cType="1" res="4.2507506441324949e-04" rms="4.8915857076644897e-01" purity="4.9931812286376953e-01" nType="0">
          <Node pos="l" depth="2" NCoef="0" IVar="-1" Cut="0.0000000000000000e+00" cType="1" res="-4.9345120787620544e-03" rms="4.7196760773658752e-01" purity="4.3151906132698059e-01" nType="-99"/>
          <Node pos="r" depth="2" NCoef="0" IVar="-1" Cut="0.0000000000000000e+00" cType="1" res="2.2189175069797784e-04" rms="4.8977446556091309e-01" purity="5.0190079212188721e-01" nType="-99"/>
        </Node>
        <Node pos="r" depth="1" NCoef="0" IVar="-1" Cut="0.0000000000000000e+00" cType="1" res="-5.0299898721277714e-03" rms="4.7794470191001892e-01" purity="5.1767683029174805e-01" nType="-99"/>
      </Node>
    </BinaryTree>
    <BinaryTree type="DecisionTree" boostWeight="1.0000000000000000e+00" itree="701">
      <Node pos="s" depth="0" NCoef="0" IVar="4" Cut="7.9865670204162598e-01" cType="1" res="-8.7766151409596205e-04" rms="4.8776128888130188e-01" purity="4.9934968352317810e-01" nType="0">
        <Node pos="l" depth="1" NCoef="0" IVar="4" Cut="-7.2915792465209961e-01" cType="1" res="-2.2517857141792774e-03" rms="4.8878961801528931e-01" purity="4.9223786592483521e-01" nType="0">
          <Node pos="l" depth="2" NCoef="0" IVar="-1" Cut="0.0000000000000000e+00" cType="1" res="-1.1251795804128051e-03" rms="4.8327443003654480e-01" purity="4.6845510601997375e-01" nType="-99"/>
          <Node pos="r" depth="2" NCoef="0" IVar="-1" Cut="0.0000000000000000e+00" cType="1" res="-3.8193938962649554e-05" rms="4.9113753437995911e-01" purity="5.0250351428985596e-01" nType="-99"/>
        </Node>
        <Node pos="r" depth="1" NCoef="0" IVar="4" Cut="9.0587520599365234e-01" cType="1" res="6.7423470318317413e-03" rms="4.8194792866706848e-01" purity="5.3878700733184814e-01" nType="0">
          <Node pos="l" depth="2" NCoef="0" IVar="-1" Cut="0.0000000000000000e+00" cType="1" res="1.7985509475693107e-04" rms="4.8624870181083679e-01" purity="5.3415220975875854e-01" nType="-99"/>
          <Node pos="r" depth="2" NCoef="0" IVar="-1" Cut="0.0000000000000000e+00" cType="1" res="6.5771853551268578e-03" rms="4.5861256122589111e-01" purity="5.6213682889938354e-01" nType="-99"/>
        </Node>
      </Node>
    </BinaryTree>
    <BinaryTree type="DecisionTree" boostWeight="1.0000000000000000e+00" itree="702">
      <Node pos="s" depth="0" NCoef="0" IVar="0" Cut="9.4277935028076172e+00" cType="1" res="1.9085208186879754e-03" rms="4.8802566528320312e-01" purity="5.0100022554397583e-01" nType="0">
        <Node pos="l" depth="1" NCoef="0" IVar="5" Cut="-7.8273791074752808e-01" cType="1" res="4.5432993210852146e-03" rms="4.9127227067947388e-01" purity="5.0558406114578247e-01" nType="0">
          <Node pos="l" depth="2" NCoef="0" IVar="-1" Cut="0.0000000000000000e+00" cType="1" res="3.6868802271783352e-03" rms="4.9132156372070312e-01" purity="5.2156156301498413e-01" nType="-99"/>
          <Node pos="r" depth="2" NCoef="0" IVar="-1" Cut="0.0000000000000000e+00" cType="1" res="4.8148154746741056e-04" rms="4.9124413728713989e-01" purity="5.0461363792419434e-01" nType="-99"/>
        </Node>
        <Node pos="r" depth="1" NCoef="0" IVar="3" Cut="8.9630240201950073e-01" cType="1" res="-7.8808004036545753e-03" rms="4.7564131021499634e-01" purity="4.8396947979927063e-01" nType="0">
          <Node pos="l" depth="2" NCoef="0" IVar="-1" Cut="0.0000000000000000e+00" cType="1" res="-3.2413026783615351e-03" rms="4.8181450366973877e-01" purity="4.2680090665817261e-01" nType="-99"/>
          <Node pos="r" depth="2" NCoef="0" IVar="-1" Cut="0.0000000000000000e+00" cType="1" res="3.0433170031756163e-03" rms="4.5210805535316467e-01" purity="6.9110828638076782e-01" nType="-99"/>
        </Node>
      </Node>
    </BinaryTree>
    <BinaryTree type="DecisionTree" boostWeight="1.0000000000000000e+00" itree="703">
      <Node pos="s" depth="0" NCoef="0" IVar="0" Cut="9.6356678009033203e+00" cType="1" res="-1.0045880917459726e-03" rms="4.8821312189102173e-01" purity="4.9941354990005493e-01" nType="0">
        <Node pos="l" depth="1" NCoef="0" IVar="4" Cut="-8.8688552379608154e-01" cType="1" res="-2.3488770239055157e-03" rms="4.8969164490699768e-01" purity="4.9901527166366577e-01" nType="0">
          <Node pos="l" depth="2" NCoef="0" IVar="-1" Cut="0.0000000000000000e+00" cType="1" res="3.6298576742410660e-03" rms="4.7630488872528076e-01" purity="4.7864514589309692e-01" nType="-99"/>
          <Node pos="r" depth="2" NCoef="0" IVar="-1" Cut="0.0000000000000000e+00" cType="1" res="-4.9375178059563041e-04" rms="4.9019193649291992e-01" purity="4.9982577562332153e-01" nType="-99"/>
        </Node>
        <Node pos="r" depth="1" NCoef="0" IVar="4" Cut="-7.0025497674942017e-01" cType="1" res="1.0394927114248276e-02" rms="4.7533795237541199e-01" purity="5.0279080867767334e-01" nType="0">
          <Node pos="l" depth="2" NCoef="0" IVar="-1" Cut="0.0000000000000000e+00" cType="1" res="2.7052327641285956e-04" rms="4.6986520290374756e-01" purity="4.6882253885269165e-01" nType="-99"/>
          <Node pos="r" depth="2" NCoef="0" IVar="-1" Cut="0.0000000000000000e+00" cType="1" res="4.0856963023543358e-03" rms="4.7729411721229553e-01" purity="5.1533043384552002e-01" nType="-99"/>
        </Node>
      </Node>
    </BinaryTree>
    <BinaryTree type="DecisionTree" boostWeight="1.0000000000000000e+00" itree="704">
      <Node pos="s" depth="0" NCoef="0" IVar="3" Cut="8.9632523059844971e-01" cType="1" res="5.7758754119277000e-03" rms="4.8825114965438843e-01" purity="5.0587606430053711e-01" nType="0">
        <Node pos="l" depth="1" NCoef="0" IVar="3" Cut="-7.2089248895645142e-01" cType="1" res="8.5696196183562279e-03" rms="4.9183720350265503e-01" purity="4.7764831781387329e-01" nType="0">
          <Node pos="l" depth="2" NCoef="0" IVar="-1" Cut="0.0000000000000000e+00" cType="1" res="7.6829444151371717e-04" rms="4.8865690827369690e-01" purity="4.3112558126449585e-01" nType="-99"/>
          <Node pos="r" depth="2" NCoef="0" IVar="-1" Cut="0.0000000000000000e+00" cType="1" res="2.0769364200532436e-03" rms="4.9647289514541626e-01" purity="5.4675686359405518e-01" nType="-99"/>
        </Node>
        <Node pos="r" depth="1" NCoef="0" IVar="1" Cut="2.0000000000000000e+00" cType="1" res="-9.1974269598722458e-03" rms="4.2391219735145569e-01" purity="6.3885033130645752e-01" nType="0">
          <Node pos="l" depth="2" NCoef="0" IVar="-1" Cut="0.0000000000000000e+00" cType="1" res="-7.7084330841898918e-03" rms="4.7440007328987122e-01" purity="6.2243819236755371e-01" nType="-99"/>
          <Node pos="r" depth="2" NCoef="0" IVar="-1" Cut="0.0000000000000000e+00" cType="1" res="3.7989861448295414e-04" rms="4.6929556131362915e-01" purity="6.4356797933578491e-01" nType="-99"/>
        </Node>
      </Node>
    </BinaryTree>
    <BinaryTree type="DecisionTree" boostWeight="1.0000000000000000e+00" itree="705">
      <Node pos="s" depth="0" NCoef="0" IVar="4" Cut="-8.9126771688461304e-01" cType="1" res="-5.5346265526168281e-07" rms="4.8802727460861206e-01" purity="5.0069886445999146e-01" nType="0">
        <Node pos="l" depth="1" NCoef="0" IVar="-1" Cut="0.0000000000000000e+00" cType="1" res="6.5422793850302696e-03" rms="4.6971365809440613e-01" purity="4.8761683702468872e-01" nType="-99"/>
        <Node pos="r" depth="1" NCoef="0" IVar="3" Cut="8.9695680141448975e-01" cType="1" res="-1.2514815898612142e-03" rms="4.8865753412246704e-01" purity="5.0119024515151978e-01" nType="0">
          <Node pos="l" depth="2" NCoef="0" IVar="-1" Cut="0.0000000000000000e+00" cType="1" res="-4.4841418275609612e-04" rms="4.9275541305541992e-01" purity="4.7104901075363159e-01" nType="-99"/>
          <Node pos="r" depth="2" NCoef="0" IVar="-1" Cut="0.0000000000000000e+00" cType="1" res="1.4334606239572167e-03" rms="4.6590515971183777e-01" purity="6.6325801610946655e-01" nType="-99"/>
        </Node>
      </Node>
    </BinaryTree>
    <BinaryTree type="DecisionTree" boostWeight="1.0000000000000000e+00" itree="706">
      <Node pos="s" depth="0" NCoef="0" IVar="0" Cut="8.9110679626464844e+00" cType="1" res="-2.9741597827523947e-03" rms="4.8857074975967407e-01" purity="4.9697956442832947e-01" nType="0">
        <Node pos="l" depth="1" NCoef="0" IVar="3" Cut="-7.9350423812866211e-01" cType="1" res="5.6979446671903133e-03" rms="4.9510022997856140e-01" purity="5.0715100765228271e-01" nType="0">
          <Node pos="l" depth="2" NCoef="0" IVar="-1" Cut="0.0000000000000000e+00" cType="1" res="2.6996433734893799e-03" rms="4.9490720033645630e-01" purity="4.5839267969131470e-01" nType="-99"/>
          <Node pos="r" depth="2" NCoef="0" IVar="-1" Cut="0.0000000000000000e+00" cType="1" res="-4.3840298894792795e-04" rms="4.9495986104011536e-01" purity="5.3535711765289307e-01" nType="-99"/>
        </Node>
        <Node pos="r" depth="1" NCoef="0" IVar="5" Cut="5.2202232182025909e-02" cType="1" res="-8.2653444260358810e-03" rms="4.8446738719940186e-01" purity="4.9077358841896057e-01" nType="0">
          <Node pos="l" depth="2" NCoef="0" IVar="-1" Cut="0.0000000000000000e+00" cType="1" res="-1.1191952507942915e-03" rms="4.8472583293914795e-01" purity="4.9259179830551147e-01" nType="-99"/>
          <Node pos="r" depth="2" NCoef="0" IVar="-1" Cut="0.0000000000000000e+00" cType="1" res="-5.5899168364703655e-03" rms="4.8233497142791748e-01" purity="4.7860839962959290e-01" nType="-99"/>
        </Node>
      </Node>
    </BinaryTree>
    <BinaryTree type="DecisionTree" boostWeight="1.0000000000000000e+00" itree="707">
      <Node pos="s" depth="0" NCoef="0" IVar="0" Cut="8.3125705718994141e+00" cType="1" res="2.6204099413007498e-04" rms="4.8728969693183899e-01" purity="5.0028938055038452e-01" nType="0">
        <Node pos="l" depth="1" NCoef="0" IVar="-1" Cut="0.0000000000000000e+00" cType="1" res="-1.1845155386254191e-03" rms="4.9781638383865356e-01" purity="4.8835641145706177e-01" nType="-99"/>
        <Node pos="r" depth="1" NCoef="0" IVar="4" Cut="7.9837298393249512e-01" cType="1" res="1.4096768572926521e-03" rms="4.8625740408897400e-01" purity="5.0142848491668701e-01" nType="0">
          <Node pos="l" depth="2" NCoef="0" IVar="-1" Cut="0.0000000000000000e+00" cType="1" res="4.9742060946300626e-04" rms="4.8700562119483948e-01" purity="4.9619397521018982e-01" nType="-99"/>
          <Node pos="r" depth="2" NCoef="0" IVar="-1" Cut="0.0000000000000000e+00" cType="1" res="-1.2704653199762106e-03" rms="4.8211640119552612e-01" purity="5.2963936328887939e-01" nType="-99"/>
        </Node>
      </Node>
    </BinaryTree>
    <BinaryTree type="DecisionTree" boostWeight="1.0000000000000000e+00" itree="708">
      <Node pos="s" depth="0" NCoef="0" IVar="3" Cut="-8.0189293622970581e-01" cType="1" res="-2.6251989766024053e-04" rms="4.8929560184478760e-01" purity="4.9922010302543640e-01" nType="0">
        <Node pos="l" depth="1" NCoef="0" IVar="5" Cut="5.2947405725717545e-02" cType="1" res="1.2179957702755928e-02" rms="4.8551344871520996e-01" purity="4.1902205348014832e-01" nType="0">
          <Node pos="l" depth="2" NCoef="0" IVar="-1" Cut="0.0000000000000000e+00" cType="1" res="1.2000043643638492e-03" rms="4.8452711105346680e-01" purity="4.1203016042709351e-01" nType="-99"/>
          <Node pos="r" depth="2" NCoef="0" IVar="-1" Cut="0.0000000000000000e+00" cType="1" res="5.6942510418593884e-03" rms="4.8947191238403320e-01" purity="4.5218741893768311e-01" nType="-99"/>
        </Node>
        <Node pos="r" depth="1" NCoef="0" IVar="5" Cut="-7.8430336713790894e-01" cType="1" res="-7.6174573041498661e-03" rms="4.9136945605278015e-01" purity="5.4662638902664185e-01" nType="0">
          <Node pos="l" depth="2" NCoef="0" IVar="-1" Cut="0.0000000000000000e+00" cType="1" res="-7.8226085752248764e-03" rms="4.9481058120727539e-01" purity="5.4223716259002686e-01" nType="-99"/>
          <Node pos="r" depth="2" NCoef="0" IVar="-1" Cut="0.0000000000000000e+00" cType="1" res="-9.2355994274839759e-04" rms="4.9113428592681885e-01" purity="5.4684102535247803e-01" nType="-99"/>
        </Node>
      </Node>
    </BinaryTree>
    <BinaryTree type="DecisionTree" boostWeight="1.0000000000000000e+00" itree="709">
      <Node pos="s" depth="0" NCoef="0" IVar="0" Cut="8.4343557357788086e+00" cType="1" res="-3.2269628718495369e-03" rms="4.8851537704467773e-01" purity="4.9660527706146240e-01" nType="0">
        <Node pos="l" depth="1" NCoef="0" IVar="2" Cut="2.0000000000000000e+00" cType="1" res="-8.0274470383301377e-04" rms="5.4271388798952103e-02" purity="4.7981920838356018e-01" nType="0">
          <Node pos="l" depth="2" NCoef="0" IVar="-1" Cut="0.0000000000000000e+00" cType="1" res="-3.1362206209450960e-03" rms="4.9616542458534241e-01" purity="4.7722777724266052e-01" nType="-99"/>
          <Node pos="r" depth="2" NCoef="0" IVar="-1" Cut="0.0000000000000000e+00" cType="1" res="-1.2262356467545033e-03" rms="4.9829587340354919e-01" purity="4.8332163691520691e-01" nType="-99"/>
        </Node>
        <Node pos="r" depth="1" NCoef="0" IVar="3" Cut="8.0139946937561035e-01" cType="1" res="-4.2839761590585113e-04" rms="4.8724797368049622e-01" purity="4.9890697002410889e-01" nType="0">
          <Node pos="l" depth="2" NCoef="0" IVar="-1" Cut="0.0000000000000000e+00" cType="1" res="5.6952197337523103e-04" rms="4.8961424827575684e-01" purity="4.4217690825462341e-01" nType="-99"/>
          <Node pos="r" depth="2" NCoef="0" IVar="-1" Cut="0.0000000000000000e+00" cType="1" res="-1.1972242500633001e-03" rms="4.8331868648529053e-01" purity="5.9098464250564575e-01" nType="-99"/>
        </Node>
      </Node>
    </BinaryTree>
    <BinaryTree type="DecisionTree" boostWeight="1.0000000000000000e+00" itree="710">
      <Node pos="s" depth="0" NCoef="0" IVar="1" Cut="5.0000000000000000e+00" cType="1" res="-5.9386767679825425e-04" rms="1.5959958732128143e-01" purity="5.0063264369964600e-01" nType="0">
        <Node pos="l" depth="1" NCoef="0" IVar="2" Cut="3.0000000000000000e+00" cType="1" res="-1.8050802464131266e-04" rms="2.9880631715059280e-02" purity="4.9805426597595215e-01" nType="0">
          <Node pos="l" depth="2" NCoef="0" IVar="-1" Cut="0.0000000000000000e+00" cType="1" res="-3.0555497505702078e-04" rms="4.8929515480995178e-01" purity="4.9494248628616333e-01" nType="-99"/>
          <Node pos="r" depth="2" NCoef="0" IVar="-1" Cut="0.0000000000000000e+00" cType="1" res="3.1856314744800329e-03" rms="4.8919069766998291e-01" purity="5.2277451753616333e-01" nType="-99"/>
        </Node>
        <Node pos="r" depth="1" NCoef="0" IVar="-1" Cut="0.0000000000000000e+00" cType="1" res="4.8446892760694027e-03" rms="4.8426213860511780e-01" purity="5.5324012041091919e-01" nType="-99"/>
      </Node>
    </BinaryTree>
    <BinaryTree type="DecisionTree" boostWeight="1.0000000000000000e+00" itree="711">
      <Node pos="s" depth="0" NCoef="0" IVar="1" Cut="2.0000000000000000e+00" cType="1" res="1.4655878767371178e-03" rms="3.3515417575836182e-01" purity="5.0283384323120117e-01" nType="0">
        <Node pos="l" depth="1" NCoef="0" IVar="4" Cut="-6.9812846183776855e-01" cType="1" res="-3.9937580004334450e-03" rms="4.8900389671325684e-01" purity="4.9547591805458069e-01" nType="0">
          <Node pos="l" depth="2" NCoef="0" IVar="-1" Cut="0.0000000000000000e+00" cType="1" res="2.5801705196499825e-03" rms="4.8465865850448608e-01" purity="4.9605199694633484e-01" nType="-99"/>
          <Node pos="r" depth="2" NCoef="0" IVar="-1" Cut="0.0000000000000000e+00" cType="1" res="-1.2655237223953009e-03" rms="4.8972246050834656e-01" purity="4.9536591768264771e-01" nType="-99"/>
        </Node>
        <Node pos="r" depth="1" NCoef="0" IVar="0" Cut="9.6812582015991211e+00" cType="1" res="6.3817342743277550e-03" rms="4.8787429928779602e-01" purity="5.0580352544784546e-01" nType="0">
          <Node pos="l" depth="2" NCoef="0" IVar="-1" Cut="0.0000000000000000e+00" cType="1" res="1.2917502317577600e-03" rms="4.8939809203147888e-01" purity="5.0815582275390625e-01" nType="-99"/>
          <Node pos="r" depth="2" NCoef="0" IVar="-1" Cut="0.0000000000000000e+00" cType="1" res="-4.2302380315959454e-03" rms="4.7179684042930603e-01" purity="4.8212105035781860e-01" nType="-99"/>
        </Node>
      </Node>
    </BinaryTree>
    <BinaryTree type="DecisionTree" boostWeight="1.0000000000000000e+00" itree="712">
      <Node pos="s" depth="0" NCoef="0" IVar="1" Cut="2.0000000000000000e+00" cType="1" res="2.1051820367574692e-03" rms="2.3238348960876465e-01" purity="5.0105524063110352e-01" nType="0">
        <Node pos="l" depth="1" NCoef="0" IVar="3" Cut="-7.0590472221374512e-01" cType="1" res="1.0503819212317467e-02" rms="4.8995047807693481e-01" purity="5.1196664571762085e-01" nType="0">
          <Node pos="l" depth="2" NCoef="0" IVar="-1" Cut="0.0000000000000000e+00" cType="1" res="4.3054184061475098e-04" rms="4.9083983898162842e-01" purity="4.3610545992851257e-01" nType="-99"/>
          <Node pos="r" depth="2" NCoef="0" IVar="-1" Cut="0.0000000000000000e+00" cType="1" res="2.8353251982480288e-03" rms="4.8895877599716187e-01" purity="5.8636188507080078e-01" nType="-99"/>
        </Node>
        <Node pos="r" depth="1" NCoef="0" IVar="1" Cut="4.0000000000000000e+00" cType="1" res="2.3385326494462788e-04" rms="1.6579782962799072e-01" purity="4.9660128355026245e-01" nType="0">
          <Node pos="l" depth="2" NCoef="0" IVar="-1" Cut="0.0000000000000000e+00" cType="1" res="-1.0011696722358465e-03" rms="4.8780027031898499e-01" purity="4.9120786786079407e-01" nType="-99"/>
          <Node pos="r" depth="2" NCoef="0" IVar="-1" Cut="0.0000000000000000e+00" cType="1" res="1.9647306762635708e-03" rms="4.8804724216461182e-01" purity="5.1864129304885864e-01" nType="-99"/>
        </Node>
      </Node>
    </BinaryTree>
    <BinaryTree type="DecisionTree" boostWeight="1.0000000000000000e+00" itree="713">
      <Node pos="s" depth="0" NCoef="0" IVar="1" Cut="5.0000000000000000e+00" cType="1" res="-1.1370803695172071e-03" rms="3.0696088075637817e-01" purity="5.0019109249114990e-01" nType="0">
        <Node pos="l" depth="1" NCoef="0" IVar="3" Cut="-8.9553654193878174e-01" cType="1" res="9.4668206293135881e-04" rms="4.8742103576660156e-01" purity="5.0060009956359863e-01" nType="0">
          <Node pos="l" depth="2" NCoef="0" IVar="-1" Cut="0.0000000000000000e+00" cType="1" res="-1.6280073905363679e-03" rms="4.6596035361289978e-01" purity="3.4034541249275208e-01" nType="-99"/>
          <Node pos="r" depth="2" NCoef="0" IVar="-1" Cut="0.0000000000000000e+00" cType="1" res="4.5931449858471751e-04" rms="4.9162569642066956e-01" purity="5.3302937746047974e-01" nType="-99"/>
        </Node>
        <Node pos="r" depth="1" NCoef="0" IVar="-1" Cut="0.0000000000000000e+00" cType="1" res="-4.1448595002293587e-03" rms="4.8846170306205750e-01" purity="4.9198296666145325e-01" nType="-99"/>
      </Node>
    </BinaryTree>
    <BinaryTree type="DecisionTree" boostWeight="1.0000000000000000e+00" itree="714">
      <Node pos="s" depth="0" NCoef="0" IVar="0" Cut="8.5932102203369141e+00" cType="1" res="2.9703110922127962e-03" rms="4.8762053251266479e-01" purity="5.0208097696304321e-01" nType="0">
        <Node pos="l" depth="1" NCoef="0" IVar="3" Cut="-7.9156672954559326e-01" cType="1" res="1.9421953707933426e-02" rms="4.9539279937744141e-01" purity="5.2463585138320923e-01" nType="0">
          <Node pos="l" depth="2" NCoef="0" IVar="-1" Cut="0.0000000000000000e+00" cType="1" res="3.3956300467252731e-03" rms="4.9781075119972229e-01" purity="4.8653772473335266e-01" nType="-99"/>
          <Node pos="r" depth="2" NCoef="0" IVar="-1" Cut="0.0000000000000000e+00" cType="1" res="1.2521345634013414e-03" rms="4.9386730790138245e-01" purity="5.4641950130462646e-01" nType="-99"/>
        </Node>
        <Node pos="r" depth="1" NCoef="0" IVar="4" Cut="-7.0235341787338257e-01" cType="1" res="-7.7744608279317617e-04" rms="4.8575466871261597e-01" purity="4.9694296717643738e-01" nType="0">
          <Node pos="l" depth="2" NCoef="0" IVar="-1" Cut="0.0000000000000000e+00" cType="1" res="-2.1365527063608170e-03" rms="4.8236343264579773e-01" purity="4.6086791157722473e-01" nType="-99"/>
          <Node pos="r" depth="2" NCoef="0" IVar="-1" Cut="0.0000000000000000e+00" cType="1" res="5.9557793429121375e-04" rms="4.8697471618652344e-01" purity="5.1065599918365479e-01" nType="-99"/>
        </Node>
      </Node>
    </BinaryTree>
    <BinaryTree type="DecisionTree" boostWeight="1.0000000000000000e+00" itree="715">
      <Node pos="s" depth="0" NCoef="0" IVar="1" Cut="2.0000000000000000e+00" cType="1" res="-7.7370110375341028e-05" rms="2.7475979924201965e-01" purity="4.9968472123146057e-01" nType="0">
        <Node pos="l" depth="1" NCoef="0" IVar="0" Cut="8.8231172561645508e+00" cType="1" res="-1.3500300236046314e-02" rms="4.9001789093017578e-01" purity="4.8833626508712769e-01" nType="0">
          <Node pos="l" depth="2" NCoef="0" IVar="-1" Cut="0.0000000000000000e+00" cType="1" res="-4.4124745763838291e-03" rms="4.9646461009979248e-01" purity="4.6666601300239563e-01" nType="-99"/>
          <Node pos="r" depth="2" NCoef="0" IVar="-1" Cut="0.0000000000000000e+00" cType="1" res="-1.6092917940113693e-04" rms="4.8638102412223816e-01" purity="4.9875402450561523e-01" nType="-99"/>
        </Node>
        <Node pos="r" depth="1" NCoef="0" IVar="0" Cut="8.3375482559204102e+00" cType="1" res="4.9145929515361786e-03" rms="4.8810991644859314e-01" purity="5.0430667400360107e-01" nType="0">
          <Node pos="l" depth="2" NCoef="0" IVar="-1" Cut="0.0000000000000000e+00" cType="1" res="3.4092371352016926e-03" rms="4.9701398611068726e-01" purity="5.3530579805374146e-01" nType="-99"/>
          <Node pos="r" depth="2" NCoef="0" IVar="-1" Cut="0.0000000000000000e+00" cType="1" res="3.3595811692066491e-04" rms="4.8710802197456360e-01" purity="5.0119030475616455e-01" nType="-99"/>
        </Node>
      </Node>
    </BinaryTree>
    <BinaryTree type="DecisionTree" boostWeight="1.0000000000000000e+00" itree="716">
      <Node pos="s" depth="0" NCoef="0" IVar="0" Cut="9.1424016952514648e+00" cType="1" res="-5.1047634333372116e-03" rms="4.8867696523666382e-01" purity="4.9438861012458801e-01" nType="0">
        <Node pos="l" depth="1" NCoef="0" IVar="3" Cut="-7.9958128929138184e-01" cType="1" res="-8.2350354641675949e-03" rms="4.9248707294464111e-01" purity="4.9317055940628052e-01" nType="0">
          <Node pos="l" depth="2" NCoef="0" IVar="-1" Cut="0.0000000000000000e+00" cType="1" res="1.0044229566119611e-04" rms="4.8942807316780090e-01" purity="4.3043488264083862e-01" nType="-99"/>
          <Node pos="r" depth="2" NCoef="0" IVar="-1" Cut="0.0000000000000000e+00" cType="1" res="-1.7045226413756609e-03" rms="4.9416506290435791e-01" purity="5.2928477525711060e-01" nType="-99"/>
        </Node>
        <Node pos="r" depth="1" NCoef="0" IVar="4" Cut="7.9871094226837158e-01" cType="1" res="-1.0192666668444872e-03" rms="4.8362851142883301e-01" purity="4.9597838521003723e-01" nType="0">
          <Node pos="l" depth="2" NCoef="0" IVar="-1" Cut="0.0000000000000000e+00" cType="1" res="4.9894984113052487e-04" rms="4.8579645156860352e-01" purity="4.9252837896347046e-01" nType="-99"/>
          <Node pos="r" depth="2" NCoef="0" IVar="-1" Cut="0.0000000000000000e+00" cType="1" res="-4.4066486880183220e-03" rms="4.7200113534927368e-01" purity="5.1367568969726562e-01" nType="-99"/>
        </Node>
      </Node>
    </BinaryTree>
    <BinaryTree type="DecisionTree" boostWeight="1.0000000000000000e+00" itree="717">
      <Node pos="s" depth="0" NCoef="0" IVar="3" Cut="-8.0208969116210938e-01" cType="1" res="8.3824346074834466e-04" rms="4.8830723762512207e-01" purity="5.0132375955581665e-01" nType="0">
        <Node pos="l" depth="1" NCoef="0" IVar="3" Cut="-8.7401980161666870e-01" cType="1" res="6.5519418567419052e-03" rms="4.8465806245803833e-01" purity="4.1431623697280884e-01" nType="0">
          <Node pos="l" depth="2" NCoef="0" IVar="-1" Cut="0.0000000000000000e+00" cType="1" res="-3.6715721944347024e-04" rms="4.7518655657768250e-01" purity="3.7195417284965515e-01" nType="-99"/>
          <Node pos="r" depth="2" NCoef="0" IVar="-1" Cut="0.0000000000000000e+00" cType="1" res="2.9340644832700491e-03" rms="4.9834349751472473e-01" purity="4.7832053899765015e-01" nType="-99"/>
        </Node>
        <Node pos="r" depth="1" NCoef="0" IVar="0" Cut="8.9062356948852539e+00" cType="1" res="-2.5030311662703753e-03" rms="4.9039775133132935e-01" purity="5.5220431089401245e-01" nType="0">
          <Node pos="l" depth="2" NCoef="0" IVar="-1" Cut="0.0000000000000000e+00" cType="1" res="-1.3763994211331010e-03" rms="4.9491670727729797e-01" purity="5.2737456560134888e-01" nType="-99"/>
          <Node pos="r" depth="2" NCoef="0" IVar="-1" Cut="0.0000000000000000e+00" cType="1" res="6.7808607127517462e-04" rms="4.8744264245033264e-01" purity="5.6780922412872314e-01" nType="-99"/>
        </Node>
      </Node>
    </BinaryTree>
    <BinaryTree type="DecisionTree" boostWeight="1.0000000000000000e+00" itree="718">
      <Node pos="s" depth="0" NCoef="0" IVar="2" Cut="2.0000000000000000e+00" cType="1" res="-2.5549347628839314e-04" rms="3.5272106528282166e-02" purity="4.9798834323883057e-01" nType="0">
        <Node pos="l" depth="1" NCoef="0" IVar="0" Cut="8.4704437255859375e+00" cType="1" res="2.5096843019127846e-03" rms="4.8661631345748901e-01" purity="5.0161695480346680e-01" nType="0">
          <Node pos="l" depth="2" NCoef="0" IVar="-1" Cut="0.0000000000000000e+00" cType="1" res="2.4374888744205236e-03" rms="4.9730387330055237e-01" purity="5.3629297018051147e-01" nType="-99"/>
          <Node pos="r" depth="2" NCoef="0" IVar="-1" Cut="0.0000000000000000e+00" cType="1" res="-1.7291892436333001e-04" rms="4.8480924963951111e-01" purity="4.9612855911254883e-01" nType="-99"/>
        </Node>
        <Node pos="r" depth="1" NCoef="0" IVar="1" Cut="4.0000000000000000e+00" cType="1" res="-2.1893477533012629e-03" rms="1.8958535790443420e-01" purity="4.9309480190277100e-01" nType="0">
          <Node pos="l" depth="2" NCoef="0" IVar="-1" Cut="0.0000000000000000e+00" cType="1" res="-1.2163347564637661e-03" rms="4.8968964815139771e-01" purity="4.9631786346435547e-01" nType="-99"/>
          <Node pos="r" depth="2" NCoef="0" IVar="-1" Cut="0.0000000000000000e+00" cType="1" res="-5.0619146786630154e-03" rms="4.8889437317848206e-01" purity="4.6837571263313293e-01" nType="-99"/>
        </Node>
      </Node>
    </BinaryTree>
    <BinaryTree type="DecisionTree" boostWeight="1.0000000000000000e+00" itree="719">
      <Node pos="s" depth="0" NCoef="0" IVar="1" Cut="2.0000000000000000e+00" cType="1" res="-1.5843699220567942e-03" rms="2.7322649955749512e-01" purity="4.9725863337516785e-01" nType="0">
        <Node pos="l" depth="1" NCoef="0" IVar="0" Cut="9.0261573791503906e+00" cType="1" res="5.7332017458975315e-03" rms="4.8917016386985779e-01" purity="5.0578689575195312e-01" nType="0">
          <Node pos="l" depth="2" NCoef="0" IVar="-1" Cut="0.0000000000000000e+00" cType="1" res="1.8905707402154803e-03" rms="4.9476402997970581e-01" purity="5.1678806543350220e-01" nType="-99"/>
          <Node pos="r" depth="2" NCoef="0" IVar="-1" Cut="0.0000000000000000e+00" cType="1" res="-6.1672023730352521e-04" rms="4.8385393619537354e-01" purity="4.9576637148857117e-01" nType="-99"/>
        </Node>
        <Node pos="r" depth="1" NCoef="0" IVar="0" Cut="8.8072624206542969e+00" cType="1" res="-5.7808752171695232e-03" rms="4.8744496703147888e-01" purity="4.9377501010894775e-01" nType="0">
          <Node pos="l" depth="2" NCoef="0" IVar="-1" Cut="0.0000000000000000e+00" cType="1" res="-1.3994268374517560e-03" rms="4.9335899949073792e-01" purity="4.9224135279655457e-01" nType="-99"/>
          <Node pos="r" depth="2" NCoef="0" IVar="-1" Cut="0.0000000000000000e+00" cType="1" res="-5.5615749442949891e-04" rms="4.8481282591819763e-01" purity="4.9444425106048584e-01" nType="-99"/>
        </Node>
      </Node>
    </BinaryTree>
    <BinaryTree type="DecisionTree" boostWeight="1.0000000000000000e+00" itree="720">
      <Node pos="s" depth="0" NCoef="0" IVar="3" Cut="-8.0208969116210938e-01" cType="1" res="2.4141378235071898e-03" rms="4.8781472444534302e-01" purity="5.0115466117858887e-01" nType="0">
        <Node pos="l" depth="1" NCoef="0" IVar="5" Cut="5.2947405725717545e-02" cType="1" res="-3.5931589081883430e-03" rms="4.8290780186653137e-01" purity="4.0370845794677734e-01" nType="0">
          <Node pos="l" depth="2" NCoef="0" IVar="-1" Cut="0.0000000000000000e+00" cType="1" res="-1.3554723700508475e-03" rms="4.8122602701187134e-01" purity="3.9694911241531372e-01" nType="-99"/>
          <Node pos="r" depth="2" NCoef="0" IVar="-1" Cut="0.0000000000000000e+00" cType="1" res="2.8840289451181889e-03" rms="4.9031254649162292e-01" purity="4.3623155355453491e-01" nType="-99"/>
        </Node>
        <Node pos="r" depth="1" NCoef="0" IVar="5" Cut="4.3968029320240021e-02" cType="1" res="5.9346989728510380e-03" rms="4.9063342809677124e-01" purity="5.5826276540756226e-01" nType="0">
          <Node pos="l" depth="2" NCoef="0" IVar="-1" Cut="0.0000000000000000e+00" cType="1" res="1.2412886135280132e-03" rms="4.9136698246002197e-01" purity="5.5542361736297607e-01" nType="-99"/>
          <Node pos="r" depth="2" NCoef="0" IVar="-1" Cut="0.0000000000000000e+00" cType="1" res="-2.1536143030971289e-03" rms="4.8357355594635010e-01" purity="5.8380079269409180e-01" nType="-99"/>
        </Node>
      </Node>
    </BinaryTree>
    <BinaryTree type="DecisionTree" boostWeight="1.0000000000000000e+00" itree="721">
      <Node pos="s" depth="0" NCoef="0" IVar="3" Cut="8.0117249488830566e-01" cType="1" res="1.0735502000898123e-03" rms="4.8869603872299194e-01" purity="5.0140047073364258e-01" nType="0">
        <Node pos="l" depth="1" NCoef="0" IVar="5" Cut="-7.7427905797958374e-01" cType="1" res="4.2811934836208820e-03" rms="4.9102416634559631e-01" purity="4.4937974214553833e-01" nType="0">
          <Node pos="l" depth="2" NCoef="0" IVar="-1" Cut="0.0000000000000000e+00" cType="1" res="-5.4485644213855267e-03" rms="4.7730284929275513e-01" purity="3.6305481195449829e-01" nType="-99"/>
          <Node pos="r" depth="2" NCoef="0" IVar="-1" Cut="0.0000000000000000e+00" cType="1" res="9.3383120838552713e-04" rms="4.9165672063827515e-01" purity="4.5387798547744751e-01" nType="-99"/>
        </Node>
        <Node pos="r" depth="1" NCoef="0" IVar="3" Cut="8.1913006305694580e-01" cType="1" res="-4.2194356210529804e-03" rms="4.8478350043296814e-01" purity="5.8724075555801392e-01" nType="0">
          <Node pos="l" depth="2" NCoef="0" IVar="-1" Cut="0.0000000000000000e+00" cType="1" res="-4.7035631723701954e-03" rms="4.9808675050735474e-01" purity="5.0312894582748413e-01" nType="-99"/>
          <Node pos="r" depth="2" NCoef="0" IVar="-1" Cut="0.0000000000000000e+00" cType="1" res="-2.5161032681353390e-04" rms="4.8339349031448364e-01" purity="5.9535372257232666e-01" nType="-99"/>
        </Node>
      </Node>
    </BinaryTree>
    <BinaryTree type="DecisionTree" boostWeight="1.0000000000000000e+00" itree="722">
      <Node pos="s" depth="0" NCoef="0" IVar="1" Cut="4.0000000000000000e+00" cType="1" res="-2.4364143610000610e-03" rms="3.9294523000717163e-01" purity="4.9690577387809753e-01" nType="0">
        <Node pos="l" depth="1" NCoef="0" IVar="1" Cut="3.0000000000000000e+00" cType="1" res="-8.5949075582902879e-05" rms="2.5739368051290512e-02" purity="4.9430617690086365e-01" nType="0">
          <Node pos="l" depth="2" NCoef="0" IVar="-1" Cut="0.0000000000000000e+00" cType="1" res="-2.4908434716053307e-04" rms="4.8862755298614502e-01" purity="4.9727252125740051e-01" nType="-99"/>
          <Node pos="r" depth="2" NCoef="0" IVar="-1" Cut="0.0000000000000000e+00" cType="1" res="-1.9323363667353988e-03" rms="4.8911905288696289e-01" purity="4.8498210310935974e-01" nType="-99"/>
        </Node>
        <Node pos="r" depth="1" NCoef="0" IVar="5" Cut="7.7387607097625732e-01" cType="1" res="5.9994771145284176e-03" rms="4.8666578531265259e-01" purity="5.1265525817871094e-01" nType="0">
          <Node pos="l" depth="2" NCoef="0" IVar="-1" Cut="0.0000000000000000e+00" cType="1" res="-4.1641842108219862e-04" rms="4.8804703354835510e-01" purity="5.0001120567321777e-01" nType="-99"/>
          <Node pos="r" depth="2" NCoef="0" IVar="-1" Cut="0.0000000000000000e+00" cType="1" res="6.1885970644652843e-03" rms="4.8069313168525696e-01" purity="5.5615001916885376e-01" nType="-99"/>
        </Node>
      </Node>
    </BinaryTree>
    <BinaryTree type="DecisionTree" boostWeight="1.0000000000000000e+00" itree="723">
      <Node pos="s" depth="0" NCoef="0" IVar="3" Cut="-8.0208969116210938e-01" cType="1" res="-1.0186848230659962e-03" rms="4.8785927891731262e-01" purity="4.9805915355682373e-01" nType="0">
        <Node pos="l" depth="1" NCoef="0" IVar="2" Cut="3.0000000000000000e+00" cType="1" res="1.1372253065928817e-03" rms="1.1711435765028000e-01" purity="4.1078653931617737e-01" nType="0">
          <Node pos="l" depth="2" NCoef="0" IVar="-1" Cut="0.0000000000000000e+00" cType="1" res="5.1267874368932098e-05" rms="4.8307755589485168e-01" purity="4.0537020564079285e-01" nType="-99"/>
          <Node pos="r" depth="2" NCoef="0" IVar="-1" Cut="0.0000000000000000e+00" cType="1" res="5.6826830841600895e-03" rms="4.9188289046287537e-01" purity="4.6104726195335388e-01" nType="-99"/>
        </Node>
        <Node pos="r" depth="1" NCoef="0" IVar="3" Cut="-7.1665972471237183e-01" cType="1" res="-3.6407189909368753e-03" rms="4.9006721377372742e-01" purity="5.4920512437820435e-01" nType="0">
          <Node pos="l" depth="2" NCoef="0" IVar="-1" Cut="0.0000000000000000e+00" cType="1" res="-3.2019740901887417e-03" rms="4.9797883629798889e-01" purity="4.6134790778160095e-01" nType="-99"/>
          <Node pos="r" depth="2" NCoef="0" IVar="-1" Cut="0.0000000000000000e+00" cType="1" res="1.2778484961017966e-04" rms="4.8802417516708374e-01" purity="5.7052308320999146e-01" nType="-99"/>
        </Node>
      </Node>
    </BinaryTree>
    <BinaryTree type="DecisionTree" boostWeight="1.0000000000000000e+00" itree="724">
      <Node pos="s" depth="0" NCoef="0" IVar="1" Cut="3.0000000000000000e+00" cType="1" res="-1.1986665194854140e-03" rms="3.1789138913154602e-01" purity="4.9935954809188843e-01" nType="0">
        <Node pos="l" depth="1" NCoef="0" IVar="4" Cut="7.9600012302398682e-01" cType="1" res="-3.9548692293465137e-03" rms="4.8819187283515930e-01" purity="4.9510693550109863e-01" nType="0">
          <Node pos="l" depth="2" NCoef="0" IVar="-1" Cut="0.0000000000000000e+00" cType="1" res="-3.5331584513187408e-04" rms="4.8923140764236450e-01" purity="4.9316012859344482e-01" nType="-99"/>
          <Node pos="r" depth="2" NCoef="0" IVar="-1" Cut="0.0000000000000000e+00" cType="1" res="-2.9256807174533606e-03" rms="4.7946345806121826e-01" purity="5.1088279485702515e-01" nType="-99"/>
        </Node>
        <Node pos="r" depth="1" NCoef="0" IVar="5" Cut="7.8990858793258667e-01" cType="1" res="5.8761541731655598e-03" rms="4.8740413784980774e-01" purity="5.0722897052764893e-01" nType="0">
          <Node pos="l" depth="2" NCoef="0" IVar="-1" Cut="0.0000000000000000e+00" cType="1" res="1.3438722817227244e-03" rms="4.8796838521957397e-01" purity="5.0799912214279175e-01" nType="-99"/>
          <Node pos="r" depth="2" NCoef="0" IVar="-1" Cut="0.0000000000000000e+00" cType="1" res="-1.9713565707206726e-03" rms="4.8338061571121216e-01" purity="5.0225162506103516e-01" nType="-99"/>
        </Node>
      </Node>
    </BinaryTree>
    <BinaryTree type="DecisionTree" boostWeight="1.0000000000000000e+00" itree="725">
      <Node pos="s" depth="0" NCoef="0" IVar="0" Cut="8.8463668823242188e+00" cType="1" res="-4.4518877984955907e-04" rms="4.8753830790519714e-01" purity="4.9803927540779114e-01" nType="0">
        <Node pos="l" depth="1" NCoef="0" IVar="4" Cut="-7.7961820363998413e-01" cType="1" res="-1.6079450026154518e-02" rms="4.9398583173751831e-01" purity="4.8605117201805115e-01" nType="0">
          <Node pos="l" depth="2" NCoef="0" IVar="-1" Cut="0.0000000000000000e+00" cType="1" res="-4.1223075240850449e-03" rms="4.8545378446578979e-01" purity="4.3401914834976196e-01" nType="-99"/>
          <Node pos="r" depth="2" NCoef="0" IVar="-1" Cut="0.0000000000000000e+00" cType="1" res="-1.3961684890091419e-03" rms="4.9553835391998291e-01" purity="4.9615284800529480e-01" nType="-99"/>
        </Node>
        <Node pos="r" depth="1" NCoef="0" IVar="5" Cut="-7.8181439638137817e-01" cType="1" res="7.2674602270126343e-03" rms="4.8414006829261780e-01" purity="5.0395321846008301e-01" nType="0">
          <Node pos="l" depth="2" NCoef="0" IVar="-1" Cut="0.0000000000000000e+00" cType="1" res="6.1257784254848957e-03" rms="4.8062396049499512e-01" purity="5.2088391780853271e-01" nType="-99"/>
          <Node pos="r" depth="2" NCoef="0" IVar="-1" Cut="0.0000000000000000e+00" cType="1" res="1.1599793797358871e-03" rms="4.8434576392173767e-01" purity="5.0279635190963745e-01" nType="-99"/>
        </Node>
      </Node>
    </BinaryTree>
    <BinaryTree type="DecisionTree" boostWeight="1.0000000000000000e+00" itree="726">
      <Node pos="s" depth="0" NCoef="0" IVar="0" Cut="8.3914346694946289e+00" cType="1" res="-2.7794239576905966e-03" rms="4.8844984173774719e-01" purity="4.9602109193801880e-01" nType="0">
        <Node pos="l" depth="1" NCoef="0" IVar="3" Cut="-7.0115649700164795e-01" cType="1" res="-2.3138320073485374e-02" rms="4.9504384398460388e-01" purity="4.7858378291130066e-01" nType="0">
          <Node pos="l" depth="2" NCoef="0" IVar="-1" Cut="0.0000000000000000e+00" cType="1" res="-3.1129401177167892e-03" rms="4.9491727352142334e-01" purity="4.3887978792190552e-01" nType="-99"/>
          <Node pos="r" depth="2" NCoef="0" IVar="-1" Cut="0.0000000000000000e+00" cType="1" res="-1.4440064551308751e-03" rms="4.9501520395278931e-01" purity="5.1785087585449219e-01" nType="-99"/>
        </Node>
        <Node pos="r" depth="1" NCoef="0" IVar="1" Cut="5.0000000000000000e+00" cType="1" res="1.5340912796091288e-04" rms="4.6612584590911865e-01" purity="4.9820646643638611e-01" nType="0">
          <Node pos="l" depth="2" NCoef="0" IVar="-1" Cut="0.0000000000000000e+00" cType="1" res="1.3511230645235628e-04" rms="4.8744359612464905e-01" purity="4.9820622801780701e-01" nType="-99"/>
          <Node pos="r" depth="2" NCoef="0" IVar="-1" Cut="0.0000000000000000e+00" cType="1" res="-3.5130851902067661e-03" rms="4.8937246203422546e-01" purity="4.9821022152900696e-01" nType="-99"/>
        </Node>
      </Node>
    </BinaryTree>
    <BinaryTree type="DecisionTree" boostWeight="1.0000000000000000e+00" itree="727">
      <Node pos="s" depth="0" NCoef="0" IVar="4" Cut="-8.9293968677520752e-01" cType="1" res="4.2540588765405118e-04" rms="4.8778015375137329e-01" purity="4.9968954920768738e-01" nType="0">
        <Node pos="l" depth="1" NCoef="0" IVar="-1" Cut="0.0000000000000000e+00" cType="1" res="-3.4092944115400314e-03" rms="4.7166547179222107e-01" purity="4.3730244040489197e-01" nType="-99"/>
        <Node pos="r" depth="1" NCoef="0" IVar="4" Cut="-7.1419811248779297e-01" cType="1" res="1.0993340983986855e-03" rms="4.8835873603820801e-01" purity="5.0201922655105591e-01" nType="0">
          <Node pos="l" depth="2" NCoef="0" IVar="-1" Cut="0.0000000000000000e+00" cType="1" res="1.4751403359696269e-03" rms="4.8691281676292419e-01" purity="4.8333784937858582e-01" nType="-99"/>
          <Node pos="r" depth="2" NCoef="0" IVar="-1" Cut="0.0000000000000000e+00" cType="1" res="-2.5503558572381735e-04" rms="4.8880088329315186e-01" purity="5.0813686847686768e-01" nType="-99"/>
        </Node>
      </Node>
    </BinaryTree>
    <BinaryTree type="DecisionTree" boostWeight="1.0000000000000000e+00" itree="728">
      <Node pos="s" depth="0" NCoef="0" IVar="0" Cut="8.7359209060668945e+00" cType="1" res="6.3914326019585133e-03" rms="4.8919796943664551e-01" purity="5.0616568326950073e-01" nType="0">
        <Node pos="l" depth="1" NCoef="0" IVar="4" Cut="4.5182634145021439e-02" cType="1" res="1.7195254564285278e-02" rms="4.9536156654357910e-01" purity="5.1909220218658447e-01" nType="0">
          <Node pos="l" depth="2" NCoef="0" IVar="-1" Cut="0.0000000000000000e+00" cType="1" res="1.0250657796859741e-03" rms="4.9636313319206238e-01" purity="5.0175493955612183e-01" nType="-99"/>
          <Node pos="r" depth="2" NCoef="0" IVar="-1" Cut="0.0000000000000000e+00" cType="1" res="4.2908904142677784e-03" rms="4.9200567603111267e-01" purity="5.6621211767196655e-01" nType="-99"/>
        </Node>
        <Node pos="r" depth="1" NCoef="0" IVar="2" Cut="3.0000000000000000e+00" cType="1" res="2.3753244895488024e-03" rms="4.5043522119522095e-01" purity="5.0162553787231445e-01" nType="0">
          <Node pos="l" depth="2" NCoef="0" IVar="-1" Cut="0.0000000000000000e+00" cType="1" res="9.4404979608952999e-04" rms="4.8631730675697327e-01" purity="5.0322002172470093e-01" nType="-99"/>
          <Node pos="r" depth="2" NCoef="0" IVar="-1" Cut="0.0000000000000000e+00" cType="1" res="-4.1920975781977177e-03" rms="4.9174737930297852e-01" purity="4.8836439847946167e-01" nType="-99"/>
        </Node>
      </Node>
    </BinaryTree>
    <BinaryTree type="DecisionTree" boostWeight="1.0000000000000000e+00" itree="729">
      <Node pos="s" depth="0" NCoef="0" IVar="0" Cut="8.2188844680786133e+00" cType="1" res="7.7345088357105851e-04" rms="4.8843684792518616e-01" purity="5.0060456991195679e-01" nType="0">
        <Node pos="l" depth="1" NCoef="0" IVar="-1" Cut="0.0000000000000000e+00" cType="1" res="2.2388987708836794e-03" rms="4.9824482202529907e-01" purity="5.1224106550216675e-01" nType="-99"/>
        <Node pos="r" depth="1" NCoef="0" IVar="5" Cut="7.9335129261016846e-01" cType="1" res="-7.3240045458078384e-04" rms="4.8772749304771423e-01" purity="4.9981480836868286e-01" nType="0">
          <Node pos="l" depth="2" NCoef="0" IVar="-1" Cut="0.0000000000000000e+00" cType="1" res="-2.9660123982466757e-04" rms="4.8803210258483887e-01" purity="4.9780765175819397e-01" nType="-99"/>
          <Node pos="r" depth="2" NCoef="0" IVar="-1" Cut="0.0000000000000000e+00" cType="1" res="3.1865877099335194e-03" rms="4.8184800148010254e-01" purity="5.3573852777481079e-01" nType="-99"/>
        </Node>
      </Node>
    </BinaryTree>
    <BinaryTree type="DecisionTree" boostWeight="1.0000000000000000e+00" itree="730">
      <Node pos="s" depth="0" NCoef="0" IVar="4" Cut="4.5382637530565262e-02" cType="1" res="2.3915448400657624e-04" rms="4.8840951919555664e-01" purity="4.9987018108367920e-01" nType="0">
        <Node pos="l" depth="1" NCoef="0" IVar="0" Cut="8.5010328292846680e+00" cType="1" res="4.1497088968753815e-03" rms="4.8888009786605835e-01" purity="4.9448883533477783e-01" nType="0">
          <Node pos="l" depth="2" NCoef="0" IVar="-1" Cut="0.0000000000000000e+00" cType="1" res="2.1326667629182339e-03" rms="4.9641260504722595e-01" purity="5.1915782690048218e-01" nType="-99"/>
          <Node pos="r" depth="2" NCoef="0" IVar="-1" Cut="0.0000000000000000e+00" cType="1" res="1.9116136536467820e-04" rms="4.8748970031738281e-01" purity="4.9018445611000061e-01" nType="-99"/>
        </Node>
        <Node pos="r" depth="1" NCoef="0" IVar="4" Cut="8.7069672346115112e-01" cType="1" res="-1.0002233088016510e-02" rms="4.8702618479728699e-01" purity="5.1396346092224121e-01" nType="0">
          <Node pos="l" depth="2" NCoef="0" IVar="-1" Cut="0.0000000000000000e+00" cType="1" res="-7.2899810038506985e-04" rms="4.8880207538604736e-01" purity="5.1658040285110474e-01" nType="-99"/>
          <Node pos="r" depth="2" NCoef="0" IVar="-1" Cut="0.0000000000000000e+00" cType="1" res="-5.4983203299343586e-03" rms="4.7972476482391357e-01" purity="5.0410026311874390e-01" nType="-99"/>
        </Node>
      </Node>
    </BinaryTree>
    <BinaryTree type="DecisionTree" boostWeight="1.0000000000000000e+00" itree="731">
      <Node pos="s" depth="0" NCoef="0" IVar="0" Cut="9.1080570220947266e+00" cType="1" res="-4.0049001108855009e-04" rms="4.8798289895057678e-01" purity="4.9914163351058960e-01" nType="0">
        <Node pos="l" depth="1" NCoef="0" IVar="5" Cut="7.6366043090820312e-01" cType="1" res="4.2234174907207489e-03" rms="4.9261903762817383e-01" purity="5.0615566968917847e-01" nType="0">
          <Node pos="l" depth="2" NCoef="0" IVar="-1" Cut="0.0000000000000000e+00" cType="1" res="8.6684868438169360e-04" rms="4.9294814467430115e-01" purity="5.0798231363296509e-01" nType="-99"/>
          <Node pos="r" depth="2" NCoef="0" IVar="-1" Cut="0.0000000000000000e+00" cType="1" res="-3.6671832203865051e-03" rms="4.8724129796028137e-01" purity="4.8307934403419495e-01" nType="-99"/>
        </Node>
        <Node pos="r" depth="1" NCoef="0" IVar="4" Cut="-7.9918682575225830e-01" cType="1" res="-5.7927337475121021e-03" rms="4.8246416449546814e-01" purity="4.9096211791038513e-01" nType="0">
          <Node pos="l" depth="2" NCoef="0" IVar="-1" Cut="0.0000000000000000e+00" cType="1" res="1.5553517732769251e-03" rms="4.7550764679908752e-01" purity="4.7482630610466003e-01" nType="-99"/>
          <Node pos="r" depth="2" NCoef="0" IVar="-1" Cut="0.0000000000000000e+00" cType="1" res="-1.8333623884245753e-03" rms="4.8376524448394775e-01" purity="4.9408912658691406e-01" nType="-99"/>
        </Node>
      </Node>
    </BinaryTree>
    <BinaryTree type="DecisionTree" boostWeight="1.0000000000000000e+00" itree="732">
      <Node pos="s" depth="0" NCoef="0" IVar="2" Cut="2.0000000000000000e+00" cType="1" res="-1.1902838014066219e-03" rms="1.7321586608886719e-01" purity="4.9521264433860779e-01" nType="0">
        <Node pos="l" depth="1" NCoef="0" IVar="1" Cut="2.0000000000000000e+00" cType="1" res="-5.9805391356348991e-03" rms="3.3937573432922363e-01" purity="4.8902750015258789e-01" nType="0">
          <Node pos="l" depth="2" NCoef="0" IVar="-1" Cut="0.0000000000000000e+00" cType="1" res="-2.8264278080314398e-03" rms="4.8647555708885193e-01" purity="4.7593864798545837e-01" nType="-99"/>
          <Node pos="r" depth="2" NCoef="0" IVar="-1" Cut="0.0000000000000000e+00" cType="1" res="-1.0166867868974805e-03" rms="4.8724526166915894e-01" purity="4.9396696686744690e-01" nType="-99"/>
        </Node>
        <Node pos="r" depth="1" NCoef="0" IVar="0" Cut="9.4310083389282227e+00" cType="1" res="2.9458776116371155e-03" rms="4.9074241518974304e-01" purity="5.0356799364089966e-01" nType="0">
          <Node pos="l" depth="2" NCoef="0" IVar="-1" Cut="0.0000000000000000e+00" cType="1" res="-2.2800928854849190e-04" rms="4.9258485436439514e-01" purity="5.0014138221740723e-01" nType="-99"/>
          <Node pos="r" depth="2" NCoef="0" IVar="-1" Cut="0.0000000000000000e+00" cType="1" res="5.6597082875669003e-03" rms="4.8321527242660522e-01" purity="5.1673120260238647e-01" nType="-99"/>
        </Node>
      </Node>
    </BinaryTree>
    <BinaryTree type="DecisionTree" boostWeight="1.0000000000000000e+00" itree="733">
      <Node pos="s" depth="0" NCoef="0" IVar="0" Cut="8.3375482559204102e+00" cType="1" res="-2.4359899107366800e-03" rms="4.8815554380416870e-01" purity="4.9612954258918762e-01" nType="0">
        <Node pos="l" depth="1" NCoef="0" IVar="3" Cut="-7.0115649700164795e-01" cType="1" res="-2.7438471093773842e-02" rms="4.9834433197975159e-01" purity="4.7113323211669922e-01" nType="0">
          <Node pos="l" depth="2" NCoef="0" IVar="-1" Cut="0.0000000000000000e+00" cType="1" res="-2.2791472729295492e-03" rms="4.9766787886619568e-01" purity="4.4610413908958435e-01" nType="-99"/>
          <Node pos="r" depth="2" NCoef="0" IVar="-1" Cut="0.0000000000000000e+00" cType="1" res="-3.1460840255022049e-03" rms="4.9899744987487793e-01" purity="4.9721315503120422e-01" nType="-99"/>
        </Node>
        <Node pos="r" depth="1" NCoef="0" IVar="0" Cut="8.6283788681030273e+00" cType="1" res="8.6487823864445090e-05" rms="4.8704451322555542e-01" purity="4.9865135550498962e-01" nType="0">
          <Node pos="l" depth="2" NCoef="0" IVar="-1" Cut="0.0000000000000000e+00" cType="1" res="3.1014103442430496e-03" rms="4.9186909198760986e-01" purity="5.4113841056823730e-01" nType="-99"/>
          <Node pos="r" depth="2" NCoef="0" IVar="-1" Cut="0.0000000000000000e+00" cType="1" res="-7.1502750506624579e-04" rms="4.8623791337013245e-01" purity="4.9274986982345581e-01" nType="-99"/>
        </Node>
      </Node>
    </BinaryTree>
    <BinaryTree type="DecisionTree" boostWeight="1.0000000000000000e+00" itree="734">
      <Node pos="s" depth="0" NCoef="0" IVar="0" Cut="8.4704437255859375e+00" cType="1" res="-8.7551306933164597e-04" rms="4.8849833011627197e-01" purity="4.9814197421073914e-01" nType="0">
        <Node pos="l" depth="1" NCoef="0" IVar="2" Cut="2.0000000000000000e+00" cType="1" res="-1.3338672579266131e-04" rms="8.2354750484228134e-03" purity="5.1879674196243286e-01" nType="0">
          <Node pos="l" depth="2" NCoef="0" IVar="-1" Cut="0.0000000000000000e+00" cType="1" res="2.9246690683066845e-03" rms="4.9489927291870117e-01" purity="5.3942042589187622e-01" nType="-99"/>
          <Node pos="r" depth="2" NCoef="0" IVar="-1" Cut="0.0000000000000000e+00" cType="1" res="-8.5989752551540732e-04" rms="4.9774524569511414e-01" purity="4.9150252342224121e-01" nType="-99"/>
        </Node>
        <Node pos="r" depth="1" NCoef="0" IVar="0" Cut="9.0267992019653320e+00" cType="1" res="-3.0452182982116938e-03" rms="4.8722869157791138e-01" purity="4.9497780203819275e-01" nType="0">
          <Node pos="l" depth="2" NCoef="0" IVar="-1" Cut="0.0000000000000000e+00" cType="1" res="-1.9545799586921930e-03" rms="4.9125090241432190e-01" purity="4.8426210880279541e-01" nType="-99"/>
          <Node pos="r" depth="2" NCoef="0" IVar="-1" Cut="0.0000000000000000e+00" cType="1" res="9.5810875063762069e-04" rms="4.8443233966827393e-01" purity="5.0199502706527710e-01" nType="-99"/>
        </Node>
      </Node>
    </BinaryTree>
    <BinaryTree type="DecisionTree" boostWeight="1.0000000000000000e+00" itree="735">
      <Node pos="s" depth="0" NCoef="0" IVar="4" Cut="4.5720644295215607e-02" cType="1" res="-2.3847902193665504e-03" rms="4.8874983191490173e-01" purity="4.9688902497291565e-01" nType="0">
        <Node pos="l" depth="1" NCoef="0" IVar="2" Cut="3.0000000000000000e+00" cType="1" res="-4.5573810348287225e-04" rms="1.7518347501754761e-01" purity="4.9093461036682129e-01" nType="0">
          <Node pos="l" depth="2" NCoef="0" IVar="-1" Cut="0.0000000000000000e+00" cType="1" res="4.2667094385251403e-04" rms="4.8968413472175598e-01" purity="4.9102666974067688e-01" nType="-99"/>
          <Node pos="r" depth="2" NCoef="0" IVar="-1" Cut="0.0000000000000000e+00" cType="1" res="-2.2930931299924850e-03" rms="4.8958799242973328e-01" purity="4.9023431539535522e-01" nType="-99"/>
        </Node>
        <Node pos="r" depth="1" NCoef="0" IVar="0" Cut="8.6538410186767578e+00" cType="1" res="-1.1069288477301598e-02" rms="4.8621669411659241e-01" purity="5.1208591461181641e-01" nType="0">
          <Node pos="l" depth="2" NCoef="0" IVar="-1" Cut="0.0000000000000000e+00" cType="1" res="-2.2815216798335314e-03" rms="4.9239769577980042e-01" purity="5.0760018825531006e-01" nType="-99"/>
          <Node pos="r" depth="2" NCoef="0" IVar="-1" Cut="0.0000000000000000e+00" cType="1" res="-1.5013075899332762e-03" rms="4.8444816470146179e-01" purity="5.1332634687423706e-01" nType="-99"/>
        </Node>
      </Node>
    </BinaryTree>
    <BinaryTree type="DecisionTree" boostWeight="1.0000000000000000e+00" itree="736">
      <Node pos="s" depth="0" NCoef="0" IVar="0" Cut="9.4886407852172852e+00" cType="1" res="1.9569888245314360e-03" rms="4.8842436075210571e-01" purity="5.0094312429428101e-01" nType="0">
        <Node pos="l" depth="1" NCoef="0" IVar="0" Cut="9.3137187957763672e+00" cType="1" res="-2.9370168340392411e-04" rms="4.9045667052268982e-01" purity="5.0007915496826172e-01" nType="0">
          <Node pos="l" depth="2" NCoef="0" IVar="-1" Cut="0.0000000000000000e+00" cType="1" res="2.7312937891110778e-04" rms="4.9143728613853455e-01" purity="5.0285780429840088e-01" nType="-99"/>
          <Node pos="r" depth="2" NCoef="0" IVar="-1" Cut="0.0000000000000000e+00" cType="1" res="-3.1672655604779720e-03" rms="4.8412299156188965e-01" purity="4.8292389512062073e-01" nType="-99"/>
        </Node>
        <Node pos="r" depth="1" NCoef="0" IVar="0" Cut="9.9258985519409180e+00" cType="1" res="1.2243787758052349e-02" rms="4.7889137268066406e-01" purity="5.0489175319671631e-01" nType="0">
          <Node pos="l" depth="2" NCoef="0" IVar="-1" Cut="0.0000000000000000e+00" cType="1" res="4.0594269521534443e-03" rms="4.8043099045753479e-01" purity="5.0901514291763306e-01" nType="-99"/>
          <Node pos="r" depth="2" NCoef="0" IVar="-1" Cut="0.0000000000000000e+00" cType="1" res="-1.4103567227721214e-03" rms="4.7132357954978943e-01" purity="4.8571348190307617e-01" nType="-99"/>
        </Node>
      </Node>
    </BinaryTree>
    <BinaryTree type="DecisionTree" boostWeight="1.0000000000000000e+00" itree="737">
      <Node pos="s" depth="0" NCoef="0" IVar="3" Cut="-8.0215638875961304e-01" cType="1" res="-1.3011047849431634e-03" rms="4.8853188753128052e-01" purity="4.9913513660430908e-01" nType="0">
        <Node pos="l" depth="1" NCoef="0" IVar="4" Cut="-7.9622668027877808e-01" cType="1" res="4.5073800720274448e-03" rms="4.8435571789741516e-01" purity="4.1267514228820801e-01" nType="0">
          <Node pos="l" depth="2" NCoef="0" IVar="-1" Cut="0.0000000000000000e+00" cType="1" res="-1.9390864763408899e-03" rms="4.6477279067039490e-01" purity="3.3258780837059021e-01" nType="-99"/>
          <Node pos="r" depth="2" NCoef="0" IVar="-1" Cut="0.0000000000000000e+00" cType="1" res="1.2033475795760751e-03" rms="4.8818290233612061e-01" purity="4.2895174026489258e-01" nType="-99"/>
        </Node>
        <Node pos="r" depth="1" NCoef="0" IVar="4" Cut="-7.9846090078353882e-01" cType="1" res="-4.6649249270558357e-03" rms="4.9090275168418884e-01" purity="5.4920607805252075e-01" nType="0">
          <Node pos="l" depth="2" NCoef="0" IVar="-1" Cut="0.0000000000000000e+00" cType="1" res="2.2935410961508751e-03" rms="4.8942196369171143e-01" purity="5.7007342576980591e-01" nType="-99"/>
          <Node pos="r" depth="2" NCoef="0" IVar="-1" Cut="0.0000000000000000e+00" cType="1" res="-1.1894247727468610e-03" rms="4.9107614159584045e-01" purity="5.4579138755798340e-01" nType="-99"/>
        </Node>
      </Node>
    </BinaryTree>
    <BinaryTree type="DecisionTree" boostWeight="1.0000000000000000e+00" itree="738">
      <Node pos="s" depth="0" NCoef="0" IVar="4" Cut="8.9252114295959473e-01" cType="1" res="-1.8994973506778479e-03" rms="4.8773074150085449e-01" purity="4.9678757786750793e-01" nType="0">
        <Node pos="l" depth="1" NCoef="0" IVar="3" Cut="8.0113250017166138e-01" cType="1" res="-3.1955344602465630e-03" rms="4.8818224668502808e-01" purity="4.9424046277999878e-01" nType="0">
          <Node pos="l" depth="2" NCoef="0" IVar="-1" Cut="0.0000000000000000e+00" cType="1" res="-1.0902271606028080e-03" rms="4.8938030004501343e-01" purity="4.3772596120834351e-01" nType="-99"/>
          <Node pos="r" depth="2" NCoef="0" IVar="-1" Cut="0.0000000000000000e+00" cType="1" res="5.4335966706275940e-04" rms="4.8610311746597290e-01" purity="5.8876073360443115e-01" nType="-99"/>
        </Node>
        <Node pos="r" depth="1" NCoef="0" IVar="-1" Cut="0.0000000000000000e+00" cType="1" res="6.2618320807814598e-03" rms="4.7420582175254822e-01" purity="5.6481134891510010e-01" nType="-99"/>
      </Node>
    </BinaryTree>
    <BinaryTree type="DecisionTree" boostWeight="1.0000000000000000e+00" itree="739">
      <Node pos="s" depth="0" NCoef="0" IVar="3" Cut="-7.0663523674011230e-01" cType="1" res="6.1847409233450890e-04" rms="4.8782643675804138e-01" purity="5.0011897087097168e-01" nType="0">
        <Node pos="l" depth="1" NCoef="0" IVar="0" Cut="9.1747150421142578e+00" cType="1" res="-5.5830562487244606e-03" rms="4.8760506510734558e-01" purity="4.2105236649513245e-01" nType="0">
          <Node pos="l" depth="2" NCoef="0" IVar="-1" Cut="0.0000000000000000e+00" cType="1" res="-1.9842912442982197e-03" rms="4.9086940288543701e-01" purity="4.2818850278854370e-01" nType="-99"/>
          <Node pos="r" depth="2" NCoef="0" IVar="-1" Cut="0.0000000000000000e+00" cType="1" res="2.0749762188643217e-03" rms="4.8234638571739197e-01" purity="4.1043856739997864e-01" nType="-99"/>
        </Node>
        <Node pos="r" depth="1" NCoef="0" IVar="0" Cut="9.0551691055297852e+00" cType="1" res="6.5767383202910423e-03" rms="4.8796480894088745e-01" purity="5.7608401775360107e-01" nType="0">
          <Node pos="l" depth="2" NCoef="0" IVar="-1" Cut="0.0000000000000000e+00" cType="1" res="1.7810275312513113e-03" rms="4.9249565601348877e-01" purity="5.6753599643707275e-01" nType="-99"/>
          <Node pos="r" depth="2" NCoef="0" IVar="-1" Cut="0.0000000000000000e+00" cType="1" res="-2.7600250905379653e-04" rms="4.8327830433845520e-01" purity="5.8460605144500732e-01" nType="-99"/>
        </Node>
      </Node>
    </BinaryTree>
    <BinaryTree type="DecisionTree" boostWeight="1.0000000000000000e+00" itree="740">
      <Node pos="s" depth="0" NCoef="0" IVar="4" Cut="-7.0527523756027222e-01" cType="1" res="1.9582253880798817e-03" rms="4.8800602555274963e-01" purity="5.0099056959152222e-01" nType="0">
        <Node pos="l" depth="1" NCoef="0" IVar="2" Cut="2.0000000000000000e+00" cType="1" res="-1.4842586824670434e-03" rms="1.3635045289993286e-01" purity="4.8524454236030579e-01" nType="0">
          <Node pos="l" depth="2" NCoef="0" IVar="-1" Cut="0.0000000000000000e+00" cType="1" res="2.9128990136086941e-03" rms="4.8617070913314819e-01" purity="4.9821895360946655e-01" nType="-99"/>
          <Node pos="r" depth="2" NCoef="0" IVar="-1" Cut="0.0000000000000000e+00" cType="1" res="-4.0731611079536378e-04" rms="4.8522719740867615e-01" purity="4.6289867162704468e-01" nType="-99"/>
        </Node>
        <Node pos="r" depth="1" NCoef="0" IVar="5" Cut="7.8137248754501343e-01" cType="1" res="-1.5287284040823579e-03" rms="4.8875024914741516e-01" purity="5.0700426101684570e-01" nType="0">
          <Node pos="l" depth="2" NCoef="0" IVar="-1" Cut="0.0000000000000000e+00" cType="1" res="5.9700396377593279e-05" rms="4.8874393105506897e-01" purity="5.0741243362426758e-01" nType="-99"/>
          <Node pos="r" depth="2" NCoef="0" IVar="-1" Cut="0.0000000000000000e+00" cType="1" res="-7.9086571931838989e-03" rms="4.8662376403808594e-01" purity="4.9712887406349182e-01" nType="-99"/>
        </Node>
      </Node>
    </BinaryTree>
    <BinaryTree type="DecisionTree" boostWeight="1.0000000000000000e+00" itree="741">
      <Node pos="s" depth="0" NCoef="0" IVar="4" Cut="4.5382637530565262e-02" cType="1" res="2.4699401110410690e-03" rms="4.8770177364349365e-01" purity="5.0244176387786865e-01" nType="0">
        <Node pos="l" depth="1" NCoef="0" IVar="3" Cut="-7.0749557018280029e-01" cType="1" res="5.3409622050821781e-03" rms="4.8889654874801636e-01" purity="4.9612691998481750e-01" nType="0">
          <Node pos="l" depth="2" NCoef="0" IVar="-1" Cut="0.0000000000000000e+00" cType="1" res="1.5018213889561594e-04" rms="4.8730558156967163e-01" purity="4.1884821653366089e-01" nType="-99"/>
          <Node pos="r" depth="2" NCoef="0" IVar="-1" Cut="0.0000000000000000e+00" cType="1" res="1.4542127028107643e-03" rms="4.9027881026268005e-01" purity="5.6509792804718018e-01" nType="-99"/>
        </Node>
        <Node pos="r" depth="1" NCoef="0" IVar="0" Cut="8.9787712097167969e+00" cType="1" res="-4.9100294709205627e-03" rms="4.8453906178474426e-01" purity="5.1867395639419556e-01" nType="0">
          <Node pos="l" depth="2" NCoef="0" IVar="-1" Cut="0.0000000000000000e+00" cType="1" res="1.4035475905984640e-03" rms="4.9097803235054016e-01" purity="5.3553998470306396e-01" nType="-99"/>
          <Node pos="r" depth="2" NCoef="0" IVar="-1" Cut="0.0000000000000000e+00" cType="1" res="-3.5093757323920727e-03" rms="4.7948908805847168e-01" purity="5.0647026300430298e-01" nType="-99"/>
        </Node>
      </Node>
    </BinaryTree>
    <BinaryTree type="DecisionTree" boostWeight="1.0000000000000000e+00" itree="742">
      <Node pos="s" depth="0" NCoef="0" IVar="5" Cut="-6.8794143199920654e-01" cType="1" res="2.6157249230891466e-03" rms="4.8816132545471191e-01" purity="5.0171148777008057e-01" nType="0">
        <Node pos="l" depth="1" NCoef="0" IVar="0" Cut="9.4261064529418945e+00" cType="1" res="1.9009064882993698e-02" rms="4.8400393128395081e-01" purity="5.1249593496322632e-01" nType="0">
          <Node pos="l" depth="2" NCoef="0" IVar="-1" Cut="0.0000000000000000e+00" cType="1" res="4.2519778944551945e-03" rms="4.8661434650421143e-01" purity="5.2213048934936523e-01" nType="-99"/>
          <Node pos="r" depth="2" NCoef="0" IVar="-1" Cut="0.0000000000000000e+00" cType="1" res="-5.0697335973381996e-03" rms="4.7216916084289551e-01" purity="4.7600433230400085e-01" nType="-99"/>
        </Node>
        <Node pos="r" depth="1" NCoef="0" IVar="1" Cut="5.0000000000000000e+00" cType="1" res="3.9298587944358587e-04" rms="2.5144869089126587e-01" purity="5.0019949674606323e-01" nType="0">
          <Node pos="l" depth="2" NCoef="0" IVar="-1" Cut="0.0000000000000000e+00" cType="1" res="2.3418794444296509e-04" rms="4.8870244622230530e-01" purity="5.0054943561553955e-01" nType="-99"/>
          <Node pos="r" depth="2" NCoef="0" IVar="-1" Cut="0.0000000000000000e+00" cType="1" res="-4.5332703739404678e-03" rms="4.8769113421440125e-01" purity="4.9150943756103516e-01" nType="-99"/>
        </Node>
      </Node>
    </BinaryTree>
    <BinaryTree type="DecisionTree" boostWeight="1.0000000000000000e+00" itree="743">
      <Node pos="s" depth="0" NCoef="0" IVar="3" Cut="-7.0749557018280029e-01" cType="1" res="2.8489406686276197e-03" rms="4.8841306567192078e-01" purity="5.0215113162994385e-01" nType="0">
        <Node pos="l" depth="1" NCoef="0" IVar="3" Cut="-7.9734480381011963e-01" cType="1" res="7.4795847758650780e-03" rms="4.8872229456901550e-01" purity="4.3449014425277710e-01" nType="0">
          <Node pos="l" depth="2" NCoef="0" IVar="-1" Cut="0.0000000000000000e+00" cType="1" res="7.0317246718332171e-04" rms="4.8536023497581482e-01" purity="4.1437983512878418e-01" nType="-99"/>
          <Node pos="r" depth="2" NCoef="0" IVar="-1" Cut="0.0000000000000000e+00" cType="1" res="2.3887844290584326e-03" rms="4.9909120798110962e-01" purity="4.9817675352096558e-01" nType="-99"/>
        </Node>
        <Node pos="r" depth="1" NCoef="0" IVar="3" Cut="8.1056529283523560e-01" cType="1" res="-1.7187896883115172e-03" rms="4.8806482553482056e-01" purity="5.6889295578002930e-01" nType="0">
          <Node pos="l" depth="2" NCoef="0" IVar="-1" Cut="0.0000000000000000e+00" cType="1" res="-2.0685035269707441e-03" rms="4.9898877739906311e-01" purity="4.9847742915153503e-01" nType="-99"/>
          <Node pos="r" depth="2" NCoef="0" IVar="-1" Cut="0.0000000000000000e+00" cType="1" res="5.9425330255180597e-04" rms="4.8352026939392090e-01" purity="5.9709656238555908e-01" nType="-99"/>
        </Node>
      </Node>
    </BinaryTree>
    <BinaryTree type="DecisionTree" boostWeight="1.0000000000000000e+00" itree="744">
      <Node pos="s" depth="0" NCoef="0" IVar="3" Cut="8.9726012945175171e-01" cType="1" res="-3.0952515080571175e-03" rms="4.8723876476287842e-01" purity="4.9623429775238037e-01" nType="0">
        <Node pos="l" depth="1" NCoef="0" IVar="0" Cut="9.0402660369873047e+00" cType="1" res="-5.5978228338062763e-03" rms="4.9104702472686768e-01" purity="4.6346318721771240e-01" nType="0">
          <Node pos="l" depth="2" NCoef="0" IVar="-1" Cut="0.0000000000000000e+00" cType="1" res="-1.2362186098471284e-03" rms="4.9377962946891785e-01" purity="4.7133007645606995e-01" nType="-99"/>
          <Node pos="r" depth="2" NCoef="0" IVar="-1" Cut="0.0000000000000000e+00" cType="1" res="-2.2773457749281079e-04" rms="4.8827838897705078e-01" purity="4.5565739274024963e-01" nType="-99"/>
        </Node>
        <Node pos="r" depth="1" NCoef="0" IVar="3" Cut="9.6019220352172852e-01" cType="1" res="8.9028431102633476e-03" rms="4.6836534142494202e-01" purity="6.5334892272949219e-01" nType="0">
          <Node pos="l" depth="2" NCoef="0" IVar="-1" Cut="0.0000000000000000e+00" cType="1" res="7.4697704985737801e-04" rms="4.7914922237396240e-01" purity="6.2752413749694824e-01" nType="-99"/>
          <Node pos="r" depth="2" NCoef="0" IVar="-1" Cut="0.0000000000000000e+00" cType="1" res="8.2218972966074944e-03" rms="4.0874317288398743e-01" purity="7.8383362293243408e-01" nType="-99"/>
        </Node>
      </Node>
    </BinaryTree>
    <BinaryTree type="DecisionTree" boostWeight="1.0000000000000000e+00" itree="745">
      <Node pos="s" depth="0" NCoef="0" IVar="1" Cut="2.0000000000000000e+00" cType="1" res="-3.6499451380223036e-03" rms="2.4758785963058472e-01" purity="4.9603897333145142e-01" nType="0">
        <Node pos="l" depth="1" NCoef="0" IVar="3" Cut="-7.0556068420410156e-01" cType="1" res="-1.4075299724936485e-02" rms="4.9062231183052063e-01" purity="4.8648637533187866e-01" nType="0">
          <Node pos="l" depth="2" NCoef="0" IVar="-1" Cut="0.0000000000000000e+00" cType="1" res="-4.8726322711445391e-04" rms="4.8891478776931763e-01" purity="4.2800822854042053e-01" nType="-99"/>
          <Node pos="r" depth="2" NCoef="0" IVar="-1" Cut="0.0000000000000000e+00" cType="1" res="-3.8138139061629772e-03" rms="4.9205234646797180e-01" purity="5.4384738206863403e-01" nType="-99"/>
        </Node>
        <Node pos="r" depth="1" NCoef="0" IVar="0" Cut="8.7279596328735352e+00" cType="1" res="6.9678929867222905e-04" rms="4.8675310611724854e-01" purity="5.0003623962402344e-01" nType="0">
          <Node pos="l" depth="2" NCoef="0" IVar="-1" Cut="0.0000000000000000e+00" cType="1" res="-1.1884755222126842e-03" rms="4.9111112952232361e-01" purity="4.9348193407058716e-01" nType="-99"/>
          <Node pos="r" depth="2" NCoef="0" IVar="-1" Cut="0.0000000000000000e+00" cType="1" res="9.0021005598828197e-04" rms="4.8520728945732117e-01" purity="5.0225025415420532e-01" nType="-99"/>
        </Node>
      </Node>
    </BinaryTree>
    <BinaryTree type="DecisionTree" boostWeight="1.0000000000000000e+00" itree="746">
      <Node pos="s" depth="0" NCoef="0" IVar="3" Cut="-7.0753949880599976e-01" cType="1" res="-2.1882520522922277e-03" rms="4.8835381865501404e-01" purity="4.9771216511726379e-01" nType="0">
        <Node pos="l" depth="1" NCoef="0" IVar="2" Cut="2.0000000000000000e+00" cType="1" res="-2.3036423954181373e-04" rms="5.1160890609025955e-02" purity="4.2894172668457031e-01" nType="0">
          <Node pos="l" depth="2" NCoef="0" IVar="-1" Cut="0.0000000000000000e+00" cType="1" res="1.6068576369434595e-03" rms="4.8685756325721741e-01" purity="4.2856886982917786e-01" nType="-99"/>
          <Node pos="r" depth="2" NCoef="0" IVar="-1" Cut="0.0000000000000000e+00" cType="1" res="-9.5885625341907144e-04" rms="4.9008631706237793e-01" purity="4.2944017052650452e-01" nType="-99"/>
        </Node>
        <Node pos="r" depth="1" NCoef="0" IVar="3" Cut="9.5258831977844238e-01" cType="1" res="-7.6042693108320236e-03" rms="4.8833736777305603e-01" purity="5.6379199028015137e-01" nType="0">
          <Node pos="l" depth="2" NCoef="0" IVar="-1" Cut="0.0000000000000000e+00" cType="1" res="-1.5003145672380924e-03" rms="4.9441808462142944e-01" purity="5.4463517665863037e-01" nType="-99"/>
          <Node pos="r" depth="2" NCoef="0" IVar="-1" Cut="0.0000000000000000e+00" cType="1" res="3.3243093639612198e-03" rms="4.2067858576774597e-01" purity="7.5937259197235107e-01" nType="-99"/>
        </Node>
      </Node>
    </BinaryTree>
    <BinaryTree type="DecisionTree" boostWeight="1.0000000000000000e+00" itree="747">
      <Node pos="s" depth="0" NCoef="0" IVar="3" Cut="8.0220818519592285e-01" cType="1" res="-1.6598572256043553e-04" rms="4.8766809701919556e-01" purity="4.9890270829200745e-01" nType="0">
        <Node pos="l" depth="1" NCoef="0" IVar="3" Cut="-6.4936113357543945e-01" cType="1" res="-2.9960076790302992e-03" rms="4.9038904905319214e-01" purity="4.4035899639129639e-01" nType="0">
          <Node pos="l" depth="2" NCoef="0" IVar="-1" Cut="0.0000000000000000e+00" cType="1" res="1.4436313358601183e-04" rms="4.8792648315429688e-01" purity="4.2682933807373047e-01" nType="-99"/>
          <Node pos="r" depth="2" NCoef="0" IVar="-1" Cut="0.0000000000000000e+00" cType="1" res="-2.4909360799938440e-03" rms="4.9913066625595093e-01" purity="4.9041929841041565e-01" nType="-99"/>
        </Node>
        <Node pos="r" depth="1" NCoef="0" IVar="0" Cut="8.6927433013916016e+00" cType="1" res="4.5250244438648224e-03" rms="4.8308759927749634e-01" purity="5.9594410657882690e-01" nType="0">
          <Node pos="l" depth="2" NCoef="0" IVar="-1" Cut="0.0000000000000000e+00" cType="1" res="2.0502649713307619e-03" rms="4.8960360884666443e-01" purity="5.7945561408996582e-01" nType="-99"/>
          <Node pos="r" depth="2" NCoef="0" IVar="-1" Cut="0.0000000000000000e+00" cType="1" res="1.2079537555109710e-04" rms="4.8120442032814026e-01" purity="6.0048496723175049e-01" nType="-99"/>
        </Node>
      </Node>
    </BinaryTree>
    <BinaryTree type="DecisionTree" boostWeight="1.0000000000000000e+00" itree="748">
      <Node pos="s" depth="0" NCoef="0" IVar="5" Cut="4.9720384180545807e-02" cType="1" res="2.4515476543456316e-03" rms="4.8826202750205994e-01" purity="5.0242400169372559e-01" nType="0">
        <Node pos="l" depth="1" NCoef="0" IVar="0" Cut="8.1768674850463867e+00" cType="1" res="5.4849046282470226e-03" rms="4.8864376544952393e-01" purity="5.0442415475845337e-01" nType="0">
          <Node pos="l" depth="2" NCoef="0" IVar="-1" Cut="0.0000000000000000e+00" cType="1" res="-2.1330798044800758e-03" rms="4.9961775541305542e-01" purity="4.6721222996711731e-01" nType="-99"/>
          <Node pos="r" depth="2" NCoef="0" IVar="-1" Cut="0.0000000000000000e+00" cType="1" res="1.1567695764824748e-03" rms="4.8796036839485168e-01" purity="5.0656133890151978e-01" nType="-99"/>
        </Node>
        <Node pos="r" depth="1" NCoef="0" IVar="5" Cut="7.6882636547088623e-01" cType="1" res="-1.8234655261039734e-02" rms="4.8514530062675476e-01" purity="4.8878365755081177e-01" nType="0">
          <Node pos="l" depth="2" NCoef="0" IVar="-1" Cut="0.0000000000000000e+00" cType="1" res="-5.1256814040243626e-03" rms="4.8450803756713867e-01" purity="4.6507617831230164e-01" nType="-99"/>
          <Node pos="r" depth="2" NCoef="0" IVar="-1" Cut="0.0000000000000000e+00" cType="1" res="-1.2520358432084322e-03" rms="4.8533129692077637e-01" purity="5.0642323493957520e-01" nType="-99"/>
        </Node>
      </Node>
    </BinaryTree>
    <BinaryTree type="DecisionTree" boostWeight="1.0000000000000000e+00" itree="749">
      <Node pos="s" depth="0" NCoef="0" IVar="4" Cut="7.9875218868255615e-01" cType="1" res="-4.2047897295560688e-05" rms="4.8769664764404297e-01" purity="4.9887064099311829e-01" nType="0">
        <Node pos="l" depth="1" NCoef="0" IVar="1" Cut="2.0000000000000000e+00" cType="1" res="-6.8322313018143177e-04" rms="3.8090553879737854e-01" purity="4.9117133021354675e-01" nType="0">
          <Node pos="l" depth="2" NCoef="0" IVar="-1" Cut="0.0000000000000000e+00" cType="1" res="1.0443299543112516e-03" rms="4.9017107486724854e-01" purity="5.0341022014617920e-01" nType="-99"/>
          <Node pos="r" depth="2" NCoef="0" IVar="-1" Cut="0.0000000000000000e+00" cType="1" res="-1.0302505688741803e-03" rms="4.8816043138504028e-01" purity="4.8532190918922424e-01" nType="-99"/>
        </Node>
        <Node pos="r" depth="1" NCoef="0" IVar="4" Cut="8.1661725044250488e-01" cType="1" res="1.2264192104339600e-02" rms="4.8084127902984619e-01" purity="5.4297375679016113e-01" nType="0">
          <Node pos="l" depth="2" NCoef="0" IVar="-1" Cut="0.0000000000000000e+00" cType="1" res="6.1973170377314091e-03" rms="4.8287561535835266e-01" purity="5.5707770586013794e-01" nType="-99"/>
          <Node pos="r" depth="2" NCoef="0" IVar="-1" Cut="0.0000000000000000e+00" cType="1" res="1.2470332439988852e-03" rms="4.8024836182594299e-01" purity="5.4003912210464478e-01" nType="-99"/>
        </Node>
      </Node>
    </BinaryTree>
    <BinaryTree type="DecisionTree" boostWeight="1.0000000000000000e+00" itree="750">
      <Node pos="s" depth="0" NCoef="0" IVar="0" Cut="9.2769765853881836e+00" cType="1" res="2.2263189312070608e-03" rms="4.8806050419807434e-01" purity="5.0182390213012695e-01" nType="0">
        <Node pos="l" depth="1" NCoef="0" IVar="3" Cut="-8.0139482021331787e-01" cType="1" res="7.3230443522334099e-03" rms="4.9131739139556885e-01" purity="5.0863826274871826e-01" nType="0">
          <Node pos="l" depth="2" NCoef="0" IVar="-1" Cut="0.0000000000000000e+00" cType="1" res="-2.5293815997429192e-04" rms="4.8965337872505188e-01" purity="4.2367091774940491e-01" nType="-99"/>
          <Node pos="r" depth="2" NCoef="0" IVar="-1" Cut="0.0000000000000000e+00" cType="1" res="1.7109216423705220e-03" rms="4.9219489097595215e-01" purity="5.5750924348831177e-01" nType="-99"/>
        </Node>
        <Node pos="r" depth="1" NCoef="0" IVar="1" Cut="2.0000000000000000e+00" cType="1" res="-8.2404445856809616e-03" rms="4.7039055824279785e-01" purity="4.8732352256774902e-01" nType="0">
          <Node pos="l" depth="2" NCoef="0" IVar="-1" Cut="0.0000000000000000e+00" cType="1" res="-4.0935486322268844e-04" rms="4.8207142949104309e-01" purity="4.9253895878791809e-01" nType="-99"/>
          <Node pos="r" depth="2" NCoef="0" IVar="-1" Cut="0.0000000000000000e+00" cType="1" res="-2.8576569166034460e-03" rms="4.8035702109336853e-01" purity="4.8518183827400208e-01" nType="-99"/>
        </Node>
      </Node>
    </BinaryTree>
    <BinaryTree type="DecisionTree" boostWeight="1.0000000000000000e+00" itree="751">
      <Node pos="s" depth="0" NCoef="0" IVar="4" Cut="7.9651749134063721e-01" cType="1" res="3.5125964786857367e-03" rms="4.8729154467582703e-01" purity="5.0246769189834595e-01" nType="0">
        <Node pos="l" depth="1" NCoef="0" IVar="0" Cut="8.5724048614501953e+00" cType="1" res="5.8654593303799629e-03" rms="4.8788410425186157e-01" purity="4.9870541691780090e-01" nType="0">
          <Node pos="l" depth="2" NCoef="0" IVar="-1" Cut="0.0000000000000000e+00" cType="1" res="2.0888240542262793e-03" rms="4.9443322420120239e-01" purity="5.2188366651535034e-01" nType="-99"/>
          <Node pos="r" depth="2" NCoef="0" IVar="-1" Cut="0.0000000000000000e+00" cType="1" res="4.6314968494698405e-04" rms="4.8633947968482971e-01" purity="4.9349406361579895e-01" nType="-99"/>
        </Node>
        <Node pos="r" depth="1" NCoef="0" IVar="0" Cut="9.0292930603027344e+00" cType="1" res="-9.2393960803747177e-03" rms="4.8386844992637634e-01" purity="5.2285838127136230e-01" nType="0">
          <Node pos="l" depth="2" NCoef="0" IVar="-1" Cut="0.0000000000000000e+00" cType="1" res="-3.6675878800451756e-03" rms="4.9328157305717468e-01" purity="5.0609230995178223e-01" nType="-99"/>
          <Node pos="r" depth="2" NCoef="0" IVar="-1" Cut="0.0000000000000000e+00" cType="1" res="1.2614649021998048e-03" rms="4.7612184286117554e-01" purity="5.3548592329025269e-01" nType="-99"/>
        </Node>
      </Node>
    </BinaryTree>
    <BinaryTree type="DecisionTree" boostWeight="1.0000000000000000e+00" itree="752">
      <Node pos="s" depth="0" NCoef="0" IVar="0" Cut="8.1729154586791992e+00" cType="1" res="7.9388165613636374e-04" rms="4.8734450340270996e-01" purity="5.0123184919357300e-01" nType="0">
        <Node pos="l" depth="1" NCoef="0" IVar="-1" Cut="0.0000000000000000e+00" cType="1" res="-2.2170371375977993e-03" rms="4.9795687198638916e-01" purity="4.6730288863182068e-01" nType="-99"/>
        <Node pos="r" depth="1" NCoef="0" IVar="0" Cut="8.9234619140625000e+00" cType="1" res="2.0878647919744253e-03" rms="4.8672825098037720e-01" purity="5.0307416915893555e-01" nType="0">
          <Node pos="l" depth="2" NCoef="0" IVar="-1" Cut="0.0000000000000000e+00" cType="1" res="1.3054885203018785e-03" rms="4.9151471257209778e-01" purity="5.1488298177719116e-01" nType="-99"/>
          <Node pos="r" depth="2" NCoef="0" IVar="-1" Cut="0.0000000000000000e+00" cType="1" res="-5.4839812219142914e-04" rms="4.8399603366851807e-01" purity="4.9654576182365417e-01" nType="-99"/>
        </Node>
      </Node>
    </BinaryTree>
    <BinaryTree type="DecisionTree" boostWeight="1.0000000000000000e+00" itree="753">
      <Node pos="s" depth="0" NCoef="0" IVar="3" Cut="8.9726012945175171e-01" cType="1" res="1.9930335110984743e-04" rms="4.8800036311149597e-01" purity="4.9993926286697388e-01" nType="0">
        <Node pos="l" depth="1" NCoef="0" IVar="1" Cut="5.0000000000000000e+00" cType="1" res="-6.9239950971677899e-04" rms="3.2872793078422546e-01" purity="4.6848249435424805e-01" nType="0">
          <Node pos="l" depth="2" NCoef="0" IVar="-1" Cut="0.0000000000000000e+00" cType="1" res="-3.3512394293211401e-04" rms="4.9183094501495361e-01" purity="4.6763238310813904e-01" nType="-99"/>
          <Node pos="r" depth="2" NCoef="0" IVar="-1" Cut="0.0000000000000000e+00" cType="1" res="2.8981000650674105e-03" rms="4.9017530679702759e-01" purity="4.8782870173454285e-01" nType="-99"/>
        </Node>
        <Node pos="r" depth="1" NCoef="0" IVar="0" Cut="9.2720680236816406e+00" cType="1" res="7.3683341033756733e-03" rms="4.6907654404640198e-01" purity="6.5326738357543945e-01" nType="0">
          <Node pos="l" depth="2" NCoef="0" IVar="-1" Cut="0.0000000000000000e+00" cType="1" res="2.8427103534340858e-03" rms="4.7286498546600342e-01" purity="6.4512455463409424e-01" nType="-99"/>
          <Node pos="r" depth="2" NCoef="0" IVar="-1" Cut="0.0000000000000000e+00" cType="1" res="-2.5047273375093937e-03" rms="4.6297398209571838e-01" purity="6.6522109508514404e-01" nType="-99"/>
        </Node>
      </Node>
    </BinaryTree>
    <BinaryTree type="DecisionTree" boostWeight="1.0000000000000000e+00" itree="754">
      <Node pos="s" depth="0" NCoef="0" IVar="0" Cut="8.2049665451049805e+00" cType="1" res="1.4366810210049152e-03" rms="4.8889458179473877e-01" purity="5.0129973888397217e-01" nType="0">
        <Node pos="l" depth="1" NCoef="0" IVar="-1" Cut="0.0000000000000000e+00" cType="1" res="2.3891143500804901e-03" rms="4.9665501713752747e-01" purity="5.1578968763351440e-01" nType="-99"/>
        <Node pos="r" depth="1" NCoef="0" IVar="5" Cut="-6.9064450263977051e-01" cType="1" res="-8.9999804913531989e-05" rms="4.8835322260856628e-01" purity="5.0037086009979248e-01" nType="0">
          <Node pos="l" depth="2" NCoef="0" IVar="-1" Cut="0.0000000000000000e+00" cType="1" res="-2.3990930058062077e-03" rms="4.8779538273811340e-01" purity="4.8442840576171875e-01" nType="-99"/>
          <Node pos="r" depth="2" NCoef="0" IVar="-1" Cut="0.0000000000000000e+00" cType="1" res="3.1236579525284469e-04" rms="4.8839879035949707e-01" purity="5.0259643793106079e-01" nType="-99"/>
        </Node>
      </Node>
    </BinaryTree>
    <BinaryTree type="DecisionTree" boostWeight="1.0000000000000000e+00" itree="755">
      <Node pos="s" depth="0" NCoef="0" IVar="3" Cut="-7.0741248130798340e-01" cType="1" res="2.2254842333495617e-03" rms="4.8705071210861206e-01" purity="5.0199431180953979e-01" nType="0">
        <Node pos="l" depth="1" NCoef="0" IVar="3" Cut="-7.5863444805145264e-01" cType="1" res="-5.1996754482388496e-03" rms="4.8725926876068115e-01" purity="4.2222544550895691e-01" nType="0">
          <Node pos="l" depth="2" NCoef="0" IVar="-1" Cut="0.0000000000000000e+00" cType="1" res="-2.5200200616382062e-04" rms="4.8600924015045166e-01" purity="4.1931489109992981e-01" nType="-99"/>
          <Node pos="r" depth="2" NCoef="0" IVar="-1" Cut="0.0000000000000000e+00" cType="1" res="-4.9208137206733227e-03" rms="4.9649420380592346e-01" purity="4.4636246562004089e-01" nType="-99"/>
        </Node>
        <Node pos="r" depth="1" NCoef="0" IVar="0" Cut="8.8593244552612305e+00" cType="1" res="9.5371324568986893e-03" rms="4.8673459887504578e-01" purity="5.8054363727569580e-01" nType="0">
          <Node pos="l" depth="2" NCoef="0" IVar="-1" Cut="0.0000000000000000e+00" cType="1" res="2.4171685799956322e-03" rms="4.9080127477645874e-01" purity="5.7215166091918945e-01" nType="-99"/>
          <Node pos="r" depth="2" NCoef="0" IVar="-1" Cut="0.0000000000000000e+00" cType="1" res="7.2495668428018689e-04" rms="4.8453047871589661e-01" purity="5.8484381437301636e-01" nType="-99"/>
        </Node>
      </Node>
    </BinaryTree>
    <BinaryTree type="DecisionTree" boostWeight="1.0000000000000000e+00" itree="756">
      <Node pos="s" depth="0" NCoef="0" IVar="3" Cut="8.0139946937561035e-01" cType="1" res="-1.6387825598940253e-03" rms="4.8820436000823975e-01" purity="4.9849036335945129e-01" nType="0">
        <Node pos="l" depth="1" NCoef="0" IVar="0" Cut="9.0735378265380859e+00" cType="1" res="2.1720426157116890e-03" rms="4.9053278565406799e-01" purity="4.4563120603561401e-01" nType="0">
          <Node pos="l" depth="2" NCoef="0" IVar="-1" Cut="0.0000000000000000e+00" cType="1" res="-6.7097763530910015e-04" rms="4.9388533830642700e-01" purity="4.5450237393379211e-01" nType="-99"/>
          <Node pos="r" depth="2" NCoef="0" IVar="-1" Cut="0.0000000000000000e+00" cType="1" res="2.2387448698282242e-03" rms="4.8671072721481323e-01" purity="4.3593722581863403e-01" nType="-99"/>
        </Node>
        <Node pos="r" depth="1" NCoef="0" IVar="3" Cut="9.5413142442703247e-01" cType="1" res="-7.8862365335226059e-03" rms="4.8429805040359497e-01" purity="5.8514750003814697e-01" nType="0">
          <Node pos="l" depth="2" NCoef="0" IVar="-1" Cut="0.0000000000000000e+00" cType="1" res="-1.9972147420048714e-03" rms="4.9228611588478088e-01" purity="5.6187576055526733e-01" nType="-99"/>
          <Node pos="r" depth="2" NCoef="0" IVar="-1" Cut="0.0000000000000000e+00" cType="1" res="6.9996048696339130e-03" rms="4.1127878427505493e-01" purity="7.7570265531539917e-01" nType="-99"/>
        </Node>
      </Node>
    </BinaryTree>
    <BinaryTree type="DecisionTree" boostWeight="1.0000000000000000e+00" itree="757">
      <Node pos="s" depth="0" NCoef="0" IVar="0" Cut="8.4429368972778320e+00" cType="1" res="4.5034708455204964e-03" rms="4.8804160952568054e-01" purity="5.0409799814224243e-01" nType="0">
        <Node pos="l" depth="1" NCoef="0" IVar="3" Cut="-7.0115649700164795e-01" cType="1" res="1.8787425011396408e-02" rms="4.9663034081459045e-01" purity="5.2584278583526611e-01" nType="0">
          <Node pos="l" depth="2" NCoef="0" IVar="-1" Cut="0.0000000000000000e+00" cType="1" res="1.1563834268599749e-03" rms="4.9893248081207275e-01" purity="4.8476493358612061e-01" nType="-99"/>
          <Node pos="r" depth="2" NCoef="0" IVar="-1" Cut="0.0000000000000000e+00" cType="1" res="2.7748160064220428e-03" rms="4.9424085021018982e-01" purity="5.6631964445114136e-01" nType="-99"/>
        </Node>
        <Node pos="r" depth="1" NCoef="0" IVar="1" Cut="4.0000000000000000e+00" cType="1" res="2.2271559573709965e-03" rms="4.7924467921257019e-01" purity="5.0098639726638794e-01" nType="0">
          <Node pos="l" depth="2" NCoef="0" IVar="-1" Cut="0.0000000000000000e+00" cType="1" res="6.8122911034151912e-04" rms="4.8666751384735107e-01" purity="5.0103861093521118e-01" nType="-99"/>
          <Node pos="r" depth="2" NCoef="0" IVar="-1" Cut="0.0000000000000000e+00" cType="1" res="-1.1645725462585688e-03" rms="4.8727488517761230e-01" purity="5.0066435337066650e-01" nType="-99"/>
        </Node>
      </Node>
    </BinaryTree>
    <BinaryTree type="DecisionTree" boostWeight="1.0000000000000000e+00" itree="758">
      <Node pos="s" depth="0" NCoef="0" IVar="2" Cut="2.0000000000000000e+00" cType="1" res="-3.9682578062638640e-04" rms="3.5214163362979889e-02" purity="5.0065892934799194e-01" nType="0">
        <Node pos="l" depth="1" NCoef="0" IVar="0" Cut="8.7359209060668945e+00" cType="1" res="-3.8019509520381689e-03" rms="4.8690378665924072e-01" purity="4.9530756473541260e-01" nType="0">
          <Node pos="l" depth="2" NCoef="0" IVar="-1" Cut="0.0000000000000000e+00" cType="1" res="-2.5448817759752274e-03" rms="4.9128943681716919e-01" purity="4.8579174280166626e-01" nType="-99"/>
          <Node pos="r" depth="2" NCoef="0" IVar="-1" Cut="0.0000000000000000e+00" cType="1" res="5.3158332593739033e-04" rms="4.8523414134979248e-01" purity="4.9850854277610779e-01" nType="-99"/>
        </Node>
        <Node pos="r" depth="1" NCoef="0" IVar="0" Cut="8.9654245376586914e+00" cType="1" res="6.5642711706459522e-03" rms="4.9104723334312439e-01" purity="5.0800234079360962e-01" nType="0">
          <Node pos="l" depth="2" NCoef="0" IVar="-1" Cut="0.0000000000000000e+00" cType="1" res="2.3610563948750496e-03" rms="4.9403980374336243e-01" purity="5.1966780424118042e-01" nType="-99"/>
          <Node pos="r" depth="2" NCoef="0" IVar="-1" Cut="0.0000000000000000e+00" cType="1" res="-5.2821496501564980e-04" rms="4.8862111568450928e-01" purity="4.9934059381484985e-01" nType="-99"/>
        </Node>
      </Node>
    </BinaryTree>
    <BinaryTree type="DecisionTree" boostWeight="1.0000000000000000e+00" itree="759">
      <Node pos="s" depth="0" NCoef="0" IVar="5" Cut="5.8219123631715775e-02" cType="1" res="-3.4930842230096459e-04" rms="4.8820066452026367e-01" purity="5.0012779235839844e-01" nType="0">
        <Node pos="l" depth="1" NCoef="0" IVar="4" Cut="5.0424966961145401e-02" cType="1" res="1.6075667226687074e-03" rms="4.8815312981605530e-01" purity="5.0137978792190552e-01" nType="0">
          <Node pos="l" depth="2" NCoef="0" IVar="-1" Cut="0.0000000000000000e+00" cType="1" res="-3.3264572266489267e-04" rms="4.8929151892662048e-01" purity="4.9068084359169006e-01" nType="-99"/>
          <Node pos="r" depth="2" NCoef="0" IVar="-1" Cut="0.0000000000000000e+00" cType="1" res="2.0684769842773676e-03" rms="4.8461902141571045e-01" purity="5.3289413452148438e-01" nType="-99"/>
        </Node>
        <Node pos="r" depth="1" NCoef="0" IVar="3" Cut="-8.9480435848236084e-01" cType="1" res="-1.3835968449711800e-02" rms="4.8831486701965332e-01" purity="4.9149900674819946e-01" nType="0">
          <Node pos="l" depth="2" NCoef="0" IVar="-1" Cut="0.0000000000000000e+00" cType="1" res="8.4475096082314849e-04" rms="4.7958189249038696e-01" purity="3.8701221346855164e-01" nType="-99"/>
          <Node pos="r" depth="2" NCoef="0" IVar="-1" Cut="0.0000000000000000e+00" cType="1" res="-3.3409690950065851e-03" rms="4.9177461862564087e-01" purity="5.3603172302246094e-01" nType="-99"/>
        </Node>
      </Node>
    </BinaryTree>
    <BinaryTree type="DecisionTree" boostWeight="1.0000000000000000e+00" itree="760">
      <Node pos="s" depth="0" NCoef="0" IVar="0" Cut="8.8314571380615234e+00" cType="1" res="-5.7132299989461899e-03" rms="4.8890823125839233e-01" purity="4.9497026205062866e-01" nType="0">
        <Node pos="l" depth="1" NCoef="0" IVar="3" Cut="8.9071792364120483e-01" cType="1" res="-1.6479564830660820e-02" rms="4.9447298049926758e-01" purity="4.8749917745590210e-01" nType="0">
          <Node pos="l" depth="2" NCoef="0" IVar="-1" Cut="0.0000000000000000e+00" cType="1" res="-1.5294378390535712e-03" rms="4.9469965696334839e-01" purity="4.7393575310707092e-01" nType="-99"/>
          <Node pos="r" depth="2" NCoef="0" IVar="-1" Cut="0.0000000000000000e+00" cType="1" res="-4.0508131496608257e-03" rms="4.9265059828758240e-01" purity="5.7292860746383667e-01" nType="-99"/>
        </Node>
        <Node pos="r" depth="1" NCoef="0" IVar="0" Cut="8.9533901214599609e+00" cType="1" res="-5.9896754100918770e-04" rms="4.8615899682044983e-01" purity="4.9851915240287781e-01" nType="0">
          <Node pos="l" depth="2" NCoef="0" IVar="-1" Cut="0.0000000000000000e+00" cType="1" res="2.0466479472815990e-03" rms="4.9427363276481628e-01" purity="5.1141548156738281e-01" nType="-99"/>
          <Node pos="r" depth="2" NCoef="0" IVar="-1" Cut="0.0000000000000000e+00" cType="1" res="-6.1109266243875027e-04" rms="4.8483026027679443e-01" purity="4.9649199843406677e-01" nType="-99"/>
        </Node>
      </Node>
    </BinaryTree>
    <BinaryTree type="DecisionTree" boostWeight="1.0000000000000000e+00" itree="761">
      <Node pos="s" depth="0" NCoef="0" IVar="3" Cut="-8.9632368087768555e-01" cType="1" res="-3.5364837385714054e-03" rms="4.8926663398742676e-01" purity="4.9543654918670654e-01" nType="0">
        <Node pos="l" depth="1" NCoef="0" IVar="5" Cut="5.3616993129253387e-02" cType="1" res="1.1920210905373096e-02" rms="4.7249111533164978e-01" purity="3.6183065176010132e-01" nType="0">
          <Node pos="l" depth="2" NCoef="0" IVar="-1" Cut="0.0000000000000000e+00" cType="1" res="1.0070791468024254e-03" rms="4.6749153733253479e-01" purity="3.4551629424095154e-01" nType="-99"/>
          <Node pos="r" depth="2" NCoef="0" IVar="-1" Cut="0.0000000000000000e+00" cType="1" res="5.7268235832452774e-03" rms="4.8787292838096619e-01" purity="4.1538545489311218e-01" nType="-99"/>
        </Node>
        <Node pos="r" depth="1" NCoef="0" IVar="4" Cut="-7.9913491010665894e-01" cType="1" res="-6.7367260344326496e-03" rms="4.9260795116424561e-01" purity="5.2309906482696533e-01" nType="0">
          <Node pos="l" depth="2" NCoef="0" IVar="-1" Cut="0.0000000000000000e+00" cType="1" res="-3.5838414914906025e-03" rms="4.9147152900695801e-01" purity="5.0419116020202637e-01" nType="-99"/>
          <Node pos="r" depth="2" NCoef="0" IVar="-1" Cut="0.0000000000000000e+00" cType="1" res="-6.7105429479852319e-04" rms="4.9273985624313354e-01" purity="5.2600914239883423e-01" nType="-99"/>
        </Node>
      </Node>
    </BinaryTree>
    <BinaryTree type="DecisionTree" boostWeight="1.0000000000000000e+00" itree="762">
      <Node pos="s" depth="0" NCoef="0" IVar="2" Cut="3.0000000000000000e+00" cType="1" res="1.3162779214326292e-04" rms="3.0416762456297874e-02" purity="5.0576347112655640e-01" nType="0">
        <Node pos="l" depth="1" NCoef="0" IVar="3" Cut="-8.0211895704269409e-01" cType="1" res="8.4241656586527824e-03" rms="4.8872032761573792e-01" purity="5.0659763813018799e-01" nType="0">
          <Node pos="l" depth="2" NCoef="0" IVar="-1" Cut="0.0000000000000000e+00" cType="1" res="2.4713510647416115e-03" rms="4.8669728636741638e-01" purity="4.2119765281677246e-01" nType="-99"/>
          <Node pos="r" depth="2" NCoef="0" IVar="-1" Cut="0.0000000000000000e+00" cType="1" res="6.6685536876320839e-04" rms="4.8988407850265503e-01" purity="5.5781561136245728e-01" nType="-99"/>
        </Node>
        <Node pos="r" depth="1" NCoef="0" IVar="3" Cut="-7.0219618082046509e-01" cType="1" res="-7.0256013423204422e-03" rms="4.9014148116111755e-01" purity="4.9910029768943787e-01" nType="0">
          <Node pos="l" depth="2" NCoef="0" IVar="-1" Cut="0.0000000000000000e+00" cType="1" res="-3.7491428665816784e-03" rms="4.8984244465827942e-01" purity="4.2749595642089844e-01" nType="-99"/>
          <Node pos="r" depth="2" NCoef="0" IVar="-1" Cut="0.0000000000000000e+00" cType="1" res="1.0818669106811285e-03" rms="4.9007210135459900e-01" purity="5.6759887933731079e-01" nType="-99"/>
        </Node>
      </Node>
    </BinaryTree>
    <BinaryTree type="DecisionTree" boostWeight="1.0000000000000000e+00" itree="763">
      <Node pos="s" depth="0" NCoef="0" IVar="3" Cut="8.9726012945175171e-01" cType="1" res="-1.9091204740107059e-04" rms="4.8849928379058838e-01" purity="4.9947598576545715e-01" nType="0">
        <Node pos="l" depth="1" NCoef="0" IVar="0" Cut="8.3851289749145508e+00" cType="1" res="2.5606853887438774e-03" rms="4.9164545536041260e-01" purity="4.7226709127426147e-01" nType="0">
          <Node pos="l" depth="2" NCoef="0" IVar="-1" Cut="0.0000000000000000e+00" cType="1" res="1.7864402616396546e-03" rms="4.9660158157348633e-01" purity="5.1026034355163574e-01" nType="-99"/>
          <Node pos="r" depth="2" NCoef="0" IVar="-1" Cut="0.0000000000000000e+00" cType="1" res="8.7455882749054581e-05" rms="4.9094733595848083e-01" purity="4.6722012758255005e-01" nType="-99"/>
        </Node>
        <Node pos="r" depth="1" NCoef="0" IVar="4" Cut="-7.9926192760467529e-01" cType="1" res="-1.3569551520049572e-02" rms="4.7267574071884155e-01" purity="6.3176941871643066e-01" nType="0">
          <Node pos="l" depth="2" NCoef="0" IVar="-1" Cut="0.0000000000000000e+00" cType="1" res="-6.4332284964621067e-03" rms="4.8819878697395325e-01" purity="5.5377149581909180e-01" nType="-99"/>
          <Node pos="r" depth="2" NCoef="0" IVar="-1" Cut="0.0000000000000000e+00" cType="1" res="-5.7882227702066302e-04" rms="4.6486631035804749e-01" purity="6.6821539402008057e-01" nType="-99"/>
        </Node>
      </Node>
    </BinaryTree>
    <BinaryTree type="DecisionTree" boostWeight="1.0000000000000000e+00" itree="764">
      <Node pos="s" depth="0" NCoef="0" IVar="0" Cut="8.4704437255859375e+00" cType="1" res="-2.4806871078908443e-03" rms="4.8757928609848022e-01" purity="4.9712526798248291e-01" nType="0">
        <Node pos="l" depth="1" NCoef="0" IVar="0" Cut="8.3436889648437500e+00" cType="1" res="-1.0119258426129818e-02" rms="4.9452963471412659e-01" purity="4.9745747447013855e-01" nType="0">
          <Node pos="l" depth="2" NCoef="0" IVar="-1" Cut="0.0000000000000000e+00" cType="1" res="-3.1084721558727324e-04" rms="4.9644783139228821e-01" purity="4.9595588445663452e-01" nType="-99"/>
          <Node pos="r" depth="2" NCoef="0" IVar="-1" Cut="0.0000000000000000e+00" cType="1" res="-2.6597550604492426e-03" rms="4.8993211984634399e-01" purity="5.0076872110366821e-01" nType="-99"/>
        </Node>
        <Node pos="r" depth="1" NCoef="0" IVar="0" Cut="8.6095485687255859e+00" cType="1" res="-1.2746619759127498e-03" rms="4.8646187782287598e-01" purity="4.9707278609275818e-01" nType="0">
          <Node pos="l" depth="2" NCoef="0" IVar="-1" Cut="0.0000000000000000e+00" cType="1" res="1.7235388513654470e-03" rms="4.9125975370407104e-01" purity="5.1774001121520996e-01" nType="-99"/>
          <Node pos="r" depth="2" NCoef="0" IVar="-1" Cut="0.0000000000000000e+00" cType="1" res="-4.4983264524489641e-04" rms="4.8609206080436707e-01" purity="4.9557700753211975e-01" nType="-99"/>
        </Node>
      </Node>
    </BinaryTree>
    <BinaryTree type="DecisionTree" boostWeight="1.0000000000000000e+00" itree="765">
      <Node pos="s" depth="0" NCoef="0" IVar="4" Cut="-7.0223355293273926e-01" cType="1" res="2.0887802820652723e-03" rms="4.8834303021430969e-01" purity="5.0266915559768677e-01" nType="0">
        <Node pos="l" depth="1" NCoef="0" IVar="1" Cut="4.0000000000000000e+00" cType="1" res="8.2459626719355583e-03" rms="4.2913377285003662e-01" purity="4.8768693208694458e-01" nType="0">
          <Node pos="l" depth="2" NCoef="0" IVar="-1" Cut="0.0000000000000000e+00" cType="1" res="3.1838105060160160e-03" rms="4.8617035150527954e-01" purity="4.9208500981330872e-01" nType="-99"/>
          <Node pos="r" depth="2" NCoef="0" IVar="-1" Cut="0.0000000000000000e+00" cType="1" res="-1.1782074579969049e-03" rms="4.8385277390480042e-01" purity="4.6832618117332458e-01" nType="-99"/>
        </Node>
        <Node pos="r" depth="1" NCoef="0" IVar="4" Cut="7.4948948621749878e-01" cType="1" res="-2.3039360530674458e-03" rms="4.8917415738105774e-01" purity="5.0812309980392456e-01" nType="0">
          <Node pos="l" depth="2" NCoef="0" IVar="-1" Cut="0.0000000000000000e+00" cType="1" res="-8.6400663712993264e-04" rms="4.9088227748870850e-01" purity="4.9722504615783691e-01" nType="-99"/>
          <Node pos="r" depth="2" NCoef="0" IVar="-1" Cut="0.0000000000000000e+00" cType="1" res="7.8113545896485448e-04" rms="4.8537603020668030e-01" purity="5.3175115585327148e-01" nType="-99"/>
        </Node>
      </Node>
    </BinaryTree>
    <BinaryTree type="DecisionTree" boostWeight="1.0000000000000000e+00" itree="766">
      <Node pos="s" depth="0" NCoef="0" IVar="1" Cut="3.0000000000000000e+00" cType="1" res="-2.1430703345686197e-03" rms="3.7096744775772095e-01" purity="4.9805703759193420e-01" nType="0">
        <Node pos="l" depth="1" NCoef="0" IVar="4" Cut="-7.9593896865844727e-01" cType="1" res="-6.6394843161106110e-03" rms="4.8866146802902222e-01" purity="4.9284970760345459e-01" nType="0">
          <Node pos="l" depth="2" NCoef="0" IVar="-1" Cut="0.0000000000000000e+00" cType="1" res="1.0583237744867802e-03" rms="4.8044645786285400e-01" purity="4.7706633806228638e-01" nType="-99"/>
          <Node pos="r" depth="2" NCoef="0" IVar="-1" Cut="0.0000000000000000e+00" cType="1" res="-1.2816997477784753e-03" rms="4.8960161209106445e-01" purity="4.9471592903137207e-01" nType="-99"/>
        </Node>
        <Node pos="r" depth="1" NCoef="0" IVar="3" Cut="8.9730799198150635e-01" cType="1" res="6.9509795866906643e-03" rms="4.8830074071884155e-01" purity="5.0779467821121216e-01" nType="0">
          <Node pos="l" depth="2" NCoef="0" IVar="-1" Cut="0.0000000000000000e+00" cType="1" res="1.4463071711361408e-03" rms="4.9184784293174744e-01" purity="4.7383162379264832e-01" nType="-99"/>
          <Node pos="r" depth="2" NCoef="0" IVar="-1" Cut="0.0000000000000000e+00" cType="1" res="-3.4872934338636696e-04" rms="4.7510302066802979e-01" purity="6.3103950023651123e-01" nType="-99"/>
        </Node>
      </Node>
    </BinaryTree>
    <BinaryTree type="DecisionTree" boostWeight="1.0000000000000000e+00" itree="767">
      <Node pos="s" depth="0" NCoef="0" IVar="5" Cut="5.0952039659023285e-02" cType="1" res="2.7587797958403826e-03" rms="4.8776441812515259e-01" purity="5.0286203622817993e-01" nType="0">
        <Node pos="l" depth="1" NCoef="0" IVar="3" Cut="-8.9556926488876343e-01" cType="1" res="6.4349442254751921e-04" rms="4.8843169212341309e-01" purity="4.9974548816680908e-01" nType="0">
          <Node pos="l" depth="2" NCoef="0" IVar="-1" Cut="0.0000000000000000e+00" cType="1" res="-1.7349026165902615e-03" rms="4.6268555521965027e-01" purity="3.3447378873825073e-01" nType="-99"/>
          <Node pos="r" depth="2" NCoef="0" IVar="-1" Cut="0.0000000000000000e+00" cType="1" res="3.7285196594893932e-04" rms="4.9285805225372314e-01" purity="5.2920025587081909e-01" nType="-99"/>
        </Node>
        <Node pos="r" depth="1" NCoef="0" IVar="1" Cut="4.0000000000000000e+00" cType="1" res="1.1227516457438469e-02" rms="3.2589504122734070e-01" purity="5.2412897348403931e-01" nType="0">
          <Node pos="l" depth="2" NCoef="0" IVar="-1" Cut="0.0000000000000000e+00" cType="1" res="1.0085169924423099e-03" rms="4.8334953188896179e-01" purity="5.0856840610504150e-01" nType="-99"/>
          <Node pos="r" depth="2" NCoef="0" IVar="-1" Cut="0.0000000000000000e+00" cType="1" res="6.1532766558229923e-03" rms="4.8145201802253723e-01" purity="5.5466675758361816e-01" nType="-99"/>
        </Node>
      </Node>
    </BinaryTree>
    <BinaryTree type="DecisionTree" boostWeight="1.0000000000000000e+00" itree="768">
      <Node pos="s" depth="0" NCoef="0" IVar="0" Cut="8.3851289749145508e+00" cType="1" res="2.4387759622186422e-03" rms="4.8745453357696533e-01" purity="5.0256711244583130e-01" nType="0">
        <Node pos="l" depth="1" NCoef="0" IVar="2" Cut="2.0000000000000000e+00" cType="1" res="-3.4090646659024060e-04" rms="1.3234752230346203e-02" purity="5.2908849716186523e-01" nType="0">
          <Node pos="l" depth="2" NCoef="0" IVar="-1" Cut="0.0000000000000000e+00" cType="1" res="3.0980301089584827e-03" rms="4.9171200394630432e-01" purity="5.4486000537872314e-01" nType="-99"/>
          <Node pos="r" depth="2" NCoef="0" IVar="-1" Cut="0.0000000000000000e+00" cType="1" res="8.8132877135649323e-04" rms="5.0147485733032227e-01" purity="5.0563299655914307e-01" nType="-99"/>
        </Node>
        <Node pos="r" depth="1" NCoef="0" IVar="0" Cut="8.5199651718139648e+00" cType="1" res="2.5590845325496048e-05" rms="4.8640942573547363e-01" purity="4.9946215748786926e-01" nType="0">
          <Node pos="l" depth="2" NCoef="0" IVar="-1" Cut="0.0000000000000000e+00" cType="1" res="-3.8841245695948601e-03" rms="4.9617749452590942e-01" purity="4.7984793782234192e-01" nType="-99"/>
          <Node pos="r" depth="2" NCoef="0" IVar="-1" Cut="0.0000000000000000e+00" cType="1" res="3.8347931695170701e-04" rms="4.8574358224868774e-01" purity="5.0061738491058350e-01" nType="-99"/>
        </Node>
      </Node>
    </BinaryTree>
    <BinaryTree type="DecisionTree" boostWeight="1.0000000000000000e+00" itree="769">
      <Node pos="s" depth="0" NCoef="0" IVar="0" Cut="8.2049665451049805e+00" cType="1" res="-1.6213622875511646e-03" rms="4.8871675133705139e-01" purity="4.9852886795997620e-01" nType="0">
        <Node pos="l" depth="1" NCoef="0" IVar="-1" Cut="0.0000000000000000e+00" cType="1" res="1.9679695833474398e-03" rms="4.9961230158805847e-01" purity="5.1228648424148560e-01" nType="-99"/>
        <Node pos="r" depth="1" NCoef="0" IVar="4" Cut="-8.9297938346862793e-01" cType="1" res="-2.9835510067641735e-03" rms="4.8801544308662415e-01" purity="4.9769526720046997e-01" nType="0">
          <Node pos="l" depth="2" NCoef="0" IVar="-1" Cut="0.0000000000000000e+00" cType="1" res="-5.6594014167785645e-03" rms="4.7349745035171509e-01" purity="4.2528286576271057e-01" nType="-99"/>
          <Node pos="r" depth="2" NCoef="0" IVar="-1" Cut="0.0000000000000000e+00" cType="1" res="-3.1452943221665919e-04" rms="4.8854801058769226e-01" purity="5.0055265426635742e-01" nType="-99"/>
        </Node>
      </Node>
    </BinaryTree>
    <BinaryTree type="DecisionTree" boostWeight="1.0000000000000000e+00" itree="770">
      <Node pos="s" depth="0" NCoef="0" IVar="0" Cut="9.1637821197509766e+00" cType="1" res="-4.1179967229254544e-04" rms="4.8746073246002197e-01" purity="4.9942773580551147e-01" nType="0">
        <Node pos="l" depth="1" NCoef="0" IVar="0" Cut="8.2071752548217773e+00" cType="1" res="-4.9172588624060154e-03" rms="4.9171689152717590e-01" purity="4.9619269371032715e-01" nType="0">
          <Node pos="l" depth="2" NCoef="0" IVar="-1" Cut="0.0000000000000000e+00" cType="1" res="-2.5077590253204107e-03" rms="4.9843272566795349e-01" purity="4.6610212326049805e-01" nType="-99"/>
          <Node pos="r" depth="2" NCoef="0" IVar="-1" Cut="0.0000000000000000e+00" cType="1" res="-3.3858208917081356e-04" rms="4.9090313911437988e-01" purity="4.9954947829246521e-01" nType="-99"/>
        </Node>
        <Node pos="r" depth="1" NCoef="0" IVar="1" Cut="3.0000000000000000e+00" cType="1" res="5.9760315343737602e-03" rms="4.7157877683639526e-01" purity="5.0405102968215942e-01" nType="0">
          <Node pos="l" depth="2" NCoef="0" IVar="-1" Cut="0.0000000000000000e+00" cType="1" res="2.1720731456298381e-04" rms="4.8151507973670959e-01" purity="4.9600741267204285e-01" nType="-99"/>
          <Node pos="r" depth="2" NCoef="0" IVar="-1" Cut="0.0000000000000000e+00" cType="1" res="3.6458855029195547e-03" rms="4.8058161139488220e-01" purity="5.1905959844589233e-01" nType="-99"/>
        </Node>
      </Node>
    </BinaryTree>
    <BinaryTree type="DecisionTree" boostWeight="1.0000000000000000e+00" itree="771">
      <Node pos="s" depth="0" NCoef="0" IVar="0" Cut="8.4147014617919922e+00" cType="1" res="3.2533449120819569e-04" rms="4.8818182945251465e-01" purity="5.0021725893020630e-01" nType="0">
        <Node pos="l" depth="1" NCoef="0" IVar="2" Cut="2.0000000000000000e+00" cType="1" res="-5.0037626351695508e-05" rms="4.1097961366176605e-02" purity="4.9673572182655334e-01" nType="0">
          <Node pos="l" depth="2" NCoef="0" IVar="-1" Cut="0.0000000000000000e+00" cType="1" res="8.0177851486951113e-04" rms="4.9692553281784058e-01" purity="5.2190691232681274e-01" nType="-99"/>
          <Node pos="r" depth="2" NCoef="0" IVar="-1" Cut="0.0000000000000000e+00" cType="1" res="-3.8932682946324348e-03" rms="4.9467793107032776e-01" purity="4.6267220377922058e-01" nType="-99"/>
        </Node>
        <Node pos="r" depth="1" NCoef="0" IVar="0" Cut="8.6822929382324219e+00" cType="1" res="1.8097553402185440e-03" rms="4.8704141378402710e-01" purity="5.0068432092666626e-01" nType="0">
          <Node pos="l" depth="2" NCoef="0" IVar="-1" Cut="0.0000000000000000e+00" cType="1" res="1.4387243427336216e-03" rms="4.9534666538238525e-01" purity="5.1895034313201904e-01" nType="-99"/>
          <Node pos="r" depth="2" NCoef="0" IVar="-1" Cut="0.0000000000000000e+00" cType="1" res="2.8187158022774383e-05" rms="4.8575532436370850e-01" purity="4.9793049693107605e-01" nType="-99"/>
        </Node>
      </Node>
    </BinaryTree>
    <BinaryTree type="DecisionTree" boostWeight="1.0000000000000000e+00" itree="772">
      <Node pos="s" depth="0" NCoef="0" IVar="5" Cut="-6.9047629833221436e-01" cType="1" res="6.5464538056403399e-04" rms="4.8799625039100647e-01" purity="5.0059562921524048e-01" nType="0">
        <Node pos="l" depth="1" NCoef="0" IVar="3" Cut="8.9730787277221680e-01" cType="1" res="-1.7586922273039818e-02" rms="4.8431831598281860e-01" purity="4.8259565234184265e-01" nType="0">
          <Node pos="l" depth="2" NCoef="0" IVar="-1" Cut="0.0000000000000000e+00" cType="1" res="-4.4715804979205132e-03" rms="4.8647406697273254e-01" purity="4.2142426967620850e-01" nType="-99"/>
          <Node pos="r" depth="2" NCoef="0" IVar="-1" Cut="0.0000000000000000e+00" cType="1" res="1.4608381316065788e-03" rms="4.7841548919677734e-01" purity="6.2128859758377075e-01" nType="-99"/>
        </Node>
        <Node pos="r" depth="1" NCoef="0" IVar="4" Cut="4.7361455857753754e-02" cType="1" res="3.2411948777735233e-03" rms="4.8846039175987244e-01" purity="5.0314784049987793e-01" nType="0">
          <Node pos="l" depth="2" NCoef="0" IVar="-1" Cut="0.0000000000000000e+00" cType="1" res="2.0009465515613556e-04" rms="4.8949426412582397e-01" purity="4.9398612976074219e-01" nType="-99"/>
          <Node pos="r" depth="2" NCoef="0" IVar="-1" Cut="0.0000000000000000e+00" cType="1" res="1.5240615466609597e-03" rms="4.8513022065162659e-01" purity="5.3206962347030640e-01" nType="-99"/>
        </Node>
      </Node>
    </BinaryTree>
    <BinaryTree type="DecisionTree" boostWeight="1.0000000000000000e+00" itree="773">
      <Node pos="s" depth="0" NCoef="0" IVar="4" Cut="-7.9886198043823242e-01" cType="1" res="-7.4781553121283650e-04" rms="4.8752334713935852e-01" purity="4.9953129887580872e-01" nType="0">
        <Node pos="l" depth="1" NCoef="0" IVar="0" Cut="9.1424016952514648e+00" cType="1" res="-1.2714303098618984e-02" rms="4.7862127423286438e-01" purity="4.5535311102867126e-01" nType="0">
          <Node pos="l" depth="2" NCoef="0" IVar="-1" Cut="0.0000000000000000e+00" cType="1" res="-3.7829985376447439e-03" rms="4.8055613040924072e-01" purity="4.3841558694839478e-01" nType="-99"/>
          <Node pos="r" depth="2" NCoef="0" IVar="-1" Cut="0.0000000000000000e+00" cType="1" res="1.1530108749866486e-03" rms="4.7575846314430237e-01" purity="4.7517764568328857e-01" nType="-99"/>
        </Node>
        <Node pos="r" depth="1" NCoef="0" IVar="3" Cut="-8.9550876617431641e-01" cType="1" res="1.3474256265908480e-03" rms="4.8903524875640869e-01" purity="5.0726658105850220e-01" nType="0">
          <Node pos="l" depth="2" NCoef="0" IVar="-1" Cut="0.0000000000000000e+00" cType="1" res="-1.5989530365914106e-03" rms="4.6980693936347961e-01" purity="3.5937634110450745e-01" nType="-99"/>
          <Node pos="r" depth="2" NCoef="0" IVar="-1" Cut="0.0000000000000000e+00" cType="1" res="4.9252633471041918e-04" rms="4.9243614077568054e-01" purity="5.3422170877456665e-01" nType="-99"/>
        </Node>
      </Node>
    </BinaryTree>
    <BinaryTree type="DecisionTree" boostWeight="1.0000000000000000e+00" itree="774">
      <Node pos="s" depth="0" NCoef="0" IVar="4" Cut="8.8907891511917114e-01" cType="1" res="-4.5101225259713829e-04" rms="4.8851704597473145e-01" purity="5.0008791685104370e-01" nType="0">
        <Node pos="l" depth="1" NCoef="0" IVar="3" Cut="-7.0764225721359253e-01" cType="1" res="8.0705311847850680e-04" rms="4.8876696825027466e-01" purity="4.9980270862579346e-01" nType="0">
          <Node pos="l" depth="2" NCoef="0" IVar="-1" Cut="0.0000000000000000e+00" cType="1" res="-7.0930848596617579e-04" rms="4.8858031630516052e-01" purity="4.2426317930221558e-01" nType="-99"/>
          <Node pos="r" depth="2" NCoef="0" IVar="-1" Cut="0.0000000000000000e+00" cType="1" res="9.3407247914001346e-04" rms="4.8888874053955078e-01" purity="5.7113373279571533e-01" nType="-99"/>
        </Node>
        <Node pos="r" depth="1" NCoef="0" IVar="-1" Cut="0.0000000000000000e+00" cType="1" res="-5.6216004304587841e-03" rms="4.8150339722633362e-01" purity="5.0692468881607056e-01" nType="-99"/>
      </Node>
    </BinaryTree>
    <BinaryTree type="DecisionTree" boostWeight="1.0000000000000000e+00" itree="775">
      <Node pos="s" depth="0" NCoef="0" IVar="5" Cut="7.9310125112533569e-01" cType="1" res="-3.9166966453194618e-03" rms="4.8759177327156067e-01" purity="4.9602434039115906e-01" nType="0">
        <Node pos="l" depth="1" NCoef="0" IVar="4" Cut="-6.9943785667419434e-01" cType="1" res="-2.5706321466714144e-03" rms="4.8796635866165161e-01" purity="4.9642121791839600e-01" nType="0">
          <Node pos="l" depth="2" NCoef="0" IVar="-1" Cut="0.0000000000000000e+00" cType="1" res="-1.6896891174837947e-03" rms="4.8451042175292969e-01" purity="4.6427878737449646e-01" nType="-99"/>
          <Node pos="r" depth="2" NCoef="0" IVar="-1" Cut="0.0000000000000000e+00" cType="1" res="2.9257869755383581e-05" rms="4.8913505673408508e-01" purity="5.0762325525283813e-01" nType="-99"/>
        </Node>
        <Node pos="r" depth="1" NCoef="0" IVar="-1" Cut="0.0000000000000000e+00" cType="1" res="-5.1196650601923466e-03" rms="4.7964352369308472e-01" purity="4.8843261599540710e-01" nType="-99"/>
      </Node>
    </BinaryTree>
    <BinaryTree type="DecisionTree" boostWeight="1.0000000000000000e+00" itree="776">
      <Node pos="s" depth="0" NCoef="0" IVar="5" Cut="-7.8273791074752808e-01" cType="1" res="6.0148222837597132e-04" rms="4.8775425553321838e-01" purity="5.0093442201614380e-01" nType="0">
        <Node pos="l" depth="1" NCoef="0" IVar="3" Cut="-8.0142408609390259e-01" cType="1" res="-1.5340244397521019e-02" rms="4.8356509208679199e-01" purity="4.7776794433593750e-01" nType="0">
          <Node pos="l" depth="2" NCoef="0" IVar="-1" Cut="0.0000000000000000e+00" cType="1" res="-5.6303814053535461e-03" rms="4.7612383961677551e-01" purity="3.6365067958831787e-01" nType="-99"/>
          <Node pos="r" depth="2" NCoef="0" IVar="-1" Cut="0.0000000000000000e+00" cType="1" res="1.5186655218712986e-04" rms="4.8977869749069214e-01" purity="5.8321708440780640e-01" nType="-99"/>
        </Node>
        <Node pos="r" depth="1" NCoef="0" IVar="4" Cut="-8.8625293970108032e-01" cType="1" res="1.5897481935098767e-03" rms="4.8799562454223633e-01" purity="5.0237059593200684e-01" nType="0">
          <Node pos="l" depth="2" NCoef="0" IVar="-1" Cut="0.0000000000000000e+00" cType="1" res="5.4505364969372749e-03" rms="4.6635922789573669e-01" purity="4.9920111894607544e-01" nType="-99"/>
          <Node pos="r" depth="2" NCoef="0" IVar="-1" Cut="0.0000000000000000e+00" cType="1" res="9.9707911431323737e-05" rms="4.8867601156234741e-01" purity="5.0247693061828613e-01" nType="-99"/>
        </Node>
      </Node>
    </BinaryTree>
    <BinaryTree type="DecisionTree" boostWeight="1.0000000000000000e+00" itree="777">
      <Node pos="s" depth="0" NCoef="0" IVar="0" Cut="9.2668752670288086e+00" cType="1" res="-3.1958131585270166e-03" rms="4.8883518576622009e-01" purity="4.9726220965385437e-01" nType="0">
        <Node pos="l" depth="1" NCoef="0" IVar="5" Cut="7.7969652414321899e-01" cType="1" res="-6.8478151224553585e-03" rms="4.9219700694084167e-01" purity="4.9491152167320251e-01" nType="0">
          <Node pos="l" depth="2" NCoef="0" IVar="-1" Cut="0.0000000000000000e+00" cType="1" res="-6.7143945489078760e-04" rms="4.9228936433792114e-01" purity="4.9616047739982605e-01" nType="-99"/>
          <Node pos="r" depth="2" NCoef="0" IVar="-1" Cut="0.0000000000000000e+00" cType="1" res="-4.9024224281311035e-03" rms="4.8996013402938843e-01" purity="4.7608497738838196e-01" nType="-99"/>
        </Node>
        <Node pos="r" depth="1" NCoef="0" IVar="0" Cut="9.9748525619506836e+00" cType="1" res="4.1268346831202507e-03" rms="4.8194035887718201e-01" purity="5.0197553634643555e-01" nType="0">
          <Node pos="l" depth="2" NCoef="0" IVar="-1" Cut="0.0000000000000000e+00" cType="1" res="1.7773037543520331e-03" rms="4.8317882418632507e-01" purity="5.0616949796676636e-01" nType="-99"/>
          <Node pos="r" depth="2" NCoef="0" IVar="-1" Cut="0.0000000000000000e+00" cType="1" res="-1.1342656798660755e-02" rms="4.6573275327682495e-01" purity="4.5372730493545532e-01" nType="-99"/>
        </Node>
      </Node>
    </BinaryTree>
    <BinaryTree type="DecisionTree" boostWeight="1.0000000000000000e+00" itree="778">
      <Node pos="s" depth="0" NCoef="0" IVar="1" Cut="5.0000000000000000e+00" cType="1" res="1.0823160409927368e-03" rms="1.7440462112426758e-01" purity="5.0083875656127930e-01" nType="0">
        <Node pos="l" depth="1" NCoef="0" IVar="0" Cut="8.4392223358154297e+00" cType="1" res="-2.2696611995343119e-04" rms="4.8843035101890564e-01" purity="4.9900731444358826e-01" nType="0">
          <Node pos="l" depth="2" NCoef="0" IVar="-1" Cut="0.0000000000000000e+00" cType="1" res="9.8054099362343550e-04" rms="4.9639856815338135e-01" purity="5.1421070098876953e-01" nType="-99"/>
          <Node pos="r" depth="2" NCoef="0" IVar="-1" Cut="0.0000000000000000e+00" cType="1" res="-2.9322342015802860e-04" rms="4.8727908730506897e-01" purity="4.9686425924301147e-01" nType="-99"/>
        </Node>
        <Node pos="r" depth="1" NCoef="0" IVar="-1" Cut="0.0000000000000000e+00" cType="1" res="2.8455734718590975e-03" rms="4.8645368218421936e-01" purity="5.3711122274398804e-01" nType="-99"/>
      </Node>
    </BinaryTree>
    <BinaryTree type="DecisionTree" boostWeight="1.0000000000000000e+00" itree="779">
      <Node pos="s" depth="0" NCoef="0" IVar="4" Cut="8.9246982336044312e-01" cType="1" res="-1.5068021602928638e-03" rms="4.8816353082656860e-01" purity="4.9775764346122742e-01" nType="0">
        <Node pos="l" depth="1" NCoef="0" IVar="2" Cut="2.0000000000000000e+00" cType="1" res="-1.7923671111930162e-04" rms="1.5306235849857330e-01" purity="4.9544510245323181e-01" nType="0">
          <Node pos="l" depth="2" NCoef="0" IVar="-1" Cut="0.0000000000000000e+00" cType="1" res="-1.0280229616910219e-03" rms="4.8711082339286804e-01" purity="4.9027037620544434e-01" nType="-99"/>
          <Node pos="r" depth="2" NCoef="0" IVar="-1" Cut="0.0000000000000000e+00" cType="1" res="5.0085963448509574e-04" rms="4.9009898304939270e-01" purity="5.0223457813262939e-01" nType="-99"/>
        </Node>
        <Node pos="r" depth="1" NCoef="0" IVar="-1" Cut="0.0000000000000000e+00" cType="1" res="4.6245455741882324e-03" rms="4.8031610250473022e-01" purity="5.5889075994491577e-01" nType="-99"/>
      </Node>
    </BinaryTree>
    <BinaryTree type="DecisionTree" boostWeight="1.0000000000000000e+00" itree="780">
      <Node pos="s" depth="0" NCoef="0" IVar="2" Cut="2.0000000000000000e+00" cType="1" res="5.3152203327044845e-04" rms="9.1650344431400299e-02" purity="5.0083374977111816e-01" nType="0">
        <Node pos="l" depth="1" NCoef="0" IVar="5" Cut="4.9720384180545807e-02" cType="1" res="4.6784784644842148e-03" rms="4.8786240816116333e-01" purity="5.0388979911804199e-01" nType="0">
          <Node pos="l" depth="2" NCoef="0" IVar="-1" Cut="0.0000000000000000e+00" cType="1" res="1.1382382363080978e-03" rms="4.8830518126487732e-01" purity="5.0460332632064819e-01" nType="-99"/>
          <Node pos="r" depth="2" NCoef="0" IVar="-1" Cut="0.0000000000000000e+00" cType="1" res="-1.8774898489937186e-03" rms="4.8494470119476318e-01" purity="4.9971756339073181e-01" nType="-99"/>
        </Node>
        <Node pos="r" depth="1" NCoef="0" IVar="3" Cut="8.9027541875839233e-01" cType="1" res="-4.0595065802335739e-03" rms="4.9051135778427124e-01" purity="4.9669227004051208e-01" nType="0">
          <Node pos="l" depth="2" NCoef="0" IVar="-1" Cut="0.0000000000000000e+00" cType="1" res="-1.3081049546599388e-03" rms="4.9385830760002136e-01" purity="4.6983268857002258e-01" nType="-99"/>
          <Node pos="r" depth="2" NCoef="0" IVar="-1" Cut="0.0000000000000000e+00" cType="1" res="3.3089774660766125e-03" rms="4.7028481960296631e-01" purity="6.5066009759902954e-01" nType="-99"/>
        </Node>
      </Node>
    </BinaryTree>
    <BinaryTree type="DecisionTree" boostWeight="1.0000000000000000e+00" itree="781">
      <Node pos="s" depth="0" NCoef="0" IVar="0" Cut="8.5863714218139648e+00" cType="1" res="-2.7791187167167664e-03" rms="4.8862284421920776e-01" purity="4.9652823805809021e-01" nType="0">
        <Node pos="l" depth="1" NCoef="0" IVar="3" Cut="7.9723250865936279e-01" cType="1" res="-1.6229130327701569e-02" rms="4.9422377347946167e-01" purity="4.9028345942497253e-01" nType="0">
          <Node pos="l" depth="2" NCoef="0" IVar="-1" Cut="0.0000000000000000e+00" cType="1" res="-2.6061935350298882e-03" rms="4.9587935209274292e-01" purity="4.5126903057098389e-01" nType="-99"/>
          <Node pos="r" depth="2" NCoef="0" IVar="-1" Cut="0.0000000000000000e+00" cType="1" res="-2.8647302315221168e-05" rms="4.9079787731170654e-01" purity="5.6121373176574707e-01" nType="-99"/>
        </Node>
        <Node pos="r" depth="1" NCoef="0" IVar="1" Cut="4.0000000000000000e+00" cType="1" res="-8.7449589045718312e-05" rms="4.7140350937843323e-01" purity="4.9798086285591125e-01" nType="0">
          <Node pos="l" depth="2" NCoef="0" IVar="-1" Cut="0.0000000000000000e+00" cType="1" res="3.7430869997479022e-04" rms="4.8717305064201355e-01" purity="4.9865499138832092e-01" nType="-99"/>
          <Node pos="r" depth="2" NCoef="0" IVar="-1" Cut="0.0000000000000000e+00" cType="1" res="-1.9077272154390812e-03" rms="4.8763886094093323e-01" purity="4.9389544129371643e-01" nType="-99"/>
        </Node>
      </Node>
    </BinaryTree>
    <BinaryTree type="DecisionTree" boostWeight="1.0000000000000000e+00" itree="782">
      <Node pos="s" depth="0" NCoef="0" IVar="1" Cut="2.0000000000000000e+00" cType="1" res="1.8363501876592636e-03" rms="3.6376228928565979e-01" purity="5.0198853015899658e-01" nType="0">
        <Node pos="l" depth="1" NCoef="0" IVar="4" Cut="-6.9871383905410767e-01" cType="1" res="-1.3582356274127960e-02" rms="4.8890087008476257e-01" purity="4.8683857917785645e-01" nType="0">
          <Node pos="l" depth="2" NCoef="0" IVar="-1" Cut="0.0000000000000000e+00" cType="1" res="1.1219816515222192e-03" rms="4.8772662878036499e-01" purity="4.9203476309776306e-01" nType="-99"/>
          <Node pos="r" depth="2" NCoef="0" IVar="-1" Cut="0.0000000000000000e+00" cType="1" res="-2.6489573065191507e-03" rms="4.8901605606079102e-01" purity="4.8592016100883484e-01" nType="-99"/>
        </Node>
        <Node pos="r" depth="1" NCoef="0" IVar="1" Cut="4.0000000000000000e+00" cType="1" res="4.7426689416170120e-03" rms="3.1418198347091675e-01" purity="5.0833219289779663e-01" nType="0">
          <Node pos="l" depth="2" NCoef="0" IVar="-1" Cut="0.0000000000000000e+00" cType="1" res="1.0227593593299389e-03" rms="4.8756071925163269e-01" purity="5.0402677059173584e-01" nType="-99"/>
          <Node pos="r" depth="2" NCoef="0" IVar="-1" Cut="0.0000000000000000e+00" cType="1" res="3.2292371615767479e-03" rms="4.8896449804306030e-01" purity="5.2561759948730469e-01" nType="-99"/>
        </Node>
      </Node>
    </BinaryTree>
    <BinaryTree type="DecisionTree" boostWeight="1.0000000000000000e+00" itree="783">
      <Node pos="s" depth="0" NCoef="0" IVar="3" Cut="-8.0208969116210938e-01" cType="1" res="-1.4847526326775551e-03" rms="4.8785951733589172e-01" purity="4.9673563241958618e-01" nType="0">
        <Node pos="l" depth="1" NCoef="0" IVar="0" Cut="9.0343761444091797e+00" cType="1" res="-7.5230034999549389e-03" rms="4.8250335454940796e-01" purity="4.0020653605461121e-01" nType="0">
          <Node pos="l" depth="2" NCoef="0" IVar="-1" Cut="0.0000000000000000e+00" cType="1" res="-2.2917320020496845e-03" rms="4.8773774504661560e-01" purity="4.1282275319099426e-01" nType="-99"/>
          <Node pos="r" depth="2" NCoef="0" IVar="-1" Cut="0.0000000000000000e+00" cType="1" res="3.9124567410908639e-04" rms="4.7780022025108337e-01" purity="3.8944983482360840e-01" nType="-99"/>
        </Node>
        <Node pos="r" depth="1" NCoef="0" IVar="3" Cut="9.0624225139617920e-01" cType="1" res="2.1492850501090288e-03" rms="4.9101907014846802e-01" purity="5.5483025312423706e-01" nType="0">
          <Node pos="l" depth="2" NCoef="0" IVar="-1" Cut="0.0000000000000000e+00" cType="1" res="9.1926346067339182e-04" rms="4.9712035059928894e-01" purity="5.2690696716308594e-01" nType="-99"/>
          <Node pos="r" depth="2" NCoef="0" IVar="-1" Cut="0.0000000000000000e+00" cType="1" res="-2.1395948715507984e-03" rms="4.7037786245346069e-01" purity="6.4566570520401001e-01" nType="-99"/>
        </Node>
      </Node>
    </BinaryTree>
    <BinaryTree type="DecisionTree" boostWeight="1.0000000000000000e+00" itree="784">
      <Node pos="s" depth="0" NCoef="0" IVar="0" Cut="8.4392223358154297e+00" cType="1" res="-2.9714715201407671e-03" rms="4.8838990926742554e-01" purity="4.9705231189727783e-01" nType="0">
        <Node pos="l" depth="1" NCoef="0" IVar="3" Cut="7.8954607248306274e-01" cType="1" res="-2.0693674683570862e-02" rms="4.9745050072669983e-01" purity="4.8392897844314575e-01" nType="0">
          <Node pos="l" depth="2" NCoef="0" IVar="-1" Cut="0.0000000000000000e+00" cType="1" res="-1.5020493883639574e-03" rms="4.9747788906097412e-01" purity="4.6299096941947937e-01" nType="-99"/>
          <Node pos="r" depth="2" NCoef="0" IVar="-1" Cut="0.0000000000000000e+00" cType="1" res="-3.1958054751157761e-03" rms="4.9722769856452942e-01" purity="5.2071470022201538e-01" nType="-99"/>
        </Node>
        <Node pos="r" depth="1" NCoef="0" IVar="0" Cut="8.8517055511474609e+00" cType="1" res="-4.2692449642345309e-04" rms="4.8702219128608704e-01" purity="4.9893659353256226e-01" nType="0">
          <Node pos="l" depth="2" NCoef="0" IVar="-1" Cut="0.0000000000000000e+00" cType="1" res="1.3700418639928102e-03" rms="4.9273449182510376e-01" purity="5.1193320751190186e-01" nType="-99"/>
          <Node pos="r" depth="2" NCoef="0" IVar="-1" Cut="0.0000000000000000e+00" cType="1" res="-8.2528061466291547e-04" rms="4.8512285947799683e-01" purity="4.9478241801261902e-01" nType="-99"/>
        </Node>
      </Node>
    </BinaryTree>
    <BinaryTree type="DecisionTree" boostWeight="1.0000000000000000e+00" itree="785">
      <Node pos="s" depth="0" NCoef="0" IVar="2" Cut="3.0000000000000000e+00" cType="1" res="-6.5519323106855154e-04" rms="1.1629963666200638e-01" purity="4.9941322207450867e-01" nType="0">
        <Node pos="l" depth="1" NCoef="0" IVar="5" Cut="7.9050368070602417e-01" cType="1" res="-2.4065952748060226e-03" rms="4.8796620965003967e-01" purity="4.9680027365684509e-01" nType="0">
          <Node pos="l" depth="2" NCoef="0" IVar="-1" Cut="0.0000000000000000e+00" cType="1" res="-1.3692858919966966e-04" rms="4.8785758018493652e-01" purity="4.9715766310691833e-01" nType="-99"/>
          <Node pos="r" depth="2" NCoef="0" IVar="-1" Cut="0.0000000000000000e+00" cType="1" res="-4.3988460674881935e-03" rms="4.8905780911445618e-01" purity="4.9106013774871826e-01" nType="-99"/>
        </Node>
        <Node pos="r" depth="1" NCoef="0" IVar="0" Cut="9.0138463973999023e+00" cType="1" res="1.7555005848407745e-02" rms="4.9162572622299194e-01" purity="5.2096354961395264e-01" nType="0">
          <Node pos="l" depth="2" NCoef="0" IVar="-1" Cut="0.0000000000000000e+00" cType="1" res="4.7958656214177608e-03" rms="4.9208346009254456e-01" purity="5.4372215270996094e-01" nType="-99"/>
          <Node pos="r" depth="2" NCoef="0" IVar="-1" Cut="0.0000000000000000e+00" cType="1" res="4.5698418398387730e-04" rms="4.9067264795303345e-01" purity="5.0011682510375977e-01" nType="-99"/>
        </Node>
      </Node>
    </BinaryTree>
    <BinaryTree type="DecisionTree" boostWeight="1.0000000000000000e+00" itree="786">
      <Node pos="s" depth="0" NCoef="0" IVar="5" Cut="-6.9119721651077271e-01" cType="1" res="1.7404473619535565e-03" rms="4.8772203922271729e-01" purity="5.0091367959976196e-01" nType="0">
        <Node pos="l" depth="1" NCoef="0" IVar="5" Cut="-8.1507295370101929e-01" cType="1" res="1.8936691805720329e-02" rms="4.8335188627243042e-01" purity="5.1554238796234131e-01" nType="0">
          <Node pos="l" depth="2" NCoef="0" IVar="-1" Cut="0.0000000000000000e+00" cType="1" res="-4.1301464079879224e-04" rms="4.7861176729202271e-01" purity="4.9371278285980225e-01" nType="-99"/>
          <Node pos="r" depth="2" NCoef="0" IVar="-1" Cut="0.0000000000000000e+00" cType="1" res="4.4506667181849480e-03" rms="4.8501884937286377e-01" purity="5.2452111244201660e-01" nType="-99"/>
        </Node>
        <Node pos="r" depth="1" NCoef="0" IVar="2" Cut="2.0000000000000000e+00" cType="1" res="6.8661326076835394e-04" rms="9.6744388341903687e-02" purity="4.9883922934532166e-01" nType="0">
          <Node pos="l" depth="2" NCoef="0" IVar="-1" Cut="0.0000000000000000e+00" cType="1" res="-9.5328188035637140e-04" rms="4.8633828759193420e-01" purity="4.9160450696945190e-01" nType="-99"/>
          <Node pos="r" depth="2" NCoef="0" IVar="-1" Cut="0.0000000000000000e+00" cType="1" res="1.0586385615170002e-03" rms="4.9067243933677673e-01" purity="5.0805222988128662e-01" nType="-99"/>
        </Node>
      </Node>
    </BinaryTree>
    <BinaryTree type="DecisionTree" boostWeight="1.0000000000000000e+00" itree="787">
      <Node pos="s" depth="0" NCoef="0" IVar="5" Cut="7.8273522853851318e-01" cType="1" res="3.9705592207610607e-03" rms="4.8778983950614929e-01" purity="5.0385546684265137e-01" nType="0">
        <Node pos="l" depth="1" NCoef="0" IVar="0" Cut="9.0248241424560547e+00" cType="1" res="5.5286651477217674e-03" rms="4.8802021145820618e-01" purity="5.0442588329315186e-01" nType="0">
          <Node pos="l" depth="2" NCoef="0" IVar="-1" Cut="0.0000000000000000e+00" cType="1" res="1.6348001081496477e-03" rms="4.9288457632064819e-01" purity="5.1281571388244629e-01" nType="-99"/>
          <Node pos="r" depth="2" NCoef="0" IVar="-1" Cut="0.0000000000000000e+00" cType="1" res="-2.6315290597267449e-04" rms="4.8349931836128235e-01" purity="4.9687132239341736e-01" nType="-99"/>
        </Node>
        <Node pos="r" depth="1" NCoef="0" IVar="5" Cut="8.2668334245681763e-01" cType="1" res="-2.0551092922687531e-02" rms="4.8348903656005859e-01" purity="4.9487948417663574e-01" nType="0">
          <Node pos="l" depth="2" NCoef="0" IVar="-1" Cut="0.0000000000000000e+00" cType="1" res="-9.9705194588750601e-04" rms="4.8692932724952698e-01" purity="5.0699722766876221e-01" nType="-99"/>
          <Node pos="r" depth="2" NCoef="0" IVar="-1" Cut="0.0000000000000000e+00" cType="1" res="-6.5006772056221962e-03" rms="4.7937107086181641e-01" purity="4.8208412528038025e-01" nType="-99"/>
        </Node>
      </Node>
    </BinaryTree>
    <BinaryTree type="DecisionTree" boostWeight="1.0000000000000000e+00" itree="788">
      <Node pos="s" depth="0" NCoef="0" IVar="5" Cut="5.4848652333021164e-02" cType="1" res="1.8273481400683522e-03" rms="4.8789662122726440e-01" purity="5.0128573179244995e-01" nType="0">
        <Node pos="l" depth="1" NCoef="0" IVar="1" Cut="3.0000000000000000e+00" cType="1" res="3.5640131682157516e-04" rms="3.7995532155036926e-01" purity="4.9793106317520142e-01" nType="0">
          <Node pos="l" depth="2" NCoef="0" IVar="-1" Cut="0.0000000000000000e+00" cType="1" res="3.2861143699847162e-04" rms="4.8813441395759583e-01" purity="5.0065660476684570e-01" nType="-99"/>
          <Node pos="r" depth="2" NCoef="0" IVar="-1" Cut="0.0000000000000000e+00" cType="1" res="-1.1201474117115140e-03" rms="4.8846101760864258e-01" purity="4.9098348617553711e-01" nType="-99"/>
        </Node>
        <Node pos="r" depth="1" NCoef="0" IVar="5" Cut="8.1854468584060669e-01" cType="1" res="1.7840052023530006e-02" rms="4.8525404930114746e-01" purity="5.2378922700881958e-01" nType="0">
          <Node pos="l" depth="2" NCoef="0" IVar="-1" Cut="0.0000000000000000e+00" cType="1" res="1.7449512379243970e-03" rms="4.8515117168426514e-01" purity="5.1476573944091797e-01" nType="-99"/>
          <Node pos="r" depth="2" NCoef="0" IVar="-1" Cut="0.0000000000000000e+00" cType="1" res="5.9073367156088352e-03" rms="4.8512145876884460e-01" purity="5.4803818464279175e-01" nType="-99"/>
        </Node>
      </Node>
    </BinaryTree>
    <BinaryTree type="DecisionTree" boostWeight="1.0000000000000000e+00" itree="789">
      <Node pos="s" depth="0" NCoef="0" IVar="3" Cut="-8.0208969116210938e-01" cType="1" res="-4.6865032054483891e-03" rms="4.8760229349136353e-01" purity="4.9588316679000854e-01" nType="0">
        <Node pos="l" depth="1" NCoef="0" IVar="3" Cut="-8.2010114192962646e-01" cType="1" res="-9.3487473204731941e-03" rms="4.8293182253837585e-01" purity="3.9844027161598206e-01" nType="0">
          <Node pos="l" depth="2" NCoef="0" IVar="-1" Cut="0.0000000000000000e+00" cType="1" res="-1.1002318933606148e-03" rms="4.8178207874298096e-01" purity="3.9600861072540283e-01" nType="-99"/>
          <Node pos="r" depth="2" NCoef="0" IVar="-1" Cut="0.0000000000000000e+00" cType="1" res="-5.3513138554990292e-03" rms="4.9326592683792114e-01" purity="4.2246142029762268e-01" nType="-99"/>
        </Node>
        <Node pos="r" depth="1" NCoef="0" IVar="0" Cut="9.2769765853881836e+00" cType="1" res="-1.9955043680965900e-03" rms="4.9025762081146240e-01" purity="5.5212616920471191e-01" nType="0">
          <Node pos="l" depth="2" NCoef="0" IVar="-1" Cut="0.0000000000000000e+00" cType="1" res="2.7308249264024198e-04" rms="4.9201664328575134e-01" purity="5.4910767078399658e-01" nType="-99"/>
          <Node pos="r" depth="2" NCoef="0" IVar="-1" Cut="0.0000000000000000e+00" cType="1" res="-2.5171064771711826e-03" rms="4.8628750443458557e-01" purity="5.5870491266250610e-01" nType="-99"/>
        </Node>
      </Node>
    </BinaryTree>
    <BinaryTree type="DecisionTree" boostWeight="1.0000000000000000e+00" itree="790">
      <Node pos="s" depth="0" NCoef="0" IVar="0" Cut="9.4886407852172852e+00" cType="1" res="2.7740671066567302e-04" rms="4.8802790045738220e-01" purity="5.0036609172821045e-01" nType="0">
        <Node pos="l" depth="1" NCoef="0" IVar="5" Cut="-6.9119721651077271e-01" cType="1" res="-1.5917898854240775e-03" rms="4.9024504423141479e-01" purity="5.0022363662719727e-01" nType="0">
          <Node pos="l" depth="2" NCoef="0" IVar="-1" Cut="0.0000000000000000e+00" cType="1" res="1.9401558674871922e-03" rms="4.8696240782737732e-01" purity="5.0994676351547241e-01" nType="-99"/>
          <Node pos="r" depth="2" NCoef="0" IVar="-1" Cut="0.0000000000000000e+00" cType="1" res="-5.0673610530793667e-04" rms="4.9066472053527832e-01" purity="4.9888139963150024e-01" nType="-99"/>
        </Node>
        <Node pos="r" depth="1" NCoef="0" IVar="4" Cut="7.9473954439163208e-01" cType="1" res="8.9413598179817200e-03" rms="4.7752127051353455e-01" purity="5.0102645158767700e-01" nType="0">
          <Node pos="l" depth="2" NCoef="0" IVar="-1" Cut="0.0000000000000000e+00" cType="1" res="3.6054602824151516e-03" rms="4.7906556725502014e-01" purity="4.9926084280014038e-01" nType="-99"/>
          <Node pos="r" depth="2" NCoef="0" IVar="-1" Cut="0.0000000000000000e+00" cType="1" res="-3.8004196248948574e-03" rms="4.6923276782035828e-01" purity="5.0973469018936157e-01" nType="-99"/>
        </Node>
      </Node>
    </BinaryTree>
    <BinaryTree type="DecisionTree" boostWeight="1.0000000000000000e+00" itree="791">
      <Node pos="s" depth="0" NCoef="0" IVar="3" Cut="-8.9653080701828003e-01" cType="1" res="2.1868068724870682e-03" rms="4.8912966251373291e-01" purity="5.0163328647613525e-01" nType="0">
        <Node pos="l" depth="1" NCoef="0" IVar="0" Cut="9.1463222503662109e+00" cType="1" res="1.5263385139405727e-02" rms="4.7202625870704651e-01" purity="3.6435487866401672e-01" nType="0">
          <Node pos="l" depth="2" NCoef="0" IVar="-1" Cut="0.0000000000000000e+00" cType="1" res="4.4837817549705505e-03" rms="4.8460865020751953e-01" purity="4.0379223227500916e-01" nType="-99"/>
          <Node pos="r" depth="2" NCoef="0" IVar="-1" Cut="0.0000000000000000e+00" cType="1" res="1.4854405890218914e-04" rms="4.5979711413383484e-01" purity="3.2850402593612671e-01" nType="-99"/>
        </Node>
        <Node pos="r" depth="1" NCoef="0" IVar="2" Cut="3.0000000000000000e+00" cType="1" res="-5.3112773457542062e-04" rms="3.9705894887447357e-02" purity="5.2980303764343262e-01" nType="0">
          <Node pos="l" depth="2" NCoef="0" IVar="-1" Cut="0.0000000000000000e+00" cType="1" res="2.3999623954296112e-04" rms="4.9208414554595947e-01" purity="5.3311461210250854e-01" nType="-99"/>
          <Node pos="r" depth="2" NCoef="0" IVar="-1" Cut="0.0000000000000000e+00" cType="1" res="-2.8916199225932360e-03" rms="4.9547734856605530e-01" purity="5.0538885593414307e-01" nType="-99"/>
        </Node>
      </Node>
    </BinaryTree>
    <BinaryTree type="DecisionTree" boostWeight="1.0000000000000000e+00" itree="792">
      <Node pos="s" depth="0" NCoef="0" IVar="0" Cut="9.2769765853881836e+00" cType="1" res="-2.3381335195153952e-03" rms="4.8777785897254944e-01" purity="4.9797236919403076e-01" nType="0">
        <Node pos="l" depth="1" NCoef="0" IVar="3" Cut="-7.0552223920822144e-01" cType="1" res="-4.5990222133696079e-03" rms="4.9093675613403320e-01" purity="4.9780505895614624e-01" nType="0">
          <Node pos="l" depth="2" NCoef="0" IVar="-1" Cut="0.0000000000000000e+00" cType="1" res="-1.2434589443728328e-03" rms="4.9052852392196655e-01" purity="4.3072691559791565e-01" nType="-99"/>
          <Node pos="r" depth="2" NCoef="0" IVar="-1" Cut="0.0000000000000000e+00" cType="1" res="-1.8473594536771998e-05" rms="4.9129322171211243e-01" purity="5.6318724155426025e-01" nType="-99"/>
        </Node>
        <Node pos="r" depth="1" NCoef="0" IVar="0" Cut="9.6795921325683594e+00" cType="1" res="2.5357059203088284e-03" rms="4.8086145520210266e-01" purity="4.9833315610885620e-01" nType="0">
          <Node pos="l" depth="2" NCoef="0" IVar="-1" Cut="0.0000000000000000e+00" cType="1" res="1.6759650316089392e-03" rms="4.8286244273185730e-01" purity="5.0533318519592285e-01" nType="-99"/>
          <Node pos="r" depth="2" NCoef="0" IVar="-1" Cut="0.0000000000000000e+00" cType="1" res="-2.8833707328885794e-03" rms="4.7560676932334900e-01" purity="4.8080414533615112e-01" nType="-99"/>
        </Node>
      </Node>
    </BinaryTree>
    <BinaryTree type="DecisionTree" boostWeight="1.0000000000000000e+00" itree="793">
      <Node pos="s" depth="0" NCoef="0" IVar="0" Cut="8.7760400772094727e+00" cType="1" res="1.0363096371293068e-03" rms="4.8794770240783691e-01" purity="5.0157529115676880e-01" nType="0">
        <Node pos="l" depth="1" NCoef="0" IVar="0" Cut="8.2242813110351562e+00" cType="1" res="-4.7880834899842739e-03" rms="4.9534970521926880e-01" purity="4.9972602725028992e-01" nType="0">
          <Node pos="l" depth="2" NCoef="0" IVar="-1" Cut="0.0000000000000000e+00" cType="1" res="1.1750255944207311e-03" rms="4.9772262573242188e-01" purity="5.0466012954711914e-01" nType="-99"/>
          <Node pos="r" depth="2" NCoef="0" IVar="-1" Cut="0.0000000000000000e+00" cType="1" res="-1.1186768533661962e-03" rms="4.9457284808158875e-01" purity="4.9832826852798462e-01" nType="-99"/>
        </Node>
        <Node pos="r" depth="1" NCoef="0" IVar="2" Cut="2.0000000000000000e+00" cType="1" res="2.3415447212755680e-03" rms="4.4729256629943848e-01" purity="5.0231117010116577e-01" nType="0">
          <Node pos="l" depth="2" NCoef="0" IVar="-1" Cut="0.0000000000000000e+00" cType="1" res="1.7296777805313468e-03" rms="4.8312178254127502e-01" purity="5.0647306442260742e-01" nType="-99"/>
          <Node pos="r" depth="2" NCoef="0" IVar="-1" Cut="0.0000000000000000e+00" cType="1" res="-9.3269150238484144e-04" rms="4.8730701208114624e-01" purity="4.9667069315910339e-01" nType="-99"/>
        </Node>
      </Node>
    </BinaryTree>
    <BinaryTree type="DecisionTree" boostWeight="1.0000000000000000e+00" itree="794">
      <Node pos="s" depth="0" NCoef="0" IVar="0" Cut="8.1932420730590820e+00" cType="1" res="-4.4227791950106621e-03" rms="4.8756995797157288e-01" purity="4.9602887034416199e-01" nType="0">
        <Node pos="l" depth="1" NCoef="0" IVar="-1" Cut="0.0000000000000000e+00" cType="1" res="1.9706003367900848e-03" rms="4.9867567420005798e-01" purity="5.1107227802276611e-01" nType="-99"/>
        <Node pos="r" depth="1" NCoef="0" IVar="4" Cut="4.5463126152753830e-02" cType="1" res="-5.8460924774408340e-03" rms="4.8688071966171265e-01" purity="4.9515721201896667e-01" nType="0">
          <Node pos="l" depth="2" NCoef="0" IVar="-1" Cut="0.0000000000000000e+00" cType="1" res="-3.0110424268059433e-04" rms="4.8767381906509399e-01" purity="4.8925620317459106e-01" nType="-99"/>
          <Node pos="r" depth="2" NCoef="0" IVar="-1" Cut="0.0000000000000000e+00" cType="1" res="-2.7447738684713840e-03" rms="4.8472046852111816e-01" purity="5.1008546352386475e-01" nType="-99"/>
        </Node>
      </Node>
    </BinaryTree>
    <BinaryTree type="DecisionTree" boostWeight="1.0000000000000000e+00" itree="795">
      <Node pos="s" depth="0" NCoef="0" IVar="0" Cut="8.1282701492309570e+00" cType="1" res="3.2927722204476595e-03" rms="4.8851776123046875e-01" purity="5.0333625078201294e-01" nType="0">
        <Node pos="l" depth="1" NCoef="0" IVar="-1" Cut="0.0000000000000000e+00" cType="1" res="-2.7400236576795578e-03" rms="4.9885058403015137e-01" purity="4.6366727352142334e-01" nType="-99"/>
        <Node pos="r" depth="1" NCoef="0" IVar="2" Cut="3.0000000000000000e+00" cType="1" res="2.6670042425394058e-03" rms="3.6907899379730225e-01" purity="5.0520825386047363e-01" nType="0">
          <Node pos="l" depth="2" NCoef="0" IVar="-1" Cut="0.0000000000000000e+00" cType="1" res="9.8486128263175488e-04" rms="4.8743876814842224e-01" purity="5.0567042827606201e-01" nType="-99"/>
          <Node pos="r" depth="2" NCoef="0" IVar="-1" Cut="0.0000000000000000e+00" cType="1" res="-1.1554064694792032e-03" rms="4.9220848083496094e-01" purity="5.0142222642898560e-01" nType="-99"/>
        </Node>
      </Node>
    </BinaryTree>
    <BinaryTree type="DecisionTree" boostWeight="1.0000000000000000e+00" itree="796">
      <Node pos="s" depth="0" NCoef="0" IVar="4" Cut="-7.9763573408126831e-01" cType="1" res="2.3705961648374796e-03" rms="4.8872128129005432e-01" purity="5.0272578001022339e-01" nType="0">
        <Node pos="l" depth="1" NCoef="0" IVar="4" Cut="-8.5121458768844604e-01" cType="1" res="1.3720345683395863e-02" rms="4.8288446664810181e-01" purity="4.8474088311195374e-01" nType="0">
          <Node pos="l" depth="2" NCoef="0" IVar="-1" Cut="0.0000000000000000e+00" cType="1" res="-8.5662968922406435e-04" rms="4.8119556903839111e-01" purity="4.6412158012390137e-01" nType="-99"/>
          <Node pos="r" depth="2" NCoef="0" IVar="-1" Cut="0.0000000000000000e+00" cType="1" res="5.3540188819169998e-03" rms="4.8391929268836975e-01" purity="5.0704056024551392e-01" nType="-99"/>
        </Node>
        <Node pos="r" depth="1" NCoef="0" IVar="5" Cut="-7.8017467260360718e-01" cType="1" res="4.1090635932050645e-04" rms="4.8969539999961853e-01" purity="5.0583118200302124e-01" nType="0">
          <Node pos="l" depth="2" NCoef="0" IVar="-1" Cut="0.0000000000000000e+00" cType="1" res="-3.0446662567555904e-03" rms="4.8170199990272522e-01" purity="5.0168603658676147e-01" nType="-99"/>
          <Node pos="r" depth="2" NCoef="0" IVar="-1" Cut="0.0000000000000000e+00" cType="1" res="1.9608245929703116e-04" rms="4.9002677202224731e-01" purity="5.0601309537887573e-01" nType="-99"/>
        </Node>
      </Node>
    </BinaryTree>
    <BinaryTree type="DecisionTree" boostWeight="1.0000000000000000e+00" itree="797">
      <Node pos="s" depth="0" NCoef="0" IVar="5" Cut="-7.8296184539794922e-01" cType="1" res="-4.7102752141654491e-03" rms="4.8799005150794983e-01" purity="4.9493533372879028e-01" nType="0">
        <Node pos="l" depth="1" NCoef="0" IVar="3" Cut="-8.0050790309906006e-01" cType="1" res="-2.9559498652815819e-02" rms="4.8922365903854370e-01" purity="4.6680769324302673e-01" nType="0">
          <Node pos="l" depth="2" NCoef="0" IVar="-1" Cut="0.0000000000000000e+00" cType="1" res="-2.2620728705078363e-03" rms="4.8203361034393311e-01" purity="3.8202008605003357e-01" nType="-99"/>
          <Node pos="r" depth="2" NCoef="0" IVar="-1" Cut="0.0000000000000000e+00" cType="1" res="-7.0528751239180565e-03" rms="4.9498188495635986e-01" purity="5.4084050655364990e-01" nType="-99"/>
        </Node>
        <Node pos="r" depth="1" NCoef="0" IVar="3" Cut="-8.0218440294265747e-01" cType="1" res="-3.1078353058546782e-03" rms="4.8786693811416626e-01" purity="4.9674916267395020e-01" nType="0">
          <Node pos="l" depth="2" NCoef="0" IVar="-1" Cut="0.0000000000000000e+00" cType="1" res="-1.5133074484765530e-03" rms="4.8254951834678650e-01" purity="3.9956712722778320e-01" nType="-99"/>
          <Node pos="r" depth="2" NCoef="0" IVar="-1" Cut="0.0000000000000000e+00" cType="1" res="5.1665465434780344e-05" rms="4.9080196022987366e-01" purity="5.5146414041519165e-01" nType="-99"/>
        </Node>
      </Node>
    </BinaryTree>
    <BinaryTree type="DecisionTree" boostWeight="1.0000000000000000e+00" itree="798">
      <Node pos="s" depth="0" NCoef="0" IVar="5" Cut="-6.9119721651077271e-01" cType="1" res="1.6913941362872720e-03" rms="4.8878183960914612e-01" purity="5.0116527080535889e-01" nType="0">
        <Node pos="l" depth="1" NCoef="0" IVar="5" Cut="-8.2695221900939941e-01" cType="1" res="1.4701755717396736e-02" rms="4.8601445555686951e-01" purity="5.0651109218597412e-01" nType="0">
          <Node pos="l" depth="2" NCoef="0" IVar="-1" Cut="0.0000000000000000e+00" cType="1" res="-2.3570370394736528e-03" rms="4.9300798773765564e-01" purity="4.7410658001899719e-01" nType="-99"/>
          <Node pos="r" depth="2" NCoef="0" IVar="-1" Cut="0.0000000000000000e+00" cType="1" res="3.9983512833714485e-03" rms="4.8323136568069458e-01" purity="5.1754623651504517e-01" nType="-99"/>
        </Node>
        <Node pos="r" depth="1" NCoef="0" IVar="3" Cut="8.0222886800765991e-01" cType="1" res="-1.3082030636724085e-04" rms="4.8914057016372681e-01" purity="5.0041645765304565e-01" nType="0">
          <Node pos="l" depth="2" NCoef="0" IVar="-1" Cut="0.0000000000000000e+00" cType="1" res="4.2218103772029281e-04" rms="4.9147012829780579e-01" purity="4.5023375749588013e-01" nType="-99"/>
          <Node pos="r" depth="2" NCoef="0" IVar="-1" Cut="0.0000000000000000e+00" cType="1" res="-8.9830084471032023e-04" rms="4.8485696315765381e-01" purity="5.9115254878997803e-01" nType="-99"/>
        </Node>
      </Node>
    </BinaryTree>
    <BinaryTree type="DecisionTree" boostWeight="1.0000000000000000e+00" itree="799">
      <Node pos="s" depth="0" NCoef="0" IVar="1" Cut="4.0000000000000000e+00" cType="1" res="9.7147765336558223e-04" rms="1.1863997578620911e-01" purity="5.0035214424133301e-01" nType="0">
        <Node pos="l" depth="1" NCoef="0" IVar="0" Cut="9.5323514938354492e+00" cType="1" res="-9.0489699505269527e-04" rms="4.8793035745620728e-01" purity="4.9715295433998108e-01" nType="0">
          <Node pos="l" depth="2" NCoef="0" IVar="-1" Cut="0.0000000000000000e+00" cType="1" res="1.8343747069593519e-04" rms="4.9058252573013306e-01" purity="5.0076788663864136e-01" nType="-99"/>
          <Node pos="r" depth="2" NCoef="0" IVar="-1" Cut="0.0000000000000000e+00" cType="1" res="-3.5916012711822987e-03" rms="4.7302296757698059e-01" purity="4.7742542624473572e-01" nType="-99"/>
        </Node>
        <Node pos="r" depth="1" NCoef="0" IVar="4" Cut="7.9633444547653198e-01" cType="1" res="1.3803335838019848e-02" rms="4.8743820190429688e-01" purity="5.1961213350296021e-01" nType="0">
          <Node pos="l" depth="2" NCoef="0" IVar="-1" Cut="0.0000000000000000e+00" cType="1" res="1.0076677426695824e-03" rms="4.8918530344963074e-01" purity="4.9821445345878601e-01" nType="-99"/>
          <Node pos="r" depth="2" NCoef="0" IVar="-1" Cut="0.0000000000000000e+00" cType="1" res="5.4014017805457115e-03" rms="4.8240968585014343e-01" purity="5.7437777519226074e-01" nType="-99"/>
        </Node>
      </Node>
    </BinaryTree>
    <BinaryTree type="DecisionTree" boostWeight="1.0000000000000000e+00" itree="800">
      <Node pos="s" depth="0" NCoef="0" IVar="0" Cut="8.2049665451049805e+00" cType="1" res="1.9621190149337053e-03" rms="4.8794972896575928e-01" purity="5.0172191858291626e-01" nType="0">
        <Node pos="l" depth="1" NCoef="0" IVar="-1" Cut="0.0000000000000000e+00" cType="1" res="1.9423484336584806e-03" rms="5.0011080503463745e-01" purity="5.0968474149703979e-01" nType="-99"/>
        <Node pos="r" depth="1" NCoef="0" IVar="0" Cut="9.7221937179565430e+00" cType="1" res="8.4520527161657810e-04" rms="4.8714160919189453e-01" purity="5.0121349096298218e-01" nType="0">
          <Node pos="l" depth="2" NCoef="0" IVar="-1" Cut="0.0000000000000000e+00" cType="1" res="-8.4930099546909332e-05" rms="4.8843410611152649e-01" purity="5.0129032135009766e-01" nType="-99"/>
          <Node pos="r" depth="2" NCoef="0" IVar="-1" Cut="0.0000000000000000e+00" cType="1" res="5.0494186580181122e-03" rms="4.7209194302558899e-01" purity="5.0034952163696289e-01" nType="-99"/>
        </Node>
      </Node>
    </BinaryTree>
    <BinaryTree type="DecisionTree" boostWeight="1.0000000000000000e+00" itree="801">
      <Node pos="s" depth="0" NCoef="0" IVar="0" Cut="8.8072624206542969e+00" cType="1" res="4.2169823427684605e-04" rms="4.8834893107414246e-01" purity="5.0049030780792236e-01" nType="0">
        <Node pos="l" depth="1" NCoef="0" IVar="1" Cut="4.0000000000000000e+00" cType="1" res="3.3967327908612788e-04" rms="4.9076285213232040e-02" purity="5.0971800088882446e-01" nType="0">
          <Node pos="l" depth="2" NCoef="0" IVar="-1" Cut="0.0000000000000000e+00" cType="1" res="3.8620078703388572e-04" rms="4.9472761154174805e-01" purity="5.0405430793762207e-01" nType="-99"/>
          <Node pos="r" depth="2" NCoef="0" IVar="-1" Cut="0.0000000000000000e+00" cType="1" res="3.4842297900468111e-03" rms="4.8615238070487976e-01" purity="5.4471790790557861e-01" nType="-99"/>
        </Node>
        <Node pos="r" depth="1" NCoef="0" IVar="0" Cut="9.6684465408325195e+00" cType="1" res="-2.6183626614511013e-03" rms="4.8594379425048828e-01" purity="4.9637672305107117e-01" nType="0">
          <Node pos="l" depth="2" NCoef="0" IVar="-1" Cut="0.0000000000000000e+00" cType="1" res="-8.5776939522475004e-04" rms="4.8776316642761230e-01" purity="4.9539130926132202e-01" nType="-99"/>
          <Node pos="r" depth="2" NCoef="0" IVar="-1" Cut="0.0000000000000000e+00" cType="1" res="3.2967408187687397e-03" rms="4.7376531362533569e-01" purity="5.0276613235473633e-01" nType="-99"/>
        </Node>
      </Node>
    </BinaryTree>
    <BinaryTree type="DecisionTree" boostWeight="1.0000000000000000e+00" itree="802">
      <Node pos="s" depth="0" NCoef="0" IVar="3" Cut="8.0258440971374512e-01" cType="1" res="2.2251741029322147e-03" rms="4.8866260051727295e-01" purity="5.0227946043014526e-01" nType="0">
        <Node pos="l" depth="1" NCoef="0" IVar="1" Cut="4.0000000000000000e+00" cType="1" res="-3.0602124752476811e-05" rms="1.8630443513393402e-01" purity="4.5023125410079956e-01" nType="0">
          <Node pos="l" depth="2" NCoef="0" IVar="-1" Cut="0.0000000000000000e+00" cType="1" res="1.3902023201808333e-03" rms="4.9102330207824707e-01" purity="4.5251560211181641e-01" nType="-99"/>
          <Node pos="r" depth="2" NCoef="0" IVar="-1" Cut="0.0000000000000000e+00" cType="1" res="-1.7276960425078869e-03" rms="4.8785501718521118e-01" purity="4.3499863147735596e-01" nType="-99"/>
        </Node>
        <Node pos="r" depth="1" NCoef="0" IVar="3" Cut="8.5651934146881104e-01" cType="1" res="-4.4320439919829369e-03" rms="4.8527351021766663e-01" purity="5.8815872669219971e-01" nType="0">
          <Node pos="l" depth="2" NCoef="0" IVar="-1" Cut="0.0000000000000000e+00" cType="1" res="-2.1940467413514853e-03" rms="4.9759441614151001e-01" purity="5.2797877788543701e-01" nType="-99"/>
          <Node pos="r" depth="2" NCoef="0" IVar="-1" Cut="0.0000000000000000e+00" cType="1" res="-1.7256472347071394e-05" rms="4.8006248474121094e-01" purity="6.1283648014068604e-01" nType="-99"/>
        </Node>
      </Node>
    </BinaryTree>
    <BinaryTree type="DecisionTree" boostWeight="1.0000000000000000e+00" itree="803">
      <Node pos="s" depth="0" NCoef="0" IVar="5" Cut="7.8273522853851318e-01" cType="1" res="-2.4889090564101934e-03" rms="4.8839172720909119e-01" purity="4.9639973044395447e-01" nType="0">
        <Node pos="l" depth="1" NCoef="0" IVar="0" Cut="8.8072624206542969e+00" cType="1" res="-4.5786690898239613e-03" rms="4.8861241340637207e-01" purity="4.9353402853012085e-01" nType="0">
          <Node pos="l" depth="2" NCoef="0" IVar="-1" Cut="0.0000000000000000e+00" cType="1" res="5.1277299644425511e-04" rms="4.9493086338043213e-01" purity="5.0633716583251953e-01" nType="-99"/>
          <Node pos="r" depth="2" NCoef="0" IVar="-1" Cut="0.0000000000000000e+00" cType="1" res="-1.6388122458010912e-03" rms="4.8580276966094971e-01" purity="4.8800066113471985e-01" nType="-99"/>
        </Node>
        <Node pos="r" depth="1" NCoef="0" IVar="3" Cut="-7.0714551210403442e-01" cType="1" res="3.0851261690258980e-02" rms="4.8363763093948364e-01" purity="5.4211902618408203e-01" nType="0">
          <Node pos="l" depth="2" NCoef="0" IVar="-1" Cut="0.0000000000000000e+00" cType="1" res="6.6697639413177967e-03" rms="4.9158084392547607e-01" purity="4.6358576416969299e-01" nType="-99"/>
          <Node pos="r" depth="2" NCoef="0" IVar="-1" Cut="0.0000000000000000e+00" cType="1" res="3.1453033443540335e-03" rms="4.7397312521934509e-01" purity="6.3302981853485107e-01" nType="-99"/>
        </Node>
      </Node>
    </BinaryTree>
    <BinaryTree type="DecisionTree" boostWeight="1.0000000000000000e+00" itree="804">
      <Node pos="s" depth="0" NCoef="0" IVar="3" Cut="-8.0189293622970581e-01" cType="1" res="2.0173466764390469e-03" rms="4.8826944828033447e-01" purity="5.0183480978012085e-01" nType="0">
        <Node pos="l" depth="1" NCoef="0" IVar="3" Cut="-8.7382382154464722e-01" cType="1" res="8.7082106620073318e-03" rms="4.8449859023094177e-01" purity="4.1686472296714783e-01" nType="0">
          <Node pos="l" depth="2" NCoef="0" IVar="-1" Cut="0.0000000000000000e+00" cType="1" res="-2.9664768953807652e-04" rms="4.7466972470283508e-01" purity="3.7263378500938416e-01" nType="-99"/>
          <Node pos="r" depth="2" NCoef="0" IVar="-1" Cut="0.0000000000000000e+00" cType="1" res="3.6344726104289293e-03" rms="4.9853506684303284e-01" purity="4.8350390791893005e-01" nType="-99"/>
        </Node>
        <Node pos="r" depth="1" NCoef="0" IVar="0" Cut="8.7360563278198242e+00" cType="1" res="-1.9191629253327847e-03" rms="4.9043181538581848e-01" purity="5.5182617902755737e-01" nType="0">
          <Node pos="l" depth="2" NCoef="0" IVar="-1" Cut="0.0000000000000000e+00" cType="1" res="-1.5755135100334883e-03" rms="4.9604120850563049e-01" purity="5.2181565761566162e-01" nType="-99"/>
          <Node pos="r" depth="2" NCoef="0" IVar="-1" Cut="0.0000000000000000e+00" cType="1" res="5.0800759345293045e-04" rms="4.8826360702514648e-01" purity="5.6290459632873535e-01" nType="-99"/>
        </Node>
      </Node>
    </BinaryTree>
    <BinaryTree type="DecisionTree" boostWeight="1.0000000000000000e+00" itree="805">
      <Node pos="s" depth="0" NCoef="0" IVar="0" Cut="8.2049665451049805e+00" cType="1" res="-1.7176616238430142e-03" rms="4.8856389522552490e-01" purity="4.9793559312820435e-01" nType="0">
        <Node pos="l" depth="1" NCoef="0" IVar="-1" Cut="0.0000000000000000e+00" cType="1" res="2.6795126032084227e-03" rms="4.9810770153999329e-01" purity="5.1974034309387207e-01" nType="-99"/>
        <Node pos="r" depth="1" NCoef="0" IVar="1" Cut="4.0000000000000000e+00" cType="1" res="-2.9023548122495413e-03" rms="4.6882870793342590e-01" purity="4.9655279517173767e-01" nType="0">
          <Node pos="l" depth="2" NCoef="0" IVar="-1" Cut="0.0000000000000000e+00" cType="1" res="-7.0815251092426479e-05" rms="4.8761451244354248e-01" purity="4.9820324778556824e-01" nType="-99"/>
          <Node pos="r" depth="2" NCoef="0" IVar="-1" Cut="0.0000000000000000e+00" cType="1" res="-3.7705225404351950e-03" rms="4.8917093873023987e-01" purity="4.8650518059730530e-01" nType="-99"/>
        </Node>
      </Node>
    </BinaryTree>
    <BinaryTree type="DecisionTree" boostWeight="1.0000000000000000e+00" itree="806">
      <Node pos="s" depth="0" NCoef="0" IVar="0" Cut="8.1768674850463867e+00" cType="1" res="3.5795869771391153e-03" rms="4.8782268166542053e-01" purity="5.0278544425964355e-01" nType="0">
        <Node pos="l" depth="1" NCoef="0" IVar="-1" Cut="0.0000000000000000e+00" cType="1" res="-2.1890690550208092e-03" rms="4.9472498893737793e-01" purity="4.7385290265083313e-01" nType="-99"/>
        <Node pos="r" depth="1" NCoef="0" IVar="1" Cut="5.0000000000000000e+00" cType="1" res="4.3657417409121990e-03" rms="4.7564274072647095e-01" purity="5.0445860624313354e-01" nType="0">
          <Node pos="l" depth="2" NCoef="0" IVar="-1" Cut="0.0000000000000000e+00" cType="1" res="1.0729059576988220e-03" rms="4.8732376098632812e-01" purity="5.0476759672164917e-01" nType="-99"/>
          <Node pos="r" depth="2" NCoef="0" IVar="-1" Cut="0.0000000000000000e+00" cType="1" res="-3.5325647331774235e-03" rms="4.8764428496360779e-01" purity="4.9823722243309021e-01" nType="-99"/>
        </Node>
      </Node>
    </BinaryTree>
    <BinaryTree type="DecisionTree" boostWeight="1.0000000000000000e+00" itree="807">
      <Node pos="s" depth="0" NCoef="0" IVar="2" Cut="2.0000000000000000e+00" cType="1" res="-5.8531883405521512e-04" rms="1.0109180212020874e-01" purity="5.0179803371429443e-01" nType="0">
        <Node pos="l" depth="1" NCoef="0" IVar="3" Cut="8.0194199085235596e-01" cType="1" res="7.9479143023490906e-03" rms="4.8579046130180359e-01" purity="5.0690299272537231e-01" nType="0">
          <Node pos="l" depth="2" NCoef="0" IVar="-1" Cut="0.0000000000000000e+00" cType="1" res="3.0812741897534579e-05" rms="4.8917835950851440e-01" purity="4.3544924259185791e-01" nType="-99"/>
          <Node pos="r" depth="2" NCoef="0" IVar="-1" Cut="0.0000000000000000e+00" cType="1" res="3.1020655296742916e-03" rms="4.8039016127586365e-01" purity="6.1485701799392700e-01" nType="-99"/>
        </Node>
        <Node pos="r" depth="1" NCoef="0" IVar="0" Cut="8.9482727050781250e+00" cType="1" res="-5.5134273134171963e-03" rms="4.9053564667701721e-01" purity="4.9488860368728638e-01" nType="0">
          <Node pos="l" depth="2" NCoef="0" IVar="-1" Cut="0.0000000000000000e+00" cType="1" res="-1.8898842390626669e-03" rms="4.9450197815895081e-01" purity="4.8412632942199707e-01" nType="-99"/>
          <Node pos="r" depth="2" NCoef="0" IVar="-1" Cut="0.0000000000000000e+00" cType="1" res="3.3798074582591653e-04" rms="4.8754394054412842e-01" purity="5.0262099504470825e-01" nType="-99"/>
        </Node>
      </Node>
    </BinaryTree>
    <BinaryTree type="DecisionTree" boostWeight="1.0000000000000000e+00" itree="808">
      <Node pos="s" depth="0" NCoef="0" IVar="3" Cut="-7.0731437206268311e-01" cType="1" res="2.0340858027338982e-03" rms="4.8813182115554810e-01" purity="5.0242030620574951e-01" nType="0">
        <Node pos="l" depth="1" NCoef="0" IVar="1" Cut="3.0000000000000000e+00" cType="1" res="-3.3149726223200560e-03" rms="3.3097830414772034e-01" purity="4.2513552308082581e-01" nType="0">
          <Node pos="l" depth="2" NCoef="0" IVar="-1" Cut="0.0000000000000000e+00" cType="1" res="-1.3199355453252792e-03" rms="4.8799458146095276e-01" purity="4.1980868577957153e-01" nType="-99"/>
          <Node pos="r" depth="2" NCoef="0" IVar="-1" Cut="0.0000000000000000e+00" cType="1" res="1.3954921159893274e-03" rms="4.8887339234352112e-01" purity="4.3494999408721924e-01" nType="-99"/>
        </Node>
        <Node pos="r" depth="1" NCoef="0" IVar="3" Cut="9.0090644359588623e-01" cType="1" res="6.1597242020070553e-03" rms="4.8786148428916931e-01" purity="5.7783079147338867e-01" nType="0">
          <Node pos="l" depth="2" NCoef="0" IVar="-1" Cut="0.0000000000000000e+00" cType="1" res="1.6430920222774148e-03" rms="4.9675732851028442e-01" purity="5.4473578929901123e-01" nType="-99"/>
          <Node pos="r" depth="2" NCoef="0" IVar="-1" Cut="0.0000000000000000e+00" cType="1" res="-7.2184484452009201e-04" rms="4.6870413422584534e-01" purity="6.4651852846145630e-01" nType="-99"/>
        </Node>
      </Node>
    </BinaryTree>
    <BinaryTree type="DecisionTree" boostWeight="1.0000000000000000e+00" itree="809">
      <Node pos="s" depth="0" NCoef="0" IVar="0" Cut="8.8033571243286133e+00" cType="1" res="2.7026378083974123e-03" rms="4.8846626281738281e-01" purity="5.0354194641113281e-01" nType="0">
        <Node pos="l" depth="1" NCoef="0" IVar="1" Cut="4.0000000000000000e+00" cType="1" res="-2.0513625349849463e-03" rms="9.7910962998867035e-02" purity="5.1490914821624756e-01" nType="0">
          <Node pos="l" depth="2" NCoef="0" IVar="-1" Cut="0.0000000000000000e+00" cType="1" res="1.6200871905311942e-03" rms="4.9478185176849365e-01" purity="5.1764285564422607e-01" nType="-99"/>
          <Node pos="r" depth="2" NCoef="0" IVar="-1" Cut="0.0000000000000000e+00" cType="1" res="-2.0695391576737165e-03" rms="4.9144271016120911e-01" purity="4.9744769930839539e-01" nType="-99"/>
        </Node>
        <Node pos="r" depth="1" NCoef="0" IVar="3" Cut="-8.9659255743026733e-01" cType="1" res="-4.6811468200758100e-04" rms="4.8584645986557007e-01" purity="4.9868094921112061e-01" nType="0">
          <Node pos="l" depth="2" NCoef="0" IVar="-1" Cut="0.0000000000000000e+00" cType="1" res="2.5748435873538256e-03" rms="4.6818059682846069e-01" purity="3.5174930095672607e-01" nType="-99"/>
          <Node pos="r" depth="2" NCoef="0" IVar="-1" Cut="0.0000000000000000e+00" cType="1" res="-6.5317197004333138e-04" rms="4.8994636535644531e-01" purity="5.3395831584930420e-01" nType="-99"/>
        </Node>
      </Node>
    </BinaryTree>
    <BinaryTree type="DecisionTree" boostWeight="1.0000000000000000e+00" itree="810">
      <Node pos="s" depth="0" NCoef="0" IVar="4" Cut="7.9631793498992920e-01" cType="1" res="-1.6888498794287443e-03" rms="4.8783257603645325e-01" purity="4.9885243177413940e-01" nType="0">
        <Node pos="l" depth="1" NCoef="0" IVar="0" Cut="8.5083198547363281e+00" cType="1" res="-2.0596720787580125e-05" rms="4.8878487944602966e-01" purity="4.9472519755363464e-01" nType="0">
          <Node pos="l" depth="2" NCoef="0" IVar="-1" Cut="0.0000000000000000e+00" cType="1" res="1.3541546650230885e-03" rms="4.9754410982131958e-01" purity="5.1876020431518555e-01" nType="-99"/>
          <Node pos="r" depth="2" NCoef="0" IVar="-1" Cut="0.0000000000000000e+00" cType="1" res="-4.2480701813474298e-04" rms="4.8712202906608582e-01" purity="4.9031597375869751e-01" nType="-99"/>
        </Node>
        <Node pos="r" depth="1" NCoef="0" IVar="0" Cut="9.2004528045654297e+00" cType="1" res="-1.0691085830330849e-02" rms="4.8256176710128784e-01" purity="5.2112370729446411e-01" nType="0">
          <Node pos="l" depth="2" NCoef="0" IVar="-1" Cut="0.0000000000000000e+00" cType="1" res="-2.4680073838680983e-03" rms="4.8793864250183105e-01" purity="5.1585966348648071e-01" nType="-99"/>
          <Node pos="r" depth="2" NCoef="0" IVar="-1" Cut="0.0000000000000000e+00" cType="1" res="-9.3642913270741701e-05" rms="4.7465103864669800e-01" purity="5.2857941389083862e-01" nType="-99"/>
        </Node>
      </Node>
    </BinaryTree>
    <BinaryTree type="DecisionTree" boostWeight="1.0000000000000000e+00" itree="811">
      <Node pos="s" depth="0" NCoef="0" IVar="4" Cut="-7.9516458511352539e-01" cType="1" res="1.8196131568402052e-03" rms="4.8763424158096313e-01" purity="5.0153833627700806e-01" nType="0">
        <Node pos="l" depth="1" NCoef="0" IVar="0" Cut="9.2321805953979492e+00" cType="1" res="-7.6705687679350376e-03" rms="4.7981101274490356e-01" purity="4.6072921156883240e-01" nType="0">
          <Node pos="l" depth="2" NCoef="0" IVar="-1" Cut="0.0000000000000000e+00" cType="1" res="-2.6087288279086351e-03" rms="4.8149901628494263e-01" purity="4.4629865884780884e-01" nType="-99"/>
          <Node pos="r" depth="2" NCoef="0" IVar="-1" Cut="0.0000000000000000e+00" cType="1" res="2.2851547691971064e-03" rms="4.7660943865776062e-01" purity="4.8381453752517700e-01" nType="-99"/>
        </Node>
        <Node pos="r" depth="1" NCoef="0" IVar="4" Cut="5.3150568157434464e-02" cType="1" res="3.5574755165725946e-03" rms="4.8903334140777588e-01" purity="5.0901138782501221e-01" nType="0">
          <Node pos="l" depth="2" NCoef="0" IVar="-1" Cut="0.0000000000000000e+00" cType="1" res="1.8665431707631797e-04" rms="4.9098926782608032e-01" purity="4.9801072478294373e-01" nType="-99"/>
          <Node pos="r" depth="2" NCoef="0" IVar="-1" Cut="0.0000000000000000e+00" cType="1" res="1.3347750063985586e-03" rms="4.8508256673812866e-01" purity="5.3090620040893555e-01" nType="-99"/>
        </Node>
      </Node>
    </BinaryTree>
    <BinaryTree type="DecisionTree" boostWeight="1.0000000000000000e+00" itree="812">
      <Node pos="s" depth="0" NCoef="0" IVar="3" Cut="8.9726012945175171e-01" cType="1" res="-7.1818532887846231e-04" rms="4.8876446485519409e-01" purity="4.9991461634635925e-01" nType="0">
        <Node pos="l" depth="1" NCoef="0" IVar="3" Cut="-8.1088370084762573e-01" cType="1" res="9.8607235122472048e-04" rms="4.9196875095367432e-01" purity="4.7155624628067017e-01" nType="0">
          <Node pos="l" depth="2" NCoef="0" IVar="-1" Cut="0.0000000000000000e+00" cType="1" res="-9.5338281244039536e-04" rms="4.8442313075065613e-01" purity="4.0166166424751282e-01" nType="-99"/>
          <Node pos="r" depth="2" NCoef="0" IVar="-1" Cut="0.0000000000000000e+00" cType="1" res="9.0719864238053560e-04" rms="4.9747979640960693e-01" purity="5.2386432886123657e-01" nType="-99"/>
        </Node>
        <Node pos="r" depth="1" NCoef="0" IVar="3" Cut="9.1973602771759033e-01" cType="1" res="-8.9309066534042358e-03" rms="4.7293284535408020e-01" purity="6.3657206296920776e-01" nType="0">
          <Node pos="l" depth="2" NCoef="0" IVar="-1" Cut="0.0000000000000000e+00" cType="1" res="1.0757305426523089e-03" rms="4.8707589507102966e-01" purity="5.9721606969833374e-01" nType="-99"/>
          <Node pos="r" depth="2" NCoef="0" IVar="-1" Cut="0.0000000000000000e+00" cType="1" res="-3.2720302697271109e-03" rms="4.6599695086479187e-01" purity="6.5496146678924561e-01" nType="-99"/>
        </Node>
      </Node>
    </BinaryTree>
    <BinaryTree type="DecisionTree" boostWeight="1.0000000000000000e+00" itree="813">
      <Node pos="s" depth="0" NCoef="0" IVar="0" Cut="8.8463668823242188e+00" cType="1" res="7.1141752414405346e-04" rms="4.8833650350570679e-01" purity="5.0063455104827881e-01" nType="0">
        <Node pos="l" depth="1" NCoef="0" IVar="3" Cut="-7.9635560512542725e-01" cType="1" res="-6.4737484790384769e-03" rms="4.9301084876060486e-01" purity="4.9654531478881836e-01" nType="0">
          <Node pos="l" depth="2" NCoef="0" IVar="-1" Cut="0.0000000000000000e+00" cType="1" res="-2.0597851835191250e-03" rms="4.9008980393409729e-01" purity="4.2408418655395508e-01" nType="-99"/>
          <Node pos="r" depth="2" NCoef="0" IVar="-1" Cut="0.0000000000000000e+00" cType="1" res="4.6108989408821799e-06" rms="4.9454253911972046e-01" purity="5.3767108917236328e-01" nType="-99"/>
        </Node>
        <Node pos="r" depth="1" NCoef="0" IVar="3" Cut="-8.0231755971908569e-01" cType="1" res="4.3496643193066120e-03" rms="4.8591196537017822e-01" purity="5.0270515680313110e-01" nType="0">
          <Node pos="l" depth="2" NCoef="0" IVar="-1" Cut="0.0000000000000000e+00" cType="1" res="2.5812033563852310e-03" rms="4.8298478126525879e-01" purity="4.0625348687171936e-01" nType="-99"/>
          <Node pos="r" depth="2" NCoef="0" IVar="-1" Cut="0.0000000000000000e+00" cType="1" res="-1.5067802451085299e-04" rms="4.8762491345405579e-01" purity="5.6177514791488647e-01" nType="-99"/>
        </Node>
      </Node>
    </BinaryTree>
    <BinaryTree type="DecisionTree" boostWeight="1.0000000000000000e+00" itree="814">
      <Node pos="s" depth="0" NCoef="0" IVar="1" Cut="5.0000000000000000e+00" cType="1" res="-7.4490305269137025e-04" rms="1.6020019352436066e-01" purity="4.9985668063163757e-01" nType="0">
        <Node pos="l" depth="1" NCoef="0" IVar="4" Cut="7.9604053497314453e-01" cType="1" res="-2.1834529470652342e-03" rms="4.8769822716712952e-01" purity="4.9804946780204773e-01" nType="0">
          <Node pos="l" depth="2" NCoef="0" IVar="-1" Cut="0.0000000000000000e+00" cType="1" res="-5.7034112978726625e-04" rms="4.8887610435485840e-01" purity="4.9151578545570374e-01" nType="-99"/>
          <Node pos="r" depth="2" NCoef="0" IVar="-1" Cut="0.0000000000000000e+00" cType="1" res="1.0286585893481970e-03" rms="4.8089846968650818e-01" purity="5.3500592708587646e-01" nType="-99"/>
        </Node>
        <Node pos="r" depth="1" NCoef="0" IVar="-1" Cut="0.0000000000000000e+00" cType="1" res="2.6735712308436632e-03" rms="4.8572424054145813e-01" purity="5.3572034835815430e-01" nType="-99"/>
      </Node>
    </BinaryTree>
    <BinaryTree type="DecisionTree" boostWeight="1.0000000000000000e+00" itree="815">
      <Node pos="s" depth="0" NCoef="0" IVar="4" Cut="-7.0490694046020508e-01" cType="1" res="-1.5182355418801308e-03" rms="4.8816612362861633e-01" purity="4.9885901808738708e-01" nType="0">
        <Node pos="l" depth="1" NCoef="0" IVar="4" Cut="-8.2162946462631226e-01" cType="1" res="-8.3278194069862366e-03" rms="4.8510977625846863e-01" purity="4.6690371632575989e-01" nType="0">
          <Node pos="l" depth="2" NCoef="0" IVar="-1" Cut="0.0000000000000000e+00" cType="1" res="1.0318675776943564e-03" rms="4.8026004433631897e-01" purity="4.7062131762504578e-01" nType="-99"/>
          <Node pos="r" depth="2" NCoef="0" IVar="-1" Cut="0.0000000000000000e+00" cType="1" res="-3.0387735459953547e-03" rms="4.8846113681793213e-01" purity="4.6409726142883301e-01" nType="-99"/>
        </Node>
        <Node pos="r" depth="1" NCoef="0" IVar="0" Cut="8.5932102203369141e+00" cType="1" res="9.9096260964870453e-04" rms="4.8926359415054321e-01" purity="5.1063388586044312e-01" nType="0">
          <Node pos="l" depth="2" NCoef="0" IVar="-1" Cut="0.0000000000000000e+00" cType="1" res="-1.0602404363453388e-03" rms="4.9638730287551880e-01" purity="5.0835216045379639e-01" nType="-99"/>
          <Node pos="r" depth="2" NCoef="0" IVar="-1" Cut="0.0000000000000000e+00" cType="1" res="6.4729782752692699e-04" rms="4.8754832148551941e-01" purity="5.1116675138473511e-01" nType="-99"/>
        </Node>
      </Node>
    </BinaryTree>
    <BinaryTree type="DecisionTree" boostWeight="1.0000000000000000e+00" itree="816">
      <Node pos="s" depth="0" NCoef="0" IVar="0" Cut="9.5323514938354492e+00" cType="1" res="1.3539169449359179e-03" rms="4.8845037817955017e-01" purity="5.0143462419509888e-01" nType="0">
        <Node pos="l" depth="1" NCoef="0" IVar="5" Cut="-7.8021025657653809e-01" cType="1" res="3.4389272332191467e-03" rms="4.9047589302062988e-01" purity="5.0465011596679688e-01" nType="0">
          <Node pos="l" depth="2" NCoef="0" IVar="-1" Cut="0.0000000000000000e+00" cType="1" res="5.3875348530709743e-03" rms="4.8993134498596191e-01" purity="5.2588653564453125e-01" nType="-99"/>
          <Node pos="r" depth="2" NCoef="0" IVar="-1" Cut="0.0000000000000000e+00" cType="1" res="2.1104590268805623e-04" rms="4.9044588208198547e-01" purity="5.0324851274490356e-01" nType="-99"/>
        </Node>
        <Node pos="r" depth="1" NCoef="0" IVar="2" Cut="2.0000000000000000e+00" cType="1" res="-8.3673326298594475e-03" rms="4.5176953077316284e-01" purity="4.8396816849708557e-01" nType="0">
          <Node pos="l" depth="2" NCoef="0" IVar="-1" Cut="0.0000000000000000e+00" cType="1" res="-4.9735154025256634e-03" rms="4.7433012723922729e-01" purity="4.6975252032279968e-01" nType="-99"/>
          <Node pos="r" depth="2" NCoef="0" IVar="-1" Cut="0.0000000000000000e+00" cType="1" res="6.2496168538928032e-04" rms="4.8088642954826355e-01" purity="5.0438326597213745e-01" nType="-99"/>
        </Node>
      </Node>
    </BinaryTree>
    <BinaryTree type="DecisionTree" boostWeight="1.0000000000000000e+00" itree="817">
      <Node pos="s" depth="0" NCoef="0" IVar="0" Cut="8.2430858612060547e+00" cType="1" res="9.4077619723975658e-04" rms="4.8924747109413147e-01" purity="5.0214773416519165e-01" nType="0">
        <Node pos="l" depth="1" NCoef="0" IVar="-1" Cut="0.0000000000000000e+00" cType="1" res="3.3804075792431831e-03" rms="4.9842369556427002e-01" purity="5.2851718664169312e-01" nType="-99"/>
        <Node pos="r" depth="1" NCoef="0" IVar="1" Cut="3.0000000000000000e+00" cType="1" res="-1.7305467044934630e-03" rms="4.7924107313156128e-01" purity="5.0029003620147705e-01" nType="0">
          <Node pos="l" depth="2" NCoef="0" IVar="-1" Cut="0.0000000000000000e+00" cType="1" res="4.0451184031553566e-04" rms="4.8805165290832520e-01" purity="5.0282490253448486e-01" nType="-99"/>
          <Node pos="r" depth="2" NCoef="0" IVar="-1" Cut="0.0000000000000000e+00" cType="1" res="-1.3964667450636625e-03" rms="4.8926749825477600e-01" purity="4.9561282992362976e-01" nType="-99"/>
        </Node>
      </Node>
    </BinaryTree>
    <BinaryTree type="DecisionTree" boostWeight="1.0000000000000000e+00" itree="818">
      <Node pos="s" depth="0" NCoef="0" IVar="2" Cut="3.0000000000000000e+00" cType="1" res="4.9065577331930399e-04" rms="8.9343063533306122e-02" purity="4.9891239404678345e-01" nType="0">
        <Node pos="l" depth="1" NCoef="0" IVar="3" Cut="8.9724975824356079e-01" cType="1" res="-4.3897442519664764e-03" rms="4.8845210671424866e-01" purity="4.9572709202766418e-01" nType="0">
          <Node pos="l" depth="2" NCoef="0" IVar="-1" Cut="0.0000000000000000e+00" cType="1" res="-2.5087851099669933e-04" rms="4.9141100049018860e-01" purity="4.6599781513214111e-01" nType="-99"/>
          <Node pos="r" depth="2" NCoef="0" IVar="-1" Cut="0.0000000000000000e+00" cType="1" res="-3.1459520105272532e-03" rms="4.7478848695755005e-01" purity="6.2879258394241333e-01" nType="-99"/>
        </Node>
        <Node pos="r" depth="1" NCoef="0" IVar="3" Cut="-7.8882205486297607e-01" cType="1" res="2.1987093612551689e-02" rms="4.9161252379417419e-01" purity="5.2488905191421509e-01" nType="0">
          <Node pos="l" depth="2" NCoef="0" IVar="-1" Cut="0.0000000000000000e+00" cType="1" res="5.4541020654141903e-03" rms="4.9249151349067688e-01" purity="4.6072000265121460e-01" nType="-99"/>
          <Node pos="r" depth="2" NCoef="0" IVar="-1" Cut="0.0000000000000000e+00" cType="1" res="3.1331663485616446e-03" rms="4.9104028940200806e-01" purity="5.6115490198135376e-01" nType="-99"/>
        </Node>
      </Node>
    </BinaryTree>
    <BinaryTree type="DecisionTree" boostWeight="1.0000000000000000e+00" itree="819">
      <Node pos="s" depth="0" NCoef="0" IVar="0" Cut="8.1768674850463867e+00" cType="1" res="2.1180813200771809e-03" rms="4.8888069391250610e-01" purity="5.0198960304260254e-01" nType="0">
        <Node pos="l" depth="1" NCoef="0" IVar="-1" Cut="0.0000000000000000e+00" cType="1" res="2.5340537540614605e-03" rms="5.0075620412826538e-01" purity="5.2039587497711182e-01" nType="-99"/>
        <Node pos="r" depth="1" NCoef="0" IVar="1" Cut="5.0000000000000000e+00" cType="1" res="1.4507134910672903e-03" rms="4.6513143181800842e-01" purity="5.0095629692077637e-01" nType="0">
          <Node pos="l" depth="2" NCoef="0" IVar="-1" Cut="0.0000000000000000e+00" cType="1" res="3.1659027445130050e-04" rms="4.8810416460037231e-01" purity="5.0102150440216064e-01" nType="-99"/>
          <Node pos="r" depth="2" NCoef="0" IVar="-1" Cut="0.0000000000000000e+00" cType="1" res="-3.4482039045542479e-03" rms="4.8898473381996155e-01" purity="4.9967584013938904e-01" nType="-99"/>
        </Node>
      </Node>
    </BinaryTree>
    <BinaryTree type="DecisionTree" boostWeight="1.0000000000000000e+00" itree="820">
      <Node pos="s" depth="0" NCoef="0" IVar="1" Cut="4.0000000000000000e+00" cType="1" res="2.0312494598329067e-03" rms="2.7202257513999939e-01" purity="5.0037360191345215e-01" nType="0">
        <Node pos="l" depth="1" NCoef="0" IVar="3" Cut="-8.9552187919616699e-01" cType="1" res="-3.1971547286957502e-03" rms="4.8831552267074585e-01" purity="4.9707165360450745e-01" nType="0">
          <Node pos="l" depth="2" NCoef="0" IVar="-1" Cut="0.0000000000000000e+00" cType="1" res="1.2400897685438395e-03" rms="4.6863797307014465e-01" purity="3.5166564583778381e-01" nType="-99"/>
          <Node pos="r" depth="2" NCoef="0" IVar="-1" Cut="0.0000000000000000e+00" cType="1" res="-7.9068978084251285e-04" rms="4.9194332957267761e-01" purity="5.2470880746841431e-01" nType="-99"/>
        </Node>
        <Node pos="r" depth="1" NCoef="0" IVar="5" Cut="-6.9148993492126465e-01" cType="1" res="1.6757586970925331e-02" rms="4.8730674386024475e-01" purity="5.2032208442687988e-01" nType="0">
          <Node pos="l" depth="2" NCoef="0" IVar="-1" Cut="0.0000000000000000e+00" cType="1" res="5.7061826810240746e-03" rms="4.8504424095153809e-01" purity="5.3433203697204590e-01" nType="-99"/>
          <Node pos="r" depth="2" NCoef="0" IVar="-1" Cut="0.0000000000000000e+00" cType="1" res="1.3329711509868503e-03" rms="4.8800873756408691e-01" purity="5.1445204019546509e-01" nType="-99"/>
        </Node>
      </Node>
    </BinaryTree>
    <BinaryTree type="DecisionTree" boostWeight="1.0000000000000000e+00" itree="821">
      <Node pos="s" depth="0" NCoef="0" IVar="1" Cut="4.0000000000000000e+00" cType="1" res="-1.0138405486941338e-03" rms="2.3050154745578766e-01" purity="4.9807277321815491e-01" nType="0">
        <Node pos="l" depth="1" NCoef="0" IVar="2" Cut="3.0000000000000000e+00" cType="1" res="-3.5312474938109517e-04" rms="3.1929749995470047e-02" purity="4.9491319060325623e-01" nType="0">
          <Node pos="l" depth="2" NCoef="0" IVar="-1" Cut="0.0000000000000000e+00" cType="1" res="-9.7761151846498251e-04" rms="4.8729637265205383e-01" purity="4.9209788441658020e-01" nType="-99"/>
          <Node pos="r" depth="2" NCoef="0" IVar="-1" Cut="0.0000000000000000e+00" cType="1" res="2.1465744357556105e-03" rms="4.9097570776939392e-01" purity="5.1616495847702026e-01" nType="-99"/>
        </Node>
        <Node pos="r" depth="1" NCoef="0" IVar="0" Cut="9.2615623474121094e+00" cType="1" res="9.3976557254791260e-03" rms="4.8592019081115723e-01" purity="5.1759517192840576e-01" nType="0">
          <Node pos="l" depth="2" NCoef="0" IVar="-1" Cut="0.0000000000000000e+00" cType="1" res="2.6345732621848583e-03" rms="4.8995622992515564e-01" purity="5.2796912193298340e-01" nType="-99"/>
          <Node pos="r" depth="2" NCoef="0" IVar="-1" Cut="0.0000000000000000e+00" cType="1" res="-2.2965222597122192e-03" rms="4.7716137766838074e-01" purity="4.9675393104553223e-01" nType="-99"/>
        </Node>
      </Node>
    </BinaryTree>
    <BinaryTree type="DecisionTree" boostWeight="1.0000000000000000e+00" itree="822">
      <Node pos="s" depth="0" NCoef="0" IVar="5" Cut="4.6200841665267944e-02" cType="1" res="-3.7831885274499655e-03" rms="4.8772558569908142e-01" purity="4.9598181247711182e-01" nType="0">
        <Node pos="l" depth="1" NCoef="0" IVar="0" Cut="8.6181879043579102e+00" cType="1" res="-6.4923753961920738e-03" rms="4.8815935850143433e-01" purity="4.9227598309516907e-01" nType="0">
          <Node pos="l" depth="2" NCoef="0" IVar="-1" Cut="0.0000000000000000e+00" cType="1" res="-2.2381185553967953e-03" rms="4.9706804752349854e-01" purity="4.8420292139053345e-01" nType="-99"/>
          <Node pos="r" depth="2" NCoef="0" IVar="-1" Cut="0.0000000000000000e+00" cType="1" res="-5.0194392679259181e-04" rms="4.8588049411773682e-01" purity="4.9425268173217773e-01" nType="-99"/>
        </Node>
        <Node pos="r" depth="1" NCoef="0" IVar="5" Cut="7.4354511499404907e-01" cType="1" res="1.5385053120553493e-02" rms="4.8421266674995422e-01" purity="5.2220171689987183e-01" nType="0">
          <Node pos="l" depth="2" NCoef="0" IVar="-1" Cut="0.0000000000000000e+00" cType="1" res="6.7384187132120132e-03" rms="4.8458164930343628e-01" purity="5.4588168859481812e-01" nType="-99"/>
          <Node pos="r" depth="2" NCoef="0" IVar="-1" Cut="0.0000000000000000e+00" cType="1" res="1.1932355118915439e-03" rms="4.8377877473831177e-01" purity="5.1555031538009644e-01" nType="-99"/>
        </Node>
      </Node>
    </BinaryTree>
    <BinaryTree type="DecisionTree" boostWeight="1.0000000000000000e+00" itree="823">
      <Node pos="s" depth="0" NCoef="0" IVar="4" Cut="-7.0223355293273926e-01" cType="1" res="-1.6255083028227091e-04" rms="4.8801961541175842e-01" purity="4.9937960505485535e-01" nType="0">
        <Node pos="l" depth="1" NCoef="0" IVar="3" Cut="8.0222886800765991e-01" cType="1" res="9.8588988184928894e-03" rms="4.8524028062820435e-01" purity="4.8506480455398560e-01" nType="0">
          <Node pos="l" depth="2" NCoef="0" IVar="-1" Cut="0.0000000000000000e+00" cType="1" res="1.3463190407492220e-04" rms="4.8192095756530762e-01" purity="3.9489942789077759e-01" nType="-99"/>
          <Node pos="r" depth="2" NCoef="0" IVar="-1" Cut="0.0000000000000000e+00" cType="1" res="3.0612431000918150e-03" rms="4.8844560980796814e-01" purity="5.7748085260391235e-01" nType="-99"/>
        </Node>
        <Node pos="r" depth="1" NCoef="0" IVar="0" Cut="8.5443048477172852e+00" cType="1" res="-3.9023014251142740e-03" rms="4.8900014162063599e-01" purity="5.0472152233123779e-01" nType="0">
          <Node pos="l" depth="2" NCoef="0" IVar="-1" Cut="0.0000000000000000e+00" cType="1" res="-1.8033243250101805e-03" rms="4.9761387705802917e-01" purity="5.0053507089614868e-01" nType="-99"/>
          <Node pos="r" depth="2" NCoef="0" IVar="-1" Cut="0.0000000000000000e+00" cType="1" res="-2.3776225862093270e-04" rms="4.8724517226219177e-01" purity="5.0554567575454712e-01" nType="-99"/>
        </Node>
      </Node>
    </BinaryTree>
    <BinaryTree type="DecisionTree" boostWeight="1.0000000000000000e+00" itree="824">
      <Node pos="s" depth="0" NCoef="0" IVar="0" Cut="8.9159507751464844e+00" cType="1" res="-1.6770972870290279e-03" rms="4.8739203810691833e-01" purity="4.9788612127304077e-01" nType="0">
        <Node pos="l" depth="1" NCoef="0" IVar="4" Cut="-7.8594142198562622e-01" cType="1" res="4.8224008642137051e-03" rms="4.9288696050643921e-01" purity="5.0738197565078735e-01" nType="0">
          <Node pos="l" depth="2" NCoef="0" IVar="-1" Cut="0.0000000000000000e+00" cType="1" res="-2.3464767728000879e-03" rms="4.8800382018089294e-01" purity="4.4684866070747375e-01" nType="-99"/>
          <Node pos="r" depth="2" NCoef="0" IVar="-1" Cut="0.0000000000000000e+00" cType="1" res="1.1267536319792271e-03" rms="4.9367481470108032e-01" purity="5.1897341012954712e-01" nType="-99"/>
        </Node>
        <Node pos="r" depth="1" NCoef="0" IVar="3" Cut="8.0258440971374512e-01" cType="1" res="-5.7358182966709137e-03" rms="4.8388472199440002e-01" purity="4.9195632338523865e-01" nType="0">
          <Node pos="l" depth="2" NCoef="0" IVar="-1" Cut="0.0000000000000000e+00" cType="1" res="-2.1221979986876249e-03" rms="4.8610994219779968e-01" purity="4.1919845342636108e-01" nType="-99"/>
          <Node pos="r" depth="2" NCoef="0" IVar="-1" Cut="0.0000000000000000e+00" cType="1" res="4.4974742922931910e-04" rms="4.8025417327880859e-01" purity="6.0653805732727051e-01" nType="-99"/>
        </Node>
      </Node>
    </BinaryTree>
    <BinaryTree type="DecisionTree" boostWeight="1.0000000000000000e+00" itree="825">
      <Node pos="s" depth="0" NCoef="0" IVar="0" Cut="8.4392223358154297e+00" cType="1" res="5.7110837660729885e-03" rms="4.8850518465042114e-01" purity="5.0437903404235840e-01" nType="0">
        <Node pos="l" depth="1" NCoef="0" IVar="3" Cut="-6.9585204124450684e-01" cType="1" res="-8.1009194254875183e-03" rms="4.9858739972114563e-01" purity="4.9779558181762695e-01" nType="0">
          <Node pos="l" depth="2" NCoef="0" IVar="-1" Cut="0.0000000000000000e+00" cType="1" res="1.0046000825241208e-03" rms="4.9789419770240784e-01" purity="4.8047640919685364e-01" nType="-99"/>
          <Node pos="r" depth="2" NCoef="0" IVar="-1" Cut="0.0000000000000000e+00" cType="1" res="-2.6591508649289608e-03" rms="4.9863553047180176e-01" purity="5.1489335298538208e-01" nType="-99"/>
        </Node>
        <Node pos="r" depth="1" NCoef="0" IVar="0" Cut="9.1264219284057617e+00" cType="1" res="7.6178214512765408e-03" rms="4.8706617951393127e-01" purity="5.0528788566589355e-01" nType="0">
          <Node pos="l" depth="2" NCoef="0" IVar="-1" Cut="0.0000000000000000e+00" cType="1" res="1.9328396301716566e-03" rms="4.9011048674583435e-01" purity="5.1308798789978027e-01" nType="-99"/>
          <Node pos="r" depth="2" NCoef="0" IVar="-1" Cut="0.0000000000000000e+00" cType="1" res="3.4430739469826221e-04" rms="4.8400482535362244e-01" purity="4.9769070744514465e-01" nType="-99"/>
        </Node>
      </Node>
    </BinaryTree>
    <BinaryTree type="DecisionTree" boostWeight="1.0000000000000000e+00" itree="826">
      <Node pos="s" depth="0" NCoef="0" IVar="0" Cut="8.8033571243286133e+00" cType="1" res="-9.9892274010926485e-04" rms="4.8879265785217285e-01" purity="4.9941745400428772e-01" nType="0">
        <Node pos="l" depth="1" NCoef="0" IVar="1" Cut="3.0000000000000000e+00" cType="1" res="-2.3177445109467953e-04" rms="6.7723624408245087e-02" purity="5.1206403970718384e-01" nType="0">
          <Node pos="l" depth="2" NCoef="0" IVar="-1" Cut="0.0000000000000000e+00" cType="1" res="-1.4415946498047560e-04" rms="4.9667432904243469e-01" purity="5.0180894136428833e-01" nType="-99"/>
          <Node pos="r" depth="2" NCoef="0" IVar="-1" Cut="0.0000000000000000e+00" cType="1" res="2.8762316796928644e-03" rms="4.9224022030830383e-01" purity="5.3144150972366333e-01" nType="-99"/>
        </Node>
        <Node pos="r" depth="1" NCoef="0" IVar="0" Cut="8.9235305786132812e+00" cType="1" res="-4.7807265073060989e-03" rms="4.8598158359527588e-01" purity="4.9410864710807800e-01" nType="0">
          <Node pos="l" depth="2" NCoef="0" IVar="-1" Cut="0.0000000000000000e+00" cType="1" res="-4.3284841813147068e-03" rms="4.9082326889038086e-01" purity="4.6980068087577820e-01" nType="-99"/>
          <Node pos="r" depth="2" NCoef="0" IVar="-1" Cut="0.0000000000000000e+00" cType="1" res="-1.8316821660846472e-04" rms="4.8513618111610413e-01" purity="4.9773034453392029e-01" nType="-99"/>
        </Node>
      </Node>
    </BinaryTree>
    <BinaryTree type="DecisionTree" boostWeight="1.0000000000000000e+00" itree="827">
      <Node pos="s" depth="0" NCoef="0" IVar="1" Cut="5.0000000000000000e+00" cType="1" res="-1.7960353288799524e-03" rms="1.8371894955635071e-01" purity="4.9522072076797485e-01" nType="0">
        <Node pos="l" depth="1" NCoef="0" IVar="1" Cut="4.0000000000000000e+00" cType="1" res="-1.8817961972672492e-05" rms="3.1255937647074461e-03" purity="4.9284112453460693e-01" nType="0">
          <Node pos="l" depth="2" NCoef="0" IVar="-1" Cut="0.0000000000000000e+00" cType="1" res="-7.9954846296459436e-04" rms="4.8894909024238586e-01" purity="4.9391725659370422e-01" nType="-99"/>
          <Node pos="r" depth="2" NCoef="0" IVar="-1" Cut="0.0000000000000000e+00" cType="1" res="-2.5582481175661087e-03" rms="4.8715054988861084e-01" purity="4.8295351862907410e-01" nType="-99"/>
        </Node>
        <Node pos="r" depth="1" NCoef="0" IVar="-1" Cut="0.0000000000000000e+00" cType="1" res="3.1927204690873623e-03" rms="4.8320558667182922e-01" purity="5.4377585649490356e-01" nType="-99"/>
      </Node>
    </BinaryTree>
    <BinaryTree type="DecisionTree" boostWeight="1.0000000000000000e+00" itree="828">
      <Node pos="s" depth="0" NCoef="0" IVar="3" Cut="8.0220818519592285e-01" cType="1" res="2.0030918531119823e-03" rms="4.8845854401588440e-01" purity="5.0132191181182861e-01" nType="0">
        <Node pos="l" depth="1" NCoef="0" IVar="1" Cut="5.0000000000000000e+00" cType="1" res="-1.8140609608963132e-04" rms="2.5763940811157227e-01" purity="4.4991135597229004e-01" nType="0">
          <Node pos="l" depth="2" NCoef="0" IVar="-1" Cut="0.0000000000000000e+00" cType="1" res="7.0409307954832911e-04" rms="4.9055668711662292e-01" purity="4.4823873043060303e-01" nType="-99"/>
          <Node pos="r" depth="2" NCoef="0" IVar="-1" Cut="0.0000000000000000e+00" cType="1" res="5.8546052314341068e-03" rms="4.8979315161705017e-01" purity="4.8514080047607422e-01" nType="-99"/>
        </Node>
        <Node pos="r" depth="1" NCoef="0" IVar="3" Cut="8.5613846778869629e-01" cType="1" res="-4.7373571433126926e-03" rms="4.8482000827789307e-01" purity="5.8762651681900024e-01" nType="0">
          <Node pos="l" depth="2" NCoef="0" IVar="-1" Cut="0.0000000000000000e+00" cType="1" res="-4.8184352926909924e-03" rms="4.9883168935775757e-01" purity="5.1238667964935303e-01" nType="-99"/>
          <Node pos="r" depth="2" NCoef="0" IVar="-1" Cut="0.0000000000000000e+00" cType="1" res="1.0638170642778277e-03" rms="4.7867500782012939e-01" purity="6.1772114038467407e-01" nType="-99"/>
        </Node>
      </Node>
    </BinaryTree>
    <BinaryTree type="DecisionTree" boostWeight="1.0000000000000000e+00" itree="829">
      <Node pos="s" depth="0" NCoef="0" IVar="2" Cut="2.0000000000000000e+00" cType="1" res="-3.4272635821253061e-04" rms="1.7660531401634216e-01" purity="4.9995261430740356e-01" nType="0">
        <Node pos="l" depth="1" NCoef="0" IVar="3" Cut="8.9695680141448975e-01" cType="1" res="5.7789986021816730e-03" rms="4.8692902922630310e-01" purity="5.0474321842193604e-01" nType="0">
          <Node pos="l" depth="2" NCoef="0" IVar="-1" Cut="0.0000000000000000e+00" cType="1" res="1.2717869831249118e-03" rms="4.9106520414352417e-01" purity="4.7068786621093750e-01" nType="-99"/>
          <Node pos="r" depth="2" NCoef="0" IVar="-1" Cut="0.0000000000000000e+00" cType="1" res="-1.0321709560230374e-03" rms="4.6981880068778992e-01" purity="6.4121085405349731e-01" nType="-99"/>
        </Node>
        <Node pos="r" depth="1" NCoef="0" IVar="3" Cut="8.9070409536361694e-01" cType="1" res="-6.6539421677589417e-03" rms="4.9011942744255066e-01" purity="4.9350225925445557e-01" nType="0">
          <Node pos="l" depth="2" NCoef="0" IVar="-1" Cut="0.0000000000000000e+00" cType="1" res="-1.4977448154240847e-03" rms="4.9291777610778809e-01" purity="4.6835336089134216e-01" nType="-99"/>
          <Node pos="r" depth="2" NCoef="0" IVar="-1" Cut="0.0000000000000000e+00" cType="1" res="1.5490581281483173e-03" rms="4.7302874922752380e-01" purity="6.4168375730514526e-01" nType="-99"/>
        </Node>
      </Node>
    </BinaryTree>
    <BinaryTree type="DecisionTree" boostWeight="1.0000000000000000e+00" itree="830">
      <Node pos="s" depth="0" NCoef="0" IVar="0" Cut="9.5323514938354492e+00" cType="1" res="2.7321209199726582e-03" rms="4.8803836107254028e-01" purity="5.0315558910369873e-01" nType="0">
        <Node pos="l" depth="1" NCoef="0" IVar="0" Cut="9.1783580780029297e+00" cType="1" res="5.7429312728345394e-03" rms="4.9018082022666931e-01" purity="5.0796645879745483e-01" nType="0">
          <Node pos="l" depth="2" NCoef="0" IVar="-1" Cut="0.0000000000000000e+00" cType="1" res="2.1861972345504910e-04" rms="4.9210941791534424e-01" purity="5.0380337238311768e-01" nType="-99"/>
          <Node pos="r" depth="2" NCoef="0" IVar="-1" Cut="0.0000000000000000e+00" cType="1" res="3.3081842120736837e-03" rms="4.8527333140373230e-01" purity="5.1817733049392700e-01" nType="-99"/>
        </Node>
        <Node pos="r" depth="1" NCoef="0" IVar="4" Cut="4.4946037232875824e-02" cType="1" res="-1.3804115355014801e-02" rms="4.7575980424880981e-01" purity="4.7673285007476807e-01" nType="0">
          <Node pos="l" depth="2" NCoef="0" IVar="-1" Cut="0.0000000000000000e+00" cType="1" res="-5.6196153163909912e-03" rms="4.7647342085838318e-01" purity="4.6142157912254333e-01" nType="-99"/>
          <Node pos="r" depth="2" NCoef="0" IVar="-1" Cut="0.0000000000000000e+00" cType="1" res="1.1580801801756024e-03" rms="4.7339633107185364e-01" purity="5.1763153076171875e-01" nType="-99"/>
        </Node>
      </Node>
    </BinaryTree>
    <BinaryTree type="DecisionTree" boostWeight="1.0000000000000000e+00" itree="831">
      <Node pos="s" depth="0" NCoef="0" IVar="2" Cut="2.0000000000000000e+00" cType="1" res="-6.3597253756597638e-04" rms="1.8346801400184631e-01" purity="4.9810093641281128e-01" nType="0">
        <Node pos="l" depth="1" NCoef="0" IVar="0" Cut="9.3243389129638672e+00" cType="1" res="-7.2543728165328503e-03" rms="4.8689922690391541e-01" purity="4.9249395728111267e-01" nType="0">
          <Node pos="l" depth="2" NCoef="0" IVar="-1" Cut="0.0000000000000000e+00" cType="1" res="-1.8035296816378832e-03" rms="4.8998597264289856e-01" purity="4.8919373750686646e-01" nType="-99"/>
          <Node pos="r" depth="2" NCoef="0" IVar="-1" Cut="0.0000000000000000e+00" cType="1" res="1.9002313492819667e-03" rms="4.7874253988265991e-01" purity="5.0075519084930420e-01" nType="-99"/>
        </Node>
        <Node pos="r" depth="1" NCoef="0" IVar="3" Cut="-8.9395231008529663e-01" cType="1" res="4.1974917985498905e-03" rms="4.9098181724548340e-01" purity="5.0581622123718262e-01" nType="0">
          <Node pos="l" depth="2" NCoef="0" IVar="-1" Cut="0.0000000000000000e+00" cType="1" res="3.5794584546238184e-03" rms="4.7677692770957947e-01" purity="3.7500977516174316e-01" nType="-99"/>
          <Node pos="r" depth="2" NCoef="0" IVar="-1" Cut="0.0000000000000000e+00" cType="1" res="3.2995195942930877e-04" rms="4.9308302998542786e-01" purity="5.2583205699920654e-01" nType="-99"/>
        </Node>
      </Node>
    </BinaryTree>
    <BinaryTree type="DecisionTree" boostWeight="1.0000000000000000e+00" itree="832">
      <Node pos="s" depth="0" NCoef="0" IVar="0" Cut="8.2430858612060547e+00" cType="1" res="-1.1696398723870516e-03" rms="4.8841133713722229e-01" purity="4.9948507547378540e-01" nType="0">
        <Node pos="l" depth="1" NCoef="0" IVar="-1" Cut="0.0000000000000000e+00" cType="1" res="-1.7501000547781587e-03" rms="5.0009942054748535e-01" purity="4.7576278448104858e-01" nType="-99"/>
        <Node pos="r" depth="1" NCoef="0" IVar="3" Cut="-8.0135315656661987e-01" cType="1" res="1.0227538950857706e-05" rms="4.8754766583442688e-01" purity="5.0117266178131104e-01" nType="0">
          <Node pos="l" depth="2" NCoef="0" IVar="-1" Cut="0.0000000000000000e+00" cType="1" res="-1.1792598525062203e-03" rms="4.8295792937278748e-01" purity="3.9951780438423157e-01" nType="-99"/>
          <Node pos="r" depth="2" NCoef="0" IVar="-1" Cut="0.0000000000000000e+00" cType="1" res="6.5105268731713295e-04" rms="4.9016842246055603e-01" purity="5.6064283847808838e-01" nType="-99"/>
        </Node>
      </Node>
    </BinaryTree>
    <BinaryTree type="DecisionTree" boostWeight="1.0000000000000000e+00" itree="833">
      <Node pos="s" depth="0" NCoef="0" IVar="2" Cut="3.0000000000000000e+00" cType="1" res="4.9924402264878154e-04" rms="1.6748708486557007e-01" purity="4.9934220314025879e-01" nType="0">
        <Node pos="l" depth="1" NCoef="0" IVar="0" Cut="8.4702129364013672e+00" cType="1" res="1.0928525589406490e-03" rms="4.8806658387184143e-01" purity="5.0017589330673218e-01" nType="0">
          <Node pos="l" depth="2" NCoef="0" IVar="-1" Cut="0.0000000000000000e+00" cType="1" res="1.1670108651742339e-03" rms="4.9571505188941956e-01" purity="5.1721316576004028e-01" nType="-99"/>
          <Node pos="r" depth="2" NCoef="0" IVar="-1" Cut="0.0000000000000000e+00" cType="1" res="-1.0139826918020844e-04" rms="4.8682531714439392e-01" purity="4.9748280644416809e-01" nType="-99"/>
        </Node>
        <Node pos="r" depth="1" NCoef="0" IVar="1" Cut="3.0000000000000000e+00" cType="1" res="-4.0479963645339012e-03" rms="2.4789571762084961e-01" purity="4.9255833029747009e-01" nType="0">
          <Node pos="l" depth="2" NCoef="0" IVar="-1" Cut="0.0000000000000000e+00" cType="1" res="-3.9016613736748695e-03" rms="4.9205768108367920e-01" purity="4.8945409059524536e-01" nType="-99"/>
          <Node pos="r" depth="2" NCoef="0" IVar="-1" Cut="0.0000000000000000e+00" cType="1" res="9.9154806230217218e-04" rms="4.8927053809165955e-01" purity="5.0015258789062500e-01" nType="-99"/>
        </Node>
      </Node>
    </BinaryTree>
    <BinaryTree type="DecisionTree" boostWeight="1.0000000000000000e+00" itree="834">
      <Node pos="s" depth="0" NCoef="0" IVar="0" Cut="8.7359209060668945e+00" cType="1" res="-1.0345845948904753e-03" rms="4.8885139822959900e-01" purity="4.9878439307212830e-01" nType="0">
        <Node pos="l" depth="1" NCoef="0" IVar="4" Cut="-6.8910616636276245e-01" cType="1" res="-1.2722969986498356e-02" rms="4.9479535222053528e-01" purity="4.9282756447792053e-01" nType="0">
          <Node pos="l" depth="2" NCoef="0" IVar="-1" Cut="0.0000000000000000e+00" cType="1" res="4.7000509221106768e-04" rms="4.9275586009025574e-01" purity="4.8151695728302002e-01" nType="-99"/>
          <Node pos="r" depth="2" NCoef="0" IVar="-1" Cut="0.0000000000000000e+00" cType="1" res="-2.0619081333279610e-03" rms="4.9538603425025940e-01" purity="4.9692386388778687e-01" nType="-99"/>
        </Node>
        <Node pos="r" depth="1" NCoef="0" IVar="3" Cut="8.9726012945175171e-01" cType="1" res="3.1003251206129789e-03" rms="4.8666405677795410e-01" purity="5.0089168548583984e-01" nType="0">
          <Node pos="l" depth="2" NCoef="0" IVar="-1" Cut="0.0000000000000000e+00" cType="1" res="1.1307133827358484e-03" rms="4.9026918411254883e-01" purity="4.6792063117027283e-01" nType="-99"/>
          <Node pos="r" depth="2" NCoef="0" IVar="-1" Cut="0.0000000000000000e+00" cType="1" res="-2.1426011808216572e-03" rms="4.7047051787376404e-01" purity="6.4405608177185059e-01" nType="-99"/>
        </Node>
      </Node>
    </BinaryTree>
    <BinaryTree type="DecisionTree" boostWeight="1.0000000000000000e+00" itree="835">
      <Node pos="s" depth="0" NCoef="0" IVar="1" Cut="3.0000000000000000e+00" cType="1" res="-4.9315654905512929e-04" rms="3.6223930120468140e-01" purity="4.9948137998580933e-01" nType="0">
        <Node pos="l" depth="1" NCoef="0" IVar="0" Cut="8.2644243240356445e+00" cType="1" res="-4.1164350695908070e-03" rms="4.8816427588462830e-01" purity="4.9363973736763000e-01" nType="0">
          <Node pos="l" depth="2" NCoef="0" IVar="-1" Cut="0.0000000000000000e+00" cType="1" res="1.2418484548106790e-03" rms="5.0123286247253418e-01" purity="5.0536823272705078e-01" nType="-99"/>
          <Node pos="r" depth="2" NCoef="0" IVar="-1" Cut="0.0000000000000000e+00" cType="1" res="-9.0866192476823926e-04" rms="4.8708853125572205e-01" purity="4.9271023273468018e-01" nType="-99"/>
        </Node>
        <Node pos="r" depth="1" NCoef="0" IVar="3" Cut="-7.0674949884414673e-01" cType="1" res="7.3162764310836792e-03" rms="4.8655942082405090e-01" purity="5.1037514209747314e-01" nType="0">
          <Node pos="l" depth="2" NCoef="0" IVar="-1" Cut="0.0000000000000000e+00" cType="1" res="-9.8997406894341111e-05" rms="4.8820874094963074e-01" purity="4.2645639181137085e-01" nType="-99"/>
          <Node pos="r" depth="2" NCoef="0" IVar="-1" Cut="0.0000000000000000e+00" cType="1" res="2.4581875186413527e-03" rms="4.8477908968925476e-01" purity="5.9407401084899902e-01" nType="-99"/>
        </Node>
      </Node>
    </BinaryTree>
    <BinaryTree type="DecisionTree" boostWeight="1.0000000000000000e+00" itree="836">
      <Node pos="s" depth="0" NCoef="0" IVar="5" Cut="-6.9014042615890503e-01" cType="1" res="3.2762289047241211e-03" rms="4.8867875337600708e-01" purity="5.0339251756668091e-01" nType="0">
        <Node pos="l" depth="1" NCoef="0" IVar="5" Cut="-8.0278277397155762e-01" cType="1" res="-2.1557437255978584e-02" rms="4.8398053646087646e-01" purity="4.7654590010643005e-01" nType="0">
          <Node pos="l" depth="2" NCoef="0" IVar="-1" Cut="0.0000000000000000e+00" cType="1" res="-8.4914388135075569e-03" rms="4.8523885011672974e-01" purity="4.4772452116012573e-01" nType="-99"/>
          <Node pos="r" depth="2" NCoef="0" IVar="-1" Cut="0.0000000000000000e+00" cType="1" res="-1.0950525756925344e-03" rms="4.8266145586967468e-01" purity="4.9274140596389771e-01" nType="-99"/>
        </Node>
        <Node pos="r" depth="1" NCoef="0" IVar="2" Cut="2.0000000000000000e+00" cType="1" res="-4.9331097397953272e-04" rms="3.5727512091398239e-02" purity="5.0717496871948242e-01" nType="0">
          <Node pos="l" depth="2" NCoef="0" IVar="-1" Cut="0.0000000000000000e+00" cType="1" res="1.8526327330619097e-03" rms="4.8698839545249939e-01" purity="5.1177245378494263e-01" nType="-99"/>
          <Node pos="r" depth="2" NCoef="0" IVar="-1" Cut="0.0000000000000000e+00" cType="1" res="2.4294013201142661e-05" rms="4.9200475215911865e-01" purity="5.0131702423095703e-01" nType="-99"/>
        </Node>
      </Node>
    </BinaryTree>
    <BinaryTree type="DecisionTree" boostWeight="1.0000000000000000e+00" itree="837">
      <Node pos="s" depth="0" NCoef="0" IVar="5" Cut="7.9350036382675171e-01" cType="1" res="4.5421384857036173e-04" rms="4.8839169740676880e-01" purity="5.0017970800399780e-01" nType="0">
        <Node pos="l" depth="1" NCoef="0" IVar="3" Cut="8.0100679397583008e-01" cType="1" res="-9.3996379291638732e-04" rms="4.8870185017585754e-01" purity="4.9780082702636719e-01" nType="0">
          <Node pos="l" depth="2" NCoef="0" IVar="-1" Cut="0.0000000000000000e+00" cType="1" res="5.3610175382345915e-04" rms="4.9047592282295227e-01" purity="4.4826245307922363e-01" nType="-99"/>
          <Node pos="r" depth="2" NCoef="0" IVar="-1" Cut="0.0000000000000000e+00" cType="1" res="-1.3705812161788344e-03" rms="4.8564544320106506e-01" purity="5.8027571439743042e-01" nType="-99"/>
        </Node>
        <Node pos="r" depth="1" NCoef="0" IVar="-1" Cut="0.0000000000000000e+00" cType="1" res="4.3264483101665974e-03" rms="4.8198840022087097e-01" purity="5.4359644651412964e-01" nType="-99"/>
      </Node>
    </BinaryTree>
    <BinaryTree type="DecisionTree" boostWeight="1.0000000000000000e+00" itree="838">
      <Node pos="s" depth="0" NCoef="0" IVar="1" Cut="2.0000000000000000e+00" cType="1" res="1.3601771788671613e-03" rms="1.6176237165927887e-01" purity="5.0355631113052368e-01" nType="0">
        <Node pos="l" depth="1" NCoef="0" IVar="4" Cut="4.0813561528921127e-02" cType="1" res="1.0444400832056999e-02" rms="4.9008783698081970e-01" purity="5.0959277153015137e-01" nType="0">
          <Node pos="l" depth="2" NCoef="0" IVar="-1" Cut="0.0000000000000000e+00" cType="1" res="1.0941823711618781e-03" rms="4.9063116312026978e-01" purity="5.0254267454147339e-01" nType="-99"/>
          <Node pos="r" depth="2" NCoef="0" IVar="-1" Cut="0.0000000000000000e+00" cType="1" res="4.6189283020794392e-03" rms="4.8680168390274048e-01" purity="5.4713654518127441e-01" nType="-99"/>
        </Node>
        <Node pos="r" depth="1" NCoef="0" IVar="2" Cut="3.0000000000000000e+00" cType="1" res="-1.9476417946862057e-05" rms="3.0778201296925545e-02" purity="5.0106728076934814e-01" nType="0">
          <Node pos="l" depth="2" NCoef="0" IVar="-1" Cut="0.0000000000000000e+00" cType="1" res="5.4011598695069551e-04" rms="4.8698842525482178e-01" purity="5.0294023752212524e-01" nType="-99"/>
          <Node pos="r" depth="2" NCoef="0" IVar="-1" Cut="0.0000000000000000e+00" cType="1" res="-2.0840337965637445e-03" rms="4.9241062998771667e-01" purity="4.8448252677917480e-01" nType="-99"/>
        </Node>
      </Node>
    </BinaryTree>
    <BinaryTree type="DecisionTree" boostWeight="1.0000000000000000e+00" itree="839">
      <Node pos="s" depth="0" NCoef="0" IVar="4" Cut="-7.0241034030914307e-01" cType="1" res="4.5345383696258068e-03" rms="4.8774090409278870e-01" purity="5.0464749336242676e-01" nType="0">
        <Node pos="l" depth="1" NCoef="0" IVar="4" Cut="-8.3308440446853638e-01" cType="1" res="1.4485424384474754e-02" rms="4.8378714919090271e-01" purity="4.9057146906852722e-01" nType="0">
          <Node pos="l" depth="2" NCoef="0" IVar="-1" Cut="0.0000000000000000e+00" cType="1" res="4.4204006553627551e-04" rms="4.7837403416633606e-01" purity="4.6672958135604858e-01" nType="-99"/>
          <Node pos="r" depth="2" NCoef="0" IVar="-1" Cut="0.0000000000000000e+00" cType="1" res="3.4627921413630247e-03" rms="4.8684269189834595e-01" purity="5.0477761030197144e-01" nType="-99"/>
        </Node>
        <Node pos="r" depth="1" NCoef="0" IVar="0" Cut="8.3830623626708984e+00" cType="1" res="9.0719241416081786e-04" rms="4.8912385106086731e-01" purity="5.0977849960327148e-01" nType="0">
          <Node pos="l" depth="2" NCoef="0" IVar="-1" Cut="0.0000000000000000e+00" cType="1" res="1.6931302379816771e-03" rms="4.9615412950515747e-01" purity="5.2992272377014160e-01" nType="-99"/>
          <Node pos="r" depth="2" NCoef="0" IVar="-1" Cut="0.0000000000000000e+00" cType="1" res="-1.6423364286310971e-04" rms="4.8825404047966003e-01" purity="5.0740373134613037e-01" nType="-99"/>
        </Node>
      </Node>
    </BinaryTree>
    <BinaryTree type="DecisionTree" boostWeight="1.0000000000000000e+00" itree="840">
      <Node pos="s" depth="0" NCoef="0" IVar="4" Cut="-7.0179730653762817e-01" cType="1" res="-6.9552112836390734e-04" rms="4.8742169141769409e-01" purity="5.0012642145156860e-01" nType="0">
        <Node pos="l" depth="1" NCoef="0" IVar="3" Cut="8.9732199907302856e-01" cType="1" res="-1.2264134362339973e-02" rms="4.8301655054092407e-01" purity="4.6564379334449768e-01" nType="0">
          <Node pos="l" depth="2" NCoef="0" IVar="-1" Cut="0.0000000000000000e+00" cType="1" res="-3.2114789355546236e-03" rms="4.8452603816986084e-01" purity="4.1375285387039185e-01" nType="-99"/>
          <Node pos="r" depth="2" NCoef="0" IVar="-1" Cut="0.0000000000000000e+00" cType="1" res="1.9338976126164198e-03" rms="4.7797816991806030e-01" purity="6.1187130212783813e-01" nType="-99"/>
        </Node>
        <Node pos="r" depth="1" NCoef="0" IVar="1" Cut="5.0000000000000000e+00" cType="1" res="2.6772243436425924e-03" rms="3.2048255205154419e-01" purity="5.1301121711730957e-01" nType="0">
          <Node pos="l" depth="2" NCoef="0" IVar="-1" Cut="0.0000000000000000e+00" cType="1" res="8.1440265057608485e-04" rms="4.8891815543174744e-01" purity="5.1299327611923218e-01" nType="-99"/>
          <Node pos="r" depth="2" NCoef="0" IVar="-1" Cut="0.0000000000000000e+00" cType="1" res="-4.6409256756305695e-03" rms="4.8936814069747925e-01" purity="5.1341599225997925e-01" nType="-99"/>
        </Node>
      </Node>
    </BinaryTree>
    <BinaryTree type="DecisionTree" boostWeight="1.0000000000000000e+00" itree="841">
      <Node pos="s" depth="0" NCoef="0" IVar="1" Cut="3.0000000000000000e+00" cType="1" res="-1.7075823852792382e-03" rms="3.3624866604804993e-01" purity="4.9706929922103882e-01" nType="0">
        <Node pos="l" depth="1" NCoef="0" IVar="4" Cut="-7.0223355293273926e-01" cType="1" res="1.5385216102004051e-04" rms="4.8896545171737671e-01" purity="4.9909439682960510e-01" nType="0">
          <Node pos="l" depth="2" NCoef="0" IVar="-1" Cut="0.0000000000000000e+00" cType="1" res="2.2614812478423119e-03" rms="4.8673495650291443e-01" purity="4.9238935112953186e-01" nType="-99"/>
          <Node pos="r" depth="2" NCoef="0" IVar="-1" Cut="0.0000000000000000e+00" cType="1" res="-6.6937977680936456e-04" rms="4.8957476019859314e-01" purity="5.0117897987365723e-01" nType="-99"/>
        </Node>
        <Node pos="r" depth="1" NCoef="0" IVar="0" Cut="8.7321720123291016e+00" cType="1" res="-1.0893952101469040e-02" rms="4.8797771334648132e-01" purity="4.9334943294525146e-01" nType="0">
          <Node pos="l" depth="2" NCoef="0" IVar="-1" Cut="0.0000000000000000e+00" cType="1" res="-2.7981544844806194e-03" rms="4.9121299386024475e-01" purity="4.8186683654785156e-01" nType="-99"/>
          <Node pos="r" depth="2" NCoef="0" IVar="-1" Cut="0.0000000000000000e+00" cType="1" res="-1.0570629965513945e-03" rms="4.8676639795303345e-01" purity="4.9721935391426086e-01" nType="-99"/>
        </Node>
      </Node>
    </BinaryTree>
    <BinaryTree type="DecisionTree" boostWeight="1.0000000000000000e+00" itree="842">
      <Node pos="s" depth="0" NCoef="0" IVar="4" Cut="4.6732999384403229e-02" cType="1" res="-1.3704613083973527e-03" rms="4.8830565810203552e-01" purity="4.9867278337478638e-01" nType="0">
        <Node pos="l" depth="1" NCoef="0" IVar="1" Cut="2.0000000000000000e+00" cType="1" res="1.9981269724667072e-03" rms="2.5301885604858398e-01" purity="4.9209147691726685e-01" nType="0">
          <Node pos="l" depth="2" NCoef="0" IVar="-1" Cut="0.0000000000000000e+00" cType="1" res="-9.1942015569657087e-04" rms="4.9104410409927368e-01" purity="4.9030795693397522e-01" nType="-99"/>
          <Node pos="r" depth="2" NCoef="0" IVar="-1" Cut="0.0000000000000000e+00" cType="1" res="8.5382733959704638e-04" rms="4.8846587538719177e-01" purity="4.9303078651428223e-01" nType="-99"/>
        </Node>
        <Node pos="r" depth="1" NCoef="0" IVar="4" Cut="7.5805675983428955e-01" cType="1" res="-8.6183967068791389e-03" rms="4.8540896177291870e-01" purity="5.1577991247177124e-01" nType="0">
          <Node pos="l" depth="2" NCoef="0" IVar="-1" Cut="0.0000000000000000e+00" cType="1" res="-4.9777734093368053e-03" rms="4.9331331253051758e-01" purity="4.7762975096702576e-01" nType="-99"/>
          <Node pos="r" depth="2" NCoef="0" IVar="-1" Cut="0.0000000000000000e+00" cType="1" res="-2.9875856125727296e-04" rms="4.8282891511917114e-01" purity="5.2709662914276123e-01" nType="-99"/>
        </Node>
      </Node>
    </BinaryTree>
    <BinaryTree type="DecisionTree" boostWeight="1.0000000000000000e+00" itree="843">
      <Node pos="s" depth="0" NCoef="0" IVar="0" Cut="8.7359209060668945e+00" cType="1" res="-2.0550934132188559e-03" rms="4.8700350522994995e-01" purity="4.9804922938346863e-01" nType="0">
        <Node pos="l" depth="1" NCoef="0" IVar="0" Cut="8.3186826705932617e+00" cType="1" res="-1.3259022496640682e-02" rms="4.9296408891677856e-01" purity="4.9112430214881897e-01" nType="0">
          <Node pos="l" depth="2" NCoef="0" IVar="-1" Cut="0.0000000000000000e+00" cType="1" res="-2.9720738530158997e-03" rms="4.9612224102020264e-01" purity="4.6733808517456055e-01" nType="-99"/>
          <Node pos="r" depth="2" NCoef="0" IVar="-1" Cut="0.0000000000000000e+00" cType="1" res="-5.6396779837086797e-04" rms="4.9116733670234680e-01" purity="5.0302755832672119e-01" nType="-99"/>
        </Node>
        <Node pos="r" depth="1" NCoef="0" IVar="0" Cut="8.8624048233032227e+00" cType="1" res="1.9432025728747249e-03" rms="4.8479592800140381e-01" purity="5.0052046775817871e-01" nType="0">
          <Node pos="l" depth="2" NCoef="0" IVar="-1" Cut="0.0000000000000000e+00" cType="1" res="2.7172681875526905e-03" rms="4.9080878496170044e-01" purity="5.1797252893447876e-01" nType="-99"/>
          <Node pos="r" depth="2" NCoef="0" IVar="-1" Cut="0.0000000000000000e+00" cType="1" res="-7.7007949585095048e-05" rms="4.8397609591484070e-01" purity="4.9830052256584167e-01" nType="-99"/>
        </Node>
      </Node>
    </BinaryTree>
    <BinaryTree type="DecisionTree" boostWeight="1.0000000000000000e+00" itree="844">
      <Node pos="s" depth="0" NCoef="0" IVar="0" Cut="8.6646442413330078e+00" cType="1" res="1.0832985863089561e-03" rms="4.8859140276908875e-01" purity="5.0124645233154297e-01" nType="0">
        <Node pos="l" depth="1" NCoef="0" IVar="1" Cut="3.0000000000000000e+00" cType="1" res="-6.9752737181261182e-04" rms="6.5248802304267883e-02" purity="5.2138501405715942e-01" nType="0">
          <Node pos="l" depth="2" NCoef="0" IVar="-1" Cut="0.0000000000000000e+00" cType="1" res="2.3118988610804081e-03" rms="4.9754753708839417e-01" purity="5.2722465991973877e-01" nType="-99"/>
          <Node pos="r" depth="2" NCoef="0" IVar="-1" Cut="0.0000000000000000e+00" cType="1" res="1.9184865232091397e-04" rms="4.9268031120300293e-01" purity="5.1023381948471069e-01" nType="-99"/>
        </Node>
        <Node pos="r" depth="1" NCoef="0" IVar="1" Cut="4.0000000000000000e+00" cType="1" res="-3.1695151701569557e-03" rms="4.7728696465492249e-01" purity="4.9535760283470154e-01" nType="0">
          <Node pos="l" depth="2" NCoef="0" IVar="-1" Cut="0.0000000000000000e+00" cType="1" res="-1.0264912853017449e-03" rms="4.8625540733337402e-01" purity="4.9192944169044495e-01" nType="-99"/>
          <Node pos="r" depth="2" NCoef="0" IVar="-1" Cut="0.0000000000000000e+00" cType="1" res="2.3785005323588848e-03" rms="4.8654982447624207e-01" purity="5.1612240076065063e-01" nType="-99"/>
        </Node>
      </Node>
    </BinaryTree>
    <BinaryTree type="DecisionTree" boostWeight="1.0000000000000000e+00" itree="845">
      <Node pos="s" depth="0" NCoef="0" IVar="3" Cut="-8.9654481410980225e-01" cType="1" res="1.4758129836991429e-03" rms="4.8730319738388062e-01" purity="5.0264048576354980e-01" nType="0">
        <Node pos="l" depth="1" NCoef="0" IVar="1" Cut="3.0000000000000000e+00" cType="1" res="-4.2065847665071487e-03" rms="2.5574240088462830e-01" purity="3.3599385619163513e-01" nType="0">
          <Node pos="l" depth="2" NCoef="0" IVar="-1" Cut="0.0000000000000000e+00" cType="1" res="-7.8212463995441794e-04" rms="4.6226862072944641e-01" purity="3.3100995421409607e-01" nType="-99"/>
          <Node pos="r" depth="2" NCoef="0" IVar="-1" Cut="0.0000000000000000e+00" cType="1" res="-5.4709990508854389e-03" rms="4.6821534633636475e-01" purity="3.4277844429016113e-01" nType="-99"/>
        </Node>
        <Node pos="r" depth="1" NCoef="0" IVar="0" Cut="8.8292856216430664e+00" cType="1" res="4.8486543819308281e-03" rms="4.9159213900566101e-01" purity="5.3608369827270508e-01" nType="0">
          <Node pos="l" depth="2" NCoef="0" IVar="-1" Cut="0.0000000000000000e+00" cType="1" res="1.7439512303099036e-03" rms="4.9458307027816772e-01" purity="5.3624367713928223e-01" nType="-99"/>
          <Node pos="r" depth="2" NCoef="0" IVar="-1" Cut="0.0000000000000000e+00" cType="1" res="-5.8932924730470404e-05" rms="4.9001583456993103e-01" purity="5.3600412607192993e-01" nType="-99"/>
        </Node>
      </Node>
    </BinaryTree>
    <BinaryTree type="DecisionTree" boostWeight="1.0000000000000000e+00" itree="846">
      <Node pos="s" depth="0" NCoef="0" IVar="0" Cut="8.5443048477172852e+00" cType="1" res="4.8475485527887940e-04" rms="4.8784801363945007e-01" purity="5.0164520740509033e-01" nType="0">
        <Node pos="l" depth="1" NCoef="0" IVar="0" Cut="8.3456020355224609e+00" cType="1" res="-1.3689769431948662e-02" rms="4.9762484431266785e-01" purity="4.9648940563201904e-01" nType="0">
          <Node pos="l" depth="2" NCoef="0" IVar="-1" Cut="0.0000000000000000e+00" cType="1" res="-5.5815369705669582e-05" rms="4.9934348464012146e-01" purity="5.0346422195434570e-01" nType="-99"/>
          <Node pos="r" depth="2" NCoef="0" IVar="-1" Cut="0.0000000000000000e+00" cType="1" res="-3.1748521141707897e-03" rms="4.9495950341224670e-01" purity="4.8771199584007263e-01" nType="-99"/>
        </Node>
        <Node pos="r" depth="1" NCoef="0" IVar="1" Cut="2.0000000000000000e+00" cType="1" res="3.2641633879393339e-03" rms="4.7972807288169861e-01" purity="5.0268441438674927e-01" nType="0">
          <Node pos="l" depth="2" NCoef="0" IVar="-1" Cut="0.0000000000000000e+00" cType="1" res="-1.3338726712390780e-03" rms="4.8802468180656433e-01" purity="4.9094867706298828e-01" nType="-99"/>
          <Node pos="r" depth="2" NCoef="0" IVar="-1" Cut="0.0000000000000000e+00" cType="1" res="1.4763631625100970e-03" rms="4.8478841781616211e-01" purity="5.0762712955474854e-01" nType="-99"/>
        </Node>
      </Node>
    </BinaryTree>
    <BinaryTree type="DecisionTree" boostWeight="1.0000000000000000e+00" itree="847">
      <Node pos="s" depth="0" NCoef="0" IVar="0" Cut="8.9159507751464844e+00" cType="1" res="-5.3100899094715714e-04" rms="4.8830151557922363e-01" purity="5.0007385015487671e-01" nType="0">
        <Node pos="l" depth="1" NCoef="0" IVar="0" Cut="8.7683162689208984e+00" cType="1" res="-9.4313044100999832e-03" rms="4.9423506855964661e-01" purity="4.9303084611892700e-01" nType="0">
          <Node pos="l" depth="2" NCoef="0" IVar="-1" Cut="0.0000000000000000e+00" cType="1" res="-1.5708372229710221e-03" rms="4.9452510476112366e-01" purity="4.8952308297157288e-01" nType="-99"/>
          <Node pos="r" depth="2" NCoef="0" IVar="-1" Cut="0.0000000000000000e+00" cType="1" res="4.7655045636929572e-04" rms="4.9323126673698425e-01" purity="5.0241953134536743e-01" nType="-99"/>
        </Node>
        <Node pos="r" depth="1" NCoef="0" IVar="3" Cut="-8.9657336473464966e-01" cType="1" res="4.9809506163001060e-03" rms="4.8450845479965210e-01" purity="5.0443559885025024e-01" nType="0">
          <Node pos="l" depth="2" NCoef="0" IVar="-1" Cut="0.0000000000000000e+00" cType="1" res="-3.9910647319629788e-04" rms="4.6234250068664551e-01" purity="3.3595305681228638e-01" nType="-99"/>
          <Node pos="r" depth="2" NCoef="0" IVar="-1" Cut="0.0000000000000000e+00" cType="1" res="1.3021479826420546e-03" rms="4.8957827687263489e-01" purity="5.4418557882308960e-01" nType="-99"/>
        </Node>
      </Node>
    </BinaryTree>
    <BinaryTree type="DecisionTree" boostWeight="1.0000000000000000e+00" itree="848">
      <Node pos="s" depth="0" NCoef="0" IVar="0" Cut="8.3494062423706055e+00" cType="1" res="-5.6766142370179296e-04" rms="4.8765546083450317e-01" purity="4.9921724200248718e-01" nType="0">
        <Node pos="l" depth="1" NCoef="0" IVar="3" Cut="-7.0115649700164795e-01" cType="1" res="2.1572550758719444e-02" rms="4.9573484063148499e-01" purity="5.2418202161788940e-01" nType="0">
          <Node pos="l" depth="2" NCoef="0" IVar="-1" Cut="0.0000000000000000e+00" cType="1" res="2.3948932066559792e-03" rms="4.9729606509208679e-01" purity="4.9146431684494019e-01" nType="-99"/>
          <Node pos="r" depth="2" NCoef="0" IVar="-1" Cut="0.0000000000000000e+00" cType="1" res="1.9162724493071437e-03" rms="4.9417862296104431e-01" purity="5.5657660961151123e-01" nType="-99"/>
        </Node>
        <Node pos="r" depth="1" NCoef="0" IVar="0" Cut="9.1707792282104492e+00" cType="1" res="-2.9064486734569073e-03" rms="4.8673534393310547e-01" purity="4.9658006429672241e-01" nType="0">
          <Node pos="l" depth="2" NCoef="0" IVar="-1" Cut="0.0000000000000000e+00" cType="1" res="-1.2256335467100143e-03" rms="4.9113401770591736e-01" purity="4.9096301198005676e-01" nType="-99"/>
          <Node pos="r" depth="2" NCoef="0" IVar="-1" Cut="0.0000000000000000e+00" cType="1" res="1.0514790192246437e-03" rms="4.8113718628883362e-01" purity="5.0352525711059570e-01" nType="-99"/>
        </Node>
      </Node>
    </BinaryTree>
    <BinaryTree type="DecisionTree" boostWeight="1.0000000000000000e+00" itree="849">
      <Node pos="s" depth="0" NCoef="0" IVar="1" Cut="4.0000000000000000e+00" cType="1" res="1.6583796823397279e-03" rms="3.4594717621803284e-01" purity="5.0187224149703979e-01" nType="0">
        <Node pos="l" depth="1" NCoef="0" IVar="0" Cut="8.1812849044799805e+00" cType="1" res="4.1209566406905651e-03" rms="4.8826274275779724e-01" purity="5.0274699926376343e-01" nType="0">
          <Node pos="l" depth="2" NCoef="0" IVar="-1" Cut="0.0000000000000000e+00" cType="1" res="2.8419990558177233e-03" rms="5.0031989812850952e-01" purity="5.1684337854385376e-01" nType="-99"/>
          <Node pos="r" depth="2" NCoef="0" IVar="-1" Cut="0.0000000000000000e+00" cType="1" res="4.2926732567138970e-04" rms="4.8751017451286316e-01" purity="5.0192809104919434e-01" nType="-99"/>
        </Node>
        <Node pos="r" depth="1" NCoef="0" IVar="2" Cut="2.0000000000000000e+00" cType="1" res="-4.2455741204321384e-03" rms="1.3641549646854401e-01" purity="4.9652487039566040e-01" nType="0">
          <Node pos="l" depth="2" NCoef="0" IVar="-1" Cut="0.0000000000000000e+00" cType="1" res="-3.7295403890311718e-03" rms="4.8520138859748840e-01" purity="4.9238881468772888e-01" nType="-99"/>
          <Node pos="r" depth="2" NCoef="0" IVar="-1" Cut="0.0000000000000000e+00" cType="1" res="1.5709149884060025e-03" rms="4.9563246965408325e-01" purity="5.0444310903549194e-01" nType="-99"/>
        </Node>
      </Node>
    </BinaryTree>
    <BinaryTree type="DecisionTree" boostWeight="1.0000000000000000e+00" itree="850">
      <Node pos="s" depth="0" NCoef="0" IVar="1" Cut="4.0000000000000000e+00" cType="1" res="7.2331196861341596e-04" rms="2.5354516506195068e-01" purity="4.9834707379341125e-01" nType="0">
        <Node pos="l" depth="1" NCoef="0" IVar="0" Cut="8.4704437255859375e+00" cType="1" res="9.5103686908259988e-04" rms="4.8783671855926514e-01" purity="5.0030660629272461e-01" nType="0">
          <Node pos="l" depth="2" NCoef="0" IVar="-1" Cut="0.0000000000000000e+00" cType="1" res="1.5995578141883016e-03" rms="4.9675837159156799e-01" purity="5.2215367555618286e-01" nType="-99"/>
          <Node pos="r" depth="2" NCoef="0" IVar="-1" Cut="0.0000000000000000e+00" cType="1" res="-2.3633585078641772e-04" rms="4.8635509610176086e-01" purity="4.9681419134140015e-01" nType="-99"/>
        </Node>
        <Node pos="r" depth="1" NCoef="0" IVar="5" Cut="7.8137248754501343e-01" cType="1" res="-2.1773960441350937e-02" rms="4.8660248517990112e-01" purity="4.8606985807418823e-01" nType="0">
          <Node pos="l" depth="2" NCoef="0" IVar="-1" Cut="0.0000000000000000e+00" cType="1" res="-2.5596132036298513e-03" rms="4.8653450608253479e-01" purity="4.8664087057113647e-01" nType="-99"/>
          <Node pos="r" depth="2" NCoef="0" IVar="-1" Cut="0.0000000000000000e+00" cType="1" res="-7.1527059189975262e-03" rms="4.8623403906822205e-01" purity="4.8406144976615906e-01" nType="-99"/>
        </Node>
      </Node>
    </BinaryTree>
    <BinaryTree type="DecisionTree" boostWeight="1.0000000000000000e+00" itree="851">
      <Node pos="s" depth="0" NCoef="0" IVar="5" Cut="4.9233440309762955e-02" cType="1" res="2.7584298513829708e-03" rms="4.8811990022659302e-01" purity="5.0300222635269165e-01" nType="0">
        <Node pos="l" depth="1" NCoef="0" IVar="1" Cut="3.0000000000000000e+00" cType="1" res="2.5028723757714033e-03" rms="2.1730604767799377e-01" purity="5.0356411933898926e-01" nType="0">
          <Node pos="l" depth="2" NCoef="0" IVar="-1" Cut="0.0000000000000000e+00" cType="1" res="3.3598733716644347e-04" rms="4.8832756280899048e-01" purity="5.0056833028793335e-01" nType="-99"/>
          <Node pos="r" depth="2" NCoef="0" IVar="-1" Cut="0.0000000000000000e+00" cType="1" res="1.7921911785379052e-03" rms="4.8873400688171387e-01" purity="5.1129299402236938e-01" nType="-99"/>
        </Node>
        <Node pos="r" depth="1" NCoef="0" IVar="4" Cut="-6.9990980625152588e-01" cType="1" res="-1.0449078865349293e-02" rms="4.8555257916450500e-01" purity="4.9909114837646484e-01" nType="0">
          <Node pos="l" depth="2" NCoef="0" IVar="-1" Cut="0.0000000000000000e+00" cType="1" res="5.7012381148524582e-05" rms="4.8455661535263062e-01" purity="4.8775964975357056e-01" nType="-99"/>
          <Node pos="r" depth="2" NCoef="0" IVar="-1" Cut="0.0000000000000000e+00" cType="1" res="-3.6669345572590828e-03" rms="4.8636844754219055e-01" purity="5.1153814792633057e-01" nType="-99"/>
        </Node>
      </Node>
    </BinaryTree>
    <BinaryTree type="DecisionTree" boostWeight="1.0000000000000000e+00" itree="852">
      <Node pos="s" depth="0" NCoef="0" IVar="0" Cut="9.2262859344482422e+00" cType="1" res="2.8070106636732817e-03" rms="4.8845773935317993e-01" purity="5.0362807512283325e-01" nType="0">
        <Node pos="l" depth="1" NCoef="0" IVar="3" Cut="-7.0725023746490479e-01" cType="1" res="7.1889590471982956e-03" rms="4.9224457144737244e-01" purity="5.0903725624084473e-01" nType="0">
          <Node pos="l" depth="2" NCoef="0" IVar="-1" Cut="0.0000000000000000e+00" cType="1" res="2.0557332318276167e-03" rms="4.9298882484436035e-01" purity="4.5747047662734985e-01" nType="-99"/>
          <Node pos="r" depth="2" NCoef="0" IVar="-1" Cut="0.0000000000000000e+00" cType="1" res="-1.1203772737644613e-04" rms="4.9138072133064270e-01" purity="5.5965572595596313e-01" nType="-99"/>
        </Node>
        <Node pos="r" depth="1" NCoef="0" IVar="0" Cut="9.4261913299560547e+00" cType="1" res="-5.0106225535273552e-03" rms="4.8152884840965271e-01" purity="4.9397787451744080e-01" nType="0">
          <Node pos="l" depth="2" NCoef="0" IVar="-1" Cut="0.0000000000000000e+00" cType="1" res="-2.8241050895303488e-03" rms="4.8670729994773865e-01" purity="4.8965176939964294e-01" nType="-99"/>
          <Node pos="r" depth="2" NCoef="0" IVar="-1" Cut="0.0000000000000000e+00" cType="1" res="1.9364347099326551e-04" rms="4.7786930203437805e-01" purity="4.9693730473518372e-01" nType="-99"/>
        </Node>
      </Node>
    </BinaryTree>
    <BinaryTree type="DecisionTree" boostWeight="1.0000000000000000e+00" itree="853">
      <Node pos="s" depth="0" NCoef="0" IVar="0" Cut="8.2049665451049805e+00" cType="1" res="-1.3845596695318818e-03" rms="4.8856896162033081e-01" purity="4.9952825903892517e-01" nType="0">
        <Node pos="l" depth="1" NCoef="0" IVar="-1" Cut="0.0000000000000000e+00" cType="1" res="-2.5344030000269413e-03" rms="4.9709695577621460e-01" purity="4.7152239084243774e-01" nType="-99"/>
        <Node pos="r" depth="1" NCoef="0" IVar="1" Cut="4.0000000000000000e+00" cType="1" res="6.4489257056266069e-04" rms="4.6976789832115173e-01" purity="5.0127261877059937e-01" nType="0">
          <Node pos="l" depth="2" NCoef="0" IVar="-1" Cut="0.0000000000000000e+00" cType="1" res="3.6587644717656076e-04" rms="4.8813319206237793e-01" purity="5.0230491161346436e-01" nType="-99"/>
          <Node pos="r" depth="2" NCoef="0" IVar="-1" Cut="0.0000000000000000e+00" cType="1" res="-2.0083910785615444e-03" rms="4.8695796728134155e-01" purity="4.9510973691940308e-01" nType="-99"/>
        </Node>
      </Node>
    </BinaryTree>
    <BinaryTree type="DecisionTree" boostWeight="1.0000000000000000e+00" itree="854">
      <Node pos="s" depth="0" NCoef="0" IVar="0" Cut="8.4957084655761719e+00" cType="1" res="2.5025799404829741e-03" rms="4.8790648579597473e-01" purity="5.0248223543167114e-01" nType="0">
        <Node pos="l" depth="1" NCoef="0" IVar="1" Cut="3.0000000000000000e+00" cType="1" res="-4.7527172137051821e-04" rms="4.0456883609294891e-02" purity="5.2955949306488037e-01" nType="0">
          <Node pos="l" depth="2" NCoef="0" IVar="-1" Cut="0.0000000000000000e+00" cType="1" res="3.2445683609694242e-03" rms="4.9590009450912476e-01" purity="5.4304724931716919e-01" nType="-99"/>
          <Node pos="r" depth="2" NCoef="0" IVar="-1" Cut="0.0000000000000000e+00" cType="1" res="-2.8731219936162233e-04" rms="4.9593591690063477e-01" purity="5.0370448827743530e-01" nType="-99"/>
        </Node>
        <Node pos="r" depth="1" NCoef="0" IVar="4" Cut="-7.0275670289993286e-01" cType="1" res="-5.1957211690023541e-04" rms="4.8643389344215393e-01" purity="4.9793198704719543e-01" nType="0">
          <Node pos="l" depth="2" NCoef="0" IVar="-1" Cut="0.0000000000000000e+00" cType="1" res="-1.2708668364211917e-03" rms="4.8398414254188538e-01" purity="4.6846389770507812e-01" nType="-99"/>
          <Node pos="r" depth="2" NCoef="0" IVar="-1" Cut="0.0000000000000000e+00" cType="1" res="3.3949449425563216e-04" rms="4.8733732104301453e-01" purity="5.0910788774490356e-01" nType="-99"/>
        </Node>
      </Node>
    </BinaryTree>
    <BinaryTree type="DecisionTree" boostWeight="1.0000000000000000e+00" itree="855">
      <Node pos="s" depth="0" NCoef="0" IVar="3" Cut="-8.9630496501922607e-01" cType="1" res="-4.9405880272388458e-03" rms="4.8875075578689575e-01" purity="4.9681070446968079e-01" nType="0">
        <Node pos="l" depth="1" NCoef="0" IVar="4" Cut="7.9594278335571289e-01" cType="1" res="7.5905318371951580e-03" rms="4.6990969777107239e-01" purity="3.6002391576766968e-01" nType="0">
          <Node pos="l" depth="2" NCoef="0" IVar="-1" Cut="0.0000000000000000e+00" cType="1" res="-7.8414310701191425e-04" rms="4.5930993556976318e-01" purity="3.1870150566101074e-01" nType="-99"/>
          <Node pos="r" depth="2" NCoef="0" IVar="-1" Cut="0.0000000000000000e+00" cType="1" res="5.3613325580954552e-03" rms="4.8989138007164001e-01" purity="4.4400671124458313e-01" nType="-99"/>
        </Node>
        <Node pos="r" depth="1" NCoef="0" IVar="0" Cut="8.3375482559204102e+00" cType="1" res="-7.4822679162025452e-03" rms="4.9244546890258789e-01" purity="5.2455514669418335e-01" nType="0">
          <Node pos="l" depth="2" NCoef="0" IVar="-1" Cut="0.0000000000000000e+00" cType="1" res="-2.4973535910248756e-03" rms="4.9537903070449829e-01" purity="4.8935902118682861e-01" nType="-99"/>
          <Node pos="r" depth="2" NCoef="0" IVar="-1" Cut="0.0000000000000000e+00" cType="1" res="-9.2570506967604160e-04" rms="4.9209758639335632e-01" purity="5.2827787399291992e-01" nType="-99"/>
        </Node>
      </Node>
    </BinaryTree>
    <BinaryTree type="DecisionTree" boostWeight="1.0000000000000000e+00" itree="856">
      <Node pos="s" depth="0" NCoef="0" IVar="4" Cut="7.9865038394927979e-01" cType="1" res="-3.9860433898866177e-03" rms="4.8824617266654968e-01" purity="4.9589729309082031e-01" nType="0">
        <Node pos="l" depth="1" NCoef="0" IVar="0" Cut="8.2049665451049805e+00" cType="1" res="-6.7132497206330299e-03" rms="4.8948276042938232e-01" purity="4.8759022355079651e-01" nType="0">
          <Node pos="l" depth="2" NCoef="0" IVar="-1" Cut="0.0000000000000000e+00" cType="1" res="-2.6371646672487259e-03" rms="4.9681195616722107e-01" purity="4.6634721755981445e-01" nType="-99"/>
          <Node pos="r" depth="2" NCoef="0" IVar="-1" Cut="0.0000000000000000e+00" cType="1" res="-8.8289898121729493e-04" rms="4.8897600173950195e-01" purity="4.8896113038063049e-01" nType="-99"/>
        </Node>
        <Node pos="r" depth="1" NCoef="0" IVar="3" Cut="-8.9534908533096313e-01" cType="1" res="1.1582291685044765e-02" rms="4.8083019256591797e-01" purity="5.4331845045089722e-01" nType="0">
          <Node pos="l" depth="2" NCoef="0" IVar="-1" Cut="0.0000000000000000e+00" cType="1" res="3.8276487030088902e-03" rms="4.8542627692222595e-01" purity="4.3618404865264893e-01" nType="-99"/>
          <Node pos="r" depth="2" NCoef="0" IVar="-1" Cut="0.0000000000000000e+00" cType="1" res="8.7993667693808675e-04" rms="4.7800669074058533e-01" purity="6.0590201616287231e-01" nType="-99"/>
        </Node>
      </Node>
    </BinaryTree>
    <BinaryTree type="DecisionTree" boostWeight="1.0000000000000000e+00" itree="857">
      <Node pos="s" depth="0" NCoef="0" IVar="4" Cut="4.6732999384403229e-02" cType="1" res="-1.2004433665424585e-03" rms="4.8883625864982605e-01" purity="4.9853634834289551e-01" nType="0">
        <Node pos="l" depth="1" NCoef="0" IVar="4" Cut="-7.0483708381652832e-01" cType="1" res="1.6281503485515714e-03" rms="4.8898869752883911e-01" purity="4.9236071109771729e-01" nType="0">
          <Node pos="l" depth="2" NCoef="0" IVar="-1" Cut="0.0000000000000000e+00" cType="1" res="-7.3865329613909125e-04" rms="4.8586121201515198e-01" purity="4.7101283073425293e-01" nType="-99"/>
          <Node pos="r" depth="2" NCoef="0" IVar="-1" Cut="0.0000000000000000e+00" cType="1" res="8.4097968647256494e-04" rms="4.9086132645606995e-01" purity="5.0547450780868530e-01" nType="-99"/>
        </Node>
        <Node pos="r" depth="1" NCoef="0" IVar="0" Cut="8.5850124359130859e+00" cType="1" res="-8.3764623850584030e-03" rms="4.8837572336196899e-01" purity="5.1420360803604126e-01" nType="0">
          <Node pos="l" depth="2" NCoef="0" IVar="-1" Cut="0.0000000000000000e+00" cType="1" res="-2.4886685423552990e-03" rms="4.9598690867424011e-01" purity="5.0856274366378784e-01" nType="-99"/>
          <Node pos="r" depth="2" NCoef="0" IVar="-1" Cut="0.0000000000000000e+00" cType="1" res="-9.8134833388030529e-04" rms="4.8676058650016785e-01" purity="5.1534634828567505e-01" nType="-99"/>
        </Node>
      </Node>
    </BinaryTree>
    <BinaryTree type="DecisionTree" boostWeight="1.0000000000000000e+00" itree="858">
      <Node pos="s" depth="0" NCoef="0" IVar="5" Cut="-6.9304913282394409e-01" cType="1" res="3.8793713320046663e-03" rms="4.8807460069656372e-01" purity="5.0334924459457397e-01" nType="0">
        <Node pos="l" depth="1" NCoef="0" IVar="4" Cut="-6.9826143980026245e-01" cType="1" res="1.7023181542754173e-02" rms="4.8772922158241272e-01" purity="5.1309555768966675e-01" nType="0">
          <Node pos="l" depth="2" NCoef="0" IVar="-1" Cut="0.0000000000000000e+00" cType="1" res="5.7729911059141159e-03" rms="4.8908868432044983e-01" purity="4.9736571311950684e-01" nType="-99"/>
          <Node pos="r" depth="2" NCoef="0" IVar="-1" Cut="0.0000000000000000e+00" cType="1" res="8.9222361566498876e-05" rms="4.8594245314598083e-01" purity="5.2678799629211426e-01" nType="-99"/>
        </Node>
        <Node pos="r" depth="1" NCoef="0" IVar="4" Cut="-7.0184028148651123e-01" cType="1" res="2.0115186925977468e-03" rms="4.8809492588043213e-01" purity="5.0196421146392822e-01" nType="0">
          <Node pos="l" depth="2" NCoef="0" IVar="-1" Cut="0.0000000000000000e+00" cType="1" res="-1.6751647926867008e-03" rms="4.8519402742385864e-01" purity="4.6723634004592896e-01" nType="-99"/>
          <Node pos="r" depth="2" NCoef="0" IVar="-1" Cut="0.0000000000000000e+00" cType="1" res="9.4658776652067900e-04" rms="4.8896646499633789e-01" purity="5.1323586702346802e-01" nType="-99"/>
        </Node>
      </Node>
    </BinaryTree>
    <BinaryTree type="DecisionTree" boostWeight="1.0000000000000000e+00" itree="859">
      <Node pos="s" depth="0" NCoef="0" IVar="2" Cut="2.0000000000000000e+00" cType="1" res="-5.9656793018803000e-04" rms="3.5085786134004593e-02" purity="4.9987021088600159e-01" nType="0">
        <Node pos="l" depth="1" NCoef="0" IVar="1" Cut="4.0000000000000000e+00" cType="1" res="-1.4966715825721622e-03" rms="1.7226001620292664e-01" purity="4.9312764406204224e-01" nType="0">
          <Node pos="l" depth="2" NCoef="0" IVar="-1" Cut="0.0000000000000000e+00" cType="1" res="-1.5154782449826598e-03" rms="4.8776113986968994e-01" purity="4.8804011940956116e-01" nType="-99"/>
          <Node pos="r" depth="2" NCoef="0" IVar="-1" Cut="0.0000000000000000e+00" cType="1" res="1.6473259311169386e-03" rms="4.8372504115104675e-01" purity="5.1984560489654541e-01" nType="-99"/>
        </Node>
        <Node pos="r" depth="1" NCoef="0" IVar="4" Cut="7.9351252317428589e-01" cType="1" res="8.9392177760601044e-03" rms="4.9024039506912231e-01" purity="5.0895297527313232e-01" nType="0">
          <Node pos="l" depth="2" NCoef="0" IVar="-1" Cut="0.0000000000000000e+00" cType="1" res="2.1272497251629829e-03" rms="4.9135699868202209e-01" purity="5.0746577978134155e-01" nType="-99"/>
          <Node pos="r" depth="2" NCoef="0" IVar="-1" Cut="0.0000000000000000e+00" cType="1" res="-3.0183391645550728e-03" rms="4.8188924789428711e-01" purity="5.1891750097274780e-01" nType="-99"/>
        </Node>
      </Node>
    </BinaryTree>
    <BinaryTree type="DecisionTree" boostWeight="1.0000000000000000e+00" itree="860">
      <Node pos="s" depth="0" NCoef="0" IVar="2" Cut="2.0000000000000000e+00" cType="1" res="2.8448697412386537e-04" rms="9.0202741324901581e-02" purity="4.9947690963745117e-01" nType="0">
        <Node pos="l" depth="1" NCoef="0" IVar="0" Cut="8.8469829559326172e+00" cType="1" res="3.2812694553285837e-03" rms="4.8736256361007690e-01" purity="5.0292873382568359e-01" nType="0">
          <Node pos="l" depth="2" NCoef="0" IVar="-1" Cut="0.0000000000000000e+00" cType="1" res="1.2705018743872643e-03" rms="4.9269670248031616e-01" purity="5.1932424306869507e-01" nType="-99"/>
          <Node pos="r" depth="2" NCoef="0" IVar="-1" Cut="0.0000000000000000e+00" cType="1" res="-1.6434633289463818e-04" rms="4.8464989662170410e-01" purity="4.9482294917106628e-01" nType="-99"/>
        </Node>
        <Node pos="r" depth="1" NCoef="0" IVar="3" Cut="8.9042264223098755e-01" cType="1" res="-7.3927934281527996e-03" rms="4.9013081192970276e-01" purity="4.9482342600822449e-01" nType="0">
          <Node pos="l" depth="2" NCoef="0" IVar="-1" Cut="0.0000000000000000e+00" cType="1" res="-1.7256180290132761e-03" rms="4.9309167265892029e-01" purity="4.6820127964019775e-01" nType="-99"/>
          <Node pos="r" depth="2" NCoef="0" IVar="-1" Cut="0.0000000000000000e+00" cType="1" res="1.8356860382482409e-03" rms="4.7266513109207153e-01" purity="6.4523208141326904e-01" nType="-99"/>
        </Node>
      </Node>
    </BinaryTree>
    <BinaryTree type="DecisionTree" boostWeight="1.0000000000000000e+00" itree="861">
      <Node pos="s" depth="0" NCoef="0" IVar="3" Cut="-8.0122965574264526e-01" cType="1" res="2.8377049602568150e-03" rms="4.8729810118675232e-01" purity="5.0285410881042480e-01" nType="0">
        <Node pos="l" depth="1" NCoef="0" IVar="0" Cut="9.0323886871337891e+00" cType="1" res="-6.0298461467027664e-03" rms="4.8382350802421570e-01" purity="4.0182319283485413e-01" nType="0">
          <Node pos="l" depth="2" NCoef="0" IVar="-1" Cut="0.0000000000000000e+00" cType="1" res="-1.9041382474824786e-03" rms="4.8900666832923889e-01" purity="4.1599106788635254e-01" nType="-99"/>
          <Node pos="r" depth="2" NCoef="0" IVar="-1" Cut="0.0000000000000000e+00" cType="1" res="4.5250868424773216e-04" rms="4.7915515303611755e-01" purity="3.8957944512367249e-01" nType="-99"/>
        </Node>
        <Node pos="r" depth="1" NCoef="0" IVar="1" Cut="2.0000000000000000e+00" cType="1" res="3.7859943695366383e-03" rms="3.0757009983062744e-01" purity="5.6260067224502563e-01" nType="0">
          <Node pos="l" depth="2" NCoef="0" IVar="-1" Cut="0.0000000000000000e+00" cType="1" res="3.7168352864682674e-03" rms="4.8989355564117432e-01" purity="5.7121038436889648e-01" nType="-99"/>
          <Node pos="r" depth="2" NCoef="0" IVar="-1" Cut="0.0000000000000000e+00" cType="1" res="1.4607243065256625e-04" rms="4.8881354928016663e-01" purity="5.5873805284500122e-01" nType="-99"/>
        </Node>
      </Node>
    </BinaryTree>
    <BinaryTree type="DecisionTree" boostWeight="1.0000000000000000e+00" itree="862">
      <Node pos="s" depth="0" NCoef="0" IVar="1" Cut="2.0000000000000000e+00" cType="1" res="-1.0115038603544235e-03" rms="2.6383045315742493e-01" purity="4.9982103705406189e-01" nType="0">
        <Node pos="l" depth="1" NCoef="0" IVar="3" Cut="8.9637517929077148e-01" cType="1" res="1.4505728147923946e-02" rms="4.8768684267997742e-01" purity="5.1534157991409302e-01" nType="0">
          <Node pos="l" depth="2" NCoef="0" IVar="-1" Cut="0.0000000000000000e+00" cType="1" res="1.5373984351754189e-03" rms="4.9263098835945129e-01" purity="4.8837548494338989e-01" nType="-99"/>
          <Node pos="r" depth="2" NCoef="0" IVar="-1" Cut="0.0000000000000000e+00" cType="1" res="7.9120453447103500e-03" rms="4.5113667845726013e-01" purity="7.0067828893661499e-01" nType="-99"/>
        </Node>
        <Node pos="r" depth="1" NCoef="0" IVar="3" Cut="-8.0215638875961304e-01" cType="1" res="-6.8986951373517513e-03" rms="4.8843586444854736e-01" purity="4.9344119429588318e-01" nType="0">
          <Node pos="l" depth="2" NCoef="0" IVar="-1" Cut="0.0000000000000000e+00" cType="1" res="7.2540232213214040e-04" rms="4.8483195900917053e-01" purity="4.1418340802192688e-01" nType="-99"/>
          <Node pos="r" depth="2" NCoef="0" IVar="-1" Cut="0.0000000000000000e+00" cType="1" res="-2.1714842878282070e-03" rms="4.9053633213043213e-01" purity="5.4278558492660522e-01" nType="-99"/>
        </Node>
      </Node>
    </BinaryTree>
    <BinaryTree type="DecisionTree" boostWeight="1.0000000000000000e+00" itree="863">
      <Node pos="s" depth="0" NCoef="0" IVar="4" Cut="-7.0171338319778442e-01" cType="1" res="1.7429171130061150e-03" rms="4.8781067132949829e-01" purity="5.0194758176803589e-01" nType="0">
        <Node pos="l" depth="1" NCoef="0" IVar="0" Cut="8.5988817214965820e+00" cType="1" res="-9.2908637598156929e-03" rms="4.8468899726867676e-01" purity="4.6579688787460327e-01" nType="0">
          <Node pos="l" depth="2" NCoef="0" IVar="-1" Cut="0.0000000000000000e+00" cType="1" res="6.7974155535921454e-04" rms="4.9226540327072144e-01" purity="4.8596739768981934e-01" nType="-99"/>
          <Node pos="r" depth="2" NCoef="0" IVar="-1" Cut="0.0000000000000000e+00" cType="1" res="-2.4234734009951353e-03" rms="4.8282235860824585e-01" purity="4.6107321977615356e-01" nType="-99"/>
        </Node>
        <Node pos="r" depth="1" NCoef="0" IVar="1" Cut="4.0000000000000000e+00" cType="1" res="9.1412145411595702e-04" rms="2.4883489310741425e-01" purity="5.1570123434066772e-01" nType="0">
          <Node pos="l" depth="2" NCoef="0" IVar="-1" Cut="0.0000000000000000e+00" cType="1" res="5.5676000192761421e-04" rms="4.8906475305557251e-01" purity="5.1101464033126831e-01" nType="-99"/>
          <Node pos="r" depth="2" NCoef="0" IVar="-1" Cut="0.0000000000000000e+00" cType="1" res="3.6773141473531723e-03" rms="4.8764586448669434e-01" purity="5.4832494258880615e-01" nType="-99"/>
        </Node>
      </Node>
    </BinaryTree>
    <BinaryTree type="DecisionTree" boostWeight="1.0000000000000000e+00" itree="864">
      <Node pos="s" depth="0" NCoef="0" IVar="3" Cut="8.0102550983428955e-01" cType="1" res="-2.1877732069697231e-04" rms="4.8736909031867981e-01" purity="4.9944341182708740e-01" nType="0">
        <Node pos="l" depth="1" NCoef="0" IVar="4" Cut="4.8711817711591721e-02" cType="1" res="-5.0977193750441074e-03" rms="4.9003040790557861e-01" purity="4.3920981884002686e-01" nType="0">
          <Node pos="l" depth="2" NCoef="0" IVar="-1" Cut="0.0000000000000000e+00" cType="1" res="-1.3083147350698709e-03" rms="4.8929566144943237e-01" purity="4.3259623646736145e-01" nType="-99"/>
          <Node pos="r" depth="2" NCoef="0" IVar="-1" Cut="0.0000000000000000e+00" cType="1" res="6.5668142633512616e-04" rms="4.9187600612640381e-01" purity="4.5694118738174438e-01" nType="-99"/>
        </Node>
        <Node pos="r" depth="1" NCoef="0" IVar="3" Cut="8.1902694702148438e-01" cType="1" res="7.8229447826743126e-03" rms="4.8284298181533813e-01" purity="5.9872353076934814e-01" nType="0">
          <Node pos="l" depth="2" NCoef="0" IVar="-1" Cut="0.0000000000000000e+00" cType="1" res="-3.9799292571842670e-03" rms="4.9810409545898438e-01" purity="5.0706380605697632e-01" nType="-99"/>
          <Node pos="r" depth="2" NCoef="0" IVar="-1" Cut="0.0000000000000000e+00" cType="1" res="1.8584427889436483e-03" rms="4.8124474287033081e-01" purity="6.0743045806884766e-01" nType="-99"/>
        </Node>
      </Node>
    </BinaryTree>
    <BinaryTree type="DecisionTree" boostWeight="1.0000000000000000e+00" itree="865">
      <Node pos="s" depth="0" NCoef="0" IVar="4" Cut="-7.0202898979187012e-01" cType="1" res="1.0571542661637068e-03" rms="4.8906716704368591e-01" purity="5.0065755844116211e-01" nType="0">
        <Node pos="l" depth="1" NCoef="0" IVar="3" Cut="8.0235266685485840e-01" cType="1" res="1.0580537840723991e-02" rms="4.8701965808868408e-01" purity="4.8297357559204102e-01" nType="0">
          <Node pos="l" depth="2" NCoef="0" IVar="-1" Cut="0.0000000000000000e+00" cType="1" res="2.9545540455728769e-03" rms="4.8296561837196350e-01" purity="4.0727680921554565e-01" nType="-99"/>
          <Node pos="r" depth="2" NCoef="0" IVar="-1" Cut="0.0000000000000000e+00" cType="1" res="3.7983778747729957e-04" rms="4.9099770188331604e-01" purity="5.6041693687438965e-01" nType="-99"/>
        </Node>
        <Node pos="r" depth="1" NCoef="0" IVar="3" Cut="-8.9507538080215454e-01" cType="1" res="-2.5472340639680624e-03" rms="4.8979154229164124e-01" purity="5.0735056400299072e-01" nType="0">
          <Node pos="l" depth="2" NCoef="0" IVar="-1" Cut="0.0000000000000000e+00" cType="1" res="1.7656410345807672e-03" rms="4.7774291038513184e-01" purity="3.8533487915992737e-01" nType="-99"/>
          <Node pos="r" depth="2" NCoef="0" IVar="-1" Cut="0.0000000000000000e+00" cType="1" res="-7.9428835306316614e-04" rms="4.9212926626205444e-01" purity="5.3178477287292480e-01" nType="-99"/>
        </Node>
      </Node>
    </BinaryTree>
    <BinaryTree type="DecisionTree" boostWeight="1.0000000000000000e+00" itree="866">
      <Node pos="s" depth="0" NCoef="0" IVar="4" Cut="8.8979154825210571e-01" cType="1" res="3.1346203759312630e-03" rms="4.8802810907363892e-01" purity="5.0361347198486328e-01" nType="0">
        <Node pos="l" depth="1" NCoef="0" IVar="0" Cut="8.1335945129394531e+00" cType="1" res="2.0210631191730499e-03" rms="4.8862090706825256e-01" purity="5.0064402818679810e-01" nType="0">
          <Node pos="l" depth="2" NCoef="0" IVar="-1" Cut="0.0000000000000000e+00" cType="1" res="-1.5993843553587794e-03" rms="4.9867022037506104e-01" purity="4.7828596830368042e-01" nType="-99"/>
          <Node pos="r" depth="2" NCoef="0" IVar="-1" Cut="0.0000000000000000e+00" cType="1" res="4.7543717664666474e-04" rms="4.8810353875160217e-01" purity="5.0174188613891602e-01" nType="-99"/>
        </Node>
        <Node pos="r" depth="1" NCoef="0" IVar="-1" Cut="0.0000000000000000e+00" cType="1" res="5.8356826193630695e-03" rms="4.7254747152328491e-01" purity="5.7595390081405640e-01" nType="-99"/>
      </Node>
    </BinaryTree>
    <BinaryTree type="DecisionTree" boostWeight="1.0000000000000000e+00" itree="867">
      <Node pos="s" depth="0" NCoef="0" IVar="0" Cut="8.2049665451049805e+00" cType="1" res="-1.6036417800933123e-03" rms="4.8816758394241333e-01" purity="4.9917939305305481e-01" nType="0">
        <Node pos="l" depth="1" NCoef="0" IVar="-1" Cut="0.0000000000000000e+00" cType="1" res="3.3518029376864433e-03" rms="5.0070059299468994e-01" purity="5.2882164716720581e-01" nType="-99"/>
        <Node pos="r" depth="1" NCoef="0" IVar="5" Cut="4.4631116092205048e-02" cType="1" res="-3.7178322672843933e-03" rms="4.8732748627662659e-01" purity="4.9740907549858093e-01" nType="0">
          <Node pos="l" depth="2" NCoef="0" IVar="-1" Cut="0.0000000000000000e+00" cType="1" res="-2.4876772658899426e-04" rms="4.8786464333534241e-01" purity="4.9900636076927185e-01" nType="-99"/>
          <Node pos="r" depth="2" NCoef="0" IVar="-1" Cut="0.0000000000000000e+00" cType="1" res="-3.2124740537256002e-03" rms="4.8332083225250244e-01" purity="4.8637002706527710e-01" nType="-99"/>
        </Node>
      </Node>
    </BinaryTree>
    <BinaryTree type="DecisionTree" boostWeight="1.0000000000000000e+00" itree="868">
      <Node pos="s" depth="0" NCoef="0" IVar="0" Cut="9.9786434173583984e+00" cType="1" res="-2.5813521351665258e-03" rms="4.8766914010047913e-01" purity="4.9751266837120056e-01" nType="0">
        <Node pos="l" depth="1" NCoef="0" IVar="0" Cut="9.3944931030273438e+00" cType="1" res="-3.0298703350126743e-03" rms="4.8823782801628113e-01" purity="4.9762815237045288e-01" nType="0">
          <Node pos="l" depth="2" NCoef="0" IVar="-1" Cut="0.0000000000000000e+00" cType="1" res="-2.0406923431437463e-04" rms="4.9071311950683594e-01" purity="5.0016874074935913e-01" nType="-99"/>
          <Node pos="r" depth="2" NCoef="0" IVar="-1" Cut="0.0000000000000000e+00" cType="1" res="-2.1773481275886297e-03" rms="4.7913131117820740e-01" purity="4.8843529820442200e-01" nType="-99"/>
        </Node>
        <Node pos="r" depth="1" NCoef="0" IVar="-1" Cut="0.0000000000000000e+00" cType="1" res="4.8308107070624828e-03" rms="4.6589291095733643e-01" purity="4.9324905872344971e-01" nType="-99"/>
      </Node>
    </BinaryTree>
    <BinaryTree type="DecisionTree" boostWeight="1.0000000000000000e+00" itree="869">
      <Node pos="s" depth="0" NCoef="0" IVar="5" Cut="7.9002600908279419e-01" cType="1" res="-1.7142863944172859e-03" rms="4.8833632469177246e-01" purity="4.9885997176170349e-01" nType="0">
        <Node pos="l" depth="1" NCoef="0" IVar="5" Cut="3.6464273929595947e-02" cType="1" res="-2.7256137691438198e-03" rms="4.8889306187629700e-01" purity="4.9701496958732605e-01" nType="0">
          <Node pos="l" depth="2" NCoef="0" IVar="-1" Cut="0.0000000000000000e+00" cType="1" res="-1.7192728410009295e-04" rms="4.8898765444755554e-01" purity="4.9870562553405762e-01" nType="-99"/>
          <Node pos="r" depth="2" NCoef="0" IVar="-1" Cut="0.0000000000000000e+00" cType="1" res="-3.4132383298128843e-03" rms="4.8732376098632812e-01" purity="4.7673803567886353e-01" nType="-99"/>
        </Node>
        <Node pos="r" depth="1" NCoef="0" IVar="5" Cut="8.3414089679718018e-01" cType="1" res="1.5709174796938896e-02" rms="4.7830760478973389e-01" purity="5.3064662218093872e-01" nType="0">
          <Node pos="l" depth="2" NCoef="0" IVar="-1" Cut="0.0000000000000000e+00" cType="1" res="5.7576219551265240e-03" rms="4.8803111910820007e-01" purity="5.4789465665817261e-01" nType="-99"/>
          <Node pos="r" depth="2" NCoef="0" IVar="-1" Cut="0.0000000000000000e+00" cType="1" res="-7.7380536822602153e-04" rms="4.6720606088638306e-01" purity="5.1286154985427856e-01" nType="-99"/>
        </Node>
      </Node>
    </BinaryTree>
    <BinaryTree type="DecisionTree" boostWeight="1.0000000000000000e+00" itree="870">
      <Node pos="s" depth="0" NCoef="0" IVar="0" Cut="8.7015762329101562e+00" cType="1" res="-3.1418085563927889e-04" rms="4.8856106400489807e-01" purity="4.9989569187164307e-01" nType="0">
        <Node pos="l" depth="1" NCoef="0" IVar="3" Cut="-6.9807481765747070e-01" cType="1" res="-7.5343991629779339e-03" rms="4.9524250626564026e-01" purity="4.9844673275947571e-01" nType="0">
          <Node pos="l" depth="2" NCoef="0" IVar="-1" Cut="0.0000000000000000e+00" cType="1" res="3.3093887032009661e-04" rms="4.9531164765357971e-01" purity="4.6561369299888611e-01" nType="-99"/>
          <Node pos="r" depth="2" NCoef="0" IVar="-1" Cut="0.0000000000000000e+00" cType="1" res="-1.9253888167440891e-03" rms="4.9495682120323181e-01" purity="5.3026032447814941e-01" nType="-99"/>
        </Node>
        <Node pos="r" depth="1" NCoef="0" IVar="1" Cut="2.0000000000000000e+00" cType="1" res="2.0297437440603971e-03" rms="4.7814252972602844e-01" purity="5.0035631656646729e-01" nType="0">
          <Node pos="l" depth="2" NCoef="0" IVar="-1" Cut="0.0000000000000000e+00" cType="1" res="-1.2333007762208581e-03" rms="4.8880222439765930e-01" purity="4.9222949147224426e-01" nType="-99"/>
          <Node pos="r" depth="2" NCoef="0" IVar="-1" Cut="0.0000000000000000e+00" cType="1" res="1.0597663931548595e-03" rms="4.8536020517349243e-01" purity="5.0368243455886841e-01" nType="-99"/>
        </Node>
      </Node>
    </BinaryTree>
    <BinaryTree type="DecisionTree" boostWeight="1.0000000000000000e+00" itree="871">
      <Node pos="s" depth="0" NCoef="0" IVar="4" Cut="7.9852789640426636e-01" cType="1" res="5.9388596564531326e-03" rms="4.8775151371955872e-01" purity="5.0571519136428833e-01" nType="0">
        <Node pos="l" depth="1" NCoef="0" IVar="4" Cut="-8.1527197360992432e-01" cType="1" res="8.5788052529096603e-03" rms="4.8883944749832153e-01" purity="5.0241965055465698e-01" nType="0">
          <Node pos="l" depth="2" NCoef="0" IVar="-1" Cut="0.0000000000000000e+00" cType="1" res="-9.9595414940267801e-04" rms="4.7880113124847412e-01" purity="4.6252000331878662e-01" nType="-99"/>
          <Node pos="r" depth="2" NCoef="0" IVar="-1" Cut="0.0000000000000000e+00" cType="1" res="1.7079863464459777e-03" rms="4.9052307009696960e-01" purity="5.0936365127563477e-01" nType="-99"/>
        </Node>
        <Node pos="r" depth="1" NCoef="0" IVar="4" Cut="8.1646007299423218e-01" cType="1" res="-8.9540593326091766e-03" rms="4.8129674792289734e-01" purity="5.2430677413940430e-01" nType="0">
          <Node pos="l" depth="2" NCoef="0" IVar="-1" Cut="0.0000000000000000e+00" cType="1" res="-6.0930615290999413e-03" rms="4.9006026983261108e-01" purity="4.8832124471664429e-01" nType="-99"/>
          <Node pos="r" depth="2" NCoef="0" IVar="-1" Cut="0.0000000000000000e+00" cType="1" res="-5.0848117098212242e-04" rms="4.7922381758689880e-01" purity="5.3183865547180176e-01" nType="-99"/>
        </Node>
      </Node>
    </BinaryTree>
    <BinaryTree type="DecisionTree" boostWeight="1.0000000000000000e+00" itree="872">
      <Node pos="s" depth="0" NCoef="0" IVar="2" Cut="3.0000000000000000e+00" cType="1" res="-4.3992282007820904e-04" rms="1.0048451274633408e-01" purity="5.0131475925445557e-01" nType="0">
        <Node pos="l" depth="1" NCoef="0" IVar="0" Cut="8.5724048614501953e+00" cType="1" res="1.3780847657471895e-03" rms="4.8786982893943787e-01" purity="5.0263154506683350e-01" nType="0">
          <Node pos="l" depth="2" NCoef="0" IVar="-1" Cut="0.0000000000000000e+00" cType="1" res="9.0168113820254803e-04" rms="4.9686455726623535e-01" purity="5.1639640331268311e-01" nType="-99"/>
          <Node pos="r" depth="2" NCoef="0" IVar="-1" Cut="0.0000000000000000e+00" cType="1" res="-4.7740966692799702e-05" rms="4.8586317896842957e-01" purity="4.9961847066879272e-01" nType="-99"/>
        </Node>
        <Node pos="r" depth="1" NCoef="0" IVar="0" Cut="8.9038820266723633e+00" cType="1" res="-1.4936880208551884e-02" rms="4.9376234412193298e-01" purity="4.9078515172004700e-01" nType="0">
          <Node pos="l" depth="2" NCoef="0" IVar="-1" Cut="0.0000000000000000e+00" cType="1" res="-4.5289476402103901e-03" rms="4.9347898364067078e-01" purity="4.8331901431083679e-01" nType="-99"/>
          <Node pos="r" depth="2" NCoef="0" IVar="-1" Cut="0.0000000000000000e+00" cType="1" res="-5.5095739662647247e-04" rms="4.9354332685470581e-01" purity="4.9574872851371765e-01" nType="-99"/>
        </Node>
      </Node>
    </BinaryTree>
    <BinaryTree type="DecisionTree" boostWeight="1.0000000000000000e+00" itree="873">
      <Node pos="s" depth="0" NCoef="0" IVar="4" Cut="8.8915640115737915e-01" cType="1" res="9.1798038920387626e-04" rms="4.8859784007072449e-01" purity="5.0172096490859985e-01" nType="0">
        <Node pos="l" depth="1" NCoef="0" IVar="0" Cut="8.9637928009033203e+00" cType="1" res="1.7411417793482542e-03" rms="4.8898109793663025e-01" purity="5.0061190128326416e-01" nType="0">
          <Node pos="l" depth="2" NCoef="0" IVar="-1" Cut="0.0000000000000000e+00" cType="1" res="7.1292318170890212e-04" rms="4.9331763386726379e-01" purity="5.0667119026184082e-01" nType="-99"/>
          <Node pos="r" depth="2" NCoef="0" IVar="-1" Cut="0.0000000000000000e+00" cType="1" res="-3.2554258359596133e-04" rms="4.8557993769645691e-01" purity="4.9593278765678406e-01" nType="-99"/>
        </Node>
        <Node pos="r" depth="1" NCoef="0" IVar="-1" Cut="0.0000000000000000e+00" cType="1" res="-3.7047294899821281e-03" rms="4.7894454002380371e-01" purity="5.2817887067794800e-01" nType="-99"/>
      </Node>
    </BinaryTree>
    <BinaryTree type="DecisionTree" boostWeight="1.0000000000000000e+00" itree="874">
      <Node pos="s" depth="0" NCoef="0" IVar="4" Cut="-7.0490694046020508e-01" cType="1" res="-3.1989018898457289e-03" rms="4.8804602026939392e-01" purity="4.9748006463050842e-01" nType="0">
        <Node pos="l" depth="1" NCoef="0" IVar="0" Cut="8.8050317764282227e+00" cType="1" res="-9.9943997338414192e-03" rms="4.8489478230476379e-01" purity="4.6721091866493225e-01" nType="0">
          <Node pos="l" depth="2" NCoef="0" IVar="-1" Cut="0.0000000000000000e+00" cType="1" res="-2.9478021897375584e-03" rms="4.9153241515159607e-01" purity="4.5401617884635925e-01" nType="-99"/>
          <Node pos="r" depth="2" NCoef="0" IVar="-1" Cut="0.0000000000000000e+00" cType="1" res="-5.7673640549182892e-04" rms="4.8187342286109924e-01" purity="4.7281354665756226e-01" nType="-99"/>
        </Node>
        <Node pos="r" depth="1" NCoef="0" IVar="2" Cut="2.0000000000000000e+00" cType="1" res="-3.1100373598746955e-04" rms="1.5317451953887939e-01" purity="5.0883060693740845e-01" nType="0">
          <Node pos="l" depth="2" NCoef="0" IVar="-1" Cut="0.0000000000000000e+00" cType="1" res="-1.1907350271940231e-03" rms="4.8638769984245300e-01" purity="5.0002771615982056e-01" nType="-99"/>
          <Node pos="r" depth="2" NCoef="0" IVar="-1" Cut="0.0000000000000000e+00" cType="1" res="1.3399620074778795e-03" rms="4.9255165457725525e-01" purity="5.1985245943069458e-01" nType="-99"/>
        </Node>
      </Node>
    </BinaryTree>
    <BinaryTree type="DecisionTree" boostWeight="1.0000000000000000e+00" itree="875">
      <Node pos="s" depth="0" NCoef="0" IVar="1" Cut="2.0000000000000000e+00" cType="1" res="-3.2558576203882694e-03" rms="2.0398738980293274e-01" purity="4.9210107326507568e-01" nType="0">
        <Node pos="l" depth="1" NCoef="0" IVar="0" Cut="9.2582006454467773e+00" cType="1" res="-1.9031086936593056e-02" rms="4.8949030041694641e-01" purity="4.8294994235038757e-01" nType="0">
          <Node pos="l" depth="2" NCoef="0" IVar="-1" Cut="0.0000000000000000e+00" cType="1" res="-3.5034462343901396e-03" rms="4.9347639083862305e-01" purity="4.7988757491111755e-01" nType="-99"/>
          <Node pos="r" depth="2" NCoef="0" IVar="-1" Cut="0.0000000000000000e+00" cType="1" res="-1.0013906285166740e-03" rms="4.8125877976417542e-01" purity="4.8894149065017700e-01" nType="-99"/>
        </Node>
        <Node pos="r" depth="1" NCoef="0" IVar="4" Cut="7.9446637630462646e-01" cType="1" res="-3.3067248295992613e-03" rms="4.8765918612480164e-01" purity="4.9587151408195496e-01" nType="0">
          <Node pos="l" depth="2" NCoef="0" IVar="-1" Cut="0.0000000000000000e+00" cType="1" res="-9.7516109235584736e-04" rms="4.8932290077209473e-01" purity="4.8498892784118652e-01" nType="-99"/>
          <Node pos="r" depth="2" NCoef="0" IVar="-1" Cut="0.0000000000000000e+00" cType="1" res="1.4431179733946919e-03" rms="4.8038434982299805e-01" purity="5.4186987876892090e-01" nType="-99"/>
        </Node>
      </Node>
    </BinaryTree>
    <BinaryTree type="DecisionTree" boostWeight="1.0000000000000000e+00" itree="876">
      <Node pos="s" depth="0" NCoef="0" IVar="5" Cut="7.9122388362884521e-01" cType="1" res="-1.3372001703828573e-03" rms="4.8830696940422058e-01" purity="4.9903705716133118e-01" nType="0">
        <Node pos="l" depth="1" NCoef="0" IVar="1" Cut="4.0000000000000000e+00" cType="1" res="-6.8713660584762692e-04" rms="3.3486324548721313e-01" purity="4.9692705273628235e-01" nType="0">
          <Node pos="l" depth="2" NCoef="0" IVar="-1" Cut="0.0000000000000000e+00" cType="1" res="-1.6428063099738210e-04" rms="4.8864296078681946e-01" purity="4.9778205156326294e-01" nType="-99"/>
          <Node pos="r" depth="2" NCoef="0" IVar="-1" Cut="0.0000000000000000e+00" cType="1" res="-2.2203356493264437e-03" rms="4.9080187082290649e-01" purity="4.9044200778007507e-01" nType="-99"/>
        </Node>
        <Node pos="r" depth="1" NCoef="0" IVar="3" Cut="-7.0467144250869751e-01" cType="1" res="1.9329790025949478e-02" rms="4.7708836197853088e-01" purity="5.3608876466751099e-01" nType="0">
          <Node pos="l" depth="2" NCoef="0" IVar="-1" Cut="0.0000000000000000e+00" cType="1" res="9.3147682491689920e-04" rms="4.8706316947937012e-01" purity="4.2685809731483459e-01" nType="-99"/>
          <Node pos="r" depth="2" NCoef="0" IVar="-1" Cut="0.0000000000000000e+00" cType="1" res="6.1527304351329803e-03" rms="4.6539956331253052e-01" purity="6.5634381771087646e-01" nType="-99"/>
        </Node>
      </Node>
    </BinaryTree>
    <BinaryTree type="DecisionTree" boostWeight="1.0000000000000000e+00" itree="877">
      <Node pos="s" depth="0" NCoef="0" IVar="0" Cut="8.9594116210937500e+00" cType="1" res="-3.5981743130832911e-03" rms="4.8815658688545227e-01" purity="4.9491715431213379e-01" nType="0">
        <Node pos="l" depth="1" NCoef="0" IVar="0" Cut="8.8619117736816406e+00" cType="1" res="2.2020100150257349e-03" rms="4.9284255504608154e-01" purity="5.0400114059448242e-01" nType="0">
          <Node pos="l" depth="2" NCoef="0" IVar="-1" Cut="0.0000000000000000e+00" cType="1" res="6.3111400231719017e-04" rms="4.9385377764701843e-01" purity="5.0879836082458496e-01" nType="-99"/>
          <Node pos="r" depth="2" NCoef="0" IVar="-1" Cut="0.0000000000000000e+00" cType="1" res="-1.7870683223009109e-03" rms="4.8804759979248047e-01" purity="4.8265677690505981e-01" nType="-99"/>
        </Node>
        <Node pos="r" depth="1" NCoef="0" IVar="4" Cut="-8.9281696081161499e-01" cType="1" res="-7.7820708975195885e-03" rms="4.8470523953437805e-01" purity="4.8836454749107361e-01" nType="0">
          <Node pos="l" depth="2" NCoef="0" IVar="-1" Cut="0.0000000000000000e+00" cType="1" res="-1.1257074773311615e-02" rms="4.6792712807655334e-01" purity="4.0772488713264465e-01" nType="-99"/>
          <Node pos="r" depth="2" NCoef="0" IVar="-1" Cut="0.0000000000000000e+00" cType="1" res="-1.2349282624199986e-03" rms="4.8539152741432190e-01" purity="4.9210596084594727e-01" nType="-99"/>
        </Node>
      </Node>
    </BinaryTree>
    <BinaryTree type="DecisionTree" boostWeight="1.0000000000000000e+00" itree="878">
      <Node pos="s" depth="0" NCoef="0" IVar="0" Cut="8.8072624206542969e+00" cType="1" res="1.5200388152152300e-03" rms="4.8839908838272095e-01" purity="5.0112015008926392e-01" nType="0">
        <Node pos="l" depth="1" NCoef="0" IVar="4" Cut="4.4422250241041183e-02" cType="1" res="8.9613180607557297e-03" rms="4.9478685855865479e-01" purity="5.1345592737197876e-01" nType="0">
          <Node pos="l" depth="2" NCoef="0" IVar="-1" Cut="0.0000000000000000e+00" cType="1" res="1.5258964849635959e-03" rms="4.9458265304565430e-01" purity="5.0880891084671021e-01" nType="-99"/>
          <Node pos="r" depth="2" NCoef="0" IVar="-1" Cut="0.0000000000000000e+00" cType="1" res="-4.2212932021357119e-04" rms="4.9512487649917603e-01" purity="5.2624773979187012e-01" nType="-99"/>
        </Node>
        <Node pos="r" depth="1" NCoef="0" IVar="0" Cut="9.6684465408325195e+00" cType="1" res="-1.6316559631377459e-03" rms="4.8563390970230103e-01" purity="4.9589538574218750e-01" nType="0">
          <Node pos="l" depth="2" NCoef="0" IVar="-1" Cut="0.0000000000000000e+00" cType="1" res="-6.1183457728475332e-04" rms="4.8750925064086914e-01" purity="4.9534288048744202e-01" nType="-99"/>
          <Node pos="r" depth="2" NCoef="0" IVar="-1" Cut="0.0000000000000000e+00" cType="1" res="2.6968950405716896e-03" rms="4.7344127297401428e-01" purity="4.9939477443695068e-01" nType="-99"/>
        </Node>
      </Node>
    </BinaryTree>
    <BinaryTree type="DecisionTree" boostWeight="1.0000000000000000e+00" itree="879">
      <Node pos="s" depth="0" NCoef="0" IVar="4" Cut="8.9240539073944092e-01" cType="1" res="-1.1348824482411146e-03" rms="4.8859545588493347e-01" purity="4.9909257888793945e-01" nType="0">
        <Node pos="l" depth="1" NCoef="0" IVar="4" Cut="8.0299353599548340e-01" cType="1" res="-7.7943172072991729e-05" rms="4.8903441429138184e-01" purity="4.9821570515632629e-01" nType="0">
          <Node pos="l" depth="2" NCoef="0" IVar="-1" Cut="0.0000000000000000e+00" cType="1" res="-2.9015849577262998e-04" rms="4.8935657739639282e-01" purity="4.9227228760719299e-01" nType="-99"/>
          <Node pos="r" depth="2" NCoef="0" IVar="-1" Cut="0.0000000000000000e+00" cType="1" res="2.2425041534006596e-03" rms="4.8635014891624451e-01" purity="5.4366630315780640e-01" nType="-99"/>
        </Node>
        <Node pos="r" depth="1" NCoef="0" IVar="-1" Cut="0.0000000000000000e+00" cType="1" res="-5.7945051230490208e-03" rms="4.7563627362251282e-01" purity="5.2288472652435303e-01" nType="-99"/>
      </Node>
    </BinaryTree>
    <BinaryTree type="DecisionTree" boostWeight="1.0000000000000000e+00" itree="880">
      <Node pos="s" depth="0" NCoef="0" IVar="3" Cut="8.9659291505813599e-01" cType="1" res="-1.5709394356235862e-03" rms="4.8867860436439514e-01" purity="4.9789521098136902e-01" nType="0">
        <Node pos="l" depth="1" NCoef="0" IVar="4" Cut="7.9645693302154541e-01" cType="1" res="7.7247526496648788e-04" rms="4.9167084693908691e-01" purity="4.6961063146591187e-01" nType="0">
          <Node pos="l" depth="2" NCoef="0" IVar="-1" Cut="0.0000000000000000e+00" cType="1" res="-2.9312257538549602e-04" rms="4.9198928475379944e-01" purity="4.6572723984718323e-01" nType="-99"/>
          <Node pos="r" depth="2" NCoef="0" IVar="-1" Cut="0.0000000000000000e+00" cType="1" res="2.9608523473143578e-03" rms="4.8931038379669189e-01" purity="4.9415200948715210e-01" nType="-99"/>
        </Node>
        <Node pos="r" depth="1" NCoef="0" IVar="3" Cut="9.2804896831512451e-01" cType="1" res="-1.2495533563196659e-02" rms="4.7432753443717957e-01" purity="6.2975299358367920e-01" nType="0">
          <Node pos="l" depth="2" NCoef="0" IVar="-1" Cut="0.0000000000000000e+00" cType="1" res="-4.0898374281823635e-03" rms="4.9037748575210571e-01" purity="5.7232397794723511e-01" nType="-99"/>
          <Node pos="r" depth="2" NCoef="0" IVar="-1" Cut="0.0000000000000000e+00" cType="1" res="-7.0476933615282178e-04" rms="4.6131882071495056e-01" purity="6.7421388626098633e-01" nType="-99"/>
        </Node>
      </Node>
    </BinaryTree>
    <BinaryTree type="DecisionTree" boostWeight="1.0000000000000000e+00" itree="881">
      <Node pos="s" depth="0" NCoef="0" IVar="4" Cut="-8.9296233654022217e-01" cType="1" res="7.6098192948848009e-04" rms="4.8807975649833679e-01" purity="4.9976980686187744e-01" nType="0">
        <Node pos="l" depth="1" NCoef="0" IVar="-1" Cut="0.0000000000000000e+00" cType="1" res="5.5242273956537247e-03" rms="4.7298777103424072e-01" purity="4.8014554381370544e-01" nType="-99"/>
        <Node pos="r" depth="1" NCoef="0" IVar="5" Cut="-7.8408497571945190e-01" cType="1" res="-2.1333231416065246e-04" rms="4.8859557509422302e-01" purity="5.0048780441284180e-01" nType="0">
          <Node pos="l" depth="2" NCoef="0" IVar="-1" Cut="0.0000000000000000e+00" cType="1" res="3.7538700271397829e-03" rms="4.8762661218643188e-01" purity="5.2171099185943604e-01" nType="-99"/>
          <Node pos="r" depth="2" NCoef="0" IVar="-1" Cut="0.0000000000000000e+00" cType="1" res="-2.1678177290596068e-04" rms="4.8861905932426453e-01" purity="4.9937337636947632e-01" nType="-99"/>
        </Node>
      </Node>
    </BinaryTree>
    <BinaryTree type="DecisionTree" boostWeight="1.0000000000000000e+00" itree="882">
      <Node pos="s" depth="0" NCoef="0" IVar="0" Cut="8.1408815383911133e+00" cType="1" res="1.4567610924132168e-04" rms="4.8856636881828308e-01" purity="4.9916353821754456e-01" nType="0">
        <Node pos="l" depth="1" NCoef="0" IVar="-1" Cut="0.0000000000000000e+00" cType="1" res="3.4203126560896635e-03" rms="5.0105124711990356e-01" purity="5.3394126892089844e-01" nType="-99"/>
        <Node pos="r" depth="1" NCoef="0" IVar="0" Cut="8.8790779113769531e+00" cType="1" res="-1.5656746691092849e-03" rms="4.8787501454353333e-01" purity="4.9743765592575073e-01" nType="0">
          <Node pos="l" depth="2" NCoef="0" IVar="-1" Cut="0.0000000000000000e+00" cType="1" res="-9.4617228023707867e-04" rms="4.9418008327484131e-01" purity="4.9697285890579224e-01" nType="-99"/>
          <Node pos="r" depth="2" NCoef="0" IVar="-1" Cut="0.0000000000000000e+00" cType="1" res="3.0076745315454900e-04" rms="4.8480206727981567e-01" purity="4.9765989184379578e-01" nType="-99"/>
        </Node>
      </Node>
    </BinaryTree>
    <BinaryTree type="DecisionTree" boostWeight="1.0000000000000000e+00" itree="883">
      <Node pos="s" depth="0" NCoef="0" IVar="4" Cut="8.9007061719894409e-01" cType="1" res="8.7502744281664491e-04" rms="4.8747065663337708e-01" purity="5.0008505582809448e-01" nType="0">
        <Node pos="l" depth="1" NCoef="0" IVar="4" Cut="-8.9344120025634766e-01" cType="1" res="1.7561344429850578e-03" rms="4.8810970783233643e-01" purity="4.9907171726226807e-01" nType="0">
          <Node pos="l" depth="2" NCoef="0" IVar="-1" Cut="0.0000000000000000e+00" cType="1" res="-2.4681983049958944e-03" rms="4.7005143761634827e-01" purity="4.3654125928878784e-01" nType="-99"/>
          <Node pos="r" depth="2" NCoef="0" IVar="-1" Cut="0.0000000000000000e+00" cType="1" res="3.6806293064728379e-04" rms="4.8879495263099670e-01" purity="5.0152271986007690e-01" nType="-99"/>
        </Node>
        <Node pos="r" depth="1" NCoef="0" IVar="-1" Cut="0.0000000000000000e+00" cType="1" res="-3.7937336601316929e-03" rms="4.7110012173652649e-01" purity="5.2480959892272949e-01" nType="-99"/>
      </Node>
    </BinaryTree>
    <BinaryTree type="DecisionTree" boostWeight="1.0000000000000000e+00" itree="884">
      <Node pos="s" depth="0" NCoef="0" IVar="5" Cut="7.8023201227188110e-01" cType="1" res="5.1303417421877384e-03" rms="4.8766422271728516e-01" purity="5.0466501712799072e-01" nType="0">
        <Node pos="l" depth="1" NCoef="0" IVar="1" Cut="3.0000000000000000e+00" cType="1" res="3.3532199449837208e-03" rms="2.4798242747783661e-01" purity="5.0240600109100342e-01" nType="0">
          <Node pos="l" depth="2" NCoef="0" IVar="-1" Cut="0.0000000000000000e+00" cType="1" res="1.2350776232779026e-03" rms="4.8753559589385986e-01" purity="5.0610220432281494e-01" nType="-99"/>
          <Node pos="r" depth="2" NCoef="0" IVar="-1" Cut="0.0000000000000000e+00" cType="1" res="-8.1580900587141514e-04" rms="4.8846837878227234e-01" purity="4.9447131156921387e-01" nType="-99"/>
        </Node>
        <Node pos="r" depth="1" NCoef="0" IVar="5" Cut="8.1534749269485474e-01" cType="1" res="2.6843823492527008e-02" rms="4.8410588502883911e-01" purity="5.3805470466613770e-01" nType="0">
          <Node pos="l" depth="2" NCoef="0" IVar="-1" Cut="0.0000000000000000e+00" cType="1" res="5.3864554502069950e-03" rms="4.8286944627761841e-01" purity="5.4411518573760986e-01" nType="-99"/>
          <Node pos="r" depth="2" NCoef="0" IVar="-1" Cut="0.0000000000000000e+00" cType="1" res="3.6196974106132984e-03" rms="4.8486825823783875e-01" purity="5.3383493423461914e-01" nType="-99"/>
        </Node>
      </Node>
    </BinaryTree>
    <BinaryTree type="DecisionTree" boostWeight="1.0000000000000000e+00" itree="885">
      <Node pos="s" depth="0" NCoef="0" IVar="4" Cut="4.5951716601848602e-02" cType="1" res="9.0190075570717454e-04" rms="4.8840951919555664e-01" purity="5.0073409080505371e-01" nType="0">
        <Node pos="l" depth="1" NCoef="0" IVar="5" Cut="-7.7209025621414185e-01" cType="1" res="3.9742104709148407e-03" rms="4.8896872997283936e-01" purity="4.9485743045806885e-01" nType="0">
          <Node pos="l" depth="2" NCoef="0" IVar="-1" Cut="0.0000000000000000e+00" cType="1" res="-2.3497287184000015e-03" rms="4.8208132386207581e-01" purity="4.4242650270462036e-01" nType="-99"/>
          <Node pos="r" depth="2" NCoef="0" IVar="-1" Cut="0.0000000000000000e+00" cType="1" res="7.5235724216327071e-04" rms="4.8927658796310425e-01" purity="4.9734622240066528e-01" nType="-99"/>
        </Node>
        <Node pos="r" depth="1" NCoef="0" IVar="4" Cut="7.4497902393341064e-01" cType="1" res="-7.0699369534850121e-03" rms="4.8686516284942627e-01" purity="5.1598244905471802e-01" nType="0">
          <Node pos="l" depth="2" NCoef="0" IVar="-1" Cut="0.0000000000000000e+00" cType="1" res="-3.6580739542841911e-03" rms="4.9198740720748901e-01" purity="4.8472699522972107e-01" nType="-99"/>
          <Node pos="r" depth="2" NCoef="0" IVar="-1" Cut="0.0000000000000000e+00" cType="1" res="-7.0832163328304887e-04" rms="4.8590934276580811e-01" purity="5.2146011590957642e-01" nType="-99"/>
        </Node>
      </Node>
    </BinaryTree>
    <BinaryTree type="DecisionTree" boostWeight="1.0000000000000000e+00" itree="886">
      <Node pos="s" depth="0" NCoef="0" IVar="2" Cut="3.0000000000000000e+00" cType="1" res="-9.8812575743068010e-05" rms="3.3986877650022507e-02" purity="4.9814257025718689e-01" nType="0">
        <Node pos="l" depth="1" NCoef="0" IVar="3" Cut="-8.0192226171493530e-01" cType="1" res="-3.4766099415719509e-03" rms="4.8805195093154907e-01" purity="4.9591353535652161e-01" nType="0">
          <Node pos="l" depth="2" NCoef="0" IVar="-1" Cut="0.0000000000000000e+00" cType="1" res="4.5321925426833332e-04" rms="4.8438140749931335e-01" purity="4.0991416573524475e-01" nType="-99"/>
          <Node pos="r" depth="2" NCoef="0" IVar="-1" Cut="0.0000000000000000e+00" cType="1" res="-1.0983345564454794e-03" rms="4.9020111560821533e-01" purity="5.4747390747070312e-01" nType="-99"/>
        </Node>
        <Node pos="r" depth="1" NCoef="0" IVar="0" Cut="8.8688211441040039e+00" cType="1" res="1.0962952859699726e-02" rms="4.9182310700416565e-01" purity="5.1621884107589722e-01" nType="0">
          <Node pos="l" depth="2" NCoef="0" IVar="-1" Cut="0.0000000000000000e+00" cType="1" res="4.1481973603367805e-03" rms="4.9075317382812500e-01" purity="5.4658496379852295e-01" nType="-99"/>
          <Node pos="r" depth="2" NCoef="0" IVar="-1" Cut="0.0000000000000000e+00" cType="1" res="4.8640300519764423e-05" rms="4.9209326505661011e-01" purity="4.9922347068786621e-01" nType="-99"/>
        </Node>
      </Node>
    </BinaryTree>
    <BinaryTree type="DecisionTree" boostWeight="1.0000000000000000e+00" itree="887">
      <Node pos="s" depth="0" NCoef="0" IVar="3" Cut="8.0260938405990601e-01" cType="1" res="5.0743925385177135e-03" rms="4.8770296573638916e-01" purity="5.0533187389373779e-01" nType="0">
        <Node pos="l" depth="1" NCoef="0" IVar="2" Cut="2.0000000000000000e+00" cType="1" res="4.3935325811617076e-04" rms="9.6561111509799957e-02" purity="4.4467654824256897e-01" nType="0">
          <Node pos="l" depth="2" NCoef="0" IVar="-1" Cut="0.0000000000000000e+00" cType="1" res="6.9730659015476704e-04" rms="4.8994746804237366e-01" purity="4.4244870543479919e-01" nType="-99"/>
          <Node pos="r" depth="2" NCoef="0" IVar="-1" Cut="0.0000000000000000e+00" cType="1" res="-1.1740695917978883e-03" rms="4.9239110946655273e-01" purity="4.4752475619316101e-01" nType="-99"/>
        </Node>
        <Node pos="r" depth="1" NCoef="0" IVar="3" Cut="8.8350212574005127e-01" cType="1" res="1.4241918921470642e-02" rms="4.8198223114013672e-01" purity="6.0535776615142822e-01" nType="0">
          <Node pos="l" depth="2" NCoef="0" IVar="-1" Cut="0.0000000000000000e+00" cType="1" res="7.0735288318246603e-04" rms="4.9621751904487610e-01" purity="5.5024230480194092e-01" nType="-99"/>
          <Node pos="r" depth="2" NCoef="0" IVar="-1" Cut="0.0000000000000000e+00" cType="1" res="4.0017338469624519e-03" rms="4.6967083215713501e-01" purity="6.5116620063781738e-01" nType="-99"/>
        </Node>
      </Node>
    </BinaryTree>
    <BinaryTree type="DecisionTree" boostWeight="1.0000000000000000e+00" itree="888">
      <Node pos="s" depth="0" NCoef="0" IVar="0" Cut="9.0960302352905273e+00" cType="1" res="3.0455160886049271e-03" rms="4.8927611112594604e-01" purity="5.0396895408630371e-01" nType="0">
        <Node pos="l" depth="1" NCoef="0" IVar="3" Cut="-8.9150536060333252e-01" cType="1" res="-2.6067069265991449e-03" rms="4.9388176202774048e-01" purity="5.0041735172271729e-01" nType="0">
          <Node pos="l" depth="2" NCoef="0" IVar="-1" Cut="0.0000000000000000e+00" cType="1" res="2.5502853095531464e-03" rms="4.8560085892677307e-01" purity="3.9946898818016052e-01" nType="-99"/>
          <Node pos="r" depth="2" NCoef="0" IVar="-1" Cut="0.0000000000000000e+00" cType="1" res="-7.8411196591332555e-04" rms="4.9523082375526428e-01" purity="5.1816469430923462e-01" nType="-99"/>
        </Node>
        <Node pos="r" depth="1" NCoef="0" IVar="0" Cut="9.9702358245849609e+00" cType="1" res="9.3880873173475266e-03" rms="4.8397719860076904e-01" purity="5.0795441865921021e-01" nType="0">
          <Node pos="l" depth="2" NCoef="0" IVar="-1" Cut="0.0000000000000000e+00" cType="1" res="1.8079899018630385e-03" rms="4.8468339443206787e-01" purity="5.0792151689529419e-01" nType="-99"/>
          <Node pos="r" depth="2" NCoef="0" IVar="-1" Cut="0.0000000000000000e+00" cType="1" res="1.0492266155779362e-02" rms="4.7098365426063538e-01" purity="5.0853168964385986e-01" nType="-99"/>
        </Node>
      </Node>
    </BinaryTree>
    <BinaryTree type="DecisionTree" boostWeight="1.0000000000000000e+00" itree="889">
      <Node pos="s" depth="0" NCoef="0" IVar="3" Cut="-8.0189293622970581e-01" cType="1" res="-2.3302256595343351e-03" rms="4.8795750737190247e-01" purity="4.9821728467941284e-01" nType="0">
        <Node pos="l" depth="1" NCoef="0" IVar="2" Cut="2.0000000000000000e+00" cType="1" res="-2.2972449660301208e-03" rms="9.9767006933689117e-02" purity="4.0100550651550293e-01" nType="0">
          <Node pos="l" depth="2" NCoef="0" IVar="-1" Cut="0.0000000000000000e+00" cType="1" res="-2.7002214919775724e-03" rms="4.8106160759925842e-01" purity="3.8908097147941589e-01" nType="-99"/>
          <Node pos="r" depth="2" NCoef="0" IVar="-1" Cut="0.0000000000000000e+00" cType="1" res="4.5549421338364482e-04" rms="4.8777252435684204e-01" purity="4.1965332627296448e-01" nType="-99"/>
        </Node>
        <Node pos="r" depth="1" NCoef="0" IVar="3" Cut="-7.1646088361740112e-01" cType="1" res="1.8847421742975712e-03" rms="4.9038645625114441e-01" purity="5.5634802579879761e-01" nType="0">
          <Node pos="l" depth="2" NCoef="0" IVar="-1" Cut="0.0000000000000000e+00" cType="1" res="2.0985240116715431e-03" rms="4.9900853633880615e-01" purity="4.9683603644371033e-01" nType="-99"/>
          <Node pos="r" depth="2" NCoef="0" IVar="-1" Cut="0.0000000000000000e+00" cType="1" res="-1.9277250976301730e-04" rms="4.8819929361343384e-01" purity="5.7094216346740723e-01" nType="-99"/>
        </Node>
      </Node>
    </BinaryTree>
    <BinaryTree type="DecisionTree" boostWeight="1.0000000000000000e+00" itree="890">
      <Node pos="s" depth="0" NCoef="0" IVar="0" Cut="9.8194293975830078e+00" cType="1" res="2.3972601629793644e-03" rms="4.8831883072853088e-01" purity="5.0301754474639893e-01" nType="0">
        <Node pos="l" depth="1" NCoef="0" IVar="1" Cut="3.0000000000000000e+00" cType="1" res="-2.9133236967027187e-04" rms="1.5478906035423279e-01" purity="5.0456190109252930e-01" nType="0">
          <Node pos="l" depth="2" NCoef="0" IVar="-1" Cut="0.0000000000000000e+00" cType="1" res="1.0067354014609009e-04" rms="4.8952051997184753e-01" purity="5.0107491016387939e-01" nType="-99"/>
          <Node pos="r" depth="2" NCoef="0" IVar="-1" Cut="0.0000000000000000e+00" cType="1" res="1.3004997745156288e-03" rms="4.8814481496810913e-01" purity="5.1098603010177612e-01" nType="-99"/>
        </Node>
        <Node pos="r" depth="1" NCoef="0" IVar="-1" Cut="0.0000000000000000e+00" cType="1" res="-5.0893453881144524e-03" rms="4.7393929958343506e-01" purity="4.7384554147720337e-01" nType="-99"/>
      </Node>
    </BinaryTree>
    <BinaryTree type="DecisionTree" boostWeight="1.0000000000000000e+00" itree="891">
      <Node pos="s" depth="0" NCoef="0" IVar="4" Cut="7.9604053497314453e-01" cType="1" res="3.3817403018474579e-03" rms="4.8889413475990295e-01" purity="5.0341606140136719e-01" nType="0">
        <Node pos="l" depth="1" NCoef="0" IVar="5" Cut="5.5471822619438171e-02" cType="1" res="5.5911452509462833e-03" rms="4.8963668942451477e-01" purity="4.9951896071434021e-01" nType="0">
          <Node pos="l" depth="2" NCoef="0" IVar="-1" Cut="0.0000000000000000e+00" cType="1" res="4.8139545833691955e-04" rms="4.9028411507606506e-01" purity="4.9816977977752686e-01" nType="-99"/>
          <Node pos="r" depth="2" NCoef="0" IVar="-1" Cut="0.0000000000000000e+00" cType="1" res="4.4751297682523727e-03" rms="4.8306435346603394e-01" purity="5.1191091537475586e-01" nType="-99"/>
        </Node>
        <Node pos="r" depth="1" NCoef="0" IVar="5" Cut="-6.9182604551315308e-01" cType="1" res="-8.5722990334033966e-03" rms="4.8468211293220520e-01" purity="5.2450150251388550e-01" nType="0">
          <Node pos="l" depth="2" NCoef="0" IVar="-1" Cut="0.0000000000000000e+00" cType="1" res="-4.1557317599654198e-03" rms="4.8554953932762146e-01" purity="5.0141876935958862e-01" nType="-99"/>
          <Node pos="r" depth="2" NCoef="0" IVar="-1" Cut="0.0000000000000000e+00" cType="1" res="-1.3284476881381124e-04" rms="4.8407119512557983e-01" purity="5.3561729192733765e-01" nType="-99"/>
        </Node>
      </Node>
    </BinaryTree>
    <BinaryTree type="DecisionTree" boostWeight="1.0000000000000000e+00" itree="892">
      <Node pos="s" depth="0" NCoef="0" IVar="0" Cut="8.4702129364013672e+00" cType="1" res="1.4499950921162963e-03" rms="4.8786312341690063e-01" purity="5.0332534313201904e-01" nType="0">
        <Node pos="l" depth="1" NCoef="0" IVar="3" Cut="-7.9192322492599487e-01" cType="1" res="-1.6720537096261978e-02" rms="4.9703931808471680e-01" purity="4.9506071209907532e-01" nType="0">
          <Node pos="l" depth="2" NCoef="0" IVar="-1" Cut="0.0000000000000000e+00" cType="1" res="1.2149674585089087e-03" rms="4.9571919441223145e-01" purity="4.7864043712615967e-01" nType="-99"/>
          <Node pos="r" depth="2" NCoef="0" IVar="-1" Cut="0.0000000000000000e+00" cType="1" res="-3.1773853115737438e-03" rms="4.9702844023704529e-01" purity="5.0403577089309692e-01" nType="-99"/>
        </Node>
        <Node pos="r" depth="1" NCoef="0" IVar="4" Cut="7.9645693302154541e-01" cType="1" res="4.3300772085785866e-03" rms="4.8633041977882385e-01" purity="5.0463533401489258e-01" nType="0">
          <Node pos="l" depth="2" NCoef="0" IVar="-1" Cut="0.0000000000000000e+00" cType="1" res="2.2883825295139104e-04" rms="4.8822730779647827e-01" purity="4.9492609500885010e-01" nType="-99"/>
          <Node pos="r" depth="2" NCoef="0" IVar="-1" Cut="0.0000000000000000e+00" cType="1" res="3.7700054235756397e-03" rms="4.7612601518630981e-01" purity="5.5470657348632812e-01" nType="-99"/>
        </Node>
      </Node>
    </BinaryTree>
    <BinaryTree type="DecisionTree" boostWeight="1.0000000000000000e+00" itree="893">
      <Node pos="s" depth="0" NCoef="0" IVar="0" Cut="8.4702129364013672e+00" cType="1" res="-2.3276985157281160e-03" rms="4.8770633339881897e-01" purity="4.9898320436477661e-01" nType="0">
        <Node pos="l" depth="1" NCoef="0" IVar="0" Cut="8.1919708251953125e+00" cType="1" res="-1.9631197676062584e-02" rms="4.9556791782379150e-01" purity="4.8901414871215820e-01" nType="0">
          <Node pos="l" depth="2" NCoef="0" IVar="-1" Cut="0.0000000000000000e+00" cType="1" res="-2.6332861743867397e-03" rms="4.9729201197624207e-01" purity="4.7269093990325928e-01" nType="-99"/>
          <Node pos="r" depth="2" NCoef="0" IVar="-1" Cut="0.0000000000000000e+00" cType="1" res="-1.4844667166471481e-03" rms="4.9430397152900696e-01" purity="5.0038450956344604e-01" nType="-99"/>
        </Node>
        <Node pos="r" depth="1" NCoef="0" IVar="2" Cut="2.0000000000000000e+00" cType="1" res="9.5381890423595905e-04" rms="3.9612090587615967e-01" purity="5.0052970647811890e-01" nType="0">
          <Node pos="l" depth="2" NCoef="0" IVar="-1" Cut="0.0000000000000000e+00" cType="1" res="-9.6221105195581913e-04" rms="4.8418152332305908e-01" purity="4.9276757240295410e-01" nType="-99"/>
          <Node pos="r" depth="2" NCoef="0" IVar="-1" Cut="0.0000000000000000e+00" cType="1" res="1.5404422301799059e-03" rms="4.8930794000625610e-01" purity="5.1100558042526245e-01" nType="-99"/>
        </Node>
      </Node>
    </BinaryTree>
    <BinaryTree type="DecisionTree" boostWeight="1.0000000000000000e+00" itree="894">
      <Node pos="s" depth="0" NCoef="0" IVar="4" Cut="-8.9154207706451416e-01" cType="1" res="2.4887194740585983e-04" rms="4.8837453126907349e-01" purity="5.0104558467864990e-01" nType="0">
        <Node pos="l" depth="1" NCoef="0" IVar="-1" Cut="0.0000000000000000e+00" cType="1" res="-5.3915809839963913e-03" rms="4.7973322868347168e-01" purity="4.2231598496437073e-01" nType="-99"/>
        <Node pos="r" depth="1" NCoef="0" IVar="5" Cut="4.9896527081727982e-02" cType="1" res="1.4005362754687667e-03" rms="4.8867723345756531e-01" purity="5.0415742397308350e-01" nType="0">
          <Node pos="l" depth="2" NCoef="0" IVar="-1" Cut="0.0000000000000000e+00" cType="1" res="4.6396802645176649e-04" rms="4.8915249109268188e-01" purity="5.0442737340927124e-01" nType="-99"/>
          <Node pos="r" depth="2" NCoef="0" IVar="-1" Cut="0.0000000000000000e+00" cType="1" res="-1.6804523766040802e-03" rms="4.8483619093894958e-01" purity="5.0208067893981934e-01" nType="-99"/>
        </Node>
      </Node>
    </BinaryTree>
    <BinaryTree type="DecisionTree" boostWeight="1.0000000000000000e+00" itree="895">
      <Node pos="s" depth="0" NCoef="0" IVar="0" Cut="8.1875743865966797e+00" cType="1" res="1.4442802639678121e-03" rms="4.8799711465835571e-01" purity="5.0175839662551880e-01" nType="0">
        <Node pos="l" depth="1" NCoef="0" IVar="-1" Cut="0.0000000000000000e+00" cType="1" res="-1.7519268440082669e-03" rms="5.0064235925674438e-01" purity="4.7913339734077454e-01" nType="-99"/>
        <Node pos="r" depth="1" NCoef="0" IVar="0" Cut="8.4768505096435547e+00" cType="1" res="2.5663124397397041e-03" rms="4.8723214864730835e-01" purity="5.0306677818298340e-01" nType="0">
          <Node pos="l" depth="2" NCoef="0" IVar="-1" Cut="0.0000000000000000e+00" cType="1" res="2.7675400488078594e-03" rms="4.9620908498764038e-01" purity="5.4025489091873169e-01" nType="-99"/>
          <Node pos="r" depth="2" NCoef="0" IVar="-1" Cut="0.0000000000000000e+00" cType="1" res="4.7714976972201839e-05" rms="4.8629656434059143e-01" purity="4.9948212504386902e-01" nType="-99"/>
        </Node>
      </Node>
    </BinaryTree>
    <BinaryTree type="DecisionTree" boostWeight="1.0000000000000000e+00" itree="896">
      <Node pos="s" depth="0" NCoef="0" IVar="5" Cut="5.4848652333021164e-02" cType="1" res="2.8844771441072226e-04" rms="4.8839986324310303e-01" purity="5.0201839208602905e-01" nType="0">
        <Node pos="l" depth="1" NCoef="0" IVar="4" Cut="8.9001911878585815e-01" cType="1" res="1.7983291763812304e-03" rms="4.8868474364280701e-01" purity="5.0265628099441528e-01" nType="0">
          <Node pos="l" depth="2" NCoef="0" IVar="-1" Cut="0.0000000000000000e+00" cType="1" res="9.7285206720698625e-05" rms="4.8925694823265076e-01" purity="5.0024515390396118e-01" nType="-99"/>
          <Node pos="r" depth="2" NCoef="0" IVar="-1" Cut="0.0000000000000000e+00" cType="1" res="7.7737388201057911e-03" rms="4.6851056814193726e-01" purity="5.7951825857162476e-01" nType="-99"/>
        </Node>
        <Node pos="r" depth="1" NCoef="0" IVar="4" Cut="-7.9574686288833618e-01" cType="1" res="-1.0168142616748810e-02" rms="4.8629382252693176e-01" purity="4.9760076403617859e-01" nType="0">
          <Node pos="l" depth="2" NCoef="0" IVar="-1" Cut="0.0000000000000000e+00" cType="1" res="2.3280919995158911e-03" rms="4.8027634620666504e-01" purity="4.9156257510185242e-01" nType="-99"/>
          <Node pos="r" depth="2" NCoef="0" IVar="-1" Cut="0.0000000000000000e+00" cType="1" res="-4.0366793982684612e-03" rms="4.8962631821632385e-01" purity="5.0162744522094727e-01" nType="-99"/>
        </Node>
      </Node>
    </BinaryTree>
    <BinaryTree type="DecisionTree" boostWeight="1.0000000000000000e+00" itree="897">
      <Node pos="s" depth="0" NCoef="0" IVar="0" Cut="9.2668752670288086e+00" cType="1" res="1.3387453509494662e-03" rms="4.8841002583503723e-01" purity="5.0253129005432129e-01" nType="0">
        <Node pos="l" depth="1" NCoef="0" IVar="0" Cut="8.7738142013549805e+00" cType="1" res="5.8004222810268402e-03" rms="4.9178418517112732e-01" purity="5.0839179754257202e-01" nType="0">
          <Node pos="l" depth="2" NCoef="0" IVar="-1" Cut="0.0000000000000000e+00" cType="1" res="-2.6635956601239741e-04" rms="4.9372336268424988e-01" purity="5.0318318605422974e-01" nType="-99"/>
          <Node pos="r" depth="2" NCoef="0" IVar="-1" Cut="0.0000000000000000e+00" cType="1" res="1.8947863718494773e-03" rms="4.9029496312141418e-01" purity="5.1215082406997681e-01" nType="-99"/>
        </Node>
        <Node pos="r" depth="1" NCoef="0" IVar="1" Cut="3.0000000000000000e+00" cType="1" res="-7.7290427871048450e-03" rms="4.7891953587532043e-01" purity="4.9050012230873108e-01" nType="0">
          <Node pos="l" depth="2" NCoef="0" IVar="-1" Cut="0.0000000000000000e+00" cType="1" res="-3.2806724775582552e-03" rms="4.8059421777725220e-01" purity="4.8241397738456726e-01" nType="-99"/>
          <Node pos="r" depth="2" NCoef="0" IVar="-1" Cut="0.0000000000000000e+00" cType="1" res="7.5370672857388854e-04" rms="4.8239994049072266e-01" purity="5.0595659017562866e-01" nType="-99"/>
        </Node>
      </Node>
    </BinaryTree>
    <BinaryTree type="DecisionTree" boostWeight="1.0000000000000000e+00" itree="898">
      <Node pos="s" depth="0" NCoef="0" IVar="5" Cut="7.9321867227554321e-01" cType="1" res="2.1415476221591234e-03" rms="4.8806387186050415e-01" purity="5.0403583049774170e-01" nType="0">
        <Node pos="l" depth="1" NCoef="0" IVar="1" Cut="4.0000000000000000e+00" cType="1" res="-7.7706173760816455e-04" rms="2.4163407087326050e-01" purity="5.0132578611373901e-01" nType="0">
          <Node pos="l" depth="2" NCoef="0" IVar="-1" Cut="0.0000000000000000e+00" cType="1" res="-1.5459116548299789e-04" rms="4.8820340633392334e-01" purity="4.9937486648559570e-01" nType="-99"/>
          <Node pos="r" depth="2" NCoef="0" IVar="-1" Cut="0.0000000000000000e+00" cType="1" res="1.7542685382068157e-03" rms="4.8957794904708862e-01" purity="5.1546615362167358e-01" nType="-99"/>
        </Node>
        <Node pos="r" depth="1" NCoef="0" IVar="4" Cut="-7.0318752527236938e-01" cType="1" res="2.9652835801243782e-02" rms="4.8163783550262451e-01" purity="5.5062139034271240e-01" nType="0">
          <Node pos="l" depth="2" NCoef="0" IVar="-1" Cut="0.0000000000000000e+00" cType="1" res="-6.9971203629393131e-05" rms="4.8780277371406555e-01" purity="4.8820027709007263e-01" nType="-99"/>
          <Node pos="r" depth="2" NCoef="0" IVar="-1" Cut="0.0000000000000000e+00" cType="1" res="1.0383717715740204e-02" rms="4.7226649522781372e-01" purity="6.2123167514801025e-01" nType="-99"/>
        </Node>
      </Node>
    </BinaryTree>
    <BinaryTree type="DecisionTree" boostWeight="1.0000000000000000e+00" itree="899">
      <Node pos="s" depth="0" NCoef="0" IVar="1" Cut="3.0000000000000000e+00" cType="1" res="1.0044482769444585e-03" rms="2.7095428109169006e-01" purity="5.0312495231628418e-01" nType="0">
        <Node pos="l" depth="1" NCoef="0" IVar="3" Cut="-7.0684790611267090e-01" cType="1" res="6.3442206010222435e-03" rms="4.8856118321418762e-01" purity="5.0585108995437622e-01" nType="0">
          <Node pos="l" depth="2" NCoef="0" IVar="-1" Cut="0.0000000000000000e+00" cType="1" res="2.0229790825396776e-03" rms="4.8877227306365967e-01" purity="4.4043484330177307e-01" nType="-99"/>
          <Node pos="r" depth="2" NCoef="0" IVar="-1" Cut="0.0000000000000000e+00" cType="1" res="-3.5976586332253646e-06" rms="4.8827245831489563e-01" purity="5.6915384531021118e-01" nType="-99"/>
        </Node>
        <Node pos="r" depth="1" NCoef="0" IVar="4" Cut="-8.9015841484069824e-01" cType="1" res="-5.2522602491080761e-03" rms="4.8897063732147217e-01" purity="4.9801996350288391e-01" nType="0">
          <Node pos="l" depth="2" NCoef="0" IVar="-1" Cut="0.0000000000000000e+00" cType="1" res="5.5414498783648014e-03" rms="4.7703453898429871e-01" purity="4.8169767856597900e-01" nType="-99"/>
          <Node pos="r" depth="2" NCoef="0" IVar="-1" Cut="0.0000000000000000e+00" cType="1" res="-1.2588715180754662e-03" rms="4.8979347944259644e-01" purity="4.9930649995803833e-01" nType="-99"/>
        </Node>
      </Node>
    </BinaryTree>
    <BinaryTree type="DecisionTree" boostWeight="1.0000000000000000e+00" itree="900">
      <Node pos="s" depth="0" NCoef="0" IVar="1" Cut="2.0000000000000000e+00" cType="1" res="-7.6202739728614688e-04" rms="3.7990087270736694e-01" purity="5.0207126140594482e-01" nType="0">
        <Node pos="l" depth="1" NCoef="0" IVar="2" Cut="2.0000000000000000e+00" cType="1" res="-2.6023911777883768e-04" rms="1.3949316740036011e-01" purity="5.1220053434371948e-01" nType="0">
          <Node pos="l" depth="2" NCoef="0" IVar="-1" Cut="0.0000000000000000e+00" cType="1" res="2.6485412381589413e-03" rms="4.8763924837112427e-01" purity="5.1522284746170044e-01" nType="-99"/>
          <Node pos="r" depth="2" NCoef="0" IVar="-1" Cut="0.0000000000000000e+00" cType="1" res="-3.6808499135077000e-04" rms="4.9045714735984802e-01" purity="5.0870692729949951e-01" nType="-99"/>
        </Node>
        <Node pos="r" depth="1" NCoef="0" IVar="0" Cut="8.3518857955932617e+00" cType="1" res="-3.2919114455580711e-03" rms="4.8728522658348083e-01" purity="4.9788421392440796e-01" nType="0">
          <Node pos="l" depth="2" NCoef="0" IVar="-1" Cut="0.0000000000000000e+00" cType="1" res="-2.6710997335612774e-03" rms="4.9450767040252686e-01" purity="4.7754511237144470e-01" nType="-99"/>
          <Node pos="r" depth="2" NCoef="0" IVar="-1" Cut="0.0000000000000000e+00" cType="1" res="-1.4265686331782490e-04" rms="4.8643612861633301e-01" purity="5.0007754564285278e-01" nType="-99"/>
        </Node>
      </Node>
    </BinaryTree>
    <BinaryTree type="DecisionTree" boostWeight="1.0000000000000000e+00" itree="901">
      <Node pos="s" depth="0" NCoef="0" IVar="3" Cut="-7.0680397748947144e-01" cType="1" res="-2.3132332134991884e-03" rms="4.8739317059516907e-01" purity="4.9890032410621643e-01" nType="0">
        <Node pos="l" depth="1" NCoef="0" IVar="4" Cut="7.9865038394927979e-01" cType="1" res="-9.0293111279606819e-03" rms="4.8708248138427734e-01" purity="4.2066621780395508e-01" nType="0">
          <Node pos="l" depth="2" NCoef="0" IVar="-1" Cut="0.0000000000000000e+00" cType="1" res="-1.1019174708053470e-03" rms="4.8614257574081421e-01" purity="4.1879627108573914e-01" nType="-99"/>
          <Node pos="r" depth="2" NCoef="0" IVar="-1" Cut="0.0000000000000000e+00" cType="1" res="-3.0080748256295919e-03" rms="4.9145430326461792e-01" purity="4.2964923381805420e-01" nType="-99"/>
        </Node>
        <Node pos="r" depth="1" NCoef="0" IVar="1" Cut="2.0000000000000000e+00" cType="1" res="2.3156867828220129e-03" rms="3.6026325821876526e-01" purity="5.7676392793655396e-01" nType="0">
          <Node pos="l" depth="2" NCoef="0" IVar="-1" Cut="0.0000000000000000e+00" cType="1" res="-9.6245604800060391e-04" rms="4.8957669734954834e-01" purity="5.6465017795562744e-01" nType="-99"/>
          <Node pos="r" depth="2" NCoef="0" IVar="-1" Cut="0.0000000000000000e+00" cType="1" res="1.4021806418895721e-03" rms="4.8673084378242493e-01" purity="5.8176547288894653e-01" nType="-99"/>
        </Node>
      </Node>
    </BinaryTree>
    <BinaryTree type="DecisionTree" boostWeight="1.0000000000000000e+00" itree="902">
      <Node pos="s" depth="0" NCoef="0" IVar="0" Cut="8.1408815383911133e+00" cType="1" res="-4.8970892094075680e-03" rms="4.8810687661170959e-01" purity="4.9713289737701416e-01" nType="0">
        <Node pos="l" depth="1" NCoef="0" IVar="-1" Cut="0.0000000000000000e+00" cType="1" res="-2.0540109835565090e-03" rms="4.9632516503334045e-01" purity="4.7423660755157471e-01" nType="-99"/>
        <Node pos="r" depth="1" NCoef="0" IVar="5" Cut="-7.8430193662643433e-01" cType="1" res="-4.0559535846114159e-03" rms="4.8768892884254456e-01" purity="4.9824383854866028e-01" nType="0">
          <Node pos="l" depth="2" NCoef="0" IVar="-1" Cut="0.0000000000000000e+00" cType="1" res="1.2366151204332709e-03" rms="4.8741176724433899e-01" purity="5.0501263141632080e-01" nType="-99"/>
          <Node pos="r" depth="2" NCoef="0" IVar="-1" Cut="0.0000000000000000e+00" cType="1" res="-7.8154937364161015e-04" rms="4.8769795894622803e-01" purity="4.9781280755996704e-01" nType="-99"/>
        </Node>
      </Node>
    </BinaryTree>
    <BinaryTree type="DecisionTree" boostWeight="1.0000000000000000e+00" itree="903">
      <Node pos="s" depth="0" NCoef="0" IVar="3" Cut="8.0256366729736328e-01" cType="1" res="3.3979548607021570e-03" rms="4.8807066679000854e-01" purity="5.0420200824737549e-01" nType="0">
        <Node pos="l" depth="1" NCoef="0" IVar="4" Cut="7.9645693302154541e-01" cType="1" res="-1.2825037993025035e-04" rms="4.9082541465759277e-01" purity="4.4567301869392395e-01" nType="0">
          <Node pos="l" depth="2" NCoef="0" IVar="-1" Cut="0.0000000000000000e+00" cType="1" res="4.4055853504687548e-04" rms="4.9088037014007568e-01" purity="4.4882994890213013e-01" nType="-99"/>
          <Node pos="r" depth="2" NCoef="0" IVar="-1" Cut="0.0000000000000000e+00" cType="1" res="-2.9877077322453260e-03" rms="4.9008738994598389e-01" purity="4.2628502845764160e-01" nType="-99"/>
        </Node>
        <Node pos="r" depth="1" NCoef="0" IVar="2" Cut="2.0000000000000000e+00" cType="1" res="9.2814979143440723e-04" rms="1.4316828548908234e-01" purity="6.0194128751754761e-01" nType="0">
          <Node pos="l" depth="2" NCoef="0" IVar="-1" Cut="0.0000000000000000e+00" cType="1" res="2.7921837754547596e-03" rms="4.8057401180267334e-01" purity="6.1233639717102051e-01" nType="-99"/>
          <Node pos="r" depth="2" NCoef="0" IVar="-1" Cut="0.0000000000000000e+00" cType="1" res="-4.2872119229286909e-04" rms="4.8738077282905579e-01" purity="5.8612012863159180e-01" nType="-99"/>
        </Node>
      </Node>
    </BinaryTree>
    <BinaryTree type="DecisionTree" boostWeight="1.0000000000000000e+00" itree="904">
      <Node pos="s" depth="0" NCoef="0" IVar="0" Cut="8.2616081237792969e+00" cType="1" res="-4.0713641792535782e-03" rms="4.8721167445182800e-01" purity="4.9697530269622803e-01" nType="0">
        <Node pos="l" depth="1" NCoef="0" IVar="-1" Cut="0.0000000000000000e+00" cType="1" res="-2.9820452909916639e-03" rms="4.9651265144348145e-01" purity="4.6754378080368042e-01" nType="-99"/>
        <Node pos="r" depth="1" NCoef="0" IVar="5" Cut="7.9015862941741943e-01" cType="1" res="-1.9910717383027077e-03" rms="4.8639893531799316e-01" purity="4.9933287501335144e-01" nType="0">
          <Node pos="l" depth="2" NCoef="0" IVar="-1" Cut="0.0000000000000000e+00" cType="1" res="-1.4562410069629550e-04" rms="4.8654976487159729e-01" purity="4.9950832128524780e-01" nType="-99"/>
          <Node pos="r" depth="2" NCoef="0" IVar="-1" Cut="0.0000000000000000e+00" cType="1" res="-3.6163504701107740e-03" rms="4.8349899053573608e-01" purity="4.9641156196594238e-01" nType="-99"/>
        </Node>
      </Node>
    </BinaryTree>
    <BinaryTree type="DecisionTree" boostWeight="1.0000000000000000e+00" itree="905">
      <Node pos="s" depth="0" NCoef="0" IVar="2" Cut="2.0000000000000000e+00" cType="1" res="3.6409579479368404e-05" rms="1.1643111705780029e-01" purity="5.0061935186386108e-01" nType="0">
        <Node pos="l" depth="1" NCoef="0" IVar="4" Cut="-7.9779016971588135e-01" cType="1" res="5.1175714470446110e-03" rms="4.8616638779640198e-01" purity="5.0553596019744873e-01" nType="0">
          <Node pos="l" depth="2" NCoef="0" IVar="-1" Cut="0.0000000000000000e+00" cType="1" res="-1.2864449527114630e-03" rms="4.7948783636093140e-01" purity="4.6612709760665894e-01" nType="-99"/>
          <Node pos="r" depth="2" NCoef="0" IVar="-1" Cut="0.0000000000000000e+00" cType="1" res="1.1859048390761018e-03" rms="4.8751094937324524e-01" purity="5.1379102468490601e-01" nType="-99"/>
        </Node>
        <Node pos="r" depth="1" NCoef="0" IVar="0" Cut="9.6109371185302734e+00" cType="1" res="-8.4856357425451279e-03" rms="4.9050065875053406e-01" purity="4.9391970038414001e-01" nType="0">
          <Node pos="l" depth="2" NCoef="0" IVar="-1" Cut="0.0000000000000000e+00" cType="1" res="-1.0072679724544287e-03" rms="4.9214360117912292e-01" purity="4.9591583013534546e-01" nType="-99"/>
          <Node pos="r" depth="2" NCoef="0" IVar="-1" Cut="0.0000000000000000e+00" cType="1" res="-7.6658646576106548e-03" rms="4.7713741660118103e-01" purity="4.7831532359123230e-01" nType="-99"/>
        </Node>
      </Node>
    </BinaryTree>
    <BinaryTree type="DecisionTree" boostWeight="1.0000000000000000e+00" itree="906">
      <Node pos="s" depth="0" NCoef="0" IVar="4" Cut="-7.9886198043823242e-01" cType="1" res="2.8447402291931212e-04" rms="4.8826944828033447e-01" purity="5.0044643878936768e-01" nType="0">
        <Node pos="l" depth="1" NCoef="0" IVar="3" Cut="8.9402836561203003e-01" cType="1" res="1.2515228241682053e-02" rms="4.8199298977851868e-01" purity="4.7843262553215027e-01" nType="0">
          <Node pos="l" depth="2" NCoef="0" IVar="-1" Cut="0.0000000000000000e+00" cType="1" res="4.0398323908448219e-03" rms="4.8041191697120667e-01" purity="4.1573971509933472e-01" nType="-99"/>
          <Node pos="r" depth="2" NCoef="0" IVar="-1" Cut="0.0000000000000000e+00" cType="1" res="-8.6024071788415313e-04" rms="4.8404234647750854e-01" purity="5.8036202192306519e-01" nType="-99"/>
        </Node>
        <Node pos="r" depth="1" NCoef="0" IVar="0" Cut="9.0077753067016602e+00" cType="1" res="-1.8449116032570601e-03" rms="4.8932269215583801e-01" purity="5.0427907705307007e-01" nType="0">
          <Node pos="l" depth="2" NCoef="0" IVar="-1" Cut="0.0000000000000000e+00" cType="1" res="-8.6480285972356796e-04" rms="4.9356696009635925e-01" purity="5.0070971250534058e-01" nType="-99"/>
          <Node pos="r" depth="2" NCoef="0" IVar="-1" Cut="0.0000000000000000e+00" cType="1" res="5.7088036555796862e-04" rms="4.8556691408157349e-01" purity="5.0737369060516357e-01" nType="-99"/>
        </Node>
      </Node>
    </BinaryTree>
    <BinaryTree type="DecisionTree" boostWeight="1.0000000000000000e+00" itree="907">
      <Node pos="s" depth="0" NCoef="0" IVar="1" Cut="4.0000000000000000e+00" cType="1" res="7.4955244781449437e-04" rms="3.0671253800392151e-01" purity="5.0245559215545654e-01" nType="0">
        <Node pos="l" depth="1" NCoef="0" IVar="5" Cut="-7.8285032510757446e-01" cType="1" res="-2.1835132502019405e-03" rms="4.8886555433273315e-01" purity="4.9838194251060486e-01" nType="0">
          <Node pos="l" depth="2" NCoef="0" IVar="-1" Cut="0.0000000000000000e+00" cType="1" res="-4.5772828161716461e-03" rms="4.8369368910789490e-01" purity="4.6368700265884399e-01" nType="-99"/>
          <Node pos="r" depth="2" NCoef="0" IVar="-1" Cut="0.0000000000000000e+00" cType="1" res="-2.1472861408255994e-04" rms="4.8902389407157898e-01" purity="4.9959471821784973e-01" nType="-99"/>
        </Node>
        <Node pos="r" depth="1" NCoef="0" IVar="0" Cut="9.0269174575805664e+00" cType="1" res="2.0031316205859184e-02" rms="4.8378404974937439e-01" purity="5.2748405933380127e-01" nType="0">
          <Node pos="l" depth="2" NCoef="0" IVar="-1" Cut="0.0000000000000000e+00" cType="1" res="4.3467921204864979e-03" rms="4.8467648029327393e-01" purity="5.4364162683486938e-01" nType="-99"/>
          <Node pos="r" depth="2" NCoef="0" IVar="-1" Cut="0.0000000000000000e+00" cType="1" res="1.2537232832983136e-03" rms="4.8251983523368835e-01" purity="5.1266884803771973e-01" nType="-99"/>
        </Node>
      </Node>
    </BinaryTree>
    <BinaryTree type="DecisionTree" boostWeight="1.0000000000000000e+00" itree="908">
      <Node pos="s" depth="0" NCoef="0" IVar="1" Cut="5.0000000000000000e+00" cType="1" res="-1.5383586287498474e-03" rms="3.3254075050354004e-01" purity="5.0243127346038818e-01" nType="0">
        <Node pos="l" depth="1" NCoef="0" IVar="0" Cut="8.3125705718994141e+00" cType="1" res="3.6844292189925909e-03" rms="4.8756203055381775e-01" purity="5.0285875797271729e-01" nType="0">
          <Node pos="l" depth="2" NCoef="0" IVar="-1" Cut="0.0000000000000000e+00" cType="1" res="-1.1936753289774060e-03" rms="4.9752932786941528e-01" purity="4.8436480760574341e-01" nType="-99"/>
          <Node pos="r" depth="2" NCoef="0" IVar="-1" Cut="0.0000000000000000e+00" cType="1" res="8.7533722398802638e-04" rms="4.8658922314643860e-01" purity="5.0459587574005127e-01" nType="-99"/>
        </Node>
        <Node pos="r" depth="1" NCoef="0" IVar="-1" Cut="0.0000000000000000e+00" cType="1" res="-5.0010946579277515e-03" rms="4.8780095577239990e-01" purity="4.9407181143760681e-01" nType="-99"/>
      </Node>
    </BinaryTree>
    <BinaryTree type="DecisionTree" boostWeight="1.0000000000000000e+00" itree="909">
      <Node pos="s" depth="0" NCoef="0" IVar="0" Cut="8.8072624206542969e+00" cType="1" res="-5.0694746896624565e-03" rms="4.8758435249328613e-01" purity="4.9548211693763733e-01" nType="0">
        <Node pos="l" depth="1" NCoef="0" IVar="3" Cut="7.9727512598037720e-01" cType="1" res="-1.5600347891449928e-02" rms="4.9275040626525879e-01" purity="4.8817253112792969e-01" nType="0">
          <Node pos="l" depth="2" NCoef="0" IVar="-1" Cut="0.0000000000000000e+00" cType="1" res="-2.7687184046953917e-03" rms="4.9376693367958069e-01" purity="4.4480624794960022e-01" nType="-99"/>
          <Node pos="r" depth="2" NCoef="0" IVar="-1" Cut="0.0000000000000000e+00" cType="1" res="2.0240327285137028e-04" rms="4.9040982127189636e-01" purity="5.6757885217666626e-01" nType="-99"/>
        </Node>
        <Node pos="r" depth="1" NCoef="0" IVar="1" Cut="3.0000000000000000e+00" cType="1" res="-1.1955694208154455e-04" rms="4.8205491900444031e-01" purity="4.9871206283569336e-01" nType="0">
          <Node pos="l" depth="2" NCoef="0" IVar="-1" Cut="0.0000000000000000e+00" cType="1" res="8.0254359636455774e-04" rms="4.8524737358093262e-01" purity="5.0169104337692261e-01" nType="-99"/>
          <Node pos="r" depth="2" NCoef="0" IVar="-1" Cut="0.0000000000000000e+00" cType="1" res="-1.7241378081962466e-03" rms="4.8503121733665466e-01" purity="4.9318242073059082e-01" nType="-99"/>
        </Node>
      </Node>
    </BinaryTree>
    <BinaryTree type="DecisionTree" boostWeight="1.0000000000000000e+00" itree="910">
      <Node pos="s" depth="0" NCoef="0" IVar="0" Cut="8.2428741455078125e+00" cType="1" res="-4.4492515735328197e-03" rms="4.8838359117507935e-01" purity="4.9580174684524536e-01" nType="0">
        <Node pos="l" depth="1" NCoef="0" IVar="-1" Cut="0.0000000000000000e+00" cType="1" res="1.5904749743640423e-03" rms="5.0070220232009888e-01" purity="5.0623500347137451e-01" nType="-99"/>
        <Node pos="r" depth="1" NCoef="0" IVar="4" Cut="-8.9015841484069824e-01" cType="1" res="-5.9070042334496975e-03" rms="4.8746296763420105e-01" purity="4.9505990743637085e-01" nType="0">
          <Node pos="l" depth="2" NCoef="0" IVar="-1" Cut="0.0000000000000000e+00" cType="1" res="2.7519734576344490e-03" rms="4.7109732031822205e-01" purity="4.6084272861480713e-01" nType="-99"/>
          <Node pos="r" depth="2" NCoef="0" IVar="-1" Cut="0.0000000000000000e+00" cType="1" res="-1.1147791519761086e-03" rms="4.8809349536895752e-01" purity="4.9643808603286743e-01" nType="-99"/>
        </Node>
      </Node>
    </BinaryTree>
    <BinaryTree type="DecisionTree" boostWeight="1.0000000000000000e+00" itree="911">
      <Node pos="s" depth="0" NCoef="0" IVar="4" Cut="8.9016097784042358e-01" cType="1" res="1.0502691293368116e-04" rms="4.8787555098533630e-01" purity="5.0061959028244019e-01" nType="0">
        <Node pos="l" depth="1" NCoef="0" IVar="5" Cut="-6.9053798913955688e-01" cType="1" res="1.5069727087393403e-03" rms="4.8812082409858704e-01" purity="5.0011295080184937e-01" nType="0">
          <Node pos="l" depth="2" NCoef="0" IVar="-1" Cut="0.0000000000000000e+00" cType="1" res="2.3739216849207878e-03" rms="4.8728922009468079e-01" purity="5.0432002544403076e-01" nType="-99"/>
          <Node pos="r" depth="2" NCoef="0" IVar="-1" Cut="0.0000000000000000e+00" cType="1" res="-2.7336302082403563e-05" rms="4.8820102214813232e-01" purity="4.9957731366157532e-01" nType="-99"/>
        </Node>
        <Node pos="r" depth="1" NCoef="0" IVar="-1" Cut="0.0000000000000000e+00" cType="1" res="-5.9800450690090656e-03" rms="4.8101356625556946e-01" purity="5.1236110925674438e-01" nType="-99"/>
      </Node>
    </BinaryTree>
    <BinaryTree type="DecisionTree" boostWeight="1.0000000000000000e+00" itree="912">
      <Node pos="s" depth="0" NCoef="0" IVar="5" Cut="-6.9119721651077271e-01" cType="1" res="-1.8942796159535646e-03" rms="4.8773902654647827e-01" purity="4.9880480766296387e-01" nType="0">
        <Node pos="l" depth="1" NCoef="0" IVar="5" Cut="-7.5567829608917236e-01" cType="1" res="-1.7201637849211693e-02" rms="4.8582074046134949e-01" purity="4.7795861959457397e-01" nType="0">
          <Node pos="l" depth="2" NCoef="0" IVar="-1" Cut="0.0000000000000000e+00" cType="1" res="-4.4952495954930782e-03" rms="4.8479285836219788e-01" purity="4.6535351872444153e-01" nType="-99"/>
          <Node pos="r" depth="2" NCoef="0" IVar="-1" Cut="0.0000000000000000e+00" cType="1" res="9.0680783614516258e-04" rms="4.8721781373023987e-01" purity="5.0487464666366577e-01" nType="-99"/>
        </Node>
        <Node pos="r" depth="1" NCoef="0" IVar="4" Cut="7.9561090469360352e-01" cType="1" res="2.3978255921974778e-04" rms="4.8796772956848145e-01" purity="5.0171107053756714e-01" nType="0">
          <Node pos="l" depth="2" NCoef="0" IVar="-1" Cut="0.0000000000000000e+00" cType="1" res="-2.0917278015986085e-04" rms="4.8898082971572876e-01" purity="4.9547091126441956e-01" nType="-99"/>
          <Node pos="r" depth="2" NCoef="0" IVar="-1" Cut="0.0000000000000000e+00" cType="1" res="2.1159565076231956e-03" rms="4.8016408085823059e-01" purity="5.4833722114562988e-01" nType="-99"/>
        </Node>
      </Node>
    </BinaryTree>
    <BinaryTree type="DecisionTree" boostWeight="1.0000000000000000e+00" itree="913">
      <Node pos="s" depth="0" NCoef="0" IVar="1" Cut="5.0000000000000000e+00" cType="1" res="-1.5351322945207357e-03" rms="2.4938279390335083e-01" purity="4.9895069003105164e-01" nType="0">
        <Node pos="l" depth="1" NCoef="0" IVar="1" Cut="2.0000000000000000e+00" cType="1" res="-1.9042077838093974e-05" rms="3.1439699232578278e-03" purity="4.9693650007247925e-01" nType="0">
          <Node pos="l" depth="2" NCoef="0" IVar="-1" Cut="0.0000000000000000e+00" cType="1" res="9.5142360078170896e-04" rms="4.8876464366912842e-01" purity="5.0756251811981201e-01" nType="-99"/>
          <Node pos="r" depth="2" NCoef="0" IVar="-1" Cut="0.0000000000000000e+00" cType="1" res="-9.6383644267916679e-04" rms="4.8760044574737549e-01" purity="4.9217540025711060e-01" nType="-99"/>
        </Node>
        <Node pos="r" depth="1" NCoef="0" IVar="-1" Cut="0.0000000000000000e+00" cType="1" res="4.0794634260237217e-03" rms="4.8634535074234009e-01" purity="5.4071557521820068e-01" nType="-99"/>
      </Node>
    </BinaryTree>
    <BinaryTree type="DecisionTree" boostWeight="1.0000000000000000e+00" itree="914">
      <Node pos="s" depth="0" NCoef="0" IVar="1" Cut="5.0000000000000000e+00" cType="1" res="6.2682060524821281e-04" rms="3.3713588118553162e-01" purity="5.0450009107589722e-01" nType="0">
        <Node pos="l" depth="1" NCoef="0" IVar="0" Cut="9.4337987899780273e+00" cType="1" res="5.4405480623245239e-03" rms="4.8769861459732056e-01" purity="5.0488913059234619e-01" nType="0">
          <Node pos="l" depth="2" NCoef="0" IVar="-1" Cut="0.0000000000000000e+00" cType="1" res="4.5848090667277575e-04" rms="4.9031311273574829e-01" purity="5.0493192672729492e-01" nType="-99"/>
          <Node pos="r" depth="2" NCoef="0" IVar="-1" Cut="0.0000000000000000e+00" cType="1" res="3.6065506283193827e-03" rms="4.7779944539070129e-01" purity="5.0473064184188843e-01" nType="-99"/>
        </Node>
        <Node pos="r" depth="1" NCoef="0" IVar="-1" Cut="0.0000000000000000e+00" cType="1" res="-3.3971688244491816e-03" rms="4.8852133750915527e-01" purity="4.9695241451263428e-01" nType="-99"/>
      </Node>
    </BinaryTree>
    <BinaryTree type="DecisionTree" boostWeight="1.0000000000000000e+00" itree="915">
      <Node pos="s" depth="0" NCoef="0" IVar="5" Cut="4.9720384180545807e-02" cType="1" res="5.0697434926405549e-04" rms="4.8749139904975891e-01" purity="5.0258427858352661e-01" nType="0">
        <Node pos="l" depth="1" NCoef="0" IVar="3" Cut="-7.0772331953048706e-01" cType="1" res="-1.5088005457073450e-03" rms="4.8807221651077271e-01" purity="4.9990624189376831e-01" nType="0">
          <Node pos="l" depth="2" NCoef="0" IVar="-1" Cut="0.0000000000000000e+00" cType="1" res="-1.0884031653404236e-03" rms="4.8787912726402283e-01" purity="4.2232081294059753e-01" nType="-99"/>
          <Node pos="r" depth="2" NCoef="0" IVar="-1" Cut="0.0000000000000000e+00" cType="1" res="5.5798201356083155e-04" rms="4.8819971084594727e-01" purity="5.7242190837860107e-01" nType="-99"/>
        </Node>
        <Node pos="r" depth="1" NCoef="0" IVar="3" Cut="8.9411127567291260e-01" cType="1" res="1.4098086394369602e-02" rms="4.8333773016929626e-01" purity="5.2064090967178345e-01" nType="0">
          <Node pos="l" depth="2" NCoef="0" IVar="-1" Cut="0.0000000000000000e+00" cType="1" res="1.4328431570902467e-03" rms="4.9097201228141785e-01" purity="4.6347549557685852e-01" nType="-99"/>
          <Node pos="r" depth="2" NCoef="0" IVar="-1" Cut="0.0000000000000000e+00" cType="1" res="5.1474804058670998e-03" rms="4.6145334839820862e-01" purity="6.7778337001800537e-01" nType="-99"/>
        </Node>
      </Node>
    </BinaryTree>
    <BinaryTree type="DecisionTree" boostWeight="1.0000000000000000e+00" itree="916">
      <Node pos="s" depth="0" NCoef="0" IVar="4" Cut="4.7507602721452713e-02" cType="1" res="-3.3014067448675632e-03" rms="4.8792803287506104e-01" purity="4.9811771512031555e-01" nType="0">
        <Node pos="l" depth="1" NCoef="0" IVar="0" Cut="8.2826652526855469e+00" cType="1" res="-2.2422177426051348e-04" rms="4.8800489306449890e-01" purity="4.9233078956604004e-01" nType="0">
          <Node pos="l" depth="2" NCoef="0" IVar="-1" Cut="0.0000000000000000e+00" cType="1" res="-1.5657558105885983e-03" rms="4.9901258945465088e-01" purity="4.7341722249984741e-01" nType="-99"/>
          <Node pos="r" depth="2" NCoef="0" IVar="-1" Cut="0.0000000000000000e+00" cType="1" res="1.9195512868463993e-04" rms="4.8700413107872009e-01" purity="4.9398800730705261e-01" nType="-99"/>
        </Node>
        <Node pos="r" depth="1" NCoef="0" IVar="2" Cut="2.0000000000000000e+00" cType="1" res="-7.2232383536174893e-04" rms="1.2593469023704529e-01" purity="5.1322162151336670e-01" nType="0">
          <Node pos="l" depth="2" NCoef="0" IVar="-1" Cut="0.0000000000000000e+00" cType="1" res="-3.4143950324505568e-03" rms="4.8637536168098450e-01" purity="5.0167864561080933e-01" nType="-99"/>
          <Node pos="r" depth="2" NCoef="0" IVar="-1" Cut="0.0000000000000000e+00" cType="1" res="1.1160931317135692e-03" rms="4.8925253748893738e-01" purity="5.3277921676635742e-01" nType="-99"/>
        </Node>
      </Node>
    </BinaryTree>
    <BinaryTree type="DecisionTree" boostWeight="1.0000000000000000e+00" itree="917">
      <Node pos="s" depth="0" NCoef="0" IVar="0" Cut="8.2049665451049805e+00" cType="1" res="7.1923708310350776e-04" rms="4.8811149597167969e-01" purity="5.0070363283157349e-01" nType="0">
        <Node pos="l" depth="1" NCoef="0" IVar="-1" Cut="0.0000000000000000e+00" cType="1" res="-3.1149678397923708e-03" rms="4.9802696704864502e-01" purity="4.6096041798591614e-01" nType="-99"/>
        <Node pos="r" depth="1" NCoef="0" IVar="0" Cut="9.4189901351928711e+00" cType="1" res="2.6554360520094633e-03" rms="4.8743879795074463e-01" purity="5.0310349464416504e-01" nType="0">
          <Node pos="l" depth="2" NCoef="0" IVar="-1" Cut="0.0000000000000000e+00" cType="1" res="8.8735902681946754e-04" rms="4.9036422371864319e-01" purity="5.0791782140731812e-01" nType="-99"/>
          <Node pos="r" depth="2" NCoef="0" IVar="-1" Cut="0.0000000000000000e+00" cType="1" res="-2.1502964664250612e-03" rms="4.7759765386581421e-01" purity="4.8737519979476929e-01" nType="-99"/>
        </Node>
      </Node>
    </BinaryTree>
    <BinaryTree type="DecisionTree" boostWeight="1.0000000000000000e+00" itree="918">
      <Node pos="s" depth="0" NCoef="0" IVar="0" Cut="8.3125705718994141e+00" cType="1" res="-1.9018580205738544e-03" rms="4.8832756280899048e-01" purity="4.9851179122924805e-01" nType="0">
        <Node pos="l" depth="1" NCoef="0" IVar="-1" Cut="0.0000000000000000e+00" cType="1" res="-1.5542432665824890e-03" rms="4.9602967500686646e-01" purity="4.7997114062309265e-01" nType="-99"/>
        <Node pos="r" depth="1" NCoef="0" IVar="0" Cut="8.4560527801513672e+00" cType="1" res="-5.6747335474938154e-04" rms="4.8757383227348328e-01" purity="5.0025999546051025e-01" nType="0">
          <Node pos="l" depth="2" NCoef="0" IVar="-1" Cut="0.0000000000000000e+00" cType="1" res="2.6889797300100327e-03" rms="4.9370831251144409e-01" purity="5.4642671346664429e-01" nType="-99"/>
          <Node pos="r" depth="2" NCoef="0" IVar="-1" Cut="0.0000000000000000e+00" cType="1" res="-3.3579682349227369e-04" rms="4.8721781373023987e-01" purity="4.9788275361061096e-01" nType="-99"/>
        </Node>
      </Node>
    </BinaryTree>
    <BinaryTree type="DecisionTree" boostWeight="1.0000000000000000e+00" itree="919">
      <Node pos="s" depth="0" NCoef="0" IVar="3" Cut="8.0260938405990601e-01" cType="1" res="-3.6627391818910837e-03" rms="4.8729082942008972e-01" purity="4.9695977568626404e-01" nType="0">
        <Node pos="l" depth="1" NCoef="0" IVar="4" Cut="4.8711817711591721e-02" cType="1" res="-7.9173827543854713e-03" rms="4.8934531211853027e-01" purity="4.3641531467437744e-01" nType="0">
          <Node pos="l" depth="2" NCoef="0" IVar="-1" Cut="0.0000000000000000e+00" cType="1" res="-1.6405098140239716e-03" rms="4.8811969161033630e-01" purity="4.3086871504783630e-01" nType="-99"/>
          <Node pos="r" depth="2" NCoef="0" IVar="-1" Cut="0.0000000000000000e+00" cType="1" res="-1.0534118337091058e-04" rms="4.9249875545501709e-01" purity="4.5108532905578613e-01" nType="-99"/>
        </Node>
        <Node pos="r" depth="1" NCoef="0" IVar="3" Cut="8.5654884576797485e-01" cType="1" res="3.3702389337122440e-03" rms="4.8379364609718323e-01" purity="5.9704053401947021e-01" nType="0">
          <Node pos="l" depth="2" NCoef="0" IVar="-1" Cut="0.0000000000000000e+00" cType="1" res="-1.5510130906477571e-03" rms="4.9772843718528748e-01" purity="5.3140586614608765e-01" nType="-99"/>
          <Node pos="r" depth="2" NCoef="0" IVar="-1" Cut="0.0000000000000000e+00" cType="1" res="1.5988113591447473e-03" rms="4.7780010104179382e-01" purity="6.2415879964828491e-01" nType="-99"/>
        </Node>
      </Node>
    </BinaryTree>
    <BinaryTree type="DecisionTree" boostWeight="1.0000000000000000e+00" itree="920">
      <Node pos="s" depth="0" NCoef="0" IVar="0" Cut="8.5443048477172852e+00" cType="1" res="1.5723865944892168e-03" rms="4.8836553096771240e-01" purity="5.0058358907699585e-01" nType="0">
        <Node pos="l" depth="1" NCoef="0" IVar="3" Cut="7.8979891538619995e-01" cType="1" res="1.2791935354471207e-02" rms="4.9648287892341614e-01" purity="5.1604926586151123e-01" nType="0">
          <Node pos="l" depth="2" NCoef="0" IVar="-1" Cut="0.0000000000000000e+00" cType="1" res="2.1883661393076181e-03" rms="4.9865740537643433e-01" purity="4.9647250771522522e-01" nType="-99"/>
          <Node pos="r" depth="2" NCoef="0" IVar="-1" Cut="0.0000000000000000e+00" cType="1" res="-2.5995020405389369e-04" rms="4.9222990870475769e-01" purity="5.5077409744262695e-01" nType="-99"/>
        </Node>
        <Node pos="r" depth="1" NCoef="0" IVar="4" Cut="4.6732999384403229e-02" cType="1" res="-6.3614739337936044e-04" rms="4.8672124743461609e-01" purity="4.9753922224044800e-01" nType="0">
          <Node pos="l" depth="2" NCoef="0" IVar="-1" Cut="0.0000000000000000e+00" cType="1" res="-8.2092016236856580e-04" rms="4.8837277293205261e-01" purity="4.8470985889434814e-01" nType="-99"/>
          <Node pos="r" depth="2" NCoef="0" IVar="-1" Cut="0.0000000000000000e+00" cType="1" res="1.7669317312538624e-03" rms="4.8232799768447876e-01" purity="5.3029376268386841e-01" nType="-99"/>
        </Node>
      </Node>
    </BinaryTree>
    <BinaryTree type="DecisionTree" boostWeight="1.0000000000000000e+00" itree="921">
      <Node pos="s" depth="0" NCoef="0" IVar="0" Cut="8.1932420730590820e+00" cType="1" res="-1.6276764217764139e-03" rms="4.8811760544776917e-01" purity="4.9855691194534302e-01" nType="0">
        <Node pos="l" depth="1" NCoef="0" IVar="-1" Cut="0.0000000000000000e+00" cType="1" res="1.8369921017438173e-03" rms="4.9434646964073181e-01" purity="5.0550705194473267e-01" nType="-99"/>
        <Node pos="r" depth="1" NCoef="0" IVar="2" Cut="3.0000000000000000e+00" cType="1" res="-1.7464222619310021e-03" rms="3.8162973523139954e-01" purity="4.9815213680267334e-01" nType="0">
          <Node pos="l" depth="2" NCoef="0" IVar="-1" Cut="0.0000000000000000e+00" cType="1" res="-7.2575663216412067e-04" rms="4.8717898130416870e-01" purity="4.9577254056930542e-01" nType="-99"/>
          <Node pos="r" depth="2" NCoef="0" IVar="-1" Cut="0.0000000000000000e+00" cType="1" res="2.0510172471404076e-03" rms="4.9193373322486877e-01" purity="5.1744925975799561e-01" nType="-99"/>
        </Node>
      </Node>
    </BinaryTree>
    <BinaryTree type="DecisionTree" boostWeight="1.0000000000000000e+00" itree="922">
      <Node pos="s" depth="0" NCoef="0" IVar="1" Cut="4.0000000000000000e+00" cType="1" res="-7.5831147842109203e-04" rms="2.9804894328117371e-01" purity="4.9631047248840332e-01" nType="0">
        <Node pos="l" depth="1" NCoef="0" IVar="5" Cut="-6.9047629833221436e-01" cType="1" res="-2.4200903135351837e-04" rms="4.8812398314476013e-01" purity="4.9838188290596008e-01" nType="0">
          <Node pos="l" depth="2" NCoef="0" IVar="-1" Cut="0.0000000000000000e+00" cType="1" res="-2.8312855865806341e-03" rms="4.8497712612152100e-01" purity="4.7694551944732666e-01" nType="-99"/>
          <Node pos="r" depth="2" NCoef="0" IVar="-1" Cut="0.0000000000000000e+00" cType="1" res="2.3131593479774892e-04" rms="4.8841318488121033e-01" purity="5.0057524442672729e-01" nType="-99"/>
        </Node>
        <Node pos="r" depth="1" NCoef="0" IVar="5" Cut="-6.9170129299163818e-01" cType="1" res="-2.1591564640402794e-02" rms="4.8865759372711182e-01" purity="4.8371747136116028e-01" nType="0">
          <Node pos="l" depth="2" NCoef="0" IVar="-1" Cut="0.0000000000000000e+00" cType="1" res="-6.2558532226830721e-04" rms="4.9129146337509155e-01" purity="4.9753808975219727e-01" nType="-99"/>
          <Node pos="r" depth="2" NCoef="0" IVar="-1" Cut="0.0000000000000000e+00" cType="1" res="-4.6219332143664360e-03" rms="4.8732692003250122e-01" purity="4.7780022025108337e-01" nType="-99"/>
        </Node>
      </Node>
    </BinaryTree>
    <BinaryTree type="DecisionTree" boostWeight="1.0000000000000000e+00" itree="923">
      <Node pos="s" depth="0" NCoef="0" IVar="3" Cut="-8.0189293622970581e-01" cType="1" res="2.5383420288562775e-03" rms="4.8824128508567810e-01" purity="5.0226777791976929e-01" nType="0">
        <Node pos="l" depth="1" NCoef="0" IVar="0" Cut="8.7890987396240234e+00" cType="1" res="1.2693614698946476e-02" rms="4.8533689975738525e-01" purity="4.2054170370101929e-01" nType="0">
          <Node pos="l" depth="2" NCoef="0" IVar="-1" Cut="0.0000000000000000e+00" cType="1" res="3.1885828357189894e-03" rms="4.9523106217384338e-01" purity="4.7265359759330750e-01" nType="-99"/>
          <Node pos="r" depth="2" NCoef="0" IVar="-1" Cut="0.0000000000000000e+00" cType="1" res="1.3688601320609450e-03" rms="4.8146307468414307e-01" purity="4.0110707283020020e-01" nType="-99"/>
        </Node>
        <Node pos="r" depth="1" NCoef="0" IVar="5" Cut="4.2960621416568756e-02" cType="1" res="-3.4107780084013939e-03" rms="4.8983693122863770e-01" purity="5.5014425516128540e-01" nType="0">
          <Node pos="l" depth="2" NCoef="0" IVar="-1" Cut="0.0000000000000000e+00" cType="1" res="-9.6067192498594522e-04" rms="4.9095249176025391e-01" purity="5.4266649484634399e-01" nType="-99"/>
          <Node pos="r" depth="2" NCoef="0" IVar="-1" Cut="0.0000000000000000e+00" cType="1" res="3.7508050445467234e-03" rms="4.7864991426467896e-01" purity="6.1907625198364258e-01" nType="-99"/>
        </Node>
      </Node>
    </BinaryTree>
    <BinaryTree type="DecisionTree" boostWeight="1.0000000000000000e+00" itree="924">
      <Node pos="s" depth="0" NCoef="0" IVar="0" Cut="9.0013980865478516e+00" cType="1" res="-5.8604043442755938e-04" rms="4.8819413781166077e-01" purity="4.9902394413948059e-01" nType="0">
        <Node pos="l" depth="1" NCoef="0" IVar="5" Cut="-6.9167041778564453e-01" cType="1" res="6.5927524119615555e-03" rms="4.9299338459968567e-01" purity="5.0800770521163940e-01" nType="0">
          <Node pos="l" depth="2" NCoef="0" IVar="-1" Cut="0.0000000000000000e+00" cType="1" res="-1.1783103691413999e-03" rms="4.8865008354187012e-01" purity="4.8736086487770081e-01" nType="-99"/>
          <Node pos="r" depth="2" NCoef="0" IVar="-1" Cut="0.0000000000000000e+00" cType="1" res="1.0568836005404592e-03" rms="4.9354052543640137e-01" purity="5.1080733537673950e-01" nType="-99"/>
        </Node>
        <Node pos="r" depth="1" NCoef="0" IVar="4" Cut="4.3715130537748337e-02" cType="1" res="-6.5659554675221443e-03" rms="4.8407879471778870e-01" purity="4.9154052138328552e-01" nType="0">
          <Node pos="l" depth="2" NCoef="0" IVar="-1" Cut="0.0000000000000000e+00" cType="1" res="-4.5139860594645143e-04" rms="4.8469772934913635e-01" purity="4.8661816120147705e-01" nType="-99"/>
          <Node pos="r" depth="2" NCoef="0" IVar="-1" Cut="0.0000000000000000e+00" cType="1" res="-3.8359416648745537e-03" rms="4.8235288262367249e-01" purity="5.0382661819458008e-01" nType="-99"/>
        </Node>
      </Node>
    </BinaryTree>
    <BinaryTree type="DecisionTree" boostWeight="1.0000000000000000e+00" itree="925">
      <Node pos="s" depth="0" NCoef="0" IVar="0" Cut="9.2395105361938477e+00" cType="1" res="-1.2784034479409456e-03" rms="4.8804190754890442e-01" purity="4.9900203943252563e-01" nType="0">
        <Node pos="l" depth="1" NCoef="0" IVar="0" Cut="8.4449863433837891e+00" cType="1" res="-4.2339456267654896e-03" rms="4.9188190698623657e-01" purity="4.9830850958824158e-01" nType="0">
          <Node pos="l" depth="2" NCoef="0" IVar="-1" Cut="0.0000000000000000e+00" cType="1" res="6.8746675970032811e-04" rms="4.9464967846870422e-01" purity="5.1133191585540771e-01" nType="-99"/>
          <Node pos="r" depth="2" NCoef="0" IVar="-1" Cut="0.0000000000000000e+00" cType="1" res="-1.0322963353246450e-03" rms="4.9115577340126038e-01" purity="4.9508589506149292e-01" nType="-99"/>
        </Node>
        <Node pos="r" depth="1" NCoef="0" IVar="1" Cut="4.0000000000000000e+00" cType="1" res="3.8361900951713324e-03" rms="4.7821360826492310e-01" purity="5.0028496980667114e-01" nType="0">
          <Node pos="l" depth="2" NCoef="0" IVar="-1" Cut="0.0000000000000000e+00" cType="1" res="3.5530927561921999e-05" rms="4.8050990700721741e-01" purity="4.9524879455566406e-01" nType="-99"/>
          <Node pos="r" depth="2" NCoef="0" IVar="-1" Cut="0.0000000000000000e+00" cType="1" res="7.0582674816250801e-03" rms="4.8190066218376160e-01" purity="5.3086626529693604e-01" nType="-99"/>
        </Node>
      </Node>
    </BinaryTree>
    <BinaryTree type="DecisionTree" boostWeight="1.0000000000000000e+00" itree="926">
      <Node pos="s" depth="0" NCoef="0" IVar="1" Cut="4.0000000000000000e+00" cType="1" res="-8.5346284322440624e-04" rms="3.4352573752403259e-01" purity="5.0023621320724487e-01" nType="0">
        <Node pos="l" depth="1" NCoef="0" IVar="0" Cut="8.4679145812988281e+00" cType="1" res="-3.6539626307785511e-04" rms="4.8760148882865906e-01" purity="4.9780127406120300e-01" nType="0">
          <Node pos="l" depth="2" NCoef="0" IVar="-1" Cut="0.0000000000000000e+00" cType="1" res="1.1947567109018564e-03" rms="4.9540871381759644e-01" purity="5.1538801193237305e-01" nType="-99"/>
          <Node pos="r" depth="2" NCoef="0" IVar="-1" Cut="0.0000000000000000e+00" cType="1" res="-4.0587491821497679e-04" rms="4.8629969358444214e-01" purity="4.9495917558670044e-01" nType="-99"/>
        </Node>
        <Node pos="r" depth="1" NCoef="0" IVar="3" Cut="-8.0097585916519165e-01" cType="1" res="9.1752847656607628e-03" rms="4.8770877718925476e-01" purity="5.1506519317626953e-01" nType="0">
          <Node pos="l" depth="2" NCoef="0" IVar="-1" Cut="0.0000000000000000e+00" cType="1" res="3.3393038902431726e-03" rms="4.9050524830818176e-01" purity="4.4134485721588135e-01" nType="-99"/>
          <Node pos="r" depth="2" NCoef="0" IVar="-1" Cut="0.0000000000000000e+00" cType="1" res="5.9099693316966295e-05" rms="4.8538851737976074e-01" purity="5.7106280326843262e-01" nType="-99"/>
        </Node>
      </Node>
    </BinaryTree>
    <BinaryTree type="DecisionTree" boostWeight="1.0000000000000000e+00" itree="927">
      <Node pos="s" depth="0" NCoef="0" IVar="0" Cut="8.6927433013916016e+00" cType="1" res="3.8239452987909317e-04" rms="4.8795011639595032e-01" purity="4.9988928437232971e-01" nType="0">
        <Node pos="l" depth="1" NCoef="0" IVar="0" Cut="8.2109413146972656e+00" cType="1" res="1.0519120842218399e-02" rms="4.9501162767410278e-01" purity="5.1561594009399414e-01" nType="0">
          <Node pos="l" depth="2" NCoef="0" IVar="-1" Cut="0.0000000000000000e+00" cType="1" res="-3.9941573049873114e-04" rms="4.9672499299049377e-01" purity="4.8890402913093567e-01" nType="-99"/>
          <Node pos="r" depth="2" NCoef="0" IVar="-1" Cut="0.0000000000000000e+00" cType="1" res="1.6734536038711667e-03" rms="4.9434572458267212e-01" purity="5.2447158098220825e-01" nType="-99"/>
        </Node>
        <Node pos="r" depth="1" NCoef="0" IVar="0" Cut="9.9775047302246094e+00" cType="1" res="-2.7498656418174505e-03" rms="4.8570454120635986e-01" purity="4.9502974748611450e-01" nType="0">
          <Node pos="l" depth="2" NCoef="0" IVar="-1" Cut="0.0000000000000000e+00" cType="1" res="-7.2847399860620499e-04" rms="4.8616451025009155e-01" purity="4.9454680085182190e-01" nType="-99"/>
          <Node pos="r" depth="2" NCoef="0" IVar="-1" Cut="0.0000000000000000e+00" cType="1" res="1.1614219285547733e-02" rms="4.7124779224395752e-01" purity="5.0866961479187012e-01" nType="-99"/>
        </Node>
      </Node>
    </BinaryTree>
    <BinaryTree type="DecisionTree" boostWeight="1.0000000000000000e+00" itree="928">
      <Node pos="s" depth="0" NCoef="0" IVar="4" Cut="4.8629306256771088e-02" cType="1" res="-1.6303048469126225e-03" rms="4.8799049854278564e-01" purity="4.9812909960746765e-01" nType="0">
        <Node pos="l" depth="1" NCoef="0" IVar="3" Cut="8.0284202098846436e-01" cType="1" res="-4.9337940290570259e-03" rms="4.8910087347030640e-01" purity="4.8583850264549255e-01" nType="0">
          <Node pos="l" depth="2" NCoef="0" IVar="-1" Cut="0.0000000000000000e+00" cType="1" res="-1.3639837561640888e-04" rms="4.8931074142456055e-01" purity="4.4047686457633972e-01" nType="-99"/>
          <Node pos="r" depth="2" NCoef="0" IVar="-1" Cut="0.0000000000000000e+00" cType="1" res="-2.0325025543570518e-03" rms="4.8865103721618652e-01" purity="5.6542348861694336e-01" nType="-99"/>
        </Node>
        <Node pos="r" depth="1" NCoef="0" IVar="4" Cut="7.8341186046600342e-01" cType="1" res="6.8825683556497097e-03" rms="4.8501381278038025e-01" purity="5.2980130910873413e-01" nType="0">
          <Node pos="l" depth="2" NCoef="0" IVar="-1" Cut="0.0000000000000000e+00" cType="1" res="-6.1394920339807868e-04" rms="4.8958060145378113e-01" purity="5.0576537847518921e-01" nType="-99"/>
          <Node pos="r" depth="2" NCoef="0" IVar="-1" Cut="0.0000000000000000e+00" cType="1" res="2.2533177398145199e-03" rms="4.8213988542556763e-01" purity="5.4420965909957886e-01" nType="-99"/>
        </Node>
      </Node>
    </BinaryTree>
    <BinaryTree type="DecisionTree" boostWeight="1.0000000000000000e+00" itree="929">
      <Node pos="s" depth="0" NCoef="0" IVar="4" Cut="-7.0186185836791992e-01" cType="1" res="-1.7274189740419388e-03" rms="4.8858961462974548e-01" purity="4.9756401777267456e-01" nType="0">
        <Node pos="l" depth="1" NCoef="0" IVar="0" Cut="9.1424016952514648e+00" cType="1" res="9.4125987961888313e-03" rms="4.8660042881965637e-01" purity="4.8495554924011230e-01" nType="0">
          <Node pos="l" depth="2" NCoef="0" IVar="-1" Cut="0.0000000000000000e+00" cType="1" res="2.2204003762453794e-03" rms="4.9110463261604309e-01" purity="4.9199402332305908e-01" nType="-99"/>
          <Node pos="r" depth="2" NCoef="0" IVar="-1" Cut="0.0000000000000000e+00" cType="1" res="4.9409507482778281e-05" rms="4.8068898916244507e-01" purity="4.7605890035629272e-01" nType="-99"/>
        </Node>
        <Node pos="r" depth="1" NCoef="0" IVar="0" Cut="8.2428741455078125e+00" cType="1" res="-5.8703236281871796e-03" rms="4.8926261067390442e-01" purity="5.0225299596786499e-01" nType="0">
          <Node pos="l" depth="2" NCoef="0" IVar="-1" Cut="0.0000000000000000e+00" cType="1" res="-3.4897788427770138e-03" rms="4.9796125292778015e-01" purity="4.6055853366851807e-01" nType="-99"/>
          <Node pos="r" depth="2" NCoef="0" IVar="-1" Cut="0.0000000000000000e+00" cType="1" res="-5.8944453485310078e-04" rms="4.8852869868278503e-01" purity="5.0535434484481812e-01" nType="-99"/>
        </Node>
      </Node>
    </BinaryTree>
    <BinaryTree type="DecisionTree" boostWeight="1.0000000000000000e+00" itree="930">
      <Node pos="s" depth="0" NCoef="0" IVar="5" Cut="7.9097390174865723e-01" cType="1" res="-8.0322846770286560e-04" rms="4.8823520541191101e-01" purity="4.9857801198959351e-01" nType="0">
        <Node pos="l" depth="1" NCoef="0" IVar="0" Cut="8.2049665451049805e+00" cType="1" res="6.4235233003273606e-04" rms="4.8857030272483826e-01" purity="4.9896365404129028e-01" nType="0">
          <Node pos="l" depth="2" NCoef="0" IVar="-1" Cut="0.0000000000000000e+00" cType="1" res="2.1424021106213331e-03" rms="4.9947667121887207e-01" purity="5.1130080223083496e-01" nType="-99"/>
          <Node pos="r" depth="2" NCoef="0" IVar="-1" Cut="0.0000000000000000e+00" cType="1" res="-1.1885324784088880e-04" rms="4.8781868815422058e-01" purity="4.9815833568572998e-01" nType="-99"/>
        </Node>
        <Node pos="r" depth="1" NCoef="0" IVar="1" Cut="4.0000000000000000e+00" cType="1" res="-1.9226130098104477e-02" rms="2.8381261229515076e-01" purity="4.9172785878181458e-01" nType="0">
          <Node pos="l" depth="2" NCoef="0" IVar="-1" Cut="0.0000000000000000e+00" cType="1" res="-2.1561183966696262e-03" rms="4.8466187715530396e-01" purity="5.0780200958251953e-01" nType="-99"/>
          <Node pos="r" depth="2" NCoef="0" IVar="-1" Cut="0.0000000000000000e+00" cType="1" res="-6.3022701069712639e-03" rms="4.7807544469833374e-01" purity="4.7618758678436279e-01" nType="-99"/>
        </Node>
      </Node>
    </BinaryTree>
    <BinaryTree type="DecisionTree" boostWeight="1.0000000000000000e+00" itree="931">
      <Node pos="s" depth="0" NCoef="0" IVar="4" Cut="7.9637849330902100e-01" cType="1" res="-3.0911320936866105e-04" rms="4.8792240023612976e-01" purity="5.0005739927291870e-01" nType="0">
        <Node pos="l" depth="1" NCoef="0" IVar="0" Cut="9.6700019836425781e+00" cType="1" res="2.2677592933177948e-03" rms="4.8885113000869751e-01" purity="4.9603962898254395e-01" nType="0">
          <Node pos="l" depth="2" NCoef="0" IVar="-1" Cut="0.0000000000000000e+00" cType="1" res="5.4670852841809392e-04" rms="4.9029120802879333e-01" purity="4.9816405773162842e-01" nType="-99"/>
          <Node pos="r" depth="2" NCoef="0" IVar="-1" Cut="0.0000000000000000e+00" cType="1" res="-3.5854540765285492e-03" rms="4.7373646497726440e-01" purity="4.7445172071456909e-01" nType="-99"/>
        </Node>
        <Node pos="r" depth="1" NCoef="0" IVar="0" Cut="9.1169605255126953e+00" cType="1" res="-1.4307822100818157e-02" rms="4.8260572552680969e-01" purity="5.2188348770141602e-01" nType="0">
          <Node pos="l" depth="2" NCoef="0" IVar="-1" Cut="0.0000000000000000e+00" cType="1" res="-4.9529075622558594e-03" rms="4.8802909255027771e-01" purity="4.9915203452110291e-01" nType="-99"/>
          <Node pos="r" depth="2" NCoef="0" IVar="-1" Cut="0.0000000000000000e+00" cType="1" res="2.7383698616176844e-03" rms="4.7530904412269592e-01" purity="5.4662752151489258e-01" nType="-99"/>
        </Node>
      </Node>
    </BinaryTree>
    <BinaryTree type="DecisionTree" boostWeight="1.0000000000000000e+00" itree="932">
      <Node pos="s" depth="0" NCoef="0" IVar="0" Cut="8.2049665451049805e+00" cType="1" res="-2.7097517158836126e-03" rms="4.8845610022544861e-01" purity="4.9724614620208740e-01" nType="0">
        <Node pos="l" depth="1" NCoef="0" IVar="-1" Cut="0.0000000000000000e+00" cType="1" res="1.5089844819158316e-03" rms="4.9737566709518433e-01" purity="5.0677168369293213e-01" nType="-99"/>
        <Node pos="r" depth="1" NCoef="0" IVar="0" Cut="9.1154680252075195e+00" cType="1" res="-3.8770444225519896e-03" rms="4.8786482214927673e-01" purity="4.9664565920829773e-01" nType="0">
          <Node pos="l" depth="2" NCoef="0" IVar="-1" Cut="0.0000000000000000e+00" cType="1" res="-1.1433525942265987e-03" rms="4.9115532636642456e-01" purity="4.9390494823455811e-01" nType="-99"/>
          <Node pos="r" depth="2" NCoef="0" IVar="-1" Cut="0.0000000000000000e+00" cType="1" res="2.8625919367186725e-04" rms="4.8422572016716003e-01" purity="4.9961185455322266e-01" nType="-99"/>
        </Node>
      </Node>
    </BinaryTree>
    <BinaryTree type="DecisionTree" boostWeight="1.0000000000000000e+00" itree="933">
      <Node pos="s" depth="0" NCoef="0" IVar="1" Cut="5.0000000000000000e+00" cType="1" res="-1.5618009492754936e-03" rms="2.8357547521591187e-01" purity="4.9806925654411316e-01" nType="0">
        <Node pos="l" depth="1" NCoef="0" IVar="5" Cut="5.2558984607458115e-02" cType="1" res="-3.5052839666604996e-03" rms="4.8823675513267517e-01" purity="4.9552544951438904e-01" nType="0">
          <Node pos="l" depth="2" NCoef="0" IVar="-1" Cut="0.0000000000000000e+00" cType="1" res="-8.5790239972993731e-04" rms="4.8860999941825867e-01" purity="4.9285319447517395e-01" nType="-99"/>
          <Node pos="r" depth="2" NCoef="0" IVar="-1" Cut="0.0000000000000000e+00" cType="1" res="1.6156213823705912e-03" rms="4.8529672622680664e-01" purity="5.1491487026214600e-01" nType="-99"/>
        </Node>
        <Node pos="r" depth="1" NCoef="0" IVar="-1" Cut="0.0000000000000000e+00" cType="1" res="5.2034244872629642e-03" rms="4.8710522055625916e-01" purity="5.5012869834899902e-01" nType="-99"/>
      </Node>
    </BinaryTree>
    <BinaryTree type="DecisionTree" boostWeight="1.0000000000000000e+00" itree="934">
      <Node pos="s" depth="0" NCoef="0" IVar="5" Cut="7.9310125112533569e-01" cType="1" res="7.6697592157870531e-04" rms="4.8734447360038757e-01" purity="4.9982264637947083e-01" nType="0">
        <Node pos="l" depth="1" NCoef="0" IVar="3" Cut="-7.0759564638137817e-01" cType="1" res="1.7586128087714314e-03" rms="4.8766690492630005e-01" purity="4.9980801343917847e-01" nType="0">
          <Node pos="l" depth="2" NCoef="0" IVar="-1" Cut="0.0000000000000000e+00" cType="1" res="-2.5643481058068573e-04" rms="4.8755028843879700e-01" purity="4.2494922876358032e-01" nType="-99"/>
          <Node pos="r" depth="2" NCoef="0" IVar="-1" Cut="0.0000000000000000e+00" cType="1" res="8.1149395555257797e-04" rms="4.8775807023048401e-01" purity="5.7319313287734985e-01" nType="-99"/>
        </Node>
        <Node pos="r" depth="1" NCoef="0" IVar="-1" Cut="0.0000000000000000e+00" cType="1" res="-2.9910942539572716e-03" rms="4.8078286647796631e-01" purity="5.0010037422180176e-01" nType="-99"/>
      </Node>
    </BinaryTree>
    <BinaryTree type="DecisionTree" boostWeight="1.0000000000000000e+00" itree="935">
      <Node pos="s" depth="0" NCoef="0" IVar="1" Cut="4.0000000000000000e+00" cType="1" res="1.4976759848650545e-04" rms="2.3387236893177032e-01" purity="5.0072884559631348e-01" nType="0">
        <Node pos="l" depth="1" NCoef="0" IVar="2" Cut="3.0000000000000000e+00" cType="1" res="-3.6037570680491626e-04" rms="1.2585619091987610e-01" purity="5.0214380025863647e-01" nType="0">
          <Node pos="l" depth="2" NCoef="0" IVar="-1" Cut="0.0000000000000000e+00" cType="1" res="8.3440740127116442e-04" rms="4.8808997869491577e-01" purity="5.0308036804199219e-01" nType="-99"/>
          <Node pos="r" depth="2" NCoef="0" IVar="-1" Cut="0.0000000000000000e+00" cType="1" res="-2.3630717769265175e-03" rms="4.9195846915245056e-01" purity="4.9498122930526733e-01" nType="-99"/>
        </Node>
        <Node pos="r" depth="1" NCoef="0" IVar="2" Cut="2.0000000000000000e+00" cType="1" res="4.0096623706631362e-04" rms="1.2935155630111694e-01" purity="4.9210301041603088e-01" nType="0">
          <Node pos="l" depth="2" NCoef="0" IVar="-1" Cut="0.0000000000000000e+00" cType="1" res="-9.1678119497373700e-04" rms="4.8210546374320984e-01" purity="5.0739550590515137e-01" nType="-99"/>
          <Node pos="r" depth="2" NCoef="0" IVar="-1" Cut="0.0000000000000000e+00" cType="1" res="-5.9116552583873272e-03" rms="4.8846766352653503e-01" purity="4.6159237623214722e-01" nType="-99"/>
        </Node>
      </Node>
    </BinaryTree>
    <BinaryTree type="DecisionTree" boostWeight="1.0000000000000000e+00" itree="936">
      <Node pos="s" depth="0" NCoef="0" IVar="4" Cut="8.8840556144714355e-01" cType="1" res="2.3394362069666386e-03" rms="4.8843029141426086e-01" purity="5.0208765268325806e-01" nType="0">
        <Node pos="l" depth="1" NCoef="0" IVar="0" Cut="8.3522520065307617e+00" cType="1" res="3.5650036297738552e-03" rms="4.8859751224517822e-01" purity="5.0148987770080566e-01" nType="0">
          <Node pos="l" depth="2" NCoef="0" IVar="-1" Cut="0.0000000000000000e+00" cType="1" res="2.2211873438209295e-03" rms="4.9752518534660339e-01" purity="5.2405422925949097e-01" nType="-99"/>
          <Node pos="r" depth="2" NCoef="0" IVar="-1" Cut="0.0000000000000000e+00" cType="1" res="2.6456071645952761e-04" rms="4.8756954073905945e-01" purity="4.9902191758155823e-01" nType="-99"/>
        </Node>
        <Node pos="r" depth="1" NCoef="0" IVar="-1" Cut="0.0000000000000000e+00" cType="1" res="-4.6494589187204838e-03" rms="4.8377257585525513e-01" purity="5.1568663120269775e-01" nType="-99"/>
      </Node>
    </BinaryTree>
    <BinaryTree type="DecisionTree" boostWeight="1.0000000000000000e+00" itree="937">
      <Node pos="s" depth="0" NCoef="0" IVar="3" Cut="-8.9629036188125610e-01" cType="1" res="1.4265219215303659e-03" rms="4.8867648839950562e-01" purity="5.0227326154708862e-01" nType="0">
        <Node pos="l" depth="1" NCoef="0" IVar="5" Cut="-6.8963754177093506e-01" cType="1" res="1.3560275547206402e-02" rms="4.7279608249664307e-01" purity="3.6563754081726074e-01" nType="0">
          <Node pos="l" depth="2" NCoef="0" IVar="-1" Cut="0.0000000000000000e+00" cType="1" res="5.5988873355090618e-03" rms="4.7830146551132202e-01" purity="3.9771068096160889e-01" nType="-99"/>
          <Node pos="r" depth="2" NCoef="0" IVar="-1" Cut="0.0000000000000000e+00" cType="1" res="1.6890231054276228e-03" rms="4.7144159674644470e-01" purity="3.5848674178123474e-01" nType="-99"/>
        </Node>
        <Node pos="r" depth="1" NCoef="0" IVar="3" Cut="-8.0637067556381226e-01" cType="1" res="-1.0186686413362622e-03" rms="4.9177837371826172e-01" purity="5.2980804443359375e-01" nType="0">
          <Node pos="l" depth="2" NCoef="0" IVar="-1" Cut="0.0000000000000000e+00" cType="1" res="-1.9982971716672182e-03" rms="4.9566590785980225e-01" purity="4.4370776414871216e-01" nType="-99"/>
          <Node pos="r" depth="2" NCoef="0" IVar="-1" Cut="0.0000000000000000e+00" cType="1" res="4.0501132025383413e-04" rms="4.9056416749954224e-01" purity="5.5528682470321655e-01" nType="-99"/>
        </Node>
      </Node>
    </BinaryTree>
    <BinaryTree type="DecisionTree" boostWeight="1.0000000000000000e+00" itree="938">
      <Node pos="s" depth="0" NCoef="0" IVar="0" Cut="8.3376674652099609e+00" cType="1" res="-1.6737756086513400e-03" rms="4.8778709769248962e-01" purity="4.9822339415550232e-01" nType="0">
        <Node pos="l" depth="1" NCoef="0" IVar="3" Cut="-7.0204693078994751e-01" cType="1" res="-1.3066317886114120e-02" rms="4.9742498993873596e-01" purity="4.8815652728080750e-01" nType="0">
          <Node pos="l" depth="2" NCoef="0" IVar="-1" Cut="0.0000000000000000e+00" cType="1" res="2.4493760429322720e-04" rms="4.9831897020339966e-01" purity="4.7012403607368469e-01" nType="-99"/>
          <Node pos="r" depth="2" NCoef="0" IVar="-1" Cut="0.0000000000000000e+00" cType="1" res="-2.8083876240998507e-03" rms="4.9604108929634094e-01" purity="5.0622594356536865e-01" nType="-99"/>
        </Node>
        <Node pos="r" depth="1" NCoef="0" IVar="0" Cut="8.7450561523437500e+00" cType="1" res="-5.1672686822712421e-04" rms="4.8678264021873474e-01" purity="4.9924582242965698e-01" nType="0">
          <Node pos="l" depth="2" NCoef="0" IVar="-1" Cut="0.0000000000000000e+00" cType="1" res="1.2732447357848287e-03" rms="4.9137026071548462e-01" purity="5.1692116260528564e-01" nType="-99"/>
          <Node pos="r" depth="2" NCoef="0" IVar="-1" Cut="0.0000000000000000e+00" cType="1" res="-6.1057071434333920e-04" rms="4.8565679788589478e-01" purity="4.9508553743362427e-01" nType="-99"/>
        </Node>
      </Node>
    </BinaryTree>
    <BinaryTree type="DecisionTree" boostWeight="1.0000000000000000e+00" itree="939">
      <Node pos="s" depth="0" NCoef="0" IVar="0" Cut="8.8029832839965820e+00" cType="1" res="-2.1266469266265631e-03" rms="4.8797211050987244e-01" purity="4.9712625145912170e-01" nType="0">
        <Node pos="l" depth="1" NCoef="0" IVar="4" Cut="7.8220182657241821e-01" cType="1" res="-1.9375802949070930e-02" rms="4.9509552121162415e-01" purity="4.8437753319740295e-01" nType="0">
          <Node pos="l" depth="2" NCoef="0" IVar="-1" Cut="0.0000000000000000e+00" cType="1" res="-2.7921220753341913e-03" rms="4.9550214409828186e-01" purity="4.7248223423957825e-01" nType="-99"/>
          <Node pos="r" depth="2" NCoef="0" IVar="-1" Cut="0.0000000000000000e+00" cType="1" res="1.4345119707286358e-03" rms="4.9169412255287170e-01" purity="5.4763269424438477e-01" nType="-99"/>
        </Node>
        <Node pos="r" depth="1" NCoef="0" IVar="4" Cut="-8.9281696081161499e-01" cType="1" res="5.1619317382574081e-03" rms="4.8474624752998352e-01" purity="5.0251311063766479e-01" nType="0">
          <Node pos="l" depth="2" NCoef="0" IVar="-1" Cut="0.0000000000000000e+00" cType="1" res="7.1078585460782051e-03" rms="4.7126641869544983e-01" purity="4.9146702885627747e-01" nType="-99"/>
          <Node pos="r" depth="2" NCoef="0" IVar="-1" Cut="0.0000000000000000e+00" cType="1" res="7.7714427607133985e-04" rms="4.8528492450714111e-01" purity="5.0298762321472168e-01" nType="-99"/>
        </Node>
      </Node>
    </BinaryTree>
    <BinaryTree type="DecisionTree" boostWeight="1.0000000000000000e+00" itree="940">
      <Node pos="s" depth="0" NCoef="0" IVar="0" Cut="8.5500125885009766e+00" cType="1" res="-1.2748199515044689e-03" rms="4.8826074600219727e-01" purity="4.9872907996177673e-01" nType="0">
        <Node pos="l" depth="1" NCoef="0" IVar="3" Cut="-6.9888079166412354e-01" cType="1" res="-1.3093826361000538e-02" rms="4.9704349040985107e-01" purity="4.9654209613800049e-01" nType="0">
          <Node pos="l" depth="2" NCoef="0" IVar="-1" Cut="0.0000000000000000e+00" cType="1" res="7.1831600507721305e-04" rms="4.9697184562683105e-01" purity="4.7922506928443909e-01" nType="-99"/>
          <Node pos="r" depth="2" NCoef="0" IVar="-1" Cut="0.0000000000000000e+00" cType="1" res="-3.2574867364019156e-03" rms="4.9636816978454590e-01" purity="5.1295322179794312e-01" nType="-99"/>
        </Node>
        <Node pos="r" depth="1" NCoef="0" IVar="0" Cut="8.6767749786376953e+00" cType="1" res="1.1550168273970485e-03" rms="4.8639988899230957e-01" purity="4.9917867779731750e-01" nType="0">
          <Node pos="l" depth="2" NCoef="0" IVar="-1" Cut="0.0000000000000000e+00" cType="1" res="1.9694438669830561e-03" rms="4.8955404758453369e-01" purity="5.1558786630630493e-01" nType="-99"/>
          <Node pos="r" depth="2" NCoef="0" IVar="-1" Cut="0.0000000000000000e+00" cType="1" res="-5.9337012316973414e-06" rms="4.8613822460174561e-01" purity="4.9792817234992981e-01" nType="-99"/>
        </Node>
      </Node>
    </BinaryTree>
    <BinaryTree type="DecisionTree" boostWeight="1.0000000000000000e+00" itree="941">
      <Node pos="s" depth="0" NCoef="0" IVar="1" Cut="5.0000000000000000e+00" cType="1" res="1.3474705629050732e-03" rms="1.5423774719238281e-01" purity="5.0027030706405640e-01" nType="0">
        <Node pos="l" depth="1" NCoef="0" IVar="0" Cut="8.3531856536865234e+00" cType="1" res="-2.2058765171095729e-04" rms="4.8773515224456787e-01" purity="4.9803099036216736e-01" nType="0">
          <Node pos="l" depth="2" NCoef="0" IVar="-1" Cut="0.0000000000000000e+00" cType="1" res="1.7743591452017426e-03" rms="4.9748411774635315e-01" purity="5.1678049564361572e-01" nType="-99"/>
          <Node pos="r" depth="2" NCoef="0" IVar="-1" Cut="0.0000000000000000e+00" cType="1" res="-3.6494870437309146e-04" rms="4.8664194345474243e-01" purity="4.9602594971656799e-01" nType="-99"/>
        </Node>
        <Node pos="r" depth="1" NCoef="0" IVar="-1" Cut="0.0000000000000000e+00" cType="1" res="4.5390981249511242e-03" rms="4.9048766493797302e-01" purity="5.4417556524276733e-01" nType="-99"/>
      </Node>
    </BinaryTree>
    <BinaryTree type="DecisionTree" boostWeight="1.0000000000000000e+00" itree="942">
      <Node pos="s" depth="0" NCoef="0" IVar="0" Cut="9.2668752670288086e+00" cType="1" res="-1.5332788461819291e-03" rms="4.8771375417709351e-01" purity="4.9851629137992859e-01" nType="0">
        <Node pos="l" depth="1" NCoef="0" IVar="5" Cut="5.0366669893264771e-02" cType="1" res="-4.9084862694144249e-03" rms="4.9142533540725708e-01" purity="4.9730750918388367e-01" nType="0">
          <Node pos="l" depth="2" NCoef="0" IVar="-1" Cut="0.0000000000000000e+00" cType="1" res="-3.9125778130255640e-04" rms="4.9156603217124939e-01" purity="4.9890947341918945e-01" nType="-99"/>
          <Node pos="r" depth="2" NCoef="0" IVar="-1" Cut="0.0000000000000000e+00" cType="1" res="-2.5990309659391642e-03" rms="4.9019318819046021e-01" purity="4.8599830269813538e-01" nType="-99"/>
        </Node>
        <Node pos="r" depth="1" NCoef="0" IVar="5" Cut="4.2960621416568756e-02" cType="1" res="5.4315258748829365e-03" rms="4.7988912463188171e-01" purity="5.0101053714752197e-01" nType="0">
          <Node pos="l" depth="2" NCoef="0" IVar="-1" Cut="0.0000000000000000e+00" cType="1" res="4.8208175576291978e-04" rms="4.8013433814048767e-01" purity="4.9502813816070557e-01" nType="-99"/>
          <Node pos="r" depth="2" NCoef="0" IVar="-1" Cut="0.0000000000000000e+00" cType="1" res="7.6384264975786209e-03" rms="4.7746157646179199e-01" purity="5.4305016994476318e-01" nType="-99"/>
        </Node>
      </Node>
    </BinaryTree>
    <BinaryTree type="DecisionTree" boostWeight="1.0000000000000000e+00" itree="943">
      <Node pos="s" depth="0" NCoef="0" IVar="3" Cut="8.0284202098846436e-01" cType="1" res="1.6722114523872733e-03" rms="4.8862171173095703e-01" purity="5.0053596496582031e-01" nType="0">
        <Node pos="l" depth="1" NCoef="0" IVar="0" Cut="8.2350521087646484e+00" cType="1" res="5.2496371790766716e-03" rms="4.9049744009971619e-01" purity="4.4909164309501648e-01" nType="0">
          <Node pos="l" depth="2" NCoef="0" IVar="-1" Cut="0.0000000000000000e+00" cType="1" res="2.8019782621413469e-03" rms="5.0053966045379639e-01" purity="4.9763995409011841e-01" nType="-99"/>
          <Node pos="r" depth="2" NCoef="0" IVar="-1" Cut="0.0000000000000000e+00" cType="1" res="5.6215235963463783e-04" rms="4.8967674374580383e-01" purity="4.4538295269012451e-01" nType="-99"/>
        </Node>
        <Node pos="r" depth="1" NCoef="0" IVar="3" Cut="8.2082629203796387e-01" cType="1" res="-4.3930620886385441e-03" rms="4.8536470532417297e-01" purity="5.8775615692138672e-01" nType="0">
          <Node pos="l" depth="2" NCoef="0" IVar="-1" Cut="0.0000000000000000e+00" cType="1" res="-7.8149158507585526e-03" rms="4.9732613563537598e-01" purity="4.7743678092956543e-01" nType="-99"/>
          <Node pos="r" depth="2" NCoef="0" IVar="-1" Cut="0.0000000000000000e+00" cType="1" res="3.5938057408202440e-05" rms="4.8394137620925903e-01" purity="5.9845650196075439e-01" nType="-99"/>
        </Node>
      </Node>
    </BinaryTree>
    <BinaryTree type="DecisionTree" boostWeight="1.0000000000000000e+00" itree="944">
      <Node pos="s" depth="0" NCoef="0" IVar="4" Cut="7.9593473672866821e-01" cType="1" res="2.0117377862334251e-03" rms="4.8837372660636902e-01" purity="5.0159537792205811e-01" nType="0">
        <Node pos="l" depth="1" NCoef="0" IVar="2" Cut="2.0000000000000000e+00" cType="1" res="-2.8049870161339641e-04" rms="3.2026808708906174e-02" purity="4.9744448065757751e-01" nType="0">
          <Node pos="l" depth="2" NCoef="0" IVar="-1" Cut="0.0000000000000000e+00" cType="1" res="-1.4604802709072828e-04" rms="4.8776999115943909e-01" purity="4.9065116047859192e-01" nType="-99"/>
          <Node pos="r" depth="2" NCoef="0" IVar="-1" Cut="0.0000000000000000e+00" cType="1" res="1.7465683631598949e-03" rms="4.9098375439643860e-01" purity="5.0594538450241089e-01" nType="-99"/>
        </Node>
        <Node pos="r" depth="1" NCoef="0" IVar="0" Cut="9.1891984939575195e+00" cType="1" res="-9.5591489225625992e-03" rms="4.8343610763549805e-01" purity="5.2452552318572998e-01" nType="0">
          <Node pos="l" depth="2" NCoef="0" IVar="-1" Cut="0.0000000000000000e+00" cType="1" res="8.3400467701721936e-05" rms="4.8540440201759338e-01" purity="5.3146040439605713e-01" nType="-99"/>
          <Node pos="r" depth="2" NCoef="0" IVar="-1" Cut="0.0000000000000000e+00" cType="1" res="-5.9870001859962940e-03" rms="4.8032477498054504e-01" purity="5.1487272977828979e-01" nType="-99"/>
        </Node>
      </Node>
    </BinaryTree>
    <BinaryTree type="DecisionTree" boostWeight="1.0000000000000000e+00" itree="945">
      <Node pos="s" depth="0" NCoef="0" IVar="4" Cut="-7.9909282922744751e-01" cType="1" res="-2.7169638779014349e-03" rms="4.8820039629936218e-01" purity="4.9623349308967590e-01" nType="0">
        <Node pos="l" depth="1" NCoef="0" IVar="4" Cut="-8.1705594062805176e-01" cType="1" res="-1.4304326847195625e-02" rms="4.8020777106285095e-01" purity="4.5407250523567200e-01" nType="0">
          <Node pos="l" depth="2" NCoef="0" IVar="-1" Cut="0.0000000000000000e+00" cType="1" res="-9.0314872795715928e-04" rms="4.7973135113716125e-01" purity="4.6209976077079773e-01" nType="-99"/>
          <Node pos="r" depth="2" NCoef="0" IVar="-1" Cut="0.0000000000000000e+00" cType="1" res="-9.0224398300051689e-03" rms="4.8012509942054749e-01" purity="4.1583898663520813e-01" nType="-99"/>
        </Node>
        <Node pos="r" depth="1" NCoef="0" IVar="4" Cut="-7.1418869495391846e-01" cType="1" res="-6.6778453765437007e-04" rms="4.8957175016403198e-01" purity="5.0368946790695190e-01" nType="0">
          <Node pos="l" depth="2" NCoef="0" IVar="-1" Cut="0.0000000000000000e+00" cType="1" res="1.8299065995961428e-03" rms="4.9178552627563477e-01" purity="4.9529221653938293e-01" nType="-99"/>
          <Node pos="r" depth="2" NCoef="0" IVar="-1" Cut="0.0000000000000000e+00" cType="1" res="-4.4402285129763186e-04" rms="4.8916774988174438e-01" purity="5.0509679317474365e-01" nType="-99"/>
        </Node>
      </Node>
    </BinaryTree>
    <BinaryTree type="DecisionTree" boostWeight="1.0000000000000000e+00" itree="946">
      <Node pos="s" depth="0" NCoef="0" IVar="2" Cut="2.0000000000000000e+00" cType="1" res="-7.7686615986749530e-04" rms="1.8816645443439484e-01" purity="4.9884691834449768e-01" nType="0">
        <Node pos="l" depth="1" NCoef="0" IVar="0" Cut="9.1195945739746094e+00" cType="1" res="-6.6983094438910484e-03" rms="4.8644721508026123e-01" purity="4.9211189150810242e-01" nType="0">
          <Node pos="l" depth="2" NCoef="0" IVar="-1" Cut="0.0000000000000000e+00" cType="1" res="-1.5487759374082088e-03" rms="4.9059396982192993e-01" purity="4.8752874135971069e-01" nType="-99"/>
          <Node pos="r" depth="2" NCoef="0" IVar="-1" Cut="0.0000000000000000e+00" cType="1" res="1.3138189387973398e-04" rms="4.8131689429283142e-01" purity="4.9761769175529480e-01" nType="-99"/>
        </Node>
        <Node pos="r" depth="1" NCoef="0" IVar="1" Cut="3.0000000000000000e+00" cType="1" res="4.6743163838982582e-03" rms="3.4153994917869568e-01" purity="5.0812709331512451e-01" nType="0">
          <Node pos="l" depth="2" NCoef="0" IVar="-1" Cut="0.0000000000000000e+00" cType="1" res="1.8424694426357746e-03" rms="4.9013766646385193e-01" purity="5.1389086246490479e-01" nType="-99"/>
          <Node pos="r" depth="2" NCoef="0" IVar="-1" Cut="0.0000000000000000e+00" cType="1" res="2.8919870965182781e-04" rms="4.9054086208343506e-01" purity="4.9520468711853027e-01" nType="-99"/>
        </Node>
      </Node>
    </BinaryTree>
    <BinaryTree type="DecisionTree" boostWeight="1.0000000000000000e+00" itree="947">
      <Node pos="s" depth="0" NCoef="0" IVar="4" Cut="4.6732999384403229e-02" cType="1" res="-2.0375801250338554e-03" rms="4.8783847689628601e-01" purity="4.9775642156600952e-01" nType="0">
        <Node pos="l" depth="1" NCoef="0" IVar="1" Cut="5.0000000000000000e+00" cType="1" res="-1.2873334344476461e-03" rms="1.6365310549736023e-01" purity="4.9223670363426208e-01" nType="0">
          <Node pos="l" depth="2" NCoef="0" IVar="-1" Cut="0.0000000000000000e+00" cType="1" res="-1.1629853361228015e-05" rms="4.8868983983993530e-01" purity="4.9008482694625854e-01" nType="-99"/>
          <Node pos="r" depth="2" NCoef="0" IVar="-1" Cut="0.0000000000000000e+00" cType="1" res="5.7172575034201145e-03" rms="4.8650771379470825e-01" purity="5.3955882787704468e-01" nType="-99"/>
        </Node>
        <Node pos="r" depth="1" NCoef="0" IVar="0" Cut="9.6452531814575195e+00" cType="1" res="-1.1198515072464943e-02" rms="4.8563030362129211e-01" purity="5.1183050870895386e-01" nType="0">
          <Node pos="l" depth="2" NCoef="0" IVar="-1" Cut="0.0000000000000000e+00" cType="1" res="-2.2948842961341143e-03" rms="4.8651087284088135e-01" purity="5.0865721702575684e-01" nType="-99"/>
          <Node pos="r" depth="2" NCoef="0" IVar="-1" Cut="0.0000000000000000e+00" cType="1" res="6.6036102361977100e-03" rms="4.7639584541320801e-01" purity="5.4045832157135010e-01" nType="-99"/>
        </Node>
      </Node>
    </BinaryTree>
    <BinaryTree type="DecisionTree" boostWeight="1.0000000000000000e+00" itree="948">
      <Node pos="s" depth="0" NCoef="0" IVar="3" Cut="8.0260938405990601e-01" cType="1" res="-2.6564789004623890e-03" rms="4.8875811696052551e-01" purity="4.9657377600669861e-01" nType="0">
        <Node pos="l" depth="1" NCoef="0" IVar="5" Cut="7.9137295484542847e-01" cType="1" res="9.2355848755687475e-04" rms="4.9044817686080933e-01" purity="4.4389158487319946e-01" nType="0">
          <Node pos="l" depth="2" NCoef="0" IVar="-1" Cut="0.0000000000000000e+00" cType="1" res="3.1861942261457443e-04" rms="4.9045225977897644e-01" purity="4.4586780667304993e-01" nType="-99"/>
          <Node pos="r" depth="2" NCoef="0" IVar="-1" Cut="0.0000000000000000e+00" cType="1" res="-3.1630632001906633e-03" rms="4.8986473679542542e-01" purity="4.0561100840568542e-01" nType="-99"/>
        </Node>
        <Node pos="r" depth="1" NCoef="0" IVar="3" Cut="8.2058697938919067e-01" cType="1" res="-8.5743227973580360e-03" rms="4.8589372634887695e-01" purity="5.8365803956985474e-01" nType="0">
          <Node pos="l" depth="2" NCoef="0" IVar="-1" Cut="0.0000000000000000e+00" cType="1" res="-5.0378730520606041e-03" rms="4.9776667356491089e-01" purity="4.8889765143394470e-01" nType="-99"/>
          <Node pos="r" depth="2" NCoef="0" IVar="-1" Cut="0.0000000000000000e+00" cType="1" res="-9.7597186686471105e-04" rms="4.8455616831779480e-01" purity="5.9347045421600342e-01" nType="-99"/>
        </Node>
      </Node>
    </BinaryTree>
    <BinaryTree type="DecisionTree" boostWeight="1.0000000000000000e+00" itree="949">
      <Node pos="s" depth="0" NCoef="0" IVar="0" Cut="8.6927433013916016e+00" cType="1" res="9.2956254957243800e-04" rms="4.8836717009544373e-01" purity="5.0021594762802124e-01" nType="0">
        <Node pos="l" depth="1" NCoef="0" IVar="1" Cut="3.0000000000000000e+00" cType="1" res="1.6639189561828971e-04" rms="4.9130212515592575e-02" purity="4.9279141426086426e-01" nType="0">
          <Node pos="l" depth="2" NCoef="0" IVar="-1" Cut="0.0000000000000000e+00" cType="1" res="-2.6190497446805239e-03" rms="4.9583497643470764e-01" purity="4.7992584109306335e-01" nType="-99"/>
          <Node pos="r" depth="2" NCoef="0" IVar="-1" Cut="0.0000000000000000e+00" cType="1" res="1.5390027547255158e-03" rms="4.9062103033065796e-01" purity="5.1648402214050293e-01" nType="-99"/>
        </Node>
        <Node pos="r" depth="1" NCoef="0" IVar="0" Cut="9.0782041549682617e+00" cType="1" res="4.7698533162474632e-03" rms="4.8636853694915771e-01" purity="5.0259339809417725e-01" nType="0">
          <Node pos="l" depth="2" NCoef="0" IVar="-1" Cut="0.0000000000000000e+00" cType="1" res="2.0237464923411608e-03" rms="4.9196255207061768e-01" purity="5.1066637039184570e-01" nType="-99"/>
          <Node pos="r" depth="2" NCoef="0" IVar="-1" Cut="0.0000000000000000e+00" cType="1" res="-3.8504906115122139e-05" rms="4.8314100503921509e-01" purity="4.9807825684547424e-01" nType="-99"/>
        </Node>
      </Node>
    </BinaryTree>
    <BinaryTree type="DecisionTree" boostWeight="1.0000000000000000e+00" itree="950">
      <Node pos="s" depth="0" NCoef="0" IVar="0" Cut="8.9482727050781250e+00" cType="1" res="-2.5632799952290952e-04" rms="4.8836499452590942e-01" purity="4.9926486611366272e-01" nType="0">
        <Node pos="l" depth="1" NCoef="0" IVar="4" Cut="-7.8187710046768188e-01" cType="1" res="7.9236933961510658e-03" rms="4.9419173598289490e-01" purity="5.0905835628509521e-01" nType="0">
          <Node pos="l" depth="2" NCoef="0" IVar="-1" Cut="0.0000000000000000e+00" cType="1" res="3.0709533020853996e-03" rms="4.9237710237503052e-01" purity="4.9406072497367859e-01" nType="-99"/>
          <Node pos="r" depth="2" NCoef="0" IVar="-1" Cut="0.0000000000000000e+00" cType="1" res="5.1247701048851013e-04" rms="4.9447280168533325e-01" purity="5.1204115152359009e-01" nType="-99"/>
        </Node>
        <Node pos="r" depth="1" NCoef="0" IVar="0" Cut="9.0560541152954102e+00" cType="1" res="-5.9354850091040134e-03" rms="4.8419713973999023e-01" purity="4.9246552586555481e-01" nType="0">
          <Node pos="l" depth="2" NCoef="0" IVar="-1" Cut="0.0000000000000000e+00" cType="1" res="-5.2234758622944355e-03" rms="4.9201229214668274e-01" purity="4.6364930272102356e-01" nType="-99"/>
          <Node pos="r" depth="2" NCoef="0" IVar="-1" Cut="0.0000000000000000e+00" cType="1" res="-2.7137994766235352e-04" rms="4.8266854882240295e-01" purity="4.9748489260673523e-01" nType="-99"/>
        </Node>
      </Node>
    </BinaryTree>
    <BinaryTree type="DecisionTree" boostWeight="1.0000000000000000e+00" itree="951">
      <Node pos="s" depth="0" NCoef="0" IVar="4" Cut="8.8987272977828979e-01" cType="1" res="2.4981470778584480e-03" rms="4.8922735452651978e-01" purity="5.0150614976882935e-01" nType="0">
        <Node pos="l" depth="1" NCoef="0" IVar="0" Cut="8.5010328292846680e+00" cType="1" res="3.8571532350033522e-03" rms="4.8966714739799500e-01" purity="5.0114065408706665e-01" nType="0">
          <Node pos="l" depth="2" NCoef="0" IVar="-1" Cut="0.0000000000000000e+00" cType="1" res="-1.1251165997236967e-03" rms="4.9503678083419800e-01" purity="4.9378812313079834e-01" nType="-99"/>
          <Node pos="r" depth="2" NCoef="0" IVar="-1" Cut="0.0000000000000000e+00" cType="1" res="1.1385756079107523e-03" rms="4.8865732550621033e-01" purity="5.0244909524917603e-01" nType="-99"/>
        </Node>
        <Node pos="r" depth="1" NCoef="0" IVar="-1" Cut="0.0000000000000000e+00" cType="1" res="-5.8660479262471199e-03" rms="4.7673279047012329e-01" purity="5.1071757078170776e-01" nType="-99"/>
      </Node>
    </BinaryTree>
    <BinaryTree type="DecisionTree" boostWeight="1.0000000000000000e+00" itree="952">
      <Node pos="s" depth="0" NCoef="0" IVar="0" Cut="8.4392223358154297e+00" cType="1" res="-1.8671773432288319e-04" rms="4.8856967687606812e-01" purity="4.9966505169868469e-01" nType="0">
        <Node pos="l" depth="1" NCoef="0" IVar="3" Cut="7.8931325674057007e-01" cType="1" res="1.2419863604009151e-02" rms="4.9410095810890198e-01" purity="5.1578074693679810e-01" nType="0">
          <Node pos="l" depth="2" NCoef="0" IVar="-1" Cut="0.0000000000000000e+00" cType="1" res="1.8517024000175297e-04" rms="4.9818125367164612e-01" purity="4.7932904958724976e-01" nType="-99"/>
          <Node pos="r" depth="2" NCoef="0" IVar="-1" Cut="0.0000000000000000e+00" cType="1" res="3.0993213877081871e-03" rms="4.8643448948860168e-01" purity="5.7872468233108521e-01" nType="-99"/>
        </Node>
        <Node pos="r" depth="1" NCoef="0" IVar="4" Cut="-7.9649960994720459e-01" cType="1" res="-1.9507911056280136e-03" rms="4.8776468634605408e-01" purity="4.9740993976593018e-01" nType="0">
          <Node pos="l" depth="2" NCoef="0" IVar="-1" Cut="0.0000000000000000e+00" cType="1" res="1.7178817652165890e-03" rms="4.8086199164390564e-01" purity="4.7848844528198242e-01" nType="-99"/>
          <Node pos="r" depth="2" NCoef="0" IVar="-1" Cut="0.0000000000000000e+00" cType="1" res="-6.5515830647200346e-04" rms="4.8894146084785461e-01" purity="5.0073206424713135e-01" nType="-99"/>
        </Node>
      </Node>
    </BinaryTree>
    <BinaryTree type="DecisionTree" boostWeight="1.0000000000000000e+00" itree="953">
      <Node pos="s" depth="0" NCoef="0" IVar="2" Cut="2.0000000000000000e+00" cType="1" res="6.3726096414029598e-05" rms="1.9134378433227539e-01" purity="5.0184899568557739e-01" nType="0">
        <Node pos="l" depth="1" NCoef="0" IVar="5" Cut="-7.8532052040100098e-01" cType="1" res="7.3441383428871632e-03" rms="4.8605960607528687e-01" purity="5.0602793693542480e-01" nType="0">
          <Node pos="l" depth="2" NCoef="0" IVar="-1" Cut="0.0000000000000000e+00" cType="1" res="5.1064584404230118e-03" rms="4.8937988281250000e-01" purity="5.3224772214889526e-01" nType="-99"/>
          <Node pos="r" depth="2" NCoef="0" IVar="-1" Cut="0.0000000000000000e+00" cType="1" res="8.2947360351681709e-04" rms="4.8575234413146973e-01" purity="5.0401586294174194e-01" nType="-99"/>
        </Node>
        <Node pos="r" depth="1" NCoef="0" IVar="0" Cut="8.4285259246826172e+00" cType="1" res="-4.0556034073233604e-03" rms="4.9047300219535828e-01" purity="4.9624019861221313e-01" nType="0">
          <Node pos="l" depth="2" NCoef="0" IVar="-1" Cut="0.0000000000000000e+00" cType="1" res="-2.4392374325543642e-03" rms="4.9693703651428223e-01" purity="4.7170329093933105e-01" nType="-99"/>
          <Node pos="r" depth="2" NCoef="0" IVar="-1" Cut="0.0000000000000000e+00" cType="1" res="-2.0497415971476585e-04" rms="4.8944985866546631e-01" purity="4.9983829259872437e-01" nType="-99"/>
        </Node>
      </Node>
    </BinaryTree>
    <BinaryTree type="DecisionTree" boostWeight="1.0000000000000000e+00" itree="954">
      <Node pos="s" depth="0" NCoef="0" IVar="1" Cut="5.0000000000000000e+00" cType="1" res="-8.9789106277748942e-04" rms="1.8242664635181427e-01" purity="5.0027531385421753e-01" nType="0">
        <Node pos="l" depth="1" NCoef="0" IVar="0" Cut="8.7359209060668945e+00" cType="1" res="-1.7146050231531262e-04" rms="4.8819836974143982e-01" purity="4.9810549616813660e-01" nType="0">
          <Node pos="l" depth="2" NCoef="0" IVar="-1" Cut="0.0000000000000000e+00" cType="1" res="-7.7263813000172377e-04" rms="4.9412760138511658e-01" purity="4.9536594748497009e-01" nType="-99"/>
          <Node pos="r" depth="2" NCoef="0" IVar="-1" Cut="0.0000000000000000e+00" cType="1" res="4.2920050327666104e-04" rms="4.8606163263320923e-01" purity="4.9907392263412476e-01" nType="-99"/>
        </Node>
        <Node pos="r" depth="1" NCoef="0" IVar="-1" Cut="0.0000000000000000e+00" cType="1" res="3.1388089992105961e-03" rms="4.8534563183784485e-01" purity="5.4315298795700073e-01" nType="-99"/>
      </Node>
    </BinaryTree>
    <BinaryTree type="DecisionTree" boostWeight="1.0000000000000000e+00" itree="955">
      <Node pos="s" depth="0" NCoef="0" IVar="0" Cut="8.1281833648681641e+00" cType="1" res="-4.7078700736165047e-03" rms="4.8834490776062012e-01" purity="4.9509552121162415e-01" nType="0">
        <Node pos="l" depth="1" NCoef="0" IVar="-1" Cut="0.0000000000000000e+00" cType="1" res="-3.7354992236942053e-03" rms="4.9737963080406189e-01" purity="4.5286601781845093e-01" nType="-99"/>
        <Node pos="r" depth="1" NCoef="0" IVar="0" Cut="8.4223184585571289e+00" cType="1" res="-2.9656775295734406e-03" rms="4.8783183097839355e-01" purity="4.9716192483901978e-01" nType="0">
          <Node pos="l" depth="2" NCoef="0" IVar="-1" Cut="0.0000000000000000e+00" cType="1" res="1.5423744916915894e-03" rms="4.9324503540992737e-01" purity="5.2672356367111206e-01" nType="-99"/>
          <Node pos="r" depth="2" NCoef="0" IVar="-1" Cut="0.0000000000000000e+00" cType="1" res="-7.8770861728116870e-04" rms="4.8732912540435791e-01" purity="4.9460151791572571e-01" nType="-99"/>
        </Node>
      </Node>
    </BinaryTree>
    <BinaryTree type="DecisionTree" boostWeight="1.0000000000000000e+00" itree="956">
      <Node pos="s" depth="0" NCoef="0" IVar="3" Cut="-7.0684790611267090e-01" cType="1" res="-2.5827346835285425e-03" rms="4.8737677931785583e-01" purity="4.9664437770843506e-01" nType="0">
        <Node pos="l" depth="1" NCoef="0" IVar="0" Cut="9.4236135482788086e+00" cType="1" res="-6.8192463368177414e-03" rms="4.8711800575256348e-01" purity="4.2014008760452271e-01" nType="0">
          <Node pos="l" depth="2" NCoef="0" IVar="-1" Cut="0.0000000000000000e+00" cType="1" res="-1.4291250845417380e-03" rms="4.8947578668594360e-01" purity="4.2676761746406555e-01" nType="-99"/>
          <Node pos="r" depth="2" NCoef="0" IVar="-1" Cut="0.0000000000000000e+00" cType="1" res="1.3283032458275557e-03" rms="4.7819766402244568e-01" purity="3.9587545394897461e-01" nType="-99"/>
        </Node>
        <Node pos="r" depth="1" NCoef="0" IVar="5" Cut="-7.8543478250503540e-01" cType="1" res="1.6065149102360010e-03" rms="4.8759630322456360e-01" purity="5.7229512929916382e-01" nType="0">
          <Node pos="l" depth="2" NCoef="0" IVar="-1" Cut="0.0000000000000000e+00" cType="1" res="-4.8675928264856339e-03" rms="4.9294367432594299e-01" purity="5.5314385890960693e-01" nType="-99"/>
          <Node pos="r" depth="2" NCoef="0" IVar="-1" Cut="0.0000000000000000e+00" cType="1" res="5.5077578872442245e-04" rms="4.8720762133598328e-01" purity="5.7347261905670166e-01" nType="-99"/>
        </Node>
      </Node>
    </BinaryTree>
    <BinaryTree type="DecisionTree" boostWeight="1.0000000000000000e+00" itree="957">
      <Node pos="s" depth="0" NCoef="0" IVar="3" Cut="-7.0778203010559082e-01" cType="1" res="-1.1295560980215669e-03" rms="4.8796656727790833e-01" purity="4.9686211347579956e-01" nType="0">
        <Node pos="l" depth="1" NCoef="0" IVar="3" Cut="-8.6190634965896606e-01" cType="1" res="-5.4001510143280029e-03" rms="4.8771709203720093e-01" purity="4.1979980468750000e-01" nType="0">
          <Node pos="l" depth="2" NCoef="0" IVar="-1" Cut="0.0000000000000000e+00" cType="1" res="3.7445334601216018e-04" rms="4.7795394062995911e-01" purity="3.8378423452377319e-01" nType="-99"/>
          <Node pos="r" depth="2" NCoef="0" IVar="-1" Cut="0.0000000000000000e+00" cType="1" res="-1.8582100747153163e-03" rms="4.9733152985572815e-01" purity="4.5642566680908203e-01" nType="-99"/>
        </Node>
        <Node pos="r" depth="1" NCoef="0" IVar="0" Cut="9.2262859344482422e+00" cType="1" res="3.0972557142376900e-03" rms="4.8817658424377441e-01" purity="5.7313436269760132e-01" nType="0">
          <Node pos="l" depth="2" NCoef="0" IVar="-1" Cut="0.0000000000000000e+00" cType="1" res="1.2538239825516939e-03" rms="4.9109122157096863e-01" purity="5.6765043735504150e-01" nType="-99"/>
          <Node pos="r" depth="2" NCoef="0" IVar="-1" Cut="0.0000000000000000e+00" cType="1" res="-1.8955817213281989e-03" rms="4.8279798030853271e-01" purity="5.8279746770858765e-01" nType="-99"/>
        </Node>
      </Node>
    </BinaryTree>
    <BinaryTree type="DecisionTree" boostWeight="1.0000000000000000e+00" itree="958">
      <Node pos="s" depth="0" NCoef="0" IVar="0" Cut="8.4091110229492188e+00" cType="1" res="-6.1513425316661596e-04" rms="4.8823526501655579e-01" purity="4.9817678332328796e-01" nType="0">
        <Node pos="l" depth="1" NCoef="0" IVar="0" Cut="8.2129993438720703e+00" cType="1" res="1.0495873168110847e-02" rms="4.9597662687301636e-01" purity="5.1517939567565918e-01" nType="0">
          <Node pos="l" depth="2" NCoef="0" IVar="-1" Cut="0.0000000000000000e+00" cType="1" res="-8.4931071614846587e-04" rms="4.9754172563552856e-01" purity="4.8400500416755676e-01" nType="-99"/>
          <Node pos="r" depth="2" NCoef="0" IVar="-1" Cut="0.0000000000000000e+00" cType="1" res="3.2272767275571823e-03" rms="4.9336105585098267e-01" purity="5.5003005266189575e-01" nType="-99"/>
        </Node>
        <Node pos="r" depth="1" NCoef="0" IVar="0" Cut="8.5400238037109375e+00" cType="1" res="-2.0442567765712738e-03" rms="4.8721224069595337e-01" purity="4.9598985910415649e-01" nType="0">
          <Node pos="l" depth="2" NCoef="0" IVar="-1" Cut="0.0000000000000000e+00" cType="1" res="-1.9627155270427465e-03" rms="4.9543288350105286e-01" purity="4.8938691616058350e-01" nType="-99"/>
          <Node pos="r" depth="2" NCoef="0" IVar="-1" Cut="0.0000000000000000e+00" cType="1" res="-1.8473216914571822e-04" rms="4.8669505119323730e-01" purity="4.9638712406158447e-01" nType="-99"/>
        </Node>
      </Node>
    </BinaryTree>
    <BinaryTree type="DecisionTree" boostWeight="1.0000000000000000e+00" itree="959">
      <Node pos="s" depth="0" NCoef="0" IVar="4" Cut="-7.0241034030914307e-01" cType="1" res="1.7705558566376567e-03" rms="4.8868939280509949e-01" purity="5.0054925680160522e-01" nType="0">
        <Node pos="l" depth="1" NCoef="0" IVar="4" Cut="-7.5769788026809692e-01" cType="1" res="-5.5237207561731339e-03" rms="4.8657423257827759e-01" purity="4.7001591324806213e-01" nType="0">
          <Node pos="l" depth="2" NCoef="0" IVar="-1" Cut="0.0000000000000000e+00" cType="1" res="-7.9653320426587015e-05" rms="4.8598542809486389e-01" purity="4.7270494699478149e-01" nType="-99"/>
          <Node pos="r" depth="2" NCoef="0" IVar="-1" Cut="0.0000000000000000e+00" cType="1" res="-3.4361851867288351e-03" rms="4.8820769786834717e-01" purity="4.6069651842117310e-01" nType="-99"/>
        </Node>
        <Node pos="r" depth="1" NCoef="0" IVar="5" Cut="-6.8957567214965820e-01" cType="1" res="4.4909664429724216e-03" rms="4.8944807052612305e-01" purity="5.1193666458129883e-01" nType="0">
          <Node pos="l" depth="2" NCoef="0" IVar="-1" Cut="0.0000000000000000e+00" cType="1" res="-2.0891879685223103e-03" rms="4.8926424980163574e-01" purity="5.0295007228851318e-01" nType="-99"/>
          <Node pos="r" depth="2" NCoef="0" IVar="-1" Cut="0.0000000000000000e+00" cType="1" res="9.8533765412867069e-04" rms="4.8943024873733521e-01" purity="5.1285171508789062e-01" nType="-99"/>
        </Node>
      </Node>
    </BinaryTree>
    <BinaryTree type="DecisionTree" boostWeight="1.0000000000000000e+00" itree="960">
      <Node pos="s" depth="0" NCoef="0" IVar="0" Cut="9.1114721298217773e+00" cType="1" res="1.5730796149000525e-03" rms="4.8766869306564331e-01" purity="5.0023066997528076e-01" nType="0">
        <Node pos="l" depth="1" NCoef="0" IVar="2" Cut="3.0000000000000000e+00" cType="1" res="-5.3612794727087021e-04" rms="4.1331369429826736e-02" purity="4.9666982889175415e-01" nType="0">
          <Node pos="l" depth="2" NCoef="0" IVar="-1" Cut="0.0000000000000000e+00" cType="1" res="-3.8279213185887784e-05" rms="4.9091854691505432e-01" purity="4.9790778756141663e-01" nType="-99"/>
          <Node pos="r" depth="2" NCoef="0" IVar="-1" Cut="0.0000000000000000e+00" cType="1" res="-2.9104289133101702e-03" rms="4.9474090337753296e-01" purity="4.8709979653358459e-01" nType="-99"/>
        </Node>
        <Node pos="r" depth="1" NCoef="0" IVar="0" Cut="9.9797515869140625e+00" cType="1" res="6.5838871523737907e-03" rms="4.8312339186668396e-01" purity="5.0448668003082275e-01" nType="0">
          <Node pos="l" depth="2" NCoef="0" IVar="-1" Cut="0.0000000000000000e+00" cType="1" res="1.2560579925775528e-03" rms="4.8397943377494812e-01" purity="5.0424015522003174e-01" nType="-99"/>
          <Node pos="r" depth="2" NCoef="0" IVar="-1" Cut="0.0000000000000000e+00" cType="1" res="7.7039999887347221e-03" rms="4.6799665689468384e-01" purity="5.0869953632354736e-01" nType="-99"/>
        </Node>
      </Node>
    </BinaryTree>
    <BinaryTree type="DecisionTree" boostWeight="1.0000000000000000e+00" itree="961">
      <Node pos="s" depth="0" NCoef="0" IVar="5" Cut="5.2947405725717545e-02" cType="1" res="1.7268155934289098e-03" rms="4.8823016881942749e-01" purity="5.0093352794647217e-01" nType="0">
        <Node pos="l" depth="1" NCoef="0" IVar="0" Cut="9.2668752670288086e+00" cType="1" res="3.5647517070174217e-03" rms="4.8877310752868652e-01" purity="5.0176805257797241e-01" nType="0">
          <Node pos="l" depth="2" NCoef="0" IVar="-1" Cut="0.0000000000000000e+00" cType="1" res="-5.7775458117248490e-05" rms="4.9223271012306213e-01" purity="4.9920487403869629e-01" nType="-99"/>
          <Node pos="r" depth="2" NCoef="0" IVar="-1" Cut="0.0000000000000000e+00" cType="1" res="2.8922921046614647e-03" rms="4.8135331273078918e-01" purity="5.0712674856185913e-01" nType="-99"/>
        </Node>
        <Node pos="r" depth="1" NCoef="0" IVar="2" Cut="2.0000000000000000e+00" cType="1" res="1.4632940292358398e-04" rms="8.5669428110122681e-02" purity="4.9505740404129028e-01" nType="0">
          <Node pos="l" depth="2" NCoef="0" IVar="-1" Cut="0.0000000000000000e+00" cType="1" res="-2.9647762421518564e-03" rms="4.8345392942428589e-01" purity="4.9395003914833069e-01" nType="-99"/>
          <Node pos="r" depth="2" NCoef="0" IVar="-1" Cut="0.0000000000000000e+00" cType="1" res="5.6449871044605970e-04" rms="4.8535659909248352e-01" purity="4.9729093909263611e-01" nType="-99"/>
        </Node>
      </Node>
    </BinaryTree>
    <BinaryTree type="DecisionTree" boostWeight="1.0000000000000000e+00" itree="962">
      <Node pos="s" depth="0" NCoef="0" IVar="0" Cut="8.2618141174316406e+00" cType="1" res="-1.7161996802315116e-03" rms="4.8822313547134399e-01" purity="4.9794909358024597e-01" nType="0">
        <Node pos="l" depth="1" NCoef="0" IVar="-1" Cut="0.0000000000000000e+00" cType="1" res="2.2605068515986204e-03" rms="4.9753490090370178e-01" purity="5.1194143295288086e-01" nType="-99"/>
        <Node pos="r" depth="1" NCoef="0" IVar="1" Cut="2.0000000000000000e+00" cType="1" res="-4.0248646400868893e-03" rms="4.5339891314506531e-01" purity="4.9686387181282043e-01" nType="0">
          <Node pos="l" depth="2" NCoef="0" IVar="-1" Cut="0.0000000000000000e+00" cType="1" res="-2.1655180025845766e-03" rms="4.8737516999244690e-01" purity="4.8844611644744873e-01" nType="-99"/>
          <Node pos="r" depth="2" NCoef="0" IVar="-1" Cut="0.0000000000000000e+00" cType="1" res="5.3139148803893477e-05" rms="4.8740932345390320e-01" purity="5.0027799606323242e-01" nType="-99"/>
        </Node>
      </Node>
    </BinaryTree>
    <BinaryTree type="DecisionTree" boostWeight="1.0000000000000000e+00" itree="963">
      <Node pos="s" depth="0" NCoef="0" IVar="0" Cut="9.7978286743164062e+00" cType="1" res="1.1762966169044375e-03" rms="4.8779606819152832e-01" purity="5.0120776891708374e-01" nType="0">
        <Node pos="l" depth="1" NCoef="0" IVar="4" Cut="-7.9909282922744751e-01" cType="1" res="2.4338981602340937e-03" rms="4.8880895972251892e-01" purity="5.0272721052169800e-01" nType="0">
          <Node pos="l" depth="2" NCoef="0" IVar="-1" Cut="0.0000000000000000e+00" cType="1" res="-1.8961224704980850e-03" rms="4.8413664102554321e-01" purity="4.5721310377120972e-01" nType="-99"/>
          <Node pos="r" depth="2" NCoef="0" IVar="-1" Cut="0.0000000000000000e+00" cType="1" res="7.4522028444334865e-04" rms="4.8957344889640808e-01" purity="5.1061248779296875e-01" nType="-99"/>
        </Node>
        <Node pos="r" depth="1" NCoef="0" IVar="3" Cut="-7.0749819278717041e-01" cType="1" res="-2.0049123093485832e-02" rms="4.6986392140388489e-01" purity="4.7556200623512268e-01" nType="0">
          <Node pos="l" depth="2" NCoef="0" IVar="-1" Cut="0.0000000000000000e+00" cType="1" res="-1.1587684974074364e-02" rms="4.6312844753265381e-01" purity="3.3818411827087402e-01" nType="-99"/>
          <Node pos="r" depth="2" NCoef="0" IVar="-1" Cut="0.0000000000000000e+00" cType="1" res="-2.2796108387410641e-03" rms="4.7561183571815491e-01" purity="6.0241407155990601e-01" nType="-99"/>
        </Node>
      </Node>
    </BinaryTree>
    <BinaryTree type="DecisionTree" boostWeight="1.0000000000000000e+00" itree="964">
      <Node pos="s" depth="0" NCoef="0" IVar="0" Cut="9.7633037567138672e+00" cType="1" res="-2.3136716336011887e-03" rms="4.8776033520698547e-01" purity="4.9710467457771301e-01" nType="0">
        <Node pos="l" depth="1" NCoef="0" IVar="5" Cut="-7.8418982028961182e-01" cType="1" res="-3.5357167944312096e-03" rms="4.8887813091278076e-01" purity="4.9657720327377319e-01" nType="0">
          <Node pos="l" depth="2" NCoef="0" IVar="-1" Cut="0.0000000000000000e+00" cType="1" res="2.5118438061326742e-03" rms="4.8396474123001099e-01" purity="5.1164853572845459e-01" nType="-99"/>
          <Node pos="r" depth="2" NCoef="0" IVar="-1" Cut="0.0000000000000000e+00" cType="1" res="-7.1020441828295588e-04" rms="4.8915651440620422e-01" purity="4.9564930796623230e-01" nType="-99"/>
        </Node>
        <Node pos="r" depth="1" NCoef="0" IVar="3" Cut="8.0207538604736328e-01" cType="1" res="1.5864299610257149e-02" rms="4.7044548392295837e-01" purity="5.0495129823684692e-01" nType="0">
          <Node pos="l" depth="2" NCoef="0" IVar="-1" Cut="0.0000000000000000e+00" cType="1" res="1.5248823910951614e-03" rms="4.7660818696022034e-01" purity="3.9439243078231812e-01" nType="-99"/>
          <Node pos="r" depth="2" NCoef="0" IVar="-1" Cut="0.0000000000000000e+00" cType="1" res="1.0576733388006687e-02" rms="4.6079650521278381e-01" purity="6.6680616140365601e-01" nType="-99"/>
        </Node>
      </Node>
    </BinaryTree>
    <BinaryTree type="DecisionTree" boostWeight="1.0000000000000000e+00" itree="965">
      <Node pos="s" depth="0" NCoef="0" IVar="4" Cut="7.9617953300476074e-01" cType="1" res="-1.3989904255140573e-04" rms="4.8858037590980530e-01" purity="4.9896508455276489e-01" nType="0">
        <Node pos="l" depth="1" NCoef="0" IVar="5" Cut="-7.7940338850021362e-01" cType="1" res="1.2374434154480696e-03" rms="4.8916468024253845e-01" purity="4.9420124292373657e-01" nType="0">
          <Node pos="l" depth="2" NCoef="0" IVar="-1" Cut="0.0000000000000000e+00" cType="1" res="4.8049148172140121e-03" rms="4.8802328109741211e-01" purity="4.9913945794105530e-01" nType="-99"/>
          <Node pos="r" depth="2" NCoef="0" IVar="-1" Cut="0.0000000000000000e+00" cType="1" res="2.8760257919202559e-05" rms="4.8917636275291443e-01" purity="4.9401503801345825e-01" nType="-99"/>
        </Node>
        <Node pos="r" depth="1" NCoef="0" IVar="3" Cut="-8.9534723758697510e-01" cType="1" res="-7.5513948686420918e-03" rms="4.8535692691802979e-01" purity="5.2459919452667236e-01" nType="0">
          <Node pos="l" depth="2" NCoef="0" IVar="-1" Cut="0.0000000000000000e+00" cType="1" res="1.0065879905596375e-03" rms="4.8792752623558044e-01" purity="4.1866126656532288e-01" nType="-99"/>
          <Node pos="r" depth="2" NCoef="0" IVar="-1" Cut="0.0000000000000000e+00" cType="1" res="-2.4527923669666052e-03" rms="4.8382994532585144e-01" purity="5.8112901449203491e-01" nType="-99"/>
        </Node>
      </Node>
    </BinaryTree>
    <BinaryTree type="DecisionTree" boostWeight="1.0000000000000000e+00" itree="966">
      <Node pos="s" depth="0" NCoef="0" IVar="4" Cut="7.9262882471084595e-01" cType="1" res="-1.3335486873984337e-03" rms="4.8831960558891296e-01" purity="4.9826961755752563e-01" nType="0">
        <Node pos="l" depth="1" NCoef="0" IVar="3" Cut="8.0284202098846436e-01" cType="1" res="5.1794422324746847e-04" rms="4.8958721756935120e-01" purity="4.9390187859535217e-01" nType="0">
          <Node pos="l" depth="2" NCoef="0" IVar="-1" Cut="0.0000000000000000e+00" cType="1" res="7.3073251405730844e-04" rms="4.9083775281906128e-01" purity="4.4781652092933655e-01" nType="-99"/>
          <Node pos="r" depth="2" NCoef="0" IVar="-1" Cut="0.0000000000000000e+00" cType="1" res="-1.0875407606363297e-03" rms="4.8731473088264465e-01" purity="5.7426261901855469e-01" nType="-99"/>
        </Node>
        <Node pos="r" depth="1" NCoef="0" IVar="1" Cut="3.0000000000000000e+00" cType="1" res="-4.5476225204765797e-03" rms="2.9458618164062500e-01" purity="5.2030426263809204e-01" nType="0">
          <Node pos="l" depth="2" NCoef="0" IVar="-1" Cut="0.0000000000000000e+00" cType="1" res="-5.1693338900804520e-03" rms="4.7951126098632812e-01" purity="4.9813097715377808e-01" nType="-99"/>
          <Node pos="r" depth="2" NCoef="0" IVar="-1" Cut="0.0000000000000000e+00" cType="1" res="1.1055109789595008e-03" rms="4.8295760154724121e-01" purity="5.3865861892700195e-01" nType="-99"/>
        </Node>
      </Node>
    </BinaryTree>
    <BinaryTree type="DecisionTree" boostWeight="1.0000000000000000e+00" itree="967">
      <Node pos="s" depth="0" NCoef="0" IVar="3" Cut="8.9726012945175171e-01" cType="1" res="-5.4817303316667676e-04" rms="4.8764938116073608e-01" purity="4.9848264455795288e-01" nType="0">
        <Node pos="l" depth="1" NCoef="0" IVar="0" Cut="8.4380779266357422e+00" cType="1" res="-2.4942264426499605e-03" rms="4.9180263280868530e-01" purity="4.6577742695808411e-01" nType="0">
          <Node pos="l" depth="2" NCoef="0" IVar="-1" Cut="0.0000000000000000e+00" cType="1" res="1.9230437465012074e-03" rms="4.9786967039108276e-01" purity="5.1120340824127197e-01" nType="-99"/>
          <Node pos="r" depth="2" NCoef="0" IVar="-1" Cut="0.0000000000000000e+00" cType="1" res="-9.8045368213206530e-04" rms="4.9076625704765320e-01" purity="4.5869746804237366e-01" nType="-99"/>
        </Node>
        <Node pos="r" depth="1" NCoef="0" IVar="4" Cut="4.5231714844703674e-02" cType="1" res="8.7160468101501465e-03" rms="4.6726083755493164e-01" purity="6.5417635440826416e-01" nType="0">
          <Node pos="l" depth="2" NCoef="0" IVar="-1" Cut="0.0000000000000000e+00" cType="1" res="1.0380294406786561e-04" rms="4.7579696774482727e-01" purity="6.2648445367813110e-01" nType="-99"/>
          <Node pos="r" depth="2" NCoef="0" IVar="-1" Cut="0.0000000000000000e+00" cType="1" res="5.0769313238561153e-03" rms="4.4815617799758911e-01" purity="7.1283173561096191e-01" nType="-99"/>
        </Node>
      </Node>
    </BinaryTree>
    <BinaryTree type="DecisionTree" boostWeight="1.0000000000000000e+00" itree="968">
      <Node pos="s" depth="0" NCoef="0" IVar="1" Cut="3.0000000000000000e+00" cType="1" res="9.1044476721435785e-04" rms="1.8166898190975189e-01" purity="4.9563544988632202e-01" nType="0">
        <Node pos="l" depth="1" NCoef="0" IVar="4" Cut="4.5231714844703674e-02" cType="1" res="-6.3707916997373104e-03" rms="4.8917365074157715e-01" purity="4.9154496192932129e-01" nType="0">
          <Node pos="l" depth="2" NCoef="0" IVar="-1" Cut="0.0000000000000000e+00" cType="1" res="-1.6508584376424551e-03" rms="4.9078407883644104e-01" purity="4.8151934146881104e-01" nType="-99"/>
          <Node pos="r" depth="2" NCoef="0" IVar="-1" Cut="0.0000000000000000e+00" cType="1" res="1.0069565614685416e-03" rms="4.8406624794006348e-01" purity="5.2176529169082642e-01" nType="-99"/>
        </Node>
        <Node pos="r" depth="1" NCoef="0" IVar="0" Cut="8.5890169143676758e+00" cType="1" res="2.3876505438238382e-03" rms="4.8621061444282532e-01" purity="5.0323003530502319e-01" nType="0">
          <Node pos="l" depth="2" NCoef="0" IVar="-1" Cut="0.0000000000000000e+00" cType="1" res="3.2722528558224440e-03" rms="4.9027320742607117e-01" purity="5.3664839267730713e-01" nType="-99"/>
          <Node pos="r" depth="2" NCoef="0" IVar="-1" Cut="0.0000000000000000e+00" cType="1" res="-6.8064947845414281e-04" rms="4.8511001467704773e-01" purity="4.9597904086112976e-01" nType="-99"/>
        </Node>
      </Node>
    </BinaryTree>
    <BinaryTree type="DecisionTree" boostWeight="1.0000000000000000e+00" itree="969">
      <Node pos="s" depth="0" NCoef="0" IVar="0" Cut="8.1768674850463867e+00" cType="1" res="1.2416784884408116e-03" rms="4.8845669627189636e-01" purity="4.9980056285858154e-01" nType="0">
        <Node pos="l" depth="1" NCoef="0" IVar="-1" Cut="0.0000000000000000e+00" cType="1" res="-2.4438844993710518e-03" rms="4.9814146757125854e-01" purity="4.6610611677169800e-01" nType="-99"/>
        <Node pos="r" depth="1" NCoef="0" IVar="4" Cut="8.9251756668090820e-01" cType="1" res="2.6908689178526402e-03" rms="4.8787167668342590e-01" purity="5.0167417526245117e-01" nType="0">
          <Node pos="l" depth="2" NCoef="0" IVar="-1" Cut="0.0000000000000000e+00" cType="1" res="2.8327314066700637e-04" rms="4.8841863870620728e-01" purity="4.9895820021629333e-01" nType="-99"/>
          <Node pos="r" depth="2" NCoef="0" IVar="-1" Cut="0.0000000000000000e+00" cType="1" res="5.2306097932159901e-03" rms="4.7305697202682495e-01" purity="5.7094687223434448e-01" nType="-99"/>
        </Node>
      </Node>
    </BinaryTree>
    <BinaryTree type="DecisionTree" boostWeight="1.0000000000000000e+00" itree="970">
      <Node pos="s" depth="0" NCoef="0" IVar="3" Cut="-8.0165529251098633e-01" cType="1" res="7.2081573307514191e-04" rms="4.8880180716514587e-01" purity="5.0001204013824463e-01" nType="0">
        <Node pos="l" depth="1" NCoef="0" IVar="5" Cut="-7.8039860725402832e-01" cType="1" res="9.5942439511418343e-03" rms="4.8579344153404236e-01" purity="4.1625890135765076e-01" nType="0">
          <Node pos="l" depth="2" NCoef="0" IVar="-1" Cut="0.0000000000000000e+00" cType="1" res="-3.2931752502918243e-03" rms="4.7711840271949768e-01" purity="3.7105941772460938e-01" nType="-99"/>
          <Node pos="r" depth="2" NCoef="0" IVar="-1" Cut="0.0000000000000000e+00" cType="1" res="1.9736862741410732e-03" rms="4.8643055558204651e-01" purity="4.2001342773437500e-01" nType="-99"/>
        </Node>
        <Node pos="r" depth="1" NCoef="0" IVar="1" Cut="2.0000000000000000e+00" cType="1" res="-1.0140498634427786e-03" rms="1.1902783811092377e-01" purity="5.4846340417861938e-01" nType="0">
          <Node pos="l" depth="2" NCoef="0" IVar="-1" Cut="0.0000000000000000e+00" cType="1" res="9.0057338820770383e-04" rms="4.9037367105484009e-01" purity="5.5318224430084229e-01" nType="-99"/>
          <Node pos="r" depth="2" NCoef="0" IVar="-1" Cut="0.0000000000000000e+00" cType="1" res="-1.4110440388321877e-03" rms="4.9042922258377075e-01" purity="5.4629111289978027e-01" nType="-99"/>
        </Node>
      </Node>
    </BinaryTree>
    <BinaryTree type="DecisionTree" boostWeight="1.0000000000000000e+00" itree="971">
      <Node pos="s" depth="0" NCoef="0" IVar="2" Cut="2.0000000000000000e+00" cType="1" res="-1.6841357864905149e-04" rms="3.0971169471740723e-02" purity="4.9945247173309326e-01" nType="0">
        <Node pos="l" depth="1" NCoef="0" IVar="0" Cut="8.8991365432739258e+00" cType="1" res="5.9851454570889473e-03" rms="4.8603454232215881e-01" purity="5.0458383560180664e-01" nType="0">
          <Node pos="l" depth="2" NCoef="0" IVar="-1" Cut="0.0000000000000000e+00" cType="1" res="1.8521508900448680e-03" rms="4.8972076177597046e-01" purity="5.2026176452636719e-01" nType="-99"/>
          <Node pos="r" depth="2" NCoef="0" IVar="-1" Cut="0.0000000000000000e+00" cType="1" res="2.7079353458248079e-05" rms="4.8380675911903381e-01" purity="4.9557459354400635e-01" nType="-99"/>
        </Node>
        <Node pos="r" depth="1" NCoef="0" IVar="0" Cut="8.4306058883666992e+00" cType="1" res="-6.7650098353624344e-03" rms="4.9002176523208618e-01" purity="4.9242526292800903e-01" nType="0">
          <Node pos="l" depth="2" NCoef="0" IVar="-1" Cut="0.0000000000000000e+00" cType="1" res="-3.4187023993581533e-03" rms="4.9639850854873657e-01" purity="4.6305370330810547e-01" nType="-99"/>
          <Node pos="r" depth="2" NCoef="0" IVar="-1" Cut="0.0000000000000000e+00" cType="1" res="-6.4542051404714584e-04" rms="4.8906871676445007e-01" purity="4.9637299776077271e-01" nType="-99"/>
        </Node>
      </Node>
    </BinaryTree>
    <BinaryTree type="DecisionTree" boostWeight="1.0000000000000000e+00" itree="972">
      <Node pos="s" depth="0" NCoef="0" IVar="4" Cut="4.7278948128223419e-02" cType="1" res="-3.0841215047985315e-03" rms="4.8814001679420471e-01" purity="4.9630412459373474e-01" nType="0">
        <Node pos="l" depth="1" NCoef="0" IVar="0" Cut="8.9042701721191406e+00" cType="1" res="-5.9424471110105515e-03" rms="4.8912867903709412e-01" purity="4.8487621545791626e-01" nType="0">
          <Node pos="l" depth="2" NCoef="0" IVar="-1" Cut="0.0000000000000000e+00" cType="1" res="-1.2455824617063627e-05" rms="4.9418267607688904e-01" purity="4.9370366334915161e-01" nType="-99"/>
          <Node pos="r" depth="2" NCoef="0" IVar="-1" Cut="0.0000000000000000e+00" cType="1" res="-1.9188765436410904e-03" rms="4.8595741391181946e-01" purity="4.7944360971450806e-01" nType="-99"/>
        </Node>
        <Node pos="r" depth="1" NCoef="0" IVar="4" Cut="8.2047903537750244e-01" cType="1" res="4.1555101051926613e-03" rms="4.8555162549018860e-01" purity="5.2524918317794800e-01" nType="0">
          <Node pos="l" depth="2" NCoef="0" IVar="-1" Cut="0.0000000000000000e+00" cType="1" res="1.9324617460370064e-03" rms="4.8833256959915161e-01" purity="5.2276945114135742e-01" nType="-99"/>
          <Node pos="r" depth="2" NCoef="0" IVar="-1" Cut="0.0000000000000000e+00" cType="1" res="-1.2723865220323205e-03" rms="4.8147132992744446e-01" purity="5.2864891290664673e-01" nType="-99"/>
        </Node>
      </Node>
    </BinaryTree>
    <BinaryTree type="DecisionTree" boostWeight="1.0000000000000000e+00" itree="973">
      <Node pos="s" depth="0" NCoef="0" IVar="0" Cut="9.1424016952514648e+00" cType="1" res="7.3527009226381779e-03" rms="4.8836457729339600e-01" purity="5.0582140684127808e-01" nType="0">
        <Node pos="l" depth="1" NCoef="0" IVar="4" Cut="-7.0042198896408081e-01" cType="1" res="1.2281616218388081e-02" rms="4.9178212881088257e-01" purity="5.1093214750289917e-01" nType="0">
          <Node pos="l" depth="2" NCoef="0" IVar="-1" Cut="0.0000000000000000e+00" cType="1" res="3.2812505960464478e-03" rms="4.8955976963043213e-01" purity="4.9850884079933167e-01" nType="-99"/>
          <Node pos="r" depth="2" NCoef="0" IVar="-1" Cut="0.0000000000000000e+00" cType="1" res="9.7022013505920768e-04" rms="4.9251988530158997e-01" purity="5.1554965972900391e-01" nType="-99"/>
        </Node>
        <Node pos="r" depth="1" NCoef="0" IVar="3" Cut="-7.0772588253021240e-01" cType="1" res="7.4338755803182721e-04" rms="4.8366513848304749e-01" purity="4.9896821379661560e-01" nType="0">
          <Node pos="l" depth="2" NCoef="0" IVar="-1" Cut="0.0000000000000000e+00" cType="1" res="1.5326776774600148e-03" rms="4.8261180520057678e-01" purity="4.1186457872390747e-01" nType="-99"/>
          <Node pos="r" depth="2" NCoef="0" IVar="-1" Cut="0.0000000000000000e+00" cType="1" res="-1.1294477153569460e-03" rms="4.8461025953292847e-01" purity="5.8287709951400757e-01" nType="-99"/>
        </Node>
      </Node>
    </BinaryTree>
    <BinaryTree type="DecisionTree" boostWeight="1.0000000000000000e+00" itree="974">
      <Node pos="s" depth="0" NCoef="0" IVar="1" Cut="3.0000000000000000e+00" cType="1" res="-1.1173898819833994e-03" rms="2.7100282907485962e-01" purity="5.0076681375503540e-01" nType="0">
        <Node pos="l" depth="1" NCoef="0" IVar="0" Cut="8.8382701873779297e+00" cType="1" res="-2.6534027419984341e-03" rms="4.8884269595146179e-01" purity="4.9551028013229370e-01" nType="0">
          <Node pos="l" depth="2" NCoef="0" IVar="-1" Cut="0.0000000000000000e+00" cType="1" res="-1.0486998362466693e-03" rms="4.9471613764762878e-01" purity="4.9318408966064453e-01" nType="-99"/>
          <Node pos="r" depth="2" NCoef="0" IVar="-1" Cut="0.0000000000000000e+00" cType="1" res="8.5606996435672045e-05" rms="4.8598363995552063e-01" purity="4.9662065505981445e-01" nType="-99"/>
        </Node>
        <Node pos="r" depth="1" NCoef="0" IVar="4" Cut="-7.9779016971588135e-01" cType="1" res="8.3805564790964127e-03" rms="4.8732981085777283e-01" purity="5.1054531335830688e-01" nType="0">
          <Node pos="l" depth="2" NCoef="0" IVar="-1" Cut="0.0000000000000000e+00" cType="1" res="-2.7268065605312586e-03" rms="4.8147577047348022e-01" purity="4.5340311527252197e-01" nType="-99"/>
          <Node pos="r" depth="2" NCoef="0" IVar="-1" Cut="0.0000000000000000e+00" cType="1" res="2.5237665977329016e-03" rms="4.8887792229652405e-01" purity="5.2822768688201904e-01" nType="-99"/>
        </Node>
      </Node>
    </BinaryTree>
    <BinaryTree type="DecisionTree" boostWeight="1.0000000000000000e+00" itree="975">
      <Node pos="s" depth="0" NCoef="0" IVar="4" Cut="-7.9762107133865356e-01" cType="1" res="-1.3439652684610337e-04" rms="4.8835715651512146e-01" purity="5.0017124414443970e-01" nType="0">
        <Node pos="l" depth="1" NCoef="0" IVar="3" Cut="7.9969769716262817e-01" cType="1" res="-1.4464037492871284e-02" rms="4.7879466414451599e-01" purity="4.5318377017974854e-01" nType="0">
          <Node pos="l" depth="2" NCoef="0" IVar="-1" Cut="0.0000000000000000e+00" cType="1" res="-5.2177482284605503e-03" rms="4.6007987856864929e-01" purity="3.1644165515899658e-01" nType="-99"/>
          <Node pos="r" depth="2" NCoef="0" IVar="-1" Cut="0.0000000000000000e+00" cType="1" res="-4.3122647912241518e-04" rms="4.9165424704551697e-01" purity="5.5290734767913818e-01" nType="-99"/>
        </Node>
        <Node pos="r" depth="1" NCoef="0" IVar="3" Cut="8.0266124010086060e-01" cType="1" res="2.3974936921149492e-03" rms="4.8998376727104187e-01" purity="5.0847339630126953e-01" nType="0">
          <Node pos="l" depth="2" NCoef="0" IVar="-1" Cut="0.0000000000000000e+00" cType="1" res="9.6969836158677936e-04" rms="4.9287059903144836e-01" purity="4.6233451366424561e-01" nType="-99"/>
          <Node pos="r" depth="2" NCoef="0" IVar="-1" Cut="0.0000000000000000e+00" cType="1" res="-9.2623359523713589e-04" rms="4.8426070809364319e-01" purity="5.9759926795959473e-01" nType="-99"/>
        </Node>
      </Node>
    </BinaryTree>
    <BinaryTree type="DecisionTree" boostWeight="1.0000000000000000e+00" itree="976">
      <Node pos="s" depth="0" NCoef="0" IVar="5" Cut="5.0353828817605972e-02" cType="1" res="1.0049266165879089e-05" rms="4.8799324035644531e-01" purity="4.9971002340316772e-01" nType="0">
        <Node pos="l" depth="1" NCoef="0" IVar="4" Cut="-7.0149362087249756e-01" cType="1" res="2.6123803108930588e-03" rms="4.8811200261116028e-01" purity="5.0137752294540405e-01" nType="0">
          <Node pos="l" depth="2" NCoef="0" IVar="-1" Cut="0.0000000000000000e+00" cType="1" res="2.1383897401392460e-03" rms="4.8545306921005249e-01" purity="4.8649430274963379e-01" nType="-99"/>
          <Node pos="r" depth="2" NCoef="0" IVar="-1" Cut="0.0000000000000000e+00" cType="1" res="-7.8623641456943005e-05" rms="4.8886692523956299e-01" purity="5.0585860013961792e-01" nType="-99"/>
        </Node>
        <Node pos="r" depth="1" NCoef="0" IVar="5" Cut="7.8074955940246582e-01" cType="1" res="-1.8245676532387733e-02" rms="4.8676833510398865e-01" purity="4.8801207542419434e-01" nType="0">
          <Node pos="l" depth="2" NCoef="0" IVar="-1" Cut="0.0000000000000000e+00" cType="1" res="-4.9827815964818001e-03" rms="4.8526605963706970e-01" purity="4.6124595403671265e-01" nType="-99"/>
          <Node pos="r" depth="2" NCoef="0" IVar="-1" Cut="0.0000000000000000e+00" cType="1" res="-5.9196370420977473e-04" rms="4.8788335919380188e-01" purity="5.1562017202377319e-01" nType="-99"/>
        </Node>
      </Node>
    </BinaryTree>
    <BinaryTree type="DecisionTree" boostWeight="1.0000000000000000e+00" itree="977">
      <Node pos="s" depth="0" NCoef="0" IVar="0" Cut="9.0421190261840820e+00" cType="1" res="2.9714142438024282e-03" rms="4.8767074942588806e-01" purity="5.0195544958114624e-01" nType="0">
        <Node pos="l" depth="1" NCoef="0" IVar="0" Cut="8.9190959930419922e+00" cType="1" res="8.5904905572533607e-03" rms="4.9177205562591553e-01" purity="5.0901407003402710e-01" nType="0">
          <Node pos="l" depth="2" NCoef="0" IVar="-1" Cut="0.0000000000000000e+00" cType="1" res="5.3519266657531261e-04" rms="4.9259105324745178e-01" purity="5.0683546066284180e-01" nType="-99"/>
          <Node pos="r" depth="2" NCoef="0" IVar="-1" Cut="0.0000000000000000e+00" cType="1" res="3.7150373682379723e-03" rms="4.8830652236938477e-01" purity="5.1737254858016968e-01" nType="-99"/>
        </Node>
        <Node pos="r" depth="1" NCoef="0" IVar="4" Cut="8.8611847162246704e-01" cType="1" res="-2.1939978469163179e-03" rms="4.8381233215332031e-01" purity="4.9546673893928528e-01" nType="0">
          <Node pos="l" depth="2" NCoef="0" IVar="-1" Cut="0.0000000000000000e+00" cType="1" res="-7.5513770570978522e-04" rms="4.8404088616371155e-01" purity="4.9202316999435425e-01" nType="-99"/>
          <Node pos="r" depth="2" NCoef="0" IVar="-1" Cut="0.0000000000000000e+00" cType="1" res="5.4272469133138657e-03" rms="4.7900557518005371e-01" purity="5.5809307098388672e-01" nType="-99"/>
        </Node>
      </Node>
    </BinaryTree>
    <BinaryTree type="DecisionTree" boostWeight="1.0000000000000000e+00" itree="978">
      <Node pos="s" depth="0" NCoef="0" IVar="4" Cut="-7.0490694046020508e-01" cType="1" res="1.5856029931455851e-03" rms="4.8814275860786438e-01" purity="5.0121092796325684e-01" nType="0">
        <Node pos="l" depth="1" NCoef="0" IVar="1" Cut="2.0000000000000000e+00" cType="1" res="1.4941463014110923e-03" rms="2.3946626484394073e-01" purity="4.8118704557418823e-01" nType="0">
          <Node pos="l" depth="2" NCoef="0" IVar="-1" Cut="0.0000000000000000e+00" cType="1" res="4.0372777730226517e-03" rms="4.8656907677650452e-01" purity="5.1050156354904175e-01" nType="-99"/>
          <Node pos="r" depth="2" NCoef="0" IVar="-1" Cut="0.0000000000000000e+00" cType="1" res="5.1697262097150087e-04" rms="4.8497340083122253e-01" purity="4.7555288672447205e-01" nType="-99"/>
        </Node>
        <Node pos="r" depth="1" NCoef="0" IVar="5" Cut="5.0952039659023285e-02" cType="1" res="-4.1348900413140655e-04" rms="4.8918724060058594e-01" purity="5.0872063636779785e-01" nType="0">
          <Node pos="l" depth="2" NCoef="0" IVar="-1" Cut="0.0000000000000000e+00" cType="1" res="2.3567122116219252e-04" rms="4.8905178904533386e-01" purity="5.0866943597793579e-01" nType="-99"/>
          <Node pos="r" depth="2" NCoef="0" IVar="-1" Cut="0.0000000000000000e+00" cType="1" res="-3.5488081630319357e-03" rms="4.9019980430603027e-01" purity="5.0930398702621460e-01" nType="-99"/>
        </Node>
      </Node>
    </BinaryTree>
    <BinaryTree type="DecisionTree" boostWeight="1.0000000000000000e+00" itree="979">
      <Node pos="s" depth="0" NCoef="0" IVar="5" Cut="4.8646334558725357e-02" cType="1" res="-3.4436867572367191e-03" rms="4.8790305852890015e-01" purity="4.9702185392379761e-01" nType="0">
        <Node pos="l" depth="1" NCoef="0" IVar="5" Cut="-7.3866909742355347e-01" cType="1" res="-5.0856303423643112e-03" rms="4.8831447958946228e-01" purity="4.9486804008483887e-01" nType="0">
          <Node pos="l" depth="2" NCoef="0" IVar="-1" Cut="0.0000000000000000e+00" cType="1" res="-3.2921903766691685e-03" rms="4.8444724082946777e-01" purity="4.7822827100753784e-01" nType="-99"/>
          <Node pos="r" depth="2" NCoef="0" IVar="-1" Cut="0.0000000000000000e+00" cType="1" res="-5.0052499864250422e-04" rms="4.8879083991050720e-01" purity="4.9706739187240601e-01" nType="-99"/>
        </Node>
        <Node pos="r" depth="1" NCoef="0" IVar="1" Cut="4.0000000000000000e+00" cType="1" res="2.9558800160884857e-03" rms="2.7093407511711121e-01" purity="5.1229107379913330e-01" nType="0">
          <Node pos="l" depth="2" NCoef="0" IVar="-1" Cut="0.0000000000000000e+00" cType="1" res="2.9679180588573217e-03" rms="4.8499381542205811e-01" purity="5.1872152090072632e-01" nType="-99"/>
          <Node pos="r" depth="2" NCoef="0" IVar="-1" Cut="0.0000000000000000e+00" cType="1" res="-2.1724700927734375e-03" rms="4.8377805948257446e-01" purity="4.9967977404594421e-01" nType="-99"/>
        </Node>
      </Node>
    </BinaryTree>
    <BinaryTree type="DecisionTree" boostWeight="1.0000000000000000e+00" itree="980">
      <Node pos="s" depth="0" NCoef="0" IVar="0" Cut="8.2430858612060547e+00" cType="1" res="6.6424231044948101e-03" rms="4.8821154236793518e-01" purity="5.0611329078674316e-01" nType="0">
        <Node pos="l" depth="1" NCoef="0" IVar="-1" Cut="0.0000000000000000e+00" cType="1" res="-1.9135045586153865e-03" rms="4.9788683652877808e-01" purity="4.7026607394218445e-01" nType="-99"/>
        <Node pos="r" depth="1" NCoef="0" IVar="5" Cut="7.9097390174865723e-01" cType="1" res="8.5277333855628967e-03" rms="4.8747327923774719e-01" purity="5.0861501693725586e-01" nType="0">
          <Node pos="l" depth="2" NCoef="0" IVar="-1" Cut="0.0000000000000000e+00" cType="1" res="1.6422278713434935e-03" rms="4.8765203356742859e-01" purity="5.0899815559387207e-01" nType="-99"/>
          <Node pos="r" depth="2" NCoef="0" IVar="-1" Cut="0.0000000000000000e+00" cType="1" res="-2.4008722975850105e-03" rms="4.8389112949371338e-01" purity="5.0220888853073120e-01" nType="-99"/>
        </Node>
      </Node>
    </BinaryTree>
    <BinaryTree type="DecisionTree" boostWeight="1.0000000000000000e+00" itree="981">
      <Node pos="s" depth="0" NCoef="0" IVar="3" Cut="-8.9632368087768555e-01" cType="1" res="1.7456481000408530e-03" rms="4.8712909221649170e-01" purity="5.0157320499420166e-01" nType="0">
        <Node pos="l" depth="1" NCoef="0" IVar="1" Cut="4.0000000000000000e+00" cType="1" res="-4.1766935028135777e-03" rms="2.7323719859123230e-01" purity="3.4143045544624329e-01" nType="0">
          <Node pos="l" depth="2" NCoef="0" IVar="-1" Cut="0.0000000000000000e+00" cType="1" res="-2.9524408746510744e-03" rms="4.6146914362907410e-01" purity="3.2938101887702942e-01" nType="-99"/>
          <Node pos="r" depth="2" NCoef="0" IVar="-1" Cut="0.0000000000000000e+00" cType="1" res="1.5530770178884268e-03" rms="4.8204475641250610e-01" purity="3.8990998268127441e-01" nType="-99"/>
        </Node>
        <Node pos="r" depth="1" NCoef="0" IVar="0" Cut="8.2430858612060547e+00" cType="1" res="4.4373408891260624e-03" rms="4.9132123589515686e-01" purity="5.3414744138717651e-01" nType="0">
          <Node pos="l" depth="2" NCoef="0" IVar="-1" Cut="0.0000000000000000e+00" cType="1" res="-1.5810428885743022e-03" rms="4.9725297093391418e-01" purity="4.8304501175880432e-01" nType="-99"/>
          <Node pos="r" depth="2" NCoef="0" IVar="-1" Cut="0.0000000000000000e+00" cType="1" res="9.8220899235457182e-04" rms="4.9082502722740173e-01" purity="5.3808218240737915e-01" nType="-99"/>
        </Node>
      </Node>
    </BinaryTree>
    <BinaryTree type="DecisionTree" boostWeight="1.0000000000000000e+00" itree="982">
      <Node pos="s" depth="0" NCoef="0" IVar="4" Cut="-8.9281696081161499e-01" cType="1" res="-4.1723302565515041e-03" rms="4.8857456445693970e-01" purity="4.9574601650238037e-01" nType="0">
        <Node pos="l" depth="1" NCoef="0" IVar="-1" Cut="0.0000000000000000e+00" cType="1" res="-5.9753376990556717e-03" rms="4.7234183549880981e-01" purity="4.2068696022033691e-01" nType="-99"/>
        <Node pos="r" depth="1" NCoef="0" IVar="5" Cut="-7.8326958417892456e-01" cType="1" res="-3.2088567968457937e-03" rms="4.8911085724830627e-01" purity="4.9839994311332703e-01" nType="0">
          <Node pos="l" depth="2" NCoef="0" IVar="-1" Cut="0.0000000000000000e+00" cType="1" res="3.5588997416198254e-03" rms="4.8797819018363953e-01" purity="5.2517163753509521e-01" nType="-99"/>
          <Node pos="r" depth="2" NCoef="0" IVar="-1" Cut="0.0000000000000000e+00" cType="1" res="-7.1148248389363289e-04" rms="4.8913696408271790e-01" purity="4.9697732925415039e-01" nType="-99"/>
        </Node>
      </Node>
    </BinaryTree>
    <BinaryTree type="DecisionTree" boostWeight="1.0000000000000000e+00" itree="983">
      <Node pos="s" depth="0" NCoef="0" IVar="4" Cut="-7.9641205072402954e-01" cType="1" res="2.8119490016251802e-03" rms="4.8818662762641907e-01" purity="5.0239908695220947e-01" nType="0">
        <Node pos="l" depth="1" NCoef="0" IVar="2" Cut="2.0000000000000000e+00" cType="1" res="-1.0762639576569200e-03" rms="6.9590173661708832e-02" purity="4.8256263136863708e-01" nType="0">
          <Node pos="l" depth="2" NCoef="0" IVar="-1" Cut="0.0000000000000000e+00" cType="1" res="8.7569130118936300e-04" rms="4.8268195986747742e-01" purity="4.7746822237968445e-01" nType="-99"/>
          <Node pos="r" depth="2" NCoef="0" IVar="-1" Cut="0.0000000000000000e+00" cType="1" res="6.1319661326706409e-03" rms="4.8366826772689819e-01" purity="4.9297705292701721e-01" nType="-99"/>
        </Node>
        <Node pos="r" depth="1" NCoef="0" IVar="5" Cut="7.7711248397827148e-01" cType="1" res="5.9938186313956976e-04" rms="4.8906087875366211e-01" purity="5.0602942705154419e-01" nType="0">
          <Node pos="l" depth="2" NCoef="0" IVar="-1" Cut="0.0000000000000000e+00" cType="1" res="3.4105541999451816e-04" rms="4.8908242583274841e-01" purity="5.0604933500289917e-01" nType="-99"/>
          <Node pos="r" depth="2" NCoef="0" IVar="-1" Cut="0.0000000000000000e+00" cType="1" res="-6.4680255018174648e-03" rms="4.8680034279823303e-01" purity="5.0552278757095337e-01" nType="-99"/>
        </Node>
      </Node>
    </BinaryTree>
    <BinaryTree type="DecisionTree" boostWeight="1.0000000000000000e+00" itree="984">
      <Node pos="s" depth="0" NCoef="0" IVar="3" Cut="-8.9547604322433472e-01" cType="1" res="-2.3264463525265455e-03" rms="4.8903819918632507e-01" purity="4.9707064032554626e-01" nType="0">
        <Node pos="l" depth="1" NCoef="0" IVar="3" Cut="-9.2692506313323975e-01" cType="1" res="7.7062286436557770e-03" rms="4.7175580263137817e-01" purity="3.6213633418083191e-01" nType="0">
          <Node pos="l" depth="2" NCoef="0" IVar="-1" Cut="0.0000000000000000e+00" cType="1" res="-6.1811646446585655e-04" rms="4.5524796843528748e-01" purity="3.1302800774574280e-01" nType="-99"/>
          <Node pos="r" depth="2" NCoef="0" IVar="-1" Cut="0.0000000000000000e+00" cType="1" res="3.4183992538601160e-03" rms="4.9180456995964050e-01" purity="4.2522567510604858e-01" nType="-99"/>
        </Node>
        <Node pos="r" depth="1" NCoef="0" IVar="5" Cut="4.3606907129287720e-02" cType="1" res="-4.4574490748345852e-03" rms="4.9260473251342773e-01" purity="5.2573156356811523e-01" nType="0">
          <Node pos="l" depth="2" NCoef="0" IVar="-1" Cut="0.0000000000000000e+00" cType="1" res="-9.4952201470732689e-04" rms="4.9328035116195679e-01" purity="5.2109795808792114e-01" nType="-99"/>
          <Node pos="r" depth="2" NCoef="0" IVar="-1" Cut="0.0000000000000000e+00" cType="1" res="1.5102914767339826e-03" rms="4.8674952983856201e-01" purity="5.6405198574066162e-01" nType="-99"/>
        </Node>
      </Node>
    </BinaryTree>
    <BinaryTree type="DecisionTree" boostWeight="1.0000000000000000e+00" itree="985">
      <Node pos="s" depth="0" NCoef="0" IVar="3" Cut="8.9726012945175171e-01" cType="1" res="6.6365575185045600e-04" rms="4.8707371950149536e-01" purity="5.0077313184738159e-01" nType="0">
        <Node pos="l" depth="1" NCoef="0" IVar="0" Cut="9.1915292739868164e+00" cType="1" res="-2.2632605396211147e-03" rms="4.9149784445762634e-01" purity="4.6724945306777954e-01" nType="0">
          <Node pos="l" depth="2" NCoef="0" IVar="-1" Cut="0.0000000000000000e+00" cType="1" res="3.6892580101266503e-04" rms="4.9459460377693176e-01" purity="4.8165464401245117e-01" nType="-99"/>
          <Node pos="r" depth="2" NCoef="0" IVar="-1" Cut="0.0000000000000000e+00" cType="1" res="-2.4682958610355854e-03" rms="4.8610013723373413e-01" purity="4.4291943311691284e-01" nType="-99"/>
        </Node>
        <Node pos="r" depth="1" NCoef="0" IVar="5" Cut="-6.9326204061508179e-01" cType="1" res="1.4522590674459934e-02" rms="4.6530506014823914e-01" purity="6.5950775146484375e-01" nType="0">
          <Node pos="l" depth="2" NCoef="0" IVar="-1" Cut="0.0000000000000000e+00" cType="1" res="-5.1066896412521601e-04" rms="4.7780850529670715e-01" purity="6.0904759168624878e-01" nType="-99"/>
          <Node pos="r" depth="2" NCoef="0" IVar="-1" Cut="0.0000000000000000e+00" cType="1" res="3.5080327652394772e-03" rms="4.6173688769340515e-01" purity="6.7321956157684326e-01" nType="-99"/>
        </Node>
      </Node>
    </BinaryTree>
    <BinaryTree type="DecisionTree" boostWeight="1.0000000000000000e+00" itree="986">
      <Node pos="s" depth="0" NCoef="0" IVar="4" Cut="-7.0490694046020508e-01" cType="1" res="3.4295392688363791e-03" rms="4.8774459958076477e-01" purity="5.0305294990539551e-01" nType="0">
        <Node pos="l" depth="1" NCoef="0" IVar="4" Cut="-8.3433330059051514e-01" cType="1" res="1.4619288966059685e-02" rms="4.8489761352539062e-01" purity="4.9137777090072632e-01" nType="0">
          <Node pos="l" depth="2" NCoef="0" IVar="-1" Cut="0.0000000000000000e+00" cType="1" res="3.5115069476887584e-04" rms="4.7967755794525146e-01" purity="4.6870598196983337e-01" nType="-99"/>
          <Node pos="r" depth="2" NCoef="0" IVar="-1" Cut="0.0000000000000000e+00" cType="1" res="3.4069325774908066e-03" rms="4.8785993456840515e-01" purity="5.0504845380783081e-01" nType="-99"/>
        </Node>
        <Node pos="r" depth="1" NCoef="0" IVar="3" Cut="8.0070757865905762e-01" cType="1" res="-8.3599751815199852e-04" rms="4.8875805735588074e-01" purity="5.0750350952148438e-01" nType="0">
          <Node pos="l" depth="2" NCoef="0" IVar="-1" Cut="0.0000000000000000e+00" cType="1" res="-8.9548184769228101e-04" rms="4.9315965175628662e-01" purity="4.5175018906593323e-01" nType="-99"/>
          <Node pos="r" depth="2" NCoef="0" IVar="-1" Cut="0.0000000000000000e+00" cType="1" res="1.5663017984479666e-03" rms="4.7970587015151978e-01" purity="6.1860793828964233e-01" nType="-99"/>
        </Node>
      </Node>
    </BinaryTree>
    <BinaryTree type="DecisionTree" boostWeight="1.0000000000000000e+00" itree="987">
      <Node pos="s" depth="0" NCoef="0" IVar="1" Cut="5.0000000000000000e+00" cType="1" res="4.1389177204109728e-04" rms="1.6458709537982941e-01" purity="4.9970442056655884e-01" nType="0">
        <Node pos="l" depth="1" NCoef="0" IVar="0" Cut="9.6910200119018555e+00" cType="1" res="6.6673796391114593e-04" rms="4.8765119910240173e-01" purity="4.9975162744522095e-01" nType="0">
          <Node pos="l" depth="2" NCoef="0" IVar="-1" Cut="0.0000000000000000e+00" cType="1" res="3.2587483292445540e-04" rms="4.8919337987899780e-01" purity="5.0221347808837891e-01" nType="-99"/>
          <Node pos="r" depth="2" NCoef="0" IVar="-1" Cut="0.0000000000000000e+00" cType="1" res="-4.6293842606246471e-03" rms="4.7085484862327576e-01" purity="4.7388148307800293e-01" nType="-99"/>
        </Node>
        <Node pos="r" depth="1" NCoef="0" IVar="-1" Cut="0.0000000000000000e+00" cType="1" res="-3.9418805390596390e-03" rms="4.9055913090705872e-01" purity="4.9874448776245117e-01" nType="-99"/>
      </Node>
    </BinaryTree>
    <BinaryTree type="DecisionTree" boostWeight="1.0000000000000000e+00" itree="988">
      <Node pos="s" depth="0" NCoef="0" IVar="1" Cut="2.0000000000000000e+00" cType="1" res="-3.1696978840045631e-04" rms="1.1709011346101761e-01" purity="4.9733284115791321e-01" nType="0">
        <Node pos="l" depth="1" NCoef="0" IVar="4" Cut="4.5382637530565262e-02" cType="1" res="-7.9358005896210670e-03" rms="4.8953828215599060e-01" purity="4.9245843291282654e-01" nType="0">
          <Node pos="l" depth="2" NCoef="0" IVar="-1" Cut="0.0000000000000000e+00" cType="1" res="-1.8520929152145982e-03" rms="4.9035885930061340e-01" purity="4.8461967706680298e-01" nType="-99"/>
          <Node pos="r" depth="2" NCoef="0" IVar="-1" Cut="0.0000000000000000e+00" cType="1" res="1.9992354791611433e-03" rms="4.8468843102455139e-01" purity="5.3366363048553467e-01" nType="-99"/>
        </Node>
        <Node pos="r" depth="1" NCoef="0" IVar="3" Cut="-8.0094444751739502e-01" cType="1" res="-2.1674296294804662e-04" rms="4.8686566948890686e-01" purity="4.9934065341949463e-01" nType="0">
          <Node pos="l" depth="2" NCoef="0" IVar="-1" Cut="0.0000000000000000e+00" cType="1" res="-1.2516992865130305e-03" rms="4.8408797383308411e-01" purity="4.0248349308967590e-01" nType="-99"/>
          <Node pos="r" depth="2" NCoef="0" IVar="-1" Cut="0.0000000000000000e+00" cType="1" res="7.0239655906334519e-04" rms="4.8856088519096375e-01" purity="5.6074601411819458e-01" nType="-99"/>
        </Node>
      </Node>
    </BinaryTree>
    <BinaryTree type="DecisionTree" boostWeight="1.0000000000000000e+00" itree="989">
      <Node pos="s" depth="0" NCoef="0" IVar="0" Cut="8.5932102203369141e+00" cType="1" res="8.6027389625087380e-04" rms="4.8831135034561157e-01" purity="5.0069981813430786e-01" nType="0">
        <Node pos="l" depth="1" NCoef="0" IVar="3" Cut="-7.0115649700164795e-01" cType="1" res="1.5951950103044510e-02" rms="4.9561503529548645e-01" purity="5.2212661504745483e-01" nType="0">
          <Node pos="l" depth="2" NCoef="0" IVar="-1" Cut="0.0000000000000000e+00" cType="1" res="3.1240049283951521e-03" rms="4.9568495154380798e-01" purity="4.9724984169006348e-01" nType="-99"/>
          <Node pos="r" depth="2" NCoef="0" IVar="-1" Cut="0.0000000000000000e+00" cType="1" res="2.5997232296504080e-04" rms="4.9517974257469177e-01" purity="5.4663270711898804e-01" nType="-99"/>
        </Node>
        <Node pos="r" depth="1" NCoef="0" IVar="0" Cut="8.7233295440673828e+00" cType="1" res="-2.6899718213826418e-03" rms="4.8650923371315002e-01" purity="4.9565929174423218e-01" nType="0">
          <Node pos="l" depth="2" NCoef="0" IVar="-1" Cut="0.0000000000000000e+00" cType="1" res="1.4295217115432024e-03" rms="4.8847907781600952e-01" purity="5.1508796215057373e-01" nType="-99"/>
          <Node pos="r" depth="2" NCoef="0" IVar="-1" Cut="0.0000000000000000e+00" cType="1" res="-7.4608431896194816e-04" rms="4.8631978034973145e-01" purity="4.9399429559707642e-01" nType="-99"/>
        </Node>
      </Node>
    </BinaryTree>
    <BinaryTree type="DecisionTree" boostWeight="1.0000000000000000e+00" itree="990">
      <Node pos="s" depth="0" NCoef="0" IVar="3" Cut="-8.9516377449035645e-01" cType="1" res="1.5400274423882365e-03" rms="4.8833715915679932e-01" purity="5.0024276971817017e-01" nType="0">
        <Node pos="l" depth="1" NCoef="0" IVar="5" Cut="5.6205160915851593e-02" cType="1" res="1.6600832343101501e-02" rms="4.7521200776100159e-01" purity="3.6958312988281250e-01" nType="0">
          <Node pos="l" depth="2" NCoef="0" IVar="-1" Cut="0.0000000000000000e+00" cType="1" res="4.3643401004374027e-03" rms="4.7328460216522217e-01" purity="3.6767730116844177e-01" nType="-99"/>
          <Node pos="r" depth="2" NCoef="0" IVar="-1" Cut="0.0000000000000000e+00" cType="1" res="-1.2210201239213347e-03" rms="4.8113512992858887e-01" purity="3.7622192502021790e-01" nType="-99"/>
        </Node>
        <Node pos="r" depth="1" NCoef="0" IVar="0" Cut="8.2741060256958008e+00" cType="1" res="-1.6344578471034765e-03" rms="4.9099993705749512e-01" purity="5.2778297662734985e-01" nType="0">
          <Node pos="l" depth="2" NCoef="0" IVar="-1" Cut="0.0000000000000000e+00" cType="1" res="-3.1297802925109863e-03" rms="4.9676656723022461e-01" purity="4.7071895003318787e-01" nType="-99"/>
          <Node pos="r" depth="2" NCoef="0" IVar="-1" Cut="0.0000000000000000e+00" cType="1" res="1.8892524531111121e-04" rms="4.9037259817123413e-01" purity="5.3301942348480225e-01" nType="-99"/>
        </Node>
      </Node>
    </BinaryTree>
    <BinaryTree type="DecisionTree" boostWeight="1.0000000000000000e+00" itree="991">
      <Node pos="s" depth="0" NCoef="0" IVar="0" Cut="8.3375482559204102e+00" cType="1" res="3.3727800473570824e-03" rms="4.8752638697624207e-01" purity="5.0297945737838745e-01" nType="0">
        <Node pos="l" depth="1" NCoef="0" IVar="3" Cut="-6.9572269916534424e-01" cType="1" res="3.0064390972256660e-02" rms="4.9817726016044617e-01" purity="5.3047728538513184e-01" nType="0">
          <Node pos="l" depth="2" NCoef="0" IVar="-1" Cut="0.0000000000000000e+00" cType="1" res="3.6370300222188234e-03" rms="5.0046253204345703e-01" purity="5.0756293535232544e-01" nType="-99"/>
          <Node pos="r" depth="2" NCoef="0" IVar="-1" Cut="0.0000000000000000e+00" cType="1" res="2.5325992610305548e-03" rms="4.9585551023483276e-01" purity="5.5326485633850098e-01" nType="-99"/>
        </Node>
        <Node pos="r" depth="1" NCoef="0" IVar="0" Cut="8.7737884521484375e+00" cType="1" res="7.4708211468532681e-04" rms="4.8638689517974854e-01" purity="5.0027441978454590e-01" nType="0">
          <Node pos="l" depth="2" NCoef="0" IVar="-1" Cut="0.0000000000000000e+00" cType="1" res="-1.0775381233543158e-03" rms="4.9255016446113586e-01" purity="4.9496212601661682e-01" nType="-99"/>
          <Node pos="r" depth="2" NCoef="0" IVar="-1" Cut="0.0000000000000000e+00" cType="1" res="6.4681743970140815e-04" rms="4.8473039269447327e-01" purity="5.0166171789169312e-01" nType="-99"/>
        </Node>
      </Node>
    </BinaryTree>
    <BinaryTree type="DecisionTree" boostWeight="1.0000000000000000e+00" itree="992">
      <Node pos="s" depth="0" NCoef="0" IVar="4" Cut="-7.0186525583267212e-01" cType="1" res="-7.1695720544084907e-04" rms="4.8825442790985107e-01" purity="4.9994307756423950e-01" nType="0">
        <Node pos="l" depth="1" NCoef="0" IVar="0" Cut="9.3672304153442383e+00" cType="1" res="6.2498548068106174e-03" rms="4.8547515273094177e-01" purity="4.8442348837852478e-01" nType="0">
          <Node pos="l" depth="2" NCoef="0" IVar="-1" Cut="0.0000000000000000e+00" cType="1" res="1.6422079643234611e-03" rms="4.8886910080909729e-01" purity="4.9150291085243225e-01" nType="-99"/>
          <Node pos="r" depth="2" NCoef="0" IVar="-1" Cut="0.0000000000000000e+00" cType="1" res="-2.5958691257983446e-03" rms="4.7469055652618408e-01" purity="4.6298459172248840e-01" nType="-99"/>
        </Node>
        <Node pos="r" depth="1" NCoef="0" IVar="4" Cut="4.6965856105089188e-02" cType="1" res="-3.3382629044353962e-03" rms="4.8927035927772522e-01" purity="5.0578236579895020e-01" nType="0">
          <Node pos="l" depth="2" NCoef="0" IVar="-1" Cut="0.0000000000000000e+00" cType="1" res="-1.2718304060399532e-03" rms="4.9156883358955383e-01" purity="4.9262115359306335e-01" nType="-99"/>
          <Node pos="r" depth="2" NCoef="0" IVar="-1" Cut="0.0000000000000000e+00" cType="1" res="6.9709093077108264e-04" rms="4.8548430204391479e-01" purity="5.2677690982818604e-01" nType="-99"/>
        </Node>
      </Node>
    </BinaryTree>
    <BinaryTree type="DecisionTree" boostWeight="1.0000000000000000e+00" itree="993">
      <Node pos="s" depth="0" NCoef="0" IVar="3" Cut="8.0284202098846436e-01" cType="1" res="1.9893562421202660e-04" rms="4.8925229907035828e-01" purity="4.9969300627708435e-01" nType="0">
        <Node pos="l" depth="1" NCoef="0" IVar="2" Cut="2.0000000000000000e+00" cType="1" res="1.1631164234131575e-03" rms="9.3742251396179199e-02" purity="4.4824939966201782e-01" nType="0">
          <Node pos="l" depth="2" NCoef="0" IVar="-1" Cut="0.0000000000000000e+00" cType="1" res="1.4200223376974463e-03" rms="4.9001917243003845e-01" purity="4.4595393538475037e-01" nType="-99"/>
          <Node pos="r" depth="2" NCoef="0" IVar="-1" Cut="0.0000000000000000e+00" cType="1" res="-4.2259899782948196e-04" rms="4.9232703447341919e-01" purity="4.5121547579765320e-01" nType="-99"/>
        </Node>
        <Node pos="r" depth="1" NCoef="0" IVar="1" Cut="3.0000000000000000e+00" cType="1" res="-4.2209238745272160e-03" rms="3.9969509840011597e-01" purity="5.8631050586700439e-01" nType="0">
          <Node pos="l" depth="2" NCoef="0" IVar="-1" Cut="0.0000000000000000e+00" cType="1" res="-1.9969935528934002e-03" rms="4.8700475692749023e-01" purity="5.8134198188781738e-01" nType="-99"/>
          <Node pos="r" depth="2" NCoef="0" IVar="-1" Cut="0.0000000000000000e+00" cType="1" res="3.6273221485316753e-04" rms="4.8455643653869629e-01" purity="5.9421640634536743e-01" nType="-99"/>
        </Node>
      </Node>
    </BinaryTree>
    <BinaryTree type="DecisionTree" boostWeight="1.0000000000000000e+00" itree="994">
      <Node pos="s" depth="0" NCoef="0" IVar="4" Cut="4.5463126152753830e-02" cType="1" res="2.3033313918858767e-03" rms="4.8776134848594666e-01" purity="5.0223881006240845e-01" nType="0">
        <Node pos="l" depth="1" NCoef="0" IVar="4" Cut="-7.9881536960601807e-01" cType="1" res="6.6594108939170837e-03" rms="4.8886832594871521e-01" purity="4.9722528457641602e-01" nType="0">
          <Node pos="l" depth="2" NCoef="0" IVar="-1" Cut="0.0000000000000000e+00" cType="1" res="-1.3396786525845528e-03" rms="4.7903722524642944e-01" purity="4.6082305908203125e-01" nType="-99"/>
          <Node pos="r" depth="2" NCoef="0" IVar="-1" Cut="0.0000000000000000e+00" cType="1" res="1.6018649330362678e-03" rms="4.9130401015281677e-01" purity="5.0661635398864746e-01" nType="-99"/>
        </Node>
        <Node pos="r" depth="1" NCoef="0" IVar="3" Cut="-8.0087131261825562e-01" cType="1" res="-8.8197635486721992e-03" rms="4.8474568128585815e-01" purity="5.1504081487655640e-01" nType="0">
          <Node pos="l" depth="2" NCoef="0" IVar="-1" Cut="0.0000000000000000e+00" cType="1" res="-3.3992184326052666e-03" rms="4.8797497153282166e-01" purity="4.1698428988456726e-01" nType="-99"/>
          <Node pos="r" depth="2" NCoef="0" IVar="-1" Cut="0.0000000000000000e+00" cType="1" res="4.3035333510488272e-04" rms="4.8143741488456726e-01" purity="6.0643982887268066e-01" nType="-99"/>
        </Node>
      </Node>
    </BinaryTree>
    <BinaryTree type="DecisionTree" boostWeight="1.0000000000000000e+00" itree="995">
      <Node pos="s" depth="0" NCoef="0" IVar="1" Cut="3.0000000000000000e+00" cType="1" res="-7.4830866651609540e-04" rms="3.2187482714653015e-01" purity="4.9754399061203003e-01" nType="0">
        <Node pos="l" depth="1" NCoef="0" IVar="3" Cut="-8.0122965574264526e-01" cType="1" res="-7.5751226395368576e-03" rms="4.8728317022323608e-01" purity="4.9052751064300537e-01" nType="0">
          <Node pos="l" depth="2" NCoef="0" IVar="-1" Cut="0.0000000000000000e+00" cType="1" res="-3.3068181946873665e-03" rms="4.7966414690017700e-01" purity="3.8458633422851562e-01" nType="-99"/>
          <Node pos="r" depth="2" NCoef="0" IVar="-1" Cut="0.0000000000000000e+00" cType="1" res="-1.4953185745980591e-04" rms="4.9121147394180298e-01" purity="5.4760205745697021e-01" nType="-99"/>
        </Node>
        <Node pos="r" depth="1" NCoef="0" IVar="0" Cut="8.8233394622802734e+00" cType="1" res="8.2714315503835678e-03" rms="4.8644095659255981e-01" purity="5.1084834337234497e-01" nType="0">
          <Node pos="l" depth="2" NCoef="0" IVar="-1" Cut="0.0000000000000000e+00" cType="1" res="2.5721348356455564e-03" rms="4.9098768830299377e-01" purity="5.3038722276687622e-01" nType="-99"/>
          <Node pos="r" depth="2" NCoef="0" IVar="-1" Cut="0.0000000000000000e+00" cType="1" res="3.1904128263704479e-04" rms="4.8425146937370300e-01" purity="5.0213921070098877e-01" nType="-99"/>
        </Node>
      </Node>
    </BinaryTree>
    <BinaryTree type="DecisionTree" boostWeight="1.0000000000000000e+00" itree="996">
      <Node pos="s" depth="0" NCoef="0" IVar="0" Cut="8.3125705718994141e+00" cType="1" res="3.4032920375466347e-03" rms="4.8837220668792725e-01" purity="5.0246846675872803e-01" nType="0">
        <Node pos="l" depth="1" NCoef="0" IVar="-1" Cut="0.0000000000000000e+00" cType="1" res="2.0839818753302097e-03" rms="4.9991515278816223e-01" purity="5.1720935106277466e-01" nType="-99"/>
        <Node pos="r" depth="1" NCoef="0" IVar="0" Cut="8.7429447174072266e+00" cType="1" res="1.7773391446098685e-03" rms="4.8724144697189331e-01" purity="5.0108265876770020e-01" nType="0">
          <Node pos="l" depth="2" NCoef="0" IVar="-1" Cut="0.0000000000000000e+00" cType="1" res="-8.1803614739328623e-04" rms="4.9475735425949097e-01" purity="4.9940130114555359e-01" nType="-99"/>
          <Node pos="r" depth="2" NCoef="0" IVar="-1" Cut="0.0000000000000000e+00" cType="1" res="7.5183779699727893e-04" rms="4.8537644743919373e-01" purity="5.0149035453796387e-01" nType="-99"/>
        </Node>
      </Node>
    </BinaryTree>
    <BinaryTree type="DecisionTree" boostWeight="1.0000000000000000e+00" itree="997">
      <Node pos="s" depth="0" NCoef="0" IVar="5" Cut="5.3701799362897873e-02" cType="1" res="1.6960031352937222e-03" rms="4.8904004693031311e-01" purity="5.0117737054824829e-01" nType="0">
        <Node pos="l" depth="1" NCoef="0" IVar="2" Cut="3.0000000000000000e+00" cType="1" res="4.0351564530283213e-04" rms="1.6824181377887726e-01" purity="4.9853563308715820e-01" nType="0">
          <Node pos="l" depth="2" NCoef="0" IVar="-1" Cut="0.0000000000000000e+00" cType="1" res="-2.8962403303012252e-04" rms="4.8892897367477417e-01" purity="4.9619558453559875e-01" nType="-99"/>
          <Node pos="r" depth="2" NCoef="0" IVar="-1" Cut="0.0000000000000000e+00" cType="1" res="2.3958932142704725e-03" rms="4.9175453186035156e-01" purity="5.1630157232284546e-01" nType="-99"/>
        </Node>
        <Node pos="r" depth="1" NCoef="0" IVar="5" Cut="7.6927423477172852e-01" cType="1" res="1.4240282587707043e-02" rms="4.8716074228286743e-01" purity="5.1963156461715698e-01" nType="0">
          <Node pos="l" depth="2" NCoef="0" IVar="-1" Cut="0.0000000000000000e+00" cType="1" res="4.5767938718199730e-03" rms="4.8681488633155823e-01" purity="5.2616631984710693e-01" nType="-99"/>
          <Node pos="r" depth="2" NCoef="0" IVar="-1" Cut="0.0000000000000000e+00" cType="1" res="6.9249304942786694e-04" rms="4.8713803291320801e-01" purity="5.1519250869750977e-01" nType="-99"/>
        </Node>
      </Node>
    </BinaryTree>
    <BinaryTree type="DecisionTree" boostWeight="1.0000000000000000e+00" itree="998">
      <Node pos="s" depth="0" NCoef="0" IVar="1" Cut="3.0000000000000000e+00" cType="1" res="-3.2024024403654039e-04" rms="1.8583555519580841e-01" purity="5.0170564651489258e-01" nType="0">
        <Node pos="l" depth="1" NCoef="0" IVar="4" Cut="7.9642969369888306e-01" cType="1" res="4.6158642508089542e-03" rms="4.8870214819908142e-01" purity="5.0320446491241455e-01" nType="0">
          <Node pos="l" depth="2" NCoef="0" IVar="-1" Cut="0.0000000000000000e+00" cType="1" res="9.3687401385977864e-04" rms="4.8976290225982666e-01" purity="5.0057685375213623e-01" nType="-99"/>
          <Node pos="r" depth="2" NCoef="0" IVar="-1" Cut="0.0000000000000000e+00" cType="1" res="-1.1466575087979436e-03" rms="4.7974032163619995e-01" purity="5.2480041980743408e-01" nType="-99"/>
        </Node>
        <Node pos="r" depth="1" NCoef="0" IVar="0" Cut="9.0421190261840820e+00" cType="1" res="-4.7685005702078342e-03" rms="4.8801591992378235e-01" purity="4.9890926480293274e-01" nType="0">
          <Node pos="l" depth="2" NCoef="0" IVar="-1" Cut="0.0000000000000000e+00" cType="1" res="-1.7497888766229153e-03" rms="4.9160805344581604e-01" purity="4.9224069714546204e-01" nType="-99"/>
          <Node pos="r" depth="2" NCoef="0" IVar="-1" Cut="0.0000000000000000e+00" cType="1" res="7.3171383701264858e-04" rms="4.8456186056137085e-01" purity="5.0501215457916260e-01" nType="-99"/>
        </Node>
      </Node>
    </BinaryTree>
    <BinaryTree type="DecisionTree" boostWeight="1.0000000000000000e+00" itree="999">
      <Node pos="s" depth="0" NCoef="0" IVar="5" Cut="-7.8396582603454590e-01" cType="1" res="-4.7101106611080468e-04" rms="4.8778620362281799e-01" purity="4.9949935078620911e-01" nType="0">
        <Node pos="l" depth="1" NCoef="0" IVar="3" Cut="-8.0050790309906006e-01" cType="1" res="2.8596216812729836e-02" rms="4.8554724454879761e-01" purity="5.2763777971267700e-01" nType="0">
          <Node pos="l" depth="2" NCoef="0" IVar="-1" Cut="0.0000000000000000e+00" cType="1" res="7.8678801655769348e-03" rms="4.8316323757171631e-01" purity="4.3352270126342773e-01" nType="-99"/>
          <Node pos="r" depth="2" NCoef="0" IVar="-1" Cut="0.0000000000000000e+00" cType="1" res="2.5389397051185369e-03" rms="4.8699024319648743e-01" purity="6.0086655616760254e-01" nType="-99"/>
        </Node>
        <Node pos="r" depth="1" NCoef="0" IVar="0" Cut="8.2616081237792969e+00" cType="1" res="-2.2908113896846771e-03" rms="4.8786842823028564e-01" purity="4.9773770570755005e-01" nType="0">
          <Node pos="l" depth="2" NCoef="0" IVar="-1" Cut="0.0000000000000000e+00" cType="1" res="-2.0122216083109379e-03" rms="4.9820011854171753e-01" purity="4.7528269886970520e-01" nType="-99"/>
          <Node pos="r" depth="2" NCoef="0" IVar="-1" Cut="0.0000000000000000e+00" cType="1" res="-1.4381381333805621e-04" rms="4.8703476786613464e-01" purity="4.9946659803390503e-01" nType="-99"/>
        </Node>
      </Node>
    </BinaryTree>
  </Weights>
</MethodSetup>
