<?xml version="1.0"?>
<!--
    (c) Copyright 2000-2018 CERN for the benefit of the LHCb Collaboration

    This software is distributed under the terms of the GNU General Public
    Licence version 3 (GPL Version 3), copied verbatim in the file "COPYING".

    In applying this licence, CERN does not waive the privileges and immunities
    granted to it by virtue of its status as an Intergovernmental Organization
    or submit itself to any jurisdiction.
-->
<MethodSetup Method="BDT::BDTG_selBestTracks_14vars">
  <GeneralInfo>
    <Info name="TMVA Release" value="4.2.1 [262657]"/>
    <Info name="ROOT Release" value="6.06/02 [394754]"/>
    <Info name="Creator" value="sakar"/>
    <Info name="Date" value="Thu Jun  1 11:12:19 2017"/>
    <Info name="Host" value="Linux lcgapp-slc6-physical1.cern.ch 2.6.32-573.8.1.el6.x86_64 #1 SMP Wed Nov 11 15:27:45 CET 2015 x86_64 x86_64 x86_64 GNU/Linux"/>
    <Info name="Dir" value="/afs/cern.ch/user/s/sakar/Analysis/FlavourTagging/FT-SSKdev"/>
    <Info name="Training events" value="100000"/>
    <Info name="TrainingTime" value="2.07134111e+02"/>
    <Info name="AnalysisType" value="Classification"/>
  </GeneralInfo>
  <Options>
    <Option name="V" modified="Yes">False</Option>
    <Option name="VerbosityLevel" modified="No">Default</Option>
    <Option name="VarTransform" modified="No">None</Option>
    <Option name="H" modified="Yes">False</Option>
    <Option name="CreateMVAPdfs" modified="No">False</Option>
    <Option name="IgnoreNegWeightsInTraining" modified="No">False</Option>
    <Option name="NTrees" modified="Yes">1000</Option>
    <Option name="MaxDepth" modified="Yes">2</Option>
    <Option name="MinNodeSize" modified="Yes">2.5%</Option>
    <Option name="nCuts" modified="Yes">20</Option>
    <Option name="BoostType" modified="Yes">Grad</Option>
    <Option name="AdaBoostR2Loss" modified="No">quadratic</Option>
    <Option name="UseBaggedBoost" modified="Yes">True</Option>
    <Option name="Shrinkage" modified="Yes">1.000000e-01</Option>
    <Option name="AdaBoostBeta" modified="No">5.000000e-01</Option>
    <Option name="UseRandomisedTrees" modified="No">False</Option>
    <Option name="UseNvars" modified="No">4</Option>
    <Option name="UsePoissonNvars" modified="No">True</Option>
    <Option name="BaggedSampleFraction" modified="Yes">5.000000e-01</Option>
    <Option name="UseYesNoLeaf" modified="No">True</Option>
    <Option name="NegWeightTreatment" modified="No">ignorenegweightsintraining</Option>
    <Option name="Css" modified="No">1.000000e+00</Option>
    <Option name="Cts_sb" modified="No">1.000000e+00</Option>
    <Option name="Ctb_ss" modified="No">1.000000e+00</Option>
    <Option name="Cbb" modified="No">1.000000e+00</Option>
    <Option name="NodePurityLimit" modified="No">5.000000e-01</Option>
    <Option name="SeparationType" modified="No">giniindex</Option>
    <Option name="DoBoostMonitor" modified="No">False</Option>
    <Option name="UseFisherCuts" modified="No">False</Option>
    <Option name="MinLinCorrForFisher" modified="No">8.000000e-01</Option>
    <Option name="UseExclusiveVars" modified="No">False</Option>
    <Option name="DoPreselection" modified="No">False</Option>
    <Option name="SigToBkgFraction" modified="No">1.000000e+00</Option>
    <Option name="PruneMethod" modified="No">nopruning</Option>
    <Option name="PruneStrength" modified="No">0.000000e+00</Option>
    <Option name="PruningValFraction" modified="No">5.000000e-01</Option>
    <Option name="nEventsMin" modified="No">0</Option>
    <Option name="UseBaggedGrad" modified="No">False</Option>
    <Option name="GradBaggingFraction" modified="No">5.000000e-01</Option>
    <Option name="UseNTrainEvents" modified="No">0</Option>
    <Option name="NNodesMax" modified="No">0</Option>
  </Options>
  <Variables NVar="14">
    <Variable VarIndex="0" Expression="log(Tr_P)" Label="pT" Title="log momentum of track" Unit="GeV" Internal="pT" Type="F" Min="7.60093737e+00" Max="1.21987724e+01"/>
    <Variable VarIndex="1" Expression="log(Tr_PT)" Label="ptT" Title="log transverse momentum of track" Unit="GeV" Internal="ptT" Type="F" Min="3.58221388e+00" Max="9.20035076e+00"/>
    <Variable VarIndex="2" Expression="log(B_PT)" Label="ptB" Title="log momentum of the B" Unit="GeV" Internal="ptB" Type="D" Min="5.81567383e+00" Max="1.13906908e+01"/>
    <Variable VarIndex="3" Expression="log(abs(deltaPhi))" Label="dphi" Title="log abs(deltaPhi)" Unit="rad" Internal="dphi" Type="F" Min="-5.29750395e+00" Max="1.14472651e+00"/>
    <Variable VarIndex="4" Expression="log(abs(deltaEta))" Label="deta" Title="log abs(deltaEta)" Unit="rad" Internal="deta" Type="F" Min="-1.39347696e+01" Max="1.23711443e+00"/>
    <Variable VarIndex="5" Expression="log(pTrel)" Label="ptrel" Title="log(pTrel)" Unit="GeV" Internal="ptrel" Type="F" Min="8.63197505e-01" Max="1.07139797e+01"/>
    <Variable VarIndex="6" Expression="log(Tr_BPVIP)" Label="ipT" Title="log track impact parameter" Unit="" Internal="ipT" Type="F" Min="-9.55457592e+00" Max="2.66033912e+00"/>
    <Variable VarIndex="7" Expression="log(sqrt(Tr_BPVIPCHI2))" Label="ipSigT" Title="log track impact parameter significance" Unit="" Internal="ipSigT" Type="F" Min="-6.80959034e+00" Max="2.64907646e+00"/>
    <Variable VarIndex="8" Expression="log(Tr_TRCHI2DOF)" Label="chi2T" Title="log track fit chi2" Unit="" Internal="chi2T" Type="F" Min="-3.09487677e+00" Max="1.38467681e+00"/>
    <Variable VarIndex="9" Expression="log(nTracks_presel)" Label="ntracks" Title="log number of tagging tracks" Unit="" Internal="ntracks" Type="I" Min="0.00000000e+00" Max="4.83628178e+00"/>
    <Variable VarIndex="10" Expression="nPV" Label="npv" Title="number of primary vertexes" Unit="" Internal="npv" Type="I" Min="1.00000000e+00" Max="7.00000000e+00"/>
    <Variable VarIndex="11" Expression="Tr_PROBNNk" Label="PROBNNk" Title="PROBNNk" Unit="" Internal="PROBNNk" Type="F" Min="1.59430328e-05" Max="9.99819160e-01"/>
    <Variable VarIndex="12" Expression="Tr_PROBNNpi" Label="PROBNNpi" Title="PROBNNpi" Unit="" Internal="PROBNNpi" Type="F" Min="8.33067816e-07" Max="9.99747753e-01"/>
    <Variable VarIndex="13" Expression="Tr_PROBNNp" Label="PROBNNp" Title="PROBNNp" Unit="" Internal="PROBNNp" Type="F" Min="1.67069791e-09" Max="9.99913573e-01"/>
  </Variables>
  <Spectators NSpec="0"/>
  <Classes NClass="2">
    <Class Name="Signal" Index="0"/>
    <Class Name="Background" Index="1"/>
  </Classes>
  <Transformations NTransformations="0"/>
  <MVAPdfs/>
  <Weights NTrees="1000" AnalysisType="1">
    <BinaryTree type="DecisionTree" boostWeight="1.0000000000000000e+00" itree="0">
      <Node pos="s" depth="0" NCoef="0" IVar="11" Cut="1.4284762740135193e-01" cType="1" res="-4.3373284279368818e-04" rms="4.9999982118606567e-01" purity="4.9956625699996948e-01" nType="0">
        <Node pos="l" depth="1" NCoef="0" IVar="11" Cut="3.3993493765592575e-02" cType="1" res="-3.2865631580352783e-01" rms="3.7680900096893311e-01" purity="1.7134368419647217e-01" nType="0">
          <Node pos="l" depth="2" NCoef="0" IVar="-1" Cut="0.0000000000000000e+00" cType="1" res="-6.6433608531951904e-02" rms="2.0988200604915619e-01" purity="4.6183362603187561e-02" nType="-99"/>
          <Node pos="r" depth="2" NCoef="0" IVar="-1" Cut="0.0000000000000000e+00" cType="1" res="-2.3505384102463722e-02" rms="4.7324246168136597e-01" purity="3.3862602710723877e-01" nType="-99"/>
        </Node>
        <Node pos="r" depth="1" NCoef="0" IVar="11" Cut="3.8773813843727112e-01" cType="1" res="2.9133501648902893e-01" rms="4.0635439753532410e-01" purity="7.9133498668670654e-01" nType="0">
          <Node pos="l" depth="2" NCoef="0" IVar="-1" Cut="0.0000000000000000e+00" cType="1" res="1.3385357335209846e-02" rms="4.9075403809547424e-01" purity="5.9571039676666260e-01" nType="-99"/>
          <Node pos="r" depth="2" NCoef="0" IVar="-1" Cut="0.0000000000000000e+00" cType="1" res="5.6199893355369568e-02" rms="3.5637798905372620e-01" purity="8.5070604085922241e-01" nType="-99"/>
        </Node>
      </Node>
    </BinaryTree>
    <BinaryTree type="DecisionTree" boostWeight="1.0000000000000000e+00" itree="1">
      <Node pos="s" depth="0" NCoef="0" IVar="11" Cut="9.5236830413341522e-02" cType="1" res="-6.1468156054615974e-03" rms="4.8333764076232910e-01" purity="4.9460747838020325e-01" nType="0">
        <Node pos="l" depth="1" NCoef="0" IVar="11" Cut="3.1756658107042313e-02" cType="1" res="-3.4777501225471497e-01" rms="3.2859399914741516e-01" purity="1.2631285190582275e-01" nType="0">
          <Node pos="l" depth="2" NCoef="0" IVar="-1" Cut="0.0000000000000000e+00" cType="1" res="-6.1962146311998367e-02" rms="1.8607394397258759e-01" purity="3.5913273692131042e-02" nType="-99"/>
          <Node pos="r" depth="2" NCoef="0" IVar="-1" Cut="0.0000000000000000e+00" cType="1" res="-2.8457179665565491e-02" rms="4.5527863502502441e-01" purity="2.9367229342460632e-01" nType="-99"/>
        </Node>
        <Node pos="r" depth="1" NCoef="0" IVar="11" Cut="3.9676603674888611e-01" cType="1" res="2.3207081854343414e-01" rms="4.2789664864540100e-01" purity="7.5141966342926025e-01" nType="0">
          <Node pos="l" depth="2" NCoef="0" IVar="-1" Cut="0.0000000000000000e+00" cType="1" res="7.0001515559852123e-03" rms="4.9640643596649170e-01" purity="5.5022066831588745e-01" nType="-99"/>
          <Node pos="r" depth="2" NCoef="0" IVar="-1" Cut="0.0000000000000000e+00" cType="1" res="5.2051581442356110e-02" rms="3.5944312810897827e-01" purity="8.4756386280059814e-01" nType="-99"/>
        </Node>
      </Node>
    </BinaryTree>
    <BinaryTree type="DecisionTree" boostWeight="1.0000000000000000e+00" itree="2">
      <Node pos="s" depth="0" NCoef="0" IVar="11" Cut="1.4284577965736389e-01" cType="1" res="5.7138265110552311e-03" rms="4.6860620379447937e-01" purity="5.0802087783813477e-01" nType="0">
        <Node pos="l" depth="1" NCoef="0" IVar="11" Cut="4.0824871510267258e-02" cType="1" res="-2.7923211455345154e-01" rms="3.7181204557418823e-01" purity="1.7548373341560364e-01" nType="0">
          <Node pos="l" depth="2" NCoef="0" IVar="-1" Cut="0.0000000000000000e+00" cType="1" res="-5.6389838457107544e-02" rms="2.2656261920928955e-01" purity="5.4930254817008972e-02" nType="-99"/>
          <Node pos="r" depth="2" NCoef="0" IVar="-1" Cut="0.0000000000000000e+00" cType="1" res="-1.7585637047886848e-02" rms="4.7958448529243469e-01" purity="3.6227586865425110e-01" nType="-99"/>
        </Node>
        <Node pos="r" depth="1" NCoef="0" IVar="3" Cut="2.2432777285575867e-01" cType="1" res="2.5373563170433044e-01" rms="3.9775681495666504e-01" purity="7.9746681451797485e-01" nType="0">
          <Node pos="l" depth="2" NCoef="0" IVar="-1" Cut="0.0000000000000000e+00" cType="1" res="5.5144470185041428e-02" rms="3.2591846585273743e-01" purity="8.7587970495223999e-01" nType="-99"/>
          <Node pos="r" depth="2" NCoef="0" IVar="-1" Cut="0.0000000000000000e+00" cType="1" res="2.1600769832730293e-02" rms="4.5713868737220764e-01" purity="6.9312322139739990e-01" nType="-99"/>
        </Node>
      </Node>
    </BinaryTree>
    <BinaryTree type="DecisionTree" boostWeight="1.0000000000000000e+00" itree="3">
      <Node pos="s" depth="0" NCoef="0" IVar="11" Cut="1.9045715034008026e-01" cType="1" res="-3.8425582461059093e-03" rms="4.5600342750549316e-01" purity="4.9890130758285522e-01" nType="0">
        <Node pos="l" depth="1" NCoef="0" IVar="11" Cut="2.7216205373406410e-02" cType="1" res="-2.4545641243457794e-01" rms="3.8177591562271118e-01" purity="1.9500371813774109e-01" nType="0">
          <Node pos="l" depth="2" NCoef="0" IVar="-1" Cut="0.0000000000000000e+00" cType="1" res="-5.5116325616836548e-02" rms="1.9509252905845642e-01" purity="3.9631769061088562e-02" nType="-99"/>
          <Node pos="r" depth="2" NCoef="0" IVar="-1" Cut="0.0000000000000000e+00" cType="1" res="-1.6977403312921524e-02" rms="4.7373497486114502e-01" purity="3.5419598221778870e-01" nType="-99"/>
        </Node>
        <Node pos="r" depth="1" NCoef="0" IVar="3" Cut="2.2427198290824890e-01" cType="1" res="2.4114447832107544e-01" rms="3.8959297537803650e-01" purity="8.0704164505004883e-01" nType="0">
          <Node pos="l" depth="2" NCoef="0" IVar="-1" Cut="0.0000000000000000e+00" cType="1" res="5.2578825503587723e-02" rms="3.1776940822601318e-01" purity="8.8370394706726074e-01" nType="-99"/>
          <Node pos="r" depth="2" NCoef="0" IVar="-1" Cut="0.0000000000000000e+00" cType="1" res="2.1448381245136261e-02" rms="4.5372971892356873e-01" purity="7.0255982875823975e-01" nType="-99"/>
        </Node>
      </Node>
    </BinaryTree>
    <BinaryTree type="DecisionTree" boostWeight="1.0000000000000000e+00" itree="4">
      <Node pos="s" depth="0" NCoef="0" IVar="11" Cut="1.4284160733222961e-01" cType="1" res="-2.0427894778549671e-03" rms="4.4402036070823669e-01" purity="5.0199592113494873e-01" nType="0">
        <Node pos="l" depth="1" NCoef="0" IVar="11" Cut="4.7618359327316284e-02" cType="1" res="-2.4429805576801300e-01" rms="3.6273121833801270e-01" purity="1.7203786969184875e-01" nType="0">
          <Node pos="l" depth="2" NCoef="0" IVar="-1" Cut="0.0000000000000000e+00" cType="1" res="-5.0523195415735245e-02" rms="2.3268741369247437e-01" purity="5.9678722172975540e-02" nType="-99"/>
          <Node pos="r" depth="2" NCoef="0" IVar="-1" Cut="0.0000000000000000e+00" cType="1" res="-1.3080708682537079e-02" rms="4.8279690742492676e-01" purity="3.7319207191467285e-01" nType="-99"/>
        </Node>
        <Node pos="r" depth="1" NCoef="0" IVar="11" Cut="4.2849507927894592e-01" cType="1" res="2.1112628281116486e-01" rms="3.9721280336380005e-01" purity="7.9233783483505249e-01" nType="0">
          <Node pos="l" depth="2" NCoef="0" IVar="-1" Cut="0.0000000000000000e+00" cType="1" res="1.0254343971610069e-02" rms="4.8202422261238098e-01" purity="6.1521619558334351e-01" nType="-99"/>
          <Node pos="r" depth="2" NCoef="0" IVar="-1" Cut="0.0000000000000000e+00" cType="1" res="4.3478231877088547e-02" rms="3.5098475217819214e-01" purity="8.5295748710632324e-01" nType="-99"/>
        </Node>
      </Node>
    </BinaryTree>
    <BinaryTree type="DecisionTree" boostWeight="1.0000000000000000e+00" itree="5">
      <Node pos="s" depth="0" NCoef="0" IVar="11" Cut="1.9044421613216400e-01" cType="1" res="-5.9255096130073071e-03" rms="4.3458205461502075e-01" purity="4.9742856621742249e-01" nType="0">
        <Node pos="l" depth="1" NCoef="0" IVar="11" Cut="5.4424375295639038e-02" cType="1" res="-2.1104046702384949e-01" rms="3.7706217169761658e-01" purity="1.9667932391166687e-01" nType="0">
          <Node pos="l" depth="2" NCoef="0" IVar="-1" Cut="0.0000000000000000e+00" cType="1" res="-4.5376375317573547e-02" rms="2.5995960831642151e-01" purity="7.6250217854976654e-02" nType="-99"/>
          <Node pos="r" depth="2" NCoef="0" IVar="-1" Cut="0.0000000000000000e+00" cType="1" res="-9.1498661786317825e-03" rms="4.8861494660377502e-01" purity="4.0896332263946533e-01" nType="-99"/>
        </Node>
        <Node pos="r" depth="1" NCoef="0" IVar="3" Cut="-8.2370020449161530e-02" cType="1" res="2.0693971216678619e-01" rms="3.8514649868011475e-01" purity="8.0954164266586304e-01" nType="0">
          <Node pos="l" depth="2" NCoef="0" IVar="-1" Cut="0.0000000000000000e+00" cType="1" res="5.1945991814136505e-02" rms="2.9630813002586365e-01" purity="9.0008711814880371e-01" nType="-99"/>
          <Node pos="r" depth="2" NCoef="0" IVar="-1" Cut="0.0000000000000000e+00" cType="1" res="2.1173715591430664e-02" rms="4.3868350982666016e-01" purity="7.2943449020385742e-01" nType="-99"/>
        </Node>
      </Node>
    </BinaryTree>
    <BinaryTree type="DecisionTree" boostWeight="1.0000000000000000e+00" itree="6">
      <Node pos="s" depth="0" NCoef="0" IVar="11" Cut="9.5236830413341522e-02" cType="1" res="-6.8913511931896210e-03" rms="4.2633154988288879e-01" purity="4.9737030267715454e-01" nType="0">
        <Node pos="l" depth="1" NCoef="0" IVar="11" Cut="1.8151918426156044e-02" cType="1" res="-2.3608672618865967e-01" rms="3.2735201716423035e-01" purity="1.3518734276294708e-01" nType="0">
          <Node pos="l" depth="2" NCoef="0" IVar="-1" Cut="0.0000000000000000e+00" cType="1" res="-5.0977110862731934e-02" rms="1.6460996866226196e-01" purity="2.7873363345861435e-02" nType="-99"/>
          <Node pos="r" depth="2" NCoef="0" IVar="-1" Cut="0.0000000000000000e+00" cType="1" res="-2.1281249821186066e-02" rms="4.4063144922256470e-01" purity="2.7356919646263123e-01" nType="-99"/>
        </Node>
        <Node pos="r" depth="1" NCoef="0" IVar="11" Cut="3.9676603674888611e-01" cType="1" res="1.5312258899211884e-01" rms="4.1419988870620728e-01" purity="7.5023019313812256e-01" nType="0">
          <Node pos="l" depth="2" NCoef="0" IVar="-1" Cut="0.0000000000000000e+00" cType="1" res="3.1427941285073757e-03" rms="4.8950377106666565e-01" purity="5.4830187559127808e-01" nType="-99"/>
          <Node pos="r" depth="2" NCoef="0" IVar="-1" Cut="0.0000000000000000e+00" cType="1" res="3.7655558437108994e-02" rms="3.5692140460014343e-01" purity="8.4572684764862061e-01" nType="-99"/>
        </Node>
      </Node>
    </BinaryTree>
    <BinaryTree type="DecisionTree" boostWeight="1.0000000000000000e+00" itree="7">
      <Node pos="s" depth="0" NCoef="0" IVar="11" Cut="1.9045540690422058e-01" cType="1" res="-5.6423502974212170e-03" rms="4.1833069920539856e-01" purity="5.0024932622909546e-01" nType="0">
        <Node pos="l" depth="1" NCoef="0" IVar="11" Cut="1.8151594325900078e-02" cType="1" res="-1.8343143165111542e-01" rms="3.7190124392509460e-01" purity="1.9575227797031403e-01" nType="0">
          <Node pos="l" depth="2" NCoef="0" IVar="-1" Cut="0.0000000000000000e+00" cType="1" res="-4.8210710287094116e-02" rms="1.6738709807395935e-01" purity="2.8850806877017021e-02" nType="-99"/>
          <Node pos="r" depth="2" NCoef="0" IVar="-1" Cut="0.0000000000000000e+00" cType="1" res="-1.4373331330716610e-02" rms="4.6296837925910950e-01" purity="3.3578109741210938e-01" nType="-99"/>
        </Node>
        <Node pos="r" depth="1" NCoef="0" IVar="3" Cut="2.2455780208110809e-01" cType="1" res="1.7385245859622955e-01" rms="3.8459333777427673e-01" purity="8.0766767263412476e-01" nType="0">
          <Node pos="l" depth="2" NCoef="0" IVar="-1" Cut="0.0000000000000000e+00" cType="1" res="4.3333522975444794e-02" rms="3.1434848904609680e-01" purity="8.8490092754364014e-01" nType="-99"/>
          <Node pos="r" depth="2" NCoef="0" IVar="-1" Cut="0.0000000000000000e+00" cType="1" res="1.4826624654233456e-02" rms="4.5053356885910034e-01" purity="7.0515304803848267e-01" nType="-99"/>
        </Node>
      </Node>
    </BinaryTree>
    <BinaryTree type="DecisionTree" boostWeight="1.0000000000000000e+00" itree="8">
      <Node pos="s" depth="0" NCoef="0" IVar="11" Cut="2.3806504905223846e-01" cType="1" res="-5.0459969788789749e-03" rms="4.1086095571517944e-01" purity="5.0103420019149780e-01" nType="0">
        <Node pos="l" depth="1" NCoef="0" IVar="11" Cut="3.4019984304904938e-02" cType="1" res="-1.6221106052398682e-01" rms="3.7848782539367676e-01" purity="2.1575710177421570e-01" nType="0">
          <Node pos="l" depth="2" NCoef="0" IVar="-1" Cut="0.0000000000000000e+00" cType="1" res="-4.4170834124088287e-02" rms="2.0481872558593750e-01" purity="4.4916283339262009e-02" nType="-99"/>
          <Node pos="r" depth="2" NCoef="0" IVar="-1" Cut="0.0000000000000000e+00" cType="1" res="-9.5160994678735733e-03" rms="4.7891837358474731e-01" purity="3.9179050922393799e-01" nType="-99"/>
        </Node>
        <Node pos="r" depth="1" NCoef="0" IVar="3" Cut="-8.2084894180297852e-02" cType="1" res="1.7351359128952026e-01" rms="3.7133827805519104e-01" purity="8.2514542341232300e-01" nType="0">
          <Node pos="l" depth="2" NCoef="0" IVar="-1" Cut="0.0000000000000000e+00" cType="1" res="4.6893160790205002e-02" rms="2.7671915292739868e-01" purity="9.1506183147430420e-01" nType="-99"/>
          <Node pos="r" depth="2" NCoef="0" IVar="-1" Cut="0.0000000000000000e+00" cType="1" res="1.8337750807404518e-02" rms="4.3186971545219421e-01" purity="7.4389207363128662e-01" nType="-99"/>
        </Node>
      </Node>
    </BinaryTree>
    <BinaryTree type="DecisionTree" boostWeight="1.0000000000000000e+00" itree="9">
      <Node pos="s" depth="0" NCoef="0" IVar="11" Cut="9.5233902335166931e-02" cType="1" res="-6.7626545205712318e-03" rms="4.0472444891929626e-01" purity="5.0022166967391968e-01" nType="0">
        <Node pos="l" depth="1" NCoef="0" IVar="11" Cut="1.3617439195513725e-02" cType="1" res="-1.9395306706428528e-01" rms="3.2058340311050415e-01" purity="1.3202108442783356e-01" nType="0">
          <Node pos="l" depth="2" NCoef="0" IVar="-1" Cut="0.0000000000000000e+00" cType="1" res="-4.6327602118253708e-02" rms="1.4177227020263672e-01" purity="2.0520465448498726e-02" nType="-99"/>
          <Node pos="r" depth="2" NCoef="0" IVar="-1" Cut="0.0000000000000000e+00" cType="1" res="-1.9829763099551201e-02" rms="4.2938545346260071e-01" purity="2.5427335500717163e-01" nType="-99"/>
        </Node>
        <Node pos="r" depth="1" NCoef="0" IVar="11" Cut="5.2599602937698364e-01" cType="1" res="1.2172466516494751e-01" rms="4.0636309981346130e-01" purity="7.5295418500900269e-01" nType="0">
          <Node pos="l" depth="2" NCoef="0" IVar="-1" Cut="0.0000000000000000e+00" cType="1" res="2.8522333595901728e-03" rms="4.7964054346084595e-01" purity="5.7482206821441650e-01" nType="-99"/>
          <Node pos="r" depth="2" NCoef="0" IVar="-1" Cut="0.0000000000000000e+00" cType="1" res="3.3965546637773514e-02" rms="3.3982402086257935e-01" purity="8.6126887798309326e-01" nType="-99"/>
        </Node>
      </Node>
    </BinaryTree>
    <BinaryTree type="DecisionTree" boostWeight="1.0000000000000000e+00" itree="10">
      <Node pos="s" depth="0" NCoef="0" IVar="11" Cut="9.5236152410507202e-02" cType="1" res="-5.5168163962662220e-03" rms="4.0027874708175659e-01" purity="5.0145071744918823e-01" nType="0">
        <Node pos="l" depth="1" NCoef="0" IVar="11" Cut="1.3616867363452911e-02" cType="1" res="-1.7991083860397339e-01" rms="3.2045084238052368e-01" purity="1.3325154781341553e-01" nType="0">
          <Node pos="l" depth="2" NCoef="0" IVar="-1" Cut="0.0000000000000000e+00" cType="1" res="-4.6161927282810211e-02" rms="1.4476272463798523e-01" purity="2.1414844319224358e-02" nType="-99"/>
          <Node pos="r" depth="2" NCoef="0" IVar="-1" Cut="0.0000000000000000e+00" cType="1" res="-1.8556209281086922e-02" rms="4.2747560143470764e-01" purity="2.5286981463432312e-01" nType="-99"/>
        </Node>
        <Node pos="r" depth="1" NCoef="0" IVar="11" Cut="6.9829213619232178e-01" cType="1" res="1.1412329971790314e-01" rms="4.0560483932495117e-01" purity="7.5404763221740723e-01" nType="0">
          <Node pos="l" depth="2" NCoef="0" IVar="-1" Cut="0.0000000000000000e+00" cType="1" res="6.0779559426009655e-03" rms="4.6631962060928345e-01" purity="6.2233126163482666e-01" nType="-99"/>
          <Node pos="r" depth="2" NCoef="0" IVar="-1" Cut="0.0000000000000000e+00" cType="1" res="3.4789990633726120e-02" rms="3.2964959740638733e-01" purity="8.7089508771896362e-01" nType="-99"/>
        </Node>
      </Node>
    </BinaryTree>
    <BinaryTree type="DecisionTree" boostWeight="1.0000000000000000e+00" itree="11">
      <Node pos="s" depth="0" NCoef="0" IVar="11" Cut="9.5231473445892334e-02" cType="1" res="-5.5278260260820389e-03" rms="3.9556488394737244e-01" purity="4.9943798780441284e-01" nType="0">
        <Node pos="l" depth="1" NCoef="0" IVar="11" Cut="9.0842181816697121e-03" cType="1" res="-1.6461382806301117e-01" rms="3.2058632373809814e-01" purity="1.3447752594947815e-01" nType="0">
          <Node pos="l" depth="2" NCoef="0" IVar="-1" Cut="0.0000000000000000e+00" cType="1" res="-4.5654222369194031e-02" rms="1.1250038444995880e-01" purity="1.2820707634091377e-02" nType="-99"/>
          <Node pos="r" depth="2" NCoef="0" IVar="-1" Cut="0.0000000000000000e+00" cType="1" res="-1.7516301944851875e-02" rms="4.1889318823814392e-01" purity="2.4188628792762756e-01" nType="-99"/>
        </Node>
        <Node pos="r" depth="1" NCoef="0" IVar="3" Cut="2.2439980506896973e-01" cType="1" res="1.0526283830404282e-01" rms="4.0492802858352661e-01" purity="7.5360375642776489e-01" nType="0">
          <Node pos="l" depth="2" NCoef="0" IVar="-1" Cut="0.0000000000000000e+00" cType="1" res="3.2740369439125061e-02" rms="3.3848008513450623e-01" purity="8.4775477647781372e-01" nType="-99"/>
          <Node pos="r" depth="2" NCoef="0" IVar="-1" Cut="0.0000000000000000e+00" cType="1" res="4.3255095370113850e-03" rms="4.6194154024124146e-01" purity="6.3871771097183228e-01" nType="-99"/>
        </Node>
      </Node>
    </BinaryTree>
    <BinaryTree type="DecisionTree" boostWeight="1.0000000000000000e+00" itree="12">
      <Node pos="s" depth="0" NCoef="0" IVar="11" Cut="2.8565171360969543e-01" cType="1" res="-5.7912822812795639e-03" rms="3.9026570320129395e-01" purity="5.0008505582809448e-01" nType="0">
        <Node pos="l" depth="1" NCoef="0" IVar="11" Cut="5.4391354322433472e-02" cType="1" res="-1.1882729828357697e-01" rms="3.7747919559478760e-01" purity="2.3241572082042694e-01" nType="0">
          <Node pos="l" depth="2" NCoef="0" IVar="-1" Cut="0.0000000000000000e+00" cType="1" res="-3.5449221730232239e-02" rms="2.5002995133399963e-01" purity="7.2671212255954742e-02" nType="-99"/>
          <Node pos="r" depth="2" NCoef="0" IVar="-1" Cut="0.0000000000000000e+00" cType="1" res="-4.5550707727670670e-03" rms="4.8635759949684143e-01" purity="4.4727283716201782e-01" nType="-99"/>
        </Node>
        <Node pos="r" depth="1" NCoef="0" IVar="3" Cut="5.3119117021560669e-01" cType="1" res="1.3731530308723450e-01" rms="3.5788258910179138e-01" purity="8.3896154165267944e-01" nType="0">
          <Node pos="l" depth="2" NCoef="0" IVar="-1" Cut="0.0000000000000000e+00" cType="1" res="3.4532420337200165e-02" rms="3.0813372135162354e-01" purity="8.8962137699127197e-01" nType="-99"/>
          <Node pos="r" depth="2" NCoef="0" IVar="-1" Cut="0.0000000000000000e+00" cType="1" res="1.1134998872876167e-02" rms="4.4282954931259155e-01" purity="7.2415131330490112e-01" nType="-99"/>
        </Node>
      </Node>
    </BinaryTree>
    <BinaryTree type="DecisionTree" boostWeight="1.0000000000000000e+00" itree="13">
      <Node pos="s" depth="0" NCoef="0" IVar="11" Cut="9.5235295593738556e-02" cType="1" res="-5.4356213659048080e-03" rms="3.8801610469818115e-01" purity="5.0142604112625122e-01" nType="0">
        <Node pos="l" depth="1" NCoef="0" IVar="11" Cut="9.0843969956040382e-03" cType="1" res="-1.4357966184616089e-01" rms="3.1820672750473022e-01" purity="1.3336275517940521e-01" nType="0">
          <Node pos="l" depth="2" NCoef="0" IVar="-1" Cut="0.0000000000000000e+00" cType="1" res="-4.3524350970983505e-02" rms="1.0948000103235245e-01" purity="1.2133083306252956e-02" nType="-99"/>
          <Node pos="r" depth="2" NCoef="0" IVar="-1" Cut="0.0000000000000000e+00" cType="1" res="-1.5420796349644661e-02" rms="4.1751414537429810e-01" purity="2.4001500010490417e-01" nType="-99"/>
        </Node>
        <Node pos="r" depth="1" NCoef="0" IVar="11" Cut="4.8293724656105042e-01" cType="1" res="8.9690253138542175e-02" rms="4.0288349986076355e-01" purity="7.5487416982650757e-01" nType="0">
          <Node pos="l" depth="2" NCoef="0" IVar="-1" Cut="0.0000000000000000e+00" cType="1" res="1.8483261810615659e-03" rms="4.7961473464965820e-01" purity="5.7649642229080200e-01" nType="-99"/>
          <Node pos="r" depth="2" NCoef="0" IVar="-1" Cut="0.0000000000000000e+00" cType="1" res="2.7102334424853325e-02" rms="3.4455403685569763e-01" purity="8.5573029518127441e-01" nType="-99"/>
        </Node>
      </Node>
    </BinaryTree>
    <BinaryTree type="DecisionTree" boostWeight="1.0000000000000000e+00" itree="14">
      <Node pos="s" depth="0" NCoef="0" IVar="11" Cut="1.4284424483776093e-01" cType="1" res="-6.4495638944208622e-03" rms="3.8331413269042969e-01" purity="4.9949297308921814e-01" nType="0">
        <Node pos="l" depth="1" NCoef="0" IVar="11" Cut="2.7216011658310890e-02" cType="1" res="-1.2158848345279694e-01" rms="3.4358274936676025e-01" purity="1.6838206350803375e-01" nType="0">
          <Node pos="l" depth="2" NCoef="0" IVar="-1" Cut="0.0000000000000000e+00" cType="1" res="-3.8040947169065475e-02" rms="1.8020230531692505e-01" purity="3.4867428243160248e-02" nType="-99"/>
          <Node pos="r" depth="2" NCoef="0" IVar="-1" Cut="0.0000000000000000e+00" cType="1" res="-8.9081116020679474e-03" rms="4.6488177776336670e-01" purity="3.3311602473258972e-01" nType="-99"/>
        </Node>
        <Node pos="r" depth="1" NCoef="0" IVar="3" Cut="-8.2546718418598175e-02" cType="1" res="9.5302648842334747e-02" rms="3.8779294490814209e-01" purity="7.9210698604583740e-01" nType="0">
          <Node pos="l" depth="2" NCoef="0" IVar="-1" Cut="0.0000000000000000e+00" cType="1" res="3.2340019941329956e-02" rms="3.1047216057777405e-01" purity="8.8307607173919678e-01" nType="-99"/>
          <Node pos="r" depth="2" NCoef="0" IVar="-1" Cut="0.0000000000000000e+00" cType="1" res="8.3837853744626045e-03" rms="4.4039028882980347e-01" purity="7.1148842573165894e-01" nType="-99"/>
        </Node>
      </Node>
    </BinaryTree>
    <BinaryTree type="DecisionTree" boostWeight="1.0000000000000000e+00" itree="15">
      <Node pos="s" depth="0" NCoef="0" IVar="11" Cut="2.8567400574684143e-01" cType="1" res="-6.6729076206684113e-03" rms="3.8277694582939148e-01" purity="5.0152230262756348e-01" nType="0">
        <Node pos="l" depth="1" NCoef="0" IVar="11" Cut="5.4417431354522705e-02" cType="1" res="-9.4599470496177673e-02" rms="3.7558987736701965e-01" purity="2.3534065485000610e-01" nType="0">
          <Node pos="l" depth="2" NCoef="0" IVar="-1" Cut="0.0000000000000000e+00" cType="1" res="-3.1550746411085129e-02" rms="2.5234729051589966e-01" purity="7.5134262442588806e-02" nType="-99"/>
          <Node pos="r" depth="2" NCoef="0" IVar="-1" Cut="0.0000000000000000e+00" cType="1" res="-3.5136328078806400e-03" rms="4.8649927973747253e-01" purity="4.5143684744834900e-01" nType="-99"/>
        </Node>
        <Node pos="r" depth="1" NCoef="0" IVar="3" Cut="2.2460031509399414e-01" cType="1" res="1.0254736244678497e-01" rms="3.6298233270645142e-01" purity="8.3216673135757446e-01" nType="0">
          <Node pos="l" depth="2" NCoef="0" IVar="-1" Cut="0.0000000000000000e+00" cType="1" res="3.2537549734115601e-02" rms="2.9212972521781921e-01" purity="9.0326237678527832e-01" nType="-99"/>
          <Node pos="r" depth="2" NCoef="0" IVar="-1" Cut="0.0000000000000000e+00" cType="1" res="8.8106654584407806e-03" rms="4.4002887606620789e-01" purity="7.3065930604934692e-01" nType="-99"/>
        </Node>
      </Node>
    </BinaryTree>
    <BinaryTree type="DecisionTree" boostWeight="1.0000000000000000e+00" itree="16">
      <Node pos="s" depth="0" NCoef="0" IVar="11" Cut="9.5235295593738556e-02" cType="1" res="-2.5056900922209024e-03" rms="3.8027235865592957e-01" purity="5.0509756803512573e-01" nType="0">
        <Node pos="l" depth="1" NCoef="0" IVar="5" Cut="6.1403751373291016e+00" cType="1" res="-1.1083938181400299e-01" rms="3.2230770587921143e-01" purity="1.3816328346729279e-01" nType="0">
          <Node pos="l" depth="2" NCoef="0" IVar="-1" Cut="0.0000000000000000e+00" cType="1" res="-7.3886932805180550e-03" rms="4.1729009151458740e-01" purity="2.5286132097244263e-01" nType="-99"/>
          <Node pos="r" depth="2" NCoef="0" IVar="-1" Cut="0.0000000000000000e+00" cType="1" res="-3.0309075489640236e-02" rms="2.5878232717514038e-01" purity="8.3551518619060516e-02" nType="-99"/>
        </Node>
        <Node pos="r" depth="1" NCoef="0" IVar="3" Cut="-8.1496372818946838e-02" cType="1" res="7.2451025247573853e-02" rms="3.9880567789077759e-01" purity="7.5898158550262451e-01" nType="0">
          <Node pos="l" depth="2" NCoef="0" IVar="-1" Cut="0.0000000000000000e+00" cType="1" res="2.8849143534898758e-02" rms="3.2161256670951843e-01" purity="8.6789965629577637e-01" nType="-99"/>
          <Node pos="r" depth="2" NCoef="0" IVar="-1" Cut="0.0000000000000000e+00" cType="1" res="3.8221778813749552e-03" rms="4.4810047745704651e-01" purity="6.6693449020385742e-01" nType="-99"/>
        </Node>
      </Node>
    </BinaryTree>
    <BinaryTree type="DecisionTree" boostWeight="1.0000000000000000e+00" itree="17">
      <Node pos="s" depth="0" NCoef="0" IVar="11" Cut="2.3806183040142059e-01" cType="1" res="-6.6073834896087646e-03" rms="3.7474575638771057e-01" purity="4.9820598959922791e-01" nType="0">
        <Node pos="l" depth="1" NCoef="0" IVar="11" Cut="1.1352176778018475e-02" cType="1" res="-9.1993235051631927e-02" rms="3.6302113533020020e-01" purity="2.1186204254627228e-01" nType="0">
          <Node pos="l" depth="2" NCoef="0" IVar="-1" Cut="0.0000000000000000e+00" cType="1" res="-3.9873275905847549e-02" rms="1.2851133942604065e-01" purity="1.6911331564188004e-02" nType="-99"/>
          <Node pos="r" depth="2" NCoef="0" IVar="-1" Cut="0.0000000000000000e+00" cType="1" res="-8.3088697865605354e-03" rms="4.4853326678276062e-01" purity="3.3601799607276917e-01" nType="-99"/>
        </Node>
        <Node pos="r" depth="1" NCoef="0" IVar="11" Cut="8.9098602533340454e-01" cType="1" res="9.2268504202365875e-02" rms="3.6363717913627625e-01" purity="8.2978910207748413e-01" nType="0">
          <Node pos="l" depth="2" NCoef="0" IVar="-1" Cut="0.0000000000000000e+00" cType="1" res="1.0829471983015537e-02" rms="4.0815472602844238e-01" purity="7.7281045913696289e-01" nType="-99"/>
          <Node pos="r" depth="2" NCoef="0" IVar="-1" Cut="0.0000000000000000e+00" cType="1" res="2.8937386348843575e-02" rms="3.0331647396087646e-01" purity="8.9144903421401978e-01" nType="-99"/>
        </Node>
      </Node>
    </BinaryTree>
    <BinaryTree type="DecisionTree" boostWeight="1.0000000000000000e+00" itree="18">
      <Node pos="s" depth="0" NCoef="0" IVar="11" Cut="4.7627232968807220e-02" cType="1" res="-3.1115671154111624e-03" rms="3.7635076045989990e-01" purity="5.0384634733200073e-01" nType="0">
        <Node pos="l" depth="1" NCoef="0" IVar="11" Cut="6.8185222335159779e-03" cType="1" res="-1.2412483245134354e-01" rms="2.3714080452919006e-01" purity="6.4447082579135895e-02" nType="0">
          <Node pos="l" depth="2" NCoef="0" IVar="-1" Cut="0.0000000000000000e+00" cType="1" res="-4.0381755679845810e-02" rms="1.1120500415563583e-01" purity="1.2554184533655643e-02" nType="-99"/>
          <Node pos="r" depth="2" NCoef="0" IVar="-1" Cut="0.0000000000000000e+00" cType="1" res="-1.9324619323015213e-02" rms="3.4037274122238159e-01" purity="1.3694849610328674e-01" nType="-99"/>
        </Node>
        <Node pos="r" depth="1" NCoef="0" IVar="11" Cut="5.9173959493637085e-01" cType="1" res="4.9124170094728470e-02" rms="4.1164919734001160e-01" purity="6.9351434707641602e-01" nType="0">
          <Node pos="l" depth="2" NCoef="0" IVar="-1" Cut="0.0000000000000000e+00" cType="1" res="-3.2006821129471064e-04" rms="4.7081610560417175e-01" purity="5.2203571796417236e-01" nType="-99"/>
          <Node pos="r" depth="2" NCoef="0" IVar="-1" Cut="0.0000000000000000e+00" cType="1" res="2.2425234317779541e-02" rms="3.3516758680343628e-01" purity="8.6405551433563232e-01" nType="-99"/>
        </Node>
      </Node>
    </BinaryTree>
    <BinaryTree type="DecisionTree" boostWeight="1.0000000000000000e+00" itree="19">
      <Node pos="s" depth="0" NCoef="0" IVar="11" Cut="2.8565916419029236e-01" cType="1" res="-6.4392830245196819e-03" rms="3.7381246685981750e-01" purity="5.0122374296188354e-01" nType="0">
        <Node pos="l" depth="1" NCoef="0" IVar="3" Cut="-8.0826587975025177e-02" cType="1" res="-7.5505726039409637e-02" rms="3.7141877412796021e-01" purity="2.3155401647090912e-01" nType="0">
          <Node pos="l" depth="2" NCoef="0" IVar="-1" Cut="0.0000000000000000e+00" cType="1" res="5.2410620264708996e-04" rms="4.1221022605895996e-01" purity="3.4385877847671509e-01" nType="-99"/>
          <Node pos="r" depth="2" NCoef="0" IVar="-1" Cut="0.0000000000000000e+00" cType="1" res="-2.1645581349730492e-02" rms="3.4468165040016174e-01" purity="1.7904673516750336e-01" nType="-99"/>
        </Node>
        <Node pos="r" depth="1" NCoef="0" IVar="3" Cut="-8.1392727792263031e-02" cType="1" res="7.9218111932277679e-02" rms="3.5874065756797791e-01" purity="8.3567273616790771e-01" nType="0">
          <Node pos="l" depth="2" NCoef="0" IVar="-1" Cut="0.0000000000000000e+00" cType="1" res="3.1296901404857635e-02" rms="2.6968044042587280e-01" purity="9.1895532608032227e-01" nType="-99"/>
          <Node pos="r" depth="2" NCoef="0" IVar="-1" Cut="0.0000000000000000e+00" cType="1" res="8.1884823739528656e-03" rms="4.2339375615119934e-01" purity="7.5677120685577393e-01" nType="-99"/>
        </Node>
      </Node>
    </BinaryTree>
    <BinaryTree type="DecisionTree" boostWeight="1.0000000000000000e+00" itree="20">
      <Node pos="s" depth="0" NCoef="0" IVar="11" Cut="1.4284497499465942e-01" cType="1" res="-4.1122669354081154e-03" rms="3.7295123934745789e-01" purity="5.0134682655334473e-01" nType="0">
        <Node pos="l" depth="1" NCoef="0" IVar="11" Cut="6.8162879906594753e-03" cType="1" res="-7.6626524329185486e-02" rms="3.4668299555778503e-01" purity="1.7453779280185699e-01" nType="0">
          <Node pos="l" depth="2" NCoef="0" IVar="-1" Cut="0.0000000000000000e+00" cType="1" res="-3.8764547556638718e-02" rms="1.1485546827316284e-01" purity="1.3455337844789028e-02" nType="-99"/>
          <Node pos="r" depth="2" NCoef="0" IVar="-1" Cut="0.0000000000000000e+00" cType="1" res="-7.4139139614999294e-03" rms="4.2777383327484131e-01" purity="2.7350598573684692e-01" nType="-99"/>
        </Node>
        <Node pos="r" depth="1" NCoef="0" IVar="3" Cut="5.3180158138275146e-01" cType="1" res="6.0511473566293716e-02" rms="3.8350597023963928e-01" purity="7.9259479045867920e-01" nType="0">
          <Node pos="l" depth="2" NCoef="0" IVar="-1" Cut="0.0000000000000000e+00" cType="1" res="2.0194500684738159e-02" rms="3.3827012777328491e-01" purity="8.5288166999816895e-01" nType="-99"/>
          <Node pos="r" depth="2" NCoef="0" IVar="-1" Cut="0.0000000000000000e+00" cType="1" res="1.8230448768008500e-04" rms="4.5769745111465454e-01" purity="6.6769897937774658e-01" nType="-99"/>
        </Node>
      </Node>
    </BinaryTree>
    <BinaryTree type="DecisionTree" boostWeight="1.0000000000000000e+00" itree="21">
      <Node pos="s" depth="0" NCoef="0" IVar="11" Cut="4.7627232968807220e-02" cType="1" res="-5.1640477031469345e-03" rms="3.7198939919471741e-01" purity="5.0320231914520264e-01" nType="0">
        <Node pos="l" depth="1" NCoef="0" IVar="11" Cut="4.5513943769037724e-03" cType="1" res="-1.0404251515865326e-01" rms="2.3350778222084045e-01" purity="6.3507266342639923e-02" nType="0">
          <Node pos="l" depth="2" NCoef="0" IVar="-1" Cut="0.0000000000000000e+00" cType="1" res="-4.0589284151792526e-02" rms="9.1481082141399384e-02" purity="8.4773730486631393e-03" nType="-99"/>
          <Node pos="r" depth="2" NCoef="0" IVar="-1" Cut="0.0000000000000000e+00" cType="1" res="-1.7795676365494728e-02" rms="3.2405060529708862e-01" purity="1.2515248358249664e-01" nType="-99"/>
        </Node>
        <Node pos="r" depth="1" NCoef="0" IVar="3" Cut="-7.9338245093822479e-02" cType="1" res="3.6781705915927887e-02" rms="4.0992644429206848e-01" purity="6.8972766399383545e-01" nType="0">
          <Node pos="l" depth="2" NCoef="0" IVar="-1" Cut="0.0000000000000000e+00" cType="1" res="2.1805882453918457e-02" rms="3.4939360618591309e-01" purity="8.1373298168182373e-01" nType="-99"/>
          <Node pos="r" depth="2" NCoef="0" IVar="-1" Cut="0.0000000000000000e+00" cType="1" res="-1.1185100302100182e-03" rms="4.4734594225883484e-01" purity="5.9166920185089111e-01" nType="-99"/>
        </Node>
      </Node>
    </BinaryTree>
    <BinaryTree type="DecisionTree" boostWeight="1.0000000000000000e+00" itree="22">
      <Node pos="s" depth="0" NCoef="0" IVar="11" Cut="2.8567522764205933e-01" cType="1" res="-7.5270407833158970e-03" rms="3.7203580141067505e-01" purity="4.9801197648048401e-01" nType="0">
        <Node pos="l" depth="1" NCoef="0" IVar="5" Cut="6.3404159545898438e+00" cType="1" res="-6.3235975801944733e-02" rms="3.7125974893569946e-01" purity="2.3398555815219879e-01" nType="0">
          <Node pos="l" depth="2" NCoef="0" IVar="-1" Cut="0.0000000000000000e+00" cType="1" res="-1.9662501290440559e-03" rms="4.2257934808731079e-01" purity="3.2575353980064392e-01" nType="-99"/>
          <Node pos="r" depth="2" NCoef="0" IVar="-1" Cut="0.0000000000000000e+00" cType="1" res="-2.0250834524631500e-02" rms="3.2617253065109253e-01" purity="1.7051228880882263e-01" nType="-99"/>
        </Node>
        <Node pos="r" depth="1" NCoef="0" IVar="11" Cut="8.9780646562576294e-01" cType="1" res="6.3092514872550964e-02" rms="3.6086094379425049e-01" purity="8.3270561695098877e-01" nType="0">
          <Node pos="l" depth="2" NCoef="0" IVar="-1" Cut="0.0000000000000000e+00" cType="1" res="5.7737268507480621e-03" rms="4.0467643737792969e-01" purity="7.7632093429565430e-01" nType="-99"/>
          <Node pos="r" depth="2" NCoef="0" IVar="-1" Cut="0.0000000000000000e+00" cType="1" res="2.4466946721076965e-02" rms="3.0466821789741516e-01" purity="8.9098477363586426e-01" nType="-99"/>
        </Node>
      </Node>
    </BinaryTree>
    <BinaryTree type="DecisionTree" boostWeight="1.0000000000000000e+00" itree="23">
      <Node pos="s" depth="0" NCoef="0" IVar="11" Cut="4.7623146325349808e-02" cType="1" res="-5.2519631572067738e-03" rms="3.6810311675071716e-01" purity="5.0071579217910767e-01" nType="0">
        <Node pos="l" depth="1" NCoef="0" IVar="5" Cut="6.1258168220520020e+00" cType="1" res="-9.5550298690795898e-02" rms="2.3114897310733795e-01" purity="6.1853531748056412e-02" nType="0">
          <Node pos="l" depth="2" NCoef="0" IVar="-1" Cut="0.0000000000000000e+00" cType="1" res="-1.2179328128695488e-02" rms="3.4117883443832397e-01" purity="1.4345920085906982e-01" nType="-99"/>
          <Node pos="r" depth="2" NCoef="0" IVar="-1" Cut="0.0000000000000000e+00" cType="1" res="-3.3057641237974167e-02" rms="1.8026037514209747e-01" purity="3.5754572600126266e-02" nType="-99"/>
        </Node>
        <Node pos="r" depth="1" NCoef="0" IVar="3" Cut="-8.2106351852416992e-02" cType="1" res="3.3982764929533005e-02" rms="4.0752577781677246e-01" purity="6.9140189886093140e-01" nType="0">
          <Node pos="l" depth="2" NCoef="0" IVar="-1" Cut="0.0000000000000000e+00" cType="1" res="2.0225217565894127e-02" rms="3.4609133005142212e-01" purity="8.1645083427429199e-01" nType="-99"/>
          <Node pos="r" depth="2" NCoef="0" IVar="-1" Cut="0.0000000000000000e+00" cType="1" res="-1.0855922009795904e-03" rms="4.4603350758552551e-01" purity="5.9262168407440186e-01" nType="-99"/>
        </Node>
      </Node>
    </BinaryTree>
    <BinaryTree type="DecisionTree" boostWeight="1.0000000000000000e+00" itree="24">
      <Node pos="s" depth="0" NCoef="0" IVar="11" Cut="4.2850303649902344e-01" cType="1" res="-5.3911842405796051e-03" rms="3.6961892247200012e-01" purity="4.9816685914993286e-01" nType="0">
        <Node pos="l" depth="1" NCoef="0" IVar="11" Cut="6.1228200793266296e-02" cType="1" res="-4.9232985824346542e-02" rms="3.7754365801811218e-01" purity="2.7083870768547058e-01" nType="0">
          <Node pos="l" depth="2" NCoef="0" IVar="-1" Cut="0.0000000000000000e+00" cType="1" res="-2.2389780730009079e-02" rms="2.6446685194969177e-01" purity="8.6806349456310272e-02" nType="-99"/>
          <Node pos="r" depth="2" NCoef="0" IVar="-1" Cut="0.0000000000000000e+00" cType="1" res="-6.4856576500460505e-04" rms="4.8128232359886169e-01" purity="5.0584793090820312e-01" nType="-99"/>
        </Node>
        <Node pos="r" depth="1" NCoef="0" IVar="11" Cut="9.7261691093444824e-01" cType="1" res="6.2807865440845490e-02" rms="3.4607282280921936e-01" purity="8.5179203748703003e-01" nType="0">
          <Node pos="l" depth="2" NCoef="0" IVar="-1" Cut="0.0000000000000000e+00" cType="1" res="1.0670728981494904e-02" rms="3.7148723006248474e-01" purity="8.2467913627624512e-01" nType="-99"/>
          <Node pos="r" depth="2" NCoef="0" IVar="-1" Cut="0.0000000000000000e+00" cType="1" res="2.4153092876076698e-02" rms="2.8098240494728088e-01" purity="9.0853220224380493e-01" nType="-99"/>
        </Node>
      </Node>
    </BinaryTree>
    <BinaryTree type="DecisionTree" boostWeight="1.0000000000000000e+00" itree="25">
      <Node pos="s" depth="0" NCoef="0" IVar="11" Cut="2.3806561529636383e-01" cType="1" res="-4.2320438660681248e-03" rms="3.6614957451820374e-01" purity="5.0157809257507324e-01" nType="0">
        <Node pos="l" depth="1" NCoef="0" IVar="3" Cut="2.3594924807548523e-01" cType="1" res="-5.4133370518684387e-02" rms="3.6177471280097961e-01" purity="2.1673280000686646e-01" nType="0">
          <Node pos="l" depth="2" NCoef="0" IVar="-1" Cut="0.0000000000000000e+00" cType="1" res="-1.1669649975374341e-03" rms="3.9581206440925598e-01" purity="2.9851266741752625e-01" nType="-99"/>
          <Node pos="r" depth="2" NCoef="0" IVar="-1" Cut="0.0000000000000000e+00" cType="1" res="-1.8110629171133041e-02" rms="3.3215722441673279e-01" purity="1.6028757393360138e-01" nType="-99"/>
        </Node>
        <Node pos="r" depth="1" NCoef="0" IVar="4" Cut="-3.4264025092124939e-01" cType="1" res="5.2838791161775589e-02" rms="3.6277076601982117e-01" purity="8.2734823226928711e-01" nType="0">
          <Node pos="l" depth="2" NCoef="0" IVar="-1" Cut="0.0000000000000000e+00" cType="1" res="1.9478971138596535e-02" rms="3.2618388533592224e-01" purity="8.6548006534576416e-01" nType="-99"/>
          <Node pos="r" depth="2" NCoef="0" IVar="-1" Cut="0.0000000000000000e+00" cType="1" res="2.8598287608474493e-03" rms="4.0827459096908569e-01" purity="7.7044904232025146e-01" nType="-99"/>
        </Node>
      </Node>
    </BinaryTree>
    <BinaryTree type="DecisionTree" boostWeight="1.0000000000000000e+00" itree="26">
      <Node pos="s" depth="0" NCoef="0" IVar="11" Cut="1.4283302426338196e-01" cType="1" res="-4.7558047808706760e-03" rms="3.6558985710144043e-01" purity="4.9853557348251343e-01" nType="0">
        <Node pos="l" depth="1" NCoef="0" IVar="3" Cut="-3.8783141970634460e-01" cType="1" res="-5.7569365948438644e-02" rms="3.3983802795410156e-01" purity="1.7017166316509247e-01" nType="0">
          <Node pos="l" depth="2" NCoef="0" IVar="-1" Cut="0.0000000000000000e+00" cType="1" res="2.6629036292433739e-03" rms="3.9980199933052063e-01" purity="2.7628353238105774e-01" nType="-99"/>
          <Node pos="r" depth="2" NCoef="0" IVar="-1" Cut="0.0000000000000000e+00" cType="1" res="-1.7752509564161301e-02" rms="3.1767669320106506e-01" purity="1.3965845108032227e-01" nType="-99"/>
        </Node>
        <Node pos="r" depth="1" NCoef="0" IVar="4" Cut="-2.9348032549023628e-02" cType="1" res="4.2722731828689575e-02" rms="3.8108426332473755e-01" purity="7.9372936487197876e-01" nType="0">
          <Node pos="l" depth="2" NCoef="0" IVar="-1" Cut="0.0000000000000000e+00" cType="1" res="1.4897127635776997e-02" rms="3.5450327396392822e-01" purity="8.2865929603576660e-01" nType="-99"/>
          <Node pos="r" depth="2" NCoef="0" IVar="-1" Cut="0.0000000000000000e+00" cType="1" res="-2.7193136047571898e-03" rms="4.3891862034797668e-01" purity="7.0089364051818848e-01" nType="-99"/>
        </Node>
      </Node>
    </BinaryTree>
    <BinaryTree type="DecisionTree" boostWeight="1.0000000000000000e+00" itree="27">
      <Node pos="s" depth="0" NCoef="0" IVar="11" Cut="4.7626517713069916e-02" cType="1" res="-4.0508159436285496e-03" rms="3.6551672220230103e-01" purity="4.9924919009208679e-01" nType="0">
        <Node pos="l" depth="1" NCoef="0" IVar="11" Cut="1.3618873432278633e-02" cType="1" res="-7.7467650175094604e-02" rms="2.2994948923587799e-01" purity="6.1137318611145020e-02" nType="0">
          <Node pos="l" depth="2" NCoef="0" IVar="-1" Cut="0.0000000000000000e+00" cType="1" res="-3.3973965793848038e-02" rms="1.3420772552490234e-01" purity="1.8764801323413849e-02" nType="-99"/>
          <Node pos="r" depth="2" NCoef="0" IVar="-1" Cut="0.0000000000000000e+00" cType="1" res="-8.7053403258323669e-03" rms="3.6688661575317383e-01" purity="1.6284288465976715e-01" nType="-99"/>
        </Node>
        <Node pos="r" depth="1" NCoef="0" IVar="3" Cut="-3.8764300942420959e-01" cType="1" res="2.7928508818149567e-02" rms="4.0668776631355286e-01" purity="6.9008445739746094e-01" nType="0">
          <Node pos="l" depth="2" NCoef="0" IVar="-1" Cut="0.0000000000000000e+00" cType="1" res="2.2434707731008530e-02" rms="3.3487120270729065e-01" purity="8.3440256118774414e-01" nType="-99"/>
          <Node pos="r" depth="2" NCoef="0" IVar="-1" Cut="0.0000000000000000e+00" cType="1" res="-3.9022212149575353e-04" rms="4.3710398674011230e-01" purity="6.1343431472778320e-01" nType="-99"/>
        </Node>
      </Node>
    </BinaryTree>
    <BinaryTree type="DecisionTree" boostWeight="1.0000000000000000e+00" itree="28">
      <Node pos="s" depth="0" NCoef="0" IVar="11" Cut="4.7623734921216965e-02" cType="1" res="-2.6699169538915157e-03" rms="3.6414921283721924e-01" purity="5.0308054685592651e-01" nType="0">
        <Node pos="l" depth="1" NCoef="0" IVar="11" Cut="1.5876850113272667e-02" cType="1" res="-7.1635417640209198e-02" rms="2.2962018847465515e-01" purity="6.1249587684869766e-02" nType="0">
          <Node pos="l" depth="2" NCoef="0" IVar="-1" Cut="0.0000000000000000e+00" cType="1" res="-3.2389633357524872e-02" rms="1.4732888340950012e-01" purity="2.2792249917984009e-02" nType="-99"/>
          <Node pos="r" depth="2" NCoef="0" IVar="-1" Cut="0.0000000000000000e+00" cType="1" res="-7.7989175915718079e-03" rms="3.7298765778541565e-01" purity="1.7055290937423706e-01" nType="-99"/>
        </Node>
        <Node pos="r" depth="1" NCoef="0" IVar="7" Cut="1.2495100498199463e+00" cType="1" res="2.6911783963441849e-02" rms="4.0491041541099548e-01" purity="6.9259721040725708e-01" nType="0">
          <Node pos="l" depth="2" NCoef="0" IVar="-1" Cut="0.0000000000000000e+00" cType="1" res="7.2454488836228848e-03" rms="4.0119978785514832e-01" purity="7.0387858152389526e-01" nType="-99"/>
          <Node pos="r" depth="2" NCoef="0" IVar="-1" Cut="0.0000000000000000e+00" cType="1" res="-2.7477173134684563e-02" rms="4.3517166376113892e-01" purity="4.6736851334571838e-01" nType="-99"/>
        </Node>
      </Node>
    </BinaryTree>
    <BinaryTree type="DecisionTree" boostWeight="1.0000000000000000e+00" itree="29">
      <Node pos="s" depth="0" NCoef="0" IVar="11" Cut="5.7133543491363525e-01" cType="1" res="-6.2230033800005913e-03" rms="3.6493039131164551e-01" purity="4.9878612160682678e-01" nType="0">
        <Node pos="l" depth="1" NCoef="0" IVar="3" Cut="5.3172612190246582e-01" cType="1" res="-3.8902979344129562e-02" rms="3.7650591135025024e-01" purity="2.9853522777557373e-01" nType="0">
          <Node pos="l" depth="2" NCoef="0" IVar="-1" Cut="0.0000000000000000e+00" cType="1" res="-1.3803460169583559e-03" rms="3.9679121971130371e-01" purity="3.7462297081947327e-01" nType="-99"/>
          <Node pos="r" depth="2" NCoef="0" IVar="-1" Cut="0.0000000000000000e+00" cType="1" res="-1.6753600910305977e-02" rms="3.4544134140014648e-01" purity="2.0388719439506531e-01" nType="-99"/>
        </Node>
        <Node pos="r" depth="1" NCoef="0" IVar="6" Cut="-1.9797052145004272e+00" cType="1" res="5.3132761269807816e-02" rms="3.3484801650047302e-01" purity="8.6249643564224243e-01" nType="0">
          <Node pos="l" depth="2" NCoef="0" IVar="-1" Cut="0.0000000000000000e+00" cType="1" res="1.6446992754936218e-02" rms="3.2430267333984375e-01" purity="8.7315452098846436e-01" nType="-99"/>
          <Node pos="r" depth="2" NCoef="0" IVar="-1" Cut="0.0000000000000000e+00" cType="1" res="-7.2908704169094563e-03" rms="4.1418024897575378e-01" purity="7.5998586416244507e-01" nType="-99"/>
        </Node>
      </Node>
    </BinaryTree>
    <BinaryTree type="DecisionTree" boostWeight="1.0000000000000000e+00" itree="30">
      <Node pos="s" depth="0" NCoef="0" IVar="11" Cut="4.7624494880437851e-02" cType="1" res="-8.4630056517198682e-04" rms="3.6529743671417236e-01" purity="5.0233972072601318e-01" nType="0">
        <Node pos="l" depth="1" NCoef="0" IVar="11" Cut="9.0841148048639297e-03" cType="1" res="-5.9280022978782654e-02" rms="2.3820136487483978e-01" purity="6.6321007907390594e-02" nType="0">
          <Node pos="l" depth="2" NCoef="0" IVar="-1" Cut="0.0000000000000000e+00" cType="1" res="-3.3478442579507828e-02" rms="1.2308957427740097e-01" purity="1.5565315261483192e-02" nType="-99"/>
          <Node pos="r" depth="2" NCoef="0" IVar="-1" Cut="0.0000000000000000e+00" cType="1" res="-5.6883767247200012e-03" rms="3.5953745245933533e-01" purity="1.5726071596145630e-01" nType="-99"/>
        </Node>
        <Node pos="r" depth="1" NCoef="0" IVar="10" Cut="2.0000000000000000e+00" cType="1" res="7.7586402185261250e-03" rms="3.0553990602493286e-01" purity="6.9222158193588257e-01" nType="0">
          <Node pos="l" depth="2" NCoef="0" IVar="-1" Cut="0.0000000000000000e+00" cType="1" res="1.1883395723998547e-02" rms="3.8481020927429199e-01" purity="7.4482685327529907e-01" nType="-99"/>
          <Node pos="r" depth="2" NCoef="0" IVar="-1" Cut="0.0000000000000000e+00" cType="1" res="-2.8669033199548721e-03" rms="4.2359206080436707e-01" purity="6.3662266731262207e-01" nType="-99"/>
        </Node>
      </Node>
    </BinaryTree>
    <BinaryTree type="DecisionTree" boostWeight="1.0000000000000000e+00" itree="31">
      <Node pos="s" depth="0" NCoef="0" IVar="11" Cut="2.3806433379650116e-01" cType="1" res="-7.4649956077337265e-03" rms="3.6481392383575439e-01" purity="4.9721723794937134e-01" nType="0">
        <Node pos="l" depth="1" NCoef="0" IVar="3" Cut="-3.8782379031181335e-01" cType="1" res="-4.2225848883390427e-02" rms="3.6004155874252319e-01" purity="2.1566018462181091e-01" nType="0">
          <Node pos="l" depth="2" NCoef="0" IVar="-1" Cut="0.0000000000000000e+00" cType="1" res="2.3005502298474312e-03" rms="4.0818044543266296e-01" purity="3.3833086490631104e-01" nType="-99"/>
          <Node pos="r" depth="2" NCoef="0" IVar="-1" Cut="0.0000000000000000e+00" cType="1" res="-1.3315041549503803e-02" rms="3.4246155619621277e-01" purity="1.7842571437358856e-01" nType="-99"/>
        </Node>
        <Node pos="r" depth="1" NCoef="0" IVar="5" Cut="7.0289816856384277e+00" cType="1" res="3.2655328512191772e-02" rms="3.6616605520248413e-01" purity="8.2218521833419800e-01" nType="0">
          <Node pos="l" depth="2" NCoef="0" IVar="-1" Cut="0.0000000000000000e+00" cType="1" res="1.7516123130917549e-02" rms="3.2090765237808228e-01" purity="8.6952608823776245e-01" nType="-99"/>
          <Node pos="r" depth="2" NCoef="0" IVar="-1" Cut="0.0000000000000000e+00" cType="1" res="-1.6576821217313409e-03" rms="4.1826236248016357e-01" purity="7.5563031435012817e-01" nType="-99"/>
        </Node>
      </Node>
    </BinaryTree>
    <BinaryTree type="DecisionTree" boostWeight="1.0000000000000000e+00" itree="32">
      <Node pos="s" depth="0" NCoef="0" IVar="11" Cut="5.2372241020202637e-01" cType="1" res="-4.4358065351843834e-03" rms="3.6270445585250854e-01" purity="4.9933993816375732e-01" nType="0">
        <Node pos="l" depth="1" NCoef="0" IVar="5" Cut="6.5778918266296387e+00" cType="1" res="-3.3665198832750320e-02" rms="3.7452322244644165e-01" purity="2.8916871547698975e-01" nType="0">
          <Node pos="l" depth="2" NCoef="0" IVar="-1" Cut="0.0000000000000000e+00" cType="1" res="-4.4737392454408109e-04" rms="4.0745574235916138e-01" purity="3.5863035917282104e-01" nType="-99"/>
          <Node pos="r" depth="2" NCoef="0" IVar="-1" Cut="0.0000000000000000e+00" cType="1" res="-1.4388185925781727e-02" rms="3.3566275238990784e-01" purity="2.2003792226314545e-01" nType="-99"/>
        </Node>
        <Node pos="r" depth="1" NCoef="0" IVar="9" Cut="4.0986123085021973e+00" cType="1" res="4.5389323495328426e-03" rms="1.3879196345806122e-01" purity="8.6187613010406494e-01" nType="0">
          <Node pos="l" depth="2" NCoef="0" IVar="-1" Cut="0.0000000000000000e+00" cType="1" res="1.3092915527522564e-02" rms="3.3183977007865906e-01" purity="8.6540585756301880e-01" nType="-99"/>
          <Node pos="r" depth="2" NCoef="0" IVar="-1" Cut="0.0000000000000000e+00" cType="1" res="-2.1927276626229286e-02" rms="4.1250625252723694e-01" purity="7.6577961444854736e-01" nType="-99"/>
        </Node>
      </Node>
    </BinaryTree>
    <BinaryTree type="DecisionTree" boostWeight="1.0000000000000000e+00" itree="33">
      <Node pos="s" depth="0" NCoef="0" IVar="11" Cut="6.6655403375625610e-01" cType="1" res="-7.6706157997250557e-03" rms="3.6313185095787048e-01" purity="4.9706959724426270e-01" nType="0">
        <Node pos="l" depth="1" NCoef="0" IVar="3" Cut="2.2515757381916046e-01" cType="1" res="-3.2516255974769592e-02" rms="3.7535279989242554e-01" purity="3.1839311122894287e-01" nType="0">
          <Node pos="l" depth="2" NCoef="0" IVar="-1" Cut="0.0000000000000000e+00" cType="1" res="9.5720941317267716e-05" rms="3.9252963662147522e-01" purity="4.2844969034194946e-01" nType="-99"/>
          <Node pos="r" depth="2" NCoef="0" IVar="-1" Cut="0.0000000000000000e+00" cType="1" res="-1.2524018995463848e-02" rms="3.5973712801933289e-01" purity="2.3473007977008820e-01" nType="-99"/>
        </Node>
        <Node pos="r" depth="1" NCoef="0" IVar="9" Cut="3.6931471824645996e+00" cType="1" res="6.1316373758018017e-03" rms="1.5725813806056976e-01" purity="8.6661875247955322e-01" nType="0">
          <Node pos="l" depth="2" NCoef="0" IVar="-1" Cut="0.0000000000000000e+00" cType="1" res="1.6624929383397102e-02" rms="3.0591025948524475e-01" purity="8.8897025585174561e-01" nType="-99"/>
          <Node pos="r" depth="2" NCoef="0" IVar="-1" Cut="0.0000000000000000e+00" cType="1" res="-6.3457246869802475e-03" rms="3.8861191272735596e-01" purity="8.0032199621200562e-01" nType="-99"/>
        </Node>
      </Node>
    </BinaryTree>
    <BinaryTree type="DecisionTree" boostWeight="1.0000000000000000e+00" itree="34">
      <Node pos="s" depth="0" NCoef="0" IVar="11" Cut="4.7621794044971466e-02" cType="1" res="-4.1999104432761669e-03" rms="3.6264792084693909e-01" purity="4.9786067008972168e-01" nType="0">
        <Node pos="l" depth="1" NCoef="0" IVar="11" Cut="9.0789590030908585e-03" cType="1" res="-5.5348828434944153e-02" rms="2.2939752042293549e-01" purity="6.1922915279865265e-02" nType="0">
          <Node pos="l" depth="2" NCoef="0" IVar="-1" Cut="0.0000000000000000e+00" cType="1" res="-3.3696245402097702e-02" rms="1.1276833713054657e-01" purity="1.3047987595200539e-02" nType="-99"/>
          <Node pos="r" depth="2" NCoef="0" IVar="-1" Cut="0.0000000000000000e+00" cType="1" res="-6.4200931228697300e-03" rms="3.5044193267822266e-01" purity="1.4956530928611755e-01" nType="-99"/>
        </Node>
        <Node pos="r" depth="1" NCoef="0" IVar="4" Cut="9.4393834471702576e-02" cType="1" res="1.8221382051706314e-02" rms="4.0551915764808655e-01" purity="6.8895536661148071e-01" nType="0">
          <Node pos="l" depth="2" NCoef="0" IVar="-1" Cut="0.0000000000000000e+00" cType="1" res="8.6699500679969788e-03" rms="3.8830229640007019e-01" purity="7.3029643297195435e-01" nType="-99"/>
          <Node pos="r" depth="2" NCoef="0" IVar="-1" Cut="0.0000000000000000e+00" cType="1" res="-8.2679418846964836e-03" rms="4.4855418801307678e-01" purity="5.6041741371154785e-01" nType="-99"/>
        </Node>
      </Node>
    </BinaryTree>
    <BinaryTree type="DecisionTree" boostWeight="1.0000000000000000e+00" itree="35">
      <Node pos="s" depth="0" NCoef="0" IVar="3" Cut="-3.8874250650405884e-01" cType="1" res="-6.6878767684102058e-03" rms="3.6419373750686646e-01" purity="4.9753665924072266e-01" nType="0">
        <Node pos="l" depth="1" NCoef="0" IVar="2" Cut="8.8068008422851562e+00" cType="1" res="4.1766911745071411e-02" rms="3.3286833763122559e-01" purity="6.8566417694091797e-01" nType="0">
          <Node pos="l" depth="2" NCoef="0" IVar="-1" Cut="0.0000000000000000e+00" cType="1" res="-3.1483937054872513e-03" rms="3.5653844475746155e-01" purity="5.9078830480575562e-01" nType="-99"/>
          <Node pos="r" depth="2" NCoef="0" IVar="-1" Cut="0.0000000000000000e+00" cType="1" res="2.0565729588270187e-02" rms="3.2162165641784668e-01" purity="7.1921020746231079e-01" nType="-99"/>
        </Node>
        <Node pos="r" depth="1" NCoef="0" IVar="10" Cut="2.0000000000000000e+00" cType="1" res="-1.5106451697647572e-02" rms="2.8249272704124451e-01" purity="4.1402086615562439e-01" nType="0">
          <Node pos="l" depth="2" NCoef="0" IVar="-1" Cut="0.0000000000000000e+00" cType="1" res="3.5591935738921165e-04" rms="3.7069648504257202e-01" purity="4.6775215864181519e-01" nType="-99"/>
          <Node pos="r" depth="2" NCoef="0" IVar="-1" Cut="0.0000000000000000e+00" cType="1" res="-1.3161086477339268e-02" rms="3.7736523151397705e-01" purity="3.6322617530822754e-01" nType="-99"/>
        </Node>
      </Node>
    </BinaryTree>
    <BinaryTree type="DecisionTree" boostWeight="1.0000000000000000e+00" itree="36">
      <Node pos="s" depth="0" NCoef="0" IVar="11" Cut="9.0457862615585327e-01" cType="1" res="-5.8107153745368123e-04" rms="3.6157637834548950e-01" purity="5.0251549482345581e-01" nType="0">
        <Node pos="l" depth="1" NCoef="0" IVar="9" Cut="3.0000000000000000e+00" cType="1" res="-2.0224037580192089e-03" rms="2.6241034269332886e-01" purity="3.9710283279418945e-01" nType="0">
          <Node pos="l" depth="2" NCoef="0" IVar="-1" Cut="0.0000000000000000e+00" cType="1" res="1.1705954559147358e-02" rms="3.6174082756042480e-01" purity="5.1885527372360229e-01" nType="-99"/>
          <Node pos="r" depth="2" NCoef="0" IVar="-1" Cut="0.0000000000000000e+00" cType="1" res="-6.7666103132069111e-03" rms="3.7622541189193726e-01" purity="3.7962546944618225e-01" nType="-99"/>
        </Node>
        <Node pos="r" depth="1" NCoef="0" IVar="13" Cut="7.5980848073959351e-01" cType="1" res="6.2614277005195618e-02" rms="2.9493066668510437e-01" purity="8.9737552404403687e-01" nType="0">
          <Node pos="l" depth="2" NCoef="0" IVar="-1" Cut="0.0000000000000000e+00" cType="1" res="2.0486565306782722e-02" rms="2.7571919560432434e-01" purity="9.1238075494766235e-01" nType="-99"/>
          <Node pos="r" depth="2" NCoef="0" IVar="-1" Cut="0.0000000000000000e+00" cType="1" res="7.7853924594819546e-03" rms="3.4290328621864319e-01" purity="8.5245060920715332e-01" nType="-99"/>
        </Node>
      </Node>
    </BinaryTree>
    <BinaryTree type="DecisionTree" boostWeight="1.0000000000000000e+00" itree="37">
      <Node pos="s" depth="0" NCoef="0" IVar="11" Cut="8.5699099302291870e-01" cType="1" res="-2.8924872167408466e-03" rms="3.6223891377449036e-01" purity="5.0211411714553833e-01" nType="0">
        <Node pos="l" depth="1" NCoef="0" IVar="5" Cut="6.4922161102294922e+00" cType="1" res="-2.0403694361448288e-02" rms="3.7663993239402771e-01" purity="3.7273648381233215e-01" nType="0">
          <Node pos="l" depth="2" NCoef="0" IVar="-1" Cut="0.0000000000000000e+00" cType="1" res="3.0524730682373047e-03" rms="3.9920285344123840e-01" purity="4.4309297204017639e-01" nType="-99"/>
          <Node pos="r" depth="2" NCoef="0" IVar="-1" Cut="0.0000000000000000e+00" cType="1" res="-1.1529240757226944e-02" rms="3.5381674766540527e-01" purity="3.1310823559761047e-01" nType="-99"/>
        </Node>
        <Node pos="r" depth="1" NCoef="0" IVar="3" Cut="5.3281629085540771e-01" cType="1" res="4.8808928579092026e-02" rms="3.1019747257232666e-01" purity="8.8409829139709473e-01" nType="0">
          <Node pos="l" depth="2" NCoef="0" IVar="-1" Cut="0.0000000000000000e+00" cType="1" res="2.2685280069708824e-02" rms="2.5518113374710083e-01" purity="9.2684471607208252e-01" nType="-99"/>
          <Node pos="r" depth="2" NCoef="0" IVar="-1" Cut="0.0000000000000000e+00" cType="1" res="2.9033219907432795e-03" rms="4.1190344095230103e-01" purity="7.8080445528030396e-01" nType="-99"/>
        </Node>
      </Node>
    </BinaryTree>
    <BinaryTree type="DecisionTree" boostWeight="1.0000000000000000e+00" itree="38">
      <Node pos="s" depth="0" NCoef="0" IVar="11" Cut="4.7627914696931839e-02" cType="1" res="-1.1776137398555875e-03" rms="3.6191499233245850e-01" purity="5.0193220376968384e-01" nType="0">
        <Node pos="l" depth="1" NCoef="0" IVar="11" Cut="1.5881018713116646e-02" cType="1" res="-4.3785493820905685e-02" rms="2.3587650060653687e-01" purity="6.6435374319553375e-02" nType="0">
          <Node pos="l" depth="2" NCoef="0" IVar="-1" Cut="0.0000000000000000e+00" cType="1" res="-2.8803406283259392e-02" rms="1.4725494384765625e-01" purity="2.2874126210808754e-02" nType="-99"/>
          <Node pos="r" depth="2" NCoef="0" IVar="-1" Cut="0.0000000000000000e+00" cType="1" res="8.5016153752803802e-04" rms="3.8760358095169067e-01" purity="1.9167312979698181e-01" nType="-99"/>
        </Node>
        <Node pos="r" depth="1" NCoef="0" IVar="9" Cut="3.6931471824645996e+00" cType="1" res="4.7606225125491619e-03" rms="2.5709271430969238e-01" purity="6.9063699245452881e-01" nType="0">
          <Node pos="l" depth="2" NCoef="0" IVar="-1" Cut="0.0000000000000000e+00" cType="1" res="7.3541556484997272e-03" rms="3.8876825571060181e-01" purity="7.2926408052444458e-01" nType="-99"/>
          <Node pos="r" depth="2" NCoef="0" IVar="-1" Cut="0.0000000000000000e+00" cType="1" res="-9.3029029667377472e-03" rms="4.3011513352394104e-01" purity="6.0167962312698364e-01" nType="-99"/>
        </Node>
      </Node>
    </BinaryTree>
    <BinaryTree type="DecisionTree" boostWeight="1.0000000000000000e+00" itree="39">
      <Node pos="s" depth="0" NCoef="0" IVar="3" Cut="-8.2364998757839203e-02" cType="1" res="-2.6349525433033705e-03" rms="3.6318236589431763e-01" purity="4.9946033954620361e-01" nType="0">
        <Node pos="l" depth="1" NCoef="0" IVar="4" Cut="3.1196014955639839e-02" cType="1" res="3.2775588333606720e-02" rms="3.3631220459938049e-01" purity="6.6127204895019531e-01" nType="0">
          <Node pos="l" depth="2" NCoef="0" IVar="-1" Cut="0.0000000000000000e+00" cType="1" res="1.7102258279919624e-02" rms="3.1827151775360107e-01" purity="7.1097189188003540e-01" nType="-99"/>
          <Node pos="r" depth="2" NCoef="0" IVar="-1" Cut="0.0000000000000000e+00" cType="1" res="-1.1228616349399090e-02" rms="3.8121020793914795e-01" purity="4.9070334434509277e-01" nType="-99"/>
        </Node>
        <Node pos="r" depth="1" NCoef="0" IVar="7" Cut="1.2977708578109741e+00" cType="1" res="-2.5682328268885612e-02" rms="3.7787222862243652e-01" purity="3.9414319396018982e-01" nType="0">
          <Node pos="l" depth="2" NCoef="0" IVar="-1" Cut="0.0000000000000000e+00" cType="1" res="-4.2191576212644577e-03" rms="3.7829133868217468e-01" purity="4.0508288145065308e-01" nType="-99"/>
          <Node pos="r" depth="2" NCoef="0" IVar="-1" Cut="0.0000000000000000e+00" cType="1" res="-2.8662759810686111e-02" rms="3.5387101769447327e-01" purity="2.1556963026523590e-01" nType="-99"/>
        </Node>
      </Node>
    </BinaryTree>
    <BinaryTree type="DecisionTree" boostWeight="1.0000000000000000e+00" itree="40">
      <Node pos="s" depth="0" NCoef="0" IVar="11" Cut="4.7628559172153473e-02" cType="1" res="-1.4862784883007407e-03" rms="3.5924115777015686e-01" purity="5.0223398208618164e-01" nType="0">
        <Node pos="l" depth="1" NCoef="0" IVar="11" Cut="2.2858437150716782e-03" cType="1" res="-4.3876167386770248e-02" rms="2.3227064311504364e-01" purity="6.3174478709697723e-02" nType="0">
          <Node pos="l" depth="2" NCoef="0" IVar="-1" Cut="0.0000000000000000e+00" cType="1" res="-3.8543887436389923e-02" rms="6.6392898559570312e-02" purity="4.4658654369413853e-03" nType="-99"/>
          <Node pos="r" depth="2" NCoef="0" IVar="-1" Cut="0.0000000000000000e+00" cType="1" res="-8.4137115627527237e-03" rms="3.0138647556304932e-01" purity="1.0776549577713013e-01" nType="-99"/>
        </Node>
        <Node pos="r" depth="1" NCoef="0" IVar="10" Cut="2.0000000000000000e+00" cType="1" res="5.1579894497990608e-03" rms="3.0143171548843384e-01" purity="6.9177621603012085e-01" nType="0">
          <Node pos="l" depth="2" NCoef="0" IVar="-1" Cut="0.0000000000000000e+00" cType="1" res="1.0154008865356445e-02" rms="3.7864238023757935e-01" purity="7.4786972999572754e-01" nType="-99"/>
          <Node pos="r" depth="2" NCoef="0" IVar="-1" Cut="0.0000000000000000e+00" cType="1" res="-3.5413019359111786e-03" rms="4.1971012949943542e-01" purity="6.3253271579742432e-01" nType="-99"/>
        </Node>
      </Node>
    </BinaryTree>
    <BinaryTree type="DecisionTree" boostWeight="1.0000000000000000e+00" itree="41">
      <Node pos="s" depth="0" NCoef="0" IVar="11" Cut="4.7625619918107986e-02" cType="1" res="-3.3042801078408957e-03" rms="3.6237093806266785e-01" purity="4.9872732162475586e-01" nType="0">
        <Node pos="l" depth="1" NCoef="0" IVar="11" Cut="2.2829859517514706e-03" cType="1" res="-4.4016391038894653e-02" rms="2.2666135430335999e-01" purity="6.0083217918872833e-02" nType="0">
          <Node pos="l" depth="2" NCoef="0" IVar="-1" Cut="0.0000000000000000e+00" cType="1" res="-3.8429401814937592e-02" rms="6.6768966615200043e-02" purity="4.4734487310051918e-03" nType="-99"/>
          <Node pos="r" depth="2" NCoef="0" IVar="-1" Cut="0.0000000000000000e+00" cType="1" res="-9.8674278706312180e-03" rms="2.9269030690193176e-01" purity="1.0124478489160538e-01" nType="-99"/>
        </Node>
        <Node pos="r" depth="1" NCoef="0" IVar="6" Cut="-1.3326357603073120e+00" cType="1" res="1.4254949986934662e-02" rms="4.0591457486152649e-01" purity="6.8791550397872925e-01" nType="0">
          <Node pos="l" depth="2" NCoef="0" IVar="-1" Cut="0.0000000000000000e+00" cType="1" res="5.3446888923645020e-03" rms="3.9948359131813049e-01" purity="7.1326094865798950e-01" nType="-99"/>
          <Node pos="r" depth="2" NCoef="0" IVar="-1" Cut="0.0000000000000000e+00" cType="1" res="-1.8645755946636200e-02" rms="4.5575907826423645e-01" purity="4.0322729945182800e-01" nType="-99"/>
        </Node>
      </Node>
    </BinaryTree>
    <BinaryTree type="DecisionTree" boostWeight="1.0000000000000000e+00" itree="42">
      <Node pos="s" depth="0" NCoef="0" IVar="3" Cut="-6.9403147697448730e-01" cType="1" res="-5.8131280820816755e-04" rms="3.6150875687599182e-01" purity="5.0358998775482178e-01" nType="0">
        <Node pos="l" depth="1" NCoef="0" IVar="4" Cut="-4.8335966467857361e-01" cType="1" res="4.4558953493833542e-02" rms="3.2391726970672607e-01" purity="7.0438474416732788e-01" nType="0">
          <Node pos="l" depth="2" NCoef="0" IVar="-1" Cut="0.0000000000000000e+00" cType="1" res="2.5942852720618248e-02" rms="2.9796940088272095e-01" purity="7.8849524259567261e-01" nType="-99"/>
          <Node pos="r" depth="2" NCoef="0" IVar="-1" Cut="0.0000000000000000e+00" cType="1" res="-2.0014785695821047e-03" rms="3.5290858149528503e-01" purity="5.7837849855422974e-01" nType="-99"/>
        </Node>
        <Node pos="r" depth="1" NCoef="0" IVar="7" Cut="1.2978383302688599e+00" cType="1" res="-1.4784094877541065e-02" rms="3.7141987681388855e-01" purity="4.4041258096694946e-01" nType="0">
          <Node pos="l" depth="2" NCoef="0" IVar="-1" Cut="0.0000000000000000e+00" cType="1" res="-2.0379596389830112e-03" rms="3.7150290608406067e-01" purity="4.5185348391532898e-01" nType="-99"/>
          <Node pos="r" depth="2" NCoef="0" IVar="-1" Cut="0.0000000000000000e+00" cType="1" res="-2.8861640021204948e-02" rms="3.5294571518898010e-01" purity="2.3705787956714630e-01" nType="-99"/>
        </Node>
      </Node>
    </BinaryTree>
    <BinaryTree type="DecisionTree" boostWeight="1.0000000000000000e+00" itree="43">
      <Node pos="s" depth="0" NCoef="0" IVar="3" Cut="2.2513277828693390e-01" cType="1" res="-4.3489150702953339e-03" rms="3.6076939105987549e-01" purity="4.9773213267326355e-01" nType="0">
        <Node pos="l" depth="1" NCoef="0" IVar="4" Cut="6.1619905754923820e-03" cType="1" res="2.0696047693490982e-02" rms="3.4241801500320435e-01" purity="6.2961447238922119e-01" nType="0">
          <Node pos="l" depth="2" NCoef="0" IVar="-1" Cut="0.0000000000000000e+00" cType="1" res="1.2400873005390167e-02" rms="3.2672655582427979e-01" purity="6.8053138256072998e-01" nType="-99"/>
          <Node pos="r" depth="2" NCoef="0" IVar="-1" Cut="0.0000000000000000e+00" cType="1" res="-9.9790198728442192e-03" rms="3.7999776005744934e-01" purity="4.7298794984817505e-01" nType="-99"/>
        </Node>
        <Node pos="r" depth="1" NCoef="0" IVar="11" Cut="9.5213299989700317e-01" cType="1" res="-2.8251346200704575e-02" rms="3.7589940428733826e-01" purity="3.7186619639396667e-01" nType="0">
          <Node pos="l" depth="2" NCoef="0" IVar="-1" Cut="0.0000000000000000e+00" cType="1" res="-8.0920774489641190e-03" rms="3.7431091070175171e-01" purity="3.1841921806335449e-01" nType="-99"/>
          <Node pos="r" depth="2" NCoef="0" IVar="-1" Cut="0.0000000000000000e+00" cType="1" res="8.1011066213250160e-03" rms="3.8216057419776917e-01" purity="8.2070958614349365e-01" nType="-99"/>
        </Node>
      </Node>
    </BinaryTree>
    <BinaryTree type="DecisionTree" boostWeight="1.0000000000000000e+00" itree="44">
      <Node pos="s" depth="0" NCoef="0" IVar="9" Cut="3.6931471824645996e+00" cType="1" res="-1.9472931744530797e-03" rms="2.3397080600261688e-01" purity="4.9842172861099243e-01" nType="0">
        <Node pos="l" depth="1" NCoef="0" IVar="11" Cut="4.7625873237848282e-02" cType="1" res="1.4958089217543602e-02" rms="3.5211813449859619e-01" purity="5.3776895999908447e-01" nType="0">
          <Node pos="l" depth="2" NCoef="0" IVar="-1" Cut="0.0000000000000000e+00" cType="1" res="-1.1504225432872772e-02" rms="2.3335184156894684e-01" purity="6.5049625933170319e-02" nType="-99"/>
          <Node pos="r" depth="2" NCoef="0" IVar="-1" Cut="0.0000000000000000e+00" cType="1" res="6.4026215113699436e-03" rms="3.8803359866142273e-01" purity="7.2667670249938965e-01" nType="-99"/>
        </Node>
        <Node pos="r" depth="1" NCoef="0" IVar="11" Cut="9.5195227861404419e-01" cType="1" res="-3.8879685103893280e-02" rms="3.7408229708671570e-01" purity="4.1507610678672791e-01" nType="0">
          <Node pos="l" depth="2" NCoef="0" IVar="-1" Cut="0.0000000000000000e+00" cType="1" res="-1.5819190070033073e-02" rms="3.7797713279724121e-01" purity="3.5990881919860840e-01" nType="-99"/>
          <Node pos="r" depth="2" NCoef="0" IVar="-1" Cut="0.0000000000000000e+00" cType="1" res="1.0393208824098110e-02" rms="3.3340635895729065e-01" purity="8.6438059806823730e-01" nType="-99"/>
        </Node>
      </Node>
    </BinaryTree>
    <BinaryTree type="DecisionTree" boostWeight="1.0000000000000000e+00" itree="45">
      <Node pos="s" depth="0" NCoef="0" IVar="9" Cut="3.6931471824645996e+00" cType="1" res="1.6195551725104451e-03" rms="2.3099355399608612e-01" purity="5.0360882282257080e-01" nType="0">
        <Node pos="l" depth="1" NCoef="0" IVar="12" Cut="9.0446668863296509e-01" cType="1" res="1.6059719026088715e-02" rms="3.5196492075920105e-01" purity="5.4291898012161255e-01" nType="0">
          <Node pos="l" depth="2" NCoef="0" IVar="-1" Cut="0.0000000000000000e+00" cType="1" res="6.2344702892005444e-03" rms="3.8071924448013306e-01" purity="6.9597077369689941e-01" nType="-99"/>
          <Node pos="r" depth="2" NCoef="0" IVar="-1" Cut="0.0000000000000000e+00" cType="1" res="-1.2062369845807552e-02" rms="2.3613427579402924e-01" purity="7.0762902498245239e-02" nType="-99"/>
        </Node>
        <Node pos="r" depth="1" NCoef="0" IVar="6" Cut="-1.6405825614929199e+00" cType="1" res="-3.2520946115255356e-02" rms="3.7111356854438782e-01" purity="4.1902571916580200e-01" nType="0">
          <Node pos="l" depth="2" NCoef="0" IVar="-1" Cut="0.0000000000000000e+00" cType="1" res="-8.1536509096622467e-03" rms="3.6979690194129944e-01" purity="4.4870239496231079e-01" nType="-99"/>
          <Node pos="r" depth="2" NCoef="0" IVar="-1" Cut="0.0000000000000000e+00" cType="1" res="-2.7683407068252563e-02" rms="3.7449929118156433e-01" purity="2.3920805752277374e-01" nType="-99"/>
        </Node>
      </Node>
    </BinaryTree>
    <BinaryTree type="DecisionTree" boostWeight="1.0000000000000000e+00" itree="46">
      <Node pos="s" depth="0" NCoef="0" IVar="9" Cut="3.0000000000000000e+00" cType="1" res="-1.9968021661043167e-03" rms="2.3132027685642242e-01" purity="4.9818402528762817e-01" nType="0">
        <Node pos="l" depth="1" NCoef="0" IVar="11" Cut="4.7623101621866226e-02" cType="1" res="5.5810354650020599e-02" rms="3.3130231499671936e-01" purity="6.3619023561477661e-01" nType="0">
          <Node pos="l" depth="2" NCoef="0" IVar="-1" Cut="0.0000000000000000e+00" cType="1" res="-1.0424677748233080e-03" rms="2.6220056414604187e-01" purity="8.8253371417522430e-02" nType="-99"/>
          <Node pos="r" depth="2" NCoef="0" IVar="-1" Cut="0.0000000000000000e+00" cType="1" res="1.5581716783344746e-02" rms="3.4798616170883179e-01" purity="8.0615329742431641e-01" nType="-99"/>
        </Node>
        <Node pos="r" depth="1" NCoef="0" IVar="3" Cut="5.3135865926742554e-01" cType="1" res="-1.2366277165710926e-02" rms="3.6268901824951172e-01" purity="4.7577947378158569e-01" nType="0">
          <Node pos="l" depth="2" NCoef="0" IVar="-1" Cut="0.0000000000000000e+00" cType="1" res="1.8543687183409929e-03" rms="3.5466182231903076e-01" purity="5.6627988815307617e-01" nType="-99"/>
          <Node pos="r" depth="2" NCoef="0" IVar="-1" Cut="0.0000000000000000e+00" cType="1" res="-9.4574112445116043e-03" rms="3.7269204854965210e-01" purity="3.3818054199218750e-01" nType="-99"/>
        </Node>
      </Node>
    </BinaryTree>
    <BinaryTree type="DecisionTree" boostWeight="1.0000000000000000e+00" itree="47">
      <Node pos="s" depth="0" NCoef="0" IVar="7" Cut="1.5818711519241333e+00" cType="1" res="-8.7354384595528245e-04" rms="3.5904264450073242e-01" purity="5.0154465436935425e-01" nType="0">
        <Node pos="l" depth="1" NCoef="0" IVar="11" Cut="9.5233045518398285e-02" cType="1" res="3.8980590179562569e-03" rms="3.5829478502273560e-01" purity="5.1149040460586548e-01" nType="0">
          <Node pos="l" depth="2" NCoef="0" IVar="-1" Cut="0.0000000000000000e+00" cType="1" res="-7.7398503199219704e-03" rms="3.0977088212966919e-01" purity="1.3430112600326538e-01" nType="-99"/>
          <Node pos="r" depth="2" NCoef="0" IVar="-1" Cut="0.0000000000000000e+00" cType="1" res="5.2706217393279076e-03" rms="3.8631600141525269e-01" purity="7.6553738117218018e-01" nType="-99"/>
        </Node>
        <Node pos="r" depth="1" NCoef="0" IVar="-1" Cut="0.0000000000000000e+00" cType="1" res="-3.2993894070386887e-02" rms="3.5463663935661316e-01" purity="2.2732354700565338e-01" nType="-99"/>
      </Node>
    </BinaryTree>
    <BinaryTree type="DecisionTree" boostWeight="1.0000000000000000e+00" itree="48">
      <Node pos="s" depth="0" NCoef="0" IVar="11" Cut="4.7628559172153473e-02" cType="1" res="-7.1203440893441439e-04" rms="3.5884296894073486e-01" purity="5.0166463851928711e-01" nType="0">
        <Node pos="l" depth="1" NCoef="0" IVar="11" Cut="1.3620405457913876e-02" cType="1" res="-3.5347029566764832e-02" rms="2.2670362889766693e-01" purity="6.0690905898809433e-02" nType="0">
          <Node pos="l" depth="2" NCoef="0" IVar="-1" Cut="0.0000000000000000e+00" cType="1" res="-2.8940098360180855e-02" rms="1.3170112669467926e-01" purity="1.8022159114480019e-02" nType="-99"/>
          <Node pos="r" depth="2" NCoef="0" IVar="-1" Cut="0.0000000000000000e+00" cType="1" res="-1.9375178962945938e-03" rms="3.6074322462081909e-01" purity="1.6074581444263458e-01" nType="-99"/>
        </Node>
        <Node pos="r" depth="1" NCoef="0" IVar="6" Cut="-2.0285034179687500e+00" cType="1" res="1.4061247929930687e-02" rms="4.0129974484443665e-01" purity="6.8975847959518433e-01" nType="0">
          <Node pos="l" depth="2" NCoef="0" IVar="-1" Cut="0.0000000000000000e+00" cType="1" res="6.0729756951332092e-03" rms="3.8836389780044556e-01" purity="7.3586535453796387e-01" nType="-99"/>
          <Node pos="r" depth="2" NCoef="0" IVar="-1" Cut="0.0000000000000000e+00" cType="1" res="-7.4237119406461716e-03" rms="4.4475832581520081e-01" purity="5.0770324468612671e-01" nType="-99"/>
        </Node>
      </Node>
    </BinaryTree>
    <BinaryTree type="DecisionTree" boostWeight="1.0000000000000000e+00" itree="49">
      <Node pos="s" depth="0" NCoef="0" IVar="6" Cut="-1.2148591279983521e+00" cType="1" res="2.6617085677571595e-04" rms="3.6063072085380554e-01" purity="5.0336742401123047e-01" nType="0">
        <Node pos="l" depth="1" NCoef="0" IVar="12" Cut="9.5214408636093140e-01" cType="1" res="6.8044895306229591e-03" rms="3.5822668671607971e-01" purity="5.2473163604736328e-01" nType="0">
          <Node pos="l" depth="2" NCoef="0" IVar="-1" Cut="0.0000000000000000e+00" cType="1" res="3.8912536110728979e-03" rms="3.8806390762329102e-01" purity="6.3764697313308716e-01" nType="-99"/>
          <Node pos="r" depth="2" NCoef="0" IVar="-1" Cut="0.0000000000000000e+00" cType="1" res="-2.1788662299513817e-02" rms="1.6949784755706787e-01" purity="3.2635658979415894e-02" nType="-99"/>
        </Node>
        <Node pos="r" depth="1" NCoef="0" IVar="11" Cut="9.5207929611206055e-02" cType="1" res="-7.6209887862205505e-02" rms="3.7936741113662720e-01" purity="2.5347849726676941e-01" nType="0">
          <Node pos="l" depth="2" NCoef="0" IVar="-1" Cut="0.0000000000000000e+00" cType="1" res="-1.4124924317002296e-02" rms="3.2179242372512817e-01" purity="1.3189278542995453e-01" nType="-99"/>
          <Node pos="r" depth="2" NCoef="0" IVar="-1" Cut="0.0000000000000000e+00" cType="1" res="-2.2868894040584564e-02" rms="4.6850407123565674e-01" purity="4.8894500732421875e-01" nType="-99"/>
        </Node>
      </Node>
    </BinaryTree>
    <BinaryTree type="DecisionTree" boostWeight="1.0000000000000000e+00" itree="50">
      <Node pos="s" depth="0" NCoef="0" IVar="7" Cut="1.2967396974563599e+00" cType="1" res="9.7660021856427193e-04" rms="3.5685190558433533e-01" purity="5.0093787908554077e-01" nType="0">
        <Node pos="l" depth="1" NCoef="0" IVar="9" Cut="3.6931471824645996e+00" cType="1" res="3.1783713493496180e-03" rms="2.3199307918548584e-01" purity="5.1400673389434814e-01" nType="0">
          <Node pos="l" depth="2" NCoef="0" IVar="-1" Cut="0.0000000000000000e+00" cType="1" res="3.8967153523117304e-03" rms="3.4915262460708618e-01" purity="5.5138355493545532e-01" nType="-99"/>
          <Node pos="r" depth="2" NCoef="0" IVar="-1" Cut="0.0000000000000000e+00" cType="1" res="-6.2002204358577728e-03" rms="3.7136045098304749e-01" purity="4.3341356515884399e-01" nType="-99"/>
        </Node>
        <Node pos="r" depth="1" NCoef="0" IVar="-1" Cut="0.0000000000000000e+00" cType="1" res="-2.6704289019107819e-02" rms="3.4413433074951172e-01" purity="2.5178948044776917e-01" nType="-99"/>
      </Node>
    </BinaryTree>
    <BinaryTree type="DecisionTree" boostWeight="1.0000000000000000e+00" itree="51">
      <Node pos="s" depth="0" NCoef="0" IVar="5" Cut="6.4922161102294922e+00" cType="1" res="8.6816208204254508e-04" rms="3.5937753319740295e-01" purity="5.0468391180038452e-01" nType="0">
        <Node pos="l" depth="1" NCoef="0" IVar="1" Cut="5.6080098152160645e+00" cType="1" res="2.8692042455077171e-02" rms="3.6777693033218384e-01" purity="5.3930026292800903e-01" nType="0">
          <Node pos="l" depth="2" NCoef="0" IVar="-1" Cut="0.0000000000000000e+00" cType="1" res="-3.0196341685950756e-03" rms="4.1732478141784668e-01" purity="3.2240110635757446e-01" nType="-99"/>
          <Node pos="r" depth="2" NCoef="0" IVar="-1" Cut="0.0000000000000000e+00" cType="1" res="1.3202707283198833e-02" rms="3.4545341134071350e-01" purity="6.2249040603637695e-01" nType="-99"/>
        </Node>
        <Node pos="r" depth="1" NCoef="0" IVar="11" Cut="9.5220983028411865e-01" cType="1" res="-1.8890082836151123e-02" rms="3.5195866227149963e-01" purity="4.8010224103927612e-01" nType="0">
          <Node pos="l" depth="2" NCoef="0" IVar="-1" Cut="0.0000000000000000e+00" cType="1" res="-7.7049997635185719e-03" rms="3.5698285698890686e-01" purity="3.8236197829246521e-01" nType="-99"/>
          <Node pos="r" depth="2" NCoef="0" IVar="-1" Cut="0.0000000000000000e+00" cType="1" res="8.2612587139010429e-03" rms="3.2640850543975830e-01" purity="8.7165153026580811e-01" nType="-99"/>
        </Node>
      </Node>
    </BinaryTree>
    <BinaryTree type="DecisionTree" boostWeight="1.0000000000000000e+00" itree="52">
      <Node pos="s" depth="0" NCoef="0" IVar="10" Cut="2.0000000000000000e+00" cType="1" res="-1.3697266695089638e-04" rms="2.7480331063270569e-01" purity="5.0071388483047485e-01" nType="0">
        <Node pos="l" depth="1" NCoef="0" IVar="12" Cut="9.5214456319808960e-01" cType="1" res="2.4215128272771835e-02" rms="3.4709283709526062e-01" purity="5.5966204404830933e-01" nType="0">
          <Node pos="l" depth="2" NCoef="0" IVar="-1" Cut="0.0000000000000000e+00" cType="1" res="8.3379829302430153e-03" rms="3.7378224730491638e-01" purity="6.7703545093536377e-01" nType="-99"/>
          <Node pos="r" depth="2" NCoef="0" IVar="-1" Cut="0.0000000000000000e+00" cType="1" res="-1.8949240446090698e-02" rms="1.7327146232128143e-01" purity="3.3484421670436859e-02" nType="-99"/>
        </Node>
        <Node pos="r" depth="1" NCoef="0" IVar="4" Cut="4.1792161762714386e-02" cType="1" res="-2.1969202905893326e-02" rms="3.6751708388328552e-01" purity="4.4222617149353027e-01" nType="0">
          <Node pos="l" depth="2" NCoef="0" IVar="-1" Cut="0.0000000000000000e+00" cType="1" res="-1.1306441156193614e-03" rms="3.5996621847152710e-01" purity="4.8228165507316589e-01" nType="-99"/>
          <Node pos="r" depth="2" NCoef="0" IVar="-1" Cut="0.0000000000000000e+00" cType="1" res="-1.5960989519953728e-02" rms="3.8246777653694153e-01" purity="3.3897075057029724e-01" nType="-99"/>
        </Node>
      </Node>
    </BinaryTree>
    <BinaryTree type="DecisionTree" boostWeight="1.0000000000000000e+00" itree="53">
      <Node pos="s" depth="0" NCoef="0" IVar="7" Cut="1.4608460664749146e+00" cType="1" res="-1.9326548790559173e-03" rms="3.5721138119697571e-01" purity="4.9493396282196045e-01" nType="0">
        <Node pos="l" depth="1" NCoef="0" IVar="9" Cut="3.6931471824645996e+00" cType="1" res="2.1123958867974579e-04" rms="2.3362326622009277e-01" purity="5.0606948137283325e-01" nType="0">
          <Node pos="l" depth="2" NCoef="0" IVar="-1" Cut="0.0000000000000000e+00" cType="1" res="3.2937841024249792e-03" rms="3.4894636273384094e-01" purity="5.4695546627044678e-01" nType="-99"/>
          <Node pos="r" depth="2" NCoef="0" IVar="-1" Cut="0.0000000000000000e+00" cType="1" res="-7.7085494995117188e-03" rms="3.7284862995147705e-01" purity="4.2015612125396729e-01" nType="-99"/>
        </Node>
        <Node pos="r" depth="1" NCoef="0" IVar="-1" Cut="0.0000000000000000e+00" cType="1" res="-2.7312213554978371e-02" rms="3.3868360519409180e-01" purity="2.2261595726013184e-01" nType="-99"/>
      </Node>
    </BinaryTree>
    <BinaryTree type="DecisionTree" boostWeight="1.0000000000000000e+00" itree="54">
      <Node pos="s" depth="0" NCoef="0" IVar="5" Cut="7.2347736358642578e+00" cType="1" res="-2.3197247646749020e-03" rms="3.5751748085021973e-01" purity="4.9689662456512451e-01" nType="0">
        <Node pos="l" depth="1" NCoef="0" IVar="3" Cut="5.3106892108917236e-01" cType="1" res="1.0429859161376953e-02" rms="3.5530623793601990e-01" purity="5.1332020759582520e-01" nType="0">
          <Node pos="l" depth="2" NCoef="0" IVar="-1" Cut="0.0000000000000000e+00" cType="1" res="7.0354593917727470e-03" rms="3.4339022636413574e-01" purity="5.9956729412078857e-01" nType="-99"/>
          <Node pos="r" depth="2" NCoef="0" IVar="-1" Cut="0.0000000000000000e+00" cType="1" res="-4.7619482502341270e-03" rms="3.7861770391464233e-01" purity="3.2161042094230652e-01" nType="-99"/>
        </Node>
        <Node pos="r" depth="1" NCoef="0" IVar="13" Cut="7.6183319091796875e-01" cType="1" res="-3.4044850617647171e-02" rms="3.6101242899894714e-01" purity="4.5602947473526001e-01" nType="0">
          <Node pos="l" depth="2" NCoef="0" IVar="-1" Cut="0.0000000000000000e+00" cType="1" res="-5.0760158337652683e-03" rms="3.5136166214942932e-01" purity="4.5192864537239075e-01" nType="-99"/>
          <Node pos="r" depth="2" NCoef="0" IVar="-1" Cut="0.0000000000000000e+00" cType="1" res="-4.1379027068614960e-02" rms="4.2620033025741577e-01" purity="4.9478480219841003e-01" nType="-99"/>
        </Node>
      </Node>
    </BinaryTree>
    <BinaryTree type="DecisionTree" boostWeight="1.0000000000000000e+00" itree="55">
      <Node pos="s" depth="0" NCoef="0" IVar="11" Cut="4.7632098197937012e-02" cType="1" res="1.5439500566571951e-03" rms="3.5635253787040710e-01" purity="5.0037997961044312e-01" nType="0">
        <Node pos="l" depth="1" NCoef="0" IVar="11" Cut="4.5560174621641636e-03" cType="1" res="-2.8730222955346107e-02" rms="2.2589255869388580e-01" purity="6.0022737830877304e-02" nType="0">
          <Node pos="l" depth="2" NCoef="0" IVar="-1" Cut="0.0000000000000000e+00" cType="1" res="-3.3595416694879532e-02" rms="8.6438268423080444e-02" purity="7.6559595763683319e-03" nType="-99"/>
          <Node pos="r" depth="2" NCoef="0" IVar="-1" Cut="0.0000000000000000e+00" cType="1" res="-3.5416099708527327e-03" rms="3.1367278099060059e-01" purity="1.1770633608102798e-01" nType="-99"/>
        </Node>
        <Node pos="r" depth="1" NCoef="0" IVar="4" Cut="3.9387521147727966e-01" cType="1" res="1.4771007001399994e-02" rms="3.9949867129325867e-01" purity="6.9277602434158325e-01" nType="0">
          <Node pos="l" depth="2" NCoef="0" IVar="-1" Cut="0.0000000000000000e+00" cType="1" res="5.2567427046597004e-03" rms="3.9168414473533630e-01" purity="7.1427929401397705e-01" nType="-99"/>
          <Node pos="r" depth="2" NCoef="0" IVar="-1" Cut="0.0000000000000000e+00" cType="1" res="-8.3178896456956863e-03" rms="4.4918334484100342e-01" purity="5.3051215410232544e-01" nType="-99"/>
        </Node>
      </Node>
    </BinaryTree>
    <BinaryTree type="DecisionTree" boostWeight="1.0000000000000000e+00" itree="56">
      <Node pos="s" depth="0" NCoef="0" IVar="9" Cut="3.6931471824645996e+00" cType="1" res="-8.7695960246492177e-05" rms="2.3160636425018311e-01" purity="4.9966380000114441e-01" nType="0">
        <Node pos="l" depth="1" NCoef="0" IVar="3" Cut="5.3130406141281128e-01" cType="1" res="1.3809952884912491e-02" rms="3.4889638423919678e-01" purity="5.4228997230529785e-01" nType="0">
          <Node pos="l" depth="2" NCoef="0" IVar="-1" Cut="0.0000000000000000e+00" cType="1" res="7.5645996257662773e-03" rms="3.3417588472366333e-01" purity="6.3731330633163452e-01" nType="-99"/>
          <Node pos="r" depth="2" NCoef="0" IVar="-1" Cut="0.0000000000000000e+00" cType="1" res="-2.3275006096810102e-03" rms="3.6957550048828125e-01" purity="3.9181107282638550e-01" nType="-99"/>
        </Node>
        <Node pos="r" depth="1" NCoef="0" IVar="4" Cut="1.2692648172378540e-01" cType="1" res="-2.7482267469167709e-02" rms="3.6973714828491211e-01" purity="4.0958425402641296e-01" nType="0">
          <Node pos="l" depth="2" NCoef="0" IVar="-1" Cut="0.0000000000000000e+00" cType="1" res="-6.3784252852201462e-03" rms="3.6374118924140930e-01" purity="4.3770131468772888e-01" nType="-99"/>
          <Node pos="r" depth="2" NCoef="0" IVar="-1" Cut="0.0000000000000000e+00" cType="1" res="-1.8657539039850235e-02" rms="3.8609766960144043e-01" purity="3.2235184311866760e-01" nType="-99"/>
        </Node>
      </Node>
    </BinaryTree>
    <BinaryTree type="DecisionTree" boostWeight="1.0000000000000000e+00" itree="57">
      <Node pos="s" depth="0" NCoef="0" IVar="10" Cut="2.0000000000000000e+00" cType="1" res="2.5034433929249644e-04" rms="2.7008578181266785e-01" purity="5.0233769416809082e-01" nType="0">
        <Node pos="l" depth="1" NCoef="0" IVar="12" Cut="9.5206445455551147e-01" cType="1" res="2.1171780303120613e-02" rms="3.4525287151336670e-01" purity="5.5752259492874146e-01" nType="0">
          <Node pos="l" depth="2" NCoef="0" IVar="-1" Cut="0.0000000000000000e+00" cType="1" res="7.1154250763356686e-03" rms="3.7138563394546509e-01" purity="6.7167377471923828e-01" nType="-99"/>
          <Node pos="r" depth="2" NCoef="0" IVar="-1" Cut="0.0000000000000000e+00" cType="1" res="-1.7260372638702393e-02" rms="1.7399834096431732e-01" purity="3.4161023795604706e-02" nType="-99"/>
        </Node>
        <Node pos="r" depth="1" NCoef="0" IVar="9" Cut="4.3862943649291992e+00" cType="1" res="-7.1128867566585541e-03" rms="2.1282991766929626e-01" purity="4.4750609993934631e-01" nType="0">
          <Node pos="l" depth="2" NCoef="0" IVar="-1" Cut="0.0000000000000000e+00" cType="1" res="-4.1640908457338810e-03" rms="3.6461266875267029e-01" purity="4.4915959239006042e-01" nType="-99"/>
          <Node pos="r" depth="2" NCoef="0" IVar="-1" Cut="0.0000000000000000e+00" cType="1" res="-6.9859191775321960e-02" rms="3.5864457488059998e-01" purity="2.6937142014503479e-01" nType="-99"/>
        </Node>
      </Node>
    </BinaryTree>
    <BinaryTree type="DecisionTree" boostWeight="1.0000000000000000e+00" itree="58">
      <Node pos="s" depth="0" NCoef="0" IVar="9" Cut="3.6931471824645996e+00" cType="1" res="-1.4311189297586679e-03" rms="2.3125043511390686e-01" purity="5.0051295757293701e-01" nType="0">
        <Node pos="l" depth="1" NCoef="0" IVar="7" Cut="1.2978383302688599e+00" cType="1" res="1.1669619940221310e-02" rms="3.4910717606544495e-01" purity="5.3927516937255859e-01" nType="0">
          <Node pos="l" depth="2" NCoef="0" IVar="-1" Cut="0.0000000000000000e+00" cType="1" res="3.8924547843635082e-03" rms="3.4881740808486938e-01" purity="5.5359584093093872e-01" nType="-99"/>
          <Node pos="r" depth="2" NCoef="0" IVar="-1" Cut="0.0000000000000000e+00" cType="1" res="-1.6978990286588669e-02" rms="3.4273284673690796e-01" purity="2.8683477640151978e-01" nType="-99"/>
        </Node>
        <Node pos="r" depth="1" NCoef="0" IVar="11" Cut="8.5687011480331421e-01" cType="1" res="-1.8507514148950577e-02" rms="3.7035369873046875e-01" purity="4.1704326868057251e-01" nType="0">
          <Node pos="l" depth="2" NCoef="0" IVar="-1" Cut="0.0000000000000000e+00" cType="1" res="-9.3482322990894318e-03" rms="3.7287265062332153e-01" purity="3.1532451510429382e-01" nType="-99"/>
          <Node pos="r" depth="2" NCoef="0" IVar="-1" Cut="0.0000000000000000e+00" cType="1" res="7.2232838720083237e-03" rms="3.5740163922309875e-01" purity="8.3983182907104492e-01" nType="-99"/>
        </Node>
      </Node>
    </BinaryTree>
    <BinaryTree type="DecisionTree" boostWeight="1.0000000000000000e+00" itree="59">
      <Node pos="s" depth="0" NCoef="0" IVar="4" Cut="-2.0782691240310669e-01" cType="1" res="-1.9927839748561382e-03" rms="3.5558092594146729e-01" purity="4.9979278445243835e-01" nType="0">
        <Node pos="l" depth="1" NCoef="0" IVar="3" Cut="8.3804255723953247e-01" cType="1" res="1.5649266541004181e-02" rms="3.4232926368713379e-01" purity="5.5338317155838013e-01" nType="0">
          <Node pos="l" depth="2" NCoef="0" IVar="-1" Cut="0.0000000000000000e+00" cType="1" res="8.2309069111943245e-03" rms="3.3407774567604065e-01" purity="6.0719352960586548e-01" nType="-99"/>
          <Node pos="r" depth="2" NCoef="0" IVar="-1" Cut="0.0000000000000000e+00" cType="1" res="-7.7292211353778839e-03" rms="3.6835387349128723e-01" purity="3.4642887115478516e-01" nType="-99"/>
        </Node>
        <Node pos="r" depth="1" NCoef="0" IVar="11" Cut="2.8562924265861511e-01" cType="1" res="-2.9424028471112251e-02" rms="3.7360623478889465e-01" purity="4.1646617650985718e-01" nType="0">
          <Node pos="l" depth="2" NCoef="0" IVar="-1" Cut="0.0000000000000000e+00" cType="1" res="-1.0098051279783249e-02" rms="3.5187900066375732e-01" purity="2.0003713667392731e-01" nType="-99"/>
          <Node pos="r" depth="2" NCoef="0" IVar="-1" Cut="0.0000000000000000e+00" cType="1" res="-1.4697092119604349e-03" rms="4.0588071942329407e-01" purity="7.7365291118621826e-01" nType="-99"/>
        </Node>
      </Node>
    </BinaryTree>
    <BinaryTree type="DecisionTree" boostWeight="1.0000000000000000e+00" itree="60">
      <Node pos="s" depth="0" NCoef="0" IVar="5" Cut="7.3938064575195312e+00" cType="1" res="-1.0339458240196109e-03" rms="3.5644677281379700e-01" purity="4.9990954995155334e-01" nType="0">
        <Node pos="l" depth="1" NCoef="0" IVar="6" Cut="-1.0469056367874146e+00" cType="1" res="9.1415671631693840e-03" rms="3.5310992598533630e-01" purity="5.1626807451248169e-01" nType="0">
          <Node pos="l" depth="2" NCoef="0" IVar="-1" Cut="0.0000000000000000e+00" cType="1" res="4.1598654352128506e-03" rms="3.5042467713356018e-01" purity="5.3738254308700562e-01" nType="-99"/>
          <Node pos="r" depth="2" NCoef="0" IVar="-1" Cut="0.0000000000000000e+00" cType="1" res="-1.4912824146449566e-02" rms="3.7752032279968262e-01" purity="2.4697649478912354e-01" nType="-99"/>
        </Node>
        <Node pos="r" depth="1" NCoef="0" IVar="11" Cut="9.0452712774276733e-01" cType="1" res="-3.3980559557676315e-02" rms="3.6510232090950012e-01" purity="4.4694328308105469e-01" nType="0">
          <Node pos="l" depth="2" NCoef="0" IVar="-1" Cut="0.0000000000000000e+00" cType="1" res="-1.1641633696854115e-02" rms="3.5663318634033203e-01" purity="2.8793570399284363e-01" nType="-99"/>
          <Node pos="r" depth="2" NCoef="0" IVar="-1" Cut="0.0000000000000000e+00" cType="1" res="2.0577805116772652e-03" rms="3.8074785470962524e-01" purity="8.1752419471740723e-01" nType="-99"/>
        </Node>
      </Node>
    </BinaryTree>
    <BinaryTree type="DecisionTree" boostWeight="1.0000000000000000e+00" itree="61">
      <Node pos="s" depth="0" NCoef="0" IVar="9" Cut="3.6931471824645996e+00" cType="1" res="-1.0391370160505176e-03" rms="2.3215496540069580e-01" purity="5.0205856561660767e-01" nType="0">
        <Node pos="l" depth="1" NCoef="0" IVar="9" Cut="2.6931471824645996e+00" cType="1" res="1.1709065875038505e-03" rms="1.8386857211589813e-01" purity="5.3930217027664185e-01" nType="0">
          <Node pos="l" depth="2" NCoef="0" IVar="-1" Cut="0.0000000000000000e+00" cType="1" res="2.0762981846928596e-02" rms="3.1195452809333801e-01" purity="6.7922252416610718e-01" nType="-99"/>
          <Node pos="r" depth="2" NCoef="0" IVar="-1" Cut="0.0000000000000000e+00" cType="1" res="4.3189583811908960e-04" rms="3.5324808955192566e-01" purity="5.2806454896926880e-01" nType="-99"/>
        </Node>
        <Node pos="r" depth="1" NCoef="0" IVar="3" Cut="-9.9752765893936157e-01" cType="1" res="-1.2443408370018005e-02" rms="3.6752930283546448e-01" purity="4.2287552356719971e-01" nType="0">
          <Node pos="l" depth="2" NCoef="0" IVar="-1" Cut="0.0000000000000000e+00" cType="1" res="9.3382969498634338e-03" rms="3.3741748332977295e-01" purity="6.4523857831954956e-01" nType="-99"/>
          <Node pos="r" depth="2" NCoef="0" IVar="-1" Cut="0.0000000000000000e+00" cType="1" res="-6.7542744800448418e-03" rms="3.7296015024185181e-01" purity="3.7766441702842712e-01" nType="-99"/>
        </Node>
      </Node>
    </BinaryTree>
    <BinaryTree type="DecisionTree" boostWeight="1.0000000000000000e+00" itree="62">
      <Node pos="s" depth="0" NCoef="0" IVar="7" Cut="1.4614865779876709e+00" cType="1" res="2.0249877125024796e-03" rms="3.5783991217613220e-01" purity="5.0212979316711426e-01" nType="0">
        <Node pos="l" depth="1" NCoef="0" IVar="9" Cut="3.0986123085021973e+00" cType="1" res="1.2582842027768493e-03" rms="2.1005436778068542e-01" purity="5.1257681846618652e-01" nType="0">
          <Node pos="l" depth="2" NCoef="0" IVar="-1" Cut="0.0000000000000000e+00" cType="1" res="1.1381030082702637e-02" rms="3.3118128776550293e-01" purity="6.2948578596115112e-01" nType="-99"/>
          <Node pos="r" depth="2" NCoef="0" IVar="-1" Cut="0.0000000000000000e+00" cType="1" res="-8.7527284631505609e-04" rms="3.6319237947463989e-01" purity="4.8643454909324646e-01" nType="-99"/>
        </Node>
        <Node pos="r" depth="1" NCoef="0" IVar="-1" Cut="0.0000000000000000e+00" cType="1" res="-2.2122936323285103e-02" rms="3.4088712930679321e-01" purity="2.5032186508178711e-01" nType="-99"/>
      </Node>
    </BinaryTree>
    <BinaryTree type="DecisionTree" boostWeight="1.0000000000000000e+00" itree="63">
      <Node pos="s" depth="0" NCoef="0" IVar="3" Cut="-6.9591075181961060e-01" cType="1" res="-1.6189803136512637e-03" rms="3.5552507638931274e-01" purity="4.9471715092658997e-01" nType="0">
        <Node pos="l" depth="1" NCoef="0" IVar="4" Cut="-4.0119388699531555e-01" cType="1" res="2.9449423775076866e-02" rms="3.1901004910469055e-01" purity="6.9922143220901489e-01" nType="0">
          <Node pos="l" depth="2" NCoef="0" IVar="-1" Cut="0.0000000000000000e+00" cType="1" res="2.0348271355032921e-02" rms="2.8640785813331604e-01" purity="7.7835929393768311e-01" nType="-99"/>
          <Node pos="r" depth="2" NCoef="0" IVar="-1" Cut="0.0000000000000000e+00" cType="1" res="-3.2637126278132200e-03" rms="3.6337915062904358e-01" purity="5.6645524501800537e-01" nType="-99"/>
        </Node>
        <Node pos="r" depth="1" NCoef="0" IVar="13" Cut="8.5700237751007080e-01" cType="1" res="-1.1140300892293453e-02" rms="3.6545860767364502e-01" purity="4.3204417824745178e-01" nType="0">
          <Node pos="l" depth="2" NCoef="0" IVar="-1" Cut="0.0000000000000000e+00" cType="1" res="-1.8909827340394258e-03" rms="3.6352682113647461e-01" purity="4.2459982633590698e-01" nType="-99"/>
          <Node pos="r" depth="2" NCoef="0" IVar="-1" Cut="0.0000000000000000e+00" cType="1" res="-3.1286116689443588e-02" rms="3.9959725737571716e-01" purity="6.0651797056198120e-01" nType="-99"/>
        </Node>
      </Node>
    </BinaryTree>
    <BinaryTree type="DecisionTree" boostWeight="1.0000000000000000e+00" itree="64">
      <Node pos="s" depth="0" NCoef="0" IVar="9" Cut="3.0000000000000000e+00" cType="1" res="-5.8642029762268066e-04" rms="2.3376619815826416e-01" purity="4.9720874428749084e-01" nType="0">
        <Node pos="l" depth="1" NCoef="0" IVar="4" Cut="-1.0379140377044678e+00" cType="1" res="4.0120642632246017e-02" rms="3.3204489946365356e-01" purity="6.3273590803146362e-01" nType="0">
          <Node pos="l" depth="2" NCoef="0" IVar="-1" Cut="0.0000000000000000e+00" cType="1" res="1.9680291414260864e-02" rms="2.9555824398994446e-01" purity="7.3739141225814819e-01" nType="-99"/>
          <Node pos="r" depth="2" NCoef="0" IVar="-1" Cut="0.0000000000000000e+00" cType="1" res="5.9167812578380108e-03" rms="3.4726938605308533e-01" purity="5.8255636692047119e-01" nType="-99"/>
        </Node>
        <Node pos="r" depth="1" NCoef="0" IVar="5" Cut="7.5225019454956055e+00" cType="1" res="-6.8717482499778271e-03" rms="3.6252561211585999e-01" purity="4.7550705075263977e-01" nType="0">
          <Node pos="l" depth="2" NCoef="0" IVar="-1" Cut="0.0000000000000000e+00" cType="1" res="2.3134722141548991e-04" rms="3.6091908812522888e-01" purity="4.8632168769836426e-01" nType="-99"/>
          <Node pos="r" depth="2" NCoef="0" IVar="-1" Cut="0.0000000000000000e+00" cType="1" res="-9.3520460650324821e-03" rms="3.6727449297904968e-01" purity="4.3207779526710510e-01" nType="-99"/>
        </Node>
      </Node>
    </BinaryTree>
    <BinaryTree type="DecisionTree" boostWeight="1.0000000000000000e+00" itree="65">
      <Node pos="s" depth="0" NCoef="0" IVar="9" Cut="3.6931471824645996e+00" cType="1" res="-2.2205137647688389e-03" rms="2.3215979337692261e-01" purity="4.9917665123939514e-01" nType="0">
        <Node pos="l" depth="1" NCoef="0" IVar="11" Cut="4.7625873237848282e-02" cType="1" res="7.3199397884309292e-03" rms="3.5041821002960205e-01" purity="5.4132097959518433e-01" nType="0">
          <Node pos="l" depth="2" NCoef="0" IVar="-1" Cut="0.0000000000000000e+00" cType="1" res="-9.1132726520299911e-03" rms="2.2895145416259766e-01" purity="6.3693672418594360e-02" nType="-99"/>
          <Node pos="r" depth="2" NCoef="0" IVar="-1" Cut="0.0000000000000000e+00" cType="1" res="3.6791199818253517e-03" rms="3.8694101572036743e-01" purity="7.2725301980972290e-01" nType="-99"/>
        </Node>
        <Node pos="r" depth="1" NCoef="0" IVar="3" Cut="-1.0005409717559814e+00" cType="1" res="-2.0163718611001968e-02" rms="3.7197139859199524e-01" purity="4.1055727005004883e-01" nType="0">
          <Node pos="l" depth="2" NCoef="0" IVar="-1" Cut="0.0000000000000000e+00" cType="1" res="5.1169558428227901e-03" rms="3.4188851714134216e-01" purity="6.1487317085266113e-01" nType="-99"/>
          <Node pos="r" depth="2" NCoef="0" IVar="-1" Cut="0.0000000000000000e+00" cType="1" res="-9.1513376682996750e-03" rms="3.7738075852394104e-01" purity="3.6961847543716431e-01" nType="-99"/>
        </Node>
      </Node>
    </BinaryTree>
    <BinaryTree type="DecisionTree" boostWeight="1.0000000000000000e+00" itree="66">
      <Node pos="s" depth="0" NCoef="0" IVar="11" Cut="9.0454906225204468e-01" cType="1" res="-2.7225397061556578e-03" rms="3.5739788413047791e-01" purity="4.9689143896102905e-01" nType="0">
        <Node pos="l" depth="1" NCoef="0" IVar="5" Cut="6.8108201026916504e+00" cType="1" res="-1.1881210841238499e-02" rms="3.7063708901405334e-01" purity="3.9143165946006775e-01" nType="0">
          <Node pos="l" depth="2" NCoef="0" IVar="-1" Cut="0.0000000000000000e+00" cType="1" res="5.0152681069448590e-04" rms="3.8205599784851074e-01" purity="4.4191774725914001e-01" nType="-99"/>
          <Node pos="r" depth="2" NCoef="0" IVar="-1" Cut="0.0000000000000000e+00" cType="1" res="-7.9030161723494530e-03" rms="3.5262650251388550e-01" purity="3.1888812780380249e-01" nType="-99"/>
        </Node>
        <Node pos="r" depth="1" NCoef="0" IVar="5" Cut="7.8594527244567871e+00" cType="1" res="3.1378760933876038e-02" rms="3.0061566829681396e-01" purity="8.8955920934677124e-01" nType="0">
          <Node pos="l" depth="2" NCoef="0" IVar="-1" Cut="0.0000000000000000e+00" cType="1" res="1.5454778447747231e-02" rms="2.7109569311141968e-01" purity="9.1273462772369385e-01" nType="-99"/>
          <Node pos="r" depth="2" NCoef="0" IVar="-1" Cut="0.0000000000000000e+00" cType="1" res="-3.7849103100597858e-03" rms="4.0688154101371765e-01" purity="7.8241634368896484e-01" nType="-99"/>
        </Node>
      </Node>
    </BinaryTree>
    <BinaryTree type="DecisionTree" boostWeight="1.0000000000000000e+00" itree="67">
      <Node pos="s" depth="0" NCoef="0" IVar="12" Cut="9.0453445911407471e-01" cType="1" res="1.2062969617545605e-03" rms="3.5576912760734558e-01" purity="5.0206464529037476e-01" nType="0">
        <Node pos="l" depth="1" NCoef="0" IVar="13" Cut="8.5704135894775391e-01" cType="1" res="1.0695122182369232e-02" rms="3.8888734579086304e-01" purity="6.4900910854339600e-01" nType="0">
          <Node pos="l" depth="2" NCoef="0" IVar="-1" Cut="0.0000000000000000e+00" cType="1" res="3.4406145568937063e-03" rms="3.8972368836402893e-01" purity="6.4716213941574097e-01" nType="-99"/>
          <Node pos="r" depth="2" NCoef="0" IVar="-1" Cut="0.0000000000000000e+00" cType="1" res="-2.3512916639447212e-02" rms="3.6786824464797974e-01" purity="6.7818760871887207e-01" nType="-99"/>
        </Node>
        <Node pos="r" depth="1" NCoef="0" IVar="5" Cut="5.7474699020385742e+00" cType="1" res="-2.6999145746231079e-02" rms="2.2847720980644226e-01" purity="6.5273478627204895e-02" nType="0">
          <Node pos="l" depth="2" NCoef="0" IVar="-1" Cut="0.0000000000000000e+00" cType="1" res="5.3700711578130722e-03" rms="3.7962535023689270e-01" purity="2.0268353819847107e-01" nType="-99"/>
          <Node pos="r" depth="2" NCoef="0" IVar="-1" Cut="0.0000000000000000e+00" cType="1" res="-1.8250370398163795e-02" rms="1.9582961499691010e-01" purity="4.5131944119930267e-02" nType="-99"/>
        </Node>
      </Node>
    </BinaryTree>
    <BinaryTree type="DecisionTree" boostWeight="1.0000000000000000e+00" itree="68">
      <Node pos="s" depth="0" NCoef="0" IVar="11" Cut="9.5239207148551941e-02" cType="1" res="2.0757769234478474e-03" rms="3.5433191061019897e-01" purity="5.0266033411026001e-01" nType="0">
        <Node pos="l" depth="1" NCoef="0" IVar="11" Cut="7.2565190494060516e-02" cType="1" res="-1.8506353721022606e-02" rms="3.0204802751541138e-01" purity="1.2962855398654938e-01" nType="0">
          <Node pos="l" depth="2" NCoef="0" IVar="-1" Cut="0.0000000000000000e+00" cType="1" res="-9.4283577054738998e-03" rms="2.7505347132682800e-01" purity="1.0026722401380539e-01" nType="-99"/>
          <Node pos="r" depth="2" NCoef="0" IVar="-1" Cut="0.0000000000000000e+00" cType="1" res="8.3175608888268471e-03" rms="4.7246000170707703e-01" purity="3.8712194561958313e-01" nType="-99"/>
        </Node>
        <Node pos="r" depth="1" NCoef="0" IVar="7" Cut="1.1926229000091553e+00" cType="1" res="1.6265075653791428e-02" rms="3.8563790917396545e-01" purity="7.5982797145843506e-01" nType="0">
          <Node pos="l" depth="2" NCoef="0" IVar="-1" Cut="0.0000000000000000e+00" cType="1" res="4.8237163573503494e-03" rms="3.8194525241851807e-01" purity="7.6956915855407715e-01" nType="-99"/>
          <Node pos="r" depth="2" NCoef="0" IVar="-1" Cut="0.0000000000000000e+00" cType="1" res="-1.3572228141129017e-02" rms="4.4360139966011047e-01" purity="5.6697762012481689e-01" nType="-99"/>
        </Node>
      </Node>
    </BinaryTree>
    <BinaryTree type="DecisionTree" boostWeight="1.0000000000000000e+00" itree="69">
      <Node pos="s" depth="0" NCoef="0" IVar="4" Cut="-1.1766345798969269e-01" cType="1" res="8.6941604968160391e-04" rms="3.5580071806907654e-01" purity="5.0180506706237793e-01" nType="0">
        <Node pos="l" depth="1" NCoef="0" IVar="3" Cut="5.3112220764160156e-01" cType="1" res="1.3224392198026180e-02" rms="3.4244892001152039e-01" purity="5.4752123355865479e-01" nType="0">
          <Node pos="l" depth="2" NCoef="0" IVar="-1" Cut="0.0000000000000000e+00" cType="1" res="8.8632963597774506e-03" rms="3.2637929916381836e-01" purity="6.4962357282638550e-01" nType="-99"/>
          <Node pos="r" depth="2" NCoef="0" IVar="-1" Cut="0.0000000000000000e+00" cType="1" res="-2.9115921352058649e-03" rms="3.6739856004714966e-01" purity="3.6993342638015747e-01" nType="-99"/>
        </Node>
        <Node pos="r" depth="1" NCoef="0" IVar="10" Cut="2.0000000000000000e+00" cType="1" res="-9.8947854712605476e-03" rms="2.7056357264518738e-01" purity="4.1760361194610596e-01" nType="0">
          <Node pos="l" depth="2" NCoef="0" IVar="-1" Cut="0.0000000000000000e+00" cType="1" res="-1.6019423492252827e-03" rms="3.7476807832717896e-01" purity="4.6995916962623596e-01" nType="-99"/>
          <Node pos="r" depth="2" NCoef="0" IVar="-1" Cut="0.0000000000000000e+00" cType="1" res="-8.6763370782136917e-03" rms="3.8070037961006165e-01" purity="3.6863395571708679e-01" nType="-99"/>
        </Node>
      </Node>
    </BinaryTree>
    <BinaryTree type="DecisionTree" boostWeight="1.0000000000000000e+00" itree="70">
      <Node pos="s" depth="0" NCoef="0" IVar="7" Cut="1.5567166805267334e+00" cType="1" res="-1.8921997980214655e-04" rms="3.5504406690597534e-01" purity="4.9830257892608643e-01" nType="0">
        <Node pos="l" depth="1" NCoef="0" IVar="9" Cut="3.6931471824645996e+00" cType="1" res="-7.7038869494572282e-04" rms="2.3163008689880371e-01" purity="5.0826555490493774e-01" nType="0">
          <Node pos="l" depth="2" NCoef="0" IVar="-1" Cut="0.0000000000000000e+00" cType="1" res="2.0620874129235744e-03" rms="3.4869745373725891e-01" purity="5.4766380786895752e-01" nType="-99"/>
          <Node pos="r" depth="2" NCoef="0" IVar="-1" Cut="0.0000000000000000e+00" cType="1" res="-3.5046839620918036e-03" rms="3.6865088343620300e-01" purity="4.2427736520767212e-01" nType="-99"/>
        </Node>
        <Node pos="r" depth="1" NCoef="0" IVar="-1" Cut="0.0000000000000000e+00" cType="1" res="-2.4721009656786919e-02" rms="3.3719122409820557e-01" purity="2.2358082234859467e-01" nType="-99"/>
      </Node>
    </BinaryTree>
    <BinaryTree type="DecisionTree" boostWeight="1.0000000000000000e+00" itree="71">
      <Node pos="s" depth="0" NCoef="0" IVar="11" Cut="8.5696989297866821e-01" cType="1" res="-7.2719674790278077e-04" rms="3.5722908377647400e-01" purity="4.9862572550773621e-01" nType="0">
        <Node pos="l" depth="1" NCoef="0" IVar="13" Cut="7.1422016620635986e-01" cType="1" res="-9.8003242164850235e-03" rms="3.7184470891952515e-01" purity="3.6933836340904236e-01" nType="0">
          <Node pos="l" depth="2" NCoef="0" IVar="-1" Cut="0.0000000000000000e+00" cType="1" res="-1.4011027524247766e-03" rms="3.7037730216979980e-01" purity="3.6343815922737122e-01" nType="-99"/>
          <Node pos="r" depth="2" NCoef="0" IVar="-1" Cut="0.0000000000000000e+00" cType="1" res="-3.7761036306619644e-02" rms="3.9402404427528381e-01" purity="5.2237832546234131e-01" nType="-99"/>
        </Node>
        <Node pos="r" depth="1" NCoef="0" IVar="13" Cut="4.2405149340629578e-01" cType="1" res="2.6228332892060280e-02" rms="3.0819439888000488e-01" purity="8.8272798061370850e-01" nType="0">
          <Node pos="l" depth="2" NCoef="0" IVar="-1" Cut="0.0000000000000000e+00" cType="1" res="1.3706732541322708e-02" rms="2.7662125229835510e-01" purity="9.0909612178802490e-01" nType="-99"/>
          <Node pos="r" depth="2" NCoef="0" IVar="-1" Cut="0.0000000000000000e+00" cType="1" res="3.1991207506507635e-03" rms="3.3747172355651855e-01" purity="8.5486352443695068e-01" nType="-99"/>
        </Node>
      </Node>
    </BinaryTree>
    <BinaryTree type="DecisionTree" boostWeight="1.0000000000000000e+00" itree="72">
      <Node pos="s" depth="0" NCoef="0" IVar="12" Cut="9.0453374385833740e-01" cType="1" res="2.4455520324409008e-03" rms="3.5421207547187805e-01" purity="5.0126445293426514e-01" nType="0">
        <Node pos="l" depth="1" NCoef="0" IVar="7" Cut="1.2143130302429199e+00" cType="1" res="1.0569461621344090e-02" rms="3.8692548871040344e-01" purity="6.5192753076553345e-01" nType="0">
          <Node pos="l" depth="2" NCoef="0" IVar="-1" Cut="0.0000000000000000e+00" cType="1" res="3.3836532384157181e-03" rms="3.8527584075927734e-01" purity="6.6646188497543335e-01" nType="-99"/>
          <Node pos="r" depth="2" NCoef="0" IVar="-1" Cut="0.0000000000000000e+00" cType="1" res="-1.2345869094133377e-02" rms="4.0738400816917419e-01" purity="4.1140282154083252e-01" nType="-99"/>
        </Node>
        <Node pos="r" depth="1" NCoef="0" IVar="12" Cut="9.8614722490310669e-01" cType="1" res="-2.0953251048922539e-02" rms="2.3430068790912628e-01" purity="6.7318744957447052e-02" nType="0">
          <Node pos="l" depth="2" NCoef="0" IVar="-1" Cut="0.0000000000000000e+00" cType="1" res="-2.4283800739794970e-03" rms="3.0252757668495178e-01" purity="1.1412920802831650e-01" nType="-99"/>
          <Node pos="r" depth="2" NCoef="0" IVar="-1" Cut="0.0000000000000000e+00" cType="1" res="-3.3285547047853470e-02" rms="9.2173375189304352e-02" purity="8.7426109239459038e-03" nType="-99"/>
        </Node>
      </Node>
    </BinaryTree>
    <BinaryTree type="DecisionTree" boostWeight="1.0000000000000000e+00" itree="73">
      <Node pos="s" depth="0" NCoef="0" IVar="9" Cut="3.6931471824645996e+00" cType="1" res="-1.9164634868502617e-03" rms="2.3083244264125824e-01" purity="4.9826210737228394e-01" nType="0">
        <Node pos="l" depth="1" NCoef="0" IVar="3" Cut="8.3833825588226318e-01" cType="1" res="3.4616373013705015e-03" rms="3.4969335794448853e-01" purity="5.3680503368377686e-01" nType="0">
          <Node pos="l" depth="2" NCoef="0" IVar="-1" Cut="0.0000000000000000e+00" cType="1" res="3.0744206160306931e-03" rms="3.4207653999328613e-01" purity="5.8659225702285767e-01" nType="-99"/>
          <Node pos="r" depth="2" NCoef="0" IVar="-1" Cut="0.0000000000000000e+00" cType="1" res="-5.1531507633626461e-03" rms="3.7257507443428040e-01" purity="3.6972892284393311e-01" nType="-99"/>
        </Node>
        <Node pos="r" depth="1" NCoef="0" IVar="8" Cut="-4.0723812580108643e-01" cType="1" res="-9.4739906489849091e-03" rms="3.6990228295326233e-01" purity="4.1732767224311829e-01" nType="0">
          <Node pos="l" depth="2" NCoef="0" IVar="-1" Cut="0.0000000000000000e+00" cType="1" res="5.4760226048529148e-03" rms="3.9881545305252075e-01" purity="4.4238570332527161e-01" nType="-99"/>
          <Node pos="r" depth="2" NCoef="0" IVar="-1" Cut="0.0000000000000000e+00" cType="1" res="-6.9890380837023258e-03" rms="3.6379346251487732e-01" purity="4.1262853145599365e-01" nType="-99"/>
        </Node>
      </Node>
    </BinaryTree>
    <BinaryTree type="DecisionTree" boostWeight="1.0000000000000000e+00" itree="74">
      <Node pos="s" depth="0" NCoef="0" IVar="10" Cut="2.0000000000000000e+00" cType="1" res="-3.3338866196572781e-03" rms="2.6992404460906982e-01" purity="4.9935936927795410e-01" nType="0">
        <Node pos="l" depth="1" NCoef="0" IVar="12" Cut="9.0454047918319702e-01" cType="1" res="1.3615622185170650e-02" rms="3.4652745723724365e-01" purity="5.5721586942672729e-01" nType="0">
          <Node pos="l" depth="2" NCoef="0" IVar="-1" Cut="0.0000000000000000e+00" cType="1" res="5.2158576436340809e-03" rms="3.7340754270553589e-01" purity="7.0484912395477295e-01" nType="-99"/>
          <Node pos="r" depth="2" NCoef="0" IVar="-1" Cut="0.0000000000000000e+00" cType="1" res="-8.0271475017070770e-03" rms="2.3442922532558441e-01" purity="6.9883003830909729e-02" nType="-99"/>
        </Node>
        <Node pos="r" depth="1" NCoef="0" IVar="6" Cut="-1.6814455986022949e+00" cType="1" res="-1.7758071422576904e-02" rms="3.6189711093902588e-01" purity="4.4087970256805420e-01" nType="0">
          <Node pos="l" depth="2" NCoef="0" IVar="-1" Cut="0.0000000000000000e+00" cType="1" res="-3.0093421228230000e-03" rms="3.6189448833465576e-01" purity="4.7622537612915039e-01" nType="-99"/>
          <Node pos="r" depth="2" NCoef="0" IVar="-1" Cut="0.0000000000000000e+00" cType="1" res="-1.4655786566436291e-02" rms="3.5957983136177063e-01" purity="2.4990646541118622e-01" nType="-99"/>
        </Node>
      </Node>
    </BinaryTree>
    <BinaryTree type="DecisionTree" boostWeight="1.0000000000000000e+00" itree="75">
      <Node pos="s" depth="0" NCoef="0" IVar="6" Cut="-1.6518080234527588e+00" cType="1" res="9.4336704933084548e-05" rms="3.5599169135093689e-01" purity="5.0080245733261108e-01" nType="0">
        <Node pos="l" depth="1" NCoef="0" IVar="4" Cut="1.0331678390502930e-01" cType="1" res="6.6278735175728798e-03" rms="3.5074871778488159e-01" purity="5.3454655408859253e-01" nType="0">
          <Node pos="l" depth="2" NCoef="0" IVar="-1" Cut="0.0000000000000000e+00" cType="1" res="4.2925365269184113e-03" rms="3.4026476740837097e-01" purity="5.6789189577102661e-01" nType="-99"/>
          <Node pos="r" depth="2" NCoef="0" IVar="-1" Cut="0.0000000000000000e+00" cType="1" res="-4.7857486642897129e-03" rms="3.8223117589950562e-01" purity="4.2368814349174500e-01" nType="-99"/>
        </Node>
        <Node pos="r" depth="1" NCoef="0" IVar="11" Cut="4.7622796148061752e-02" cType="1" res="-3.8432966917753220e-02" rms="3.8320270180702209e-01" purity="3.0181834101676941e-01" nType="0">
          <Node pos="l" depth="2" NCoef="0" IVar="-1" Cut="0.0000000000000000e+00" cType="1" res="-6.6085788421332836e-03" rms="2.6131650805473328e-01" purity="7.9926438629627228e-02" nType="-99"/>
          <Node pos="r" depth="2" NCoef="0" IVar="-1" Cut="0.0000000000000000e+00" cType="1" res="-9.6411872655153275e-03" rms="4.4297838211059570e-01" purity="4.4288006424903870e-01" nType="-99"/>
        </Node>
      </Node>
    </BinaryTree>
    <BinaryTree type="DecisionTree" boostWeight="1.0000000000000000e+00" itree="76">
      <Node pos="s" depth="0" NCoef="0" IVar="5" Cut="6.9613008499145508e+00" cType="1" res="1.0876757005462423e-04" rms="3.5493716597557068e-01" purity="4.9814203381538391e-01" nType="0">
        <Node pos="l" depth="1" NCoef="0" IVar="6" Cut="-2.0871615409851074e+00" cType="1" res="1.3899114914238453e-02" rms="3.5690417885780334e-01" purity="5.2079743146896362e-01" nType="0">
          <Node pos="l" depth="2" NCoef="0" IVar="-1" Cut="0.0000000000000000e+00" cType="1" res="7.2557670064270496e-03" rms="3.4262701869010925e-01" purity="5.8617794513702393e-01" nType="-99"/>
          <Node pos="r" depth="2" NCoef="0" IVar="-1" Cut="0.0000000000000000e+00" cType="1" res="-3.1391554512083530e-03" rms="3.8871121406555176e-01" purity="3.5901251435279846e-01" nType="-99"/>
        </Node>
        <Node pos="r" depth="1" NCoef="0" IVar="13" Cut="6.6660404205322266e-01" cType="1" res="-2.1338237449526787e-02" rms="3.5078057646751404e-01" purity="4.6290791034698486e-01" nType="0">
          <Node pos="l" depth="2" NCoef="0" IVar="-1" Cut="0.0000000000000000e+00" cType="1" res="-2.9327005613595247e-03" rms="3.3724027872085571e-01" purity="4.3821668624877930e-01" nType="-99"/>
          <Node pos="r" depth="2" NCoef="0" IVar="-1" Cut="0.0000000000000000e+00" cType="1" res="-2.1647794172167778e-02" rms="4.2145842313766479e-01" purity="6.1844772100448608e-01" nType="-99"/>
        </Node>
      </Node>
    </BinaryTree>
    <BinaryTree type="DecisionTree" boostWeight="1.0000000000000000e+00" itree="77">
      <Node pos="s" depth="0" NCoef="0" IVar="5" Cut="7.2191319465637207e+00" cType="1" res="2.1627792157232761e-03" rms="3.5549250245094299e-01" purity="5.0221765041351318e-01" nType="0">
        <Node pos="l" depth="1" NCoef="0" IVar="9" Cut="3.6931471824645996e+00" cType="1" res="1.6049505211412907e-03" rms="2.7044060826301575e-01" purity="5.2054208517074585e-01" nType="0">
          <Node pos="l" depth="2" NCoef="0" IVar="-1" Cut="0.0000000000000000e+00" cType="1" res="4.5443857088685036e-03" rms="3.4524321556091309e-01" purity="5.6256490945816040e-01" nType="-99"/>
          <Node pos="r" depth="2" NCoef="0" IVar="-1" Cut="0.0000000000000000e+00" cType="1" res="-7.6179153984412551e-04" rms="3.7407892942428589e-01" purity="4.2879787087440491e-01" nType="-99"/>
        </Node>
        <Node pos="r" depth="1" NCoef="0" IVar="11" Cut="9.5213305950164795e-01" cType="1" res="-2.1406574174761772e-02" rms="3.5637119412422180e-01" purity="4.5753657817840576e-01" nType="0">
          <Node pos="l" depth="2" NCoef="0" IVar="-1" Cut="0.0000000000000000e+00" cType="1" res="-7.8405532985925674e-03" rms="3.5599219799041748e-01" purity="3.3101534843444824e-01" nType="-99"/>
          <Node pos="r" depth="2" NCoef="0" IVar="-1" Cut="0.0000000000000000e+00" cType="1" res="4.4617550447583199e-03" rms="3.5466912388801575e-01" purity="8.4566229581832886e-01" nType="-99"/>
        </Node>
      </Node>
    </BinaryTree>
    <BinaryTree type="DecisionTree" boostWeight="1.0000000000000000e+00" itree="78">
      <Node pos="s" depth="0" NCoef="0" IVar="9" Cut="3.6931471824645996e+00" cType="1" res="-5.2531849360093474e-04" rms="2.2968368232250214e-01" purity="5.0625920295715332e-01" nType="0">
        <Node pos="l" depth="1" NCoef="0" IVar="11" Cut="9.5235936343669891e-02" cType="1" res="8.7833451107144356e-03" rms="3.4559553861618042e-01" purity="5.4590117931365967e-01" nType="0">
          <Node pos="l" depth="2" NCoef="0" IVar="-1" Cut="0.0000000000000000e+00" cType="1" res="-2.9281009919941425e-03" rms="3.0881211161613464e-01" purity="1.4040230214595795e-01" nType="-99"/>
          <Node pos="r" depth="2" NCoef="0" IVar="-1" Cut="0.0000000000000000e+00" cType="1" res="4.4215102680027485e-03" rms="3.6578503251075745e-01" purity="7.9383772611618042e-01" nType="-99"/>
        </Node>
        <Node pos="r" depth="1" NCoef="0" IVar="3" Cut="-3.8875395059585571e-01" cType="1" res="-8.6147272959351540e-03" rms="3.7106183171272278e-01" purity="4.2311498522758484e-01" nType="0">
          <Node pos="l" depth="2" NCoef="0" IVar="-1" Cut="0.0000000000000000e+00" cType="1" res="5.5700582452118397e-03" rms="3.5077902674674988e-01" purity="6.0883176326751709e-01" nType="-99"/>
          <Node pos="r" depth="2" NCoef="0" IVar="-1" Cut="0.0000000000000000e+00" cType="1" res="-6.1707673594355583e-03" rms="3.7855136394500732e-01" purity="3.4814596176147461e-01" nType="-99"/>
        </Node>
      </Node>
    </BinaryTree>
    <BinaryTree type="DecisionTree" boostWeight="1.0000000000000000e+00" itree="79">
      <Node pos="s" depth="0" NCoef="0" IVar="4" Cut="4.2168015241622925e-01" cType="1" res="-8.9998217299580574e-04" rms="3.5692879557609558e-01" purity="5.0036633014678955e-01" nType="0">
        <Node pos="l" depth="1" NCoef="0" IVar="9" Cut="3.6931471824645996e+00" cType="1" res="6.2505574896931648e-04" rms="2.3479966819286346e-01" purity="5.1789301633834839e-01" nType="0">
          <Node pos="l" depth="2" NCoef="0" IVar="-1" Cut="0.0000000000000000e+00" cType="1" res="2.0310690160840750e-03" rms="3.4638422727584839e-01" purity="5.5818468332290649e-01" nType="-99"/>
          <Node pos="r" depth="2" NCoef="0" IVar="-1" Cut="0.0000000000000000e+00" cType="1" res="-1.7120653064921498e-03" rms="3.6629098653793335e-01" purity="4.3134617805480957e-01" nType="-99"/>
        </Node>
        <Node pos="r" depth="1" NCoef="0" IVar="3" Cut="5.3127497434616089e-01" cType="1" res="-4.4227946549654007e-02" rms="3.8689503073692322e-01" purity="3.5156452655792236e-01" nType="0">
          <Node pos="l" depth="2" NCoef="0" IVar="-1" Cut="0.0000000000000000e+00" cType="1" res="-1.6704792156815529e-02" rms="3.8343328237533569e-01" purity="3.6703786253929138e-01" nType="-99"/>
          <Node pos="r" depth="2" NCoef="0" IVar="-1" Cut="0.0000000000000000e+00" cType="1" res="-3.3482953440397978e-03" rms="3.8877567648887634e-01" purity="3.3377695083618164e-01" nType="-99"/>
        </Node>
      </Node>
    </BinaryTree>
    <BinaryTree type="DecisionTree" boostWeight="1.0000000000000000e+00" itree="80">
      <Node pos="s" depth="0" NCoef="0" IVar="9" Cut="3.0000000000000000e+00" cType="1" res="4.1146273724734783e-04" rms="2.3207335174083710e-01" purity="4.9898865818977356e-01" nType="0">
        <Node pos="l" depth="1" NCoef="0" IVar="5" Cut="7.1209974288940430e+00" cType="1" res="3.2199613749980927e-02" rms="3.2871314883232117e-01" purity="6.3013029098510742e-01" nType="0">
          <Node pos="l" depth="2" NCoef="0" IVar="-1" Cut="0.0000000000000000e+00" cType="1" res="1.3513936661183834e-02" rms="3.2117366790771484e-01" purity="6.7459678649902344e-01" nType="-99"/>
          <Node pos="r" depth="2" NCoef="0" IVar="-1" Cut="0.0000000000000000e+00" cType="1" res="-1.1499148095026612e-03" rms="3.4123572707176208e-01" purity="5.3514349460601807e-01" nType="-99"/>
        </Node>
        <Node pos="r" depth="1" NCoef="0" IVar="4" Cut="-1.0389893054962158e+00" cType="1" res="-2.4370825849473476e-03" rms="3.6302363872528076e-01" purity="4.7766190767288208e-01" nType="0">
          <Node pos="l" depth="2" NCoef="0" IVar="-1" Cut="0.0000000000000000e+00" cType="1" res="4.7302567400038242e-03" rms="3.4509444236755371e-01" purity="5.5907016992568970e-01" nType="-99"/>
          <Node pos="r" depth="2" NCoef="0" IVar="-1" Cut="0.0000000000000000e+00" cType="1" res="-2.6148364413529634e-03" rms="3.7009337544441223e-01" purity="4.4316652417182922e-01" nType="-99"/>
        </Node>
      </Node>
    </BinaryTree>
    <BinaryTree type="DecisionTree" boostWeight="1.0000000000000000e+00" itree="81">
      <Node pos="s" depth="0" NCoef="0" IVar="13" Cut="8.5706877708435059e-01" cType="1" res="-1.2154912110418081e-03" rms="3.5489544272422791e-01" purity="4.9776783585548401e-01" nType="0">
        <Node pos="l" depth="1" NCoef="0" IVar="11" Cut="7.1415233612060547e-01" cType="1" res="1.8906433833763003e-03" rms="3.5382252931594849e-01" purity="4.9008479714393616e-01" nType="0">
          <Node pos="l" depth="2" NCoef="0" IVar="-1" Cut="0.0000000000000000e+00" cType="1" res="-1.6197324730455875e-03" rms="3.6881279945373535e-01" purity="3.3232769370079041e-01" nType="-99"/>
          <Node pos="r" depth="2" NCoef="0" IVar="-1" Cut="0.0000000000000000e+00" cType="1" res="7.8009632416069508e-03" rms="3.1293028593063354e-01" purity="8.7818026542663574e-01" nType="-99"/>
        </Node>
        <Node pos="r" depth="1" NCoef="0" IVar="-1" Cut="0.0000000000000000e+00" cType="1" res="-2.6369867846369743e-02" rms="3.7088754773139954e-01" purity="6.6126745939254761e-01" nType="-99"/>
      </Node>
    </BinaryTree>
    <BinaryTree type="DecisionTree" boostWeight="1.0000000000000000e+00" itree="82">
      <Node pos="s" depth="0" NCoef="0" IVar="10" Cut="2.0000000000000000e+00" cType="1" res="-3.7074803840368986e-03" rms="2.7204865217208862e-01" purity="5.0174266099929810e-01" nType="0">
        <Node pos="l" depth="1" NCoef="0" IVar="11" Cut="4.7625619918107986e-02" cType="1" res="1.5473850071430206e-02" rms="3.4370604157447815e-01" purity="5.5853289365768433e-01" nType="0">
          <Node pos="l" depth="2" NCoef="0" IVar="-1" Cut="0.0000000000000000e+00" cType="1" res="-4.1236774995923042e-03" rms="2.3962177336215973e-01" purity="6.9901272654533386e-02" nType="-99"/>
          <Node pos="r" depth="2" NCoef="0" IVar="-1" Cut="0.0000000000000000e+00" cType="1" res="5.5860970169305801e-03" rms="3.7581017613410950e-01" purity="7.4695277214050293e-01" nType="-99"/>
        </Node>
        <Node pos="r" depth="1" NCoef="0" IVar="1" Cut="5.3132753372192383e+00" cType="1" res="-1.2250614352524281e-02" rms="3.6457842588424683e-01" purity="4.4609653949737549e-01" nType="0">
          <Node pos="l" depth="2" NCoef="0" IVar="-1" Cut="0.0000000000000000e+00" cType="1" res="-1.3748831115663052e-02" rms="3.9171695709228516e-01" purity="2.1630777418613434e-01" nType="-99"/>
          <Node pos="r" depth="2" NCoef="0" IVar="-1" Cut="0.0000000000000000e+00" cType="1" res="-2.1487444173544645e-03" rms="3.6158326268196106e-01" purity="4.6777507662773132e-01" nType="-99"/>
        </Node>
      </Node>
    </BinaryTree>
    <BinaryTree type="DecisionTree" boostWeight="1.0000000000000000e+00" itree="83">
      <Node pos="s" depth="0" NCoef="0" IVar="9" Cut="3.0000000000000000e+00" cType="1" res="-4.1046270780498162e-05" rms="2.3158915340900421e-01" purity="5.0273120403289795e-01" nType="0">
        <Node pos="l" depth="1" NCoef="0" IVar="3" Cut="2.2502578794956207e-01" cType="1" res="3.0751984566450119e-02" rms="3.2180276513099670e-01" purity="6.2784290313720703e-01" nType="0">
          <Node pos="l" depth="2" NCoef="0" IVar="-1" Cut="0.0000000000000000e+00" cType="1" res="1.9352192059159279e-02" rms="2.8202170133590698e-01" purity="7.7863371372222900e-01" nType="-99"/>
          <Node pos="r" depth="2" NCoef="0" IVar="-1" Cut="0.0000000000000000e+00" cType="1" res="1.7745415971148759e-04" rms="3.5607197880744934e-01" purity="4.7103324532508850e-01" nType="-99"/>
        </Node>
        <Node pos="r" depth="1" NCoef="0" IVar="13" Cut="8.5705101490020752e-01" cType="1" res="-2.4022525176405907e-03" rms="3.5994207859039307e-01" purity="4.8244613409042358e-01" nType="0">
          <Node pos="l" depth="2" NCoef="0" IVar="-1" Cut="0.0000000000000000e+00" cType="1" res="5.3708525229012594e-05" rms="3.5906204581260681e-01" purity="4.7570645809173584e-01" nType="-99"/>
          <Node pos="r" depth="2" NCoef="0" IVar="-1" Cut="0.0000000000000000e+00" cType="1" res="-2.4389870464801788e-02" rms="3.7495625019073486e-01" purity="6.4218276739120483e-01" nType="-99"/>
        </Node>
      </Node>
    </BinaryTree>
    <BinaryTree type="DecisionTree" boostWeight="1.0000000000000000e+00" itree="84">
      <Node pos="s" depth="0" NCoef="0" IVar="3" Cut="8.3795362710952759e-01" cType="1" res="-4.4354383135214448e-04" rms="3.5511505603790283e-01" purity="4.9845370650291443e-01" nType="0">
        <Node pos="l" depth="1" NCoef="0" IVar="12" Cut="9.5214074850082397e-01" cType="1" res="6.8138451315462589e-03" rms="3.5126671195030212e-01" purity="5.4595810174942017e-01" nType="0">
          <Node pos="l" depth="2" NCoef="0" IVar="-1" Cut="0.0000000000000000e+00" cType="1" res="3.2245812471956015e-03" rms="3.7656807899475098e-01" purity="6.5134066343307495e-01" nType="-99"/>
          <Node pos="r" depth="2" NCoef="0" IVar="-1" Cut="0.0000000000000000e+00" cType="1" res="-1.4223728328943253e-02" rms="1.8393598496913910e-01" purity="3.9094083011150360e-02" nType="-99"/>
        </Node>
        <Node pos="r" depth="1" NCoef="0" IVar="4" Cut="1.8313431739807129e-01" cType="1" res="-2.4289011955261230e-02" rms="3.6646538972854614e-01" purity="3.4236934781074524e-01" nType="0">
          <Node pos="l" depth="2" NCoef="0" IVar="-1" Cut="0.0000000000000000e+00" cType="1" res="-8.2992818206548691e-03" rms="3.6166206002235413e-01" purity="3.3904138207435608e-01" nType="-99"/>
          <Node pos="r" depth="2" NCoef="0" IVar="-1" Cut="0.0000000000000000e+00" cType="1" res="1.5511190285906196e-03" rms="3.7968474626541138e-01" purity="3.5295626521110535e-01" nType="-99"/>
        </Node>
      </Node>
    </BinaryTree>
    <BinaryTree type="DecisionTree" boostWeight="1.0000000000000000e+00" itree="85">
      <Node pos="s" depth="0" NCoef="0" IVar="9" Cut="3.6931471824645996e+00" cType="1" res="-2.3421382065862417e-03" rms="2.3331968486309052e-01" purity="4.9499437212944031e-01" nType="0">
        <Node pos="l" depth="1" NCoef="0" IVar="3" Cut="8.3801954984664917e-01" cType="1" res="1.5983938938006759e-03" rms="3.4764215350151062e-01" purity="5.3441959619522095e-01" nType="0">
          <Node pos="l" depth="2" NCoef="0" IVar="-1" Cut="0.0000000000000000e+00" cType="1" res="2.5614050682634115e-03" rms="3.4028652310371399e-01" purity="5.8377528190612793e-01" nType="-99"/>
          <Node pos="r" depth="2" NCoef="0" IVar="-1" Cut="0.0000000000000000e+00" cType="1" res="-5.4667908698320389e-03" rms="3.7003466486930847e-01" purity="3.6767992377281189e-01" nType="-99"/>
        </Node>
        <Node pos="r" depth="1" NCoef="0" IVar="4" Cut="-3.8592743873596191e-01" cType="1" res="-1.2533818371593952e-02" rms="3.7038353085517883e-01" purity="4.1038998961448669e-01" nType="0">
          <Node pos="l" depth="2" NCoef="0" IVar="-1" Cut="0.0000000000000000e+00" cType="1" res="-4.7026405809447169e-04" rms="3.5846468806266785e-01" purity="4.6439021825790405e-01" nType="-99"/>
          <Node pos="r" depth="2" NCoef="0" IVar="-1" Cut="0.0000000000000000e+00" cType="1" res="-8.6915232241153717e-03" rms="3.8257679343223572e-01" purity="3.5150671005249023e-01" nType="-99"/>
        </Node>
      </Node>
    </BinaryTree>
    <BinaryTree type="DecisionTree" boostWeight="1.0000000000000000e+00" itree="86">
      <Node pos="s" depth="0" NCoef="0" IVar="9" Cut="3.6931471824645996e+00" cType="1" res="-1.8378630047664046e-03" rms="2.3289711773395538e-01" purity="4.9882379174232483e-01" nType="0">
        <Node pos="l" depth="1" NCoef="0" IVar="3" Cut="-1.0008510351181030e+00" cType="1" res="4.8102377913892269e-03" rms="3.4805241227149963e-01" purity="5.3836590051651001e-01" nType="0">
          <Node pos="l" depth="2" NCoef="0" IVar="-1" Cut="0.0000000000000000e+00" cType="1" res="1.0741401463747025e-02" rms="3.0187958478927612e-01" purity="7.5414878129959106e-01" nType="-99"/>
          <Node pos="r" depth="2" NCoef="0" IVar="-1" Cut="0.0000000000000000e+00" cType="1" res="-4.4833423453383148e-04" rms="3.5768502950668335e-01" purity="4.8773440718650818e-01" nType="-99"/>
        </Node>
        <Node pos="r" depth="1" NCoef="0" IVar="10" Cut="2.0000000000000000e+00" cType="1" res="-9.5527423545718193e-03" rms="2.7749308943748474e-01" purity="4.1499280929565430e-01" nType="0">
          <Node pos="l" depth="2" NCoef="0" IVar="-1" Cut="0.0000000000000000e+00" cType="1" res="4.2223255150020123e-03" rms="3.6799204349517822e-01" purity="4.8121303319931030e-01" nType="-99"/>
          <Node pos="r" depth="2" NCoef="0" IVar="-1" Cut="0.0000000000000000e+00" cType="1" res="-6.2861470505595207e-03" rms="3.6976629495620728e-01" purity="3.8938987255096436e-01" nType="-99"/>
        </Node>
      </Node>
    </BinaryTree>
    <BinaryTree type="DecisionTree" boostWeight="1.0000000000000000e+00" itree="87">
      <Node pos="s" depth="0" NCoef="0" IVar="11" Cut="8.0936133861541748e-01" cType="1" res="1.1741872876882553e-03" rms="3.5327842831611633e-01" purity="5.0176370143890381e-01" nType="0">
        <Node pos="l" depth="1" NCoef="0" IVar="13" Cut="6.1899411678314209e-01" cType="1" res="-7.5873234309256077e-03" rms="3.6883452534675598e-01" purity="3.5449749231338501e-01" nType="0">
          <Node pos="l" depth="2" NCoef="0" IVar="-1" Cut="0.0000000000000000e+00" cType="1" res="-9.9854439031332731e-04" rms="3.6804610490798950e-01" purity="3.4729737043380737e-01" nType="-99"/>
          <Node pos="r" depth="2" NCoef="0" IVar="-1" Cut="0.0000000000000000e+00" cType="1" res="-3.0982812866568565e-02" rms="3.7761795520782471e-01" purity="5.2812200784683228e-01" nType="-99"/>
        </Node>
        <Node pos="r" depth="1" NCoef="0" IVar="0" Cut="9.3735818862915039e+00" cType="1" res="2.3766489699482918e-02" rms="3.0843374133110046e-01" purity="8.8150203227996826e-01" nType="0">
          <Node pos="l" depth="2" NCoef="0" IVar="-1" Cut="0.0000000000000000e+00" cType="1" res="3.5408367402851582e-03" rms="3.3481258153915405e-01" purity="8.5574185848236084e-01" nType="-99"/>
          <Node pos="r" depth="2" NCoef="0" IVar="-1" Cut="0.0000000000000000e+00" cType="1" res="1.1467303149402142e-02" rms="2.8870886564254761e-01" purity="8.9901840686798096e-01" nType="-99"/>
        </Node>
      </Node>
    </BinaryTree>
    <BinaryTree type="DecisionTree" boostWeight="1.0000000000000000e+00" itree="88">
      <Node pos="s" depth="0" NCoef="0" IVar="12" Cut="9.5214074850082397e-01" cType="1" res="1.8975209677591920e-03" rms="3.5234221816062927e-01" purity="5.0361281633377075e-01" nType="0">
        <Node pos="l" depth="1" NCoef="0" IVar="7" Cut="1.5567840337753296e+00" cType="1" res="8.6336545646190643e-03" rms="3.8338363170623779e-01" purity="6.1390465497970581e-01" nType="0">
          <Node pos="l" depth="2" NCoef="0" IVar="-1" Cut="0.0000000000000000e+00" cType="1" res="2.8146398253738880e-03" rms="3.8324791193008423e-01" purity="6.2438797950744629e-01" nType="-99"/>
          <Node pos="r" depth="2" NCoef="0" IVar="-1" Cut="0.0000000000000000e+00" cType="1" res="-1.7733741551637650e-02" rms="3.7632352113723755e-01" purity="2.9303708672523499e-01" nType="-99"/>
        </Node>
        <Node pos="r" depth="1" NCoef="0" IVar="11" Cut="7.6955440454185009e-03" cType="1" res="-2.7181914076209068e-02" rms="1.5656805038452148e-01" purity="2.7490094304084778e-02" nType="0">
          <Node pos="l" depth="2" NCoef="0" IVar="-1" Cut="0.0000000000000000e+00" cType="1" res="-3.0408455058932304e-02" rms="9.3208104372024536e-02" purity="8.9212786406278610e-03" nType="-99"/>
          <Node pos="r" depth="2" NCoef="0" IVar="-1" Cut="0.0000000000000000e+00" cType="1" res="-2.3382024373859167e-03" rms="2.8777500987052917e-01" purity="9.6569061279296875e-02" nType="-99"/>
        </Node>
      </Node>
    </BinaryTree>
    <BinaryTree type="DecisionTree" boostWeight="1.0000000000000000e+00" itree="89">
      <Node pos="s" depth="0" NCoef="0" IVar="10" Cut="3.0000000000000000e+00" cType="1" res="-2.8966281097382307e-03" rms="2.6948252320289612e-01" purity="4.9843943119049072e-01" nType="0">
        <Node pos="l" depth="1" NCoef="0" IVar="9" Cut="3.0000000000000000e+00" cType="1" res="6.7737360950559378e-04" rms="2.2868439555168152e-01" purity="5.1766055822372437e-01" nType="0">
          <Node pos="l" depth="2" NCoef="0" IVar="-1" Cut="0.0000000000000000e+00" cType="1" res="6.4373780041933060e-03" rms="3.2419949769973755e-01" purity="6.3475388288497925e-01" nType="-99"/>
          <Node pos="r" depth="2" NCoef="0" IVar="-1" Cut="0.0000000000000000e+00" cType="1" res="-1.5897083358140662e-05" rms="3.5735368728637695e-01" purity="4.9522066116333008e-01" nType="-99"/>
        </Node>
        <Node pos="r" depth="1" NCoef="0" IVar="3" Cut="-9.7966533899307251e-01" cType="1" res="-3.3274229615926743e-02" rms="3.6858931183815002e-01" purity="3.9244133234024048e-01" nType="0">
          <Node pos="l" depth="2" NCoef="0" IVar="-1" Cut="0.0000000000000000e+00" cType="1" res="4.5032813213765621e-03" rms="3.2551953196525574e-01" purity="6.3562297821044922e-01" nType="-99"/>
          <Node pos="r" depth="2" NCoef="0" IVar="-1" Cut="0.0000000000000000e+00" cType="1" res="-1.2674601748585701e-02" rms="3.7608495354652405e-01" purity="3.4297627210617065e-01" nType="-99"/>
        </Node>
      </Node>
    </BinaryTree>
    <BinaryTree type="DecisionTree" boostWeight="1.0000000000000000e+00" itree="90">
      <Node pos="s" depth="0" NCoef="0" IVar="12" Cut="9.0445995330810547e-01" cType="1" res="1.3003569329157472e-03" rms="3.5176071524620056e-01" purity="5.0140488147735596e-01" nType="0">
        <Node pos="l" depth="1" NCoef="0" IVar="13" Cut="8.5706406831741333e-01" cType="1" res="8.1555051729083061e-03" rms="3.8510346412658691e-01" purity="6.5002173185348511e-01" nType="0">
          <Node pos="l" depth="2" NCoef="0" IVar="-1" Cut="0.0000000000000000e+00" cType="1" res="2.6299352757632732e-03" rms="3.8617736101150513e-01" purity="6.4902001619338989e-01" nType="-99"/>
          <Node pos="r" depth="2" NCoef="0" IVar="-1" Cut="0.0000000000000000e+00" cType="1" res="-1.7548533156514168e-02" rms="3.6292546987533569e-01" purity="6.6611951589584351e-01" nType="-99"/>
        </Node>
        <Node pos="r" depth="1" NCoef="0" IVar="12" Cut="9.8606640100479126e-01" cType="1" res="-1.8952000886201859e-02" rms="2.2494773566722870e-01" purity="6.2341876327991486e-02" nType="0">
          <Node pos="l" depth="2" NCoef="0" IVar="-1" Cut="0.0000000000000000e+00" cType="1" res="-3.1445163767784834e-03" rms="2.9096928238868713e-01" purity="1.0608023405075073e-01" nType="-99"/>
          <Node pos="r" depth="2" NCoef="0" IVar="-1" Cut="0.0000000000000000e+00" cType="1" res="-3.2827034592628479e-02" rms="8.8928014039993286e-02" purity="7.9382518306374550e-03" nType="-99"/>
        </Node>
      </Node>
    </BinaryTree>
    <BinaryTree type="DecisionTree" boostWeight="1.0000000000000000e+00" itree="91">
      <Node pos="s" depth="0" NCoef="0" IVar="7" Cut="1.2978383302688599e+00" cType="1" res="-8.2758319331333041e-04" rms="3.5329735279083252e-01" purity="4.9744093418121338e-01" nType="0">
        <Node pos="l" depth="1" NCoef="0" IVar="3" Cut="-6.9591075181961060e-01" cType="1" res="2.6047301944345236e-03" rms="3.5260909795761108e-01" purity="5.1044195890426636e-01" nType="0">
          <Node pos="l" depth="2" NCoef="0" IVar="-1" Cut="0.0000000000000000e+00" cType="1" res="8.0776689574122429e-03" rms="3.1131428480148315e-01" purity="7.1117657423019409e-01" nType="-99"/>
          <Node pos="r" depth="2" NCoef="0" IVar="-1" Cut="0.0000000000000000e+00" cType="1" res="-1.0024131042882800e-03" rms="3.6439999938011169e-01" purity="4.4721829891204834e-01" nType="-99"/>
        </Node>
        <Node pos="r" depth="1" NCoef="0" IVar="-1" Cut="0.0000000000000000e+00" cType="1" res="-1.7546789720654488e-02" rms="3.5995411872863770e-01" purity="2.5329390168190002e-01" nType="-99"/>
      </Node>
    </BinaryTree>
    <BinaryTree type="DecisionTree" boostWeight="1.0000000000000000e+00" itree="92">
      <Node pos="s" depth="0" NCoef="0" IVar="11" Cut="3.3326625823974609e-01" cType="1" res="5.5378495017066598e-04" rms="3.5045260190963745e-01" purity="5.0021469593048096e-01" nType="0">
        <Node pos="l" depth="1" NCoef="0" IVar="11" Cut="1.5884997323155403e-02" cType="1" res="-1.0408954694867134e-02" rms="3.5575750470161438e-01" purity="2.4547366797924042e-01" nType="0">
          <Node pos="l" depth="2" NCoef="0" IVar="-1" Cut="0.0000000000000000e+00" cType="1" res="-2.1063188090920448e-02" rms="1.4056050777435303e-01" purity="2.0984442904591560e-02" nType="-99"/>
          <Node pos="r" depth="2" NCoef="0" IVar="-1" Cut="0.0000000000000000e+00" cType="1" res="-7.5167859904468060e-05" rms="4.4080910086631775e-01" purity="3.8841009140014648e-01" nType="-99"/>
        </Node>
        <Node pos="r" depth="1" NCoef="0" IVar="13" Cut="2.3752847313880920e-01" cType="1" res="1.5387228690087795e-02" rms="3.4258610010147095e-01" purity="8.4489917755126953e-01" nType="0">
          <Node pos="l" depth="2" NCoef="0" IVar="-1" Cut="0.0000000000000000e+00" cType="1" res="1.0233959183096886e-02" rms="3.1313192844390869e-01" purity="8.7560689449310303e-01" nType="-99"/>
          <Node pos="r" depth="2" NCoef="0" IVar="-1" Cut="0.0000000000000000e+00" cType="1" res="4.8235527356155217e-04" rms="3.5984522104263306e-01" purity="8.2484769821166992e-01" nType="-99"/>
        </Node>
      </Node>
    </BinaryTree>
    <BinaryTree type="DecisionTree" boostWeight="1.0000000000000000e+00" itree="93">
      <Node pos="s" depth="0" NCoef="0" IVar="10" Cut="2.0000000000000000e+00" cType="1" res="-2.8913742862641811e-03" rms="2.6879492402076721e-01" purity="5.0089871883392334e-01" nType="0">
        <Node pos="l" depth="1" NCoef="0" IVar="11" Cut="4.7627232968807220e-02" cType="1" res="1.1658302508294582e-02" rms="3.4184086322784424e-01" purity="5.6104880571365356e-01" nType="0">
          <Node pos="l" depth="2" NCoef="0" IVar="-1" Cut="0.0000000000000000e+00" cType="1" res="-5.1106945611536503e-03" rms="2.3217953741550446e-01" purity="6.5111592411994934e-02" nType="-99"/>
          <Node pos="r" depth="2" NCoef="0" IVar="-1" Cut="0.0000000000000000e+00" cType="1" res="4.5267902314662933e-03" rms="3.7456545233726501e-01" purity="7.4768799543380737e-01" nType="-99"/>
        </Node>
        <Node pos="r" depth="1" NCoef="0" IVar="1" Cut="5.1627044677734375e+00" cType="1" res="-1.4566874131560326e-02" rms="3.6346873641014099e-01" purity="4.4100055098533630e-01" nType="0">
          <Node pos="l" depth="2" NCoef="0" IVar="-1" Cut="0.0000000000000000e+00" cType="1" res="-1.5617517754435539e-02" rms="3.7198996543884277e-01" purity="1.8600210547447205e-01" nType="-99"/>
          <Node pos="r" depth="2" NCoef="0" IVar="-1" Cut="0.0000000000000000e+00" cType="1" res="-3.0317327473312616e-03" rms="3.6256465315818787e-01" purity="4.5783004164695740e-01" nType="-99"/>
        </Node>
      </Node>
    </BinaryTree>
    <BinaryTree type="DecisionTree" boostWeight="1.0000000000000000e+00" itree="94">
      <Node pos="s" depth="0" NCoef="0" IVar="8" Cut="-6.1815565824508667e-01" cType="1" res="1.3255425728857517e-03" rms="3.5340777039527893e-01" purity="4.9970877170562744e-01" nType="0">
        <Node pos="l" depth="1" NCoef="0" IVar="-1" Cut="0.0000000000000000e+00" cType="1" res="4.8794131726026535e-03" rms="4.0102216601371765e-01" purity="5.5425620079040527e-01" nType="-99"/>
        <Node pos="r" depth="1" NCoef="0" IVar="11" Cut="9.0459978580474854e-01" cType="1" res="-2.4810591712594032e-03" rms="3.4885179996490479e-01" purity="4.9513477087020874e-01" nType="0">
          <Node pos="l" depth="2" NCoef="0" IVar="-1" Cut="0.0000000000000000e+00" cType="1" res="-2.8500314801931381e-03" rms="3.6184024810791016e-01" purity="3.8357189297676086e-01" nType="-99"/>
          <Node pos="r" depth="2" NCoef="0" IVar="-1" Cut="0.0000000000000000e+00" cType="1" res="8.5977120324969292e-03" rms="2.9682287573814392e-01" purity="8.9176827669143677e-01" nType="-99"/>
        </Node>
      </Node>
    </BinaryTree>
    <BinaryTree type="DecisionTree" boostWeight="1.0000000000000000e+00" itree="95">
      <Node pos="s" depth="0" NCoef="0" IVar="4" Cut="5.1464378833770752e-01" cType="1" res="1.1104294098913670e-03" rms="3.5265180468559265e-01" purity="5.0014412403106689e-01" nType="0">
        <Node pos="l" depth="1" NCoef="0" IVar="7" Cut="1.2971979379653931e+00" cType="1" res="5.1503055728971958e-03" rms="3.5040378570556641e-01" purity="5.1310634613037109e-01" nType="0">
          <Node pos="l" depth="2" NCoef="0" IVar="-1" Cut="0.0000000000000000e+00" cType="1" res="2.1398549433797598e-03" rms="3.5068458318710327e-01" purity="5.2565306425094604e-01" nType="-99"/>
          <Node pos="r" depth="2" NCoef="0" IVar="-1" Cut="0.0000000000000000e+00" cType="1" res="-1.2299385853111744e-02" rms="3.4182456135749817e-01" purity="2.7860736846923828e-01" nType="-99"/>
        </Node>
        <Node pos="r" depth="1" NCoef="0" IVar="3" Cut="5.3170502185821533e-01" cType="1" res="-5.0546675920486450e-02" rms="3.7642467021942139e-01" purity="3.3439856767654419e-01" nType="0">
          <Node pos="l" depth="2" NCoef="0" IVar="-1" Cut="0.0000000000000000e+00" cType="1" res="-2.0655127242207527e-02" rms="3.7255427241325378e-01" purity="3.4601831436157227e-01" nType="-99"/>
          <Node pos="r" depth="2" NCoef="0" IVar="-1" Cut="0.0000000000000000e+00" cType="1" res="-3.4115586895495653e-03" rms="3.7754690647125244e-01" purity="3.2145053148269653e-01" nType="-99"/>
        </Node>
      </Node>
    </BinaryTree>
    <BinaryTree type="DecisionTree" boostWeight="1.0000000000000000e+00" itree="96">
      <Node pos="s" depth="0" NCoef="0" IVar="3" Cut="-6.9403147697448730e-01" cType="1" res="-5.3114239563001320e-05" rms="3.5348361730575562e-01" purity="4.9907827377319336e-01" nType="0">
        <Node pos="l" depth="1" NCoef="0" IVar="4" Cut="-3.4749495983123779e-01" cType="1" res="2.0716277882456779e-02" rms="3.1745985150337219e-01" purity="6.9769233465194702e-01" nType="0">
          <Node pos="l" depth="2" NCoef="0" IVar="-1" Cut="0.0000000000000000e+00" cType="1" res="1.6062155365943909e-02" rms="2.8965586423873901e-01" purity="7.7591305971145630e-01" nType="-99"/>
          <Node pos="r" depth="2" NCoef="0" IVar="-1" Cut="0.0000000000000000e+00" cType="1" res="-3.2546469010412693e-03" rms="3.6079901456832886e-01" purity="5.5410361289978027e-01" nType="-99"/>
        </Node>
        <Node pos="r" depth="1" NCoef="0" IVar="7" Cut="1.2143766880035400e+00" cType="1" res="-6.5868203528225422e-03" rms="3.6383473873138428e-01" purity="4.3659761548042297e-01" nType="0">
          <Node pos="l" depth="2" NCoef="0" IVar="-1" Cut="0.0000000000000000e+00" cType="1" res="-9.4733864534646273e-04" rms="3.6499628424644470e-01" purity="4.5051646232604980e-01" nType="-99"/>
          <Node pos="r" depth="2" NCoef="0" IVar="-1" Cut="0.0000000000000000e+00" cType="1" res="-1.5315549448132515e-02" rms="3.4316653013229370e-01" purity="2.3067606985569000e-01" nType="-99"/>
        </Node>
      </Node>
    </BinaryTree>
    <BinaryTree type="DecisionTree" boostWeight="1.0000000000000000e+00" itree="97">
      <Node pos="s" depth="0" NCoef="0" IVar="5" Cut="6.7301278114318848e+00" cType="1" res="-2.0018209761474282e-04" rms="3.5487413406372070e-01" purity="5.0148105621337891e-01" nType="0">
        <Node pos="l" depth="1" NCoef="0" IVar="1" Cut="6.0704174041748047e+00" cType="1" res="1.0432805866003036e-02" rms="3.5906893014907837e-01" purity="5.2633804082870483e-01" nType="0">
          <Node pos="l" depth="2" NCoef="0" IVar="-1" Cut="0.0000000000000000e+00" cType="1" res="-2.1606548689305782e-03" rms="4.0188950300216675e-01" purity="3.6731091141700745e-01" nType="-99"/>
          <Node pos="r" depth="2" NCoef="0" IVar="-1" Cut="0.0000000000000000e+00" cType="1" res="1.0829373262822628e-02" rms="3.0998635292053223e-01" purity="6.8288195133209229e-01" nType="-99"/>
        </Node>
        <Node pos="r" depth="1" NCoef="0" IVar="13" Cut="8.0940324068069458e-01" cType="1" res="-1.1605050414800644e-02" rms="3.4996005892753601e-01" purity="4.7481960058212280e-01" nType="0">
          <Node pos="l" depth="2" NCoef="0" IVar="-1" Cut="0.0000000000000000e+00" cType="1" res="-1.7574065132066607e-03" rms="3.4372308850288391e-01" purity="4.6164157986640930e-01" nType="-99"/>
          <Node pos="r" depth="2" NCoef="0" IVar="-1" Cut="0.0000000000000000e+00" cType="1" res="-1.8472090363502502e-02" rms="4.0463519096374512e-01" purity="6.0910177230834961e-01" nType="-99"/>
        </Node>
      </Node>
    </BinaryTree>
    <BinaryTree type="DecisionTree" boostWeight="1.0000000000000000e+00" itree="98">
      <Node pos="s" depth="0" NCoef="0" IVar="11" Cut="6.6654270887374878e-01" cType="1" res="2.8784519527107477e-03" rms="3.5101589560508728e-01" purity="5.0201749801635742e-01" nType="0">
        <Node pos="l" depth="1" NCoef="0" IVar="12" Cut="1.4281350374221802e-01" cType="1" res="-5.3801890462636948e-03" rms="3.6595663428306580e-01" purity="3.2297274470329285e-01" nType="0">
          <Node pos="l" depth="2" NCoef="0" IVar="-1" Cut="0.0000000000000000e+00" cType="1" res="-2.3306854069232941e-02" rms="3.8205534219741821e-01" purity="4.8550972342491150e-01" nType="-99"/>
          <Node pos="r" depth="2" NCoef="0" IVar="-1" Cut="0.0000000000000000e+00" cType="1" res="-5.1467993762344122e-04" rms="3.6488786339759827e-01" purity="3.1643876433372498e-01" nType="-99"/>
        </Node>
        <Node pos="r" depth="1" NCoef="0" IVar="9" Cut="4.6931471824645996e+00" cType="1" res="2.5685108266770840e-03" rms="1.5816563367843628e-01" purity="8.7453883886337280e-01" nType="0">
          <Node pos="l" depth="2" NCoef="0" IVar="-1" Cut="0.0000000000000000e+00" cType="1" res="7.1159149520099163e-03" rms="3.1698879599571228e-01" purity="8.7455183267593384e-01" nType="-99"/>
          <Node pos="r" depth="2" NCoef="0" IVar="-1" Cut="0.0000000000000000e+00" cType="1" res="-6.1695939302444458e-01" rms="0.0000000000000000e+00" purity="0.0000000000000000e+00" nType="-99"/>
        </Node>
      </Node>
    </BinaryTree>
    <BinaryTree type="DecisionTree" boostWeight="1.0000000000000000e+00" itree="99">
      <Node pos="s" depth="0" NCoef="0" IVar="5" Cut="6.7167968750000000e+00" cType="1" res="1.6424845671281219e-03" rms="3.5232850909233093e-01" purity="5.0184667110443115e-01" nType="0">
        <Node pos="l" depth="1" NCoef="0" IVar="1" Cut="6.0723857879638672e+00" cType="1" res="1.2861697003245354e-02" rms="3.5585078597068787e-01" purity="5.3147095441818237e-01" nType="0">
          <Node pos="l" depth="2" NCoef="0" IVar="-1" Cut="0.0000000000000000e+00" cType="1" res="-9.4767671544104815e-04" rms="3.9661708474159241e-01" purity="3.7224912643432617e-01" nType="-99"/>
          <Node pos="r" depth="2" NCoef="0" IVar="-1" Cut="0.0000000000000000e+00" cType="1" res="1.0919220745563507e-02" rms="3.0985999107360840e-01" purity="6.8750518560409546e-01" nType="-99"/>
        </Node>
        <Node pos="r" depth="1" NCoef="0" IVar="13" Cut="8.5706877708435059e-01" cType="1" res="-9.9336383864283562e-03" rms="3.4827825427055359e-01" purity="4.7128006815910339e-01" nType="0">
          <Node pos="l" depth="2" NCoef="0" IVar="-1" Cut="0.0000000000000000e+00" cType="1" res="-1.6701562562957406e-03" rms="3.4438440203666687e-01" purity="4.6658524870872498e-01" nType="-99"/>
          <Node pos="r" depth="2" NCoef="0" IVar="-1" Cut="0.0000000000000000e+00" cType="1" res="-2.0398873835802078e-02" rms="3.9920458197593689e-01" purity="5.4378211498260498e-01" nType="-99"/>
        </Node>
      </Node>
    </BinaryTree>
    <BinaryTree type="DecisionTree" boostWeight="1.0000000000000000e+00" itree="100">
      <Node pos="s" depth="0" NCoef="0" IVar="9" Cut="3.6931471824645996e+00" cType="1" res="-2.1559151355177164e-03" rms="2.2803401947021484e-01" purity="4.9917009472846985e-01" nType="0">
        <Node pos="l" depth="1" NCoef="0" IVar="3" Cut="-6.9562852382659912e-01" cType="1" res="7.9920463031157851e-04" rms="3.4548154473304749e-01" purity="5.4108315706253052e-01" nType="0">
          <Node pos="l" depth="2" NCoef="0" IVar="-1" Cut="0.0000000000000000e+00" cType="1" res="7.7877291478216648e-03" rms="2.9423904418945312e-01" purity="7.4076914787292480e-01" nType="-99"/>
          <Node pos="r" depth="2" NCoef="0" IVar="-1" Cut="0.0000000000000000e+00" cType="1" res="-1.4876869972795248e-03" rms="3.6035066843032837e-01" purity="4.7585099935531616e-01" nType="-99"/>
        </Node>
        <Node pos="r" depth="1" NCoef="0" IVar="12" Cut="8.5676312446594238e-01" cType="1" res="-5.7302415370941162e-03" rms="3.6697217822074890e-01" purity="4.0937513113021851e-01" nType="0">
          <Node pos="l" depth="2" NCoef="0" IVar="-1" Cut="0.0000000000000000e+00" cType="1" res="6.2388525111600757e-04" rms="4.1371589899063110e-01" purity="5.7882493734359741e-01" nType="-99"/>
          <Node pos="r" depth="2" NCoef="0" IVar="-1" Cut="0.0000000000000000e+00" cType="1" res="-1.3503243215382099e-02" rms="2.5131189823150635e-01" purity="7.8926153481006622e-02" nType="-99"/>
        </Node>
      </Node>
    </BinaryTree>
    <BinaryTree type="DecisionTree" boostWeight="1.0000000000000000e+00" itree="101">
      <Node pos="s" depth="0" NCoef="0" IVar="5" Cut="7.4303855895996094e+00" cType="1" res="9.8569435067474842e-04" rms="3.5475489497184753e-01" purity="4.9863094091415405e-01" nType="0">
        <Node pos="l" depth="1" NCoef="0" IVar="0" Cut="9.7378320693969727e+00" cType="1" res="8.1526469439268112e-03" rms="3.5224428772926331e-01" purity="5.1392066478729248e-01" nType="0">
          <Node pos="l" depth="2" NCoef="0" IVar="-1" Cut="0.0000000000000000e+00" cType="1" res="7.3405500734224916e-04" rms="3.6021968722343445e-01" purity="4.7941404581069946e-01" nType="-99"/>
          <Node pos="r" depth="2" NCoef="0" IVar="-1" Cut="0.0000000000000000e+00" cType="1" res="1.1909496970474720e-02" rms="2.9756692051887512e-01" purity="7.2161895036697388e-01" nType="-99"/>
        </Node>
        <Node pos="r" depth="1" NCoef="0" IVar="13" Cut="4.2852067947387695e-01" cType="1" res="-2.3255756124854088e-02" rms="3.6206817626953125e-01" purity="4.4691514968872070e-01" nType="0">
          <Node pos="l" depth="2" NCoef="0" IVar="-1" Cut="0.0000000000000000e+00" cType="1" res="-2.9611359350383282e-03" rms="3.4631714224815369e-01" purity="4.2745271325111389e-01" nType="-99"/>
          <Node pos="r" depth="2" NCoef="0" IVar="-1" Cut="0.0000000000000000e+00" cType="1" res="-1.8778944388031960e-02" rms="4.2685347795486450e-01" purity="5.4243534803390503e-01" nType="-99"/>
        </Node>
      </Node>
    </BinaryTree>
    <BinaryTree type="DecisionTree" boostWeight="1.0000000000000000e+00" itree="102">
      <Node pos="s" depth="0" NCoef="0" IVar="9" Cut="3.6931471824645996e+00" cType="1" res="5.7379971258342266e-04" rms="2.3064228892326355e-01" purity="5.0364893674850464e-01" nType="0">
        <Node pos="l" depth="1" NCoef="0" IVar="3" Cut="8.3822280168533325e-01" cType="1" res="2.9600295238196850e-03" rms="3.4684059023857117e-01" purity="5.4035943746566772e-01" nType="0">
          <Node pos="l" depth="2" NCoef="0" IVar="-1" Cut="0.0000000000000000e+00" cType="1" res="2.5770789943635464e-03" rms="3.4114378690719604e-01" purity="5.9046149253845215e-01" nType="-99"/>
          <Node pos="r" depth="2" NCoef="0" IVar="-1" Cut="0.0000000000000000e+00" cType="1" res="-4.1499319486320019e-03" rms="3.6457976698875427e-01" purity="3.7021341919898987e-01" nType="-99"/>
        </Node>
        <Node pos="r" depth="1" NCoef="0" IVar="0" Cut="9.3510465621948242e+00" cType="1" res="1.8383247079327703e-03" rms="3.6853301525115967e-01" purity="4.2468437552452087e-01" nType="0">
          <Node pos="l" depth="2" NCoef="0" IVar="-1" Cut="0.0000000000000000e+00" cType="1" res="-2.3018000647425652e-03" rms="3.7764531373977661e-01" purity="3.7420129776000977e-01" nType="-99"/>
          <Node pos="r" depth="2" NCoef="0" IVar="-1" Cut="0.0000000000000000e+00" cType="1" res="5.2192388102412224e-03" rms="3.5344746708869934e-01" purity="5.0363034009933472e-01" nType="-99"/>
        </Node>
      </Node>
    </BinaryTree>
    <BinaryTree type="DecisionTree" boostWeight="1.0000000000000000e+00" itree="103">
      <Node pos="s" depth="0" NCoef="0" IVar="9" Cut="3.0000000000000000e+00" cType="1" res="-2.4974514963105321e-04" rms="2.3102617263793945e-01" purity="5.0467187166213989e-01" nType="0">
        <Node pos="l" depth="1" NCoef="0" IVar="5" Cut="7.3351898193359375e+00" cType="1" res="3.3890966325998306e-02" rms="3.1776428222656250e-01" purity="6.4214992523193359e-01" nType="0">
          <Node pos="l" depth="2" NCoef="0" IVar="-1" Cut="0.0000000000000000e+00" cType="1" res="1.2682208791375160e-02" rms="3.1105825304985046e-01" purity="6.7500424385070801e-01" nType="-99"/>
          <Node pos="r" depth="2" NCoef="0" IVar="-1" Cut="0.0000000000000000e+00" cType="1" res="-8.0987566616386175e-04" rms="3.3485466241836548e-01" purity="5.4063010215759277e-01" nType="-99"/>
        </Node>
        <Node pos="r" depth="1" NCoef="0" IVar="4" Cut="-4.8347941040992737e-01" cType="1" res="-2.8079717885702848e-03" rms="3.5770314931869507e-01" purity="4.8177343606948853e-01" nType="0">
          <Node pos="l" depth="2" NCoef="0" IVar="-1" Cut="0.0000000000000000e+00" cType="1" res="2.0082422997802496e-03" rms="3.4413468837738037e-01" purity="5.4661929607391357e-01" nType="-99"/>
          <Node pos="r" depth="2" NCoef="0" IVar="-1" Cut="0.0000000000000000e+00" cType="1" res="-3.0423316638916731e-03" rms="3.6996829509735107e-01" purity="4.1989123821258545e-01" nType="-99"/>
        </Node>
      </Node>
    </BinaryTree>
    <BinaryTree type="DecisionTree" boostWeight="1.0000000000000000e+00" itree="104">
      <Node pos="s" depth="0" NCoef="0" IVar="7" Cut="1.2978383302688599e+00" cType="1" res="9.1972056543454528e-04" rms="3.5537129640579224e-01" purity="4.9835664033889771e-01" nType="0">
        <Node pos="l" depth="1" NCoef="0" IVar="13" Cut="8.0944943428039551e-01" cType="1" res="3.4085114020854235e-03" rms="3.5567033290863037e-01" purity="5.1096409559249878e-01" nType="0">
          <Node pos="l" depth="2" NCoef="0" IVar="-1" Cut="0.0000000000000000e+00" cType="1" res="1.6313748201355338e-03" rms="3.5545998811721802e-01" purity="4.9299287796020508e-01" nType="-99"/>
          <Node pos="r" depth="2" NCoef="0" IVar="-1" Cut="0.0000000000000000e+00" cType="1" res="-1.1600834317505360e-02" rms="3.5661932826042175e-01" purity="7.3157900571823120e-01" nType="-99"/>
        </Node>
        <Node pos="r" depth="1" NCoef="0" IVar="-1" Cut="0.0000000000000000e+00" cType="1" res="-1.3690777122974396e-02" rms="3.4640014171600342e-01" purity="2.6154339313507080e-01" nType="-99"/>
      </Node>
    </BinaryTree>
    <BinaryTree type="DecisionTree" boostWeight="1.0000000000000000e+00" itree="105">
      <Node pos="s" depth="0" NCoef="0" IVar="9" Cut="3.0000000000000000e+00" cType="1" res="1.2114518904127181e-04" rms="2.3372811079025269e-01" purity="5.0131386518478394e-01" nType="0">
        <Node pos="l" depth="1" NCoef="0" IVar="5" Cut="6.6474223136901855e+00" cType="1" res="2.7027994394302368e-02" rms="3.2623681426048279e-01" purity="6.4366686344146729e-01" nType="0">
          <Node pos="l" depth="2" NCoef="0" IVar="-1" Cut="0.0000000000000000e+00" cType="1" res="1.3820931315422058e-02" rms="3.3357062935829163e-01" purity="6.8954366445541382e-01" nType="-99"/>
          <Node pos="r" depth="2" NCoef="0" IVar="-1" Cut="0.0000000000000000e+00" cType="1" res="1.0024333605542779e-03" rms="3.1698948144912720e-01" purity="5.9721595048904419e-01" nType="-99"/>
        </Node>
        <Node pos="r" depth="1" NCoef="0" IVar="4" Cut="5.5745762586593628e-01" cType="1" res="-3.0000947881489992e-03" rms="3.5867199301719666e-01" purity="4.7866904735565186e-01" nType="0">
          <Node pos="l" depth="2" NCoef="0" IVar="-1" Cut="0.0000000000000000e+00" cType="1" res="-2.0720979955513030e-04" rms="3.5688248276710510e-01" purity="4.8867389559745789e-01" nType="-99"/>
          <Node pos="r" depth="2" NCoef="0" IVar="-1" Cut="0.0000000000000000e+00" cType="1" res="-8.9724827557802200e-03" rms="3.8376757502555847e-01" purity="3.2277458906173706e-01" nType="-99"/>
        </Node>
      </Node>
    </BinaryTree>
    <BinaryTree type="DecisionTree" boostWeight="1.0000000000000000e+00" itree="106">
      <Node pos="s" depth="0" NCoef="0" IVar="3" Cut="-1.0007996559143066e+00" cType="1" res="-2.9958577943034470e-04" rms="3.5276713967323303e-01" purity="5.0148594379425049e-01" nType="0">
        <Node pos="l" depth="1" NCoef="0" IVar="2" Cut="8.8068008422851562e+00" cType="1" res="2.0055580884218216e-02" rms="3.0707189440727234e-01" purity="7.1999847888946533e-01" nType="0">
          <Node pos="l" depth="2" NCoef="0" IVar="-1" Cut="0.0000000000000000e+00" cType="1" res="-5.7417936623096466e-03" rms="3.3632329106330872e-01" purity="6.1479002237319946e-01" nType="-99"/>
          <Node pos="r" depth="2" NCoef="0" IVar="-1" Cut="0.0000000000000000e+00" cType="1" res="1.5463470481336117e-02" rms="2.9522246122360229e-01" purity="7.5506430864334106e-01" nType="-99"/>
        </Node>
        <Node pos="r" depth="1" NCoef="0" IVar="1" Cut="4.9801034927368164e+00" cType="1" res="-4.7050528228282928e-03" rms="3.6174750328063965e-01" purity="4.5419323444366455e-01" nType="0">
          <Node pos="l" depth="2" NCoef="0" IVar="-1" Cut="0.0000000000000000e+00" cType="1" res="-8.9923031628131866e-03" rms="4.1248247027397156e-01" purity="2.2950764000415802e-01" nType="-99"/>
          <Node pos="r" depth="2" NCoef="0" IVar="-1" Cut="0.0000000000000000e+00" cType="1" res="-8.3102716598659754e-04" rms="3.5963338613510132e-01" purity="4.6250724792480469e-01" nType="-99"/>
        </Node>
      </Node>
    </BinaryTree>
    <BinaryTree type="DecisionTree" boostWeight="1.0000000000000000e+00" itree="107">
      <Node pos="s" depth="0" NCoef="0" IVar="11" Cut="7.6172834634780884e-01" cType="1" res="-9.1870308096986264e-05" rms="3.5025778412818909e-01" purity="5.0011253356933594e-01" nType="0">
        <Node pos="l" depth="1" NCoef="0" IVar="13" Cut="5.7137918472290039e-01" cType="1" res="-7.9318638890981674e-03" rms="3.6479845643043518e-01" purity="3.4145250916481018e-01" nType="0">
          <Node pos="l" depth="2" NCoef="0" IVar="-1" Cut="0.0000000000000000e+00" cType="1" res="-1.2353837955743074e-03" rms="3.6394524574279785e-01" purity="3.3623149991035461e-01" nType="-99"/>
          <Node pos="r" depth="2" NCoef="0" IVar="-1" Cut="0.0000000000000000e+00" cType="1" res="-2.6284739375114441e-02" rms="3.7747430801391602e-01" purity="4.7067192196846008e-01" nType="-99"/>
        </Node>
        <Node pos="r" depth="1" NCoef="0" IVar="0" Cut="9.5671405792236328e+00" cType="1" res="1.8621599301695824e-02" rms="3.1203496456146240e-01" purity="8.7882208824157715e-01" nType="0">
          <Node pos="l" depth="2" NCoef="0" IVar="-1" Cut="0.0000000000000000e+00" cType="1" res="3.5683617461472750e-03" rms="3.3009776473045349e-01" purity="8.6047297716140747e-01" nType="-99"/>
          <Node pos="r" depth="2" NCoef="0" IVar="-1" Cut="0.0000000000000000e+00" cType="1" res="9.7647681832313538e-03" rms="2.9079407453536987e-01" purity="8.9875358343124390e-01" nType="-99"/>
        </Node>
      </Node>
    </BinaryTree>
    <BinaryTree type="DecisionTree" boostWeight="1.0000000000000000e+00" itree="108">
      <Node pos="s" depth="0" NCoef="0" IVar="5" Cut="7.5225019454956055e+00" cType="1" res="9.3255913816392422e-04" rms="3.5410222411155701e-01" purity="5.0009274482727051e-01" nType="0">
        <Node pos="l" depth="1" NCoef="0" IVar="10" Cut="3.0000000000000000e+00" cType="1" res="4.6742256381548941e-04" rms="2.9447734355926514e-01" purity="5.1461994647979736e-01" nType="0">
          <Node pos="l" depth="2" NCoef="0" IVar="-1" Cut="0.0000000000000000e+00" cType="1" res="3.3927180338650942e-03" rms="3.4970724582672119e-01" purity="5.3481727838516235e-01" nType="-99"/>
          <Node pos="r" depth="2" NCoef="0" IVar="-1" Cut="0.0000000000000000e+00" cType="1" res="-7.9564265906810760e-03" rms="3.6790597438812256e-01" purity="4.0306368470191956e-01" nType="-99"/>
        </Node>
        <Node pos="r" depth="1" NCoef="0" IVar="13" Cut="5.2376425266265869e-01" cType="1" res="-2.1372219547629356e-02" rms="3.5844507813453674e-01" purity="4.4171908497810364e-01" nType="0">
          <Node pos="l" depth="2" NCoef="0" IVar="-1" Cut="0.0000000000000000e+00" cType="1" res="-3.2514231279492378e-03" rms="3.4697014093399048e-01" purity="4.2983588576316833e-01" nType="-99"/>
          <Node pos="r" depth="2" NCoef="0" IVar="-1" Cut="0.0000000000000000e+00" cType="1" res="-1.7264408990740776e-02" rms="4.2089360952377319e-01" purity="5.1732182502746582e-01" nType="-99"/>
        </Node>
      </Node>
    </BinaryTree>
    <BinaryTree type="DecisionTree" boostWeight="1.0000000000000000e+00" itree="109">
      <Node pos="s" depth="0" NCoef="0" IVar="9" Cut="3.6931471824645996e+00" cType="1" res="-7.4916140874847770e-04" rms="2.3132953047752380e-01" purity="5.0028133392333984e-01" nType="0">
        <Node pos="l" depth="1" NCoef="0" IVar="9" Cut="2.6931471824645996e+00" cType="1" res="-1.4327745884656906e-03" rms="1.8663211166858673e-01" purity="5.3688627481460571e-01" nType="0">
          <Node pos="l" depth="2" NCoef="0" IVar="-1" Cut="0.0000000000000000e+00" cType="1" res="1.2780304998159409e-02" rms="3.1693208217620850e-01" purity="6.7860060930252075e-01" nType="-99"/>
          <Node pos="r" depth="2" NCoef="0" IVar="-1" Cut="0.0000000000000000e+00" cType="1" res="-9.4019895186647773e-04" rms="3.5068985819816589e-01" purity="5.2606695890426636e-01" nType="-99"/>
        </Node>
        <Node pos="r" depth="1" NCoef="0" IVar="10" Cut="2.0000000000000000e+00" cType="1" res="-3.6585170309990644e-03" rms="2.7514091134071350e-01" purity="4.2279222607612610e-01" nType="0">
          <Node pos="l" depth="2" NCoef="0" IVar="-1" Cut="0.0000000000000000e+00" cType="1" res="3.5648571792989969e-03" rms="3.7158587574958801e-01" purity="4.7892674803733826e-01" nType="-99"/>
          <Node pos="r" depth="2" NCoef="0" IVar="-1" Cut="0.0000000000000000e+00" cType="1" res="-2.6482120156288147e-03" rms="3.6917966604232788e-01" purity="4.0135338902473450e-01" nType="-99"/>
        </Node>
      </Node>
    </BinaryTree>
    <BinaryTree type="DecisionTree" boostWeight="1.0000000000000000e+00" itree="110">
      <Node pos="s" depth="0" NCoef="0" IVar="10" Cut="2.0000000000000000e+00" cType="1" res="-4.8238490708172321e-03" rms="2.6977977156639099e-01" purity="4.9670621752738953e-01" nType="0">
        <Node pos="l" depth="1" NCoef="0" IVar="5" Cut="7.4904289245605469e+00" cType="1" res="7.2886743582785130e-03" rms="3.4156373143196106e-01" purity="5.5791699886322021e-01" nType="0">
          <Node pos="l" depth="2" NCoef="0" IVar="-1" Cut="0.0000000000000000e+00" cType="1" res="3.7312202621251345e-03" rms="3.3925703167915344e-01" purity="5.7635587453842163e-01" nType="-99"/>
          <Node pos="r" depth="2" NCoef="0" IVar="-1" Cut="0.0000000000000000e+00" cType="1" res="-3.1462209299206734e-03" rms="3.4911993145942688e-01" purity="4.9044153094291687e-01" nType="-99"/>
        </Node>
        <Node pos="r" depth="1" NCoef="0" IVar="1" Cut="5.4261193275451660e+00" cType="1" res="-1.4694387093186378e-02" rms="3.6245968937873840e-01" purity="4.3663325905799866e-01" nType="0">
          <Node pos="l" depth="2" NCoef="0" IVar="-1" Cut="0.0000000000000000e+00" cType="1" res="-1.2512082234025002e-02" rms="3.8263136148452759e-01" purity="2.1725912392139435e-01" nType="-99"/>
          <Node pos="r" depth="2" NCoef="0" IVar="-1" Cut="0.0000000000000000e+00" cType="1" res="-2.9026791453361511e-03" rms="3.5951533913612366e-01" purity="4.6474540233612061e-01" nType="-99"/>
        </Node>
      </Node>
    </BinaryTree>
    <BinaryTree type="DecisionTree" boostWeight="1.0000000000000000e+00" itree="111">
      <Node pos="s" depth="0" NCoef="0" IVar="9" Cut="3.6931471824645996e+00" cType="1" res="-1.4358425978571177e-03" rms="2.2890658676624298e-01" purity="4.9799591302871704e-01" nType="0">
        <Node pos="l" depth="1" NCoef="0" IVar="5" Cut="7.4430036544799805e+00" cType="1" res="2.3593548685312271e-03" rms="3.4440773725509644e-01" purity="5.3960806131362915e-01" nType="0">
          <Node pos="l" depth="2" NCoef="0" IVar="-1" Cut="0.0000000000000000e+00" cType="1" res="2.4150996468961239e-03" rms="3.4094372391700745e-01" purity="5.5793941020965576e-01" nType="-99"/>
          <Node pos="r" depth="2" NCoef="0" IVar="-1" Cut="0.0000000000000000e+00" cType="1" res="-4.8469137400388718e-03" rms="3.5534957051277161e-01" purity="4.7484937310218811e-01" nType="-99"/>
        </Node>
        <Node pos="r" depth="1" NCoef="0" IVar="4" Cut="-1.6046235561370850e+00" cType="1" res="-5.9034852311015129e-03" rms="3.6658856272697449e-01" purity="4.1122633218765259e-01" nType="0">
          <Node pos="l" depth="2" NCoef="0" IVar="-1" Cut="0.0000000000000000e+00" cType="1" res="8.7405527010560036e-03" rms="3.5160899162292480e-01" purity="5.0782299041748047e-01" nType="-99"/>
          <Node pos="r" depth="2" NCoef="0" IVar="-1" Cut="0.0000000000000000e+00" cType="1" res="-4.2520826682448387e-03" rms="3.6943036317825317e-01" purity="3.9083194732666016e-01" nType="-99"/>
        </Node>
      </Node>
    </BinaryTree>
    <BinaryTree type="DecisionTree" boostWeight="1.0000000000000000e+00" itree="112">
      <Node pos="s" depth="0" NCoef="0" IVar="11" Cut="6.1894172430038452e-01" cType="1" res="2.2856392897665501e-03" rms="3.4982696175575256e-01" purity="5.0011247396469116e-01" nType="0">
        <Node pos="l" depth="1" NCoef="0" IVar="8" Cut="-5.7623726129531860e-01" cType="1" res="-4.8603815957903862e-03" rms="3.6363896727561951e-01" purity="3.0852684378623962e-01" nType="0">
          <Node pos="l" depth="2" NCoef="0" IVar="-1" Cut="0.0000000000000000e+00" cType="1" res="3.5388122778385878e-03" rms="4.1087692975997925e-01" purity="4.3476778268814087e-01" nType="-99"/>
          <Node pos="r" depth="2" NCoef="0" IVar="-1" Cut="0.0000000000000000e+00" cType="1" res="-2.8272825293242931e-03" rms="3.5700622200965881e-01" purity="2.9263335466384888e-01" nType="-99"/>
        </Node>
        <Node pos="r" depth="1" NCoef="0" IVar="13" Cut="3.3241620659828186e-01" cType="1" res="1.6083685681223869e-02" rms="3.2103323936462402e-01" purity="8.7003958225250244e-01" nType="0">
          <Node pos="l" depth="2" NCoef="0" IVar="-1" Cut="0.0000000000000000e+00" cType="1" res="1.0179063305258751e-02" rms="2.8245130181312561e-01" purity="9.0440738201141357e-01" nType="-99"/>
          <Node pos="r" depth="2" NCoef="0" IVar="-1" Cut="0.0000000000000000e+00" cType="1" res="2.1516161505132914e-03" rms="3.4639599919319153e-01" purity="8.4469234943389893e-01" nType="-99"/>
        </Node>
      </Node>
    </BinaryTree>
    <BinaryTree type="DecisionTree" boostWeight="1.0000000000000000e+00" itree="113">
      <Node pos="s" depth="0" NCoef="0" IVar="1" Cut="5.2507128715515137e+00" cType="1" res="1.3743317686021328e-03" rms="3.5304149985313416e-01" purity="5.0120365619659424e-01" nType="0">
        <Node pos="l" depth="1" NCoef="0" IVar="0" Cut="8.3833150863647461e+00" cType="1" res="-3.3146739006042480e-02" rms="4.1006162762641907e-01" purity="2.5833341479301453e-01" nType="0">
          <Node pos="l" depth="2" NCoef="0" IVar="-1" Cut="0.0000000000000000e+00" cType="1" res="-1.2602602131664753e-02" rms="3.9772939682006836e-01" purity="2.2972910106182098e-01" nType="-99"/>
          <Node pos="r" depth="2" NCoef="0" IVar="-1" Cut="0.0000000000000000e+00" cType="1" res="1.0306846816092730e-03" rms="4.2282104492187500e-01" purity="2.9607245326042175e-01" nType="-99"/>
        </Node>
        <Node pos="r" depth="1" NCoef="0" IVar="12" Cut="9.5214086771011353e-01" cType="1" res="4.0134973824024200e-03" rms="3.4815755486488342e-01" purity="5.1977127790451050e-01" nType="0">
          <Node pos="l" depth="2" NCoef="0" IVar="-1" Cut="0.0000000000000000e+00" cType="1" res="2.3364545777440071e-03" rms="3.7962502241134644e-01" purity="6.3955169916152954e-01" nType="-99"/>
          <Node pos="r" depth="2" NCoef="0" IVar="-1" Cut="0.0000000000000000e+00" cType="1" res="-1.5124794095754623e-02" rms="1.6395409405231476e-01" purity="2.9677642509341240e-02" nType="-99"/>
        </Node>
      </Node>
    </BinaryTree>
    <BinaryTree type="DecisionTree" boostWeight="1.0000000000000000e+00" itree="114">
      <Node pos="s" depth="0" NCoef="0" IVar="1" Cut="4.9198656082153320e+00" cType="1" res="3.9049822953529656e-04" rms="3.5497429966926575e-01" purity="5.0155770778656006e-01" nType="0">
        <Node pos="l" depth="1" NCoef="0" IVar="-1" Cut="0.0000000000000000e+00" cType="1" res="-9.8425829783082008e-03" rms="4.1179260611534119e-01" purity="2.1753217279911041e-01" nType="-99"/>
        <Node pos="r" depth="1" NCoef="0" IVar="4" Cut="3.9387521147727966e-01" cType="1" res="1.8440864514559507e-03" rms="3.5309788584709167e-01" purity="5.0972688198089600e-01" nType="0">
          <Node pos="l" depth="2" NCoef="0" IVar="-1" Cut="0.0000000000000000e+00" cType="1" res="1.5057570999488235e-03" rms="3.4798690676689148e-01" purity="5.2830582857131958e-01" nType="-99"/>
          <Node pos="r" depth="2" NCoef="0" IVar="-1" Cut="0.0000000000000000e+00" cType="1" res="-5.2264644764363766e-03" rms="3.8750833272933960e-01" purity="3.7404823303222656e-01" nType="-99"/>
        </Node>
      </Node>
    </BinaryTree>
    <BinaryTree type="DecisionTree" boostWeight="1.0000000000000000e+00" itree="115">
      <Node pos="s" depth="0" NCoef="0" IVar="6" Cut="-2.6685199737548828e+00" cType="1" res="3.4927646629512310e-03" rms="3.5207518935203552e-01" purity="5.0295877456665039e-01" nType="0">
        <Node pos="l" depth="1" NCoef="0" IVar="12" Cut="9.0445762872695923e-01" cType="1" res="1.1549307033419609e-02" rms="3.3369082212448120e-01" purity="5.8013588190078735e-01" nType="0">
          <Node pos="l" depth="2" NCoef="0" IVar="-1" Cut="0.0000000000000000e+00" cType="1" res="4.8517193645238876e-03" rms="3.6151453852653503e-01" purity="7.3136764764785767e-01" nType="-99"/>
          <Node pos="r" depth="2" NCoef="0" IVar="-1" Cut="0.0000000000000000e+00" cType="1" res="-7.6578599400818348e-03" rms="2.0902918279170990e-01" purity="5.6802924722433090e-02" nType="-99"/>
        </Node>
        <Node pos="r" depth="1" NCoef="0" IVar="7" Cut="1.7367783784866333e+00" cType="1" res="-6.7906486801803112e-03" rms="3.7397924065589905e-01" purity="4.0444952249526978e-01" nType="0">
          <Node pos="l" depth="2" NCoef="0" IVar="-1" Cut="0.0000000000000000e+00" cType="1" res="-1.0276678949594498e-03" rms="3.7510189414024353e-01" purity="4.1571977734565735e-01" nType="-99"/>
          <Node pos="r" depth="2" NCoef="0" IVar="-1" Cut="0.0000000000000000e+00" cType="1" res="-1.3908863067626953e-02" rms="3.5397800803184509e-01" purity="2.3548550903797150e-01" nType="-99"/>
        </Node>
      </Node>
    </BinaryTree>
    <BinaryTree type="DecisionTree" boostWeight="1.0000000000000000e+00" itree="116">
      <Node pos="s" depth="0" NCoef="0" IVar="9" Cut="3.6931471824645996e+00" cType="1" res="-2.6225810870528221e-03" rms="2.2952830791473389e-01" purity="4.9815863370895386e-01" nType="0">
        <Node pos="l" depth="1" NCoef="0" IVar="5" Cut="7.9099235534667969e+00" cType="1" res="-4.6569656115025282e-04" rms="3.4859737753868103e-01" purity="5.3798699378967285e-01" nType="0">
          <Node pos="l" depth="2" NCoef="0" IVar="-1" Cut="0.0000000000000000e+00" cType="1" res="9.9850352853536606e-04" rms="3.4589642286300659e-01" purity="5.4775756597518921e-01" nType="-99"/>
          <Node pos="r" depth="2" NCoef="0" IVar="-1" Cut="0.0000000000000000e+00" cType="1" res="-7.0278858765959740e-03" rms="3.6757656931877136e-01" purity="4.6010261774063110e-01" nType="-99"/>
        </Node>
        <Node pos="r" depth="1" NCoef="0" IVar="10" Cut="2.0000000000000000e+00" cType="1" res="-5.9351236559450626e-03" rms="2.7341246604919434e-01" purity="4.1372370719909668e-01" nType="0">
          <Node pos="l" depth="2" NCoef="0" IVar="-1" Cut="0.0000000000000000e+00" cType="1" res="3.2475811894983053e-03" rms="3.7154659628868103e-01" purity="4.8082828521728516e-01" nType="-99"/>
          <Node pos="r" depth="2" NCoef="0" IVar="-1" Cut="0.0000000000000000e+00" cType="1" res="-5.1063117571175098e-03" rms="3.6541673541069031e-01" purity="3.8895791769027710e-01" nType="-99"/>
        </Node>
      </Node>
    </BinaryTree>
    <BinaryTree type="DecisionTree" boostWeight="1.0000000000000000e+00" itree="117">
      <Node pos="s" depth="0" NCoef="0" IVar="9" Cut="3.6931471824645996e+00" cType="1" res="-1.3465099618770182e-04" rms="2.3200853168964386e-01" purity="5.0414156913757324e-01" nType="0">
        <Node pos="l" depth="1" NCoef="0" IVar="12" Cut="9.5214110612869263e-01" cType="1" res="5.5866073817014694e-03" rms="3.4492406249046326e-01" purity="5.4442173242568970e-01" nType="0">
          <Node pos="l" depth="2" NCoef="0" IVar="-1" Cut="0.0000000000000000e+00" cType="1" res="2.2839400917291641e-03" rms="3.7307846546173096e-01" purity="6.5984296798706055e-01" nType="-99"/>
          <Node pos="r" depth="2" NCoef="0" IVar="-1" Cut="0.0000000000000000e+00" cType="1" res="-1.1483404785394669e-02" rms="1.7007753252983093e-01" purity="3.3649649471044540e-02" nType="-99"/>
        </Node>
        <Node pos="r" depth="1" NCoef="0" IVar="5" Cut="8.0155639648437500e+00" cType="1" res="1.6557273920625448e-03" rms="3.6935049295425415e-01" purity="4.1956180334091187e-01" nType="0">
          <Node pos="l" depth="2" NCoef="0" IVar="-1" Cut="0.0000000000000000e+00" cType="1" res="1.7190738581120968e-03" rms="3.6799690127372742e-01" purity="4.2452394962310791e-01" nType="-99"/>
          <Node pos="r" depth="2" NCoef="0" IVar="-1" Cut="0.0000000000000000e+00" cType="1" res="-8.1661138683557510e-03" rms="3.8075292110443115e-01" purity="3.7309315800666809e-01" nType="-99"/>
        </Node>
      </Node>
    </BinaryTree>
    <BinaryTree type="DecisionTree" boostWeight="1.0000000000000000e+00" itree="118">
      <Node pos="s" depth="0" NCoef="0" IVar="11" Cut="6.1893403530120850e-01" cType="1" res="-3.9634406566619873e-03" rms="3.5193702578544617e-01" purity="4.9358811974525452e-01" nType="0">
        <Node pos="l" depth="1" NCoef="0" IVar="12" Cut="2.8564280271530151e-01" cType="1" res="-1.0087430477142334e-02" rms="3.6459001898765564e-01" purity="3.0679917335510254e-01" nType="0">
          <Node pos="l" depth="2" NCoef="0" IVar="-1" Cut="0.0000000000000000e+00" cType="1" res="-1.9985770806670189e-02" rms="3.9994201064109802e-01" purity="5.3266412019729614e-01" nType="-99"/>
          <Node pos="r" depth="2" NCoef="0" IVar="-1" Cut="0.0000000000000000e+00" cType="1" res="-1.0481238132342696e-03" rms="3.6088854074478149e-01" purity="2.8828829526901245e-01" nType="-99"/>
        </Node>
        <Node pos="r" depth="1" NCoef="0" IVar="13" Cut="4.7150269150733948e-01" cType="1" res="8.2204891368746758e-03" rms="3.2496008276939392e-01" purity="8.6521238088607788e-01" nType="0">
          <Node pos="l" depth="2" NCoef="0" IVar="-1" Cut="0.0000000000000000e+00" cType="1" res="6.8605514243245125e-03" rms="2.9703205823898315e-01" purity="8.9352303743362427e-01" nType="-99"/>
          <Node pos="r" depth="2" NCoef="0" IVar="-1" Cut="0.0000000000000000e+00" cType="1" res="-1.2137532467022538e-03" rms="3.4919515252113342e-01" purity="8.3814942836761475e-01" nType="-99"/>
        </Node>
      </Node>
    </BinaryTree>
    <BinaryTree type="DecisionTree" boostWeight="1.0000000000000000e+00" itree="119">
      <Node pos="s" depth="0" NCoef="0" IVar="3" Cut="5.3172051906585693e-01" cType="1" res="-2.7053582016378641e-03" rms="3.5474768280982971e-01" purity="4.9439695477485657e-01" nType="0">
        <Node pos="l" depth="1" NCoef="0" IVar="1" Cut="6.1049776077270508e+00" cType="1" res="4.3798717670142651e-03" rms="3.4536203742027283e-01" purity="5.8699560165405273e-01" nType="0">
          <Node pos="l" depth="2" NCoef="0" IVar="-1" Cut="0.0000000000000000e+00" cType="1" res="-2.3312631528824568e-03" rms="3.9895030856132507e-01" purity="4.1418087482452393e-01" nType="-99"/>
          <Node pos="r" depth="2" NCoef="0" IVar="-1" Cut="0.0000000000000000e+00" cType="1" res="3.9177006110548973e-03" rms="3.1583979725837708e-01" purity="6.7096364498138428e-01" nType="-99"/>
        </Node>
        <Node pos="r" depth="1" NCoef="0" IVar="3" Cut="1.0279593467712402e+00" cType="1" res="-1.3703792355954647e-02" rms="3.6857455968856812e-01" purity="3.5065567493438721e-01" nType="0">
          <Node pos="l" depth="2" NCoef="0" IVar="-1" Cut="0.0000000000000000e+00" cType="1" res="-1.8619972979649901e-03" rms="3.7013319134712219e-01" purity="3.6055424809455872e-01" nType="-99"/>
          <Node pos="r" depth="2" NCoef="0" IVar="-1" Cut="0.0000000000000000e+00" cType="1" res="-8.1976391375064850e-03" rms="3.6335030198097229e-01" purity="3.2142549753189087e-01" nType="-99"/>
        </Node>
      </Node>
    </BinaryTree>
    <BinaryTree type="DecisionTree" boostWeight="1.0000000000000000e+00" itree="120">
      <Node pos="s" depth="0" NCoef="0" IVar="9" Cut="3.6931471824645996e+00" cType="1" res="-4.7091147280298173e-05" rms="2.2932602465152740e-01" purity="5.0184917449951172e-01" nType="0">
        <Node pos="l" depth="1" NCoef="0" IVar="7" Cut="1.0650184154510498e+00" cType="1" res="1.1440669186413288e-03" rms="3.4580010175704956e-01" purity="5.4091942310333252e-01" nType="0">
          <Node pos="l" depth="2" NCoef="0" IVar="-1" Cut="0.0000000000000000e+00" cType="1" res="1.1572508374229074e-03" rms="3.4629309177398682e-01" purity="5.5944973230361938e-01" nType="-99"/>
          <Node pos="r" depth="2" NCoef="0" IVar="-1" Cut="0.0000000000000000e+00" cType="1" res="-9.8132751882076263e-03" rms="3.3782351016998291e-01" purity="3.3253291249275208e-01" nType="-99"/>
        </Node>
        <Node pos="r" depth="1" NCoef="0" IVar="10" Cut="2.0000000000000000e+00" cType="1" res="-9.3634566292166710e-04" rms="2.7766382694244385e-01" purity="4.1948172450065613e-01" nType="0">
          <Node pos="l" depth="2" NCoef="0" IVar="-1" Cut="0.0000000000000000e+00" cType="1" res="5.3255134262144566e-03" rms="3.7424328923225403e-01" purity="4.8428392410278320e-01" nType="-99"/>
          <Node pos="r" depth="2" NCoef="0" IVar="-1" Cut="0.0000000000000000e+00" cType="1" res="-2.1945037879049778e-03" rms="3.6938431859016418e-01" purity="3.9523950219154358e-01" nType="-99"/>
        </Node>
      </Node>
    </BinaryTree>
    <BinaryTree type="DecisionTree" boostWeight="1.0000000000000000e+00" itree="121">
      <Node pos="s" depth="0" NCoef="0" IVar="12" Cut="9.5206826925277710e-01" cType="1" res="3.8466006517410278e-03" rms="3.5071143507957458e-01" purity="5.0289374589920044e-01" nType="0">
        <Node pos="l" depth="1" NCoef="0" IVar="6" Cut="-1.2127310037612915e+00" cType="1" res="8.0026490613818169e-03" rms="3.8075315952301025e-01" purity="6.1412066221237183e-01" nType="0">
          <Node pos="l" depth="2" NCoef="0" IVar="-1" Cut="0.0000000000000000e+00" cType="1" res="2.7713268063962460e-03" rms="3.7940809130668640e-01" purity="6.3988620042800903e-01" nType="-99"/>
          <Node pos="r" depth="2" NCoef="0" IVar="-1" Cut="0.0000000000000000e+00" cType="1" res="-6.5598455257713795e-03" rms="3.9472368359565735e-01" purity="3.0291533470153809e-01" nType="-99"/>
        </Node>
        <Node pos="r" depth="1" NCoef="0" IVar="11" Cut="6.9004367105662823e-03" cType="1" res="-1.3692890293896198e-02" rms="1.7286017537117004e-01" purity="3.3490139991044998e-02" nType="0">
          <Node pos="l" depth="2" NCoef="0" IVar="-1" Cut="0.0000000000000000e+00" cType="1" res="-2.7086321264505386e-02" rms="9.8578423261642456e-02" purity="9.9362777546048164e-03" nType="-99"/>
          <Node pos="r" depth="2" NCoef="0" IVar="-1" Cut="0.0000000000000000e+00" cType="1" res="8.1303073093295097e-03" rms="3.0673182010650635e-01" purity="1.1011961102485657e-01" nType="-99"/>
        </Node>
      </Node>
    </BinaryTree>
    <BinaryTree type="DecisionTree" boostWeight="1.0000000000000000e+00" itree="122">
      <Node pos="s" depth="0" NCoef="0" IVar="0" Cut="8.0381393432617188e+00" cType="1" res="-4.3269997695460916e-04" rms="3.5384872555732727e-01" purity="5.0243639945983887e-01" nType="0">
        <Node pos="l" depth="1" NCoef="0" IVar="1" Cut="5.9256620407104492e+00" cType="1" res="-2.0436275750398636e-02" rms="4.4154399633407593e-01" purity="3.5427033901214600e-01" nType="0">
          <Node pos="l" depth="2" NCoef="0" IVar="-1" Cut="0.0000000000000000e+00" cType="1" res="-5.9375977143645287e-03" rms="4.3110737204551697e-01" purity="2.9607021808624268e-01" nType="-99"/>
          <Node pos="r" depth="2" NCoef="0" IVar="-1" Cut="0.0000000000000000e+00" cType="1" res="-8.8386825518682599e-04" rms="4.5527553558349609e-01" purity="4.3573370575904846e-01" nType="-99"/>
        </Node>
        <Node pos="r" depth="1" NCoef="0" IVar="13" Cut="7.6183891296386719e-01" cType="1" res="2.1801078692078590e-03" rms="3.4064498543739319e-01" purity="5.2178943157196045e-01" nType="0">
          <Node pos="l" depth="2" NCoef="0" IVar="-1" Cut="0.0000000000000000e+00" cType="1" res="1.4325100928544998e-03" rms="3.3902496099472046e-01" purity="4.9247360229492188e-01" nType="-99"/>
          <Node pos="r" depth="2" NCoef="0" IVar="-1" Cut="0.0000000000000000e+00" cType="1" res="-7.6785259880125523e-03" rms="3.5273948311805725e-01" purity="7.5942289829254150e-01" nType="-99"/>
        </Node>
      </Node>
    </BinaryTree>
    <BinaryTree type="DecisionTree" boostWeight="1.0000000000000000e+00" itree="123">
      <Node pos="s" depth="0" NCoef="0" IVar="9" Cut="3.6931471824645996e+00" cType="1" res="-1.4718634774908423e-03" rms="2.2751115262508392e-01" purity="4.9692314863204956e-01" nType="0">
        <Node pos="l" depth="1" NCoef="0" IVar="10" Cut="2.0000000000000000e+00" cType="1" res="6.5990298753604293e-04" rms="2.2649098932743073e-01" purity="5.3874266147613525e-01" nType="0">
          <Node pos="l" depth="2" NCoef="0" IVar="-1" Cut="0.0000000000000000e+00" cType="1" res="2.5522082578390837e-03" rms="3.3657529950141907e-01" purity="5.7199996709823608e-01" nType="-99"/>
          <Node pos="r" depth="2" NCoef="0" IVar="-1" Cut="0.0000000000000000e+00" cType="1" res="-2.8601095546036959e-03" rms="3.5331660509109497e-01" purity="4.8813748359680176e-01" nType="-99"/>
        </Node>
        <Node pos="r" depth="1" NCoef="0" IVar="13" Cut="3.3330339193344116e-01" cType="1" res="-5.4511278867721558e-03" rms="3.6677464842796326e-01" purity="4.0978950262069702e-01" nType="0">
          <Node pos="l" depth="2" NCoef="0" IVar="-1" Cut="0.0000000000000000e+00" cType="1" res="1.8568427185527980e-04" rms="3.5664695501327515e-01" purity="3.3287188410758972e-01" nType="-99"/>
          <Node pos="r" depth="2" NCoef="0" IVar="-1" Cut="0.0000000000000000e+00" cType="1" res="-1.1088915169239044e-02" rms="4.0286850929260254e-01" purity="7.0846378803253174e-01" nType="-99"/>
        </Node>
      </Node>
    </BinaryTree>
    <BinaryTree type="DecisionTree" boostWeight="1.0000000000000000e+00" itree="124">
      <Node pos="s" depth="0" NCoef="0" IVar="12" Cut="7.6165282726287842e-01" cType="1" res="8.9296212536282837e-05" rms="3.5208874940872192e-01" purity="4.9729776382446289e-01" nType="0">
        <Node pos="l" depth="1" NCoef="0" IVar="0" Cut="9.7887277603149414e+00" cType="1" res="7.2521260008215904e-03" rms="3.7686392664909363e-01" purity="7.2407931089401245e-01" nType="0">
          <Node pos="l" depth="2" NCoef="0" IVar="-1" Cut="0.0000000000000000e+00" cType="1" res="-7.9602657933719456e-05" rms="3.8276249170303345e-01" purity="7.1309345960617065e-01" nType="-99"/>
          <Node pos="r" depth="2" NCoef="0" IVar="-1" Cut="0.0000000000000000e+00" cType="1" res="5.3774011321365833e-03" rms="3.6266735196113586e-01" purity="7.4879723787307739e-01" nType="-99"/>
        </Node>
        <Node pos="r" depth="1" NCoef="0" IVar="5" Cut="6.7878527641296387e+00" cType="1" res="-1.0814739391207695e-02" rms="3.1028491258621216e-01" purity="1.5206634998321533e-01" nType="0">
          <Node pos="l" depth="2" NCoef="0" IVar="-1" Cut="0.0000000000000000e+00" cType="1" res="1.0932766599580646e-05" rms="3.6367532610893250e-01" purity="2.1658585965633392e-01" nType="-99"/>
          <Node pos="r" depth="2" NCoef="0" IVar="-1" Cut="0.0000000000000000e+00" cType="1" res="-1.5000313520431519e-02" rms="2.0293889939785004e-01" purity="5.4090429097414017e-02" nType="-99"/>
        </Node>
      </Node>
    </BinaryTree>
    <BinaryTree type="DecisionTree" boostWeight="1.0000000000000000e+00" itree="125">
      <Node pos="s" depth="0" NCoef="0" IVar="9" Cut="3.0000000000000000e+00" cType="1" res="-2.4030413478612900e-03" rms="2.2748973965644836e-01" purity="4.9908322095870972e-01" nType="0">
        <Node pos="l" depth="1" NCoef="0" IVar="5" Cut="7.1823577880859375e+00" cType="1" res="1.7549062147736549e-02" rms="3.2505455613136292e-01" purity="6.3217091560363770e-01" nType="0">
          <Node pos="l" depth="2" NCoef="0" IVar="-1" Cut="0.0000000000000000e+00" cType="1" res="8.4881493821740150e-03" rms="3.1581062078475952e-01" purity="6.7132174968719482e-01" nType="-99"/>
          <Node pos="r" depth="2" NCoef="0" IVar="-1" Cut="0.0000000000000000e+00" cType="1" res="-2.1604197099804878e-03" rms="3.4404027462005615e-01" purity="5.4118579626083374e-01" nType="-99"/>
        </Node>
        <Node pos="r" depth="1" NCoef="0" IVar="11" Cut="9.0458786487579346e-01" cType="1" res="-4.8661157488822937e-03" rms="3.5583889484405518e-01" purity="4.7634434700012207e-01" nType="0">
          <Node pos="l" depth="2" NCoef="0" IVar="-1" Cut="0.0000000000000000e+00" cType="1" res="-2.4576426949352026e-03" rms="3.6620277166366577e-01" purity="3.7661579251289368e-01" nType="-99"/>
          <Node pos="r" depth="2" NCoef="0" IVar="-1" Cut="0.0000000000000000e+00" cType="1" res="4.7478256747126579e-03" rms="3.0953374505043030e-01" purity="8.8193345069885254e-01" nType="-99"/>
        </Node>
      </Node>
    </BinaryTree>
    <BinaryTree type="DecisionTree" boostWeight="1.0000000000000000e+00" itree="126">
      <Node pos="s" depth="0" NCoef="0" IVar="9" Cut="4.6931471824645996e+00" cType="1" res="-9.7177311545237899e-04" rms="2.3136824369430542e-01" purity="5.0333797931671143e-01" nType="0">
        <Node pos="l" depth="1" NCoef="0" IVar="10" Cut="4.0000000000000000e+00" cType="1" res="-1.4612914528697729e-03" rms="2.7117490768432617e-01" purity="5.0336128473281860e-01" nType="0">
          <Node pos="l" depth="2" NCoef="0" IVar="-1" Cut="0.0000000000000000e+00" cType="1" res="1.3702221913263202e-03" rms="3.5213610529899597e-01" purity="5.0846761465072632e-01" nType="-99"/>
          <Node pos="r" depth="2" NCoef="0" IVar="-1" Cut="0.0000000000000000e+00" cType="1" res="-1.5442213974893093e-02" rms="3.6725023388862610e-01" purity="3.4953397512435913e-01" nType="-99"/>
        </Node>
        <Node pos="r" depth="1" NCoef="0" IVar="-1" Cut="0.0000000000000000e+00" cType="1" res="1.6062168404459953e-02" rms="4.3014881014823914e-01" purity="2.9408654570579529e-01" nType="-99"/>
      </Node>
    </BinaryTree>
    <BinaryTree type="DecisionTree" boostWeight="1.0000000000000000e+00" itree="127">
      <Node pos="s" depth="0" NCoef="0" IVar="9" Cut="3.6931471824645996e+00" cType="1" res="1.4230331871658564e-03" rms="2.2910952568054199e-01" purity="5.0722825527191162e-01" nType="0">
        <Node pos="l" depth="1" NCoef="0" IVar="10" Cut="3.0000000000000000e+00" cType="1" res="2.1484030876308680e-03" rms="2.2911153733730316e-01" purity="5.4675436019897461e-01" nType="0">
          <Node pos="l" depth="2" NCoef="0" IVar="-1" Cut="0.0000000000000000e+00" cType="1" res="2.2749991621822119e-03" rms="3.4113737940788269e-01" purity="5.5699139833450317e-01" nType="-99"/>
          <Node pos="r" depth="2" NCoef="0" IVar="-1" Cut="0.0000000000000000e+00" cType="1" res="-8.4855016320943832e-03" rms="3.6284804344177246e-01" purity="4.3315160274505615e-01" nType="-99"/>
        </Node>
        <Node pos="r" depth="1" NCoef="0" IVar="12" Cut="9.0436840057373047e-01" cType="1" res="5.6795203126966953e-03" rms="3.6595270037651062e-01" purity="4.2187926173210144e-01" nType="0">
          <Node pos="l" depth="2" NCoef="0" IVar="-1" Cut="0.0000000000000000e+00" cType="1" res="4.1391327977180481e-03" rms="4.0964746475219727e-01" purity="5.6214016675949097e-01" nType="-99"/>
          <Node pos="r" depth="2" NCoef="0" IVar="-1" Cut="0.0000000000000000e+00" cType="1" res="-1.3173316605389118e-02" rms="2.0933206379413605e-01" purity="5.1323033869266510e-02" nType="-99"/>
        </Node>
      </Node>
    </BinaryTree>
    <BinaryTree type="DecisionTree" boostWeight="1.0000000000000000e+00" itree="128">
      <Node pos="s" depth="0" NCoef="0" IVar="9" Cut="4.6931471824645996e+00" cType="1" res="-5.8362056734040380e-04" rms="2.2799271345138550e-01" purity="5.0244778394699097e-01" nType="0">
        <Node pos="l" depth="1" NCoef="0" IVar="4" Cut="4.2168015241622925e-01" cType="1" res="1.9490044796839356e-03" rms="3.5278698801994324e-01" purity="5.0246584415435791e-01" nType="0">
          <Node pos="l" depth="2" NCoef="0" IVar="-1" Cut="0.0000000000000000e+00" cType="1" res="1.3523728121072054e-03" rms="3.4867149591445923e-01" purity="5.1937133073806763e-01" nType="-99"/>
          <Node pos="r" depth="2" NCoef="0" IVar="-1" Cut="0.0000000000000000e+00" cType="1" res="-4.7372309491038322e-03" rms="3.8411217927932739e-01" purity="3.6402556300163269e-01" nType="-99"/>
        </Node>
        <Node pos="r" depth="1" NCoef="0" IVar="-1" Cut="0.0000000000000000e+00" cType="1" res="-1.6002567112445831e-01" rms="3.9230284094810486e-01" purity="1.4509449899196625e-01" nType="-99"/>
      </Node>
    </BinaryTree>
    <BinaryTree type="DecisionTree" boostWeight="1.0000000000000000e+00" itree="129">
      <Node pos="s" depth="0" NCoef="0" IVar="3" Cut="5.3172612190246582e-01" cType="1" res="-2.2661155089735985e-03" rms="3.5335233807563782e-01" purity="4.9997809529304504e-01" nType="0">
        <Node pos="l" depth="1" NCoef="0" IVar="9" Cut="3.6931471824645996e+00" cType="1" res="1.3763799797743559e-03" rms="2.2630290687084198e-01" purity="5.9303849935531616e-01" nType="0">
          <Node pos="l" depth="2" NCoef="0" IVar="-1" Cut="0.0000000000000000e+00" cType="1" res="2.9561864212155342e-03" rms="3.3223336935043335e-01" purity="6.3571888208389282e-01" nType="-99"/>
          <Node pos="r" depth="2" NCoef="0" IVar="-1" Cut="0.0000000000000000e+00" cType="1" res="-1.9668249879032373e-03" rms="3.6342546343803406e-01" purity="4.9645954370498657e-01" nType="-99"/>
        </Node>
        <Node pos="r" depth="1" NCoef="0" IVar="4" Cut="2.9495280981063843e-01" cType="1" res="-1.4633176848292351e-02" rms="3.6977571249008179e-01" purity="3.5488602519035339e-01" nType="0">
          <Node pos="l" depth="2" NCoef="0" IVar="-1" Cut="0.0000000000000000e+00" cType="1" res="-5.2715754136443138e-03" rms="3.6539626121520996e-01" purity="3.5555091500282288e-01" nType="-99"/>
          <Node pos="r" depth="2" NCoef="0" IVar="-1" Cut="0.0000000000000000e+00" cType="1" res="2.8777064289897680e-03" rms="3.8674363493919373e-01" purity="3.5205158591270447e-01" nType="-99"/>
        </Node>
      </Node>
    </BinaryTree>
    <BinaryTree type="DecisionTree" boostWeight="1.0000000000000000e+00" itree="130">
      <Node pos="s" depth="0" NCoef="0" IVar="13" Cut="8.5706877708435059e-01" cType="1" res="2.4293193127959967e-03" rms="3.5210737586021423e-01" purity="5.0433081388473511e-01" nType="0">
        <Node pos="l" depth="1" NCoef="0" IVar="12" Cut="9.5214170217514038e-01" cType="1" res="4.3281032703816891e-03" rms="3.5149285197257996e-01" purity="4.9725049734115601e-01" nType="0">
          <Node pos="l" depth="2" NCoef="0" IVar="-1" Cut="0.0000000000000000e+00" cType="1" res="2.1121830213814974e-03" rms="3.8318136334419250e-01" purity="6.1114507913589478e-01" nType="-99"/>
          <Node pos="r" depth="2" NCoef="0" IVar="-1" Cut="0.0000000000000000e+00" cType="1" res="-1.1841267347335815e-02" rms="1.6707733273506165e-01" purity="3.1364735215902328e-02" nType="-99"/>
        </Node>
        <Node pos="r" depth="1" NCoef="0" IVar="-1" Cut="0.0000000000000000e+00" cType="1" res="-1.4640417881309986e-02" rms="3.6272227764129639e-01" purity="6.5748268365859985e-01" nType="-99"/>
      </Node>
    </BinaryTree>
    <BinaryTree type="DecisionTree" boostWeight="1.0000000000000000e+00" itree="131">
      <Node pos="s" depth="0" NCoef="0" IVar="5" Cut="7.4303855895996094e+00" cType="1" res="8.3230587188154459e-04" rms="3.5522356629371643e-01" purity="4.9818029999732971e-01" nType="0">
        <Node pos="l" depth="1" NCoef="0" IVar="0" Cut="9.7535409927368164e+00" cType="1" res="6.2712952494621277e-03" rms="3.5408318042755127e-01" purity="5.1509022712707520e-01" nType="0">
          <Node pos="l" depth="2" NCoef="0" IVar="-1" Cut="0.0000000000000000e+00" cType="1" res="4.8803913523443043e-04" rms="3.6269906163215637e-01" purity="4.8128029704093933e-01" nType="-99"/>
          <Node pos="r" depth="2" NCoef="0" IVar="-1" Cut="0.0000000000000000e+00" cType="1" res="1.1599098332226276e-02" rms="2.9235640168190002e-01" purity="7.2823745012283325e-01" nType="-99"/>
        </Node>
        <Node pos="r" depth="1" NCoef="0" IVar="3" Cut="5.3189140558242798e-01" cType="1" res="-1.7723886296153069e-02" rms="3.5846647620201111e-01" purity="4.4048845767974854e-01" nType="0">
          <Node pos="l" depth="2" NCoef="0" IVar="-1" Cut="0.0000000000000000e+00" cType="1" res="-1.0324102826416492e-02" rms="3.6210659146308899e-01" purity="4.9306342005729675e-01" nType="-99"/>
          <Node pos="r" depth="2" NCoef="0" IVar="-1" Cut="0.0000000000000000e+00" cType="1" res="-1.0815825080499053e-03" rms="3.5560274124145508e-01" purity="4.0878075361251831e-01" nType="-99"/>
        </Node>
      </Node>
    </BinaryTree>
    <BinaryTree type="DecisionTree" boostWeight="1.0000000000000000e+00" itree="132">
      <Node pos="s" depth="0" NCoef="0" IVar="7" Cut="1.2977708578109741e+00" cType="1" res="-2.4736744817346334e-03" rms="3.5195404291152954e-01" purity="4.9774715304374695e-01" nType="0">
        <Node pos="l" depth="1" NCoef="0" IVar="10" Cut="2.0000000000000000e+00" cType="1" res="-2.8385110199451447e-03" rms="2.6977735757827759e-01" purity="5.0942677259445190e-01" nType="0">
          <Node pos="l" depth="2" NCoef="0" IVar="-1" Cut="0.0000000000000000e+00" cType="1" res="2.4461105931550264e-03" rms="3.3871906995773315e-01" purity="5.7220125198364258e-01" nType="-99"/>
          <Node pos="r" depth="2" NCoef="0" IVar="-1" Cut="0.0000000000000000e+00" cType="1" res="-2.8048118110746145e-03" rms="3.6457377672195435e-01" purity="4.4731411337852478e-01" nType="-99"/>
        </Node>
        <Node pos="r" depth="1" NCoef="0" IVar="-1" Cut="0.0000000000000000e+00" cType="1" res="-1.2657884508371353e-02" rms="3.4762966632843018e-01" purity="2.7453035116195679e-01" nType="-99"/>
      </Node>
    </BinaryTree>
    <BinaryTree type="DecisionTree" boostWeight="1.0000000000000000e+00" itree="133">
      <Node pos="s" depth="0" NCoef="0" IVar="9" Cut="3.0000000000000000e+00" cType="1" res="-1.3875130098313093e-03" rms="2.2949558496475220e-01" purity="4.9672350287437439e-01" nType="0">
        <Node pos="l" depth="1" NCoef="0" IVar="11" Cut="4.7623101621866226e-02" cType="1" res="1.7165429890155792e-02" rms="3.1677627563476562e-01" purity="6.3289737701416016e-01" nType="0">
          <Node pos="l" depth="2" NCoef="0" IVar="-1" Cut="0.0000000000000000e+00" cType="1" res="-4.4737076386809349e-03" rms="2.2897133231163025e-01" purity="6.6350027918815613e-02" nType="-99"/>
          <Node pos="r" depth="2" NCoef="0" IVar="-1" Cut="0.0000000000000000e+00" cType="1" res="6.0461927205324173e-03" rms="3.3953911066055298e-01" purity="8.1299996376037598e-01" nType="-99"/>
        </Node>
        <Node pos="r" depth="1" NCoef="0" IVar="5" Cut="8.2697658538818359e+00" cType="1" res="-3.9731040596961975e-03" rms="3.5655590891838074e-01" purity="4.7404929995536804e-01" nType="0">
          <Node pos="l" depth="2" NCoef="0" IVar="-1" Cut="0.0000000000000000e+00" cType="1" res="-6.0623139142990112e-04" rms="3.5438582301139832e-01" purity="4.7773638367652893e-01" nType="-99"/>
          <Node pos="r" depth="2" NCoef="0" IVar="-1" Cut="0.0000000000000000e+00" cType="1" res="-8.1441327929496765e-03" rms="3.8834822177886963e-01" purity="4.1517624258995056e-01" nType="-99"/>
        </Node>
      </Node>
    </BinaryTree>
    <BinaryTree type="DecisionTree" boostWeight="1.0000000000000000e+00" itree="134">
      <Node pos="s" depth="0" NCoef="0" IVar="0" Cut="7.8198819160461426e+00" cType="1" res="-2.2479714825749397e-03" rms="3.5428935289382935e-01" purity="4.9486795067787170e-01" nType="0">
        <Node pos="l" depth="1" NCoef="0" IVar="-1" Cut="0.0000000000000000e+00" cType="1" res="-8.4684658795595169e-03" rms="4.3557041883468628e-01" purity="3.0117613077163696e-01" nType="-99"/>
        <Node pos="r" depth="1" NCoef="0" IVar="13" Cut="5.7137608528137207e-01" cType="1" res="2.6516761863604188e-04" rms="3.4909439086914062e-01" purity="5.0552684068679810e-01" nType="0">
          <Node pos="l" depth="2" NCoef="0" IVar="-1" Cut="0.0000000000000000e+00" cType="1" res="1.1436938075348735e-03" rms="3.4681895375251770e-01" purity="4.4965690374374390e-01" nType="-99"/>
          <Node pos="r" depth="2" NCoef="0" IVar="-1" Cut="0.0000000000000000e+00" cType="1" res="-6.9229793734848499e-03" rms="3.5932701826095581e-01" purity="7.7568906545639038e-01" nType="-99"/>
        </Node>
      </Node>
    </BinaryTree>
    <BinaryTree type="DecisionTree" boostWeight="1.0000000000000000e+00" itree="135">
      <Node pos="s" depth="0" NCoef="0" IVar="5" Cut="7.4750766754150391e+00" cType="1" res="-4.6133439172990620e-04" rms="3.5076260566711426e-01" purity="4.9580675363540649e-01" nType="0">
        <Node pos="l" depth="1" NCoef="0" IVar="0" Cut="9.5062513351440430e+00" cType="1" res="3.6877372767776251e-03" rms="3.4955936670303345e-01" purity="5.1084005832672119e-01" nType="0">
          <Node pos="l" depth="2" NCoef="0" IVar="-1" Cut="0.0000000000000000e+00" cType="1" res="-5.4849998559802771e-04" rms="3.6320793628692627e-01" purity="4.6314027905464172e-01" nType="-99"/>
          <Node pos="r" depth="2" NCoef="0" IVar="-1" Cut="0.0000000000000000e+00" cType="1" res="8.5609415546059608e-03" rms="2.9142868518829346e-01" purity="6.9076907634735107e-01" nType="-99"/>
        </Node>
        <Node pos="r" depth="1" NCoef="0" IVar="1" Cut="6.9164047241210938e+00" cType="1" res="-1.5781927853822708e-02" rms="3.5475015640258789e-01" purity="4.4029569625854492e-01" nType="0">
          <Node pos="l" depth="2" NCoef="0" IVar="-1" Cut="0.0000000000000000e+00" cType="1" res="3.0424055876210332e-04" rms="3.5004532337188721e-01" purity="3.9416491985321045e-01" nType="-99"/>
          <Node pos="r" depth="2" NCoef="0" IVar="-1" Cut="0.0000000000000000e+00" cType="1" res="-6.9192494265735149e-03" rms="3.5769018530845642e-01" purity="4.7462242841720581e-01" nType="-99"/>
        </Node>
      </Node>
    </BinaryTree>
    <BinaryTree type="DecisionTree" boostWeight="1.0000000000000000e+00" itree="136">
      <Node pos="s" depth="0" NCoef="0" IVar="9" Cut="3.6931471824645996e+00" cType="1" res="-1.9628377631306648e-03" rms="2.3017095029354095e-01" purity="4.9994373321533203e-01" nType="0">
        <Node pos="l" depth="1" NCoef="0" IVar="5" Cut="6.7894005775451660e+00" cType="1" res="-7.0658250479027629e-04" rms="3.4718942642211914e-01" purity="5.4058259725570679e-01" nType="0">
          <Node pos="l" depth="2" NCoef="0" IVar="-1" Cut="0.0000000000000000e+00" cType="1" res="2.3905625566840172e-03" rms="3.4975147247314453e-01" purity="5.7105404138565063e-01" nType="-99"/>
          <Node pos="r" depth="2" NCoef="0" IVar="-1" Cut="0.0000000000000000e+00" cType="1" res="-3.1000494491308928e-03" rms="3.4362906217575073e-01" purity="5.0306665897369385e-01" nType="-99"/>
        </Node>
        <Node pos="r" depth="1" NCoef="0" IVar="4" Cut="-1.4097229242324829e+00" cType="1" res="-1.7398742493242025e-03" rms="3.6199983954429626e-01" purity="4.1377896070480347e-01" nType="0">
          <Node pos="l" depth="2" NCoef="0" IVar="-1" Cut="0.0000000000000000e+00" cType="1" res="7.9203369095921516e-03" rms="3.4509027004241943e-01" purity="5.0117069482803345e-01" nType="-99"/>
          <Node pos="r" depth="2" NCoef="0" IVar="-1" Cut="0.0000000000000000e+00" cType="1" res="-2.7372096665203571e-03" rms="3.6610886454582214e-01" purity="3.9084801077842712e-01" nType="-99"/>
        </Node>
      </Node>
    </BinaryTree>
    <BinaryTree type="DecisionTree" boostWeight="1.0000000000000000e+00" itree="137">
      <Node pos="s" depth="0" NCoef="0" IVar="11" Cut="8.5697895288467407e-01" cType="1" res="-1.7560697160661221e-03" rms="3.5187938809394836e-01" purity="4.9703398346900940e-01" nType="0">
        <Node pos="l" depth="1" NCoef="0" IVar="13" Cut="4.2851707339286804e-01" cType="1" res="-7.2104739956557751e-03" rms="3.6628374457359314e-01" purity="3.6826634407043457e-01" nType="0">
          <Node pos="l" depth="2" NCoef="0" IVar="-1" Cut="0.0000000000000000e+00" cType="1" res="-7.7602150849997997e-04" rms="3.6338442564010620e-01" purity="3.2883495092391968e-01" nType="-99"/>
          <Node pos="r" depth="2" NCoef="0" IVar="-1" Cut="0.0000000000000000e+00" cType="1" res="-1.2371159158647060e-02" rms="3.8679927587509155e-01" purity="6.7892342805862427e-01" nType="-99"/>
        </Node>
        <Node pos="r" depth="1" NCoef="0" IVar="7" Cut="6.6069310903549194e-01" cType="1" res="1.4730165712535381e-02" rms="3.0362814664840698e-01" purity="8.8624113798141479e-01" nType="0">
          <Node pos="l" depth="2" NCoef="0" IVar="-1" Cut="0.0000000000000000e+00" cType="1" res="7.6746069826185703e-03" rms="2.9431280493736267e-01" purity="8.9558166265487671e-01" nType="-99"/>
          <Node pos="r" depth="2" NCoef="0" IVar="-1" Cut="0.0000000000000000e+00" cType="1" res="-3.0574891716241837e-03" rms="3.4801787137985229e-01" purity="8.3665972948074341e-01" nType="-99"/>
        </Node>
      </Node>
    </BinaryTree>
    <BinaryTree type="DecisionTree" boostWeight="1.0000000000000000e+00" itree="138">
      <Node pos="s" depth="0" NCoef="0" IVar="9" Cut="3.6931471824645996e+00" cType="1" res="1.0923610534518957e-03" rms="2.3319160938262939e-01" purity="5.0241100788116455e-01" nType="0">
        <Node pos="l" depth="1" NCoef="0" IVar="3" Cut="8.3822280168533325e-01" cType="1" res="3.5703529138118029e-03" rms="3.4627720713615417e-01" purity="5.4221773147583008e-01" nType="0">
          <Node pos="l" depth="2" NCoef="0" IVar="-1" Cut="0.0000000000000000e+00" cType="1" res="2.8677419759333134e-03" rms="3.3745795488357544e-01" purity="5.9339529275894165e-01" nType="-99"/>
          <Node pos="r" depth="2" NCoef="0" IVar="-1" Cut="0.0000000000000000e+00" cType="1" res="-4.3370611965656281e-03" rms="3.7375697493553162e-01" purity="3.6784005165100098e-01" nType="-99"/>
        </Node>
        <Node pos="r" depth="1" NCoef="0" IVar="10" Cut="3.0000000000000000e+00" cType="1" res="-2.9218842973932624e-04" rms="2.7503609657287598e-01" purity="4.1735178232192993e-01" nType="0">
          <Node pos="l" depth="2" NCoef="0" IVar="-1" Cut="0.0000000000000000e+00" cType="1" res="2.5159653741866350e-03" rms="3.6974772810935974e-01" purity="4.3614935874938965e-01" nType="-99"/>
          <Node pos="r" depth="2" NCoef="0" IVar="-1" Cut="0.0000000000000000e+00" cType="1" res="-4.7603105194866657e-03" rms="3.6248025298118591e-01" purity="3.7393400073051453e-01" nType="-99"/>
        </Node>
      </Node>
    </BinaryTree>
    <BinaryTree type="DecisionTree" boostWeight="1.0000000000000000e+00" itree="139">
      <Node pos="s" depth="0" NCoef="0" IVar="7" Cut="1.5819386243820190e+00" cType="1" res="2.8555834433063865e-04" rms="3.5383278131484985e-01" purity="5.0246661901473999e-01" nType="0">
        <Node pos="l" depth="1" NCoef="0" IVar="9" Cut="3.0000000000000000e+00" cType="1" res="-1.2260777293704450e-04" rms="2.2912226617336273e-01" purity="5.1180225610733032e-01" nType="0">
          <Node pos="l" depth="2" NCoef="0" IVar="-1" Cut="0.0000000000000000e+00" cType="1" res="5.2824113517999649e-03" rms="3.1202089786529541e-01" purity="6.4714318513870239e-01" nType="-99"/>
          <Node pos="r" depth="2" NCoef="0" IVar="-1" Cut="0.0000000000000000e+00" cType="1" res="-3.0584912747144699e-04" rms="3.6036390066146851e-01" purity="4.8984587192535400e-01" nType="-99"/>
        </Node>
        <Node pos="r" depth="1" NCoef="0" IVar="-1" Cut="0.0000000000000000e+00" cType="1" res="-1.2154328636825085e-02" rms="3.4379947185516357e-01" purity="2.3227973282337189e-01" nType="-99"/>
      </Node>
    </BinaryTree>
    <BinaryTree type="DecisionTree" boostWeight="1.0000000000000000e+00" itree="140">
      <Node pos="s" depth="0" NCoef="0" IVar="11" Cut="8.5699009895324707e-01" cType="1" res="4.0316358208656311e-03" rms="3.5061550140380859e-01" purity="5.0334268808364868e-01" nType="0">
        <Node pos="l" depth="1" NCoef="0" IVar="12" Cut="4.7611709684133530e-02" cType="1" res="-5.1902822451665998e-04" rms="3.6626464128494263e-01" purity="3.7409090995788574e-01" nType="0">
          <Node pos="l" depth="2" NCoef="0" IVar="-1" Cut="0.0000000000000000e+00" cType="1" res="-1.7160706222057343e-02" rms="3.7274387478828430e-01" purity="5.9842103719711304e-01" nType="-99"/>
          <Node pos="r" depth="2" NCoef="0" IVar="-1" Cut="0.0000000000000000e+00" cType="1" res="4.3278580415062606e-04" rms="3.6583349108695984e-01" purity="3.6513072252273560e-01" nType="-99"/>
        </Node>
        <Node pos="r" depth="1" NCoef="0" IVar="0" Cut="9.1947059631347656e+00" cType="1" res="1.7637668177485466e-02" rms="2.9856628179550171e-01" purity="8.8979250192642212e-01" nType="0">
          <Node pos="l" depth="2" NCoef="0" IVar="-1" Cut="0.0000000000000000e+00" cType="1" res="1.0650013573467731e-03" rms="3.3780509233474731e-01" purity="8.4674519300460815e-01" nType="-99"/>
          <Node pos="r" depth="2" NCoef="0" IVar="-1" Cut="0.0000000000000000e+00" cType="1" res="9.3118771910667419e-03" rms="2.8051277995109558e-01" purity="9.0758961439132690e-01" nType="-99"/>
        </Node>
      </Node>
    </BinaryTree>
    <BinaryTree type="DecisionTree" boostWeight="1.0000000000000000e+00" itree="141">
      <Node pos="s" depth="0" NCoef="0" IVar="4" Cut="-3.9981216192245483e-01" cType="1" res="2.6754406280815601e-03" rms="3.5103729367256165e-01" purity="5.0396168231964111e-01" nType="0">
        <Node pos="l" depth="1" NCoef="0" IVar="8" Cut="-5.3842866420745850e-01" cType="1" res="9.8122553899884224e-03" rms="3.3310225605964661e-01" purity="5.6239205598831177e-01" nType="0">
          <Node pos="l" depth="2" NCoef="0" IVar="-1" Cut="0.0000000000000000e+00" cType="1" res="6.2000188045203686e-03" rms="3.8399890065193176e-01" purity="6.2553095817565918e-01" nType="-99"/>
          <Node pos="r" depth="2" NCoef="0" IVar="-1" Cut="0.0000000000000000e+00" cType="1" res="2.0287851803004742e-03" rms="3.2665923237800598e-01" purity="5.5537241697311401e-01" nType="-99"/>
        </Node>
        <Node pos="r" depth="1" NCoef="0" IVar="3" Cut="2.3320409655570984e-01" cType="1" res="-5.1756994798779488e-03" rms="3.6960479617118835e-01" purity="4.3968299031257629e-01" nType="0">
          <Node pos="l" depth="2" NCoef="0" IVar="-1" Cut="0.0000000000000000e+00" cType="1" res="-5.0747254863381386e-03" rms="3.6327007412910461e-01" purity="5.2858090400695801e-01" nType="-99"/>
          <Node pos="r" depth="2" NCoef="0" IVar="-1" Cut="0.0000000000000000e+00" cType="1" res="1.0510972933843732e-03" rms="3.7407746911048889e-01" purity="3.7197768688201904e-01" nType="-99"/>
        </Node>
      </Node>
    </BinaryTree>
    <BinaryTree type="DecisionTree" boostWeight="1.0000000000000000e+00" itree="142">
      <Node pos="s" depth="0" NCoef="0" IVar="9" Cut="3.6931471824645996e+00" cType="1" res="-2.3073800839483738e-03" rms="2.3110443353652954e-01" purity="4.9891164898872375e-01" nType="0">
        <Node pos="l" depth="1" NCoef="0" IVar="7" Cut="5.3902453184127808e-01" cType="1" res="-4.8793484456837177e-03" rms="3.5056847333908081e-01" purity="5.3767651319503784e-01" nType="0">
          <Node pos="l" depth="2" NCoef="0" IVar="-1" Cut="0.0000000000000000e+00" cType="1" res="6.6704575147014111e-05" rms="3.5061100125312805e-01" purity="5.5899578332901001e-01" nType="-99"/>
          <Node pos="r" depth="2" NCoef="0" IVar="-1" Cut="0.0000000000000000e+00" cType="1" res="-5.6071006692945957e-03" rms="3.4992399811744690e-01" purity="4.6932643651962280e-01" nType="-99"/>
        </Node>
        <Node pos="r" depth="1" NCoef="0" IVar="2" Cut="8.5208473205566406e+00" cType="1" res="-2.3632966622244567e-04" rms="3.6457881331443787e-01" purity="4.1766026616096497e-01" nType="0">
          <Node pos="l" depth="2" NCoef="0" IVar="-1" Cut="0.0000000000000000e+00" cType="1" res="-6.3489642925560474e-03" rms="3.7297886610031128e-01" purity="3.7552785873413086e-01" nType="-99"/>
          <Node pos="r" depth="2" NCoef="0" IVar="-1" Cut="0.0000000000000000e+00" cType="1" res="1.8369171302765608e-03" rms="3.6267098784446716e-01" purity="4.2623615264892578e-01" nType="-99"/>
        </Node>
      </Node>
    </BinaryTree>
    <BinaryTree type="DecisionTree" boostWeight="1.0000000000000000e+00" itree="143">
      <Node pos="s" depth="0" NCoef="0" IVar="8" Cut="-3.8329273462295532e-01" cType="1" res="2.4710176512598991e-03" rms="3.5524499416351318e-01" purity="5.0137042999267578e-01" nType="0">
        <Node pos="l" depth="1" NCoef="0" IVar="6" Cut="-1.9944252967834473e+00" cType="1" res="2.2803081199526787e-02" rms="3.8520750403404236e-01" purity="5.1306354999542236e-01" nType="0">
          <Node pos="l" depth="2" NCoef="0" IVar="-1" Cut="0.0000000000000000e+00" cType="1" res="5.9061497449874878e-03" rms="3.7762716412544250e-01" purity="5.7288122177124023e-01" nType="-99"/>
          <Node pos="r" depth="2" NCoef="0" IVar="-1" Cut="0.0000000000000000e+00" cType="1" res="-3.7263631820678711e-03" rms="4.0390351414680481e-01" purity="3.2970166206359863e-01" nType="-99"/>
        </Node>
        <Node pos="r" depth="1" NCoef="0" IVar="4" Cut="6.0388320684432983e-01" cType="1" res="-2.1550932433456182e-03" rms="3.4790179133415222e-01" purity="4.9870994687080383e-01" nType="0">
          <Node pos="l" depth="2" NCoef="0" IVar="-1" Cut="0.0000000000000000e+00" cType="1" res="-6.1943937907926738e-05" rms="3.4562548995018005e-01" purity="5.0661069154739380e-01" nType="-99"/>
          <Node pos="r" depth="2" NCoef="0" IVar="-1" Cut="0.0000000000000000e+00" cType="1" res="-1.3026148080825806e-02" rms="3.8987442851066589e-01" purity="3.3487564325332642e-01" nType="-99"/>
        </Node>
      </Node>
    </BinaryTree>
    <BinaryTree type="DecisionTree" boostWeight="1.0000000000000000e+00" itree="144">
      <Node pos="s" depth="0" NCoef="0" IVar="5" Cut="6.4922161102294922e+00" cType="1" res="-9.5318176317960024e-04" rms="3.5210230946540833e-01" purity="4.9923449754714966e-01" nType="0">
        <Node pos="l" depth="1" NCoef="0" IVar="6" Cut="-8.6385583877563477e-01" cType="1" res="1.0509761050343513e-02" rms="3.5945421457290649e-01" purity="5.3384459018707275e-01" nType="0">
          <Node pos="l" depth="2" NCoef="0" IVar="-1" Cut="0.0000000000000000e+00" cType="1" res="4.2634778656065464e-03" rms="3.5850551724433899e-01" purity="5.5978804826736450e-01" nType="-99"/>
          <Node pos="r" depth="2" NCoef="0" IVar="-1" Cut="0.0000000000000000e+00" cType="1" res="-7.7184373512864113e-03" rms="3.6726531386375427e-01" purity="2.3501998186111450e-01" nType="-99"/>
        </Node>
        <Node pos="r" depth="1" NCoef="0" IVar="13" Cut="4.2852067947387695e-01" cType="1" res="-9.0368660166859627e-03" rms="3.4659618139266968e-01" purity="4.7482737898826599e-01" nType="0">
          <Node pos="l" depth="2" NCoef="0" IVar="-1" Cut="0.0000000000000000e+00" cType="1" res="-1.3921165373176336e-03" rms="3.3150959014892578e-01" purity="4.1143879294395447e-01" nType="-99"/>
          <Node pos="r" depth="2" NCoef="0" IVar="-1" Cut="0.0000000000000000e+00" cType="1" res="-6.8915779702365398e-03" rms="3.9675948023796082e-01" purity="7.0769160985946655e-01" nType="-99"/>
        </Node>
      </Node>
    </BinaryTree>
    <BinaryTree type="DecisionTree" boostWeight="1.0000000000000000e+00" itree="145">
      <Node pos="s" depth="0" NCoef="0" IVar="12" Cut="9.5207339525222778e-01" cType="1" res="3.9937882684171200e-03" rms="3.5049346089363098e-01" purity="5.0373232364654541e-01" nType="0">
        <Node pos="l" depth="1" NCoef="0" IVar="0" Cut="9.7824573516845703e+00" cType="1" res="8.1166373565793037e-03" rms="3.8115727901458740e-01" purity="6.1495321989059448e-01" nType="0">
          <Node pos="l" depth="2" NCoef="0" IVar="-1" Cut="0.0000000000000000e+00" cType="1" res="8.9649774599820375e-04" rms="3.9092916250228882e-01" purity="5.9255170822143555e-01" nType="-99"/>
          <Node pos="r" depth="2" NCoef="0" IVar="-1" Cut="0.0000000000000000e+00" cType="1" res="4.7521805390715599e-03" rms="3.5253959894180298e-01" purity="6.7665672302246094e-01" nType="-99"/>
        </Node>
        <Node pos="r" depth="1" NCoef="0" IVar="11" Cut="6.9081764668226242e-03" cType="1" res="-1.3526167720556259e-02" rms="1.6470746695995331e-01" purity="3.1101416796445847e-02" nType="0">
          <Node pos="l" depth="2" NCoef="0" IVar="-1" Cut="0.0000000000000000e+00" cType="1" res="-2.7300065383315086e-02" rms="9.4520680606365204e-02" purity="9.1360379010438919e-03" nType="-99"/>
          <Node pos="r" depth="2" NCoef="0" IVar="-1" Cut="0.0000000000000000e+00" cType="1" res="5.3823776543140411e-03" rms="2.8876024484634399e-01" purity="1.0008224099874496e-01" nType="-99"/>
        </Node>
      </Node>
    </BinaryTree>
    <BinaryTree type="DecisionTree" boostWeight="1.0000000000000000e+00" itree="146">
      <Node pos="s" depth="0" NCoef="0" IVar="9" Cut="3.0000000000000000e+00" cType="1" res="-5.6929909624159336e-04" rms="2.2946576774120331e-01" purity="5.0089091062545776e-01" nType="0">
        <Node pos="l" depth="1" NCoef="0" IVar="7" Cut="-5.4481267929077148e-02" cType="1" res="1.7845686525106430e-02" rms="3.2165026664733887e-01" purity="6.3150358200073242e-01" nType="0">
          <Node pos="l" depth="2" NCoef="0" IVar="-1" Cut="0.0000000000000000e+00" cType="1" res="1.1708539910614491e-02" rms="3.0770167708396912e-01" purity="6.8126934766769409e-01" nType="-99"/>
          <Node pos="r" depth="2" NCoef="0" IVar="-1" Cut="0.0000000000000000e+00" cType="1" res="4.8715979210101068e-04" rms="3.3037671446800232e-01" purity="5.9570932388305664e-01" nType="-99"/>
        </Node>
        <Node pos="r" depth="1" NCoef="0" IVar="8" Cut="-3.2295373082160950e-01" cType="1" res="-2.5396856945008039e-03" rms="3.5659286379814148e-01" purity="4.7929769754409790e-01" nType="0">
          <Node pos="l" depth="2" NCoef="0" IVar="-1" Cut="0.0000000000000000e+00" cType="1" res="1.9872332923114300e-03" rms="3.7446358799934387e-01" purity="4.7987818717956543e-01" nType="-99"/>
          <Node pos="r" depth="2" NCoef="0" IVar="-1" Cut="0.0000000000000000e+00" cType="1" res="-2.3047756403684616e-03" rms="3.5135290026664734e-01" purity="4.7913596034049988e-01" nType="-99"/>
        </Node>
      </Node>
    </BinaryTree>
    <BinaryTree type="DecisionTree" boostWeight="1.0000000000000000e+00" itree="147">
      <Node pos="s" depth="0" NCoef="0" IVar="3" Cut="-6.9427466392517090e-01" cType="1" res="-1.1460176901891828e-03" rms="3.5228335857391357e-01" purity="4.9542796611785889e-01" nType="0">
        <Node pos="l" depth="1" NCoef="0" IVar="4" Cut="-7.8319245576858521e-01" cType="1" res="1.1885461397469044e-02" rms="3.1250336766242981e-01" purity="6.9957268238067627e-01" nType="0">
          <Node pos="l" depth="2" NCoef="0" IVar="-1" Cut="0.0000000000000000e+00" cType="1" res="1.5867115929722786e-02" rms="2.7263021469116211e-01" purity="8.0347657203674316e-01" nType="-99"/>
          <Node pos="r" depth="2" NCoef="0" IVar="-1" Cut="0.0000000000000000e+00" cType="1" res="-2.4249514099210501e-03" rms="3.4346804022789001e-01" purity="6.0549139976501465e-01" nType="-99"/>
        </Node>
        <Node pos="r" depth="1" NCoef="0" IVar="8" Cut="5.6611084938049316e-01" cType="1" res="-5.2135018631815910e-03" rms="3.6371454596519470e-01" purity="4.3170875310897827e-01" nType="0">
          <Node pos="l" depth="2" NCoef="0" IVar="-1" Cut="0.0000000000000000e+00" cType="1" res="-1.0191460605710745e-03" rms="3.6505627632141113e-01" purity="4.3654185533523560e-01" nType="-99"/>
          <Node pos="r" depth="2" NCoef="0" IVar="-1" Cut="0.0000000000000000e+00" cType="1" res="-1.1961436830461025e-02" rms="3.2489281892776489e-01" purity="3.0623856186866760e-01" nType="-99"/>
        </Node>
      </Node>
    </BinaryTree>
    <BinaryTree type="DecisionTree" boostWeight="1.0000000000000000e+00" itree="148">
      <Node pos="s" depth="0" NCoef="0" IVar="0" Cut="8.2577705383300781e+00" cType="1" res="-1.6301743016811088e-05" rms="3.5259324312210083e-01" purity="4.9907812476158142e-01" nType="0">
        <Node pos="l" depth="1" NCoef="0" IVar="11" Cut="4.5940544456243515e-02" cType="1" res="-1.8189152702689171e-02" rms="4.2119562625885010e-01" purity="3.7057840824127197e-01" nType="0">
          <Node pos="l" depth="2" NCoef="0" IVar="-1" Cut="0.0000000000000000e+00" cType="1" res="4.7850781120359898e-03" rms="3.2034710049629211e-01" purity="1.2925070524215698e-01" nType="-99"/>
          <Node pos="r" depth="2" NCoef="0" IVar="-1" Cut="0.0000000000000000e+00" cType="1" res="-5.6375889107584953e-03" rms="4.5207449793815613e-01" purity="4.5917046070098877e-01" nType="-99"/>
        </Node>
        <Node pos="r" depth="1" NCoef="0" IVar="12" Cut="9.0441781282424927e-01" cType="1" res="4.2013213969767094e-03" rms="3.3452606201171875e-01" purity="5.2890080213546753e-01" nType="0">
          <Node pos="l" depth="2" NCoef="0" IVar="-1" Cut="0.0000000000000000e+00" cType="1" res="2.3329197429120541e-03" rms="3.7044176459312439e-01" purity="6.9744199514389038e-01" nType="-99"/>
          <Node pos="r" depth="2" NCoef="0" IVar="-1" Cut="0.0000000000000000e+00" cType="1" res="-6.6099655814468861e-03" rms="1.9871380925178528e-01" purity="4.8408050090074539e-02" nType="-99"/>
        </Node>
      </Node>
    </BinaryTree>
    <BinaryTree type="DecisionTree" boostWeight="1.0000000000000000e+00" itree="149">
      <Node pos="s" depth="0" NCoef="0" IVar="1" Cut="4.9801034927368164e+00" cType="1" res="-8.1268437497783452e-05" rms="3.5280403494834900e-01" purity="4.9760690331459045e-01" nType="0">
        <Node pos="l" depth="1" NCoef="0" IVar="-1" Cut="0.0000000000000000e+00" cType="1" res="-6.7837275564670563e-03" rms="4.2219457030296326e-01" purity="2.3497350513935089e-01" nType="-99"/>
        <Node pos="r" depth="1" NCoef="0" IVar="5" Cut="5.6700606346130371e+00" cType="1" res="1.1678044684231281e-03" rms="3.4996572136878967e-01" purity="5.0713062286376953e-01" nType="0">
          <Node pos="l" depth="2" NCoef="0" IVar="-1" Cut="0.0000000000000000e+00" cType="1" res="5.6957788765430450e-03" rms="3.7088724970817566e-01" purity="5.9652858972549438e-01" nType="-99"/>
          <Node pos="r" depth="2" NCoef="0" IVar="-1" Cut="0.0000000000000000e+00" cType="1" res="-4.5659934403374791e-04" rms="3.4681954979896545e-01" purity="4.9449622631072998e-01" nType="-99"/>
        </Node>
      </Node>
    </BinaryTree>
    <BinaryTree type="DecisionTree" boostWeight="1.0000000000000000e+00" itree="150">
      <Node pos="s" depth="0" NCoef="0" IVar="13" Cut="8.5706877708435059e-01" cType="1" res="-5.8629031991586089e-04" rms="3.5093912482261658e-01" purity="5.0270855426788330e-01" nType="0">
        <Node pos="l" depth="1" NCoef="0" IVar="12" Cut="8.5686612129211426e-01" cType="1" res="1.0812043910846114e-03" rms="3.5003358125686646e-01" purity="4.9571374058723450e-01" nType="0">
          <Node pos="l" depth="2" NCoef="0" IVar="-1" Cut="0.0000000000000000e+00" cType="1" res="1.6018587630242109e-03" rms="3.8384416699409485e-01" purity="6.8100351095199585e-01" nType="-99"/>
          <Node pos="r" depth="2" NCoef="0" IVar="-1" Cut="0.0000000000000000e+00" cType="1" res="-5.0575481727719307e-03" rms="2.6241099834442139e-01" purity="9.6547879278659821e-02" nType="-99"/>
        </Node>
        <Node pos="r" depth="1" NCoef="0" IVar="-1" Cut="0.0000000000000000e+00" cType="1" res="-1.4040507376194000e-02" rms="3.6866998672485352e-01" purity="6.5936505794525146e-01" nType="-99"/>
      </Node>
    </BinaryTree>
    <BinaryTree type="DecisionTree" boostWeight="1.0000000000000000e+00" itree="151">
      <Node pos="s" depth="0" NCoef="0" IVar="5" Cut="5.0014004707336426e+00" cType="1" res="-3.1581733492203057e-04" rms="3.5527795553207397e-01" purity="5.0416290760040283e-01" nType="0">
        <Node pos="l" depth="1" NCoef="0" IVar="-1" Cut="0.0000000000000000e+00" cType="1" res="-1.0013366118073463e-02" rms="3.8857907056808472e-01" purity="5.3049552440643311e-01" nType="-99"/>
        <Node pos="r" depth="1" NCoef="0" IVar="5" Cut="6.3153038024902344e+00" cType="1" res="1.2425240129232407e-03" rms="3.5375073552131653e-01" purity="5.0307697057723999e-01" nType="0">
          <Node pos="l" depth="2" NCoef="0" IVar="-1" Cut="0.0000000000000000e+00" cType="1" res="3.4883536864072084e-03" rms="3.6634755134582520e-01" purity="5.4325306415557861e-01" nType="-99"/>
          <Node pos="r" depth="2" NCoef="0" IVar="-1" Cut="0.0000000000000000e+00" cType="1" res="-1.0879314504563808e-03" rms="3.4767454862594604e-01" purity="4.8455274105072021e-01" nType="-99"/>
        </Node>
      </Node>
    </BinaryTree>
    <BinaryTree type="DecisionTree" boostWeight="1.0000000000000000e+00" itree="152">
      <Node pos="s" depth="0" NCoef="0" IVar="9" Cut="3.0000000000000000e+00" cType="1" res="-7.7887042425572872e-04" rms="2.2876870632171631e-01" purity="4.9472993612289429e-01" nType="0">
        <Node pos="l" depth="1" NCoef="0" IVar="1" Cut="5.9888410568237305e+00" cType="1" res="1.3245985843241215e-02" rms="3.1818798184394836e-01" purity="6.2561857700347900e-01" nType="0">
          <Node pos="l" depth="2" NCoef="0" IVar="-1" Cut="0.0000000000000000e+00" cType="1" res="1.0257606394588947e-02" rms="3.7646326422691345e-01" purity="5.2311044931411743e-01" nType="-99"/>
          <Node pos="r" depth="2" NCoef="0" IVar="-1" Cut="0.0000000000000000e+00" cType="1" res="-2.6335043366998434e-04" rms="2.8977525234222412e-01" purity="6.6763991117477417e-01" nType="-99"/>
        </Node>
        <Node pos="r" depth="1" NCoef="0" IVar="5" Cut="7.7917051315307617e+00" cType="1" res="-6.2076481990516186e-03" rms="3.5774591565132141e-01" purity="4.7345575690269470e-01" nType="0">
          <Node pos="l" depth="2" NCoef="0" IVar="-1" Cut="0.0000000000000000e+00" cType="1" res="-6.9279788294807076e-04" rms="3.5463488101959229e-01" purity="4.8155948519706726e-01" nType="-99"/>
          <Node pos="r" depth="2" NCoef="0" IVar="-1" Cut="0.0000000000000000e+00" cType="1" res="-7.7933622524142265e-03" rms="3.7598726153373718e-01" purity="4.2194366455078125e-01" nType="-99"/>
        </Node>
      </Node>
    </BinaryTree>
    <BinaryTree type="DecisionTree" boostWeight="1.0000000000000000e+00" itree="153">
      <Node pos="s" depth="0" NCoef="0" IVar="11" Cut="5.7133203744888306e-01" cType="1" res="6.3957908423617482e-04" rms="3.5041365027427673e-01" purity="5.0014203786849976e-01" nType="0">
        <Node pos="l" depth="1" NCoef="0" IVar="12" Cut="2.8563687205314636e-01" cType="1" res="-6.3552842475473881e-03" rms="3.6549532413482666e-01" purity="3.0029094219207764e-01" nType="0">
          <Node pos="l" depth="2" NCoef="0" IVar="-1" Cut="0.0000000000000000e+00" cType="1" res="-1.4679374173283577e-02" rms="3.9460775256156921e-01" purity="5.0520956516265869e-01" nType="-99"/>
          <Node pos="r" depth="2" NCoef="0" IVar="-1" Cut="0.0000000000000000e+00" cType="1" res="-7.3796173091977835e-04" rms="3.6317762732505798e-01" purity="2.8643110394477844e-01" nType="-99"/>
        </Node>
        <Node pos="r" depth="1" NCoef="0" IVar="10" Cut="3.0000000000000000e+00" cType="1" res="2.3267508950084448e-03" rms="1.9469712674617767e-01" purity="8.6885321140289307e-01" nType="0">
          <Node pos="l" depth="2" NCoef="0" IVar="-1" Cut="0.0000000000000000e+00" cType="1" res="5.8680153451859951e-03" rms="3.1124478578567505e-01" purity="8.7859028577804565e-01" nType="-99"/>
          <Node pos="r" depth="2" NCoef="0" IVar="-1" Cut="0.0000000000000000e+00" cType="1" res="-2.1992451511323452e-03" rms="3.7889134883880615e-01" purity="7.9861634969711304e-01" nType="-99"/>
        </Node>
      </Node>
    </BinaryTree>
    <BinaryTree type="DecisionTree" boostWeight="1.0000000000000000e+00" itree="154">
      <Node pos="s" depth="0" NCoef="0" IVar="11" Cut="3.8087195158004761e-01" cType="1" res="-1.6178485238924623e-03" rms="3.4844678640365601e-01" purity="4.9312216043472290e-01" nType="0">
        <Node pos="l" depth="1" NCoef="0" IVar="12" Cut="4.2842739820480347e-01" cType="1" res="-8.2224179059267044e-03" rms="3.5607460141181946e-01" purity="2.5106891989707947e-01" nType="0">
          <Node pos="l" depth="2" NCoef="0" IVar="-1" Cut="0.0000000000000000e+00" cType="1" res="-9.3277990818023682e-03" rms="3.9340448379516602e-01" purity="3.9117607474327087e-01" nType="-99"/>
          <Node pos="r" depth="2" NCoef="0" IVar="-1" Cut="0.0000000000000000e+00" cType="1" res="-1.5948876971378922e-03" rms="3.5339224338531494e-01" purity="2.4196630716323853e-01" nType="-99"/>
        </Node>
        <Node pos="r" depth="1" NCoef="0" IVar="13" Cut="4.2836567759513855e-01" cType="1" res="8.1215510144829750e-03" rms="3.3664712309837341e-01" purity="8.5006487369537354e-01" nType="0">
          <Node pos="l" depth="2" NCoef="0" IVar="-1" Cut="0.0000000000000000e+00" cType="1" res="5.6687979958951473e-03" rms="3.1895175576210022e-01" purity="8.7117177248001099e-01" nType="-99"/>
          <Node pos="r" depth="2" NCoef="0" IVar="-1" Cut="0.0000000000000000e+00" cType="1" res="-1.2633660808205605e-03" rms="3.5510906577110291e-01" purity="8.2636219263076782e-01" nType="-99"/>
        </Node>
      </Node>
    </BinaryTree>
    <BinaryTree type="DecisionTree" boostWeight="1.0000000000000000e+00" itree="155">
      <Node pos="s" depth="0" NCoef="0" IVar="9" Cut="3.6931471824645996e+00" cType="1" res="-1.5444580931216478e-03" rms="2.2825376689434052e-01" purity="4.9807623028755188e-01" nType="0">
        <Node pos="l" depth="1" NCoef="0" IVar="7" Cut="1.2422484159469604e+00" cType="1" res="6.0188869247213006e-04" rms="3.4309816360473633e-01" purity="5.3798997402191162e-01" nType="0">
          <Node pos="l" depth="2" NCoef="0" IVar="-1" Cut="0.0000000000000000e+00" cType="1" res="8.3110592095181346e-04" rms="3.4334811568260193e-01" purity="5.5293667316436768e-01" nType="-99"/>
          <Node pos="r" depth="2" NCoef="0" IVar="-1" Cut="0.0000000000000000e+00" cType="1" res="-1.0880361311137676e-02" rms="3.3571654558181763e-01" purity="2.8411838412284851e-01" nType="-99"/>
        </Node>
        <Node pos="r" depth="1" NCoef="0" IVar="0" Cut="9.1321601867675781e+00" cType="1" res="-8.3149637794122100e-04" rms="3.6513647437095642e-01" purity="4.1417747735977173e-01" nType="0">
          <Node pos="l" depth="2" NCoef="0" IVar="-1" Cut="0.0000000000000000e+00" cType="1" res="-4.1021862998604774e-03" rms="3.7971824407577515e-01" purity="3.4662485122680664e-01" nType="-99"/>
          <Node pos="r" depth="2" NCoef="0" IVar="-1" Cut="0.0000000000000000e+00" cType="1" res="3.9522689767181873e-03" rms="3.4836056828498840e-01" purity="4.8718455433845520e-01" nType="-99"/>
        </Node>
      </Node>
    </BinaryTree>
    <BinaryTree type="DecisionTree" boostWeight="1.0000000000000000e+00" itree="156">
      <Node pos="s" depth="0" NCoef="0" IVar="9" Cut="3.6931471824645996e+00" cType="1" res="-9.3565258430317044e-04" rms="2.3228028416633606e-01" purity="5.0219362974166870e-01" nType="0">
        <Node pos="l" depth="1" NCoef="0" IVar="10" Cut="3.0000000000000000e+00" cType="1" res="-4.3509050738066435e-04" rms="2.3135717213153839e-01" purity="5.3946256637573242e-01" nType="0">
          <Node pos="l" depth="2" NCoef="0" IVar="-1" Cut="0.0000000000000000e+00" cType="1" res="6.4784300047904253e-04" rms="3.4780985116958618e-01" purity="5.4834455251693726e-01" nType="-99"/>
          <Node pos="r" depth="2" NCoef="0" IVar="-1" Cut="0.0000000000000000e+00" cType="1" res="-7.4220318347215652e-03" rms="3.8947939872741699e-01" purity="4.4149285554885864e-01" nType="-99"/>
        </Node>
        <Node pos="r" depth="1" NCoef="0" IVar="12" Cut="8.5677433013916016e-01" cType="1" res="3.8014131132513285e-03" rms="3.6547365784645081e-01" purity="4.2148727178573608e-01" nType="0">
          <Node pos="l" depth="2" NCoef="0" IVar="-1" Cut="0.0000000000000000e+00" cType="1" res="3.4571420401334763e-03" rms="4.0941894054412842e-01" purity="5.8814597129821777e-01" nType="-99"/>
          <Node pos="r" depth="2" NCoef="0" IVar="-1" Cut="0.0000000000000000e+00" cType="1" res="-8.0693131312727928e-03" rms="2.5233155488967896e-01" purity="8.1035643815994263e-02" nType="-99"/>
        </Node>
      </Node>
    </BinaryTree>
    <BinaryTree type="DecisionTree" boostWeight="1.0000000000000000e+00" itree="157">
      <Node pos="s" depth="0" NCoef="0" IVar="3" Cut="-6.9551527500152588e-01" cType="1" res="1.4936517691239715e-03" rms="3.4973192214965820e-01" purity="4.9806916713714600e-01" nType="0">
        <Node pos="l" depth="1" NCoef="0" IVar="2" Cut="8.7410516738891602e+00" cType="1" res="1.2757819145917892e-02" rms="3.0953893065452576e-01" purity="7.0324790477752686e-01" nType="0">
          <Node pos="l" depth="2" NCoef="0" IVar="-1" Cut="0.0000000000000000e+00" cType="1" res="-5.1883319392800331e-03" rms="3.4880572557449341e-01" purity="6.1727011203765869e-01" nType="-99"/>
          <Node pos="r" depth="2" NCoef="0" IVar="-1" Cut="0.0000000000000000e+00" cType="1" res="9.7608491778373718e-03" rms="2.9697990417480469e-01" purity="7.2721570730209351e-01" nType="-99"/>
        </Node>
        <Node pos="r" depth="1" NCoef="0" IVar="0" Cut="8.0384025573730469e+00" cType="1" res="-2.0408502314239740e-03" rms="3.6135128140449524e-01" purity="4.3368756771087646e-01" nType="0">
          <Node pos="l" depth="2" NCoef="0" IVar="-1" Cut="0.0000000000000000e+00" cType="1" res="-3.7136529572308064e-03" rms="4.2990127205848694e-01" purity="3.1906288862228394e-01" nType="-99"/>
          <Node pos="r" depth="2" NCoef="0" IVar="-1" Cut="0.0000000000000000e+00" cType="1" res="7.3417046223767102e-05" rms="3.5092687606811523e-01" purity="4.4928532838821411e-01" nType="-99"/>
        </Node>
      </Node>
    </BinaryTree>
    <BinaryTree type="DecisionTree" boostWeight="1.0000000000000000e+00" itree="158">
      <Node pos="s" depth="0" NCoef="0" IVar="1" Cut="5.7224564552307129e+00" cType="1" res="-4.0906117646954954e-04" rms="3.5180428624153137e-01" purity="5.0252723693847656e-01" nType="0">
        <Node pos="l" depth="1" NCoef="0" IVar="11" Cut="4.7087080776691437e-02" cType="1" res="-1.7660425975918770e-02" rms="4.0535894036293030e-01" purity="3.1137168407440186e-01" nType="0">
          <Node pos="l" depth="2" NCoef="0" IVar="-1" Cut="0.0000000000000000e+00" cType="1" res="6.2280097045004368e-03" rms="3.0893754959106445e-01" purity="1.1662764847278595e-01" nType="-99"/>
          <Node pos="r" depth="2" NCoef="0" IVar="-1" Cut="0.0000000000000000e+00" cType="1" res="-6.8808272480964661e-03" rms="4.5217928290367126e-01" purity="4.2780628800392151e-01" nType="-99"/>
        </Node>
        <Node pos="r" depth="1" NCoef="0" IVar="5" Cut="6.0293536186218262e+00" cType="1" res="3.7120261695235968e-03" rms="3.3762627840042114e-01" purity="5.4819142818450928e-01" nType="0">
          <Node pos="l" depth="2" NCoef="0" IVar="-1" Cut="0.0000000000000000e+00" cType="1" res="9.9528478458523750e-03" rms="3.2820510864257812e-01" purity="7.0528763532638550e-01" nType="-99"/>
          <Node pos="r" depth="2" NCoef="0" IVar="-1" Cut="0.0000000000000000e+00" cType="1" res="-2.6489581796340644e-04" rms="3.3930319547653198e-01" purity="5.1659131050109863e-01" nType="-99"/>
        </Node>
      </Node>
    </BinaryTree>
    <BinaryTree type="DecisionTree" boostWeight="1.0000000000000000e+00" itree="159">
      <Node pos="s" depth="0" NCoef="0" IVar="8" Cut="-4.5662239193916321e-01" cType="1" res="2.3180048447102308e-04" rms="3.5081490874290466e-01" purity="5.0051248073577881e-01" nType="0">
        <Node pos="l" depth="1" NCoef="0" IVar="10" Cut="2.0000000000000000e+00" cType="1" res="8.9963451027870178e-03" rms="3.1856027245521545e-01" purity="5.2320969104766846e-01" nType="0">
          <Node pos="l" depth="2" NCoef="0" IVar="-1" Cut="0.0000000000000000e+00" cType="1" res="4.8235165886580944e-03" rms="3.7469783425331116e-01" purity="5.7617676258087158e-01" nType="-99"/>
          <Node pos="r" depth="2" NCoef="0" IVar="-1" Cut="0.0000000000000000e+00" cType="1" res="2.8758615371771157e-04" rms="4.0418377518653870e-01" purity="4.6281236410140991e-01" nType="-99"/>
        </Node>
        <Node pos="r" depth="1" NCoef="0" IVar="9" Cut="4.6931471824645996e+00" cType="1" res="-2.6665860787034035e-03" rms="2.1744705736637115e-01" purity="4.9670568108558655e-01" nType="0">
          <Node pos="l" depth="2" NCoef="0" IVar="-1" Cut="0.0000000000000000e+00" cType="1" res="-1.0513056768104434e-03" rms="3.4385943412780762e-01" purity="4.9672514200210571e-01" nType="-99"/>
          <Node pos="r" depth="2" NCoef="0" IVar="-1" Cut="0.0000000000000000e+00" cType="1" res="3.9606396108865738e-02" rms="4.7582405805587769e-01" purity="2.7465432882308960e-01" nType="-99"/>
        </Node>
      </Node>
    </BinaryTree>
    <BinaryTree type="DecisionTree" boostWeight="1.0000000000000000e+00" itree="160">
      <Node pos="s" depth="0" NCoef="0" IVar="9" Cut="3.6931471824645996e+00" cType="1" res="-1.6958466731011868e-03" rms="2.3202325403690338e-01" purity="4.9740487337112427e-01" nType="0">
        <Node pos="l" depth="1" NCoef="0" IVar="10" Cut="3.0000000000000000e+00" cType="1" res="-2.1177858579903841e-03" rms="2.3083378374576569e-01" purity="5.3543663024902344e-01" nType="0">
          <Node pos="l" depth="2" NCoef="0" IVar="-1" Cut="0.0000000000000000e+00" cType="1" res="3.8718996802344918e-04" rms="3.4469649195671082e-01" purity="5.4386943578720093e-01" nType="-99"/>
          <Node pos="r" depth="2" NCoef="0" IVar="-1" Cut="0.0000000000000000e+00" cType="1" res="-6.3892374746501446e-03" rms="3.7019693851470947e-01" purity="4.3730244040489197e-01" nType="-99"/>
        </Node>
        <Node pos="r" depth="1" NCoef="0" IVar="8" Cut="-3.2507809996604919e-01" cType="1" res="-4.0286668081535026e-06" rms="3.6765703558921814e-01" purity="4.1708189249038696e-01" nType="0">
          <Node pos="l" depth="2" NCoef="0" IVar="-1" Cut="0.0000000000000000e+00" cType="1" res="3.3750783186405897e-03" rms="3.8565605878829956e-01" purity="4.1934198141098022e-01" nType="-99"/>
          <Node pos="r" depth="2" NCoef="0" IVar="-1" Cut="0.0000000000000000e+00" cType="1" res="-1.7792984144762158e-03" rms="3.6281901597976685e-01" purity="4.1650491952896118e-01" nType="-99"/>
        </Node>
      </Node>
    </BinaryTree>
    <BinaryTree type="DecisionTree" boostWeight="1.0000000000000000e+00" itree="161">
      <Node pos="s" depth="0" NCoef="0" IVar="2" Cut="8.7359209060668945e+00" cType="1" res="-1.0062204673886299e-03" rms="3.5527354478836060e-01" purity="4.9630224704742432e-01" nType="0">
        <Node pos="l" depth="1" NCoef="0" IVar="11" Cut="4.7628644853830338e-02" cType="1" res="-1.4155669137835503e-02" rms="3.6765459179878235e-01" purity="4.6075928211212158e-01" nType="0">
          <Node pos="l" depth="2" NCoef="0" IVar="-1" Cut="0.0000000000000000e+00" cType="1" res="1.7882063984870911e-03" rms="2.5036689639091492e-01" purity="7.4981518089771271e-02" nType="-99"/>
          <Node pos="r" depth="2" NCoef="0" IVar="-1" Cut="0.0000000000000000e+00" cType="1" res="-3.6438633687794209e-03" rms="4.1107213497161865e-01" purity="6.4196991920471191e-01" nType="-99"/>
        </Node>
        <Node pos="r" depth="1" NCoef="0" IVar="8" Cut="-6.6087120771408081e-01" cType="1" res="3.6013619974255562e-03" rms="3.5071524977684021e-01" purity="5.0875651836395264e-01" nType="0">
          <Node pos="l" depth="2" NCoef="0" IVar="-1" Cut="0.0000000000000000e+00" cType="1" res="5.7906238362193108e-03" rms="4.0851420164108276e-01" purity="5.8983159065246582e-01" nType="-99"/>
          <Node pos="r" depth="2" NCoef="0" IVar="-1" Cut="0.0000000000000000e+00" cType="1" res="3.8495202898047864e-04" rms="3.4648805856704712e-01" purity="5.0351899862289429e-01" nType="-99"/>
        </Node>
      </Node>
    </BinaryTree>
    <BinaryTree type="DecisionTree" boostWeight="1.0000000000000000e+00" itree="162">
      <Node pos="s" depth="0" NCoef="0" IVar="0" Cut="8.0384635925292969e+00" cType="1" res="-3.4462779876776040e-04" rms="3.5577780008316040e-01" purity="4.9937802553176880e-01" nType="0">
        <Node pos="l" depth="1" NCoef="0" IVar="2" Cut="8.8993206024169922e+00" cType="1" res="-2.2012915462255478e-02" rms="4.4221961498260498e-01" purity="3.4852516651153564e-01" nType="0">
          <Node pos="l" depth="2" NCoef="0" IVar="-1" Cut="0.0000000000000000e+00" cType="1" res="-8.1551969051361084e-03" rms="4.3701460957527161e-01" purity="2.9799824953079224e-01" nType="-99"/>
          <Node pos="r" depth="2" NCoef="0" IVar="-1" Cut="0.0000000000000000e+00" cType="1" res="-5.7668110821396112e-04" rms="4.4404721260070801e-01" purity="3.7799304723739624e-01" nType="-99"/>
        </Node>
        <Node pos="r" depth="1" NCoef="0" IVar="9" Cut="3.6931471824645996e+00" cType="1" res="1.5494449762627482e-03" rms="2.2764302790164948e-01" purity="5.1889216899871826e-01" nType="0">
          <Node pos="l" depth="2" NCoef="0" IVar="-1" Cut="0.0000000000000000e+00" cType="1" res="8.3082594210281968e-04" rms="3.3263999223709106e-01" purity="5.5730348825454712e-01" nType="-99"/>
          <Node pos="r" depth="2" NCoef="0" IVar="-1" Cut="0.0000000000000000e+00" cType="1" res="5.0361792091280222e-04" rms="3.6371681094169617e-01" purity="4.3745890259742737e-01" nType="-99"/>
        </Node>
      </Node>
    </BinaryTree>
    <BinaryTree type="DecisionTree" boostWeight="1.0000000000000000e+00" itree="163">
      <Node pos="s" depth="0" NCoef="0" IVar="9" Cut="3.0000000000000000e+00" cType="1" res="-9.2236715136095881e-04" rms="2.3141789436340332e-01" purity="5.0197482109069824e-01" nType="0">
        <Node pos="l" depth="1" NCoef="0" IVar="13" Cut="4.7611959278583527e-02" cType="1" res="1.4767801389098167e-02" rms="3.1378400325775146e-01" purity="6.4007955789566040e-01" nType="0">
          <Node pos="l" depth="2" NCoef="0" IVar="-1" Cut="0.0000000000000000e+00" cType="1" res="-3.0892041977494955e-03" rms="2.9163929820060730e-01" purity="3.6051562428474426e-01" nType="-99"/>
          <Node pos="r" depth="2" NCoef="0" IVar="-1" Cut="0.0000000000000000e+00" cType="1" res="8.1244520843029022e-03" rms="3.2747605443000793e-01" purity="8.3801782131195068e-01" nType="-99"/>
        </Node>
        <Node pos="r" depth="1" NCoef="0" IVar="13" Cut="2.8568962216377258e-01" cType="1" res="-7.3854147922247648e-04" rms="3.5964366793632507e-01" purity="4.7878551483154297e-01" nType="0">
          <Node pos="l" depth="2" NCoef="0" IVar="-1" Cut="0.0000000000000000e+00" cType="1" res="9.6702668815851212e-04" rms="3.5512733459472656e-01" purity="3.8513833284378052e-01" nType="-99"/>
          <Node pos="r" depth="2" NCoef="0" IVar="-1" Cut="0.0000000000000000e+00" cType="1" res="-4.5496257953345776e-03" rms="3.7300425767898560e-01" purity="7.6941084861755371e-01" nType="-99"/>
        </Node>
      </Node>
    </BinaryTree>
    <BinaryTree type="DecisionTree" boostWeight="1.0000000000000000e+00" itree="164">
      <Node pos="s" depth="0" NCoef="0" IVar="5" Cut="8.5991544723510742e+00" cType="1" res="1.9757582340389490e-03" rms="3.5164803266525269e-01" purity="5.0347220897674561e-01" nType="0">
        <Node pos="l" depth="1" NCoef="0" IVar="4" Cut="-4.2339584231376648e-01" cType="1" res="3.5467555280774832e-03" rms="3.4986642003059387e-01" purity="5.0613093376159668e-01" nType="0">
          <Node pos="l" depth="2" NCoef="0" IVar="-1" Cut="0.0000000000000000e+00" cType="1" res="3.4528896212577820e-03" rms="3.3334362506866455e-01" purity="5.6880384683609009e-01" nType="-99"/>
          <Node pos="r" depth="2" NCoef="0" IVar="-1" Cut="0.0000000000000000e+00" cType="1" res="-1.1366957332938910e-03" rms="3.6753746867179871e-01" purity="4.3510708212852478e-01" nType="-99"/>
        </Node>
        <Node pos="r" depth="1" NCoef="0" IVar="-1" Cut="0.0000000000000000e+00" cType="1" res="-9.2883482575416565e-03" rms="3.9853972196578979e-01" purity="4.2376518249511719e-01" nType="-99"/>
      </Node>
    </BinaryTree>
    <BinaryTree type="DecisionTree" boostWeight="1.0000000000000000e+00" itree="165">
      <Node pos="s" depth="0" NCoef="0" IVar="12" Cut="9.0454035997390747e-01" cType="1" res="4.0427251951768994e-04" rms="3.5004401206970215e-01" purity="4.9814498424530029e-01" nType="0">
        <Node pos="l" depth="1" NCoef="0" IVar="1" Cut="5.7079949378967285e+00" cType="1" res="4.2187338694930077e-03" rms="3.8436588644981384e-01" purity="6.4832466840744019e-01" nType="0">
          <Node pos="l" depth="2" NCoef="0" IVar="-1" Cut="0.0000000000000000e+00" cType="1" res="-3.4973330330103636e-03" rms="4.3664053082466125e-01" purity="3.9930319786071777e-01" nType="-99"/>
          <Node pos="r" depth="2" NCoef="0" IVar="-1" Cut="0.0000000000000000e+00" cType="1" res="2.2986757103353739e-03" rms="3.7229374051094055e-01" purity="7.0060342550277710e-01" nType="-99"/>
        </Node>
        <Node pos="r" depth="1" NCoef="0" IVar="1" Cut="6.7149109840393066e+00" cType="1" res="-1.0665723122656345e-02" rms="2.2184333205223083e-01" purity="6.2306758016347885e-02" nType="0">
          <Node pos="l" depth="2" NCoef="0" IVar="-1" Cut="0.0000000000000000e+00" cType="1" res="-2.5210590101778507e-03" rms="2.4955958127975464e-01" purity="7.9402796924114227e-02" nType="-99"/>
          <Node pos="r" depth="2" NCoef="0" IVar="-1" Cut="0.0000000000000000e+00" cType="1" res="-2.9054062440991402e-02" rms="9.9183581769466400e-02" purity="1.1317657306790352e-02" nType="-99"/>
        </Node>
      </Node>
    </BinaryTree>
    <BinaryTree type="DecisionTree" boostWeight="1.0000000000000000e+00" itree="166">
      <Node pos="s" depth="0" NCoef="0" IVar="9" Cut="4.6931471824645996e+00" cType="1" res="6.9941197580192238e-05" rms="2.3215726017951965e-01" purity="5.0103312730789185e-01" nType="0">
        <Node pos="l" depth="1" NCoef="0" IVar="8" Cut="-6.6109555959701538e-01" cType="1" res="1.5027191257104278e-03" rms="3.5343208909034729e-01" purity="5.0106042623519897e-01" nType="0">
          <Node pos="l" depth="2" NCoef="0" IVar="-1" Cut="0.0000000000000000e+00" cType="1" res="2.4096572306007147e-03" rms="4.0937939286231995e-01" purity="5.2612930536270142e-01" nType="-99"/>
          <Node pos="r" depth="2" NCoef="0" IVar="-1" Cut="0.0000000000000000e+00" cType="1" res="3.8143793062772602e-05" rms="3.4944984316825867e-01" purity="4.9943470954895020e-01" nType="-99"/>
        </Node>
        <Node pos="r" depth="1" NCoef="0" IVar="-1" Cut="0.0000000000000000e+00" cType="1" res="-2.3445792496204376e-01" rms="3.3206689357757568e-01" purity="6.1889771372079849e-02" nType="-99"/>
      </Node>
    </BinaryTree>
    <BinaryTree type="DecisionTree" boostWeight="1.0000000000000000e+00" itree="167">
      <Node pos="s" depth="0" NCoef="0" IVar="9" Cut="3.0000000000000000e+00" cType="1" res="-1.5207215910777450e-03" rms="2.2894851863384247e-01" purity="4.9946770071983337e-01" nType="0">
        <Node pos="l" depth="1" NCoef="0" IVar="11" Cut="8.5694217681884766e-01" cType="1" res="8.7109329178929329e-03" rms="3.1656241416931152e-01" purity="6.3312727212905884e-01" nType="0">
          <Node pos="l" depth="2" NCoef="0" IVar="-1" Cut="0.0000000000000000e+00" cType="1" res="-3.4417022834531963e-04" rms="3.5546457767486572e-01" purity="4.6713608503341675e-01" nType="-99"/>
          <Node pos="r" depth="2" NCoef="0" IVar="-1" Cut="0.0000000000000000e+00" cType="1" res="1.4139698818325996e-02" rms="2.2537744045257568e-01" purity="9.4333100318908691e-01" nType="-99"/>
        </Node>
        <Node pos="r" depth="1" NCoef="0" IVar="5" Cut="6.7301278114318848e+00" cType="1" res="-4.5057763345539570e-03" rms="3.5934785008430481e-01" purity="4.7738984227180481e-01" nType="0">
          <Node pos="l" depth="2" NCoef="0" IVar="-1" Cut="0.0000000000000000e+00" cType="1" res="5.7052442571148276e-04" rms="3.6512079834938049e-01" purity="4.9859184026718140e-01" nType="-99"/>
          <Node pos="r" depth="2" NCoef="0" IVar="-1" Cut="0.0000000000000000e+00" cType="1" res="-3.1868352089077234e-03" rms="3.5300722718238831e-01" purity="4.5494928956031799e-01" nType="-99"/>
        </Node>
      </Node>
    </BinaryTree>
    <BinaryTree type="DecisionTree" boostWeight="1.0000000000000000e+00" itree="168">
      <Node pos="s" depth="0" NCoef="0" IVar="0" Cut="8.2575511932373047e+00" cType="1" res="-5.4461113177239895e-04" rms="3.5143250226974487e-01" purity="4.9890634417533875e-01" nType="0">
        <Node pos="l" depth="1" NCoef="0" IVar="12" Cut="7.1421521902084351e-01" cType="1" res="-1.3184029608964920e-02" rms="4.2258265614509583e-01" purity="3.7313005328178406e-01" nType="0">
          <Node pos="l" depth="2" NCoef="0" IVar="-1" Cut="0.0000000000000000e+00" cType="1" res="-9.0006133541464806e-03" rms="4.2650109529495239e-01" purity="5.3273272514343262e-01" nType="-99"/>
          <Node pos="r" depth="2" NCoef="0" IVar="-1" Cut="0.0000000000000000e+00" cType="1" res="1.3484933879226446e-04" rms="4.2001640796661377e-01" purity="2.9791367053985596e-01" nType="-99"/>
        </Node>
        <Node pos="r" depth="1" NCoef="0" IVar="8" Cut="-5.4177129268646240e-01" cType="1" res="2.3869888391345739e-03" rms="3.3269485831260681e-01" purity="5.2807903289794922e-01" nType="0">
          <Node pos="l" depth="2" NCoef="0" IVar="-1" Cut="0.0000000000000000e+00" cType="1" res="3.1155226752161980e-03" rms="3.6891207098960876e-01" purity="5.6302094459533691e-01" nType="-99"/>
          <Node pos="r" depth="2" NCoef="0" IVar="-1" Cut="0.0000000000000000e+00" cType="1" res="9.4653887572349049e-06" rms="3.2877522706985474e-01" purity="5.2459836006164551e-01" nType="-99"/>
        </Node>
      </Node>
    </BinaryTree>
    <BinaryTree type="DecisionTree" boostWeight="1.0000000000000000e+00" itree="169">
      <Node pos="s" depth="0" NCoef="0" IVar="12" Cut="9.5214086771011353e-01" cType="1" res="3.6024588625878096e-03" rms="3.4926694631576538e-01" purity="5.0534254312515259e-01" nType="0">
        <Node pos="l" depth="1" NCoef="0" IVar="0" Cut="8.2562160491943359e+00" cType="1" res="7.1888724341988564e-03" rms="3.7960070371627808e-01" purity="6.1599862575531006e-01" nType="0">
          <Node pos="l" depth="2" NCoef="0" IVar="-1" Cut="0.0000000000000000e+00" cType="1" res="-2.2116200998425484e-03" rms="4.3578588962554932e-01" purity="4.1850709915161133e-01" nType="-99"/>
          <Node pos="r" depth="2" NCoef="0" IVar="-1" Cut="0.0000000000000000e+00" cType="1" res="3.1690229661762714e-03" rms="3.6406284570693970e-01" purity="6.6536229848861694e-01" nType="-99"/>
        </Node>
        <Node pos="r" depth="1" NCoef="0" IVar="1" Cut="5.6900305747985840e+00" cType="1" res="-1.1809146963059902e-02" rms="1.6335882246494293e-01" purity="2.9829462990164757e-02" nType="0">
          <Node pos="l" depth="2" NCoef="0" IVar="-1" Cut="0.0000000000000000e+00" cType="1" res="1.2897210195660591e-02" rms="2.6590001583099365e-01" purity="8.2113169133663177e-02" nType="-99"/>
          <Node pos="r" depth="2" NCoef="0" IVar="-1" Cut="0.0000000000000000e+00" cType="1" res="-1.9199257716536522e-02" rms="1.3048583269119263e-01" purity="1.8676815554499626e-02" nType="-99"/>
        </Node>
      </Node>
    </BinaryTree>
    <BinaryTree type="DecisionTree" boostWeight="1.0000000000000000e+00" itree="170">
      <Node pos="s" depth="0" NCoef="0" IVar="6" Cut="-2.6685199737548828e+00" cType="1" res="-3.6414260976016521e-03" rms="3.5365676879882812e-01" purity="4.9387195706367493e-01" nType="0">
        <Node pos="l" depth="1" NCoef="0" IVar="8" Cut="-5.3910726308822632e-01" cType="1" res="3.4263390116393566e-03" rms="3.3692920207977295e-01" purity="5.7221210002899170e-01" nType="0">
          <Node pos="l" depth="2" NCoef="0" IVar="-1" Cut="0.0000000000000000e+00" cType="1" res="4.3624122627079487e-03" rms="3.7630930542945862e-01" purity="6.1283934116363525e-01" nType="-99"/>
          <Node pos="r" depth="2" NCoef="0" IVar="-1" Cut="0.0000000000000000e+00" cType="1" res="1.0797561844810843e-04" rms="3.3227765560150146e-01" purity="5.6785577535629272e-01" nType="-99"/>
        </Node>
        <Node pos="r" depth="1" NCoef="0" IVar="3" Cut="-6.8344849348068237e-01" cType="1" res="-1.2677215039730072e-02" rms="3.7375935912132263e-01" purity="3.9371800422668457e-01" nType="0">
          <Node pos="l" depth="2" NCoef="0" IVar="-1" Cut="0.0000000000000000e+00" cType="1" res="-1.1093101464211941e-02" rms="3.7079608440399170e-01" purity="5.4212343692779541e-01" nType="-99"/>
          <Node pos="r" depth="2" NCoef="0" IVar="-1" Cut="0.0000000000000000e+00" cType="1" res="-1.5848405892029405e-03" rms="3.7423509359359741e-01" purity="3.5587134957313538e-01" nType="-99"/>
        </Node>
      </Node>
    </BinaryTree>
    <BinaryTree type="DecisionTree" boostWeight="1.0000000000000000e+00" itree="171">
      <Node pos="s" depth="0" NCoef="0" IVar="9" Cut="3.6931471824645996e+00" cType="1" res="-6.9578253896906972e-04" rms="2.2826410830020905e-01" purity="4.9889928102493286e-01" nType="0">
        <Node pos="l" depth="1" NCoef="0" IVar="5" Cut="7.4750766754150391e+00" cType="1" res="-1.6302657313644886e-03" rms="3.4635198116302490e-01" purity="5.3959864377975464e-01" nType="0">
          <Node pos="l" depth="2" NCoef="0" IVar="-1" Cut="0.0000000000000000e+00" cType="1" res="7.4860366294160485e-04" rms="3.4309133887290955e-01" purity="5.5673611164093018e-01" nType="-99"/>
          <Node pos="r" depth="2" NCoef="0" IVar="-1" Cut="0.0000000000000000e+00" cType="1" res="-4.0306621231138706e-03" rms="3.5784912109375000e-01" purity="4.7520613670349121e-01" nType="-99"/>
        </Node>
        <Node pos="r" depth="1" NCoef="0" IVar="3" Cut="-1.2796391248703003e+00" cType="1" res="-1.1007544817402959e-03" rms="3.6467957496643066e-01" purity="4.1291230916976929e-01" nType="0">
          <Node pos="l" depth="2" NCoef="0" IVar="-1" Cut="0.0000000000000000e+00" cType="1" res="1.3567014597356319e-02" rms="3.2544976472854614e-01" purity="6.5879768133163452e-01" nType="-99"/>
          <Node pos="r" depth="2" NCoef="0" IVar="-1" Cut="0.0000000000000000e+00" cType="1" res="-2.1251235157251358e-03" rms="3.6990752816200256e-01" purity="3.7661769986152649e-01" nType="-99"/>
        </Node>
      </Node>
    </BinaryTree>
    <BinaryTree type="DecisionTree" boostWeight="1.0000000000000000e+00" itree="172">
      <Node pos="s" depth="0" NCoef="0" IVar="3" Cut="8.3821737766265869e-01" cType="1" res="1.9841564353555441e-03" rms="3.5057258605957031e-01" purity="5.0156724452972412e-01" nType="0">
        <Node pos="l" depth="1" NCoef="0" IVar="8" Cut="-5.7779413461685181e-01" cType="1" res="6.2457486055791378e-03" rms="3.4649032354354858e-01" purity="5.5007684230804443e-01" nType="0">
          <Node pos="l" depth="2" NCoef="0" IVar="-1" Cut="0.0000000000000000e+00" cType="1" res="4.3035666458308697e-03" rms="4.0175309777259827e-01" purity="5.8663952350616455e-01" nType="-99"/>
          <Node pos="r" depth="2" NCoef="0" IVar="-1" Cut="0.0000000000000000e+00" cType="1" res="1.2809351319447160e-03" rms="3.4068500995635986e-01" purity="5.4661917686462402e-01" nType="-99"/>
        </Node>
        <Node pos="r" depth="1" NCoef="0" IVar="11" Cut="4.7605630755424500e-01" cType="1" res="-1.2283122166991234e-02" rms="3.6354297399520874e-01" purity="3.3916327357292175e-01" nType="0">
          <Node pos="l" depth="2" NCoef="0" IVar="-1" Cut="0.0000000000000000e+00" cType="1" res="-5.4437243379652500e-03" rms="3.3680638670921326e-01" purity="1.7928539216518402e-01" nType="-99"/>
          <Node pos="r" depth="2" NCoef="0" IVar="-1" Cut="0.0000000000000000e+00" cType="1" res="1.4937818050384521e-03" rms="4.2320543527603149e-01" purity="7.4442034959793091e-01" nType="-99"/>
        </Node>
      </Node>
    </BinaryTree>
    <BinaryTree type="DecisionTree" boostWeight="1.0000000000000000e+00" itree="173">
      <Node pos="s" depth="0" NCoef="0" IVar="0" Cut="9.7845430374145508e+00" cType="1" res="5.9610106982290745e-03" rms="3.4999191761016846e-01" purity="5.0784051418304443e-01" nType="0">
        <Node pos="l" depth="1" NCoef="0" IVar="5" Cut="7.2363514900207520e+00" cType="1" res="1.9804392941296101e-03" rms="3.5696759819984436e-01" purity="4.7946837544441223e-01" nType="0">
          <Node pos="l" depth="2" NCoef="0" IVar="-1" Cut="0.0000000000000000e+00" cType="1" res="1.5823098365217447e-03" rms="3.5923016071319580e-01" purity="4.9192929267883301e-01" nType="-99"/>
          <Node pos="r" depth="2" NCoef="0" IVar="-1" Cut="0.0000000000000000e+00" cType="1" res="-5.2924561314284801e-03" rms="3.4358358383178711e-01" purity="4.1057157516479492e-01" nType="-99"/>
        </Node>
        <Node pos="r" depth="1" NCoef="0" IVar="12" Cut="8.0887347459793091e-01" cType="1" res="1.7927344888448715e-02" rms="3.2783907651901245e-01" purity="5.9313231706619263e-01" nType="0">
          <Node pos="l" depth="2" NCoef="0" IVar="-1" Cut="0.0000000000000000e+00" cType="1" res="6.3101626001298428e-03" rms="3.5427275300025940e-01" purity="7.4604332447052002e-01" nType="-99"/>
          <Node pos="r" depth="2" NCoef="0" IVar="-1" Cut="0.0000000000000000e+00" cType="1" res="-8.5910679772496223e-03" rms="2.0950485765933990e-01" purity="6.4860098063945770e-02" nType="-99"/>
        </Node>
      </Node>
    </BinaryTree>
    <BinaryTree type="DecisionTree" boostWeight="1.0000000000000000e+00" itree="174">
      <Node pos="s" depth="0" NCoef="0" IVar="1" Cut="5.2594032287597656e+00" cType="1" res="1.6199713572859764e-03" rms="3.4920662641525269e-01" purity="5.0375795364379883e-01" nType="0">
        <Node pos="l" depth="1" NCoef="0" IVar="4" Cut="-8.3746157586574554e-02" cType="1" res="-2.5789272040128708e-02" rms="3.9981198310852051e-01" purity="2.5915390253067017e-01" nType="0">
          <Node pos="l" depth="2" NCoef="0" IVar="-1" Cut="0.0000000000000000e+00" cType="1" res="-8.9544076472520828e-03" rms="4.0386256575584412e-01" purity="2.5483006238937378e-01" nType="-99"/>
          <Node pos="r" depth="2" NCoef="0" IVar="-1" Cut="0.0000000000000000e+00" cType="1" res="-8.6621509399265051e-04" rms="3.9359745383262634e-01" purity="2.6452046632766724e-01" nType="-99"/>
        </Node>
        <Node pos="r" depth="1" NCoef="0" IVar="12" Cut="9.5214086771011353e-01" cType="1" res="3.7156469188630581e-03" rms="3.4494248032569885e-01" purity="5.2246004343032837e-01" nType="0">
          <Node pos="l" depth="2" NCoef="0" IVar="-1" Cut="0.0000000000000000e+00" cType="1" res="1.9389349035918713e-03" rms="3.7692517042160034e-01" purity="6.4244526624679565e-01" nType="-99"/>
          <Node pos="r" depth="2" NCoef="0" IVar="-1" Cut="0.0000000000000000e+00" cType="1" res="-1.2398006394505501e-02" rms="1.5241791307926178e-01" purity="2.6455473154783249e-02" nType="-99"/>
        </Node>
      </Node>
    </BinaryTree>
    <BinaryTree type="DecisionTree" boostWeight="1.0000000000000000e+00" itree="175">
      <Node pos="s" depth="0" NCoef="0" IVar="4" Cut="-1.6527682542800903e+00" cType="1" res="7.9442921560257673e-04" rms="3.5177648067474365e-01" purity="5.0138121843338013e-01" nType="0">
        <Node pos="l" depth="1" NCoef="0" IVar="5" Cut="6.8530712127685547e+00" cType="1" res="1.4838373288512230e-02" rms="3.2315284013748169e-01" purity="5.9300339221954346e-01" nType="0">
          <Node pos="l" depth="2" NCoef="0" IVar="-1" Cut="0.0000000000000000e+00" cType="1" res="9.9682668223977089e-03" rms="3.2040667533874512e-01" purity="6.3094991445541382e-01" nType="-99"/>
          <Node pos="r" depth="2" NCoef="0" IVar="-1" Cut="0.0000000000000000e+00" cType="1" res="-7.1399589069187641e-03" rms="3.2803851366043091e-01" purity="4.8802915215492249e-01" nType="-99"/>
        </Node>
        <Node pos="r" depth="1" NCoef="0" IVar="7" Cut="1.5567166805267334e+00" cType="1" res="-2.1066605113446712e-03" rms="3.5733497142791748e-01" purity="4.8245462775230408e-01" nType="0">
          <Node pos="l" depth="2" NCoef="0" IVar="-1" Cut="0.0000000000000000e+00" cType="1" res="-2.4976526037789881e-04" rms="3.5737395286560059e-01" purity="4.9140748381614685e-01" nType="-99"/>
          <Node pos="r" depth="2" NCoef="0" IVar="-1" Cut="0.0000000000000000e+00" cType="1" res="-1.1432615108788013e-02" rms="3.5441491007804871e-01" purity="2.2448930144309998e-01" nType="-99"/>
        </Node>
      </Node>
    </BinaryTree>
    <BinaryTree type="DecisionTree" boostWeight="1.0000000000000000e+00" itree="176">
      <Node pos="s" depth="0" NCoef="0" IVar="9" Cut="3.6931471824645996e+00" cType="1" res="-9.8288478329777718e-04" rms="2.2868514060974121e-01" purity="4.9974107742309570e-01" nType="0">
        <Node pos="l" depth="1" NCoef="0" IVar="5" Cut="7.5953054428100586e+00" cType="1" res="1.9210876198485494e-03" rms="3.4166052937507629e-01" purity="5.3942137956619263e-01" nType="0">
          <Node pos="l" depth="2" NCoef="0" IVar="-1" Cut="0.0000000000000000e+00" cType="1" res="1.4848430873826146e-03" rms="3.3723878860473633e-01" purity="5.5263900756835938e-01" nType="-99"/>
          <Node pos="r" depth="2" NCoef="0" IVar="-1" Cut="0.0000000000000000e+00" cType="1" res="-3.3161223400384188e-03" rms="3.6122429370880127e-01" purity="4.7734174132347107e-01" nType="-99"/>
        </Node>
        <Node pos="r" depth="1" NCoef="0" IVar="0" Cut="9.1322364807128906e+00" cType="1" res="7.3337857611477375e-04" rms="3.6471083760261536e-01" purity="4.1654288768768311e-01" nType="0">
          <Node pos="l" depth="2" NCoef="0" IVar="-1" Cut="0.0000000000000000e+00" cType="1" res="-2.1317130886018276e-03" rms="3.7842273712158203e-01" purity="3.5270535945892334e-01" nType="-99"/>
          <Node pos="r" depth="2" NCoef="0" IVar="-1" Cut="0.0000000000000000e+00" cType="1" res="3.1892750412225723e-03" rms="3.4867861866950989e-01" purity="4.8759412765502930e-01" nType="-99"/>
        </Node>
      </Node>
    </BinaryTree>
    <BinaryTree type="DecisionTree" boostWeight="1.0000000000000000e+00" itree="177">
      <Node pos="s" depth="0" NCoef="0" IVar="9" Cut="3.6931471824645996e+00" cType="1" res="-1.4163220766931772e-03" rms="2.2818310558795929e-01" purity="5.0017255544662476e-01" nType="0">
        <Node pos="l" depth="1" NCoef="0" IVar="6" Cut="-2.3630335330963135e+00" cType="1" res="-2.4986560456454754e-03" rms="3.4226012229919434e-01" purity="5.3915220499038696e-01" nType="0">
          <Node pos="l" depth="2" NCoef="0" IVar="-1" Cut="0.0000000000000000e+00" cType="1" res="1.1375932954251766e-03" rms="3.2950380444526672e-01" purity="6.0799050331115723e-01" nType="-99"/>
          <Node pos="r" depth="2" NCoef="0" IVar="-1" Cut="0.0000000000000000e+00" cType="1" res="-3.6205309443175793e-03" rms="3.6683252453804016e-01" purity="3.9694648981094360e-01" nType="-99"/>
        </Node>
        <Node pos="r" depth="1" NCoef="0" IVar="8" Cut="-3.2539129257202148e-01" cType="1" res="5.0243223085999489e-03" rms="3.6870741844177246e-01" purity="4.1717630624771118e-01" nType="0">
          <Node pos="l" depth="2" NCoef="0" IVar="-1" Cut="0.0000000000000000e+00" cType="1" res="6.4852396026253700e-03" rms="3.9058473706245422e-01" purity="4.3077170848846436e-01" nType="-99"/>
          <Node pos="r" depth="2" NCoef="0" IVar="-1" Cut="0.0000000000000000e+00" cType="1" res="-5.2774936193600297e-04" rms="3.6262360215187073e-01" purity="4.1368606686592102e-01" nType="-99"/>
        </Node>
      </Node>
    </BinaryTree>
    <BinaryTree type="DecisionTree" boostWeight="1.0000000000000000e+00" itree="178">
      <Node pos="s" depth="0" NCoef="0" IVar="11" Cut="9.0459990501403809e-01" cType="1" res="-1.2521214084699750e-03" rms="3.5281869769096375e-01" purity="5.0246495008468628e-01" nType="0">
        <Node pos="l" depth="1" NCoef="0" IVar="13" Cut="8.0945384502410889e-01" cType="1" res="-5.0891004502773285e-03" rms="3.6792290210723877e-01" purity="3.9658132195472717e-01" nType="0">
          <Node pos="l" depth="2" NCoef="0" IVar="-1" Cut="0.0000000000000000e+00" cType="1" res="-9.0572080807760358e-04" rms="3.6758863925933838e-01" purity="3.8989186286926270e-01" nType="-99"/>
          <Node pos="r" depth="2" NCoef="0" IVar="-1" Cut="0.0000000000000000e+00" cType="1" res="-1.7465041950345039e-02" rms="3.7409204244613647e-01" purity="5.7514625787734985e-01" nType="-99"/>
        </Node>
        <Node pos="r" depth="1" NCoef="0" IVar="8" Cut="-1.9095396995544434e-01" cType="1" res="1.3103086501359940e-02" rms="2.8894889354705811e-01" purity="8.9860498905181885e-01" nType="0">
          <Node pos="l" depth="2" NCoef="0" IVar="-1" Cut="0.0000000000000000e+00" cType="1" res="8.7011493742465973e-03" rms="2.7504232525825500e-01" purity="9.1092061996459961e-01" nType="-99"/>
          <Node pos="r" depth="2" NCoef="0" IVar="-1" Cut="0.0000000000000000e+00" cType="1" res="3.2525141723453999e-03" rms="2.9432600736618042e-01" purity="8.9344328641891479e-01" nType="-99"/>
        </Node>
      </Node>
    </BinaryTree>
    <BinaryTree type="DecisionTree" boostWeight="1.0000000000000000e+00" itree="179">
      <Node pos="s" depth="0" NCoef="0" IVar="9" Cut="4.6931471824645996e+00" cType="1" res="-1.2167472159489989e-03" rms="2.2761163115501404e-01" purity="5.0008213520050049e-01" nType="0">
        <Node pos="l" depth="1" NCoef="0" IVar="0" Cut="9.7905158996582031e+00" cType="1" res="-1.4901022041158285e-05" rms="3.4844419360160828e-01" purity="5.0011819601058960e-01" nType="0">
          <Node pos="l" depth="2" NCoef="0" IVar="-1" Cut="0.0000000000000000e+00" cType="1" res="-9.8430295474827290e-04" rms="3.5547730326652527e-01" purity="4.7263079881668091e-01" nType="-99"/>
          <Node pos="r" depth="2" NCoef="0" IVar="-1" Cut="0.0000000000000000e+00" cType="1" res="2.6241077575832605e-03" rms="3.2605987787246704e-01" purity="5.8322924375534058e-01" nType="-99"/>
        </Node>
        <Node pos="r" depth="1" NCoef="0" IVar="-1" Cut="0.0000000000000000e+00" cType="1" res="3.5661403089761734e-02" rms="4.1394725441932678e-01" purity="1.7538742721080780e-01" nType="-99"/>
      </Node>
    </BinaryTree>
    <BinaryTree type="DecisionTree" boostWeight="1.0000000000000000e+00" itree="180">
      <Node pos="s" depth="0" NCoef="0" IVar="1" Cut="4.9774060249328613e+00" cType="1" res="-3.7265161518007517e-03" rms="3.5356998443603516e-01" purity="4.9864110350608826e-01" nType="0">
        <Node pos="l" depth="1" NCoef="0" IVar="-1" Cut="0.0000000000000000e+00" cType="1" res="-8.0942977219820023e-03" rms="4.0529182553291321e-01" purity="2.2297732532024384e-01" nType="-99"/>
        <Node pos="r" depth="1" NCoef="0" IVar="9" Cut="4.6931471824645996e+00" cType="1" res="-8.9276506332680583e-04" rms="2.2383342683315277e-01" purity="5.0829350948333740e-01" nType="0">
          <Node pos="l" depth="2" NCoef="0" IVar="-1" Cut="0.0000000000000000e+00" cType="1" res="-7.5158162508159876e-04" rms="3.5153469443321228e-01" purity="5.0830566883087158e-01" nType="-99"/>
          <Node pos="r" depth="2" NCoef="0" IVar="-1" Cut="0.0000000000000000e+00" cType="1" res="1.5380363166332245e-01" rms="5.0686001777648926e-01" purity="3.8574692606925964e-01" nType="-99"/>
        </Node>
      </Node>
    </BinaryTree>
    <BinaryTree type="DecisionTree" boostWeight="1.0000000000000000e+00" itree="181">
      <Node pos="s" depth="0" NCoef="0" IVar="5" Cut="8.5496397018432617e+00" cType="1" res="6.4241688232868910e-04" rms="3.5387358069419861e-01" purity="5.0092232227325439e-01" nType="0">
        <Node pos="l" depth="1" NCoef="0" IVar="8" Cut="-6.1795169115066528e-01" cType="1" res="2.0155985839664936e-03" rms="3.5201191902160645e-01" purity="5.0315940380096436e-01" nType="0">
          <Node pos="l" depth="2" NCoef="0" IVar="-1" Cut="0.0000000000000000e+00" cType="1" res="3.0960075091570616e-03" rms="4.2153304815292358e-01" purity="5.4799592494964600e-01" nType="-99"/>
          <Node pos="r" depth="2" NCoef="0" IVar="-1" Cut="0.0000000000000000e+00" cType="1" res="-9.9319595392444171e-06" rms="3.4571343660354614e-01" purity="4.9954217672348022e-01" nType="-99"/>
        </Node>
        <Node pos="r" depth="1" NCoef="0" IVar="-1" Cut="0.0000000000000000e+00" cType="1" res="-7.2525795549154282e-03" rms="3.9864003658294678e-01" purity="4.4120022654533386e-01" nType="-99"/>
      </Node>
    </BinaryTree>
    <BinaryTree type="DecisionTree" boostWeight="1.0000000000000000e+00" itree="182">
      <Node pos="s" depth="0" NCoef="0" IVar="5" Cut="7.6898860931396484e+00" cType="1" res="-7.3313311440870166e-04" rms="3.5222268104553223e-01" purity="4.9840509891510010e-01" nType="0">
        <Node pos="l" depth="1" NCoef="0" IVar="4" Cut="-4.2339584231376648e-01" cType="1" res="2.9699723236262798e-03" rms="3.4897696971893311e-01" purity="5.0947564840316772e-01" nType="0">
          <Node pos="l" depth="2" NCoef="0" IVar="-1" Cut="0.0000000000000000e+00" cType="1" res="3.1462523620575666e-03" rms="3.3257648348808289e-01" purity="5.7062971591949463e-01" nType="-99"/>
          <Node pos="r" depth="2" NCoef="0" IVar="-1" Cut="0.0000000000000000e+00" cType="1" res="-1.3664921279996634e-03" rms="3.6841547489166260e-01" purity="4.3253275752067566e-01" nType="-99"/>
        </Node>
        <Node pos="r" depth="1" NCoef="0" IVar="12" Cut="2.8561663627624512e-01" cType="1" res="-2.0162990316748619e-02" rms="3.6817479133605957e-01" purity="4.4031861424446106e-01" nType="0">
          <Node pos="l" depth="2" NCoef="0" IVar="-1" Cut="0.0000000000000000e+00" cType="1" res="-9.7382171079516411e-03" rms="4.0372633934020996e-01" purity="6.7135626077651978e-01" nType="-99"/>
          <Node pos="r" depth="2" NCoef="0" IVar="-1" Cut="0.0000000000000000e+00" cType="1" res="-1.0023402282968163e-03" rms="3.3402264118194580e-01" purity="2.4329723417758942e-01" nType="-99"/>
        </Node>
      </Node>
    </BinaryTree>
    <BinaryTree type="DecisionTree" boostWeight="1.0000000000000000e+00" itree="183">
      <Node pos="s" depth="0" NCoef="0" IVar="0" Cut="9.5696773529052734e+00" cType="1" res="2.9414258897304535e-03" rms="3.5142692923545837e-01" purity="5.0504899024963379e-01" nType="0">
        <Node pos="l" depth="1" NCoef="0" IVar="6" Cut="-1.0661845207214355e+00" cType="1" res="-2.9427118133753538e-03" rms="3.6377155780792236e-01" purity="4.6643391251564026e-01" nType="0">
          <Node pos="l" depth="2" NCoef="0" IVar="-1" Cut="0.0000000000000000e+00" cType="1" res="-2.0040797244291753e-04" rms="3.6258569359779358e-01" purity="4.8685035109519958e-01" nType="-99"/>
          <Node pos="r" depth="2" NCoef="0" IVar="-1" Cut="0.0000000000000000e+00" cType="1" res="-7.1775745600461960e-03" rms="3.7587749958038330e-01" purity="2.3759774863719940e-01" nType="-99"/>
        </Node>
        <Node pos="r" depth="1" NCoef="0" IVar="12" Cut="9.5186662673950195e-01" cType="1" res="1.5495865605771542e-02" rms="3.2315945625305176e-01" purity="5.8743834495544434e-01" nType="0">
          <Node pos="l" depth="2" NCoef="0" IVar="-1" Cut="0.0000000000000000e+00" cType="1" res="5.2397414110600948e-03" rms="3.4786784648895264e-01" purity="6.9094216823577881e-01" nType="-99"/>
          <Node pos="r" depth="2" NCoef="0" IVar="-1" Cut="0.0000000000000000e+00" cType="1" res="-1.9871586933732033e-02" rms="1.0572183877229691e-01" purity="1.1886846274137497e-02" nType="-99"/>
        </Node>
      </Node>
    </BinaryTree>
    <BinaryTree type="DecisionTree" boostWeight="1.0000000000000000e+00" itree="184">
      <Node pos="s" depth="0" NCoef="0" IVar="7" Cut="1.2964558601379395e+00" cType="1" res="1.1023913975805044e-03" rms="3.4987923502922058e-01" purity="5.0130671262741089e-01" nType="0">
        <Node pos="l" depth="1" NCoef="0" IVar="9" Cut="4.6931471824645996e+00" cType="1" res="1.8928847275674343e-03" rms="2.2880010306835175e-01" purity="5.1398390531539917e-01" nType="0">
          <Node pos="l" depth="2" NCoef="0" IVar="-1" Cut="0.0000000000000000e+00" cType="1" res="8.1509153824299574e-04" rms="3.5054376721382141e-01" purity="5.1402330398559570e-01" nType="-99"/>
          <Node pos="r" depth="2" NCoef="0" IVar="-1" Cut="0.0000000000000000e+00" cType="1" res="2.0223971456289291e-02" rms="4.8621225357055664e-01" purity="2.4630874395370483e-01" nType="-99"/>
        </Node>
        <Node pos="r" depth="1" NCoef="0" IVar="-1" Cut="0.0000000000000000e+00" cType="1" res="-9.5004430040717125e-03" rms="3.3522132039070129e-01" purity="2.6495134830474854e-01" nType="-99"/>
      </Node>
    </BinaryTree>
    <BinaryTree type="DecisionTree" boostWeight="1.0000000000000000e+00" itree="185">
      <Node pos="s" depth="0" NCoef="0" IVar="5" Cut="7.2339859008789062e+00" cType="1" res="1.1197851272299886e-03" rms="3.5001343488693237e-01" purity="5.0093013048171997e-01" nType="0">
        <Node pos="l" depth="1" NCoef="0" IVar="9" Cut="4.0000000000000000e+00" cType="1" res="2.4639390176162124e-04" rms="2.6469954848289490e-01" purity="5.2065473794937134e-01" nType="0">
          <Node pos="l" depth="2" NCoef="0" IVar="-1" Cut="0.0000000000000000e+00" cType="1" res="2.9025308322161436e-03" rms="3.4713742136955261e-01" purity="5.3426575660705566e-01" nType="-99"/>
          <Node pos="r" depth="2" NCoef="0" IVar="-1" Cut="0.0000000000000000e+00" cType="1" res="-1.6415908932685852e-02" rms="3.7119486927986145e-01" purity="3.7799379229545593e-01" nType="-99"/>
        </Node>
        <Node pos="r" depth="1" NCoef="0" IVar="4" Cut="-1.4902882575988770e+00" cType="1" res="-1.2724830769002438e-02" rms="3.5101366043090820e-01" purity="4.5212790369987488e-01" nType="0">
          <Node pos="l" depth="2" NCoef="0" IVar="-1" Cut="0.0000000000000000e+00" cType="1" res="-1.3013434596359730e-02" rms="3.4969213604927063e-01" purity="4.8001125454902649e-01" nType="-99"/>
          <Node pos="r" depth="2" NCoef="0" IVar="-1" Cut="0.0000000000000000e+00" cType="1" res="-2.3639691062271595e-03" rms="3.5096195340156555e-01" purity="4.4880148768424988e-01" nType="-99"/>
        </Node>
      </Node>
    </BinaryTree>
    <BinaryTree type="DecisionTree" boostWeight="1.0000000000000000e+00" itree="186">
      <Node pos="s" depth="0" NCoef="0" IVar="9" Cut="3.6931471824645996e+00" cType="1" res="1.1540934210643172e-03" rms="2.2872981429100037e-01" purity="5.0532060861587524e-01" nType="0">
        <Node pos="l" depth="1" NCoef="0" IVar="5" Cut="6.8181629180908203e+00" cType="1" res="2.7414367068558931e-03" rms="3.4302201867103577e-01" purity="5.4308372735977173e-01" nType="0">
          <Node pos="l" depth="2" NCoef="0" IVar="-1" Cut="0.0000000000000000e+00" cType="1" res="2.5403052568435669e-03" rms="3.4961944818496704e-01" purity="5.7060652971267700e-01" nType="-99"/>
          <Node pos="r" depth="2" NCoef="0" IVar="-1" Cut="0.0000000000000000e+00" cType="1" res="-1.5387800522148609e-03" rms="3.3428481221199036e-01" purity="5.0828433036804199e-01" nType="-99"/>
        </Node>
        <Node pos="r" depth="1" NCoef="0" IVar="12" Cut="9.0431022644042969e-01" cType="1" res="6.7016435787081718e-03" rms="3.6751878261566162e-01" purity="4.2557421326637268e-01" nType="0">
          <Node pos="l" depth="2" NCoef="0" IVar="-1" Cut="0.0000000000000000e+00" cType="1" res="3.7968114484101534e-03" rms="4.1042676568031311e-01" purity="5.6177765130996704e-01" nType="-99"/>
          <Node pos="r" depth="2" NCoef="0" IVar="-1" Cut="0.0000000000000000e+00" cType="1" res="-7.9715251922607422e-03" rms="2.0697593688964844e-01" purity="5.0429049879312515e-02" nType="-99"/>
        </Node>
      </Node>
    </BinaryTree>
    <BinaryTree type="DecisionTree" boostWeight="1.0000000000000000e+00" itree="187">
      <Node pos="s" depth="0" NCoef="0" IVar="13" Cut="2.8568959236145020e-01" cType="1" res="-7.3248805711045861e-04" rms="3.5393950343132019e-01" purity="4.9754890799522400e-01" nType="0">
        <Node pos="l" depth="1" NCoef="0" IVar="5" Cut="7.6040072441101074e+00" cType="1" res="2.6880984660238028e-03" rms="3.5225057601928711e-01" purity="4.0426555275917053e-01" nType="0">
          <Node pos="l" depth="2" NCoef="0" IVar="-1" Cut="0.0000000000000000e+00" cType="1" res="1.6436063451692462e-03" rms="3.5308903455734253e-01" purity="4.0077966451644897e-01" nType="-99"/>
          <Node pos="r" depth="2" NCoef="0" IVar="-1" Cut="0.0000000000000000e+00" cType="1" res="-2.7543595060706139e-03" rms="3.4832951426506042e-01" purity="4.1915965080261230e-01" nType="-99"/>
        </Node>
        <Node pos="r" depth="1" NCoef="0" IVar="11" Cut="6.6596144437789917e-01" cType="1" res="-1.1174308136105537e-02" rms="3.5884433984756470e-01" purity="7.8230959177017212e-01" nType="0">
          <Node pos="l" depth="2" NCoef="0" IVar="-1" Cut="0.0000000000000000e+00" cType="1" res="-1.1906269937753677e-02" rms="3.9843574166297913e-01" purity="5.8497262001037598e-01" nType="-99"/>
          <Node pos="r" depth="2" NCoef="0" IVar="-1" Cut="0.0000000000000000e+00" cType="1" res="-3.9040416595526040e-04" rms="3.4526517987251282e-01" purity="8.4233409166336060e-01" nType="-99"/>
        </Node>
      </Node>
    </BinaryTree>
    <BinaryTree type="DecisionTree" boostWeight="1.0000000000000000e+00" itree="188">
      <Node pos="s" depth="0" NCoef="0" IVar="0" Cut="9.7905235290527344e+00" cType="1" res="-1.4441467355936766e-03" rms="3.5274195671081543e-01" purity="4.9965846538543701e-01" nType="0">
        <Node pos="l" depth="1" NCoef="0" IVar="4" Cut="-1.3950147628784180e+00" cType="1" res="-5.0226398743689060e-03" rms="3.5814610123634338e-01" purity="4.7122779488563538e-01" nType="0">
          <Node pos="l" depth="2" NCoef="0" IVar="-1" Cut="0.0000000000000000e+00" cType="1" res="2.0779389888048172e-03" rms="3.4137412905693054e-01" purity="5.4789930582046509e-01" nType="-99"/>
          <Node pos="r" depth="2" NCoef="0" IVar="-1" Cut="0.0000000000000000e+00" cType="1" res="-2.3869797587394714e-03" rms="3.6273449659347534e-01" purity="4.4931352138519287e-01" nType="-99"/>
        </Node>
        <Node pos="r" depth="1" NCoef="0" IVar="13" Cut="2.8568962216377258e-01" cType="1" res="9.1456202790141106e-03" rms="3.3601796627044678e-01" purity="5.8379280567169189e-01" nType="0">
          <Node pos="l" depth="2" NCoef="0" IVar="-1" Cut="0.0000000000000000e+00" cType="1" res="4.9025113694369793e-03" rms="3.2745587825775146e-01" purity="5.7183432579040527e-01" nType="-99"/>
          <Node pos="r" depth="2" NCoef="0" IVar="-1" Cut="0.0000000000000000e+00" cType="1" res="-8.9618591591715813e-03" rms="3.6741489171981812e-01" purity="6.3451874256134033e-01" nType="-99"/>
        </Node>
      </Node>
    </BinaryTree>
    <BinaryTree type="DecisionTree" boostWeight="1.0000000000000000e+00" itree="189">
      <Node pos="s" depth="0" NCoef="0" IVar="0" Cut="1.0881433486938477e+01" cType="1" res="-3.9617749862372875e-03" rms="3.5242524743080139e-01" purity="4.9331986904144287e-01" nType="0">
        <Node pos="l" depth="1" NCoef="0" IVar="5" Cut="7.1560955047607422e+00" cType="1" res="-5.1459455862641335e-03" rms="3.5053488612174988e-01" purity="4.9012196063995361e-01" nType="0">
          <Node pos="l" depth="2" NCoef="0" IVar="-1" Cut="0.0000000000000000e+00" cType="1" res="-2.5905494112521410e-04" rms="3.5430949926376343e-01" purity="5.1045167446136475e-01" nType="-99"/>
          <Node pos="r" depth="2" NCoef="0" IVar="-1" Cut="0.0000000000000000e+00" cType="1" res="-4.3292958289384842e-03" rms="3.4081542491912842e-01" purity="4.3998041749000549e-01" nType="-99"/>
        </Node>
        <Node pos="r" depth="1" NCoef="0" IVar="-1" Cut="0.0000000000000000e+00" cType="1" res="5.6263264268636703e-03" rms="4.0027669072151184e-01" purity="5.8273112773895264e-01" nType="-99"/>
      </Node>
    </BinaryTree>
    <BinaryTree type="DecisionTree" boostWeight="1.0000000000000000e+00" itree="190">
      <Node pos="s" depth="0" NCoef="0" IVar="0" Cut="9.5714378356933594e+00" cType="1" res="5.5826549214543775e-05" rms="3.5201972723007202e-01" purity="4.9791255593299866e-01" nType="0">
        <Node pos="l" depth="1" NCoef="0" IVar="4" Cut="-7.4624651670455933e-01" cType="1" res="-4.0433388203382492e-03" rms="3.6191058158874512e-01" purity="4.6315604448318481e-01" nType="0">
          <Node pos="l" depth="2" NCoef="0" IVar="-1" Cut="0.0000000000000000e+00" cType="1" res="1.5392167260870337e-03" rms="3.4792897105216980e-01" purity="5.2576106786727905e-01" nType="-99"/>
          <Node pos="r" depth="2" NCoef="0" IVar="-1" Cut="0.0000000000000000e+00" cType="1" res="-2.7775706257671118e-03" rms="3.7101992964744568e-01" purity="4.2047563195228577e-01" nType="-99"/>
        </Node>
        <Node pos="r" depth="1" NCoef="0" IVar="13" Cut="6.1899411678314209e-01" cType="1" res="8.9322766289114952e-03" rms="3.2941132783889771e-01" purity="5.7317531108856201e-01" nType="0">
          <Node pos="l" depth="2" NCoef="0" IVar="-1" Cut="0.0000000000000000e+00" cType="1" res="3.6895636003464460e-03" rms="3.2609185576438904e-01" purity="5.7505512237548828e-01" nType="-99"/>
          <Node pos="r" depth="2" NCoef="0" IVar="-1" Cut="0.0000000000000000e+00" cType="1" res="-1.4965339563786983e-02" rms="3.5788881778717041e-01" purity="5.5363208055496216e-01" nType="-99"/>
        </Node>
      </Node>
    </BinaryTree>
    <BinaryTree type="DecisionTree" boostWeight="1.0000000000000000e+00" itree="191">
      <Node pos="s" depth="0" NCoef="0" IVar="9" Cut="3.6931471824645996e+00" cType="1" res="3.6889416514895856e-04" rms="2.3087371885776520e-01" purity="5.0380080938339233e-01" nType="0">
        <Node pos="l" depth="1" NCoef="0" IVar="12" Cut="4.2843547463417053e-01" cType="1" res="3.0101165175437927e-03" rms="3.4797722101211548e-01" purity="5.4482948780059814e-01" nType="0">
          <Node pos="l" depth="2" NCoef="0" IVar="-1" Cut="0.0000000000000000e+00" cType="1" res="-2.2778983693569899e-03" rms="3.2964286208152771e-01" purity="8.2739746570587158e-01" nType="-99"/>
          <Node pos="r" depth="2" NCoef="0" IVar="-1" Cut="0.0000000000000000e+00" cType="1" res="2.6112229097634554e-03" rms="3.6270189285278320e-01" purity="3.0311137437820435e-01" nType="-99"/>
        </Node>
        <Node pos="r" depth="1" NCoef="0" IVar="13" Cut="1.4282757043838501e-01" cType="1" res="8.1377552123740315e-04" rms="3.6542570590972900e-01" purity="4.1703650355339050e-01" nType="0">
          <Node pos="l" depth="2" NCoef="0" IVar="-1" Cut="0.0000000000000000e+00" cType="1" res="-1.6932385042309761e-03" rms="3.4571206569671631e-01" purity="2.7401855587959290e-01" nType="-99"/>
          <Node pos="r" depth="2" NCoef="0" IVar="-1" Cut="0.0000000000000000e+00" cType="1" res="3.8559050299227238e-03" rms="4.0370070934295654e-01" purity="7.1897900104522705e-01" nType="-99"/>
        </Node>
      </Node>
    </BinaryTree>
    <BinaryTree type="DecisionTree" boostWeight="1.0000000000000000e+00" itree="192">
      <Node pos="s" depth="0" NCoef="0" IVar="0" Cut="9.1336421966552734e+00" cType="1" res="-1.1995295062661171e-03" rms="3.5075259208679199e-01" purity="4.9992400407791138e-01" nType="0">
        <Node pos="l" depth="1" NCoef="0" IVar="6" Cut="-1.6344059705734253e+00" cType="1" res="-7.1973027661442757e-03" rms="3.7534353137016296e-01" purity="4.3661683797836304e-01" nType="0">
          <Node pos="l" depth="2" NCoef="0" IVar="-1" Cut="0.0000000000000000e+00" cType="1" res="-9.8649505525827408e-04" rms="3.6992263793945312e-01" purity="4.7269347310066223e-01" nType="-99"/>
          <Node pos="r" depth="2" NCoef="0" IVar="-1" Cut="0.0000000000000000e+00" cType="1" res="-5.9817587025463581e-03" rms="3.9922305941581726e-01" purity="2.6815038919448853e-01" nType="-99"/>
        </Node>
        <Node pos="r" depth="1" NCoef="0" IVar="12" Cut="9.0446996688842773e-01" cType="1" res="5.1571452058851719e-03" rms="3.2252907752990723e-01" purity="5.6701940298080444e-01" nType="0">
          <Node pos="l" depth="2" NCoef="0" IVar="-1" Cut="0.0000000000000000e+00" cType="1" res="2.5298728141933680e-03" rms="3.5450276732444763e-01" purity="7.2027361392974854e-01" nType="-99"/>
          <Node pos="r" depth="2" NCoef="0" IVar="-1" Cut="0.0000000000000000e+00" cType="1" res="-1.0117179714143276e-02" rms="1.6810227930545807e-01" purity="3.2994907349348068e-02" nType="-99"/>
        </Node>
      </Node>
    </BinaryTree>
    <BinaryTree type="DecisionTree" boostWeight="1.0000000000000000e+00" itree="193">
      <Node pos="s" depth="0" NCoef="0" IVar="0" Cut="1.0881928443908691e+01" cType="1" res="-1.1162434238940477e-03" rms="3.5257637500762939e-01" purity="4.9877515435218811e-01" nType="0">
        <Node pos="l" depth="1" NCoef="0" IVar="5" Cut="8.0352916717529297e+00" cType="1" res="-2.0860936492681503e-03" rms="3.5026988387107849e-01" purity="4.9532091617584229e-01" nType="0">
          <Node pos="l" depth="2" NCoef="0" IVar="-1" Cut="0.0000000000000000e+00" cType="1" res="-1.4525222650263458e-04" rms="3.5001218318939209e-01" purity="5.0143599510192871e-01" nType="-99"/>
          <Node pos="r" depth="2" NCoef="0" IVar="-1" Cut="0.0000000000000000e+00" cType="1" res="-6.8860342726111412e-03" rms="3.5313183069229126e-01" purity="4.0835458040237427e-01" nType="-99"/>
        </Node>
        <Node pos="r" depth="1" NCoef="0" IVar="-1" Cut="0.0000000000000000e+00" cType="1" res="4.6753329224884510e-03" rms="4.0743768215179443e-01" purity="5.8903974294662476e-01" nType="-99"/>
      </Node>
    </BinaryTree>
    <BinaryTree type="DecisionTree" boostWeight="1.0000000000000000e+00" itree="194">
      <Node pos="s" depth="0" NCoef="0" IVar="9" Cut="3.6931471824645996e+00" cType="1" res="-4.6072489931248128e-04" rms="2.2871190309524536e-01" purity="5.0270968675613403e-01" nType="0">
        <Node pos="l" depth="1" NCoef="0" IVar="9" Cut="2.6931471824645996e+00" cType="1" res="-2.5664952117949724e-03" rms="1.7910382151603699e-01" purity="5.4317724704742432e-01" nType="0">
          <Node pos="l" depth="2" NCoef="0" IVar="-1" Cut="0.0000000000000000e+00" cType="1" res="9.5906648784875870e-03" rms="3.1597417593002319e-01" purity="6.7958992719650269e-01" nType="-99"/>
          <Node pos="r" depth="2" NCoef="0" IVar="-1" Cut="0.0000000000000000e+00" cType="1" res="-7.2732730768620968e-04" rms="3.4593525528907776e-01" purity="5.3268188238143921e-01" nType="-99"/>
        </Node>
        <Node pos="r" depth="1" NCoef="0" IVar="1" Cut="5.7848629951477051e+00" cType="1" res="2.4682416114956141e-03" rms="3.6767217516899109e-01" purity="4.1696771979331970e-01" nType="0">
          <Node pos="l" depth="2" NCoef="0" IVar="-1" Cut="0.0000000000000000e+00" cType="1" res="6.2294015660881996e-03" rms="4.0334084630012512e-01" purity="2.6739016175270081e-01" nType="-99"/>
          <Node pos="r" depth="2" NCoef="0" IVar="-1" Cut="0.0000000000000000e+00" cType="1" res="-6.9998030085116625e-04" rms="3.5684931278228760e-01" purity="4.5917758345603943e-01" nType="-99"/>
        </Node>
      </Node>
    </BinaryTree>
    <BinaryTree type="DecisionTree" boostWeight="1.0000000000000000e+00" itree="195">
      <Node pos="s" depth="0" NCoef="0" IVar="9" Cut="3.6931471824645996e+00" cType="1" res="-1.6986340051516891e-03" rms="2.3044094443321228e-01" purity="5.0057393312454224e-01" nType="0">
        <Node pos="l" depth="1" NCoef="0" IVar="1" Cut="7.5680537223815918e+00" cType="1" res="-6.8571162410080433e-04" rms="3.4341400861740112e-01" purity="5.3937000036239624e-01" nType="0">
          <Node pos="l" depth="2" NCoef="0" IVar="-1" Cut="0.0000000000000000e+00" cType="1" res="3.2576237572357059e-04" rms="3.4521442651748657e-01" purity="5.3254795074462891e-01" nType="-99"/>
          <Node pos="r" depth="2" NCoef="0" IVar="-1" Cut="0.0000000000000000e+00" cType="1" res="-7.9282224178314209e-03" rms="3.1778538227081299e-01" purity="6.2870490550994873e-01" nType="-99"/>
        </Node>
        <Node pos="r" depth="1" NCoef="0" IVar="0" Cut="8.4738130569458008e+00" cType="1" res="1.3418311718851328e-03" rms="3.6879301071166992e-01" purity="4.1785162687301636e-01" nType="0">
          <Node pos="l" depth="2" NCoef="0" IVar="-1" Cut="0.0000000000000000e+00" cType="1" res="-5.7482942938804626e-03" rms="4.0276175737380981e-01" purity="3.0179318785667419e-01" nType="-99"/>
          <Node pos="r" depth="2" NCoef="0" IVar="-1" Cut="0.0000000000000000e+00" cType="1" res="3.1636564526706934e-03" rms="3.5545328259468079e-01" purity="4.5993822813034058e-01" nType="-99"/>
        </Node>
      </Node>
    </BinaryTree>
    <BinaryTree type="DecisionTree" boostWeight="1.0000000000000000e+00" itree="196">
      <Node pos="s" depth="0" NCoef="0" IVar="0" Cut="9.7882642745971680e+00" cType="1" res="3.8192197680473328e-03" rms="3.5078030824661255e-01" purity="5.0249773263931274e-01" nType="0">
        <Node pos="l" depth="1" NCoef="0" IVar="5" Cut="7.5349459648132324e+00" cType="1" res="-2.7641389169730246e-04" rms="3.5842040181159973e-01" purity="4.7413465380668640e-01" nType="0">
          <Node pos="l" depth="2" NCoef="0" IVar="-1" Cut="0.0000000000000000e+00" cType="1" res="3.5203539300709963e-04" rms="3.5929313302040100e-01" purity="4.8039692640304565e-01" nType="-99"/>
          <Node pos="r" depth="2" NCoef="0" IVar="-1" Cut="0.0000000000000000e+00" cType="1" res="-5.5187395773828030e-03" rms="3.4692588448524475e-01" purity="3.9666923880577087e-01" nType="-99"/>
        </Node>
        <Node pos="r" depth="1" NCoef="0" IVar="12" Cut="7.6135462522506714e-01" cType="1" res="1.6000531613826752e-02" rms="3.2670032978057861e-01" purity="5.8685600757598877e-01" nType="0">
          <Node pos="l" depth="2" NCoef="0" IVar="-1" Cut="0.0000000000000000e+00" cType="1" res="5.6705344468355179e-03" rms="3.5057279467582703e-01" purity="7.5188177824020386e-01" nType="-99"/>
          <Node pos="r" depth="2" NCoef="0" IVar="-1" Cut="0.0000000000000000e+00" cType="1" res="-3.4327988978475332e-03" rms="2.4070340394973755e-01" purity="9.6320979297161102e-02" nType="-99"/>
        </Node>
      </Node>
    </BinaryTree>
    <BinaryTree type="DecisionTree" boostWeight="1.0000000000000000e+00" itree="197">
      <Node pos="s" depth="0" NCoef="0" IVar="12" Cut="9.5214110612869263e-01" cType="1" res="1.5843615401536226e-03" rms="3.5172170400619507e-01" purity="5.0351518392562866e-01" nType="0">
        <Node pos="l" depth="1" NCoef="0" IVar="13" Cut="6.1898142099380493e-01" cType="1" res="4.3825344182550907e-03" rms="3.8211089372634888e-01" purity="6.1125051975250244e-01" nType="0">
          <Node pos="l" depth="2" NCoef="0" IVar="-1" Cut="0.0000000000000000e+00" cType="1" res="1.7835292965173721e-03" rms="3.8784989714622498e-01" purity="5.7311475276947021e-01" nType="-99"/>
          <Node pos="r" depth="2" NCoef="0" IVar="-1" Cut="0.0000000000000000e+00" cType="1" res="-4.1990303434431553e-03" rms="3.5499897599220276e-01" purity="7.8123068809509277e-01" nType="-99"/>
        </Node>
        <Node pos="r" depth="1" NCoef="0" IVar="12" Cut="9.7708439826965332e-01" cType="1" res="-1.0742671787738800e-02" rms="1.5899412333965302e-01" purity="2.8899349272251129e-02" nType="0">
          <Node pos="l" depth="2" NCoef="0" IVar="-1" Cut="0.0000000000000000e+00" cType="1" res="6.3866581767797470e-03" rms="2.5364166498184204e-01" purity="7.6573133468627930e-02" nType="-99"/>
          <Node pos="r" depth="2" NCoef="0" IVar="-1" Cut="0.0000000000000000e+00" cType="1" res="-2.3570628836750984e-02" rms="1.0854426026344299e-01" purity="1.2674175202846527e-02" nType="-99"/>
        </Node>
      </Node>
    </BinaryTree>
    <BinaryTree type="DecisionTree" boostWeight="1.0000000000000000e+00" itree="198">
      <Node pos="s" depth="0" NCoef="0" IVar="11" Cut="8.5697853565216064e-01" cType="1" res="-2.1323417313396931e-03" rms="3.4955370426177979e-01" purity="4.9714723229408264e-01" nType="0">
        <Node pos="l" depth="1" NCoef="0" IVar="12" Cut="4.7622501850128174e-02" cType="1" res="-5.5175898596644402e-03" rms="3.6369735002517700e-01" purity="3.6726278066635132e-01" nType="0">
          <Node pos="l" depth="2" NCoef="0" IVar="-1" Cut="0.0000000000000000e+00" cType="1" res="-1.7148513346910477e-02" rms="3.9459511637687683e-01" purity="5.7847118377685547e-01" nType="-99"/>
          <Node pos="r" depth="2" NCoef="0" IVar="-1" Cut="0.0000000000000000e+00" cType="1" res="-8.9824496535584331e-04" rms="3.6221611499786377e-01" purity="3.5865387320518494e-01" nType="-99"/>
        </Node>
        <Node pos="r" depth="1" NCoef="0" IVar="5" Cut="7.9425201416015625e+00" cType="1" res="8.0052064731717110e-03" rms="3.0305275321006775e-01" purity="8.8610237836837769e-01" nType="0">
          <Node pos="l" depth="2" NCoef="0" IVar="-1" Cut="0.0000000000000000e+00" cType="1" res="5.9283631853759289e-03" rms="2.8479826450347900e-01" purity="9.0108501911163330e-01" nType="-99"/>
          <Node pos="r" depth="2" NCoef="0" IVar="-1" Cut="0.0000000000000000e+00" cType="1" res="-6.6423425450921059e-03" rms="4.0170982480049133e-01" purity="7.8725832700729370e-01" nType="-99"/>
        </Node>
      </Node>
    </BinaryTree>
    <BinaryTree type="DecisionTree" boostWeight="1.0000000000000000e+00" itree="199">
      <Node pos="s" depth="0" NCoef="0" IVar="9" Cut="3.6931471824645996e+00" cType="1" res="-1.5481194714084268e-03" rms="2.2899933159351349e-01" purity="4.9958947300910950e-01" nType="0">
        <Node pos="l" depth="1" NCoef="0" IVar="6" Cut="-4.1593904495239258e+00" cType="1" res="-1.2498676078394055e-03" rms="3.4311228990554810e-01" purity="5.3831064701080322e-01" nType="0">
          <Node pos="l" depth="2" NCoef="0" IVar="-1" Cut="0.0000000000000000e+00" cType="1" res="7.5059812515974045e-03" rms="2.9646465182304382e-01" purity="6.6249805688858032e-01" nType="-99"/>
          <Node pos="r" depth="2" NCoef="0" IVar="-1" Cut="0.0000000000000000e+00" cType="1" res="-9.8508829250931740e-04" rms="3.4715211391448975e-01" purity="5.2639812231063843e-01" nType="-99"/>
        </Node>
        <Node pos="r" depth="1" NCoef="0" IVar="8" Cut="-4.0470543503761292e-01" cType="1" res="4.1740227607078850e-04" rms="3.6755630373954773e-01" purity="4.1796934604644775e-01" nType="0">
          <Node pos="l" depth="2" NCoef="0" IVar="-1" Cut="0.0000000000000000e+00" cType="1" res="3.4870854578912258e-03" rms="3.9163720607757568e-01" purity="4.2588979005813599e-01" nType="-99"/>
          <Node pos="r" depth="2" NCoef="0" IVar="-1" Cut="0.0000000000000000e+00" cType="1" res="-1.1533042415976524e-03" rms="3.6298471689224243e-01" purity="4.1654694080352783e-01" nType="-99"/>
        </Node>
      </Node>
    </BinaryTree>
    <BinaryTree type="DecisionTree" boostWeight="1.0000000000000000e+00" itree="200">
      <Node pos="s" depth="0" NCoef="0" IVar="4" Cut="6.0388320684432983e-01" cType="1" res="-5.7025061687454581e-04" rms="3.5188448429107666e-01" purity="5.0111263990402222e-01" nType="0">
        <Node pos="l" depth="1" NCoef="0" IVar="8" Cut="-6.1795169115066528e-01" cType="1" res="1.0029092663899064e-03" rms="3.4983918070793152e-01" purity="5.0973260402679443e-01" nType="0">
          <Node pos="l" depth="2" NCoef="0" IVar="-1" Cut="0.0000000000000000e+00" cType="1" res="2.8311971109360456e-03" rms="4.0621021389961243e-01" purity="5.5587375164031982e-01" nType="-99"/>
          <Node pos="r" depth="2" NCoef="0" IVar="-1" Cut="0.0000000000000000e+00" cType="1" res="-3.5344396019354463e-04" rms="3.4482511878013611e-01" purity="5.0602173805236816e-01" nType="-99"/>
        </Node>
        <Node pos="r" depth="1" NCoef="0" IVar="-1" Cut="0.0000000000000000e+00" cType="1" res="-6.9225062616169453e-03" rms="3.8734275102615356e-01" purity="3.3809232711791992e-01" nType="-99"/>
      </Node>
    </BinaryTree>
    <BinaryTree type="DecisionTree" boostWeight="1.0000000000000000e+00" itree="201">
      <Node pos="s" depth="0" NCoef="0" IVar="9" Cut="3.6931471824645996e+00" cType="1" res="2.8514879522845149e-04" rms="2.3004624247550964e-01" purity="5.0382328033447266e-01" nType="0">
        <Node pos="l" depth="1" NCoef="0" IVar="5" Cut="6.7884268760681152e+00" cType="1" res="1.4816727489233017e-03" rms="3.4522211551666260e-01" purity="5.4245561361312866e-01" nType="0">
          <Node pos="l" depth="2" NCoef="0" IVar="-1" Cut="0.0000000000000000e+00" cType="1" res="2.0223283208906651e-03" rms="3.5204377770423889e-01" purity="5.7019853591918945e-01" nType="-99"/>
          <Node pos="r" depth="2" NCoef="0" IVar="-1" Cut="0.0000000000000000e+00" cType="1" res="-1.4279366005212069e-03" rms="3.3661755919456482e-01" purity="5.0880527496337891e-01" nType="-99"/>
        </Node>
        <Node pos="r" depth="1" NCoef="0" IVar="6" Cut="-1.8869465589523315e+00" cType="1" res="3.4873592667281628e-03" rms="3.6875876784324646e-01" purity="4.2053252458572388e-01" nType="0">
          <Node pos="l" depth="2" NCoef="0" IVar="-1" Cut="0.0000000000000000e+00" cType="1" res="-5.8124354109168053e-04" rms="3.6164268851280212e-01" purity="4.5192578434944153e-01" nType="-99"/>
          <Node pos="r" depth="2" NCoef="0" IVar="-1" Cut="0.0000000000000000e+00" cType="1" res="9.2671709135174751e-03" rms="3.9601096510887146e-01" purity="2.9152810573577881e-01" nType="-99"/>
        </Node>
      </Node>
    </BinaryTree>
    <BinaryTree type="DecisionTree" boostWeight="1.0000000000000000e+00" itree="202">
      <Node pos="s" depth="0" NCoef="0" IVar="11" Cut="1.4285080134868622e-01" cType="1" res="-1.9740653806366026e-04" rms="3.5570031404495239e-01" purity="5.0292271375656128e-01" nType="0">
        <Node pos="l" depth="1" NCoef="0" IVar="11" Cut="6.8221436813473701e-03" cType="1" res="5.7535213418304920e-03" rms="3.3321315050125122e-01" purity="1.7854183912277222e-01" nType="0">
          <Node pos="l" depth="2" NCoef="0" IVar="-1" Cut="0.0000000000000000e+00" cType="1" res="-2.0979637280106544e-02" rms="1.1073157191276550e-01" purity="1.2669060379266739e-02" nType="-99"/>
          <Node pos="r" depth="2" NCoef="0" IVar="-1" Cut="0.0000000000000000e+00" cType="1" res="4.1595962829887867e-03" rms="4.1283875703811646e-01" purity="2.7908617258071899e-01" nType="-99"/>
        </Node>
        <Node pos="r" depth="1" NCoef="0" IVar="0" Cut="8.3141746520996094e+00" cType="1" res="-5.3666238673031330e-03" rms="3.7406143546104431e-01" purity="7.8469312191009521e-01" nType="0">
          <Node pos="l" depth="2" NCoef="0" IVar="-1" Cut="0.0000000000000000e+00" cType="1" res="-6.9766030646860600e-03" rms="4.4330883026123047e-01" purity="6.6295224428176880e-01" nType="-99"/>
          <Node pos="r" depth="2" NCoef="0" IVar="-1" Cut="0.0000000000000000e+00" cType="1" res="-5.7018001098185778e-04" rms="3.6429578065872192e-01" purity="7.9998642206192017e-01" nType="-99"/>
        </Node>
      </Node>
    </BinaryTree>
    <BinaryTree type="DecisionTree" boostWeight="1.0000000000000000e+00" itree="203">
      <Node pos="s" depth="0" NCoef="0" IVar="5" Cut="5.2586522102355957e+00" cType="1" res="1.1166422627866268e-03" rms="3.5349562764167786e-01" purity="5.0316029787063599e-01" nType="0">
        <Node pos="l" depth="1" NCoef="0" IVar="1" Cut="5.7752480506896973e+00" cType="1" res="-2.2328210994601250e-02" rms="3.7422046065330505e-01" purity="5.3444617986679077e-01" nType="0">
          <Node pos="l" depth="2" NCoef="0" IVar="-1" Cut="0.0000000000000000e+00" cType="1" res="-1.0359745472669601e-02" rms="4.1848245263099670e-01" purity="3.4339803457260132e-01" nType="-99"/>
          <Node pos="r" depth="2" NCoef="0" IVar="-1" Cut="0.0000000000000000e+00" cType="1" res="7.0633874274790287e-03" rms="3.1017869710922241e-01" purity="7.5848019123077393e-01" nType="-99"/>
        </Node>
        <Node pos="r" depth="1" NCoef="0" IVar="4" Cut="4.2168015241622925e-01" cType="1" res="2.7609663084149361e-03" rms="3.5193768143653870e-01" purity="5.0096607208251953e-01" nType="0">
          <Node pos="l" depth="2" NCoef="0" IVar="-1" Cut="0.0000000000000000e+00" cType="1" res="1.5182584756985307e-03" rms="3.4723886847496033e-01" purity="5.1952421665191650e-01" nType="-99"/>
          <Node pos="r" depth="2" NCoef="0" IVar="-1" Cut="0.0000000000000000e+00" cType="1" res="-3.7062983028590679e-03" rms="3.8614588975906372e-01" purity="3.5634297132492065e-01" nType="-99"/>
        </Node>
      </Node>
    </BinaryTree>
    <BinaryTree type="DecisionTree" boostWeight="1.0000000000000000e+00" itree="204">
      <Node pos="s" depth="0" NCoef="0" IVar="9" Cut="3.6931471824645996e+00" cType="1" res="-1.4260173775255680e-03" rms="2.2916494309902191e-01" purity="5.0214755535125732e-01" nType="0">
        <Node pos="l" depth="1" NCoef="0" IVar="6" Cut="-2.1514630317687988e+00" cType="1" res="1.2727455468848348e-03" rms="3.4259775280952454e-01" purity="5.4120039939880371e-01" nType="0">
          <Node pos="l" depth="2" NCoef="0" IVar="-1" Cut="0.0000000000000000e+00" cType="1" res="2.1425434388220310e-03" rms="3.3076366782188416e-01" purity="6.0205489397048950e-01" nType="-99"/>
          <Node pos="r" depth="2" NCoef="0" IVar="-1" Cut="0.0000000000000000e+00" cType="1" res="-4.0397536940872669e-03" rms="3.7401905655860901e-01" purity="3.6563473939895630e-01" nType="-99"/>
        </Node>
        <Node pos="r" depth="1" NCoef="0" IVar="1" Cut="5.7496175765991211e+00" cType="1" res="1.3780348235741258e-03" rms="3.7007835507392883e-01" purity="4.2018026113510132e-01" nType="0">
          <Node pos="l" depth="2" NCoef="0" IVar="-1" Cut="0.0000000000000000e+00" cType="1" res="7.6785748824477196e-03" rms="4.0575763583183289e-01" purity="2.7267304062843323e-01" nType="-99"/>
          <Node pos="r" depth="2" NCoef="0" IVar="-1" Cut="0.0000000000000000e+00" cType="1" res="-1.6251116758212447e-03" rms="3.5990887880325317e-01" purity="4.5897769927978516e-01" nType="-99"/>
        </Node>
      </Node>
    </BinaryTree>
    <BinaryTree type="DecisionTree" boostWeight="1.0000000000000000e+00" itree="205">
      <Node pos="s" depth="0" NCoef="0" IVar="0" Cut="7.8190751075744629e+00" cType="1" res="-1.2237332994118333e-03" rms="3.4997206926345825e-01" purity="4.9990043044090271e-01" nType="0">
        <Node pos="l" depth="1" NCoef="0" IVar="-1" Cut="0.0000000000000000e+00" cType="1" res="-6.8010329268872738e-03" rms="4.3551886081695557e-01" purity="3.1702059507369995e-01" nType="-99"/>
        <Node pos="r" depth="1" NCoef="0" IVar="6" Cut="-2.1795194149017334e+00" cType="1" res="7.0435839006677270e-04" rms="3.4480404853820801e-01" purity="5.0946903228759766e-01" nType="0">
          <Node pos="l" depth="2" NCoef="0" IVar="-1" Cut="0.0000000000000000e+00" cType="1" res="1.5954854898154736e-03" rms="3.3565399050712585e-01" purity="5.6465166807174683e-01" nType="-99"/>
          <Node pos="r" depth="2" NCoef="0" IVar="-1" Cut="0.0000000000000000e+00" cType="1" res="-3.0659374315291643e-03" rms="3.6872521042823792e-01" purity="3.5643026232719421e-01" nType="-99"/>
        </Node>
      </Node>
    </BinaryTree>
    <BinaryTree type="DecisionTree" boostWeight="1.0000000000000000e+00" itree="206">
      <Node pos="s" depth="0" NCoef="0" IVar="8" Cut="-5.8366847038269043e-01" cType="1" res="-5.9649092145264149e-04" rms="3.5329172015190125e-01" purity="4.9866276979446411e-01" nType="0">
        <Node pos="l" depth="1" NCoef="0" IVar="-1" Cut="0.0000000000000000e+00" cType="1" res="3.5112835466861725e-03" rms="4.0220844745635986e-01" purity="5.4981482028961182e-01" nType="-99"/>
        <Node pos="r" depth="1" NCoef="0" IVar="4" Cut="-1.5304026603698730e+00" cType="1" res="-3.6063115112483501e-03" rms="3.4805440902709961e-01" purity="4.9372103810310364e-01" nType="0">
          <Node pos="l" depth="2" NCoef="0" IVar="-1" Cut="0.0000000000000000e+00" cType="1" res="3.8258768618106842e-03" rms="3.2739847898483276e-01" purity="5.9151053428649902e-01" nType="-99"/>
          <Node pos="r" depth="2" NCoef="0" IVar="-1" Cut="0.0000000000000000e+00" cType="1" res="-2.2730331402271986e-03" rms="3.5282021760940552e-01" purity="4.6994024515151978e-01" nType="-99"/>
        </Node>
      </Node>
    </BinaryTree>
    <BinaryTree type="DecisionTree" boostWeight="1.0000000000000000e+00" itree="207">
      <Node pos="s" depth="0" NCoef="0" IVar="0" Cut="8.2553510665893555e+00" cType="1" res="-3.4518720349296927e-04" rms="3.5117438435554504e-01" purity="4.9801906943321228e-01" nType="0">
        <Node pos="l" depth="1" NCoef="0" IVar="4" Cut="-5.0706309080123901e-01" cType="1" res="-1.2410642579197884e-02" rms="4.1446840763092041e-01" purity="3.6837938427925110e-01" nType="0">
          <Node pos="l" depth="2" NCoef="0" IVar="-1" Cut="0.0000000000000000e+00" cType="1" res="1.4382523950189352e-03" rms="4.1790139675140381e-01" purity="4.0380480885505676e-01" nType="-99"/>
          <Node pos="r" depth="2" NCoef="0" IVar="-1" Cut="0.0000000000000000e+00" cType="1" res="-6.1885071918368340e-03" rms="4.1067135334014893e-01" purity="3.3686852455139160e-01" nType="-99"/>
        </Node>
        <Node pos="r" depth="1" NCoef="0" IVar="5" Cut="6.6663579940795898e+00" cType="1" res="2.4463129229843616e-03" rms="3.3476853370666504e-01" purity="5.2801293134689331e-01" nType="0">
          <Node pos="l" depth="2" NCoef="0" IVar="-1" Cut="0.0000000000000000e+00" cType="1" res="3.8021721411496401e-03" rms="3.2345792651176453e-01" purity="5.9980088472366333e-01" nType="-99"/>
          <Node pos="r" depth="2" NCoef="0" IVar="-1" Cut="0.0000000000000000e+00" cType="1" res="-7.5431418372318149e-04" rms="3.4199798107147217e-01" purity="4.8021414875984192e-01" nType="-99"/>
        </Node>
      </Node>
    </BinaryTree>
    <BinaryTree type="DecisionTree" boostWeight="1.0000000000000000e+00" itree="208">
      <Node pos="s" depth="0" NCoef="0" IVar="7" Cut="1.7475750446319580e+00" cType="1" res="3.8020589854568243e-03" rms="3.5123562812805176e-01" purity="5.0144958496093750e-01" nType="0">
        <Node pos="l" depth="1" NCoef="0" IVar="0" Cut="1.0885105133056641e+01" cType="1" res="4.9148057587444782e-03" rms="3.5162600874900818e-01" purity="5.0924897193908691e-01" nType="0">
          <Node pos="l" depth="2" NCoef="0" IVar="-1" Cut="0.0000000000000000e+00" cType="1" res="1.0804814519360662e-03" rms="3.5004588961601257e-01" purity="5.0506925582885742e-01" nType="-99"/>
          <Node pos="r" depth="2" NCoef="0" IVar="-1" Cut="0.0000000000000000e+00" cType="1" res="7.2885532863438129e-03" rms="3.8938561081886292e-01" purity="6.1914747953414917e-01" nType="-99"/>
        </Node>
        <Node pos="r" depth="1" NCoef="0" IVar="-1" Cut="0.0000000000000000e+00" cType="1" res="-1.2568789534270763e-02" rms="3.3388590812683105e-01" purity="2.1299520134925842e-01" nType="-99"/>
      </Node>
    </BinaryTree>
    <BinaryTree type="DecisionTree" boostWeight="1.0000000000000000e+00" itree="209">
      <Node pos="s" depth="0" NCoef="0" IVar="9" Cut="3.6931471824645996e+00" cType="1" res="4.4806767255067825e-04" rms="2.2831116616725922e-01" purity="5.0188165903091431e-01" nType="0">
        <Node pos="l" depth="1" NCoef="0" IVar="3" Cut="8.3801060914993286e-01" cType="1" res="3.6080523859709501e-03" rms="3.4243822097778320e-01" purity="5.4271703958511353e-01" nType="0">
          <Node pos="l" depth="2" NCoef="0" IVar="-1" Cut="0.0000000000000000e+00" cType="1" res="2.3904100526124239e-03" rms="3.3634617924690247e-01" purity="5.9420341253280640e-01" nType="-99"/>
          <Node pos="r" depth="2" NCoef="0" IVar="-1" Cut="0.0000000000000000e+00" cType="1" res="-2.7645574882626534e-03" rms="3.6136439442634583e-01" purity="3.7237766385078430e-01" nType="-99"/>
        </Node>
        <Node pos="r" depth="1" NCoef="0" IVar="6" Cut="-1.7130182981491089e+00" cType="1" res="-6.3060742104426026e-04" rms="3.6821234226226807e-01" purity="4.1393664479255676e-01" nType="0">
          <Node pos="l" depth="2" NCoef="0" IVar="-1" Cut="0.0000000000000000e+00" cType="1" res="-2.0164966117590666e-03" rms="3.6300936341285706e-01" purity="4.4071537256240845e-01" nType="-99"/>
          <Node pos="r" depth="2" NCoef="0" IVar="-1" Cut="0.0000000000000000e+00" cType="1" res="9.2728892341256142e-03" rms="3.9363929629325867e-01" purity="2.7273961901664734e-01" nType="-99"/>
        </Node>
      </Node>
    </BinaryTree>
    <BinaryTree type="DecisionTree" boostWeight="1.0000000000000000e+00" itree="210">
      <Node pos="s" depth="0" NCoef="0" IVar="9" Cut="4.0000000000000000e+00" cType="1" res="-5.4925703443586826e-04" rms="2.3037596046924591e-01" purity="5.0005650520324707e-01" nType="0">
        <Node pos="l" depth="1" NCoef="0" IVar="5" Cut="6.7891020774841309e+00" cType="1" res="1.5222559450194240e-03" rms="3.4921997785568237e-01" purity="5.1160061359405518e-01" nType="0">
          <Node pos="l" depth="2" NCoef="0" IVar="-1" Cut="0.0000000000000000e+00" cType="1" res="1.9752804655581713e-03" rms="3.5390791296958923e-01" purity="5.3864532709121704e-01" nType="-99"/>
          <Node pos="r" depth="2" NCoef="0" IVar="-1" Cut="0.0000000000000000e+00" cType="1" res="-1.3463096693158150e-03" rms="3.4336799383163452e-01" purity="4.7897276282310486e-01" nType="-99"/>
        </Node>
        <Node pos="r" depth="1" NCoef="0" IVar="0" Cut="9.1040658950805664e+00" cType="1" res="-1.1052550747990608e-02" rms="3.7686520814895630e-01" purity="3.7863653898239136e-01" nType="0">
          <Node pos="l" depth="2" NCoef="0" IVar="-1" Cut="0.0000000000000000e+00" cType="1" res="-1.4674373902380466e-02" rms="3.8629868626594543e-01" purity="3.0803623795509338e-01" nType="-99"/>
          <Node pos="r" depth="2" NCoef="0" IVar="-1" Cut="0.0000000000000000e+00" cType="1" res="1.8837782554328442e-03" rms="3.6642149090766907e-01" purity="4.5082601904869080e-01" nType="-99"/>
        </Node>
      </Node>
    </BinaryTree>
    <BinaryTree type="DecisionTree" boostWeight="1.0000000000000000e+00" itree="211">
      <Node pos="s" depth="0" NCoef="0" IVar="9" Cut="4.6931471824645996e+00" cType="1" res="-9.8696351051330566e-04" rms="2.3255635797977448e-01" purity="5.0007814168930054e-01" nType="0">
        <Node pos="l" depth="1" NCoef="0" IVar="11" Cut="2.3806345462799072e-01" cType="1" res="7.8424823004752398e-04" rms="3.5138624906539917e-01" purity="5.0010842084884644e-01" nType="0">
          <Node pos="l" depth="2" NCoef="0" IVar="-1" Cut="0.0000000000000000e+00" cType="1" res="-1.1423960095271468e-03" rms="3.5148233175277710e-01" purity="2.1821397542953491e-01" nType="-99"/>
          <Node pos="r" depth="2" NCoef="0" IVar="-1" Cut="0.0000000000000000e+00" cType="1" res="1.9908566027879715e-03" rms="3.5118991136550903e-01" purity="8.2922607660293579e-01" nType="-99"/>
        </Node>
        <Node pos="r" depth="1" NCoef="0" IVar="-1" Cut="0.0000000000000000e+00" cType="1" res="8.5427239537239075e-03" rms="3.0526503920555115e-01" purity="2.4789379537105560e-01" nType="-99"/>
      </Node>
    </BinaryTree>
    <BinaryTree type="DecisionTree" boostWeight="1.0000000000000000e+00" itree="212">
      <Node pos="s" depth="0" NCoef="0" IVar="0" Cut="9.7903823852539062e+00" cType="1" res="1.7173816449940205e-03" rms="3.5248383879661560e-01" purity="5.0388598442077637e-01" nType="0">
        <Node pos="l" depth="1" NCoef="0" IVar="9" Cut="3.0000000000000000e+00" cType="1" res="-1.7403494566679001e-03" rms="1.8668849766254425e-01" purity="4.7783347964286804e-01" nType="0">
          <Node pos="l" depth="2" NCoef="0" IVar="-1" Cut="0.0000000000000000e+00" cType="1" res="6.1555253341794014e-04" rms="3.3004447817802429e-01" purity="6.1188322305679321e-01" nType="-99"/>
          <Node pos="r" depth="2" NCoef="0" IVar="-1" Cut="0.0000000000000000e+00" cType="1" res="-8.1568543100729585e-04" rms="3.6421930789947510e-01" purity="4.5494613051414490e-01" nType="-99"/>
        </Node>
        <Node pos="r" depth="1" NCoef="0" IVar="3" Cut="5.3148663043975830e-01" cType="1" res="1.3219064101576805e-02" rms="3.2992246747016907e-01" purity="5.8393722772598267e-01" nType="0">
          <Node pos="l" depth="2" NCoef="0" IVar="-1" Cut="0.0000000000000000e+00" cType="1" res="-5.4318497859640047e-05" rms="3.0458679795265198e-01" purity="6.6058063507080078e-01" nType="-99"/>
          <Node pos="r" depth="2" NCoef="0" IVar="-1" Cut="0.0000000000000000e+00" cType="1" res="7.7243978157639503e-03" rms="3.6592605710029602e-01" purity="4.6092596650123596e-01" nType="-99"/>
        </Node>
      </Node>
    </BinaryTree>
    <BinaryTree type="DecisionTree" boostWeight="1.0000000000000000e+00" itree="213">
      <Node pos="s" depth="0" NCoef="0" IVar="4" Cut="-6.6257923841476440e-01" cType="1" res="-1.3048914261162281e-03" rms="3.4993246197700500e-01" purity="4.9847987294197083e-01" nType="0">
        <Node pos="l" depth="1" NCoef="0" IVar="3" Cut="-1.0022653341293335e+00" cType="1" res="6.0323793441057205e-03" rms="3.3203017711639404e-01" purity="5.7553470134735107e-01" nType="0">
          <Node pos="l" depth="2" NCoef="0" IVar="-1" Cut="0.0000000000000000e+00" cType="1" res="1.3628589920699596e-02" rms="2.5683310627937317e-01" purity="8.1714206933975220e-01" nType="-99"/>
          <Node pos="r" depth="2" NCoef="0" IVar="-1" Cut="0.0000000000000000e+00" cType="1" res="-4.5266941015142947e-05" rms="3.5184749960899353e-01" purity="5.0070649385452271e-01" nType="-99"/>
        </Node>
        <Node pos="r" depth="1" NCoef="0" IVar="11" Cut="6.1893337965011597e-01" cType="1" res="-6.6962912678718567e-03" rms="3.6242932081222534e-01" purity="4.4186028838157654e-01" nType="0">
          <Node pos="l" depth="2" NCoef="0" IVar="-1" Cut="0.0000000000000000e+00" cType="1" res="-2.8673645574599504e-03" rms="3.6376044154167175e-01" purity="2.8311637043952942e-01" nType="-99"/>
          <Node pos="r" depth="2" NCoef="0" IVar="-1" Cut="0.0000000000000000e+00" cType="1" res="1.5451994258910418e-03" rms="3.5884481668472290e-01" purity="8.3545517921447754e-01" nType="-99"/>
        </Node>
      </Node>
    </BinaryTree>
    <BinaryTree type="DecisionTree" boostWeight="1.0000000000000000e+00" itree="214">
      <Node pos="s" depth="0" NCoef="0" IVar="5" Cut="8.4933223724365234e+00" cType="1" res="8.0489256652072072e-04" rms="3.5356315970420837e-01" purity="5.0325495004653931e-01" nType="0">
        <Node pos="l" depth="1" NCoef="0" IVar="10" Cut="4.0000000000000000e+00" cType="1" res="-9.8101583716925234e-05" rms="2.7463272213935852e-01" purity="5.0555372238159180e-01" nType="0">
          <Node pos="l" depth="2" NCoef="0" IVar="-1" Cut="0.0000000000000000e+00" cType="1" res="9.2607160331681371e-04" rms="3.5090222954750061e-01" purity="5.1051688194274902e-01" nType="-99"/>
          <Node pos="r" depth="2" NCoef="0" IVar="-1" Cut="0.0000000000000000e+00" cType="1" res="-1.0909639298915863e-02" rms="3.6276087164878845e-01" purity="3.5920846462249756e-01" nType="-99"/>
        </Node>
        <Node pos="r" depth="1" NCoef="0" IVar="-1" Cut="0.0000000000000000e+00" cType="1" res="-5.8205584064126015e-03" rms="4.0220642089843750e-01" purity="4.4781026244163513e-01" nType="-99"/>
      </Node>
    </BinaryTree>
    <BinaryTree type="DecisionTree" boostWeight="1.0000000000000000e+00" itree="215">
      <Node pos="s" depth="0" NCoef="0" IVar="5" Cut="8.2512340545654297e+00" cType="1" res="2.4418646353296936e-04" rms="3.5195389389991760e-01" purity="5.0253647565841675e-01" nType="0">
        <Node pos="l" depth="1" NCoef="0" IVar="0" Cut="1.0654956817626953e+01" cType="1" res="2.2361516021192074e-03" rms="3.4985473752021790e-01" purity="5.0712460279464722e-01" nType="0">
          <Node pos="l" depth="2" NCoef="0" IVar="-1" Cut="0.0000000000000000e+00" cType="1" res="8.1971804320346564e-05" rms="3.4932157397270203e-01" purity="5.0016480684280396e-01" nType="-99"/>
          <Node pos="r" depth="2" NCoef="0" IVar="-1" Cut="0.0000000000000000e+00" cType="1" res="1.1590675450861454e-02" rms="3.6045229434967041e-01" purity="7.1267026662826538e-01" nType="-99"/>
        </Node>
        <Node pos="r" depth="1" NCoef="0" IVar="12" Cut="3.3314797282218933e-01" cType="1" res="-3.2020889222621918e-02" rms="3.8292112946510315e-01" purity="4.2822033166885376e-01" nType="0">
          <Node pos="l" depth="2" NCoef="0" IVar="-1" Cut="0.0000000000000000e+00" cType="1" res="-1.3048893772065639e-02" rms="4.0249148011207581e-01" purity="6.0233014822006226e-01" nType="-99"/>
          <Node pos="r" depth="2" NCoef="0" IVar="-1" Cut="0.0000000000000000e+00" cType="1" res="-3.8129005115479231e-03" rms="3.6498093605041504e-01" purity="2.8146150708198547e-01" nType="-99"/>
        </Node>
      </Node>
    </BinaryTree>
    <BinaryTree type="DecisionTree" boostWeight="1.0000000000000000e+00" itree="216">
      <Node pos="s" depth="0" NCoef="0" IVar="7" Cut="1.7482510805130005e+00" cType="1" res="-8.2130922237411141e-04" rms="3.4958481788635254e-01" purity="4.9787560105323792e-01" nType="0">
        <Node pos="l" depth="1" NCoef="0" IVar="10" Cut="2.0000000000000000e+00" cType="1" res="-5.7276035659015179e-04" rms="2.6770338416099548e-01" purity="5.0630015134811401e-01" nType="0">
          <Node pos="l" depth="2" NCoef="0" IVar="-1" Cut="0.0000000000000000e+00" cType="1" res="1.6553763998672366e-03" rms="3.3850902318954468e-01" purity="5.6464374065399170e-01" nType="-99"/>
          <Node pos="r" depth="2" NCoef="0" IVar="-1" Cut="0.0000000000000000e+00" cType="1" res="-1.4596547698602080e-03" rms="3.6196613311767578e-01" purity="4.4829547405242920e-01" nType="-99"/>
        </Node>
        <Node pos="r" depth="1" NCoef="0" IVar="-1" Cut="0.0000000000000000e+00" cType="1" res="-1.4843911863863468e-02" rms="3.1135156750679016e-01" purity="1.9374389946460724e-01" nType="-99"/>
      </Node>
    </BinaryTree>
    <BinaryTree type="DecisionTree" boostWeight="1.0000000000000000e+00" itree="217">
      <Node pos="s" depth="0" NCoef="0" IVar="5" Cut="5.3615241050720215e+00" cType="1" res="-2.2325872851070017e-04" rms="3.5097309947013855e-01" purity="5.0294101238250732e-01" nType="0">
        <Node pos="l" depth="1" NCoef="0" IVar="1" Cut="5.7279176712036133e+00" cType="1" res="-2.0703373476862907e-02" rms="3.7656825780868530e-01" purity="5.3377074003219604e-01" nType="0">
          <Node pos="l" depth="2" NCoef="0" IVar="-1" Cut="0.0000000000000000e+00" cType="1" res="-1.1264491826295853e-02" rms="4.3255266547203064e-01" purity="3.2995131611824036e-01" nType="-99"/>
          <Node pos="r" depth="2" NCoef="0" IVar="-1" Cut="0.0000000000000000e+00" cType="1" res="6.4492719247937202e-03" rms="3.0958247184753418e-01" purity="7.2842836380004883e-01" nType="-99"/>
        </Node>
        <Node pos="r" depth="1" NCoef="0" IVar="5" Cut="6.5780496597290039e+00" cType="1" res="1.5295122284442186e-03" rms="3.4863939881324768e-01" purity="5.0030249357223511e-01" nType="0">
          <Node pos="l" depth="2" NCoef="0" IVar="-1" Cut="0.0000000000000000e+00" cType="1" res="3.3818914089351892e-03" rms="3.5377362370491028e-01" purity="5.3255647420883179e-01" nType="-99"/>
          <Node pos="r" depth="2" NCoef="0" IVar="-1" Cut="0.0000000000000000e+00" cType="1" res="-1.4539592666551471e-03" rms="3.4491872787475586e-01" purity="4.7816136479377747e-01" nType="-99"/>
        </Node>
      </Node>
    </BinaryTree>
    <BinaryTree type="DecisionTree" boostWeight="1.0000000000000000e+00" itree="218">
      <Node pos="s" depth="0" NCoef="0" IVar="9" Cut="3.0000000000000000e+00" cType="1" res="-8.7505683768540621e-04" rms="2.3023875057697296e-01" purity="5.0377184152603149e-01" nType="0">
        <Node pos="l" depth="1" NCoef="0" IVar="1" Cut="5.9620890617370605e+00" cType="1" res="1.1975869536399841e-02" rms="3.2317906618118286e-01" purity="6.3375103473663330e-01" nType="0">
          <Node pos="l" depth="2" NCoef="0" IVar="-1" Cut="0.0000000000000000e+00" cType="1" res="8.4205595776438713e-03" rms="3.7546333670616150e-01" purity="5.0942462682723999e-01" nType="-99"/>
          <Node pos="r" depth="2" NCoef="0" IVar="-1" Cut="0.0000000000000000e+00" cType="1" res="7.9861062113195658e-04" rms="3.0073484778404236e-01" purity="6.8028515577316284e-01" nType="-99"/>
        </Node>
        <Node pos="r" depth="1" NCoef="0" IVar="3" Cut="8.3789199590682983e-01" cType="1" res="-5.8462395099923015e-04" rms="3.5678696632385254e-01" purity="4.8311445116996765e-01" nType="0">
          <Node pos="l" depth="2" NCoef="0" IVar="-1" Cut="0.0000000000000000e+00" cType="1" res="7.8556605149060488e-04" rms="3.5094720125198364e-01" purity="5.2871543169021606e-01" nType="-99"/>
          <Node pos="r" depth="2" NCoef="0" IVar="-1" Cut="0.0000000000000000e+00" cType="1" res="-2.8144430834800005e-03" rms="3.7533664703369141e-01" purity="3.3166745305061340e-01" nType="-99"/>
        </Node>
      </Node>
    </BinaryTree>
    <BinaryTree type="DecisionTree" boostWeight="1.0000000000000000e+00" itree="219">
      <Node pos="s" depth="0" NCoef="0" IVar="0" Cut="8.4768285751342773e+00" cType="1" res="-9.3592831399291754e-04" rms="3.5113203525543213e-01" purity="4.9764055013656616e-01" nType="0">
        <Node pos="l" depth="1" NCoef="0" IVar="12" Cut="4.2846813797950745e-01" cType="1" res="-1.3856188394129276e-02" rms="4.0351659059524536e-01" purity="3.9077875018119812e-01" nType="0">
          <Node pos="l" depth="2" NCoef="0" IVar="-1" Cut="0.0000000000000000e+00" cType="1" res="-1.4762603677809238e-02" rms="4.0355056524276733e-01" purity="7.1297609806060791e-01" nType="-99"/>
          <Node pos="r" depth="2" NCoef="0" IVar="-1" Cut="0.0000000000000000e+00" cType="1" res="-1.3520612847059965e-03" rms="4.0305942296981812e-01" purity="3.2250857353210449e-01" nType="-99"/>
        </Node>
        <Node pos="r" depth="1" NCoef="0" IVar="1" Cut="5.5924582481384277e+00" cType="1" res="3.7696971558034420e-03" rms="3.2986819744110107e-01" purity="5.3656017780303955e-01" nType="0">
          <Node pos="l" depth="2" NCoef="0" IVar="-1" Cut="0.0000000000000000e+00" cType="1" res="6.7976946011185646e-03" rms="4.0135684609413147e-01" purity="3.3382782340049744e-01" nType="-99"/>
          <Node pos="r" depth="2" NCoef="0" IVar="-1" Cut="0.0000000000000000e+00" cType="1" res="5.0127459689974785e-04" rms="3.2125473022460938e-01" purity="5.5809605121612549e-01" nType="-99"/>
        </Node>
      </Node>
    </BinaryTree>
    <BinaryTree type="DecisionTree" boostWeight="1.0000000000000000e+00" itree="220">
      <Node pos="s" depth="0" NCoef="0" IVar="9" Cut="3.6931471824645996e+00" cType="1" res="1.1051413603127003e-03" rms="2.3057033121585846e-01" purity="5.0183594226837158e-01" nType="0">
        <Node pos="l" depth="1" NCoef="0" IVar="9" Cut="2.6931471824645996e+00" cType="1" res="-2.5843570474535227e-03" rms="1.8407841026782990e-01" purity="5.4040837287902832e-01" nType="0">
          <Node pos="l" depth="2" NCoef="0" IVar="-1" Cut="0.0000000000000000e+00" cType="1" res="9.9440431222319603e-03" rms="3.0924057960510254e-01" purity="6.7401504516601562e-01" nType="-99"/>
          <Node pos="r" depth="2" NCoef="0" IVar="-1" Cut="0.0000000000000000e+00" cType="1" res="-1.5909438661765307e-04" rms="3.4530055522918701e-01" purity="5.2978515625000000e-01" nType="-99"/>
        </Node>
        <Node pos="r" depth="1" NCoef="0" IVar="13" Cut="4.7615706920623779e-02" cType="1" res="6.9367801770567894e-03" rms="3.6610308289527893e-01" purity="4.2039149999618530e-01" nType="0">
          <Node pos="l" depth="2" NCoef="0" IVar="-1" Cut="0.0000000000000000e+00" cType="1" res="-1.6266807506326586e-04" rms="3.0061614513397217e-01" purity="1.9674982130527496e-01" nType="-99"/>
          <Node pos="r" depth="2" NCoef="0" IVar="-1" Cut="0.0000000000000000e+00" cType="1" res="4.3472768738865852e-03" rms="4.2016616463661194e-01" purity="6.3864290714263916e-01" nType="-99"/>
        </Node>
      </Node>
    </BinaryTree>
    <BinaryTree type="DecisionTree" boostWeight="1.0000000000000000e+00" itree="221">
      <Node pos="s" depth="0" NCoef="0" IVar="9" Cut="3.6931471824645996e+00" cType="1" res="1.2218268821015954e-03" rms="2.3104535043239594e-01" purity="5.0543773174285889e-01" nType="0">
        <Node pos="l" depth="1" NCoef="0" IVar="1" Cut="7.5607099533081055e+00" cType="1" res="3.6531076766550541e-03" rms="3.4257823228836060e-01" purity="5.4792380332946777e-01" nType="0">
          <Node pos="l" depth="2" NCoef="0" IVar="-1" Cut="0.0000000000000000e+00" cType="1" res="1.4004562981426716e-03" rms="3.4429335594177246e-01" purity="5.4101896286010742e-01" nType="-99"/>
          <Node pos="r" depth="2" NCoef="0" IVar="-1" Cut="0.0000000000000000e+00" cType="1" res="-6.0084122233092785e-03" rms="3.1844624876976013e-01" purity="6.3820338249206543e-01" nType="-99"/>
        </Node>
        <Node pos="r" depth="1" NCoef="0" IVar="6" Cut="-3.5705606937408447e+00" cType="1" res="1.6703050350770354e-03" rms="3.6596694588661194e-01" purity="4.1601794958114624e-01" nType="0">
          <Node pos="l" depth="2" NCoef="0" IVar="-1" Cut="0.0000000000000000e+00" cType="1" res="-5.9891655109822750e-03" rms="3.4454020857810974e-01" purity="4.9982270598411560e-01" nType="-99"/>
          <Node pos="r" depth="2" NCoef="0" IVar="-1" Cut="0.0000000000000000e+00" cType="1" res="2.2162375971674919e-03" rms="3.7132394313812256e-01" purity="3.9382845163345337e-01" nType="-99"/>
        </Node>
      </Node>
    </BinaryTree>
    <BinaryTree type="DecisionTree" boostWeight="1.0000000000000000e+00" itree="222">
      <Node pos="s" depth="0" NCoef="0" IVar="9" Cut="3.6931471824645996e+00" cType="1" res="-1.3288230402395129e-03" rms="2.2884984314441681e-01" purity="5.0021219253540039e-01" nType="0">
        <Node pos="l" depth="1" NCoef="0" IVar="11" Cut="5.7133281230926514e-01" cType="1" res="-3.0444446019828320e-03" rms="3.4393563866615295e-01" purity="5.3856188058853149e-01" nType="0">
          <Node pos="l" depth="2" NCoef="0" IVar="-1" Cut="0.0000000000000000e+00" cType="1" res="-2.0274328999221325e-03" rms="3.6632749438285828e-01" purity="3.2228559255599976e-01" nType="-99"/>
          <Node pos="r" depth="2" NCoef="0" IVar="-1" Cut="0.0000000000000000e+00" cType="1" res="2.4133231490850449e-03" rms="3.0469769239425659e-01" purity="8.8257634639739990e-01" nType="-99"/>
        </Node>
        <Node pos="r" depth="1" NCoef="0" IVar="12" Cut="5.7117551565170288e-01" cType="1" res="2.3220700677484274e-03" rms="3.6413383483886719e-01" purity="4.1835546493530273e-01" nType="0">
          <Node pos="l" depth="2" NCoef="0" IVar="-1" Cut="0.0000000000000000e+00" cType="1" res="-2.0936587825417519e-03" rms="3.8940975069999695e-01" purity="7.1646428108215332e-01" nType="-99"/>
          <Node pos="r" depth="2" NCoef="0" IVar="-1" Cut="0.0000000000000000e+00" cType="1" res="3.5150772891938686e-03" rms="3.4454280138015747e-01" purity="2.0233447849750519e-01" nType="-99"/>
        </Node>
      </Node>
    </BinaryTree>
    <BinaryTree type="DecisionTree" boostWeight="1.0000000000000000e+00" itree="223">
      <Node pos="s" depth="0" NCoef="0" IVar="9" Cut="3.6931471824645996e+00" cType="1" res="-8.8347337441518903e-04" rms="2.3215368390083313e-01" purity="4.9553447961807251e-01" nType="0">
        <Node pos="l" depth="1" NCoef="0" IVar="5" Cut="8.3036413192749023e+00" cType="1" res="-4.4139833189547062e-03" rms="3.4519484639167786e-01" purity="5.3354316949844360e-01" nType="0">
          <Node pos="l" depth="2" NCoef="0" IVar="-1" Cut="0.0000000000000000e+00" cType="1" res="-6.6216848790645599e-04" rms="3.4240430593490601e-01" purity="5.3904145956039429e-01" nType="-99"/>
          <Node pos="r" depth="2" NCoef="0" IVar="-1" Cut="0.0000000000000000e+00" cType="1" res="-7.6031773351132870e-03" rms="3.9022901654243469e-01" purity="4.3506771326065063e-01" nType="-99"/>
        </Node>
        <Node pos="r" depth="1" NCoef="0" IVar="11" Cut="1.9039779901504517e-01" cType="1" res="-2.1036374382674694e-03" rms="3.7169972062110901e-01" purity="4.1420549154281616e-01" nType="0">
          <Node pos="l" depth="2" NCoef="0" IVar="-1" Cut="0.0000000000000000e+00" cType="1" res="3.5930972080677748e-03" rms="3.3849874138832092e-01" purity="1.7575284838676453e-01" nType="-99"/>
          <Node pos="r" depth="2" NCoef="0" IVar="-1" Cut="0.0000000000000000e+00" cType="1" res="-5.0640478730201721e-03" rms="4.1129603981971741e-01" purity="7.3095804452896118e-01" nType="-99"/>
        </Node>
      </Node>
    </BinaryTree>
    <BinaryTree type="DecisionTree" boostWeight="1.0000000000000000e+00" itree="224">
      <Node pos="s" depth="0" NCoef="0" IVar="9" Cut="3.6931471824645996e+00" cType="1" res="-7.9727295087650418e-04" rms="2.2679539024829865e-01" purity="4.9984222650527954e-01" nType="0">
        <Node pos="l" depth="1" NCoef="0" IVar="10" Cut="2.0000000000000000e+00" cType="1" res="8.6871681560296565e-05" rms="2.2460821270942688e-01" purity="5.4117065668106079e-01" nType="0">
          <Node pos="l" depth="2" NCoef="0" IVar="-1" Cut="0.0000000000000000e+00" cType="1" res="1.5951500972732902e-03" rms="3.3117783069610596e-01" purity="5.7748252153396606e-01" nType="-99"/>
          <Node pos="r" depth="2" NCoef="0" IVar="-1" Cut="0.0000000000000000e+00" cType="1" res="-3.5026839468628168e-03" rms="3.5918411612510681e-01" purity="4.8552411794662476e-01" nType="-99"/>
        </Node>
        <Node pos="r" depth="1" NCoef="0" IVar="3" Cut="-7.4043415486812592e-02" cType="1" res="-1.5332996845245361e-03" rms="3.6539551615715027e-01" purity="4.1256892681121826e-01" nType="0">
          <Node pos="l" depth="2" NCoef="0" IVar="-1" Cut="0.0000000000000000e+00" cType="1" res="-6.7767859436571598e-03" rms="3.5620415210723877e-01" purity="5.5635482072830200e-01" nType="-99"/>
          <Node pos="r" depth="2" NCoef="0" IVar="-1" Cut="0.0000000000000000e+00" cType="1" res="2.4215050507336855e-03" rms="3.7043553590774536e-01" purity="3.2824581861495972e-01" nType="-99"/>
        </Node>
      </Node>
    </BinaryTree>
    <BinaryTree type="DecisionTree" boostWeight="1.0000000000000000e+00" itree="225">
      <Node pos="s" depth="0" NCoef="0" IVar="5" Cut="4.9402713775634766e+00" cType="1" res="1.4836196787655354e-03" rms="3.5022467374801636e-01" purity="5.0051492452621460e-01" nType="0">
        <Node pos="l" depth="1" NCoef="0" IVar="-1" Cut="0.0000000000000000e+00" cType="1" res="-9.3387095257639885e-03" rms="3.7686669826507568e-01" purity="5.3282707929611206e-01" nType="-99"/>
        <Node pos="r" depth="1" NCoef="0" IVar="12" Cut="9.0446478128433228e-01" cType="1" res="2.7983968611806631e-03" rms="3.4913992881774902e-01" purity="4.9933108687400818e-01" nType="0">
          <Node pos="l" depth="2" NCoef="0" IVar="-1" Cut="0.0000000000000000e+00" cType="1" res="1.5669086715206504e-03" rms="3.8406562805175781e-01" purity="6.4838922023773193e-01" nType="-99"/>
          <Node pos="r" depth="2" NCoef="0" IVar="-1" Cut="0.0000000000000000e+00" cType="1" res="-5.0676879473030567e-03" rms="2.1468855440616608e-01" purity="5.8913897722959518e-02" nType="-99"/>
        </Node>
      </Node>
    </BinaryTree>
    <BinaryTree type="DecisionTree" boostWeight="1.0000000000000000e+00" itree="226">
      <Node pos="s" depth="0" NCoef="0" IVar="8" Cut="-6.6087120771408081e-01" cType="1" res="2.3584454320371151e-03" rms="3.5172867774963379e-01" purity="5.0410997867584229e-01" nType="0">
        <Node pos="l" depth="1" NCoef="0" IVar="-1" Cut="0.0000000000000000e+00" cType="1" res="2.9746314976364374e-03" rms="4.0850004553794861e-01" purity="5.4833412170410156e-01" nType="-99"/>
        <Node pos="r" depth="1" NCoef="0" IVar="9" Cut="4.6931471824645996e+00" cType="1" res="2.2258274839259684e-04" rms="2.2524362802505493e-01" purity="5.0113481283187866e-01" nType="0">
          <Node pos="l" depth="2" NCoef="0" IVar="-1" Cut="0.0000000000000000e+00" cType="1" res="2.2239905956666917e-04" rms="3.4751379489898682e-01" purity="5.0117594003677368e-01" nType="-99"/>
          <Node pos="r" depth="2" NCoef="0" IVar="-1" Cut="0.0000000000000000e+00" cType="1" res="-1.9434088468551636e-01" rms="1.7053894698619843e-01" purity="0.0000000000000000e+00" nType="-99"/>
        </Node>
      </Node>
    </BinaryTree>
    <BinaryTree type="DecisionTree" boostWeight="1.0000000000000000e+00" itree="227">
      <Node pos="s" depth="0" NCoef="0" IVar="1" Cut="5.4549260139465332e+00" cType="1" res="3.2984238350763917e-04" rms="3.4973651170730591e-01" purity="5.0133705139160156e-01" nType="0">
        <Node pos="l" depth="1" NCoef="0" IVar="3" Cut="-6.4669072628021240e-02" cType="1" res="-1.4542378485202789e-02" rms="4.0232506394386292e-01" purity="2.8914949297904968e-01" nType="0">
          <Node pos="l" depth="2" NCoef="0" IVar="-1" Cut="0.0000000000000000e+00" cType="1" res="-1.0012777522206306e-02" rms="4.1014945507049561e-01" purity="3.4675377607345581e-01" nType="-99"/>
          <Node pos="r" depth="2" NCoef="0" IVar="-1" Cut="0.0000000000000000e+00" cType="1" res="4.1571762994863093e-04" rms="3.9746636152267456e-01" purity="2.6132360100746155e-01" nType="-99"/>
        </Node>
        <Node pos="r" depth="1" NCoef="0" IVar="0" Cut="7.8204107284545898e+00" cType="1" res="2.2273350041359663e-03" rms="3.4240004420280457e-01" purity="5.2840930223464966e-01" nType="0">
          <Node pos="l" depth="2" NCoef="0" IVar="-1" Cut="0.0000000000000000e+00" cType="1" res="-4.7402242198586464e-03" rms="4.5762440562248230e-01" purity="3.6144989728927612e-01" nType="-99"/>
          <Node pos="r" depth="2" NCoef="0" IVar="-1" Cut="0.0000000000000000e+00" cType="1" res="1.0650253389030695e-03" rms="3.3702570199966431e-01" purity="5.3496241569519043e-01" nType="-99"/>
        </Node>
      </Node>
    </BinaryTree>
    <BinaryTree type="DecisionTree" boostWeight="1.0000000000000000e+00" itree="228">
      <Node pos="s" depth="0" NCoef="0" IVar="3" Cut="-1.0026878118515015e+00" cType="1" res="-1.6034913714975119e-03" rms="3.5077461600303650e-01" purity="5.0036329030990601e-01" nType="0">
        <Node pos="l" depth="1" NCoef="0" IVar="1" Cut="6.1988306045532227e+00" cType="1" res="1.1290224269032478e-02" rms="3.0663058161735535e-01" purity="7.1806269884109497e-01" nType="0">
          <Node pos="l" depth="2" NCoef="0" IVar="-1" Cut="0.0000000000000000e+00" cType="1" res="-4.1899746283888817e-03" rms="3.9068958163261414e-01" purity="5.0001811981201172e-01" nType="-99"/>
          <Node pos="r" depth="2" NCoef="0" IVar="-1" Cut="0.0000000000000000e+00" cType="1" res="1.1195270344614983e-02" rms="2.6142787933349609e-01" purity="8.1187027692794800e-01" nType="-99"/>
        </Node>
        <Node pos="r" depth="1" NCoef="0" IVar="0" Cut="7.8198819160461426e+00" cType="1" res="-4.4719008728861809e-03" rms="3.5979676246643066e-01" purity="4.5193269848823547e-01" nType="0">
          <Node pos="l" depth="2" NCoef="0" IVar="-1" Cut="0.0000000000000000e+00" cType="1" res="-4.5934850350022316e-03" rms="4.3726301193237305e-01" purity="2.9912367463111877e-01" nType="-99"/>
          <Node pos="r" depth="2" NCoef="0" IVar="-1" Cut="0.0000000000000000e+00" cType="1" res="-9.7074412042275071e-04" rms="3.5502043366432190e-01" purity="4.6032321453094482e-01" nType="-99"/>
        </Node>
      </Node>
    </BinaryTree>
    <BinaryTree type="DecisionTree" boostWeight="1.0000000000000000e+00" itree="229">
      <Node pos="s" depth="0" NCoef="0" IVar="13" Cut="4.7613945603370667e-01" cType="1" res="-1.5911092050373554e-03" rms="3.5401284694671631e-01" purity="4.9867591261863708e-01" nType="0">
        <Node pos="l" depth="1" NCoef="0" IVar="0" Cut="9.5714378356933594e+00" cType="1" res="9.9165888968855143e-04" rms="3.5346880555152893e-01" purity="4.3221923708915710e-01" nType="0">
          <Node pos="l" depth="2" NCoef="0" IVar="-1" Cut="0.0000000000000000e+00" cType="1" res="-1.0429660324007273e-03" rms="3.6757707595825195e-01" purity="3.6185091733932495e-01" nType="-99"/>
          <Node pos="r" depth="2" NCoef="0" IVar="-1" Cut="0.0000000000000000e+00" cType="1" res="2.7942054439336061e-03" rms="3.2475867867469788e-01" purity="5.6605213880538940e-01" nType="-99"/>
        </Node>
        <Node pos="r" depth="1" NCoef="0" IVar="5" Cut="7.0653781890869141e+00" cType="1" res="-1.2516335584223270e-02" rms="3.5609778761863708e-01" purity="7.7979046106338501e-01" nType="0">
          <Node pos="l" depth="2" NCoef="0" IVar="-1" Cut="0.0000000000000000e+00" cType="1" res="2.4809874594211578e-04" rms="3.1470847129821777e-01" purity="8.6980253458023071e-01" nType="-99"/>
          <Node pos="r" depth="2" NCoef="0" IVar="-1" Cut="0.0000000000000000e+00" cType="1" res="-9.7842700779438019e-03" rms="4.2353680729866028e-01" purity="6.0622233152389526e-01" nType="-99"/>
        </Node>
      </Node>
    </BinaryTree>
    <BinaryTree type="DecisionTree" boostWeight="1.0000000000000000e+00" itree="230">
      <Node pos="s" depth="0" NCoef="0" IVar="4" Cut="-3.2980761528015137e+00" cType="1" res="7.5269566150382161e-04" rms="3.5074701905250549e-01" purity="4.9992448091506958e-01" nType="0">
        <Node pos="l" depth="1" NCoef="0" IVar="-1" Cut="0.0000000000000000e+00" cType="1" res="9.6881613135337830e-03" rms="3.2323959469795227e-01" purity="6.2625569105148315e-01" nType="-99"/>
        <Node pos="r" depth="1" NCoef="0" IVar="7" Cut="-5.1864868402481079e-01" cType="1" res="-1.9505937234498560e-04" rms="3.5165205597877502e-01" purity="4.9541524052619934e-01" nType="0">
          <Node pos="l" depth="2" NCoef="0" IVar="-1" Cut="0.0000000000000000e+00" cType="1" res="-2.7740332297980785e-03" rms="3.6337393522262573e-01" purity="5.0420480966567993e-01" nType="-99"/>
          <Node pos="r" depth="2" NCoef="0" IVar="-1" Cut="0.0000000000000000e+00" cType="1" res="6.8359938450157642e-04" rms="3.4864753484725952e-01" purity="4.9324154853820801e-01" nType="-99"/>
        </Node>
      </Node>
    </BinaryTree>
    <BinaryTree type="DecisionTree" boostWeight="1.0000000000000000e+00" itree="231">
      <Node pos="s" depth="0" NCoef="0" IVar="2" Cut="8.8068008422851562e+00" cType="1" res="2.6755866128951311e-03" rms="3.5183480381965637e-01" purity="5.0418323278427124e-01" nType="0">
        <Node pos="l" depth="1" NCoef="0" IVar="5" Cut="5.6776385307312012e+00" cType="1" res="-8.5553517565131187e-03" rms="3.6156308650970459e-01" purity="4.7318488359451294e-01" nType="0">
          <Node pos="l" depth="2" NCoef="0" IVar="-1" Cut="0.0000000000000000e+00" cType="1" res="-6.8339831195771694e-03" rms="4.0712797641754150e-01" purity="4.3640625476837158e-01" nType="-99"/>
          <Node pos="r" depth="2" NCoef="0" IVar="-1" Cut="0.0000000000000000e+00" cType="1" res="-6.6865934059023857e-04" rms="3.5228279232978821e-01" purity="4.7993844747543335e-01" nType="-99"/>
        </Node>
        <Node pos="r" depth="1" NCoef="0" IVar="8" Cut="-5.5220174789428711e-01" cType="1" res="7.5328876264393330e-03" rms="3.4743058681488037e-01" purity="5.1758980751037598e-01" nType="0">
          <Node pos="l" depth="2" NCoef="0" IVar="-1" Cut="0.0000000000000000e+00" cType="1" res="5.3888140246272087e-03" rms="3.8759493827819824e-01" purity="5.5981451272964478e-01" nType="-99"/>
          <Node pos="r" depth="2" NCoef="0" IVar="-1" Cut="0.0000000000000000e+00" cType="1" res="1.8202109495177865e-03" rms="3.4270519018173218e-01" purity="5.1307588815689087e-01" nType="-99"/>
        </Node>
      </Node>
    </BinaryTree>
    <BinaryTree type="DecisionTree" boostWeight="1.0000000000000000e+00" itree="232">
      <Node pos="s" depth="0" NCoef="0" IVar="0" Cut="9.7904558181762695e+00" cType="1" res="-4.9064139602705836e-04" rms="3.5278812050819397e-01" purity="5.0088661909103394e-01" nType="0">
        <Node pos="l" depth="1" NCoef="0" IVar="2" Cut="8.9137325286865234e+00" cType="1" res="-3.7516013253480196e-03" rms="3.5952389240264893e-01" purity="4.7311782836914062e-01" nType="0">
          <Node pos="l" depth="2" NCoef="0" IVar="-1" Cut="0.0000000000000000e+00" cType="1" res="-2.9409597627818584e-03" rms="3.6580130457878113e-01" purity="4.4325768947601318e-01" nType="-99"/>
          <Node pos="r" depth="2" NCoef="0" IVar="-1" Cut="0.0000000000000000e+00" cType="1" res="6.6418177448213100e-04" rms="3.5555797815322876e-01" purity="4.9118441343307495e-01" nType="-99"/>
        </Node>
        <Node pos="r" depth="1" NCoef="0" IVar="0" Cut="1.0249254226684570e+01" cType="1" res="9.3560786917805672e-03" rms="3.3142498135566711e-01" purity="5.8473652601242065e-01" nType="0">
          <Node pos="l" depth="2" NCoef="0" IVar="-1" Cut="0.0000000000000000e+00" cType="1" res="8.3137098699808121e-03" rms="2.9891788959503174e-01" purity="5.9370839595794678e-01" nType="-99"/>
          <Node pos="r" depth="2" NCoef="0" IVar="-1" Cut="0.0000000000000000e+00" cType="1" res="-8.9354586089029908e-04" rms="3.5879787802696228e-01" purity="5.7631063461303711e-01" nType="-99"/>
        </Node>
      </Node>
    </BinaryTree>
    <BinaryTree type="DecisionTree" boostWeight="1.0000000000000000e+00" itree="233">
      <Node pos="s" depth="0" NCoef="0" IVar="3" Cut="8.3794772624969482e-01" cType="1" res="8.6813257075846195e-04" rms="3.5188663005828857e-01" purity="5.0185102224349976e-01" nType="0">
        <Node pos="l" depth="1" NCoef="0" IVar="8" Cut="-5.7801735401153564e-01" cType="1" res="-2.7202705387026072e-03" rms="3.4611561894416809e-01" purity="5.4424911737442017e-01" nType="0">
          <Node pos="l" depth="2" NCoef="0" IVar="-1" Cut="0.0000000000000000e+00" cType="1" res="-2.6874418836086988e-03" rms="3.9716014266014099e-01" purity="5.4591512680053711e-01" nType="-99"/>
          <Node pos="r" depth="2" NCoef="0" IVar="-1" Cut="0.0000000000000000e+00" cType="1" res="-2.9239413561299443e-04" rms="3.4059596061706543e-01" purity="5.4408442974090576e-01" nType="-99"/>
        </Node>
        <Node pos="r" depth="1" NCoef="0" IVar="8" Cut="-3.9605948328971863e-01" cType="1" res="1.2712665833532810e-02" rms="3.7005072832107544e-01" purity="3.6190435290336609e-01" nType="0">
          <Node pos="l" depth="2" NCoef="0" IVar="-1" Cut="0.0000000000000000e+00" cType="1" res="6.4138281159102917e-03" rms="4.0452027320861816e-01" purity="3.9600822329521179e-01" nType="-99"/>
          <Node pos="r" depth="2" NCoef="0" IVar="-1" Cut="0.0000000000000000e+00" cType="1" res="1.6451484989374876e-03" rms="3.6115288734436035e-01" purity="3.5398596525192261e-01" nType="-99"/>
        </Node>
      </Node>
    </BinaryTree>
    <BinaryTree type="DecisionTree" boostWeight="1.0000000000000000e+00" itree="234">
      <Node pos="s" depth="0" NCoef="0" IVar="9" Cut="3.6931471824645996e+00" cType="1" res="-1.2379894033074379e-03" rms="2.3270092904567719e-01" purity="4.9952259659767151e-01" nType="0">
        <Node pos="l" depth="1" NCoef="0" IVar="7" Cut="8.4742563962936401e-01" cType="1" res="-4.2978422716259956e-03" rms="3.4592607617378235e-01" purity="5.3680580854415894e-01" nType="0">
          <Node pos="l" depth="2" NCoef="0" IVar="-1" Cut="0.0000000000000000e+00" cType="1" res="-3.6489864578470588e-04" rms="3.4523531794548035e-01" purity="5.5671864748001099e-01" nType="-99"/>
          <Node pos="r" depth="2" NCoef="0" IVar="-1" Cut="0.0000000000000000e+00" cType="1" res="-6.5292995423078537e-03" rms="3.5001140832901001e-01" purity="3.9888435602188110e-01" nType="-99"/>
        </Node>
        <Node pos="r" depth="1" NCoef="0" IVar="8" Cut="-3.7987223267555237e-01" cType="1" res="2.3151712957769632e-03" rms="3.6502030491828918e-01" purity="4.1971579194068909e-01" nType="0">
          <Node pos="l" depth="2" NCoef="0" IVar="-1" Cut="0.0000000000000000e+00" cType="1" res="6.1875805258750916e-03" rms="3.8567128777503967e-01" purity="4.5513555407524109e-01" nType="-99"/>
          <Node pos="r" depth="2" NCoef="0" IVar="-1" Cut="0.0000000000000000e+00" cType="1" res="-1.2745542917400599e-03" rms="3.6058941483497620e-01" purity="4.1272345185279846e-01" nType="-99"/>
        </Node>
      </Node>
    </BinaryTree>
    <BinaryTree type="DecisionTree" boostWeight="1.0000000000000000e+00" itree="235">
      <Node pos="s" depth="0" NCoef="0" IVar="9" Cut="3.6931471824645996e+00" cType="1" res="1.0084544774144888e-03" rms="2.3217986524105072e-01" purity="5.0042396783828735e-01" nType="0">
        <Node pos="l" depth="1" NCoef="0" IVar="8" Cut="-5.5307400226593018e-01" cType="1" res="-2.1496687550097704e-03" rms="3.4685224294662476e-01" purity="5.4024213552474976e-01" nType="0">
          <Node pos="l" depth="2" NCoef="0" IVar="-1" Cut="0.0000000000000000e+00" cType="1" res="-2.7642948552966118e-03" rms="3.9634150266647339e-01" purity="5.2308207750320435e-01" nType="-99"/>
          <Node pos="r" depth="2" NCoef="0" IVar="-1" Cut="0.0000000000000000e+00" cType="1" res="1.8944276962429285e-04" rms="3.4020343422889709e-01" purity="5.4234087467193604e-01" nType="-99"/>
        </Node>
        <Node pos="r" depth="1" NCoef="0" IVar="12" Cut="4.7595313191413879e-01" cType="1" res="1.0051758727058768e-03" rms="3.6815261840820312e-01" purity="4.1431665420532227e-01" nType="0">
          <Node pos="l" depth="2" NCoef="0" IVar="-1" Cut="0.0000000000000000e+00" cType="1" res="-4.5734564773738384e-03" rms="3.9269009232521057e-01" purity="7.2523748874664307e-01" nType="-99"/>
          <Node pos="r" depth="2" NCoef="0" IVar="-1" Cut="0.0000000000000000e+00" cType="1" res="3.7505347281694412e-03" rms="3.5217493772506714e-01" purity="2.2553719580173492e-01" nType="-99"/>
        </Node>
      </Node>
    </BinaryTree>
    <BinaryTree type="DecisionTree" boostWeight="1.0000000000000000e+00" itree="236">
      <Node pos="s" depth="0" NCoef="0" IVar="9" Cut="3.0986123085021973e+00" cType="1" res="5.4836564231663942e-04" rms="2.1104207634925842e-01" purity="4.9918150901794434e-01" nType="0">
        <Node pos="l" depth="1" NCoef="0" IVar="2" Cut="9.4886407852172852e+00" cType="1" res="7.9653272405266762e-03" rms="3.2282319664955139e-01" purity="6.0966014862060547e-01" nType="0">
          <Node pos="l" depth="2" NCoef="0" IVar="-1" Cut="0.0000000000000000e+00" cType="1" res="3.2931098248809576e-03" rms="3.2704535126686096e-01" purity="6.0922867059707642e-01" nType="-99"/>
          <Node pos="r" depth="2" NCoef="0" IVar="-1" Cut="0.0000000000000000e+00" cType="1" res="-5.5005475878715515e-03" rms="3.0415898561477661e-01" purity="6.1142987012863159e-01" nType="-99"/>
        </Node>
        <Node pos="r" depth="1" NCoef="0" IVar="13" Cut="4.2853215336799622e-01" cType="1" res="-1.5980687458068132e-03" rms="3.5885348916053772e-01" purity="4.7507250308990479e-01" nType="0">
          <Node pos="l" depth="2" NCoef="0" IVar="-1" Cut="0.0000000000000000e+00" cType="1" res="2.9593243380077183e-04" rms="3.5661032795906067e-01" purity="4.0316104888916016e-01" nType="-99"/>
          <Node pos="r" depth="2" NCoef="0" IVar="-1" Cut="0.0000000000000000e+00" cType="1" res="-4.2953672818839550e-03" rms="3.6770775914192200e-01" purity="7.6972496509552002e-01" nType="-99"/>
        </Node>
      </Node>
    </BinaryTree>
    <BinaryTree type="DecisionTree" boostWeight="1.0000000000000000e+00" itree="237">
      <Node pos="s" depth="0" NCoef="0" IVar="5" Cut="5.3008418083190918e+00" cType="1" res="-1.7352669965475798e-03" rms="3.5154730081558228e-01" purity="4.9612987041473389e-01" nType="0">
        <Node pos="l" depth="1" NCoef="0" IVar="2" Cut="9.1078519821166992e+00" cType="1" res="-2.0890414714813232e-02" rms="3.8168221712112427e-01" purity="5.2704757452011108e-01" nType="0">
          <Node pos="l" depth="2" NCoef="0" IVar="-1" Cut="0.0000000000000000e+00" cType="1" res="-1.0477474890649319e-02" rms="3.9773288369178772e-01" purity="4.5253065228462219e-01" nType="-99"/>
          <Node pos="r" depth="2" NCoef="0" IVar="-1" Cut="0.0000000000000000e+00" cType="1" res="6.2471954151988029e-03" rms="3.5682138800621033e-01" purity="6.2158083915710449e-01" nType="-99"/>
        </Node>
        <Node pos="r" depth="1" NCoef="0" IVar="1" Cut="5.4180102348327637e+00" cType="1" res="-2.9457273194566369e-04" rms="3.4913316369056702e-01" purity="4.9380451440811157e-01" nType="0">
          <Node pos="l" depth="2" NCoef="0" IVar="-1" Cut="0.0000000000000000e+00" cType="1" res="5.0986446440219879e-03" rms="4.0393328666687012e-01" purity="3.0243608355522156e-01" nType="-99"/>
          <Node pos="r" depth="2" NCoef="0" IVar="-1" Cut="0.0000000000000000e+00" cType="1" res="-7.6630333205685019e-04" rms="3.4314525127410889e-01" purity="5.1278120279312134e-01" nType="-99"/>
        </Node>
      </Node>
    </BinaryTree>
    <BinaryTree type="DecisionTree" boostWeight="1.0000000000000000e+00" itree="238">
      <Node pos="s" depth="0" NCoef="0" IVar="2" Cut="8.1608285903930664e+00" cType="1" res="1.4980871928855777e-03" rms="3.4928107261657715e-01" purity="5.0045156478881836e-01" nType="0">
        <Node pos="l" depth="1" NCoef="0" IVar="-1" Cut="0.0000000000000000e+00" cType="1" res="-5.8784694410860538e-03" rms="3.4898576140403748e-01" purity="4.2846921086311340e-01" nType="-99"/>
        <Node pos="r" depth="1" NCoef="0" IVar="6" Cut="-9.4270032644271851e-01" cType="1" res="3.1771729700267315e-03" rms="3.4921458363533020e-01" purity="5.0418764352798462e-01" nType="0">
          <Node pos="l" depth="2" NCoef="0" IVar="-1" Cut="0.0000000000000000e+00" cType="1" res="1.3719419948756695e-03" rms="3.4780433773994446e-01" purity="5.2023178339004517e-01" nType="-99"/>
          <Node pos="r" depth="2" NCoef="0" IVar="-1" Cut="0.0000000000000000e+00" cType="1" res="-5.3749405778944492e-03" rms="3.7143778800964355e-01" purity="2.3425693809986115e-01" nType="-99"/>
        </Node>
      </Node>
    </BinaryTree>
    <BinaryTree type="DecisionTree" boostWeight="1.0000000000000000e+00" itree="239">
      <Node pos="s" depth="0" NCoef="0" IVar="5" Cut="7.6898860931396484e+00" cType="1" res="-9.5074804266914725e-04" rms="3.5224744677543640e-01" purity="4.9876061081886292e-01" nType="0">
        <Node pos="l" depth="1" NCoef="0" IVar="3" Cut="-2.5357570648193359e+00" cType="1" res="1.7233141697943211e-03" rms="3.4997385740280151e-01" purity="5.0825136899948120e-01" nType="0">
          <Node pos="l" depth="2" NCoef="0" IVar="-1" Cut="0.0000000000000000e+00" cType="1" res="1.3681486248970032e-02" rms="2.6974326372146606e-01" purity="7.6440423727035522e-01" nType="-99"/>
          <Node pos="r" depth="2" NCoef="0" IVar="-1" Cut="0.0000000000000000e+00" cType="1" res="1.3986007252242416e-04" rms="3.5315519571304321e-01" purity="4.9654215574264526e-01" nType="-99"/>
        </Node>
        <Node pos="r" depth="1" NCoef="0" IVar="8" Cut="2.3249737918376923e-01" cType="1" res="-1.4953073114156723e-02" rms="3.6359992623329163e-01" purity="4.4906374812126160e-01" nType="0">
          <Node pos="l" depth="2" NCoef="0" IVar="-1" Cut="0.0000000000000000e+00" cType="1" res="-4.9007926136255264e-03" rms="3.6303523182868958e-01" purity="4.5210245251655579e-01" nType="-99"/>
          <Node pos="r" depth="2" NCoef="0" IVar="-1" Cut="0.0000000000000000e+00" cType="1" res="1.9032778218388557e-03" rms="3.6468100547790527e-01" purity="4.3894842267036438e-01" nType="-99"/>
        </Node>
      </Node>
    </BinaryTree>
    <BinaryTree type="DecisionTree" boostWeight="1.0000000000000000e+00" itree="240">
      <Node pos="s" depth="0" NCoef="0" IVar="9" Cut="3.0000000000000000e+00" cType="1" res="-1.4290085528045893e-03" rms="2.2827349603176117e-01" purity="4.9499440193176270e-01" nType="0">
        <Node pos="l" depth="1" NCoef="0" IVar="12" Cut="7.6166689395904541e-01" cType="1" res="1.2427233159542084e-02" rms="3.0997386574745178e-01" purity="6.3482213020324707e-01" nType="0">
          <Node pos="l" depth="2" NCoef="0" IVar="-1" Cut="0.0000000000000000e+00" cType="1" res="5.9577734209597111e-03" rms="3.0167326331138611e-01" purity="8.3995354175567627e-01" nType="-99"/>
          <Node pos="r" depth="2" NCoef="0" IVar="-1" Cut="0.0000000000000000e+00" cType="1" res="-1.5472790692001581e-03" rms="3.2590621709823608e-01" purity="2.0651865005493164e-01" nType="-99"/>
        </Node>
        <Node pos="r" depth="1" NCoef="0" IVar="7" Cut="1.5810780525207520e+00" cType="1" res="-6.3350689597427845e-03" rms="3.5651010274887085e-01" purity="4.7177770733833313e-01" nType="0">
          <Node pos="l" depth="2" NCoef="0" IVar="-1" Cut="0.0000000000000000e+00" cType="1" res="-1.5274356119334698e-03" rms="3.5726186633110046e-01" purity="4.8113834857940674e-01" nType="-99"/>
          <Node pos="r" depth="2" NCoef="0" IVar="-1" Cut="0.0000000000000000e+00" cType="1" res="-1.3217322528362274e-02" rms="3.3235874772071838e-01" purity="1.9952422380447388e-01" nType="-99"/>
        </Node>
      </Node>
    </BinaryTree>
    <BinaryTree type="DecisionTree" boostWeight="1.0000000000000000e+00" itree="241">
      <Node pos="s" depth="0" NCoef="0" IVar="2" Cut="8.3750495910644531e+00" cType="1" res="9.1758562484756112e-04" rms="3.5168826580047607e-01" purity="5.0013244152069092e-01" nType="0">
        <Node pos="l" depth="1" NCoef="0" IVar="3" Cut="2.6980376243591309e-01" cType="1" res="2.1712286397814751e-02" rms="3.6938172578811646e-01" purity="4.8345917463302612e-01" nType="0">
          <Node pos="l" depth="2" NCoef="0" IVar="-1" Cut="0.0000000000000000e+00" cType="1" res="-1.4254124835133553e-03" rms="3.4963318705558777e-01" purity="5.4483348131179810e-01" nType="-99"/>
          <Node pos="r" depth="2" NCoef="0" IVar="-1" Cut="0.0000000000000000e+00" cType="1" res="7.8848684206604958e-03" rms="3.8380283117294312e-01" purity="4.3082305788993835e-01" nType="-99"/>
        </Node>
        <Node pos="r" depth="1" NCoef="0" IVar="3" Cut="5.3111314773559570e-01" cType="1" res="-1.3514094753190875e-03" rms="3.4962865710258484e-01" purity="5.0195175409317017e-01" nType="0">
          <Node pos="l" depth="2" NCoef="0" IVar="-1" Cut="0.0000000000000000e+00" cType="1" res="1.9069984555244446e-03" rms="3.3904173970222473e-01" purity="6.0058367252349854e-01" nType="-99"/>
          <Node pos="r" depth="2" NCoef="0" IVar="-1" Cut="0.0000000000000000e+00" cType="1" res="-3.2863621599972248e-03" rms="3.6531731486320496e-01" purity="3.4767293930053711e-01" nType="-99"/>
        </Node>
      </Node>
    </BinaryTree>
    <BinaryTree type="DecisionTree" boostWeight="1.0000000000000000e+00" itree="242">
      <Node pos="s" depth="0" NCoef="0" IVar="9" Cut="4.6931471824645996e+00" cType="1" res="4.0617713239043951e-05" rms="2.2808603942394257e-01" purity="4.9730497598648071e-01" nType="0">
        <Node pos="l" depth="1" NCoef="0" IVar="2" Cut="8.8068008422851562e+00" cType="1" res="-1.1768221156671643e-03" rms="3.5142174363136292e-01" purity="4.9733090400695801e-01" nType="0">
          <Node pos="l" depth="2" NCoef="0" IVar="-1" Cut="0.0000000000000000e+00" cType="1" res="-2.1060763392597437e-03" rms="3.6610561609268188e-01" purity="4.7025525569915771e-01" nType="-99"/>
          <Node pos="r" depth="2" NCoef="0" IVar="-1" Cut="0.0000000000000000e+00" cType="1" res="9.2820648569613695e-04" rms="3.4492874145507812e-01" purity="5.0882804393768311e-01" nType="-99"/>
        </Node>
        <Node pos="r" depth="1" NCoef="0" IVar="-1" Cut="0.0000000000000000e+00" cType="1" res="-6.8473685532808304e-03" rms="3.1000936031341553e-01" purity="2.5595650076866150e-01" nType="-99"/>
      </Node>
    </BinaryTree>
    <BinaryTree type="DecisionTree" boostWeight="1.0000000000000000e+00" itree="243">
      <Node pos="s" depth="0" NCoef="0" IVar="11" Cut="6.1894172430038452e-01" cType="1" res="1.8397728854324669e-04" rms="3.4772163629531860e-01" purity="4.9939560890197754e-01" nType="0">
        <Node pos="l" depth="1" NCoef="0" IVar="12" Cut="2.3802055418491364e-01" cType="1" res="-4.2313090525567532e-03" rms="3.6094596982002258e-01" purity="3.0921268463134766e-01" nType="0">
          <Node pos="l" depth="2" NCoef="0" IVar="-1" Cut="0.0000000000000000e+00" cType="1" res="-7.9994387924671173e-03" rms="3.8259714841842651e-01" purity="5.3228050470352173e-01" nType="-99"/>
          <Node pos="r" depth="2" NCoef="0" IVar="-1" Cut="0.0000000000000000e+00" cType="1" res="-6.3268805388361216e-04" rms="3.5937464237213135e-01" purity="2.9430148005485535e-01" nType="-99"/>
        </Node>
        <Node pos="r" depth="1" NCoef="0" IVar="5" Cut="7.2629075050354004e+00" cType="1" res="8.7530715391039848e-03" rms="3.2032915949821472e-01" purity="8.6849868297576904e-01" nType="0">
          <Node pos="l" depth="2" NCoef="0" IVar="-1" Cut="0.0000000000000000e+00" cType="1" res="7.7985515817999840e-03" rms="2.7900326251983643e-01" purity="9.0611994266510010e-01" nType="-99"/>
          <Node pos="r" depth="2" NCoef="0" IVar="-1" Cut="0.0000000000000000e+00" cType="1" res="-1.1684239143505692e-03" rms="3.8809841871261597e-01" purity="7.9516881704330444e-01" nType="-99"/>
        </Node>
      </Node>
    </BinaryTree>
    <BinaryTree type="DecisionTree" boostWeight="1.0000000000000000e+00" itree="244">
      <Node pos="s" depth="0" NCoef="0" IVar="4" Cut="-2.2676930427551270e+00" cType="1" res="-5.5323686683550477e-04" rms="3.5026952624320984e-01" purity="5.0030732154846191e-01" nType="0">
        <Node pos="l" depth="1" NCoef="0" IVar="7" Cut="3.2553634047508240e-01" cType="1" res="2.2434307262301445e-02" rms="3.1582957506179810e-01" purity="6.1150205135345459e-01" nType="0">
          <Node pos="l" depth="2" NCoef="0" IVar="-1" Cut="0.0000000000000000e+00" cType="1" res="1.1156626977026463e-02" rms="3.1032612919807434e-01" purity="6.3772070407867432e-01" nType="-99"/>
          <Node pos="r" depth="2" NCoef="0" IVar="-1" Cut="0.0000000000000000e+00" cType="1" res="3.0035187955945730e-03" rms="3.2443362474441528e-01" purity="5.6736469268798828e-01" nType="-99"/>
        </Node>
        <Node pos="r" depth="1" NCoef="0" IVar="6" Cut="-2.6621127128601074e+00" cType="1" res="-3.0074687674641609e-03" rms="3.5366016626358032e-01" purity="4.8843577504158020e-01" nType="0">
          <Node pos="l" depth="2" NCoef="0" IVar="-1" Cut="0.0000000000000000e+00" cType="1" res="4.5943545410409570e-04" rms="3.3688634634017944e-01" purity="5.6318134069442749e-01" nType="-99"/>
          <Node pos="r" depth="2" NCoef="0" IVar="-1" Cut="0.0000000000000000e+00" cType="1" res="-2.3227576166391373e-03" rms="3.7372335791587830e-01" purity="3.9388442039489746e-01" nType="-99"/>
        </Node>
      </Node>
    </BinaryTree>
    <BinaryTree type="DecisionTree" boostWeight="1.0000000000000000e+00" itree="245">
      <Node pos="s" depth="0" NCoef="0" IVar="9" Cut="3.0000000000000000e+00" cType="1" res="2.7097092242911458e-04" rms="2.2782619297504425e-01" purity="4.9758473038673401e-01" nType="0">
        <Node pos="l" depth="1" NCoef="0" IVar="12" Cut="3.3327436447143555e-01" cType="1" res="8.7405219674110413e-03" rms="3.1836992502212524e-01" purity="6.3899284601211548e-01" nType="0">
          <Node pos="l" depth="2" NCoef="0" IVar="-1" Cut="0.0000000000000000e+00" cType="1" res="-3.5169057082384825e-04" rms="2.7744048833847046e-01" purity="8.8324898481369019e-01" nType="-99"/>
          <Node pos="r" depth="2" NCoef="0" IVar="-1" Cut="0.0000000000000000e+00" cType="1" res="4.1422680951654911e-03" rms="3.5648536682128906e-01" purity="3.7936294078826904e-01" nType="-99"/>
        </Node>
        <Node pos="r" depth="1" NCoef="0" IVar="13" Cut="8.0943709611892700e-01" cType="1" res="-4.1453526355326176e-03" rms="3.5395312309265137e-01" purity="4.7444191575050354e-01" nType="0">
          <Node pos="l" depth="2" NCoef="0" IVar="-1" Cut="0.0000000000000000e+00" cType="1" res="-7.2586606256663799e-04" rms="3.5211002826690674e-01" purity="4.5827043056488037e-01" nType="-99"/>
          <Node pos="r" depth="2" NCoef="0" IVar="-1" Cut="0.0000000000000000e+00" cType="1" res="-9.9783455953001976e-03" rms="3.7776687741279602e-01" purity="6.9768720865249634e-01" nType="-99"/>
        </Node>
      </Node>
    </BinaryTree>
    <BinaryTree type="DecisionTree" boostWeight="1.0000000000000000e+00" itree="246">
      <Node pos="s" depth="0" NCoef="0" IVar="7" Cut="1.5567166805267334e+00" cType="1" res="3.1815469264984131e-04" rms="3.5103470087051392e-01" purity="4.9917051196098328e-01" nType="0">
        <Node pos="l" depth="1" NCoef="0" IVar="9" Cut="4.6931471824645996e+00" cType="1" res="3.0673106666654348e-03" rms="2.2931337356567383e-01" purity="5.0942826271057129e-01" nType="0">
          <Node pos="l" depth="2" NCoef="0" IVar="-1" Cut="0.0000000000000000e+00" cType="1" res="4.8772711306810379e-04" rms="3.5185280442237854e-01" purity="5.0946235656738281e-01" nType="-99"/>
          <Node pos="r" depth="2" NCoef="0" IVar="-1" Cut="0.0000000000000000e+00" cType="1" res="3.8689561188220978e-02" rms="4.3169435858726501e-01" purity="2.2313559055328369e-01" nType="-99"/>
        </Node>
        <Node pos="r" depth="1" NCoef="0" IVar="-1" Cut="0.0000000000000000e+00" cType="1" res="-1.2834593653678894e-02" rms="3.2489332556724548e-01" purity="2.1291521191596985e-01" nType="-99"/>
      </Node>
    </BinaryTree>
    <BinaryTree type="DecisionTree" boostWeight="1.0000000000000000e+00" itree="247">
      <Node pos="s" depth="0" NCoef="0" IVar="5" Cut="6.4922161102294922e+00" cType="1" res="3.0799380037933588e-03" rms="3.5133314132690430e-01" purity="5.0159716606140137e-01" nType="0">
        <Node pos="l" depth="1" NCoef="0" IVar="12" Cut="7.1393722295761108e-01" cType="1" res="1.1641203425824642e-02" rms="3.6234483122825623e-01" purity="5.3484839200973511e-01" nType="0">
          <Node pos="l" depth="2" NCoef="0" IVar="-1" Cut="0.0000000000000000e+00" cType="1" res="5.2280584350228310e-04" rms="3.2731664180755615e-01" purity="7.8325164318084717e-01" nType="-99"/>
          <Node pos="r" depth="2" NCoef="0" IVar="-1" Cut="0.0000000000000000e+00" cType="1" res="5.4862862452864647e-03" rms="3.9444857835769653e-01" purity="2.8282955288887024e-01" nType="-99"/>
        </Node>
        <Node pos="r" depth="1" NCoef="0" IVar="2" Cut="9.4527740478515625e+00" cType="1" res="-2.9441132210195065e-03" rms="3.4324535727500916e-01" purity="4.7820031642913818e-01" nType="0">
          <Node pos="l" depth="2" NCoef="0" IVar="-1" Cut="0.0000000000000000e+00" cType="1" res="4.2421999387443066e-04" rms="3.4347671270370483e-01" purity="4.8491668701171875e-01" nType="-99"/>
          <Node pos="r" depth="2" NCoef="0" IVar="-1" Cut="0.0000000000000000e+00" cType="1" res="-8.1983180716633797e-03" rms="3.4202286601066589e-01" purity="4.5564836263656616e-01" nType="-99"/>
        </Node>
      </Node>
    </BinaryTree>
    <BinaryTree type="DecisionTree" boostWeight="1.0000000000000000e+00" itree="248">
      <Node pos="s" depth="0" NCoef="0" IVar="12" Cut="6.6641205549240112e-01" cType="1" res="-9.7653828561306000e-04" rms="3.5094889998435974e-01" purity="4.9451938271522522e-01" nType="0">
        <Node pos="l" depth="1" NCoef="0" IVar="12" Cut="4.4427707791328430e-01" cType="1" res="4.3007335625588894e-03" rms="3.6237534880638123e-01" purity="7.6015919446945190e-01" nType="0">
          <Node pos="l" depth="2" NCoef="0" IVar="-1" Cut="0.0000000000000000e+00" cType="1" res="-2.0064173440914601e-04" rms="3.4326490759849548e-01" purity="8.0588048696517944e-01" nType="-99"/>
          <Node pos="r" depth="2" NCoef="0" IVar="-1" Cut="0.0000000000000000e+00" cType="1" res="4.6231886371970177e-03" rms="4.3463492393493652e-01" purity="5.6302702426910400e-01" nType="-99"/>
        </Node>
        <Node pos="r" depth="1" NCoef="0" IVar="1" Cut="5.4513959884643555e+00" cType="1" res="-6.8719815462827682e-03" rms="3.3762955665588379e-01" purity="1.9776302576065063e-01" nType="0">
          <Node pos="l" depth="2" NCoef="0" IVar="-1" Cut="0.0000000000000000e+00" cType="1" res="3.4690892789512873e-03" rms="4.0183657407760620e-01" purity="2.4863444268703461e-01" nType="-99"/>
          <Node pos="r" depth="2" NCoef="0" IVar="-1" Cut="0.0000000000000000e+00" cType="1" res="-3.7890539970248938e-03" rms="3.2127600908279419e-01" purity="1.8635813891887665e-01" nType="-99"/>
        </Node>
      </Node>
    </BinaryTree>
    <BinaryTree type="DecisionTree" boostWeight="1.0000000000000000e+00" itree="249">
      <Node pos="s" depth="0" NCoef="0" IVar="7" Cut="-5.1787871122360229e-01" cType="1" res="-2.4466668255627155e-03" rms="3.5117381811141968e-01" purity="4.9509266018867493e-01" nType="0">
        <Node pos="l" depth="1" NCoef="0" IVar="6" Cut="-4.3145623207092285e+00" cType="1" res="-1.4166529290378094e-02" rms="3.5611268877983093e-01" purity="5.0771826505661011e-01" nType="0">
          <Node pos="l" depth="2" NCoef="0" IVar="-1" Cut="0.0000000000000000e+00" cType="1" res="3.4152979496866465e-03" rms="3.1644609570503235e-01" purity="6.1155509948730469e-01" nType="-99"/>
          <Node pos="r" depth="2" NCoef="0" IVar="-1" Cut="0.0000000000000000e+00" cType="1" res="-6.5074414014816284e-03" rms="3.7209278345108032e-01" purity="4.6103352308273315e-01" nType="-99"/>
        </Node>
        <Node pos="r" depth="1" NCoef="0" IVar="7" Cut="6.8855613470077515e-01" cType="1" res="4.5399912050925195e-04" rms="3.4988009929656982e-01" purity="4.9196782708168030e-01" nType="0">
          <Node pos="l" depth="2" NCoef="0" IVar="-1" Cut="0.0000000000000000e+00" cType="1" res="7.9775782069191337e-04" rms="3.5049131512641907e-01" purity="5.1392078399658203e-01" nType="-99"/>
          <Node pos="r" depth="2" NCoef="0" IVar="-1" Cut="0.0000000000000000e+00" cType="1" res="-2.3304983042180538e-03" rms="3.4755620360374451e-01" purity="4.1303801536560059e-01" nType="-99"/>
        </Node>
      </Node>
    </BinaryTree>
    <BinaryTree type="DecisionTree" boostWeight="1.0000000000000000e+00" itree="250">
      <Node pos="s" depth="0" NCoef="0" IVar="9" Cut="3.6931471824645996e+00" cType="1" res="9.0296007692813873e-04" rms="2.2820815443992615e-01" purity="5.0273686647415161e-01" nType="0">
        <Node pos="l" depth="1" NCoef="0" IVar="5" Cut="6.4119720458984375e+00" cType="1" res="2.4768069852143526e-03" rms="3.4026053547859192e-01" purity="5.4155045747756958e-01" nType="0">
          <Node pos="l" depth="2" NCoef="0" IVar="-1" Cut="0.0000000000000000e+00" cType="1" res="2.9216327238827944e-03" rms="3.5453853011131287e-01" purity="5.8178395032882690e-01" nType="-99"/>
          <Node pos="r" depth="2" NCoef="0" IVar="-1" Cut="0.0000000000000000e+00" cType="1" res="-7.6638546306639910e-04" rms="3.3094218373298645e-01" purity="5.1648414134979248e-01" nType="-99"/>
        </Node>
        <Node pos="r" depth="1" NCoef="0" IVar="13" Cut="4.7612622380256653e-02" cType="1" res="1.0936687467619777e-03" rms="3.6608862876892090e-01" purity="4.2042350769042969e-01" nType="0">
          <Node pos="l" depth="2" NCoef="0" IVar="-1" Cut="0.0000000000000000e+00" cType="1" res="-3.1008517835289240e-03" rms="2.9595440626144409e-01" purity="1.8749098479747772e-01" nType="-99"/>
          <Node pos="r" depth="2" NCoef="0" IVar="-1" Cut="0.0000000000000000e+00" cType="1" res="2.3139505647122860e-03" rms="4.2093932628631592e-01" purity="6.3740712404251099e-01" nType="-99"/>
        </Node>
      </Node>
    </BinaryTree>
    <BinaryTree type="DecisionTree" boostWeight="1.0000000000000000e+00" itree="251">
      <Node pos="s" depth="0" NCoef="0" IVar="5" Cut="7.0944299697875977e+00" cType="1" res="6.4257765188813210e-04" rms="3.5099232196807861e-01" purity="4.9829867482185364e-01" nType="0">
        <Node pos="l" depth="1" NCoef="0" IVar="5" Cut="5.2394003868103027e+00" cType="1" res="4.6019298024475574e-03" rms="3.5222870111465454e-01" purity="5.1610666513442993e-01" nType="0">
          <Node pos="l" depth="2" NCoef="0" IVar="-1" Cut="0.0000000000000000e+00" cType="1" res="-5.4339240305125713e-03" rms="3.7678784132003784e-01" purity="5.4223203659057617e-01" nType="-99"/>
          <Node pos="r" depth="2" NCoef="0" IVar="-1" Cut="0.0000000000000000e+00" cType="1" res="2.2811759263277054e-03" rms="3.4941691160202026e-01" purity="5.1333582401275635e-01" nType="-99"/>
        </Node>
        <Node pos="r" depth="1" NCoef="0" IVar="3" Cut="-8.1442669034004211e-02" cType="1" res="-7.2368844412267208e-03" rms="3.4838491678237915e-01" purity="4.6285912394523621e-01" nType="0">
          <Node pos="l" depth="2" NCoef="0" IVar="-1" Cut="0.0000000000000000e+00" cType="1" res="-1.0592345148324966e-02" rms="3.4291544556617737e-01" purity="5.9745311737060547e-01" nType="-99"/>
          <Node pos="r" depth="2" NCoef="0" IVar="-1" Cut="0.0000000000000000e+00" cType="1" res="-6.1771723267156631e-05" rms="3.4940430521965027e-01" purity="4.2888501286506653e-01" nType="-99"/>
        </Node>
      </Node>
    </BinaryTree>
    <BinaryTree type="DecisionTree" boostWeight="1.0000000000000000e+00" itree="252">
      <Node pos="s" depth="0" NCoef="0" IVar="5" Cut="5.0849614143371582e+00" cType="1" res="-4.0837512351572514e-03" rms="3.4889513254165649e-01" purity="4.9755424261093140e-01" nType="0">
        <Node pos="l" depth="1" NCoef="0" IVar="-1" Cut="0.0000000000000000e+00" cType="1" res="-9.8796719685196877e-03" rms="3.7534728646278381e-01" purity="5.3058457374572754e-01" nType="-99"/>
        <Node pos="r" depth="1" NCoef="0" IVar="5" Cut="8.5696163177490234e+00" cType="1" res="-2.4937221314758062e-03" rms="3.4749138355255127e-01" purity="4.9596366286277771e-01" nType="0">
          <Node pos="l" depth="2" NCoef="0" IVar="-1" Cut="0.0000000000000000e+00" cType="1" res="-3.8537327782250941e-04" rms="3.4532296657562256e-01" purity="4.9866437911987305e-01" nType="-99"/>
          <Node pos="r" depth="2" NCoef="0" IVar="-1" Cut="0.0000000000000000e+00" cType="1" res="-8.5994191467761993e-03" rms="4.0479493141174316e-01" purity="4.1599673032760620e-01" nType="-99"/>
        </Node>
      </Node>
    </BinaryTree>
    <BinaryTree type="DecisionTree" boostWeight="1.0000000000000000e+00" itree="253">
      <Node pos="s" depth="0" NCoef="0" IVar="5" Cut="4.8044390678405762e+00" cType="1" res="-2.3409830464515835e-04" rms="3.5030904412269592e-01" purity="4.9683344364166260e-01" nType="0">
        <Node pos="l" depth="1" NCoef="0" IVar="-1" Cut="0.0000000000000000e+00" cType="1" res="-9.9613368511199951e-03" rms="3.7869220972061157e-01" purity="5.2581560611724854e-01" nType="-99"/>
        <Node pos="r" depth="1" NCoef="0" IVar="13" Cut="7.6183474063873291e-01" cType="1" res="6.9820194039493799e-04" rms="3.4947478771209717e-01" purity="4.9606269598007202e-01" nType="0">
          <Node pos="l" depth="2" NCoef="0" IVar="-1" Cut="0.0000000000000000e+00" cType="1" res="5.5777170928195119e-04" rms="3.4899079799652100e-01" purity="4.6877023577690125e-01" nType="-99"/>
          <Node pos="r" depth="2" NCoef="0" IVar="-1" Cut="0.0000000000000000e+00" cType="1" res="-4.0848362259566784e-03" rms="3.5368144512176514e-01" purity="7.4607723951339722e-01" nType="-99"/>
        </Node>
      </Node>
    </BinaryTree>
    <BinaryTree type="DecisionTree" boostWeight="1.0000000000000000e+00" itree="254">
      <Node pos="s" depth="0" NCoef="0" IVar="12" Cut="2.8562259674072266e-01" cType="1" res="3.6085622850805521e-03" rms="3.5331538319587708e-01" purity="5.0431489944458008e-01" nType="0">
        <Node pos="l" depth="1" NCoef="0" IVar="11" Cut="5.7133203744888306e-01" cType="1" res="-6.7702909000217915e-03" rms="3.3796343207359314e-01" purity="8.2124400138854980e-01" nType="0">
          <Node pos="l" depth="2" NCoef="0" IVar="-1" Cut="0.0000000000000000e+00" cType="1" res="-1.2509413994848728e-02" rms="3.8858398795127869e-01" purity="5.0920480489730835e-01" nType="-99"/>
          <Node pos="r" depth="2" NCoef="0" IVar="-1" Cut="0.0000000000000000e+00" cType="1" res="-7.1052333805710077e-04" rms="3.3109256625175476e-01" purity="8.5833019018173218e-01" nType="-99"/>
        </Node>
        <Node pos="r" depth="1" NCoef="0" IVar="12" Cut="9.6567761898040771e-01" cType="1" res="1.0002682916820049e-02" rms="3.6230176687240601e-01" purity="3.0906379222869873e-01" nType="0">
          <Node pos="l" depth="2" NCoef="0" IVar="-1" Cut="0.0000000000000000e+00" cType="1" res="3.3126794733107090e-03" rms="4.1291588544845581e-01" purity="4.1197717189788818e-01" nType="-99"/>
          <Node pos="r" depth="2" NCoef="0" IVar="-1" Cut="0.0000000000000000e+00" cType="1" res="-8.5251471027731895e-03" rms="1.5080143511295319e-01" purity="2.5503112003207207e-02" nType="-99"/>
        </Node>
      </Node>
    </BinaryTree>
    <BinaryTree type="DecisionTree" boostWeight="1.0000000000000000e+00" itree="255">
      <Node pos="s" depth="0" NCoef="0" IVar="11" Cut="5.2369219064712524e-01" cType="1" res="3.1128081027418375e-03" rms="3.4841516613960266e-01" purity="5.0070923566818237e-01" nType="0">
        <Node pos="l" depth="1" NCoef="0" IVar="12" Cut="2.3803581297397614e-01" cType="1" res="-2.2350209765136242e-03" rms="3.6311402916908264e-01" purity="2.9000595211982727e-01" nType="0">
          <Node pos="l" depth="2" NCoef="0" IVar="-1" Cut="0.0000000000000000e+00" cType="1" res="-1.1800604872405529e-02" rms="3.7102302908897400e-01" purity="3.8956767320632935e-01" nType="-99"/>
          <Node pos="r" depth="2" NCoef="0" IVar="-1" Cut="0.0000000000000000e+00" cType="1" res="-1.0227324673905969e-04" rms="3.6266398429870605e-01" purity="2.8587746620178223e-01" nType="-99"/>
        </Node>
        <Node pos="r" depth="1" NCoef="0" IVar="12" Cut="1.8017221987247467e-01" cType="1" res="1.2395888566970825e-02" rms="3.2109585404396057e-01" purity="8.6646062135696411e-01" nType="0">
          <Node pos="l" depth="2" NCoef="0" IVar="-1" Cut="0.0000000000000000e+00" cType="1" res="3.5736986901611090e-03" rms="3.1792068481445312e-01" purity="8.6898821592330933e-01" nType="-99"/>
          <Node pos="r" depth="2" NCoef="0" IVar="-1" Cut="0.0000000000000000e+00" cType="1" res="9.4943232834339142e-03" rms="3.4102603793144226e-01" purity="8.4931755065917969e-01" nType="-99"/>
        </Node>
      </Node>
    </BinaryTree>
    <BinaryTree type="DecisionTree" boostWeight="1.0000000000000000e+00" itree="256">
      <Node pos="s" depth="0" NCoef="0" IVar="7" Cut="-1.4056099653244019e+00" cType="1" res="1.3753725215792656e-03" rms="3.5188028216362000e-01" purity="4.9979540705680847e-01" nType="0">
        <Node pos="l" depth="1" NCoef="0" IVar="-1" Cut="0.0000000000000000e+00" cType="1" res="-7.5077228248119354e-03" rms="3.5251840949058533e-01" purity="4.8280876874923706e-01" nType="-99"/>
        <Node pos="r" depth="1" NCoef="0" IVar="12" Cut="1.4282834529876709e-01" cType="1" res="2.4667805992066860e-03" rms="3.5180976986885071e-01" purity="5.0044155120849609e-01" nType="0">
          <Node pos="l" depth="2" NCoef="0" IVar="-1" Cut="0.0000000000000000e+00" cType="1" res="-1.5973390545696020e-03" rms="3.2545119524002075e-01" purity="8.3367061614990234e-01" nType="-99"/>
          <Node pos="r" depth="2" NCoef="0" IVar="-1" Cut="0.0000000000000000e+00" cType="1" res="1.4719247119501233e-03" rms="3.6334565281867981e-01" purity="3.4589344263076782e-01" nType="-99"/>
        </Node>
      </Node>
    </BinaryTree>
    <BinaryTree type="DecisionTree" boostWeight="1.0000000000000000e+00" itree="257">
      <Node pos="s" depth="0" NCoef="0" IVar="9" Cut="3.6931471824645996e+00" cType="1" res="8.6403964087367058e-04" rms="2.3257520794868469e-01" purity="4.9752750992774963e-01" nType="0">
        <Node pos="l" depth="1" NCoef="0" IVar="5" Cut="6.2382860183715820e+00" cType="1" res="-7.5829168781638145e-04" rms="3.4398427605628967e-01" purity="5.3669732809066772e-01" nType="0">
          <Node pos="l" depth="2" NCoef="0" IVar="-1" Cut="0.0000000000000000e+00" cType="1" res="3.1125179957598448e-03" rms="3.6789914965629578e-01" purity="5.8228439092636108e-01" nType="-99"/>
          <Node pos="r" depth="2" NCoef="0" IVar="-1" Cut="0.0000000000000000e+00" cType="1" res="-1.8351710168644786e-03" rms="3.3214107155799866e-01" purity="5.1557004451751709e-01" nType="-99"/>
        </Node>
        <Node pos="r" depth="1" NCoef="0" IVar="5" Cut="6.5490531921386719e+00" cType="1" res="-2.8600744553841650e-04" rms="3.6787927150726318e-01" purity="4.1370689868927002e-01" nType="0">
          <Node pos="l" depth="2" NCoef="0" IVar="-1" Cut="0.0000000000000000e+00" cType="1" res="-4.3374253436923027e-03" rms="3.7636366486549377e-01" purity="4.1823098063468933e-01" nType="-99"/>
          <Node pos="r" depth="2" NCoef="0" IVar="-1" Cut="0.0000000000000000e+00" cType="1" res="3.0250195413827896e-03" rms="3.6105296015739441e-01" purity="4.1025331616401672e-01" nType="-99"/>
        </Node>
      </Node>
    </BinaryTree>
    <BinaryTree type="DecisionTree" boostWeight="1.0000000000000000e+00" itree="258">
      <Node pos="s" depth="0" NCoef="0" IVar="1" Cut="5.1873960494995117e+00" cType="1" res="-1.9986021798104048e-03" rms="3.5382491350173950e-01" purity="4.9582728743553162e-01" nType="0">
        <Node pos="l" depth="1" NCoef="0" IVar="7" Cut="1.5973033010959625e-01" cType="1" res="-2.3043746128678322e-02" rms="4.0720912814140320e-01" purity="2.5346291065216064e-01" nType="0">
          <Node pos="l" depth="2" NCoef="0" IVar="-1" Cut="0.0000000000000000e+00" cType="1" res="-7.7817165292799473e-03" rms="4.0949088335037231e-01" purity="2.5746467709541321e-01" nType="-99"/>
          <Node pos="r" depth="2" NCoef="0" IVar="-1" Cut="0.0000000000000000e+00" cType="1" res="-6.1859766719862819e-04" rms="4.0348231792449951e-01" purity="2.4862033128738403e-01" nType="-99"/>
        </Node>
        <Node pos="r" depth="1" NCoef="0" IVar="5" Cut="6.4289240837097168e+00" cType="1" res="-6.6239078296348453e-04" rms="3.5011804103851318e-01" purity="5.1121562719345093e-01" nType="0">
          <Node pos="l" depth="2" NCoef="0" IVar="-1" Cut="0.0000000000000000e+00" cType="1" res="2.1512983366847038e-03" rms="3.5485380887985229e-01" purity="5.7358813285827637e-01" nType="-99"/>
          <Node pos="r" depth="2" NCoef="0" IVar="-1" Cut="0.0000000000000000e+00" cType="1" res="-1.4208205975592136e-03" rms="3.4735241532325745e-01" purity="4.7608757019042969e-01" nType="-99"/>
        </Node>
      </Node>
    </BinaryTree>
    <BinaryTree type="DecisionTree" boostWeight="1.0000000000000000e+00" itree="259">
      <Node pos="s" depth="0" NCoef="0" IVar="11" Cut="6.6653668880462646e-01" cType="1" res="-1.1750294361263514e-03" rms="3.4886097908020020e-01" purity="5.0235998630523682e-01" nType="0">
        <Node pos="l" depth="1" NCoef="0" IVar="12" Cut="1.4281171560287476e-01" cType="1" res="-5.2476301789283752e-03" rms="3.6250323057174683e-01" purity="3.2216656208038330e-01" nType="0">
          <Node pos="l" depth="2" NCoef="0" IVar="-1" Cut="0.0000000000000000e+00" cType="1" res="-1.1548142880201340e-02" rms="3.5433346033096313e-01" purity="4.7524261474609375e-01" nType="-99"/>
          <Node pos="r" depth="2" NCoef="0" IVar="-1" Cut="0.0000000000000000e+00" cType="1" res="-9.6250494243577123e-04" rms="3.6276364326477051e-01" purity="3.1555271148681641e-01" nType="-99"/>
        </Node>
        <Node pos="r" depth="1" NCoef="0" IVar="5" Cut="5.5840969085693359e+00" cType="1" res="7.1289385668933392e-03" rms="3.1908252835273743e-01" purity="8.6977148056030273e-01" nType="0">
          <Node pos="l" depth="2" NCoef="0" IVar="-1" Cut="0.0000000000000000e+00" cType="1" res="-2.2264122962951660e-02" rms="2.4940170347690582e-01" purity="9.2905563116073608e-01" nType="-99"/>
          <Node pos="r" depth="2" NCoef="0" IVar="-1" Cut="0.0000000000000000e+00" cType="1" res="3.4547166433185339e-03" rms="3.2417336106300354e-01" purity="8.6477071046829224e-01" nType="-99"/>
        </Node>
      </Node>
    </BinaryTree>
    <BinaryTree type="DecisionTree" boostWeight="1.0000000000000000e+00" itree="260">
      <Node pos="s" depth="0" NCoef="0" IVar="2" Cut="9.4508819580078125e+00" cType="1" res="1.6992657911032438e-03" rms="3.5093972086906433e-01" purity="5.0270140171051025e-01" nType="0">
        <Node pos="l" depth="1" NCoef="0" IVar="8" Cut="-5.3617858886718750e-01" cType="1" res="5.1491991616785526e-03" rms="3.5425874590873718e-01" purity="5.0100541114807129e-01" nType="0">
          <Node pos="l" depth="2" NCoef="0" IVar="-1" Cut="0.0000000000000000e+00" cType="1" res="2.6599811390042305e-03" rms="3.9874264597892761e-01" purity="5.3528594970703125e-01" nType="-99"/>
          <Node pos="r" depth="2" NCoef="0" IVar="-1" Cut="0.0000000000000000e+00" cType="1" res="9.3429011758416891e-04" rms="3.4838995337486267e-01" purity="4.9683150649070740e-01" nType="-99"/>
        </Node>
        <Node pos="r" depth="1" NCoef="0" IVar="3" Cut="-6.9546538591384888e-01" cType="1" res="-1.0854627005755901e-02" rms="3.3829081058502197e-01" purity="5.0887316465377808e-01" nType="0">
          <Node pos="l" depth="2" NCoef="0" IVar="-1" Cut="0.0000000000000000e+00" cType="1" res="1.1698560789227486e-02" rms="2.6335135102272034e-01" purity="7.6028364896774292e-01" nType="-99"/>
          <Node pos="r" depth="2" NCoef="0" IVar="-1" Cut="0.0000000000000000e+00" cType="1" res="-9.1747557744383812e-03" rms="3.6254841089248657e-01" purity="4.1184732317924500e-01" nType="-99"/>
        </Node>
      </Node>
    </BinaryTree>
    <BinaryTree type="DecisionTree" boostWeight="1.0000000000000000e+00" itree="261">
      <Node pos="s" depth="0" NCoef="0" IVar="0" Cut="9.3506221771240234e+00" cType="1" res="-2.1116298157721758e-03" rms="3.5264265537261963e-01" purity="4.9833086133003235e-01" nType="0">
        <Node pos="l" depth="1" NCoef="0" IVar="12" Cut="8.0932122468948364e-01" cType="1" res="-6.1785047873854637e-03" rms="3.6920619010925293e-01" purity="4.5071312785148621e-01" nType="0">
          <Node pos="l" depth="2" NCoef="0" IVar="-1" Cut="0.0000000000000000e+00" cType="1" res="-3.1862745527178049e-03" rms="3.9665788412094116e-01" purity="6.5600234270095825e-01" nType="-99"/>
          <Node pos="r" depth="2" NCoef="0" IVar="-1" Cut="0.0000000000000000e+00" cType="1" res="8.4467959823086858e-04" rms="3.2704636454582214e-01" purity="1.6533434391021729e-01" nType="-99"/>
        </Node>
        <Node pos="r" depth="1" NCoef="0" IVar="5" Cut="7.4371395111083984e+00" cType="1" res="4.1174320504069328e-03" rms="3.2554516196250916e-01" purity="5.7126486301422119e-01" nType="0">
          <Node pos="l" depth="2" NCoef="0" IVar="-1" Cut="0.0000000000000000e+00" cType="1" res="5.3289099596440792e-03" rms="2.9453659057617188e-01" purity="6.7475360631942749e-01" nType="-99"/>
          <Node pos="r" depth="2" NCoef="0" IVar="-1" Cut="0.0000000000000000e+00" cType="1" res="-1.6539308708161116e-03" rms="3.5572427511215210e-01" purity="4.5946604013442993e-01" nType="-99"/>
        </Node>
      </Node>
    </BinaryTree>
    <BinaryTree type="DecisionTree" boostWeight="1.0000000000000000e+00" itree="262">
      <Node pos="s" depth="0" NCoef="0" IVar="9" Cut="3.6931471824645996e+00" cType="1" res="4.9914373084902763e-04" rms="2.2827750444412231e-01" purity="5.0314468145370483e-01" nType="0">
        <Node pos="l" depth="1" NCoef="0" IVar="8" Cut="-5.8160108327865601e-01" cType="1" res="-4.5083486475050449e-04" rms="3.4537979960441589e-01" purity="5.4219329357147217e-01" nType="0">
          <Node pos="l" depth="2" NCoef="0" IVar="-1" Cut="0.0000000000000000e+00" cType="1" res="1.9643828272819519e-03" rms="3.9327922463417053e-01" purity="5.7850462198257446e-01" nType="-99"/>
          <Node pos="r" depth="2" NCoef="0" IVar="-1" Cut="0.0000000000000000e+00" cType="1" res="-7.5822090730071068e-04" rms="3.4006276726722717e-01" purity="5.3849577903747559e-01" nType="-99"/>
        </Node>
        <Node pos="r" depth="1" NCoef="0" IVar="2" Cut="8.3143520355224609e+00" cType="1" res="3.7709453608840704e-03" rms="3.6460220813751221e-01" purity="4.1999164223670959e-01" nType="0">
          <Node pos="l" depth="2" NCoef="0" IVar="-1" Cut="0.0000000000000000e+00" cType="1" res="7.4546653777360916e-03" rms="3.9639863371849060e-01" purity="4.1830149292945862e-01" nType="-99"/>
          <Node pos="r" depth="2" NCoef="0" IVar="-1" Cut="0.0000000000000000e+00" cType="1" res="4.2899898835457861e-04" rms="3.6090493202209473e-01" purity="4.2017355561256409e-01" nType="-99"/>
        </Node>
      </Node>
    </BinaryTree>
    <BinaryTree type="DecisionTree" boostWeight="1.0000000000000000e+00" itree="263">
      <Node pos="s" depth="0" NCoef="0" IVar="2" Cut="8.8068008422851562e+00" cType="1" res="-2.6966123841702938e-03" rms="3.5030528903007507e-01" purity="4.9755904078483582e-01" nType="0">
        <Node pos="l" depth="1" NCoef="0" IVar="5" Cut="5.5438737869262695e+00" cType="1" res="-1.3009563088417053e-02" rms="3.5789930820465088e-01" purity="4.6193265914916992e-01" nType="0">
          <Node pos="l" depth="2" NCoef="0" IVar="-1" Cut="0.0000000000000000e+00" cType="1" res="-9.6737854182720184e-03" rms="3.8799363374710083e-01" purity="4.0508028864860535e-01" nType="-99"/>
          <Node pos="r" depth="2" NCoef="0" IVar="-1" Cut="0.0000000000000000e+00" cType="1" res="-1.5673240413889289e-03" rms="3.5297566652297974e-01" purity="4.7016960382461548e-01" nType="-99"/>
        </Node>
        <Node pos="r" depth="1" NCoef="0" IVar="4" Cut="-2.2611692547798157e-02" cType="1" res="1.7736281733959913e-03" rms="3.4686669707298279e-01" purity="5.1300162076950073e-01" nType="0">
          <Node pos="l" depth="2" NCoef="0" IVar="-1" Cut="0.0000000000000000e+00" cType="1" res="2.1178445313125849e-03" rms="3.3363777399063110e-01" purity="5.6422621011734009e-01" nType="-99"/>
          <Node pos="r" depth="2" NCoef="0" IVar="-1" Cut="0.0000000000000000e+00" cType="1" res="-1.9787405617535114e-03" rms="3.7566250562667847e-01" purity="3.9404252171516418e-01" nType="-99"/>
        </Node>
      </Node>
    </BinaryTree>
    <BinaryTree type="DecisionTree" boostWeight="1.0000000000000000e+00" itree="264">
      <Node pos="s" depth="0" NCoef="0" IVar="10" Cut="2.0000000000000000e+00" cType="1" res="-1.4036354841664433e-03" rms="2.6789304614067078e-01" purity="5.0167894363403320e-01" nType="0">
        <Node pos="l" depth="1" NCoef="0" IVar="5" Cut="6.8196258544921875e+00" cType="1" res="4.2206374928355217e-03" rms="3.4057086706161499e-01" purity="5.5874574184417725e-01" nType="0">
          <Node pos="l" depth="2" NCoef="0" IVar="-1" Cut="0.0000000000000000e+00" cType="1" res="2.9602525755763054e-03" rms="3.4343412518501282e-01" purity="5.8825695514678955e-01" nType="-99"/>
          <Node pos="r" depth="2" NCoef="0" IVar="-1" Cut="0.0000000000000000e+00" cType="1" res="-8.0392684321850538e-04" rms="3.3688527345657349e-01" purity="5.2247655391693115e-01" nType="-99"/>
        </Node>
        <Node pos="r" depth="1" NCoef="0" IVar="1" Cut="7.1038146018981934e+00" cType="1" res="-6.4152968116104603e-03" rms="3.6120268702507019e-01" purity="4.4487914443016052e-01" nType="0">
          <Node pos="l" depth="2" NCoef="0" IVar="-1" Cut="0.0000000000000000e+00" cType="1" res="-2.8301628772169352e-03" rms="3.6836370825767517e-01" purity="4.1070714592933655e-01" nType="-99"/>
          <Node pos="r" depth="2" NCoef="0" IVar="-1" Cut="0.0000000000000000e+00" cType="1" res="3.6153027322143316e-03" rms="3.2368820905685425e-01" purity="6.1074411869049072e-01" nType="-99"/>
        </Node>
      </Node>
    </BinaryTree>
    <BinaryTree type="DecisionTree" boostWeight="1.0000000000000000e+00" itree="265">
      <Node pos="s" depth="0" NCoef="0" IVar="0" Cut="9.1336421966552734e+00" cType="1" res="1.6948379343375564e-03" rms="3.5022997856140137e-01" purity="4.9887958168983459e-01" nType="0">
        <Node pos="l" depth="1" NCoef="0" IVar="6" Cut="-2.6685199737548828e+00" cType="1" res="-3.2155283261090517e-03" rms="3.7310177087783813e-01" purity="4.3924680352210999e-01" nType="0">
          <Node pos="l" depth="2" NCoef="0" IVar="-1" Cut="0.0000000000000000e+00" cType="1" res="1.2707611313089728e-03" rms="3.5687574744224548e-01" purity="5.1969707012176514e-01" nType="-99"/>
          <Node pos="r" depth="2" NCoef="0" IVar="-1" Cut="0.0000000000000000e+00" cType="1" res="-2.9138345271348953e-03" rms="3.8935372233390808e-01" purity="3.5425862669944763e-01" nType="-99"/>
        </Node>
        <Node pos="r" depth="1" NCoef="0" IVar="13" Cut="8.0942791700363159e-01" cType="1" res="7.0009911432862282e-03" rms="3.2361930608749390e-01" purity="5.6331884860992432e-01" nType="0">
          <Node pos="l" depth="2" NCoef="0" IVar="-1" Cut="0.0000000000000000e+00" cType="1" res="2.9626262839883566e-03" rms="3.2162559032440186e-01" purity="5.6280934810638428e-01" nType="-99"/>
          <Node pos="r" depth="2" NCoef="0" IVar="-1" Cut="0.0000000000000000e+00" cType="1" res="-1.2452965602278709e-02" rms="3.5061639547348022e-01" purity="5.7117897272109985e-01" nType="-99"/>
        </Node>
      </Node>
    </BinaryTree>
    <BinaryTree type="DecisionTree" boostWeight="1.0000000000000000e+00" itree="266">
      <Node pos="s" depth="0" NCoef="0" IVar="9" Cut="3.6931471824645996e+00" cType="1" res="-1.7645321786403656e-03" rms="2.2612190246582031e-01" purity="4.9550563097000122e-01" nType="0">
        <Node pos="l" depth="1" NCoef="0" IVar="0" Cut="8.0388259887695312e+00" cType="1" res="-4.5059085823595524e-03" rms="3.4299948811531067e-01" purity="5.3331035375595093e-01" nType="0">
          <Node pos="l" depth="2" NCoef="0" IVar="-1" Cut="0.0000000000000000e+00" cType="1" res="-4.4037848711013794e-03" rms="4.4166520237922668e-01" purity="3.8884854316711426e-01" nType="-99"/>
          <Node pos="r" depth="2" NCoef="0" IVar="-1" Cut="0.0000000000000000e+00" cType="1" res="-5.3247978212311864e-04" rms="3.2841241359710693e-01" purity="5.5147063732147217e-01" nType="-99"/>
        </Node>
        <Node pos="r" depth="1" NCoef="0" IVar="12" Cut="9.5193177461624146e-02" cType="1" res="7.5389520497992635e-04" rms="3.6422914266586304e-01" purity="4.1563522815704346e-01" nType="0">
          <Node pos="l" depth="2" NCoef="0" IVar="-1" Cut="0.0000000000000000e+00" cType="1" res="6.4215818420052528e-03" rms="3.5813328623771667e-01" purity="7.9936933517456055e-01" nType="-99"/>
          <Node pos="r" depth="2" NCoef="0" IVar="-1" Cut="0.0000000000000000e+00" cType="1" res="-1.2575160944834352e-03" rms="3.6582043766975403e-01" purity="3.0801168084144592e-01" nType="-99"/>
        </Node>
      </Node>
    </BinaryTree>
    <BinaryTree type="DecisionTree" boostWeight="1.0000000000000000e+00" itree="267">
      <Node pos="s" depth="0" NCoef="0" IVar="8" Cut="-6.6087120771408081e-01" cType="1" res="-1.2521707685664296e-03" rms="3.5038086771965027e-01" purity="4.9604383111000061e-01" nType="0">
        <Node pos="l" depth="1" NCoef="0" IVar="-1" Cut="0.0000000000000000e+00" cType="1" res="-3.0504933092743158e-03" rms="4.1082182526588440e-01" purity="5.0014209747314453e-01" nType="-99"/>
        <Node pos="r" depth="1" NCoef="0" IVar="4" Cut="-2.0782691240310669e-01" cType="1" res="4.7158042434602976e-04" rms="3.4581744670867920e-01" purity="4.9576497077941895e-01" nType="0">
          <Node pos="l" depth="2" NCoef="0" IVar="-1" Cut="0.0000000000000000e+00" cType="1" res="-1.2967274524271488e-03" rms="3.3224520087242126e-01" purity="5.4055076837539673e-01" nType="-99"/>
          <Node pos="r" depth="2" NCoef="0" IVar="-1" Cut="0.0000000000000000e+00" cType="1" res="2.0485224667936563e-03" rms="3.6616724729537964e-01" purity="4.2493405938148499e-01" nType="-99"/>
        </Node>
      </Node>
    </BinaryTree>
    <BinaryTree type="DecisionTree" boostWeight="1.0000000000000000e+00" itree="268">
      <Node pos="s" depth="0" NCoef="0" IVar="9" Cut="3.6931471824645996e+00" cType="1" res="1.8478747224435210e-03" rms="2.2756658494472504e-01" purity="5.0136935710906982e-01" nType="0">
        <Node pos="l" depth="1" NCoef="0" IVar="7" Cut="1.2427895069122314e+00" cType="1" res="1.6634654020890594e-03" rms="3.4094172716140747e-01" purity="5.4070287942886353e-01" nType="0">
          <Node pos="l" depth="2" NCoef="0" IVar="-1" Cut="0.0000000000000000e+00" cType="1" res="9.5033657271414995e-04" rms="3.4081342816352844e-01" purity="5.5620843172073364e-01" nType="-99"/>
          <Node pos="r" depth="2" NCoef="0" IVar="-1" Cut="0.0000000000000000e+00" cType="1" res="-7.8769130632281303e-03" rms="3.4152817726135254e-01" purity="2.8270512819290161e-01" nType="-99"/>
        </Node>
        <Node pos="r" depth="1" NCoef="0" IVar="2" Cut="8.6790733337402344e+00" cType="1" res="-6.0524704167619348e-04" rms="3.6723762750625610e-01" purity="4.1808915138244629e-01" nType="0">
          <Node pos="l" depth="2" NCoef="0" IVar="-1" Cut="0.0000000000000000e+00" cType="1" res="-4.2279730550944805e-03" rms="3.6502996087074280e-01" purity="3.8500705361366272e-01" nType="-99"/>
          <Node pos="r" depth="2" NCoef="0" IVar="-1" Cut="0.0000000000000000e+00" cType="1" res="1.7990866908803582e-03" rms="3.6784309148788452e-01" purity="4.2897263169288635e-01" nType="-99"/>
        </Node>
      </Node>
    </BinaryTree>
    <BinaryTree type="DecisionTree" boostWeight="1.0000000000000000e+00" itree="269">
      <Node pos="s" depth="0" NCoef="0" IVar="5" Cut="4.9592108726501465e+00" cType="1" res="-1.6013601562008262e-03" rms="3.5296308994293213e-01" purity="5.0076663494110107e-01" nType="0">
        <Node pos="l" depth="1" NCoef="0" IVar="-1" Cut="0.0000000000000000e+00" cType="1" res="-7.4343327432870865e-03" rms="3.6775484681129456e-01" purity="5.3138387203216553e-01" nType="-99"/>
        <Node pos="r" depth="1" NCoef="0" IVar="0" Cut="7.8200154304504395e+00" cType="1" res="-5.9349858202040195e-04" rms="3.5235172510147095e-01" purity="4.9960824847221375e-01" nType="0">
          <Node pos="l" depth="2" NCoef="0" IVar="-1" Cut="0.0000000000000000e+00" cType="1" res="4.3392032384872437e-03" rms="4.6515801548957825e-01" purity="3.6422586441040039e-01" nType="-99"/>
          <Node pos="r" depth="2" NCoef="0" IVar="-1" Cut="0.0000000000000000e+00" cType="1" res="-5.3691677749156952e-04" rms="3.4590461850166321e-01" purity="5.0617372989654541e-01" nType="-99"/>
        </Node>
      </Node>
    </BinaryTree>
    <BinaryTree type="DecisionTree" boostWeight="1.0000000000000000e+00" itree="270">
      <Node pos="s" depth="0" NCoef="0" IVar="11" Cut="4.2850303649902344e-01" cType="1" res="-7.0474500535055995e-04" rms="3.4991219639778137e-01" purity="5.0022011995315552e-01" nType="0">
        <Node pos="l" depth="1" NCoef="0" IVar="12" Cut="3.3325117826461792e-01" cType="1" res="-5.1188142970204353e-03" rms="3.6167788505554199e-01" purity="2.6941183209419250e-01" nType="0">
          <Node pos="l" depth="2" NCoef="0" IVar="-1" Cut="0.0000000000000000e+00" cType="1" res="-1.4734603464603424e-02" rms="3.8902813196182251e-01" purity="3.5158807039260864e-01" nType="-99"/>
          <Node pos="r" depth="2" NCoef="0" IVar="-1" Cut="0.0000000000000000e+00" cType="1" res="-6.7598075838759542e-04" rms="3.6014226078987122e-01" purity="2.6554861664772034e-01" nType="-99"/>
        </Node>
        <Node pos="r" depth="1" NCoef="0" IVar="11" Cut="7.8221982717514038e-01" cType="1" res="6.0907388105988503e-03" rms="3.3086714148521423e-01" purity="8.5555064678192139e-01" nType="0">
          <Node pos="l" depth="2" NCoef="0" IVar="-1" Cut="0.0000000000000000e+00" cType="1" res="5.0359661690890789e-03" rms="3.6804527044296265e-01" purity="8.1032305955886841e-01" nType="-99"/>
          <Node pos="r" depth="2" NCoef="0" IVar="-1" Cut="0.0000000000000000e+00" cType="1" res="5.1642826292663813e-04" rms="3.1586757302284241e-01" purity="8.7228542566299438e-01" nType="-99"/>
        </Node>
      </Node>
    </BinaryTree>
    <BinaryTree type="DecisionTree" boostWeight="1.0000000000000000e+00" itree="271">
      <Node pos="s" depth="0" NCoef="0" IVar="13" Cut="4.7614932060241699e-02" cType="1" res="2.1920118015259504e-03" rms="3.5037815570831299e-01" purity="5.0477135181427002e-01" nType="0">
        <Node pos="l" depth="1" NCoef="0" IVar="13" Cut="2.2672116756439209e-03" cType="1" res="-5.3199087269604206e-03" rms="2.9926085472106934e-01" purity="2.5803509354591370e-01" nType="0">
          <Node pos="l" depth="2" NCoef="0" IVar="-1" Cut="0.0000000000000000e+00" cType="1" res="-2.0055180415511131e-02" rms="1.3452123105525970e-01" purity="6.6970989108085632e-02" nType="-99"/>
          <Node pos="r" depth="2" NCoef="0" IVar="-1" Cut="0.0000000000000000e+00" cType="1" res="4.7265129978768528e-04" rms="3.5703441500663757e-01" purity="3.5978925228118896e-01" nType="-99"/>
        </Node>
        <Node pos="r" depth="1" NCoef="0" IVar="12" Cut="2.8417232632637024e-01" cType="1" res="8.7008327245712280e-03" rms="3.8916194438934326e-01" purity="7.1855980157852173e-01" nType="0">
          <Node pos="l" depth="2" NCoef="0" IVar="-1" Cut="0.0000000000000000e+00" cType="1" res="1.7690095410216600e-04" rms="3.4361791610717773e-01" purity="8.1753313541412354e-01" nType="-99"/>
          <Node pos="r" depth="2" NCoef="0" IVar="-1" Cut="0.0000000000000000e+00" cType="1" res="3.6857589147984982e-03" rms="4.4516789913177490e-01" purity="5.7931143045425415e-01" nType="-99"/>
        </Node>
      </Node>
    </BinaryTree>
    <BinaryTree type="DecisionTree" boostWeight="1.0000000000000000e+00" itree="272">
      <Node pos="s" depth="0" NCoef="0" IVar="8" Cut="-5.3513187170028687e-01" cType="1" res="-1.6700488049536943e-03" rms="3.5209435224533081e-01" purity="5.0048029422760010e-01" nType="0">
        <Node pos="l" depth="1" NCoef="0" IVar="10" Cut="2.0000000000000000e+00" cType="1" res="-8.0949245020747185e-03" rms="2.9602032899856567e-01" purity="5.0155556201934814e-01" nType="0">
          <Node pos="l" depth="2" NCoef="0" IVar="-1" Cut="0.0000000000000000e+00" cType="1" res="5.0107372226193547e-04" rms="3.8608974218368530e-01" purity="5.5962884426116943e-01" nType="-99"/>
          <Node pos="r" depth="2" NCoef="0" IVar="-1" Cut="0.0000000000000000e+00" cType="1" res="-4.4580367393791676e-03" rms="4.0751376748085022e-01" purity="4.3612843751907349e-01" nType="-99"/>
        </Node>
        <Node pos="r" depth="1" NCoef="0" IVar="9" Cut="3.6931471824645996e+00" cType="1" res="4.9036339623853564e-04" rms="2.2020901739597321e-01" purity="5.0035405158996582e-01" nType="0">
          <Node pos="l" depth="2" NCoef="0" IVar="-1" Cut="0.0000000000000000e+00" cType="1" res="-4.1518808575347066e-04" rms="3.3688017725944519e-01" purity="5.3918927907943726e-01" nType="-99"/>
          <Node pos="r" depth="2" NCoef="0" IVar="-1" Cut="0.0000000000000000e+00" cType="1" res="1.0468912078067660e-03" rms="3.6582741141319275e-01" purity="4.1810855269432068e-01" nType="-99"/>
        </Node>
      </Node>
    </BinaryTree>
    <BinaryTree type="DecisionTree" boostWeight="1.0000000000000000e+00" itree="273">
      <Node pos="s" depth="0" NCoef="0" IVar="9" Cut="3.6931471824645996e+00" cType="1" res="-1.8735778285190463e-03" rms="2.2635754942893982e-01" purity="4.9998989701271057e-01" nType="0">
        <Node pos="l" depth="1" NCoef="0" IVar="2" Cut="8.8314571380615234e+00" cType="1" res="-3.5743004991672933e-04" rms="3.4305331110954285e-01" purity="5.4039043188095093e-01" nType="0">
          <Node pos="l" depth="2" NCoef="0" IVar="-1" Cut="0.0000000000000000e+00" cType="1" res="-2.7541425079107285e-03" rms="3.5454422235488892e-01" purity="5.1177340745925903e-01" nType="-99"/>
          <Node pos="r" depth="2" NCoef="0" IVar="-1" Cut="0.0000000000000000e+00" cType="1" res="1.9769340287894011e-03" rms="3.3766037225723267e-01" purity="5.5301052331924438e-01" nType="-99"/>
        </Node>
        <Node pos="r" depth="1" NCoef="0" IVar="0" Cut="1.0007125854492188e+01" cType="1" res="-1.3283485313877463e-03" rms="3.6545008420944214e-01" purity="4.1494756937026978e-01" nType="0">
          <Node pos="l" depth="2" NCoef="0" IVar="-1" Cut="0.0000000000000000e+00" cType="1" res="9.1350689763203263e-04" rms="3.6541649699211121e-01" purity="3.9659866690635681e-01" nType="-99"/>
          <Node pos="r" depth="2" NCoef="0" IVar="-1" Cut="0.0000000000000000e+00" cType="1" res="-6.2217111699283123e-03" rms="3.6515796184539795e-01" purity="4.9863153696060181e-01" nType="-99"/>
        </Node>
      </Node>
    </BinaryTree>
    <BinaryTree type="DecisionTree" boostWeight="1.0000000000000000e+00" itree="274">
      <Node pos="s" depth="0" NCoef="0" IVar="9" Cut="3.6931471824645996e+00" cType="1" res="7.1134505560621619e-04" rms="2.2839251160621643e-01" purity="5.0237375497817993e-01" nType="0">
        <Node pos="l" depth="1" NCoef="0" IVar="1" Cut="7.6153740882873535e+00" cType="1" res="1.7779209883883595e-04" rms="3.4426608681678772e-01" purity="5.4143232107162476e-01" nType="0">
          <Node pos="l" depth="2" NCoef="0" IVar="-1" Cut="0.0000000000000000e+00" cType="1" res="4.7156485379673541e-04" rms="3.4531989693641663e-01" purity="5.3724968433380127e-01" nType="-99"/>
          <Node pos="r" depth="2" NCoef="0" IVar="-1" Cut="0.0000000000000000e+00" cType="1" res="-7.4513033032417297e-03" rms="3.2630687952041626e-01" purity="6.0680276155471802e-01" nType="-99"/>
        </Node>
        <Node pos="r" depth="1" NCoef="0" IVar="1" Cut="5.5890226364135742e+00" cType="1" res="-2.9764818027615547e-03" rms="3.6829555034637451e-01" purity="4.1804987192153931e-01" nType="0">
          <Node pos="l" depth="2" NCoef="0" IVar="-1" Cut="0.0000000000000000e+00" cType="1" res="7.6668709516525269e-03" rms="3.9908045530319214e-01" purity="2.6235416531562805e-01" nType="-99"/>
          <Node pos="r" depth="2" NCoef="0" IVar="-1" Cut="0.0000000000000000e+00" cType="1" res="-2.9034437611699104e-03" rms="3.6244827508926392e-01" purity="4.4540712237358093e-01" nType="-99"/>
        </Node>
      </Node>
    </BinaryTree>
    <BinaryTree type="DecisionTree" boostWeight="1.0000000000000000e+00" itree="275">
      <Node pos="s" depth="0" NCoef="0" IVar="12" Cut="9.5214074850082397e-01" cType="1" res="3.7212225142866373e-03" rms="3.5025066137313843e-01" purity="5.0333219766616821e-01" nType="0">
        <Node pos="l" depth="1" NCoef="0" IVar="12" Cut="2.2668048739433289e-01" cType="1" res="6.2511898577213287e-03" rms="3.8093626499176025e-01" purity="6.1397379636764526e-01" nType="0">
          <Node pos="l" depth="2" NCoef="0" IVar="-1" Cut="0.0000000000000000e+00" cType="1" res="-2.4502773885615170e-04" rms="3.2985436916351318e-01" purity="8.2966530323028564e-01" nType="-99"/>
          <Node pos="r" depth="2" NCoef="0" IVar="-1" Cut="0.0000000000000000e+00" cType="1" res="2.3722199257463217e-03" rms="4.1732788085937500e-01" purity="4.4098928570747375e-01" nType="-99"/>
        </Node>
        <Node pos="r" depth="1" NCoef="0" IVar="11" Cut="7.6920054852962494e-03" cType="1" res="-7.1056294254958630e-03" rms="1.6282929480075836e-01" purity="2.9847832396626472e-02" nType="0">
          <Node pos="l" depth="2" NCoef="0" IVar="-1" Cut="0.0000000000000000e+00" cType="1" res="-2.3575007915496826e-02" rms="9.3084760010242462e-02" purity="8.7947109714150429e-03" nType="-99"/>
          <Node pos="r" depth="2" NCoef="0" IVar="-1" Cut="0.0000000000000000e+00" cType="1" res="9.5782633870840073e-03" rms="3.0354943871498108e-01" purity="1.0839808732271194e-01" nType="-99"/>
        </Node>
      </Node>
    </BinaryTree>
    <BinaryTree type="DecisionTree" boostWeight="1.0000000000000000e+00" itree="276">
      <Node pos="s" depth="0" NCoef="0" IVar="8" Cut="-4.7492343932390213e-02" cType="1" res="-1.1616398114711046e-03" rms="3.5147961974143982e-01" purity="4.9908277392387390e-01" nType="0">
        <Node pos="l" depth="1" NCoef="0" IVar="2" Cut="8.8104152679443359e+00" cType="1" res="-5.5966866202652454e-03" rms="3.5813561081886292e-01" purity="4.9573308229446411e-01" nType="0">
          <Node pos="l" depth="2" NCoef="0" IVar="-1" Cut="0.0000000000000000e+00" cType="1" res="-3.1518586911261082e-03" rms="3.6982727050781250e-01" purity="4.5450189709663391e-01" nType="-99"/>
          <Node pos="r" depth="2" NCoef="0" IVar="-1" Cut="0.0000000000000000e+00" cType="1" res="-1.1012522008968517e-05" rms="3.5275495052337646e-01" purity="5.1377099752426147e-01" nType="-99"/>
        </Node>
        <Node pos="r" depth="1" NCoef="0" IVar="0" Cut="8.2567901611328125e+00" cType="1" res="3.3557058777660131e-03" rms="3.4450930356979370e-01" purity="5.0249463319778442e-01" nType="0">
          <Node pos="l" depth="2" NCoef="0" IVar="-1" Cut="0.0000000000000000e+00" cType="1" res="-3.7197896745055914e-03" rms="4.0869843959808350e-01" purity="3.6216154694557190e-01" nType="-99"/>
          <Node pos="r" depth="2" NCoef="0" IVar="-1" Cut="0.0000000000000000e+00" cType="1" res="2.6724836789071560e-03" rms="3.3161535859107971e-01" purity="5.2759599685668945e-01" nType="-99"/>
        </Node>
      </Node>
    </BinaryTree>
    <BinaryTree type="DecisionTree" boostWeight="1.0000000000000000e+00" itree="277">
      <Node pos="s" depth="0" NCoef="0" IVar="4" Cut="-2.2548549175262451e+00" cType="1" res="1.5846082242205739e-03" rms="3.5175901651382446e-01" purity="4.9776938557624817e-01" nType="0">
        <Node pos="l" depth="1" NCoef="0" IVar="13" Cut="1.9043304026126862e-01" cType="1" res="1.6077911481261253e-02" rms="3.2306438684463501e-01" purity="5.9805190563201904e-01" nType="0">
          <Node pos="l" depth="2" NCoef="0" IVar="-1" Cut="0.0000000000000000e+00" cType="1" res="8.6395554244518280e-03" rms="3.2677525281906128e-01" purity="4.7961223125457764e-01" nType="-99"/>
          <Node pos="r" depth="2" NCoef="0" IVar="-1" Cut="0.0000000000000000e+00" cType="1" res="-2.1204904187470675e-03" rms="3.1423911452293396e-01" purity="8.4328246116638184e-01" nType="-99"/>
        </Node>
        <Node pos="r" depth="1" NCoef="0" IVar="11" Cut="9.5235295593738556e-02" cType="1" res="5.1106850150972605e-05" rms="3.5462468862533569e-01" purity="4.8715874552726746e-01" nType="0">
          <Node pos="l" depth="2" NCoef="0" IVar="-1" Cut="0.0000000000000000e+00" cType="1" res="2.2591673769056797e-03" rms="3.0032843351364136e-01" purity="1.3369104266166687e-01" nType="-99"/>
          <Node pos="r" depth="2" NCoef="0" IVar="-1" Cut="0.0000000000000000e+00" cType="1" res="-1.0162531398236752e-03" rms="3.8896459341049194e-01" purity="7.4136769771575928e-01" nType="-99"/>
        </Node>
      </Node>
    </BinaryTree>
    <BinaryTree type="DecisionTree" boostWeight="1.0000000000000000e+00" itree="278">
      <Node pos="s" depth="0" NCoef="0" IVar="9" Cut="3.6931471824645996e+00" cType="1" res="-2.0921581890434027e-03" rms="2.3194797337055206e-01" purity="4.9922195076942444e-01" nType="0">
        <Node pos="l" depth="1" NCoef="0" IVar="0" Cut="7.8190894126892090e+00" cType="1" res="-2.1390183828771114e-03" rms="3.4189388155937195e-01" purity="5.4109269380569458e-01" nType="0">
          <Node pos="l" depth="2" NCoef="0" IVar="-1" Cut="0.0000000000000000e+00" cType="1" res="-5.7403719983994961e-03" rms="4.4752344489097595e-01" purity="3.4195092320442200e-01" nType="-99"/>
          <Node pos="r" depth="2" NCoef="0" IVar="-1" Cut="0.0000000000000000e+00" cType="1" res="-1.1916246148757637e-04" rms="3.3565497398376465e-01" purity="5.5104374885559082e-01" nType="-99"/>
        </Node>
        <Node pos="r" depth="1" NCoef="0" IVar="3" Cut="-8.2061633467674255e-02" cType="1" res="-2.7070178184658289e-03" rms="3.6921015381813049e-01" purity="4.1094857454299927e-01" nType="0">
          <Node pos="l" depth="2" NCoef="0" IVar="-1" Cut="0.0000000000000000e+00" cType="1" res="-7.2618876583874226e-03" rms="3.5816094279289246e-01" purity="5.5317413806915283e-01" nType="-99"/>
          <Node pos="r" depth="2" NCoef="0" IVar="-1" Cut="0.0000000000000000e+00" cType="1" res="1.8054319079965353e-03" rms="3.7507155537605286e-01" purity="3.3082062005996704e-01" nType="-99"/>
        </Node>
      </Node>
    </BinaryTree>
    <BinaryTree type="DecisionTree" boostWeight="1.0000000000000000e+00" itree="279">
      <Node pos="s" depth="0" NCoef="0" IVar="7" Cut="1.7470914125442505e+00" cType="1" res="-1.1465405113995075e-03" rms="3.5185405611991882e-01" purity="4.9927541613578796e-01" nType="0">
        <Node pos="l" depth="1" NCoef="0" IVar="9" Cut="3.6931471824645996e+00" cType="1" res="9.9055829923599958e-04" rms="2.2745633125305176e-01" purity="5.0719243288040161e-01" nType="0">
          <Node pos="l" depth="2" NCoef="0" IVar="-1" Cut="0.0000000000000000e+00" cType="1" res="1.2336605323071126e-05" rms="3.4707245230674744e-01" purity="5.4972612857818604e-01" nType="-99"/>
          <Node pos="r" depth="2" NCoef="0" IVar="-1" Cut="0.0000000000000000e+00" cType="1" res="-3.4754897933453321e-04" rms="3.6318472027778625e-01" purity="4.1816529631614685e-01" nType="-99"/>
        </Node>
        <Node pos="r" depth="1" NCoef="0" IVar="-1" Cut="0.0000000000000000e+00" cType="1" res="-1.0668455623090267e-02" rms="3.3108183741569519e-01" purity="2.0956660807132721e-01" nType="-99"/>
      </Node>
    </BinaryTree>
    <BinaryTree type="DecisionTree" boostWeight="1.0000000000000000e+00" itree="280">
      <Node pos="s" depth="0" NCoef="0" IVar="11" Cut="8.0938065052032471e-01" cType="1" res="-1.0537731577642262e-04" rms="3.4960496425628662e-01" purity="5.0061500072479248e-01" nType="0">
        <Node pos="l" depth="1" NCoef="0" IVar="12" Cut="9.5207035541534424e-02" cType="1" res="-3.4403656609356403e-03" rms="3.6412724852561951e-01" purity="3.5604244470596313e-01" nType="0">
          <Node pos="l" depth="2" NCoef="0" IVar="-1" Cut="0.0000000000000000e+00" cType="1" res="-9.5889000222086906e-03" rms="3.7147653102874756e-01" purity="5.9697854518890381e-01" nType="-99"/>
          <Node pos="r" depth="2" NCoef="0" IVar="-1" Cut="0.0000000000000000e+00" cType="1" res="-4.8947747563943267e-04" rms="3.6365967988967896e-01" purity="3.4307572245597839e-01" nType="-99"/>
        </Node>
        <Node pos="r" depth="1" NCoef="0" IVar="3" Cut="8.3827954530715942e-01" cType="1" res="8.7058059871196747e-03" rms="3.0778524279594421e-01" purity="8.8258212804794312e-01" nType="0">
          <Node pos="l" depth="2" NCoef="0" IVar="-1" Cut="0.0000000000000000e+00" cType="1" res="2.1383850835263729e-03" rms="2.8615561127662659e-01" purity="9.0057158470153809e-01" nType="-99"/>
          <Node pos="r" depth="2" NCoef="0" IVar="-1" Cut="0.0000000000000000e+00" cType="1" res="7.1185622364282608e-03" rms="4.0031978487968445e-01" purity="7.8997308015823364e-01" nType="-99"/>
        </Node>
      </Node>
    </BinaryTree>
    <BinaryTree type="DecisionTree" boostWeight="1.0000000000000000e+00" itree="281">
      <Node pos="s" depth="0" NCoef="0" IVar="1" Cut="4.9909143447875977e+00" cType="1" res="-2.9906773124821484e-04" rms="3.5162392258644104e-01" purity="4.9904039502143860e-01" nType="0">
        <Node pos="l" depth="1" NCoef="0" IVar="-1" Cut="0.0000000000000000e+00" cType="1" res="-5.3354878909885883e-03" rms="4.0759319067001343e-01" purity="2.3290355503559113e-01" nType="-99"/>
        <Node pos="r" depth="1" NCoef="0" IVar="5" Cut="6.0570731163024902e+00" cType="1" res="6.7769561428576708e-04" rms="3.4936082363128662e-01" purity="5.0880730152130127e-01" nType="0">
          <Node pos="l" depth="2" NCoef="0" IVar="-1" Cut="0.0000000000000000e+00" cType="1" res="4.0826960466802120e-03" rms="3.6593523621559143e-01" purity="5.8528780937194824e-01" nType="-99"/>
          <Node pos="r" depth="2" NCoef="0" IVar="-1" Cut="0.0000000000000000e+00" cType="1" res="-9.3280890723690391e-04" rms="3.4424611926078796e-01" purity="4.8632791638374329e-01" nType="-99"/>
        </Node>
      </Node>
    </BinaryTree>
    <BinaryTree type="DecisionTree" boostWeight="1.0000000000000000e+00" itree="282">
      <Node pos="s" depth="0" NCoef="0" IVar="9" Cut="4.6931471824645996e+00" cType="1" res="-6.3946109730750322e-04" rms="2.2769756615161896e-01" purity="5.0349855422973633e-01" nType="0">
        <Node pos="l" depth="1" NCoef="0" IVar="6" Cut="-2.6621127128601074e+00" cType="1" res="-1.9663386046886444e-04" rms="3.5062131285667419e-01" purity="5.0353854894638062e-01" nType="0">
          <Node pos="l" depth="2" NCoef="0" IVar="-1" Cut="0.0000000000000000e+00" cType="1" res="1.3408333761617541e-03" rms="3.3421570062637329e-01" purity="5.8584928512573242e-01" nType="-99"/>
          <Node pos="r" depth="2" NCoef="0" IVar="-1" Cut="0.0000000000000000e+00" cType="1" res="-1.5760248061269522e-03" rms="3.7047198414802551e-01" purity="3.9825803041458130e-01" nType="-99"/>
        </Node>
        <Node pos="r" depth="1" NCoef="0" IVar="-1" Cut="0.0000000000000000e+00" cType="1" res="1.6732445359230042e-01" rms="3.5648557543754578e-01" purity="1.7892910540103912e-01" nType="-99"/>
      </Node>
    </BinaryTree>
    <BinaryTree type="DecisionTree" boostWeight="1.0000000000000000e+00" itree="283">
      <Node pos="s" depth="0" NCoef="0" IVar="5" Cut="6.2130861282348633e+00" cType="1" res="-3.4051360562443733e-03" rms="3.5350257158279419e-01" purity="4.9627482891082764e-01" nType="0">
        <Node pos="l" depth="1" NCoef="0" IVar="11" Cut="4.7651518136262894e-02" cType="1" res="5.6247981265187263e-03" rms="3.7068924307823181e-01" purity="5.3972083330154419e-01" nType="0">
          <Node pos="l" depth="2" NCoef="0" IVar="-1" Cut="0.0000000000000000e+00" cType="1" res="9.2251189053058624e-03" rms="3.4054386615753174e-01" purity="1.5289764106273651e-01" nType="-99"/>
          <Node pos="r" depth="2" NCoef="0" IVar="-1" Cut="0.0000000000000000e+00" cType="1" res="-5.7201058370992541e-04" rms="3.8075006008148193e-01" purity="6.8017870187759399e-01" nType="-99"/>
        </Node>
        <Node pos="r" depth="1" NCoef="0" IVar="0" Cut="8.2555389404296875e+00" cType="1" res="-7.2697275318205357e-03" rms="3.4581419825553894e-01" purity="4.7768098115921021e-01" nType="0">
          <Node pos="l" depth="2" NCoef="0" IVar="-1" Cut="0.0000000000000000e+00" cType="1" res="-8.3410143852233887e-03" rms="4.0294614434242249e-01" purity="3.4041050076484680e-01" nType="-99"/>
          <Node pos="r" depth="2" NCoef="0" IVar="-1" Cut="0.0000000000000000e+00" cType="1" res="-1.2743981787934899e-03" rms="3.3884227275848389e-01" purity="4.9267882108688354e-01" nType="-99"/>
        </Node>
      </Node>
    </BinaryTree>
    <BinaryTree type="DecisionTree" boostWeight="1.0000000000000000e+00" itree="284">
      <Node pos="s" depth="0" NCoef="0" IVar="9" Cut="3.6931471824645996e+00" cType="1" res="8.1261369632557034e-04" rms="2.2830198705196381e-01" purity="5.0179177522659302e-01" nType="0">
        <Node pos="l" depth="1" NCoef="0" IVar="1" Cut="5.4317288398742676e+00" cType="1" res="1.5346915461122990e-03" rms="3.4298363327980042e-01" purity="5.4439705610275269e-01" nType="0">
          <Node pos="l" depth="2" NCoef="0" IVar="-1" Cut="0.0000000000000000e+00" cType="1" res="-3.4360901918262243e-03" rms="4.0816259384155273e-01" purity="3.1906786561012268e-01" nType="-99"/>
          <Node pos="r" depth="2" NCoef="0" IVar="-1" Cut="0.0000000000000000e+00" cType="1" res="1.0546224657446146e-03" rms="3.3431607484817505e-01" purity="5.7119649648666382e-01" nType="-99"/>
        </Node>
        <Node pos="r" depth="1" NCoef="0" IVar="11" Cut="1.4280785620212555e-01" cType="1" res="-4.3995390296913683e-04" rms="3.6625030636787415e-01" purity="4.1004079580307007e-01" nType="0">
          <Node pos="l" depth="2" NCoef="0" IVar="-1" Cut="0.0000000000000000e+00" cType="1" res="2.8953438159078360e-03" rms="3.1896379590034485e-01" purity="1.4901813864707947e-01" nType="-99"/>
          <Node pos="r" depth="2" NCoef="0" IVar="-1" Cut="0.0000000000000000e+00" cType="1" res="-2.4050481151789427e-03" rms="4.1388136148452759e-01" purity="7.1014660596847534e-01" nType="-99"/>
        </Node>
      </Node>
    </BinaryTree>
    <BinaryTree type="DecisionTree" boostWeight="1.0000000000000000e+00" itree="285">
      <Node pos="s" depth="0" NCoef="0" IVar="8" Cut="-6.1795169115066528e-01" cType="1" res="1.4710675459355116e-03" rms="3.5164365172386169e-01" purity="4.9826756119728088e-01" nType="0">
        <Node pos="l" depth="1" NCoef="0" IVar="-1" Cut="0.0000000000000000e+00" cType="1" res="2.3886957205832005e-03" rms="4.1531002521514893e-01" purity="5.3476583957672119e-01" nType="-99"/>
        <Node pos="r" depth="1" NCoef="0" IVar="3" Cut="8.3801954984664917e-01" cType="1" res="-1.5799625543877482e-04" rms="3.4597665071487427e-01" purity="4.9533924460411072e-01" nType="0">
          <Node pos="l" depth="2" NCoef="0" IVar="-1" Cut="0.0000000000000000e+00" cType="1" res="8.5854367353022099e-04" rms="3.4067094326019287e-01" purity="5.4337358474731445e-01" nType="-99"/>
          <Node pos="r" depth="2" NCoef="0" IVar="-1" Cut="0.0000000000000000e+00" cType="1" res="-2.6010957080870867e-03" rms="3.6304563283920288e-01" purity="3.3453217148780823e-01" nType="-99"/>
        </Node>
      </Node>
    </BinaryTree>
    <BinaryTree type="DecisionTree" boostWeight="1.0000000000000000e+00" itree="286">
      <Node pos="s" depth="0" NCoef="0" IVar="9" Cut="4.6931471824645996e+00" cType="1" res="-7.1003951597958803e-04" rms="2.3170579969882965e-01" purity="4.9842363595962524e-01" nType="0">
        <Node pos="l" depth="1" NCoef="0" IVar="7" Cut="-5.7904291152954102e-01" cType="1" res="-1.0838810121640563e-03" rms="3.5264596343040466e-01" purity="4.9845269322395325e-01" nType="0">
          <Node pos="l" depth="2" NCoef="0" IVar="-1" Cut="0.0000000000000000e+00" cType="1" res="-4.0215314365923405e-03" rms="3.5860353708267212e-01" purity="5.0772273540496826e-01" nType="-99"/>
          <Node pos="r" depth="2" NCoef="0" IVar="-1" Cut="0.0000000000000000e+00" cType="1" res="4.9145391676574945e-04" rms="3.5131797194480896e-01" purity="4.9650108814239502e-01" nType="-99"/>
        </Node>
        <Node pos="r" depth="1" NCoef="0" IVar="-1" Cut="0.0000000000000000e+00" cType="1" res="-1.2528389692306519e-01" rms="3.6701750755310059e-01" purity="1.3696378469467163e-01" nType="-99"/>
      </Node>
    </BinaryTree>
    <BinaryTree type="DecisionTree" boostWeight="1.0000000000000000e+00" itree="287">
      <Node pos="s" depth="0" NCoef="0" IVar="4" Cut="-1.0139647722244263e+00" cType="1" res="2.2262760903686285e-03" rms="3.5130918025970459e-01" purity="5.0563865900039673e-01" nType="0">
        <Node pos="l" depth="1" NCoef="0" IVar="3" Cut="-7.9667463898658752e-02" cType="1" res="-5.8162813074886799e-03" rms="3.3392396569252014e-01" purity="5.7819551229476929e-01" nType="0">
          <Node pos="l" depth="2" NCoef="0" IVar="-1" Cut="0.0000000000000000e+00" cType="1" res="3.8976841606199741e-03" rms="2.9166471958160400e-01" purity="7.5630933046340942e-01" nType="-99"/>
          <Node pos="r" depth="2" NCoef="0" IVar="-1" Cut="0.0000000000000000e+00" cType="1" res="-5.2294861525297165e-03" rms="3.6769452691078186e-01" purity="4.1629734635353088e-01" nType="-99"/>
        </Node>
        <Node pos="r" depth="1" NCoef="0" IVar="3" Cut="-6.9435286521911621e-01" cType="1" res="5.8293584734201431e-03" rms="3.5876619815826416e-01" purity="4.7313305735588074e-01" nType="0">
          <Node pos="l" depth="2" NCoef="0" IVar="-1" Cut="0.0000000000000000e+00" cType="1" res="-2.7636550366878510e-03" rms="3.3561462163925171e-01" purity="6.2438219785690308e-01" nType="-99"/>
          <Node pos="r" depth="2" NCoef="0" IVar="-1" Cut="0.0000000000000000e+00" cType="1" res="2.5543591473251581e-03" rms="3.6458727717399597e-01" purity="4.3289270997047424e-01" nType="-99"/>
        </Node>
      </Node>
    </BinaryTree>
    <BinaryTree type="DecisionTree" boostWeight="1.0000000000000000e+00" itree="288">
      <Node pos="s" depth="0" NCoef="0" IVar="1" Cut="5.1058430671691895e+00" cType="1" res="2.4645959492772818e-03" rms="3.5239312052726746e-01" purity="5.0515353679656982e-01" nType="0">
        <Node pos="l" depth="1" NCoef="0" IVar="-1" Cut="0.0000000000000000e+00" cType="1" res="-4.9004917964339256e-03" rms="4.1042661666870117e-01" purity="2.4119056761264801e-01" nType="-99"/>
        <Node pos="r" depth="1" NCoef="0" IVar="9" Cut="3.6931471824645996e+00" cType="1" res="2.7622915804386139e-03" rms="2.2225338220596313e-01" purity="5.1859456300735474e-01" nType="0">
          <Node pos="l" depth="2" NCoef="0" IVar="-1" Cut="0.0000000000000000e+00" cType="1" res="1.2285744305700064e-03" rms="3.4009408950805664e-01" purity="5.6030392646789551e-01" nType="-99"/>
          <Node pos="r" depth="2" NCoef="0" IVar="-1" Cut="0.0000000000000000e+00" cType="1" res="9.3114405171945691e-04" rms="3.6749812960624695e-01" purity="4.3038403987884521e-01" nType="-99"/>
        </Node>
      </Node>
    </BinaryTree>
    <BinaryTree type="DecisionTree" boostWeight="1.0000000000000000e+00" itree="289">
      <Node pos="s" depth="0" NCoef="0" IVar="5" Cut="7.9162101745605469e+00" cType="1" res="2.5055074365809560e-04" rms="3.5084387660026550e-01" purity="5.0323241949081421e-01" nType="0">
        <Node pos="l" depth="1" NCoef="0" IVar="4" Cut="-2.0782691240310669e-01" cType="1" res="1.8920230213552713e-03" rms="3.4814530611038208e-01" purity="5.1030004024505615e-01" nType="0">
          <Node pos="l" depth="2" NCoef="0" IVar="-1" Cut="0.0000000000000000e+00" cType="1" res="-9.0973684564232826e-04" rms="3.3433774113655090e-01" purity="5.5489242076873779e-01" nType="-99"/>
          <Node pos="r" depth="2" NCoef="0" IVar="-1" Cut="0.0000000000000000e+00" cType="1" res="2.7202910277992487e-03" rms="3.7190455198287964e-01" purity="4.2881301045417786e-01" nType="-99"/>
        </Node>
        <Node pos="r" depth="1" NCoef="0" IVar="10" Cut="2.0000000000000000e+00" cType="1" res="-1.6775249969214201e-03" rms="1.3825340569019318e-01" purity="4.4653913378715515e-01" nType="0">
          <Node pos="l" depth="2" NCoef="0" IVar="-1" Cut="0.0000000000000000e+00" cType="1" res="-6.4908773638308048e-03" rms="3.6440151929855347e-01" purity="4.7602990269660950e-01" nType="-99"/>
          <Node pos="r" depth="2" NCoef="0" IVar="-1" Cut="0.0000000000000000e+00" cType="1" res="4.1097751818597317e-04" rms="3.7837830185890198e-01" purity="4.1527968645095825e-01" nType="-99"/>
        </Node>
      </Node>
    </BinaryTree>
    <BinaryTree type="DecisionTree" boostWeight="1.0000000000000000e+00" itree="290">
      <Node pos="s" depth="0" NCoef="0" IVar="9" Cut="3.6931471824645996e+00" cType="1" res="1.4077211380936205e-04" rms="2.2875009477138519e-01" purity="4.9387356638908386e-01" nType="0">
        <Node pos="l" depth="1" NCoef="0" IVar="11" Cut="3.3326420187950134e-01" cType="1" res="-3.2529174350202084e-03" rms="3.4109494090080261e-01" purity="5.3219872713088989e-01" nType="0">
          <Node pos="l" depth="2" NCoef="0" IVar="-1" Cut="0.0000000000000000e+00" cType="1" res="-2.3173990193754435e-03" rms="3.5690450668334961e-01" purity="2.5712433457374573e-01" nType="-99"/>
          <Node pos="r" depth="2" NCoef="0" IVar="-1" Cut="0.0000000000000000e+00" cType="1" res="1.6607020515948534e-03" rms="3.2075542211532593e-01" purity="8.6464494466781616e-01" nType="-99"/>
        </Node>
        <Node pos="r" depth="1" NCoef="0" IVar="7" Cut="8.2736027240753174e-01" cType="1" res="3.8811733247712255e-04" rms="3.6356201767921448e-01" purity="4.1210040450096130e-01" nType="0">
          <Node pos="l" depth="2" NCoef="0" IVar="-1" Cut="0.0000000000000000e+00" cType="1" res="-9.2126842355355620e-04" rms="3.6604857444763184e-01" purity="4.2301532626152039e-01" nType="-99"/>
          <Node pos="r" depth="2" NCoef="0" IVar="-1" Cut="0.0000000000000000e+00" cType="1" res="8.2049807533621788e-03" rms="3.4681940078735352e-01" purity="3.4273594617843628e-01" nType="-99"/>
        </Node>
      </Node>
    </BinaryTree>
    <BinaryTree type="DecisionTree" boostWeight="1.0000000000000000e+00" itree="291">
      <Node pos="s" depth="0" NCoef="0" IVar="2" Cut="8.4120483398437500e+00" cType="1" res="-1.0098882485181093e-03" rms="3.5004356503486633e-01" purity="4.9935290217399597e-01" nType="0">
        <Node pos="l" depth="1" NCoef="0" IVar="11" Cut="3.3325609564781189e-01" cType="1" res="-2.4016188457608223e-02" rms="3.5586476325988770e-01" purity="4.4634881615638733e-01" nType="0">
          <Node pos="l" depth="2" NCoef="0" IVar="-1" Cut="0.0000000000000000e+00" cType="1" res="-6.8849883973598480e-03" rms="3.5427200794219971e-01" purity="2.0229032635688782e-01" nType="-99"/>
          <Node pos="r" depth="2" NCoef="0" IVar="-1" Cut="0.0000000000000000e+00" cType="1" res="-8.8716577738523483e-04" rms="3.5738795995712280e-01" purity="8.2296103239059448e-01" nType="-99"/>
        </Node>
        <Node pos="r" depth="1" NCoef="0" IVar="0" Cut="8.0383367538452148e+00" cType="1" res="1.7594820819795132e-03" rms="3.4923410415649414e-01" purity="5.0573319196701050e-01" nType="0">
          <Node pos="l" depth="2" NCoef="0" IVar="-1" Cut="0.0000000000000000e+00" cType="1" res="-2.9388917610049248e-03" rms="4.4256728887557983e-01" purity="3.6752483248710632e-01" nType="-99"/>
          <Node pos="r" depth="2" NCoef="0" IVar="-1" Cut="0.0000000000000000e+00" cType="1" res="1.2760275276377797e-03" rms="3.3547353744506836e-01" purity="5.2328801155090332e-01" nType="-99"/>
        </Node>
      </Node>
    </BinaryTree>
    <BinaryTree type="DecisionTree" boostWeight="1.0000000000000000e+00" itree="292">
      <Node pos="s" depth="0" NCoef="0" IVar="0" Cut="8.4758501052856445e+00" cType="1" res="7.0572656113654375e-05" rms="3.4891390800476074e-01" purity="4.9588280916213989e-01" nType="0">
        <Node pos="l" depth="1" NCoef="0" IVar="11" Cut="4.6970732510089874e-02" cType="1" res="-7.6384954154491425e-03" rms="4.0083649754524231e-01" purity="3.8688483834266663e-01" nType="0">
          <Node pos="l" depth="2" NCoef="0" IVar="-1" Cut="0.0000000000000000e+00" cType="1" res="4.2259432375431061e-03" rms="2.9051217436790466e-01" purity="1.0563276708126068e-01" nType="-99"/>
          <Node pos="r" depth="2" NCoef="0" IVar="-1" Cut="0.0000000000000000e+00" cType="1" res="-3.0757237691432238e-03" rms="4.4080489873886108e-01" purity="5.1162296533584595e-01" nType="-99"/>
        </Node>
        <Node pos="r" depth="1" NCoef="0" IVar="6" Cut="-1.1167582273483276e+00" cType="1" res="2.8728411998599768e-03" rms="3.2796442508697510e-01" purity="5.3550392389297485e-01" nType="0">
          <Node pos="l" depth="2" NCoef="0" IVar="-1" Cut="0.0000000000000000e+00" cType="1" res="3.9923193980939686e-04" rms="3.2467612624168396e-01" purity="5.4807329177856445e-01" nType="-99"/>
          <Node pos="r" depth="2" NCoef="0" IVar="-1" Cut="0.0000000000000000e+00" cType="1" res="9.0474942699074745e-03" rms="3.7976521253585815e-01" purity="3.1547287106513977e-01" nType="-99"/>
        </Node>
      </Node>
    </BinaryTree>
    <BinaryTree type="DecisionTree" boostWeight="1.0000000000000000e+00" itree="293">
      <Node pos="s" depth="0" NCoef="0" IVar="8" Cut="-6.1795169115066528e-01" cType="1" res="1.7176726832985878e-03" rms="3.5185262560844421e-01" purity="4.9826189875602722e-01" nType="0">
        <Node pos="l" depth="1" NCoef="0" IVar="-1" Cut="0.0000000000000000e+00" cType="1" res="3.0766907148063183e-03" rms="3.9742901921272278e-01" purity="5.2650612592697144e-01" nType="-99"/>
        <Node pos="r" depth="1" NCoef="0" IVar="9" Cut="4.6931471824645996e+00" cType="1" res="2.8135409229435027e-04" rms="2.2382633388042450e-01" purity="4.9584507942199707e-01" nType="0">
          <Node pos="l" depth="2" NCoef="0" IVar="-1" Cut="0.0000000000000000e+00" cType="1" res="-1.6396191495005041e-04" rms="3.4757530689239502e-01" purity="4.9585607647895813e-01" nType="-99"/>
          <Node pos="r" depth="2" NCoef="0" IVar="-1" Cut="0.0000000000000000e+00" cType="1" res="1.4009383320808411e-01" rms="4.6661928296089172e-01" purity="3.5000410676002502e-01" nType="-99"/>
        </Node>
      </Node>
    </BinaryTree>
    <BinaryTree type="DecisionTree" boostWeight="1.0000000000000000e+00" itree="294">
      <Node pos="s" depth="0" NCoef="0" IVar="5" Cut="5.0283465385437012e+00" cType="1" res="2.2859254386276007e-03" rms="3.5201361775398254e-01" purity="5.0381606817245483e-01" nType="0">
        <Node pos="l" depth="1" NCoef="0" IVar="-1" Cut="0.0000000000000000e+00" cType="1" res="-5.5447760969400406e-03" rms="3.6648455262184143e-01" purity="5.4844713211059570e-01" nType="-99"/>
        <Node pos="r" depth="1" NCoef="0" IVar="0" Cut="8.6944360733032227e+00" cType="1" res="3.2449839636683464e-03" rms="3.5133975744247437e-01" purity="5.0187629461288452e-01" nType="0">
          <Node pos="l" depth="2" NCoef="0" IVar="-1" Cut="0.0000000000000000e+00" cType="1" res="2.4179127067327499e-03" rms="3.8942712545394897e-01" purity="4.2288592457771301e-01" nType="-99"/>
          <Node pos="r" depth="2" NCoef="0" IVar="-1" Cut="0.0000000000000000e+00" cType="1" res="5.3706618928117678e-05" rms="3.3063107728958130e-01" purity="5.4133617877960205e-01" nType="-99"/>
        </Node>
      </Node>
    </BinaryTree>
    <BinaryTree type="DecisionTree" boostWeight="1.0000000000000000e+00" itree="295">
      <Node pos="s" depth="0" NCoef="0" IVar="9" Cut="4.6931471824645996e+00" cType="1" res="-9.7791518783196807e-05" rms="2.2847902774810791e-01" purity="5.0044852495193481e-01" nType="0">
        <Node pos="l" depth="1" NCoef="0" IVar="0" Cut="9.3524932861328125e+00" cType="1" res="3.4920352045446634e-03" rms="3.4867626428604126e-01" purity="5.0046879053115845e-01" nType="0">
          <Node pos="l" depth="2" NCoef="0" IVar="-1" Cut="0.0000000000000000e+00" cType="1" res="9.4471433840226382e-05" rms="3.6586275696754456e-01" purity="4.5043259859085083e-01" nType="-99"/>
          <Node pos="r" depth="2" NCoef="0" IVar="-1" Cut="0.0000000000000000e+00" cType="1" res="2.5526690296828747e-03" rms="3.2119283080101013e-01" purity="5.7532817125320435e-01" nType="-99"/>
        </Node>
        <Node pos="r" depth="1" NCoef="0" IVar="-1" Cut="0.0000000000000000e+00" cType="1" res="-1.9609589129686356e-02" rms="4.6909254789352417e-01" purity="2.4543541669845581e-01" nType="-99"/>
      </Node>
    </BinaryTree>
    <BinaryTree type="DecisionTree" boostWeight="1.0000000000000000e+00" itree="296">
      <Node pos="s" depth="0" NCoef="0" IVar="3" Cut="-2.8424639701843262e+00" cType="1" res="9.8738848464563489e-05" rms="3.5072472691535950e-01" purity="4.9773657321929932e-01" nType="0">
        <Node pos="l" depth="1" NCoef="0" IVar="-1" Cut="0.0000000000000000e+00" cType="1" res="1.0538819245994091e-02" rms="2.8926444053649902e-01" purity="7.4341028928756714e-01" nType="-99"/>
        <Node pos="r" depth="1" NCoef="0" IVar="0" Cut="9.5714378356933594e+00" cType="1" res="-5.9456075541675091e-04" rms="3.5235169529914856e-01" purity="4.9048724770545959e-01" nType="0">
          <Node pos="l" depth="2" NCoef="0" IVar="-1" Cut="0.0000000000000000e+00" cType="1" res="-1.0814103297889233e-03" rms="3.6382293701171875e-01" purity="4.5854881405830383e-01" nType="-99"/>
          <Node pos="r" depth="2" NCoef="0" IVar="-1" Cut="0.0000000000000000e+00" cType="1" res="1.7135426169261336e-03" rms="3.2615199685096741e-01" purity="5.5934906005859375e-01" nType="-99"/>
        </Node>
      </Node>
    </BinaryTree>
    <BinaryTree type="DecisionTree" boostWeight="1.0000000000000000e+00" itree="297">
      <Node pos="s" depth="0" NCoef="0" IVar="9" Cut="4.6931471824645996e+00" cType="1" res="1.6380543820559978e-03" rms="2.2796286642551422e-01" purity="4.9786993861198425e-01" nType="0">
        <Node pos="l" depth="1" NCoef="0" IVar="4" Cut="-1.0139647722244263e+00" cType="1" res="1.8253960879519582e-03" rms="3.4885400533676147e-01" purity="4.9791345000267029e-01" nType="0">
          <Node pos="l" depth="2" NCoef="0" IVar="-1" Cut="0.0000000000000000e+00" cType="1" res="-2.1137925796210766e-03" rms="3.2774633169174194e-01" purity="5.6703484058380127e-01" nType="-99"/>
          <Node pos="r" depth="2" NCoef="0" IVar="-1" Cut="0.0000000000000000e+00" cType="1" res="1.4438797952607274e-03" rms="3.5770234465599060e-01" purity="4.6746557950973511e-01" nType="-99"/>
        </Node>
        <Node pos="r" depth="1" NCoef="0" IVar="-1" Cut="0.0000000000000000e+00" cType="1" res="-1.1101637035608292e-01" rms="3.3194124698638916e-01" purity="9.1815441846847534e-02" nType="-99"/>
      </Node>
    </BinaryTree>
    <BinaryTree type="DecisionTree" boostWeight="1.0000000000000000e+00" itree="298">
      <Node pos="s" depth="0" NCoef="0" IVar="9" Cut="3.6931471824645996e+00" cType="1" res="-1.3274383964017034e-03" rms="2.2742888331413269e-01" purity="5.0027358531951904e-01" nType="0">
        <Node pos="l" depth="1" NCoef="0" IVar="1" Cut="5.5888500213623047e+00" cType="1" res="-7.3006033198907971e-04" rms="3.4360152482986450e-01" purity="5.4162865877151489e-01" nType="0">
          <Node pos="l" depth="2" NCoef="0" IVar="-1" Cut="0.0000000000000000e+00" cType="1" res="-2.6084023993462324e-03" rms="4.1132691502571106e-01" purity="3.3219075202941895e-01" nType="-99"/>
          <Node pos="r" depth="2" NCoef="0" IVar="-1" Cut="0.0000000000000000e+00" cType="1" res="4.0052254917100072e-04" rms="3.3039548993110657e-01" purity="5.7796037197113037e-01" nType="-99"/>
        </Node>
        <Node pos="r" depth="1" NCoef="0" IVar="0" Cut="8.0386333465576172e+00" cType="1" res="-2.0411105360835791e-03" rms="3.6356112360954285e-01" purity="4.1233107447624207e-01" nType="0">
          <Node pos="l" depth="2" NCoef="0" IVar="-1" Cut="0.0000000000000000e+00" cType="1" res="-6.9763693027198315e-03" rms="4.1303488612174988e-01" purity="2.6599699258804321e-01" nType="-99"/>
          <Node pos="r" depth="2" NCoef="0" IVar="-1" Cut="0.0000000000000000e+00" cType="1" res="2.7164226048626006e-04" rms="3.5671839118003845e-01" purity="4.3085610866546631e-01" nType="-99"/>
        </Node>
      </Node>
    </BinaryTree>
    <BinaryTree type="DecisionTree" boostWeight="1.0000000000000000e+00" itree="299">
      <Node pos="s" depth="0" NCoef="0" IVar="9" Cut="3.6931471824645996e+00" cType="1" res="3.4520465414971113e-03" rms="2.2721157968044281e-01" purity="5.0504899024963379e-01" nType="0">
        <Node pos="l" depth="1" NCoef="0" IVar="5" Cut="7.2644596099853516e+00" cType="1" res="1.1722444323822856e-03" rms="3.4170565009117126e-01" purity="5.4595464468002319e-01" nType="0">
          <Node pos="l" depth="2" NCoef="0" IVar="-1" Cut="0.0000000000000000e+00" cType="1" res="2.0560072734951973e-03" rms="3.4011459350585938e-01" purity="5.6766372919082642e-01" nType="-99"/>
          <Node pos="r" depth="2" NCoef="0" IVar="-1" Cut="0.0000000000000000e+00" cType="1" res="-3.3802741672843695e-03" rms="3.4528887271881104e-01" purity="4.8959028720855713e-01" nType="-99"/>
        </Node>
        <Node pos="r" depth="1" NCoef="0" IVar="13" Cut="1.4283594489097595e-01" cType="1" res="3.5073547624051571e-03" rms="3.6443206667900085e-01" purity="4.1883409023284912e-01" nType="0">
          <Node pos="l" depth="2" NCoef="0" IVar="-1" Cut="0.0000000000000000e+00" cType="1" res="-8.8323256932199001e-04" rms="3.4310480952262878e-01" purity="2.7375701069831848e-01" nType="-99"/>
          <Node pos="r" depth="2" NCoef="0" IVar="-1" Cut="0.0000000000000000e+00" cType="1" res="5.3412783890962601e-03" rms="4.0556445717811584e-01" purity="7.2535449266433716e-01" nType="-99"/>
        </Node>
      </Node>
    </BinaryTree>
    <BinaryTree type="DecisionTree" boostWeight="1.0000000000000000e+00" itree="300">
      <Node pos="s" depth="0" NCoef="0" IVar="11" Cut="9.0454906225204468e-01" cType="1" res="-3.2987878657877445e-03" rms="3.4871688485145569e-01" purity="4.9457249045372009e-01" nType="0">
        <Node pos="l" depth="1" NCoef="0" IVar="9" Cut="4.6931471824645996e+00" cType="1" res="-2.6474921032786369e-03" rms="2.5296974182128906e-01" purity="3.8923853635787964e-01" nType="0">
          <Node pos="l" depth="2" NCoef="0" IVar="-1" Cut="0.0000000000000000e+00" cType="1" res="-1.8264659447595477e-03" rms="3.6233994364738464e-01" purity="3.8925534486770630e-01" nType="-99"/>
          <Node pos="r" depth="2" NCoef="0" IVar="-1" Cut="0.0000000000000000e+00" cType="1" res="1.2524212896823883e-01" rms="2.6957753300666809e-01" purity="2.2883222997188568e-01" nType="-99"/>
        </Node>
        <Node pos="r" depth="1" NCoef="0" IVar="11" Cut="9.8616474866867065e-01" cType="1" res="9.3949884176254272e-03" rms="2.9068231582641602e-01" purity="8.9610391855239868e-01" nType="0">
          <Node pos="l" depth="2" NCoef="0" IVar="-1" Cut="0.0000000000000000e+00" cType="1" res="7.6580198947340250e-04" rms="3.2432076334953308e-01" purity="8.6680394411087036e-01" nType="-99"/>
          <Node pos="r" depth="2" NCoef="0" IVar="-1" Cut="0.0000000000000000e+00" cType="1" res="7.8781126067042351e-03" rms="2.5012284517288208e-01" purity="9.2699533700942993e-01" nType="-99"/>
        </Node>
      </Node>
    </BinaryTree>
    <BinaryTree type="DecisionTree" boostWeight="1.0000000000000000e+00" itree="301">
      <Node pos="s" depth="0" NCoef="0" IVar="5" Cut="7.8185749053955078e+00" cType="1" res="-3.3717970363795757e-03" rms="3.5359945893287659e-01" purity="4.9784722924232483e-01" nType="0">
        <Node pos="l" depth="1" NCoef="0" IVar="2" Cut="8.8068008422851562e+00" cType="1" res="-1.1441540664236527e-05" rms="3.4938374161720276e-01" purity="5.0772190093994141e-01" nType="0">
          <Node pos="l" depth="2" NCoef="0" IVar="-1" Cut="0.0000000000000000e+00" cType="1" res="-1.8647921970114112e-03" rms="3.6054730415344238e-01" purity="4.6904194355010986e-01" nType="-99"/>
          <Node pos="r" depth="2" NCoef="0" IVar="-1" Cut="0.0000000000000000e+00" cType="1" res="1.5205641975626349e-03" rms="3.4401890635490417e-01" purity="5.2562832832336426e-01" nType="-99"/>
        </Node>
        <Node pos="r" depth="1" NCoef="0" IVar="11" Cut="5.7125335931777954e-01" cType="1" res="-2.6025734841823578e-02" rms="3.8002929091453552e-01" purity="4.3127658963203430e-01" nType="0">
          <Node pos="l" depth="2" NCoef="0" IVar="-1" Cut="0.0000000000000000e+00" cType="1" res="-3.9868708699941635e-04" rms="3.3635851740837097e-01" purity="2.3131527006626129e-01" nType="-99"/>
          <Node pos="r" depth="2" NCoef="0" IVar="-1" Cut="0.0000000000000000e+00" cType="1" res="-1.4359285123646259e-02" rms="4.3435597419738770e-01" purity="7.2807312011718750e-01" nType="-99"/>
        </Node>
      </Node>
    </BinaryTree>
    <BinaryTree type="DecisionTree" boostWeight="1.0000000000000000e+00" itree="302">
      <Node pos="s" depth="0" NCoef="0" IVar="11" Cut="6.6653794050216675e-01" cType="1" res="1.6180045204237103e-03" rms="3.5046604275703430e-01" purity="4.9852162599563599e-01" nType="0">
        <Node pos="l" depth="1" NCoef="0" IVar="12" Cut="1.4321407675743103e-01" cType="1" res="-1.5637233154848218e-03" rms="3.6540210247039795e-01" purity="3.1925898790359497e-01" nType="0">
          <Node pos="l" depth="2" NCoef="0" IVar="-1" Cut="0.0000000000000000e+00" cType="1" res="-1.6608720645308495e-02" rms="3.7356626987457275e-01" purity="4.6808251738548279e-01" nType="-99"/>
          <Node pos="r" depth="2" NCoef="0" IVar="-1" Cut="0.0000000000000000e+00" cType="1" res="2.3571724887005985e-04" rms="3.6486130952835083e-01" purity="3.1328681111335754e-01" nType="-99"/>
        </Node>
        <Node pos="r" depth="1" NCoef="0" IVar="0" Cut="1.0289262771606445e+01" cType="1" res="8.2612633705139160e-03" rms="3.1691700220108032e-01" purity="8.7281149625778198e-01" nType="0">
          <Node pos="l" depth="2" NCoef="0" IVar="-1" Cut="0.0000000000000000e+00" cType="1" res="4.3985322117805481e-03" rms="3.1461691856384277e-01" purity="8.7435555458068848e-01" nType="-99"/>
          <Node pos="r" depth="2" NCoef="0" IVar="-1" Cut="0.0000000000000000e+00" cType="1" res="-2.1530913654714823e-03" rms="3.2846051454544067e-01" purity="8.6462408304214478e-01" nType="-99"/>
        </Node>
      </Node>
    </BinaryTree>
    <BinaryTree type="DecisionTree" boostWeight="1.0000000000000000e+00" itree="303">
      <Node pos="s" depth="0" NCoef="0" IVar="2" Cut="8.5914773941040039e+00" cType="1" res="4.5635475544258952e-05" rms="3.5082000494003296e-01" purity="4.9744042754173279e-01" nType="0">
        <Node pos="l" depth="1" NCoef="0" IVar="3" Cut="-3.7860959768295288e-01" cType="1" res="1.4182627201080322e-02" rms="3.5724356770515442e-01" purity="4.8322555422782898e-01" nType="0">
          <Node pos="l" depth="2" NCoef="0" IVar="-1" Cut="0.0000000000000000e+00" cType="1" res="-4.5421356335282326e-03" rms="3.3418321609497070e-01" purity="6.0158872604370117e-01" nType="-99"/>
          <Node pos="r" depth="2" NCoef="0" IVar="-1" Cut="0.0000000000000000e+00" cType="1" res="4.9340268597006798e-03" rms="3.6467492580413818e-01" purity="4.3938532471656799e-01" nType="-99"/>
        </Node>
        <Node pos="r" depth="1" NCoef="0" IVar="3" Cut="-1.3089330196380615e+00" cType="1" res="-3.0517596751451492e-03" rms="3.4932044148445129e-01" purity="5.0055491924285889e-01" nType="0">
          <Node pos="l" depth="2" NCoef="0" IVar="-1" Cut="0.0000000000000000e+00" cType="1" res="5.9626759029924870e-03" rms="2.9012015461921692e-01" purity="7.4967139959335327e-01" nType="-99"/>
          <Node pos="r" depth="2" NCoef="0" IVar="-1" Cut="0.0000000000000000e+00" cType="1" res="-1.7730423714965582e-03" rms="3.5814800858497620e-01" purity="4.5915696024894714e-01" nType="-99"/>
        </Node>
      </Node>
    </BinaryTree>
    <BinaryTree type="DecisionTree" boostWeight="1.0000000000000000e+00" itree="304">
      <Node pos="s" depth="0" NCoef="0" IVar="9" Cut="4.0986123085021973e+00" cType="1" res="-6.1134493444114923e-04" rms="2.0758025348186493e-01" purity="5.0163000822067261e-01" nType="0">
        <Node pos="l" depth="1" NCoef="0" IVar="0" Cut="1.0867622375488281e+01" cType="1" res="1.3076958712190390e-03" rms="3.5081797838211060e-01" purity="5.0950109958648682e-01" nType="0">
          <Node pos="l" depth="2" NCoef="0" IVar="-1" Cut="0.0000000000000000e+00" cType="1" res="9.7302421636413783e-05" rms="3.4893885254859924e-01" purity="5.0606137514114380e-01" nType="-99"/>
          <Node pos="r" depth="2" NCoef="0" IVar="-1" Cut="0.0000000000000000e+00" cType="1" res="4.4019008055329323e-03" rms="3.9366152882575989e-01" purity="5.9453290700912476e-01" nType="-99"/>
        </Node>
        <Node pos="r" depth="1" NCoef="0" IVar="-1" Cut="0.0000000000000000e+00" cType="1" res="-1.8815619871020317e-02" rms="3.6831843852996826e-01" purity="3.4718054533004761e-01" nType="-99"/>
      </Node>
    </BinaryTree>
    <BinaryTree type="DecisionTree" boostWeight="1.0000000000000000e+00" itree="305">
      <Node pos="s" depth="0" NCoef="0" IVar="1" Cut="5.1873960494995117e+00" cType="1" res="-2.1407033782452345e-03" rms="3.4999820590019226e-01" purity="4.9487635493278503e-01" nType="0">
        <Node pos="l" depth="1" NCoef="0" IVar="12" Cut="8.0946969985961914e-01" cType="1" res="-2.4832746013998985e-02" rms="4.0737333893775940e-01" purity="2.4686975777149200e-01" nType="0">
          <Node pos="l" depth="2" NCoef="0" IVar="-1" Cut="0.0000000000000000e+00" cType="1" res="-8.7385373190045357e-03" rms="4.1769462823867798e-01" purity="2.8879246115684509e-01" nType="-99"/>
          <Node pos="r" depth="2" NCoef="0" IVar="-1" Cut="0.0000000000000000e+00" cType="1" res="-8.5391855100169778e-04" rms="3.9570564031600952e-01" purity="2.0516349375247955e-01" nType="-99"/>
        </Node>
        <Node pos="r" depth="1" NCoef="0" IVar="2" Cut="8.5902156829833984e+00" cType="1" res="-6.3431006856262684e-04" rms="3.4579998254776001e-01" purity="5.1134014129638672e-01" nType="0">
          <Node pos="l" depth="2" NCoef="0" IVar="-1" Cut="0.0000000000000000e+00" cType="1" res="1.8740500090643764e-03" rms="3.5716697573661804e-01" purity="4.9270227551460266e-01" nType="-99"/>
          <Node pos="r" depth="2" NCoef="0" IVar="-1" Cut="0.0000000000000000e+00" cType="1" res="-9.6571550238877535e-04" rms="3.4320476651191711e-01" purity="5.1544833183288574e-01" nType="-99"/>
        </Node>
      </Node>
    </BinaryTree>
    <BinaryTree type="DecisionTree" boostWeight="1.0000000000000000e+00" itree="306">
      <Node pos="s" depth="0" NCoef="0" IVar="3" Cut="-8.2108959555625916e-02" cType="1" res="1.6674312064424157e-03" rms="3.5049194097518921e-01" purity="5.0336807966232300e-01" nType="0">
        <Node pos="l" depth="1" NCoef="0" IVar="4" Cut="7.8136146068572998e-02" cType="1" res="7.1584307588636875e-03" rms="3.1971773505210876e-01" purity="6.7300409078598022e-01" nType="0">
          <Node pos="l" depth="2" NCoef="0" IVar="-1" Cut="0.0000000000000000e+00" cType="1" res="5.6019825860857964e-03" rms="3.0540075898170471e-01" purity="7.1994602680206299e-01" nType="-99"/>
          <Node pos="r" depth="2" NCoef="0" IVar="-1" Cut="0.0000000000000000e+00" cType="1" res="-4.5274207368493080e-03" rms="3.6981934309005737e-01" purity="4.8784008622169495e-01" nType="-99"/>
        </Node>
        <Node pos="r" depth="1" NCoef="0" IVar="4" Cut="3.1099921092391014e-02" cType="1" res="-1.8662388902157545e-03" rms="3.6889812350273132e-01" purity="3.9420071244239807e-01" nType="0">
          <Node pos="l" depth="2" NCoef="0" IVar="-1" Cut="0.0000000000000000e+00" cType="1" res="-2.2414338309317827e-03" rms="3.6310616135597229e-01" purity="4.0589526295661926e-01" nType="-99"/>
          <Node pos="r" depth="2" NCoef="0" IVar="-1" Cut="0.0000000000000000e+00" cType="1" res="2.7501920703798532e-03" rms="3.8064679503440857e-01" purity="3.6917185783386230e-01" nType="-99"/>
        </Node>
      </Node>
    </BinaryTree>
    <BinaryTree type="DecisionTree" boostWeight="1.0000000000000000e+00" itree="307">
      <Node pos="s" depth="0" NCoef="0" IVar="9" Cut="3.6931471824645996e+00" cType="1" res="-1.1444042902439833e-03" rms="2.2804838418960571e-01" purity="4.9709665775299072e-01" nType="0">
        <Node pos="l" depth="1" NCoef="0" IVar="1" Cut="7.5587668418884277e+00" cType="1" res="-2.9636451508849859e-03" rms="3.4194564819335938e-01" purity="5.3754574060440063e-01" nType="0">
          <Node pos="l" depth="2" NCoef="0" IVar="-1" Cut="0.0000000000000000e+00" cType="1" res="-3.3203384373337030e-04" rms="3.4327235817909241e-01" purity="5.3154575824737549e-01" nType="-99"/>
          <Node pos="r" depth="2" NCoef="0" IVar="-1" Cut="0.0000000000000000e+00" cType="1" res="-7.7036255970597267e-03" rms="3.2297223806381226e-01" purity="6.1723619699478149e-01" nType="-99"/>
        </Node>
        <Node pos="r" depth="1" NCoef="0" IVar="11" Cut="3.8084137439727783e-01" cType="1" res="-1.9138875650241971e-03" rms="3.5998290777206421e-01" purity="4.1240996122360229e-01" nType="0">
          <Node pos="l" depth="2" NCoef="0" IVar="-1" Cut="0.0000000000000000e+00" cType="1" res="-3.4711281768977642e-03" rms="3.5120165348052979e-01" purity="2.1376864612102509e-01" nType="-99"/>
          <Node pos="r" depth="2" NCoef="0" IVar="-1" Cut="0.0000000000000000e+00" cType="1" res="4.4274814426898956e-03" rms="3.7619611620903015e-01" purity="8.0080026388168335e-01" nType="-99"/>
        </Node>
      </Node>
    </BinaryTree>
    <BinaryTree type="DecisionTree" boostWeight="1.0000000000000000e+00" itree="308">
      <Node pos="s" depth="0" NCoef="0" IVar="3" Cut="2.2440788149833679e-01" cType="1" res="-1.7856573686003685e-03" rms="3.5105210542678833e-01" purity="4.9903905391693115e-01" nType="0">
        <Node pos="l" depth="1" NCoef="0" IVar="4" Cut="-5.6766587495803833e-01" cType="1" res="-7.5578973628580570e-03" rms="3.3161759376525879e-01" purity="6.2912356853485107e-01" nType="0">
          <Node pos="l" depth="2" NCoef="0" IVar="-1" Cut="0.0000000000000000e+00" cType="1" res="1.0870391270145774e-03" rms="3.0257177352905273e-01" purity="7.1363121271133423e-01" nType="-99"/>
          <Node pos="r" depth="2" NCoef="0" IVar="-1" Cut="0.0000000000000000e+00" cType="1" res="-5.4436982609331608e-03" rms="3.5880985856056213e-01" purity="5.4200589656829834e-01" nType="-99"/>
        </Node>
        <Node pos="r" depth="1" NCoef="0" IVar="3" Cut="9.6943992376327515e-01" cType="1" res="3.6148098297417164e-03" rms="3.6822557449340820e-01" purity="3.7733289599418640e-01" nType="0">
          <Node pos="l" depth="2" NCoef="0" IVar="-1" Cut="0.0000000000000000e+00" cType="1" res="3.1647428404539824e-03" rms="3.6905199289321899e-01" purity="4.0015852451324463e-01" nType="-99"/>
          <Node pos="r" depth="2" NCoef="0" IVar="-1" Cut="0.0000000000000000e+00" cType="1" res="-5.0828768871724606e-03" rms="3.6508375406265259e-01" purity="3.1811591982841492e-01" nType="-99"/>
        </Node>
      </Node>
    </BinaryTree>
    <BinaryTree type="DecisionTree" boostWeight="1.0000000000000000e+00" itree="309">
      <Node pos="s" depth="0" NCoef="0" IVar="8" Cut="-5.3543788194656372e-01" cType="1" res="1.6210579778999090e-03" rms="3.5177126526832581e-01" purity="4.9947494268417358e-01" nType="0">
        <Node pos="l" depth="1" NCoef="0" IVar="5" Cut="6.4470963478088379e+00" cType="1" res="2.0664172247052193e-02" rms="3.9873450994491577e-01" purity="5.2991849184036255e-01" nType="0">
          <Node pos="l" depth="2" NCoef="0" IVar="-1" Cut="0.0000000000000000e+00" cType="1" res="-1.2470898218452930e-03" rms="4.2271366715431213e-01" purity="5.2298390865325928e-01" nType="-99"/>
          <Node pos="r" depth="2" NCoef="0" IVar="-1" Cut="0.0000000000000000e+00" cType="1" res="4.6176840551197529e-03" rms="3.7732514739036560e-01" purity="5.3534460067749023e-01" nType="-99"/>
        </Node>
        <Node pos="r" depth="1" NCoef="0" IVar="9" Cut="4.6931471824645996e+00" cType="1" res="4.9327823035127949e-06" rms="2.2245328128337860e-01" purity="4.9583125114440918e-01" nType="0">
          <Node pos="l" depth="2" NCoef="0" IVar="-1" Cut="0.0000000000000000e+00" cType="1" res="-2.2596989583689719e-04" rms="3.4566146135330200e-01" purity="4.9588683247566223e-01" nType="-99"/>
          <Node pos="r" depth="2" NCoef="0" IVar="-1" Cut="0.0000000000000000e+00" cType="1" res="-2.1914401650428772e-01" rms="1.8396417796611786e-01" purity="0.0000000000000000e+00" nType="-99"/>
        </Node>
      </Node>
    </BinaryTree>
    <BinaryTree type="DecisionTree" boostWeight="1.0000000000000000e+00" itree="310">
      <Node pos="s" depth="0" NCoef="0" IVar="1" Cut="5.9737176895141602e+00" cType="1" res="1.3025925727561116e-03" rms="3.5037961602210999e-01" purity="5.0147467851638794e-01" nType="0">
        <Node pos="l" depth="1" NCoef="0" IVar="0" Cut="9.0446815490722656e+00" cType="1" res="-7.3056095279753208e-03" rms="3.9071658253669739e-01" purity="3.4345668554306030e-01" nType="0">
          <Node pos="l" depth="2" NCoef="0" IVar="-1" Cut="0.0000000000000000e+00" cType="1" res="-3.4766625612974167e-03" rms="4.0010085701942444e-01" purity="3.3031317591667175e-01" nType="-99"/>
          <Node pos="r" depth="2" NCoef="0" IVar="-1" Cut="0.0000000000000000e+00" cType="1" res="3.8707209751009941e-03" rms="3.6229935288429260e-01" purity="3.8032847642898560e-01" nType="-99"/>
        </Node>
        <Node pos="r" depth="1" NCoef="0" IVar="13" Cut="4.7614704817533493e-02" cType="1" res="4.7747641801834106e-03" rms="3.3266523480415344e-01" purity="5.6521213054656982e-01" nType="0">
          <Node pos="l" depth="2" NCoef="0" IVar="-1" Cut="0.0000000000000000e+00" cType="1" res="-1.8564198398962617e-03" rms="2.5876238942146301e-01" purity="3.0346167087554932e-01" nType="-99"/>
          <Node pos="r" depth="2" NCoef="0" IVar="-1" Cut="0.0000000000000000e+00" cType="1" res="2.7706995606422424e-03" rms="3.7515854835510254e-01" purity="7.4586302042007446e-01" nType="-99"/>
        </Node>
      </Node>
    </BinaryTree>
    <BinaryTree type="DecisionTree" boostWeight="1.0000000000000000e+00" itree="311">
      <Node pos="s" depth="0" NCoef="0" IVar="9" Cut="4.6931471824645996e+00" cType="1" res="8.5002597188577056e-04" rms="2.2768980264663696e-01" purity="5.0201082229614258e-01" nType="0">
        <Node pos="l" depth="1" NCoef="0" IVar="4" Cut="-1.6717505455017090e+00" cType="1" res="1.0820964816957712e-03" rms="3.5012951493263245e-01" purity="5.0206595659255981e-01" nType="0">
          <Node pos="l" depth="2" NCoef="0" IVar="-1" Cut="0.0000000000000000e+00" cType="1" res="-3.5106567665934563e-03" rms="3.3055600523948669e-01" purity="5.6990015506744385e-01" nType="-99"/>
          <Node pos="r" depth="2" NCoef="0" IVar="-1" Cut="0.0000000000000000e+00" cType="1" res="9.4543618615716696e-04" rms="3.5392320156097412e-01" purity="4.8831972479820251e-01" nType="-99"/>
        </Node>
        <Node pos="r" depth="1" NCoef="0" IVar="-1" Cut="0.0000000000000000e+00" cType="1" res="-2.2826173901557922e-01" rms="2.7790489792823792e-01" purity="3.1183749437332153e-02" nType="-99"/>
      </Node>
    </BinaryTree>
    <BinaryTree type="DecisionTree" boostWeight="1.0000000000000000e+00" itree="312">
      <Node pos="s" depth="0" NCoef="0" IVar="0" Cut="1.0447353363037109e+01" cType="1" res="-1.7379454802721739e-03" rms="3.5043480992317200e-01" purity="4.9611651897430420e-01" nType="0">
        <Node pos="l" depth="1" NCoef="0" IVar="0" Cut="8.0078754425048828e+00" cType="1" res="-3.7827161140739918e-03" rms="3.4908652305603027e-01" purity="4.8749452829360962e-01" nType="0">
          <Node pos="l" depth="2" NCoef="0" IVar="-1" Cut="0.0000000000000000e+00" cType="1" res="-3.4482646733522415e-03" rms="4.4225192070007324e-01" purity="3.4056404232978821e-01" nType="-99"/>
          <Node pos="r" depth="2" NCoef="0" IVar="-1" Cut="0.0000000000000000e+00" cType="1" res="-6.7472748924046755e-04" rms="3.3505144715309143e-01" purity="5.0657600164413452e-01" nType="-99"/>
        </Node>
        <Node pos="r" depth="1" NCoef="0" IVar="3" Cut="5.4700171947479248e-01" cType="1" res="1.9175685942173004e-02" rms="3.6327776312828064e-01" purity="5.8430099487304688e-01" nType="0">
          <Node pos="l" depth="2" NCoef="0" IVar="-1" Cut="0.0000000000000000e+00" cType="1" res="-2.7048948686569929e-04" rms="3.3907169103622437e-01" purity="6.4448630809783936e-01" nType="-99"/>
          <Node pos="r" depth="2" NCoef="0" IVar="-1" Cut="0.0000000000000000e+00" cType="1" res="8.6073484271764755e-03" rms="3.9570927619934082e-01" purity="4.9152562022209167e-01" nType="-99"/>
        </Node>
      </Node>
    </BinaryTree>
    <BinaryTree type="DecisionTree" boostWeight="1.0000000000000000e+00" itree="313">
      <Node pos="s" depth="0" NCoef="0" IVar="3" Cut="-2.5336160659790039e+00" cType="1" res="-2.7389096794649959e-04" rms="3.4869578480720520e-01" purity="5.0089263916015625e-01" nType="0">
        <Node pos="l" depth="1" NCoef="0" IVar="-1" Cut="0.0000000000000000e+00" cType="1" res="1.2958581559360027e-02" rms="2.7423623204231262e-01" purity="7.7655261754989624e-01" nType="-99"/>
        <Node pos="r" depth="1" NCoef="0" IVar="8" Cut="-4.5656114816665649e-01" cType="1" res="-1.4777455944567919e-03" rms="3.5144758224487305e-01" purity="4.8923024535179138e-01" nType="0">
          <Node pos="l" depth="2" NCoef="0" IVar="-1" Cut="0.0000000000000000e+00" cType="1" res="1.2494076509028673e-03" rms="3.7900826334953308e-01" purity="5.0184953212738037e-01" nType="-99"/>
          <Node pos="r" depth="2" NCoef="0" IVar="-1" Cut="0.0000000000000000e+00" cType="1" res="-1.1534029617905617e-03" rms="3.4653022885322571e-01" purity="4.8709198832511902e-01" nType="-99"/>
        </Node>
      </Node>
    </BinaryTree>
    <BinaryTree type="DecisionTree" boostWeight="1.0000000000000000e+00" itree="314">
      <Node pos="s" depth="0" NCoef="0" IVar="0" Cut="8.0376434326171875e+00" cType="1" res="1.8123211339116096e-03" rms="3.5248151421546936e-01" purity="5.0005567073822021e-01" nType="0">
        <Node pos="l" depth="1" NCoef="0" IVar="13" Cut="4.0767930448055267e-02" cType="1" res="-1.5843238681554794e-02" rms="4.4121137261390686e-01" purity="3.4471195936203003e-01" nType="0">
          <Node pos="l" depth="2" NCoef="0" IVar="-1" Cut="0.0000000000000000e+00" cType="1" res="2.4072382075246423e-04" rms="4.1967940330505371e-01" purity="2.6050215959548950e-01" nType="-99"/>
          <Node pos="r" depth="2" NCoef="0" IVar="-1" Cut="0.0000000000000000e+00" cType="1" res="-6.4938478171825409e-03" rms="4.6234607696533203e-01" purity="4.3435794115066528e-01" nType="-99"/>
        </Node>
        <Node pos="r" depth="1" NCoef="0" IVar="4" Cut="7.8755572438240051e-02" cType="1" res="4.0639303624629974e-03" rms="3.3943659067153931e-01" purity="5.1986664533615112e-01" nType="0">
          <Node pos="l" depth="2" NCoef="0" IVar="-1" Cut="0.0000000000000000e+00" cType="1" res="2.9776021256111562e-04" rms="3.2759261131286621e-01" purity="5.5359482765197754e-01" nType="-99"/>
          <Node pos="r" depth="2" NCoef="0" IVar="-1" Cut="0.0000000000000000e+00" cType="1" res="3.4150918945670128e-03" rms="3.7096691131591797e-01" purity="4.2375904321670532e-01" nType="-99"/>
        </Node>
      </Node>
    </BinaryTree>
    <BinaryTree type="DecisionTree" boostWeight="1.0000000000000000e+00" itree="315">
      <Node pos="s" depth="0" NCoef="0" IVar="9" Cut="4.0000000000000000e+00" cType="1" res="3.7062603514641523e-03" rms="2.2975328564643860e-01" purity="5.0548774003982544e-01" nType="0">
        <Node pos="l" depth="1" NCoef="0" IVar="13" Cut="4.7614932060241699e-01" cType="1" res="7.3347813449800014e-03" rms="3.4832173585891724e-01" purity="5.1950591802597046e-01" nType="0">
          <Node pos="l" depth="2" NCoef="0" IVar="-1" Cut="0.0000000000000000e+00" cType="1" res="2.8057647868990898e-03" rms="3.4924125671386719e-01" purity="4.5245921611785889e-01" nType="-99"/>
          <Node pos="r" depth="2" NCoef="0" IVar="-1" Cut="0.0000000000000000e+00" cType="1" res="-2.2478774189949036e-03" rms="3.4418177604675293e-01" purity="7.9526126384735107e-01" nType="-99"/>
        </Node>
        <Node pos="r" depth="1" NCoef="0" IVar="3" Cut="5.3174859285354614e-01" cType="1" res="-1.9491858780384064e-02" rms="3.7099051475524902e-01" purity="3.6248746514320374e-01" nType="0">
          <Node pos="l" depth="2" NCoef="0" IVar="-1" Cut="0.0000000000000000e+00" cType="1" res="-2.0954269915819168e-02" rms="3.7158754467964172e-01" purity="4.3489879369735718e-01" nType="-99"/>
          <Node pos="r" depth="2" NCoef="0" IVar="-1" Cut="0.0000000000000000e+00" cType="1" res="-1.2506070779636502e-03" rms="3.6949697136878967e-01" purity="2.6891255378723145e-01" nType="-99"/>
        </Node>
      </Node>
    </BinaryTree>
    <BinaryTree type="DecisionTree" boostWeight="1.0000000000000000e+00" itree="316">
      <Node pos="s" depth="0" NCoef="0" IVar="5" Cut="6.9613008499145508e+00" cType="1" res="-8.2365737762302160e-04" rms="3.5131883621215820e-01" purity="4.9867787957191467e-01" nType="0">
        <Node pos="l" depth="1" NCoef="0" IVar="7" Cut="-4.0991798043251038e-01" cType="1" res="2.7579918969422579e-03" rms="3.5369536280632019e-01" purity="5.1896464824676514e-01" nType="0">
          <Node pos="l" depth="2" NCoef="0" IVar="-1" Cut="0.0000000000000000e+00" cType="1" res="-2.2967003751546144e-03" rms="3.5890331864356995e-01" purity="5.1854377985000610e-01" nType="-99"/>
          <Node pos="r" depth="2" NCoef="0" IVar="-1" Cut="0.0000000000000000e+00" cType="1" res="1.9765712786465883e-03" rms="3.5193875432014465e-01" purity="5.1909983158111572e-01" nType="-99"/>
        </Node>
        <Node pos="r" depth="1" NCoef="0" IVar="13" Cut="4.7614932060241699e-02" cType="1" res="-6.3981758430600166e-03" rms="3.4751424193382263e-01" purity="4.6710330247879028e-01" nType="0">
          <Node pos="l" depth="2" NCoef="0" IVar="-1" Cut="0.0000000000000000e+00" cType="1" res="-8.5621401667594910e-03" rms="2.4651724100112915e-01" purity="2.7196303009986877e-01" nType="-99"/>
          <Node pos="r" depth="2" NCoef="0" IVar="-1" Cut="0.0000000000000000e+00" cType="1" res="5.4102827562019229e-04" rms="4.1689941287040710e-01" purity="6.4019572734832764e-01" nType="-99"/>
        </Node>
      </Node>
    </BinaryTree>
    <BinaryTree type="DecisionTree" boostWeight="1.0000000000000000e+00" itree="317">
      <Node pos="s" depth="0" NCoef="0" IVar="0" Cut="1.0885105133056641e+01" cType="1" res="1.8795909127220511e-03" rms="3.5104843974113464e-01" purity="5.0208580493927002e-01" nType="0">
        <Node pos="l" depth="1" NCoef="0" IVar="2" Cut="8.3750495910644531e+00" cType="1" res="8.1645720638334751e-04" rms="3.4905439615249634e-01" purity="4.9816143512725830e-01" nType="0">
          <Node pos="l" depth="2" NCoef="0" IVar="-1" Cut="0.0000000000000000e+00" cType="1" res="3.2174093648791313e-03" rms="3.5772302746772766e-01" purity="4.8718276619911194e-01" nType="-99"/>
          <Node pos="r" depth="2" NCoef="0" IVar="-1" Cut="0.0000000000000000e+00" cType="1" res="-2.5913910940289497e-04" rms="3.4807196259498596e-01" purity="4.9934035539627075e-01" nType="-99"/>
        </Node>
        <Node pos="r" depth="1" NCoef="0" IVar="-1" Cut="0.0000000000000000e+00" cType="1" res="5.2262702956795692e-03" rms="3.9744180440902710e-01" purity="6.0183387994766235e-01" nType="-99"/>
      </Node>
    </BinaryTree>
    <BinaryTree type="DecisionTree" boostWeight="1.0000000000000000e+00" itree="318">
      <Node pos="s" depth="0" NCoef="0" IVar="6" Cut="-2.8100423812866211e+00" cType="1" res="-2.6187710464000702e-03" rms="3.4875297546386719e-01" purity="4.9711230397224426e-01" nType="0">
        <Node pos="l" depth="1" NCoef="0" IVar="12" Cut="9.0445739030838013e-01" cType="1" res="3.0731456354260445e-03" rms="3.2786166667938232e-01" purity="5.8115553855895996e-01" nType="0">
          <Node pos="l" depth="2" NCoef="0" IVar="-1" Cut="0.0000000000000000e+00" cType="1" res="2.0467101130634546e-03" rms="3.5766029357910156e-01" purity="7.3415797948837280e-01" nType="-99"/>
          <Node pos="r" depth="2" NCoef="0" IVar="-1" Cut="0.0000000000000000e+00" cType="1" res="-8.7401391938328743e-03" rms="1.8962801992893219e-01" purity="4.7300163656473160e-02" nType="-99"/>
        </Node>
        <Node pos="r" depth="1" NCoef="0" IVar="12" Cut="8.0931979417800903e-01" cType="1" res="-8.2808798179030418e-03" rms="3.6827391386032104e-01" purity="4.1350919008255005e-01" nType="0">
          <Node pos="l" depth="2" NCoef="0" IVar="-1" Cut="0.0000000000000000e+00" cType="1" res="-3.3364281989634037e-03" rms="4.0172618627548218e-01" purity="6.0357105731964111e-01" nType="-99"/>
          <Node pos="r" depth="2" NCoef="0" IVar="-1" Cut="0.0000000000000000e+00" cType="1" res="2.0211315131746233e-04" rms="3.1562128663063049e-01" purity="1.4880187809467316e-01" nType="-99"/>
        </Node>
      </Node>
    </BinaryTree>
    <BinaryTree type="DecisionTree" boostWeight="1.0000000000000000e+00" itree="319">
      <Node pos="s" depth="0" NCoef="0" IVar="1" Cut="5.1804852485656738e+00" cType="1" res="-1.5564893838018179e-03" rms="3.4979510307312012e-01" purity="4.9730125069618225e-01" nType="0">
        <Node pos="l" depth="1" NCoef="0" IVar="4" Cut="-1.1810489743947983e-01" cType="1" res="-2.0954987034201622e-02" rms="4.0140232443809509e-01" purity="2.4560508131980896e-01" nType="0">
          <Node pos="l" depth="2" NCoef="0" IVar="-1" Cut="0.0000000000000000e+00" cType="1" res="-1.1056368239223957e-02" rms="3.9108142256736755e-01" purity="2.1848107874393463e-01" nType="-99"/>
          <Node pos="r" depth="2" NCoef="0" IVar="-1" Cut="0.0000000000000000e+00" cType="1" res="3.9495686069130898e-03" rms="4.0915235877037048e-01" purity="2.7549153566360474e-01" nType="-99"/>
        </Node>
        <Node pos="r" depth="1" NCoef="0" IVar="1" Cut="5.5611381530761719e+00" cType="1" res="-2.6768961106427014e-04" rms="3.4605538845062256e-01" purity="5.1402348279953003e-01" nType="0">
          <Node pos="l" depth="2" NCoef="0" IVar="-1" Cut="0.0000000000000000e+00" cType="1" res="5.3356154821813107e-03" rms="4.0754035115242004e-01" purity="3.5746636986732483e-01" nType="-99"/>
          <Node pos="r" depth="2" NCoef="0" IVar="-1" Cut="0.0000000000000000e+00" cType="1" res="-7.4966315878555179e-04" rms="3.3952417969703674e-01" purity="5.2897793054580688e-01" nType="-99"/>
        </Node>
      </Node>
    </BinaryTree>
    <BinaryTree type="DecisionTree" boostWeight="1.0000000000000000e+00" itree="320">
      <Node pos="s" depth="0" NCoef="0" IVar="9" Cut="3.6931471824645996e+00" cType="1" res="-4.3891704990528524e-04" rms="2.3208241164684296e-01" purity="4.9805885553359985e-01" nType="0">
        <Node pos="l" depth="1" NCoef="0" IVar="3" Cut="-8.1387713551521301e-02" cType="1" res="-1.7873669276013970e-03" rms="3.4731614589691162e-01" purity="5.3836989402770996e-01" nType="0">
          <Node pos="l" depth="2" NCoef="0" IVar="-1" Cut="0.0000000000000000e+00" cType="1" res="-2.9582851566374302e-03" rms="3.1888312101364136e-01" purity="6.9202673435211182e-01" nType="-99"/>
          <Node pos="r" depth="2" NCoef="0" IVar="-1" Cut="0.0000000000000000e+00" cType="1" res="6.1359128449112177e-04" rms="3.6476495862007141e-01" purity="4.3717268109321594e-01" nType="-99"/>
        </Node>
        <Node pos="r" depth="1" NCoef="0" IVar="0" Cut="9.9816398620605469e+00" cType="1" res="-8.7615085067227483e-04" rms="3.6557018756866455e-01" purity="4.1381853818893433e-01" nType="0">
          <Node pos="l" depth="2" NCoef="0" IVar="-1" Cut="0.0000000000000000e+00" cType="1" res="1.0407424997538328e-03" rms="3.6753720045089722e-01" purity="3.9779594540596008e-01" nType="-99"/>
          <Node pos="r" depth="2" NCoef="0" IVar="-1" Cut="0.0000000000000000e+00" cType="1" res="-5.4838713258504868e-03" rms="3.5641616582870483e-01" purity="4.8416188359260559e-01" nType="-99"/>
        </Node>
      </Node>
    </BinaryTree>
    <BinaryTree type="DecisionTree" boostWeight="1.0000000000000000e+00" itree="321">
      <Node pos="s" depth="0" NCoef="0" IVar="0" Cut="1.0885105133056641e+01" cType="1" res="-3.8325766217894852e-04" rms="3.4905704855918884e-01" purity="4.9948331713676453e-01" nType="0">
        <Node pos="l" depth="1" NCoef="0" IVar="2" Cut="8.4392223358154297e+00" cType="1" res="-1.8700610380619764e-03" rms="3.4736409783363342e-01" purity="4.9545300006866455e-01" nType="0">
          <Node pos="l" depth="2" NCoef="0" IVar="-1" Cut="0.0000000000000000e+00" cType="1" res="2.4722081143409014e-03" rms="3.4730452299118042e-01" purity="4.6974202990531921e-01" nType="-99"/>
          <Node pos="r" depth="2" NCoef="0" IVar="-1" Cut="0.0000000000000000e+00" cType="1" res="-1.2353094061836600e-03" rms="3.4732753038406372e-01" purity="4.9890756607055664e-01" nType="-99"/>
        </Node>
        <Node pos="r" depth="1" NCoef="0" IVar="-1" Cut="0.0000000000000000e+00" cType="1" res="7.2954925708472729e-03" rms="3.8981470465660095e-01" purity="6.0812115669250488e-01" nType="-99"/>
      </Node>
    </BinaryTree>
    <BinaryTree type="DecisionTree" boostWeight="1.0000000000000000e+00" itree="322">
      <Node pos="s" depth="0" NCoef="0" IVar="8" Cut="-5.3796535730361938e-01" cType="1" res="5.1613181130960584e-04" rms="3.4947583079338074e-01" purity="4.9919638037681580e-01" nType="0">
        <Node pos="l" depth="1" NCoef="0" IVar="2" Cut="9.2174720764160156e+00" cType="1" res="1.6586013138294220e-02" rms="3.8590866327285767e-01" purity="5.3863531351089478e-01" nType="0">
          <Node pos="l" depth="2" NCoef="0" IVar="-1" Cut="0.0000000000000000e+00" cType="1" res="1.3496962492354214e-04" rms="3.9118170738220215e-01" purity="5.2409172058105469e-01" nType="-99"/>
          <Node pos="r" depth="2" NCoef="0" IVar="-1" Cut="0.0000000000000000e+00" cType="1" res="8.1205582246184349e-03" rms="3.7461483478546143e-01" purity="5.6491869688034058e-01" nType="-99"/>
        </Node>
        <Node pos="r" depth="1" NCoef="0" IVar="5" Cut="6.7167968750000000e+00" cType="1" res="-1.4812942827120423e-03" rms="3.4462603926658630e-01" purity="4.9429428577423096e-01" nType="0">
          <Node pos="l" depth="2" NCoef="0" IVar="-1" Cut="0.0000000000000000e+00" cType="1" res="1.4907134464010596e-03" rms="3.4929993748664856e-01" purity="5.2494329214096069e-01" nType="-99"/>
          <Node pos="r" depth="2" NCoef="0" IVar="-1" Cut="0.0000000000000000e+00" cType="1" res="-2.5609254371374846e-03" rms="3.3976003527641296e-01" purity="4.6343624591827393e-01" nType="-99"/>
        </Node>
      </Node>
    </BinaryTree>
    <BinaryTree type="DecisionTree" boostWeight="1.0000000000000000e+00" itree="323">
      <Node pos="s" depth="0" NCoef="0" IVar="12" Cut="9.5206296443939209e-01" cType="1" res="4.1499705985188484e-03" rms="3.5087099671363831e-01" purity="5.0654429197311401e-01" nType="0">
        <Node pos="l" depth="1" NCoef="0" IVar="3" Cut="2.2644492983818054e-01" cType="1" res="6.3226944766938686e-03" rms="3.8076305389404297e-01" purity="6.1546987295150757e-01" nType="0">
          <Node pos="l" depth="2" NCoef="0" IVar="-1" Cut="0.0000000000000000e+00" cType="1" res="1.4893396291881800e-04" rms="3.4592697024345398e-01" purity="7.2674536705017090e-01" nType="-99"/>
          <Node pos="r" depth="2" NCoef="0" IVar="-1" Cut="0.0000000000000000e+00" cType="1" res="2.5807584170252085e-03" rms="4.1473299264907837e-01" purity="4.9635124206542969e-01" nType="-99"/>
        </Node>
        <Node pos="r" depth="1" NCoef="0" IVar="11" Cut="6.9004367105662823e-03" cType="1" res="-5.3321770392358303e-03" rms="1.6599763929843903e-01" purity="3.1174227595329285e-02" nType="0">
          <Node pos="l" depth="2" NCoef="0" IVar="-1" Cut="0.0000000000000000e+00" cType="1" res="-2.2154141217470169e-02" rms="9.4045586884021759e-02" purity="9.1534554958343506e-03" nType="-99"/>
          <Node pos="r" depth="2" NCoef="0" IVar="-1" Cut="0.0000000000000000e+00" cType="1" res="8.1385280936956406e-03" rms="2.9395449161529541e-01" purity="1.0123778879642487e-01" nType="-99"/>
        </Node>
      </Node>
    </BinaryTree>
    <BinaryTree type="DecisionTree" boostWeight="1.0000000000000000e+00" itree="324">
      <Node pos="s" depth="0" NCoef="0" IVar="6" Cut="-2.0877406597137451e+00" cType="1" res="1.5255954349413514e-03" rms="3.5007491707801819e-01" purity="5.0327241420745850e-01" nType="0">
        <Node pos="l" depth="1" NCoef="0" IVar="12" Cut="8.0925399065017700e-01" cType="1" res="5.2243247628211975e-03" rms="3.4027734398841858e-01" purity="5.5679267644882202e-01" nType="0">
          <Node pos="l" depth="2" NCoef="0" IVar="-1" Cut="0.0000000000000000e+00" cType="1" res="2.6803773362189531e-03" rms="3.6178189516067505e-01" purity="7.5445961952209473e-01" nType="-99"/>
          <Node pos="r" depth="2" NCoef="0" IVar="-1" Cut="0.0000000000000000e+00" cType="1" res="-2.0857159979641438e-03" rms="2.8805825114250183e-01" purity="1.2917293608188629e-01" nType="-99"/>
        </Node>
        <Node pos="r" depth="1" NCoef="0" IVar="2" Cut="8.6232519149780273e+00" cType="1" res="-9.7058927640318871e-03" rms="3.7805223464965820e-01" purity="3.4075370430946350e-01" nType="0">
          <Node pos="l" depth="2" NCoef="0" IVar="-1" Cut="0.0000000000000000e+00" cType="1" res="-7.8956335783004761e-03" rms="3.8144207000732422e-01" purity="2.9108586907386780e-01" nType="-99"/>
          <Node pos="r" depth="2" NCoef="0" IVar="-1" Cut="0.0000000000000000e+00" cType="1" res="-3.1800227588973939e-04" rms="3.7667611241340637e-01" purity="3.5386756062507629e-01" nType="-99"/>
        </Node>
      </Node>
    </BinaryTree>
    <BinaryTree type="DecisionTree" boostWeight="1.0000000000000000e+00" itree="325">
      <Node pos="s" depth="0" NCoef="0" IVar="6" Cut="-6.8683493137359619e-01" cType="1" res="2.7109450456919149e-05" rms="3.5277375578880310e-01" purity="4.9948823451995850e-01" nType="0">
        <Node pos="l" depth="1" NCoef="0" IVar="6" Cut="-4.4834208488464355e+00" cType="1" res="-1.0776636190712452e-03" rms="3.5121804475784302e-01" purity="5.0894862413406372e-01" nType="0">
          <Node pos="l" depth="2" NCoef="0" IVar="-1" Cut="0.0000000000000000e+00" cType="1" res="6.6285296343266964e-03" rms="3.1069141626358032e-01" purity="6.3606876134872437e-01" nType="-99"/>
          <Node pos="r" depth="2" NCoef="0" IVar="-1" Cut="0.0000000000000000e+00" cType="1" res="-6.3568702898919582e-04" rms="3.5318589210510254e-01" purity="5.0226205587387085e-01" nType="-99"/>
        </Node>
        <Node pos="r" depth="1" NCoef="0" IVar="-1" Cut="0.0000000000000000e+00" cType="1" res="7.3323082178831100e-03" rms="3.8856890797615051e-01" purity="2.6343628764152527e-01" nType="-99"/>
      </Node>
    </BinaryTree>
    <BinaryTree type="DecisionTree" boostWeight="1.0000000000000000e+00" itree="326">
      <Node pos="s" depth="0" NCoef="0" IVar="9" Cut="3.6931471824645996e+00" cType="1" res="3.1635767663829029e-04" rms="2.3019842803478241e-01" purity="4.9737834930419922e-01" nType="0">
        <Node pos="l" depth="1" NCoef="0" IVar="5" Cut="8.2512340545654297e+00" cType="1" res="2.6403949595987797e-04" rms="3.4056085348129272e-01" purity="5.3577762842178345e-01" nType="0">
          <Node pos="l" depth="2" NCoef="0" IVar="-1" Cut="0.0000000000000000e+00" cType="1" res="5.7012599427253008e-04" rms="3.3720690011978149e-01" purity="5.4246777296066284e-01" nType="-99"/>
          <Node pos="r" depth="2" NCoef="0" IVar="-1" Cut="0.0000000000000000e+00" cType="1" res="-6.2111746519804001e-03" rms="3.9033234119415283e-01" purity="4.2593184113502502e-01" nType="-99"/>
        </Node>
        <Node pos="r" depth="1" NCoef="0" IVar="0" Cut="1.0214313507080078e+01" cType="1" res="4.6190600842237473e-03" rms="3.6760699748992920e-01" purity="4.1573801636695862e-01" nType="0">
          <Node pos="l" depth="2" NCoef="0" IVar="-1" Cut="0.0000000000000000e+00" cType="1" res="3.4578603226691484e-03" rms="3.6645010113716125e-01" purity="4.0705576539039612e-01" nType="-99"/>
          <Node pos="r" depth="2" NCoef="0" IVar="-1" Cut="0.0000000000000000e+00" cType="1" res="-7.0448094047605991e-03" rms="3.7405207753181458e-01" purity="4.7177612781524658e-01" nType="-99"/>
        </Node>
      </Node>
    </BinaryTree>
    <BinaryTree type="DecisionTree" boostWeight="1.0000000000000000e+00" itree="327">
      <Node pos="s" depth="0" NCoef="0" IVar="6" Cut="-1.9929618835449219e+00" cType="1" res="-5.3308554925024509e-04" rms="3.4932467341423035e-01" purity="4.9863785505294800e-01" nType="0">
        <Node pos="l" depth="1" NCoef="0" IVar="0" Cut="9.7883377075195312e+00" cType="1" res="3.0857303645461798e-03" rms="3.4190440177917480e-01" purity="5.4755395650863647e-01" nType="0">
          <Node pos="l" depth="2" NCoef="0" IVar="-1" Cut="0.0000000000000000e+00" cType="1" res="-2.9818664188496768e-04" rms="3.4861999750137329e-01" purity="5.2002781629562378e-01" nType="-99"/>
          <Node pos="r" depth="2" NCoef="0" IVar="-1" Cut="0.0000000000000000e+00" cType="1" res="3.7261242978274822e-03" rms="3.2336279749870300e-01" purity="6.1986130475997925e-01" nType="-99"/>
        </Node>
        <Node pos="r" depth="1" NCoef="0" IVar="11" Cut="4.7624859958887100e-02" cType="1" res="-1.3366555795073509e-02" rms="3.7417384982109070e-01" purity="3.2516589760780334e-01" nType="0">
          <Node pos="l" depth="2" NCoef="0" IVar="-1" Cut="0.0000000000000000e+00" cType="1" res="2.1554564591497183e-03" rms="2.5657489895820618e-01" purity="7.7289327979087830e-02" nType="-99"/>
          <Node pos="r" depth="2" NCoef="0" IVar="-1" Cut="0.0000000000000000e+00" cType="1" res="-5.0461720675230026e-03" rms="4.3299466371536255e-01" purity="4.8489391803741455e-01" nType="-99"/>
        </Node>
      </Node>
    </BinaryTree>
    <BinaryTree type="DecisionTree" boostWeight="1.0000000000000000e+00" itree="328">
      <Node pos="s" depth="0" NCoef="0" IVar="7" Cut="-5.1497071981430054e-01" cType="1" res="-2.6314123533666134e-04" rms="3.5089781880378723e-01" purity="5.0136268138885498e-01" nType="0">
        <Node pos="l" depth="1" NCoef="0" IVar="2" Cut="9.5258750915527344e+00" cType="1" res="-1.3090211898088455e-02" rms="3.5634103417396545e-01" purity="5.1094418764114380e-01" nType="0">
          <Node pos="l" depth="2" NCoef="0" IVar="-1" Cut="0.0000000000000000e+00" cType="1" res="-2.4232624564319849e-03" rms="3.5780099034309387e-01" purity="5.1003950834274292e-01" nType="-99"/>
          <Node pos="r" depth="2" NCoef="0" IVar="-1" Cut="0.0000000000000000e+00" cType="1" res="-1.5596403740346432e-02" rms="3.4848770499229431e-01" purity="5.1534837484359741e-01" nType="-99"/>
        </Node>
        <Node pos="r" depth="1" NCoef="0" IVar="8" Cut="-1.0886470228433609e-01" cType="1" res="2.8107943944633007e-03" rms="3.4951087832450867e-01" purity="4.9906656146049500e-01" nType="0">
          <Node pos="l" depth="2" NCoef="0" IVar="-1" Cut="0.0000000000000000e+00" cType="1" res="2.2295441012829542e-03" rms="3.5419246554374695e-01" purity="5.0224936008453369e-01" nType="-99"/>
          <Node pos="r" depth="2" NCoef="0" IVar="-1" Cut="0.0000000000000000e+00" cType="1" res="-7.7030039392411709e-04" rms="3.4591877460479736e-01" purity="4.9670669436454773e-01" nType="-99"/>
        </Node>
      </Node>
    </BinaryTree>
    <BinaryTree type="DecisionTree" boostWeight="1.0000000000000000e+00" itree="329">
      <Node pos="s" depth="0" NCoef="0" IVar="9" Cut="3.6931471824645996e+00" cType="1" res="2.2002079058438540e-03" rms="2.2746916115283966e-01" purity="5.0459760427474976e-01" nType="0">
        <Node pos="l" depth="1" NCoef="0" IVar="2" Cut="9.5323514938354492e+00" cType="1" res="1.1469495948404074e-03" rms="3.4132862091064453e-01" purity="5.4596531391143799e-01" nType="0">
          <Node pos="l" depth="2" NCoef="0" IVar="-1" Cut="0.0000000000000000e+00" cType="1" res="1.0918675689026713e-03" rms="3.4447842836380005e-01" purity="5.4639041423797607e-01" nType="-99"/>
          <Node pos="r" depth="2" NCoef="0" IVar="-1" Cut="0.0000000000000000e+00" cType="1" res="-6.8810437805950642e-03" rms="3.2505881786346436e-01" purity="5.4389452934265137e-01" nType="-99"/>
        </Node>
        <Node pos="r" depth="1" NCoef="0" IVar="5" Cut="7.2510356903076172e+00" cType="1" res="1.2609137920662761e-03" rms="3.6582562327384949e-01" purity="4.1755056381225586e-01" nType="0">
          <Node pos="l" depth="2" NCoef="0" IVar="-1" Cut="0.0000000000000000e+00" cType="1" res="-1.4537840615957975e-03" rms="3.6865767836570740e-01" purity="4.2090320587158203e-01" nType="-99"/>
          <Node pos="r" depth="2" NCoef="0" IVar="-1" Cut="0.0000000000000000e+00" cType="1" res="4.4578816741704941e-03" rms="3.5884130001068115e-01" purity="4.0968251228332520e-01" nType="-99"/>
        </Node>
      </Node>
    </BinaryTree>
    <BinaryTree type="DecisionTree" boostWeight="1.0000000000000000e+00" itree="330">
      <Node pos="s" depth="0" NCoef="0" IVar="9" Cut="3.6931471824645996e+00" cType="1" res="-1.2339305831119418e-03" rms="2.2939772903919220e-01" purity="4.9754309654235840e-01" nType="0">
        <Node pos="l" depth="1" NCoef="0" IVar="2" Cut="8.9995059967041016e+00" cType="1" res="-4.8603247851133347e-03" rms="3.4261715412139893e-01" purity="5.3616213798522949e-01" nType="0">
          <Node pos="l" depth="2" NCoef="0" IVar="-1" Cut="0.0000000000000000e+00" cType="1" res="-2.6690517552196980e-03" rms="3.4807923436164856e-01" purity="5.1440972089767456e-01" nType="-99"/>
          <Node pos="r" depth="2" NCoef="0" IVar="-1" Cut="0.0000000000000000e+00" cType="1" res="5.4479466052725911e-04" rms="3.3835417032241821e-01" purity="5.5234557390213013e-01" nType="-99"/>
        </Node>
        <Node pos="r" depth="1" NCoef="0" IVar="6" Cut="-1.4224659204483032e+00" cType="1" res="3.5718355793505907e-03" rms="3.6788377165794373e-01" purity="4.1511017084121704e-01" nType="0">
          <Node pos="l" depth="2" NCoef="0" IVar="-1" Cut="0.0000000000000000e+00" cType="1" res="-2.4223123546107672e-05" rms="3.6489731073379517e-01" purity="4.3377465009689331e-01" nType="-99"/>
          <Node pos="r" depth="2" NCoef="0" IVar="-1" Cut="0.0000000000000000e+00" cType="1" res="1.3366337865591049e-02" rms="3.9032194018363953e-01" purity="2.6145449280738831e-01" nType="-99"/>
        </Node>
      </Node>
    </BinaryTree>
    <BinaryTree type="DecisionTree" boostWeight="1.0000000000000000e+00" itree="331">
      <Node pos="s" depth="0" NCoef="0" IVar="9" Cut="3.6931471824645996e+00" cType="1" res="1.0128344001714140e-04" rms="2.2966101765632629e-01" purity="4.9432644248008728e-01" nType="0">
        <Node pos="l" depth="1" NCoef="0" IVar="8" Cut="-3.6717197299003601e-01" cType="1" res="-2.6565622538328171e-03" rms="3.4295269846916199e-01" purity="5.3052246570587158e-01" nType="0">
          <Node pos="l" depth="2" NCoef="0" IVar="-1" Cut="0.0000000000000000e+00" cType="1" res="-2.3926235735416412e-03" rms="3.7550017237663269e-01" purity="5.0986921787261963e-01" nType="-99"/>
          <Node pos="r" depth="2" NCoef="0" IVar="-1" Cut="0.0000000000000000e+00" cType="1" res="3.0255314777605236e-04" rms="3.3391150832176208e-01" purity="5.3587329387664795e-01" nType="-99"/>
        </Node>
        <Node pos="r" depth="1" NCoef="0" IVar="11" Cut="9.0436625480651855e-01" cType="1" res="6.5975711913779378e-04" rms="3.7032479047775269e-01" purity="4.1699206829071045e-01" nType="0">
          <Node pos="l" depth="2" NCoef="0" IVar="-1" Cut="0.0000000000000000e+00" cType="1" res="1.6382716130465269e-03" rms="3.7197846174240112e-01" purity="3.4124621748924255e-01" nType="-99"/>
          <Node pos="r" depth="2" NCoef="0" IVar="-1" Cut="0.0000000000000000e+00" cType="1" res="-9.1477595269680023e-03" rms="3.6043438315391541e-01" purity="8.3294212818145752e-01" nType="-99"/>
        </Node>
      </Node>
    </BinaryTree>
    <BinaryTree type="DecisionTree" boostWeight="1.0000000000000000e+00" itree="332">
      <Node pos="s" depth="0" NCoef="0" IVar="4" Cut="-1.7317873239517212e+00" cType="1" res="2.5055781006813049e-03" rms="3.5201233625411987e-01" purity="5.0314563512802124e-01" nType="0">
        <Node pos="l" depth="1" NCoef="0" IVar="0" Cut="8.4738130569458008e+00" cType="1" res="1.3233659788966179e-02" rms="3.2849243283271790e-01" purity="6.0049372911453247e-01" nType="0">
          <Node pos="l" depth="2" NCoef="0" IVar="-1" Cut="0.0000000000000000e+00" cType="1" res="1.1168159544467926e-02" rms="4.0575566887855530e-01" purity="4.7051689028739929e-01" nType="-99"/>
          <Node pos="r" depth="2" NCoef="0" IVar="-1" Cut="0.0000000000000000e+00" cType="1" res="5.9610384050756693e-04" rms="2.9485881328582764e-01" purity="6.4732396602630615e-01" nType="-99"/>
        </Node>
        <Node pos="r" depth="1" NCoef="0" IVar="3" Cut="2.2433951497077942e-01" cType="1" res="5.0486641703173518e-04" rms="3.5619112849235535e-01" purity="4.8499089479446411e-01" nType="0">
          <Node pos="l" depth="2" NCoef="0" IVar="-1" Cut="0.0000000000000000e+00" cType="1" res="-1.8997523002326488e-03" rms="3.4092664718627930e-01" purity="6.0713136196136475e-01" nType="-99"/>
          <Node pos="r" depth="2" NCoef="0" IVar="-1" Cut="0.0000000000000000e+00" cType="1" res="1.5389061300083995e-03" rms="3.6907261610031128e-01" purity="3.7703177332878113e-01" nType="-99"/>
        </Node>
      </Node>
    </BinaryTree>
    <BinaryTree type="DecisionTree" boostWeight="1.0000000000000000e+00" itree="333">
      <Node pos="s" depth="0" NCoef="0" IVar="1" Cut="7.8653764724731445e+00" cType="1" res="1.8964044284075499e-03" rms="3.5188609361648560e-01" purity="5.0417667627334595e-01" nType="0">
        <Node pos="l" depth="1" NCoef="0" IVar="4" Cut="6.7021560668945312e-01" cType="1" res="2.7800444513559341e-03" rms="3.5209912061691284e-01" purity="5.0126361846923828e-01" nType="0">
          <Node pos="l" depth="2" NCoef="0" IVar="-1" Cut="0.0000000000000000e+00" cType="1" res="1.0327717754989862e-03" rms="3.5145092010498047e-01" purity="5.0680124759674072e-01" nType="-99"/>
          <Node pos="r" depth="2" NCoef="0" IVar="-1" Cut="0.0000000000000000e+00" cType="1" res="-4.4047287665307522e-03" rms="3.6978581547737122e-01" purity="3.4132212400436401e-01" nType="-99"/>
        </Node>
        <Node pos="r" depth="1" NCoef="0" IVar="-1" Cut="0.0000000000000000e+00" cType="1" res="-7.4370000511407852e-03" rms="3.4453582763671875e-01" purity="5.8999770879745483e-01" nType="-99"/>
      </Node>
    </BinaryTree>
    <BinaryTree type="DecisionTree" boostWeight="1.0000000000000000e+00" itree="334">
      <Node pos="s" depth="0" NCoef="0" IVar="13" Cut="2.3807467520236969e-01" cType="1" res="5.2248365245759487e-03" rms="3.5212913155555725e-01" purity="5.0304871797561646e-01" nType="0">
        <Node pos="l" depth="1" NCoef="0" IVar="13" Cut="1.1335234157741070e-02" cType="1" res="8.5531054064631462e-03" rms="3.5015010833740234e-01" purity="3.9816495776176453e-01" nType="0">
          <Node pos="l" depth="2" NCoef="0" IVar="-1" Cut="0.0000000000000000e+00" cType="1" res="-5.4307217942550778e-04" rms="2.0449762046337128e-01" purity="1.5605261921882629e-01" nType="-99"/>
          <Node pos="r" depth="2" NCoef="0" IVar="-1" Cut="0.0000000000000000e+00" cType="1" res="2.9109427705407143e-03" rms="4.1281050443649292e-01" purity="5.4168832302093506e-01" nType="-99"/>
        </Node>
        <Node pos="r" depth="1" NCoef="0" IVar="13" Cut="8.9108300209045410e-01" cType="1" res="-3.7358012050390244e-03" rms="3.5724866390228271e-01" purity="7.8542530536651611e-01" nType="0">
          <Node pos="l" depth="2" NCoef="0" IVar="-1" Cut="0.0000000000000000e+00" cType="1" res="2.5409914087504148e-04" rms="3.5638538002967834e-01" purity="8.1378275156021118e-01" nType="-99"/>
          <Node pos="r" depth="2" NCoef="0" IVar="-1" Cut="0.0000000000000000e+00" cType="1" res="-1.8541228026151657e-02" rms="3.6269301176071167e-01" purity="5.0637996196746826e-01" nType="-99"/>
        </Node>
      </Node>
    </BinaryTree>
    <BinaryTree type="DecisionTree" boostWeight="1.0000000000000000e+00" itree="335">
      <Node pos="s" depth="0" NCoef="0" IVar="5" Cut="7.1609282493591309e+00" cType="1" res="3.4125801175832748e-04" rms="3.5285744071006775e-01" purity="5.0070416927337646e-01" nType="0">
        <Node pos="l" depth="1" NCoef="0" IVar="8" Cut="-5.6259024143218994e-01" cType="1" res="4.4785174541175365e-03" rms="3.5241100192070007e-01" purity="5.2003723382949829e-01" nType="0">
          <Node pos="l" depth="2" NCoef="0" IVar="-1" Cut="0.0000000000000000e+00" cType="1" res="3.2941258978098631e-03" rms="4.0328958630561829e-01" purity="5.4422605037689209e-01" nType="-99"/>
          <Node pos="r" depth="2" NCoef="0" IVar="-1" Cut="0.0000000000000000e+00" cType="1" res="8.0102455103769898e-04" rms="3.4604507684707642e-01" purity="5.1727080345153809e-01" nType="-99"/>
        </Node>
        <Node pos="r" depth="1" NCoef="0" IVar="3" Cut="5.3165847063064575e-01" cType="1" res="-8.7187392637133598e-03" rms="3.5366412997245789e-01" purity="4.5836755633354187e-01" nType="0">
          <Node pos="l" depth="2" NCoef="0" IVar="-1" Cut="0.0000000000000000e+00" cType="1" res="-6.9089434109628201e-03" rms="3.4256979823112488e-01" purity="5.3725594282150269e-01" nType="-99"/>
          <Node pos="r" depth="2" NCoef="0" IVar="-1" Cut="0.0000000000000000e+00" cType="1" res="4.9452972598373890e-04" rms="3.6087560653686523e-01" purity="4.0295621752738953e-01" nType="-99"/>
        </Node>
      </Node>
    </BinaryTree>
    <BinaryTree type="DecisionTree" boostWeight="1.0000000000000000e+00" itree="336">
      <Node pos="s" depth="0" NCoef="0" IVar="9" Cut="3.0000000000000000e+00" cType="1" res="1.2666719267144799e-03" rms="2.2864843904972076e-01" purity="4.9829429388046265e-01" nType="0">
        <Node pos="l" depth="1" NCoef="0" IVar="3" Cut="-7.9664856195449829e-02" cType="1" res="8.7705366313457489e-03" rms="3.1756407022476196e-01" purity="6.3285380601882935e-01" nType="0">
          <Node pos="l" depth="2" NCoef="0" IVar="-1" Cut="0.0000000000000000e+00" cType="1" res="1.0658136568963528e-02" rms="2.5323751568794250e-01" purity="8.0368608236312866e-01" nType="-99"/>
          <Node pos="r" depth="2" NCoef="0" IVar="-1" Cut="0.0000000000000000e+00" cType="1" res="-7.1670825127512217e-04" rms="3.5905027389526367e-01" purity="5.0082296133041382e-01" nType="-99"/>
        </Node>
        <Node pos="r" depth="1" NCoef="0" IVar="5" Cut="8.5811185836791992e+00" cType="1" res="-1.5875042881816626e-03" rms="3.5658985376358032e-01" purity="4.7700357437133789e-01" nType="0">
          <Node pos="l" depth="2" NCoef="0" IVar="-1" Cut="0.0000000000000000e+00" cType="1" res="-8.0058845924213529e-05" rms="3.5460403561592102e-01" purity="4.7973528504371643e-01" nType="-99"/>
          <Node pos="r" depth="2" NCoef="0" IVar="-1" Cut="0.0000000000000000e+00" cType="1" res="-8.1230746582150459e-03" rms="4.0813019871711731e-01" purity="3.9782768487930298e-01" nType="-99"/>
        </Node>
      </Node>
    </BinaryTree>
    <BinaryTree type="DecisionTree" boostWeight="1.0000000000000000e+00" itree="337">
      <Node pos="s" depth="0" NCoef="0" IVar="1" Cut="4.9816446304321289e+00" cType="1" res="-1.0289757046848536e-03" rms="3.5059666633605957e-01" purity="4.9725887179374695e-01" nType="0">
        <Node pos="l" depth="1" NCoef="0" IVar="-1" Cut="0.0000000000000000e+00" cType="1" res="7.4979928322136402e-03" rms="4.2958205938339233e-01" purity="2.7914732694625854e-01" nType="-99"/>
        <Node pos="r" depth="1" NCoef="0" IVar="9" Cut="3.6931471824645996e+00" cType="1" res="-7.5942487455904484e-04" rms="2.2178924083709717e-01" purity="5.0497227907180786e-01" nType="0">
          <Node pos="l" depth="2" NCoef="0" IVar="-1" Cut="0.0000000000000000e+00" cType="1" res="-7.0800492540001869e-04" rms="3.4018617868423462e-01" purity="5.4290735721588135e-01" nType="-99"/>
          <Node pos="r" depth="2" NCoef="0" IVar="-1" Cut="0.0000000000000000e+00" cType="1" res="-6.3239340670406818e-04" rms="3.6245378851890564e-01" purity="4.2337659001350403e-01" nType="-99"/>
        </Node>
      </Node>
    </BinaryTree>
    <BinaryTree type="DecisionTree" boostWeight="1.0000000000000000e+00" itree="338">
      <Node pos="s" depth="0" NCoef="0" IVar="6" Cut="-1.4112992286682129e+00" cType="1" res="-3.8064781110733747e-03" rms="3.5090497136116028e-01" purity="4.9924960732460022e-01" nType="0">
        <Node pos="l" depth="1" NCoef="0" IVar="11" Cut="7.1415370702743530e-01" cType="1" res="-5.6952727027237415e-03" rms="3.4659576416015625e-01" purity="5.2211868762969971e-01" nType="0">
          <Node pos="l" depth="2" NCoef="0" IVar="-1" Cut="0.0000000000000000e+00" cType="1" res="-2.6463926769793034e-03" rms="3.6084029078483582e-01" purity="3.4264770150184631e-01" nType="-99"/>
          <Node pos="r" depth="2" NCoef="0" IVar="-1" Cut="0.0000000000000000e+00" cType="1" res="1.1482917470857501e-03" rms="3.1663772463798523e-01" purity="8.7403762340545654e-01" nType="-99"/>
        </Node>
        <Node pos="r" depth="1" NCoef="0" IVar="12" Cut="5.7112658023834229e-01" cType="1" res="1.1980860494077206e-02" rms="3.8467907905578613e-01" purity="3.0810043215751648e-01" nType="0">
          <Node pos="l" depth="2" NCoef="0" IVar="-1" Cut="0.0000000000000000e+00" cType="1" res="-4.4728508219122887e-03" rms="4.3175876140594482e-01" purity="5.6198942661285400e-01" nType="-99"/>
          <Node pos="r" depth="2" NCoef="0" IVar="-1" Cut="0.0000000000000000e+00" cType="1" res="6.1713550239801407e-03" rms="3.6665138602256775e-01" purity="2.2162941098213196e-01" nType="-99"/>
        </Node>
      </Node>
    </BinaryTree>
    <BinaryTree type="DecisionTree" boostWeight="1.0000000000000000e+00" itree="339">
      <Node pos="s" depth="0" NCoef="0" IVar="3" Cut="-1.3089292049407959e+00" cType="1" res="-5.1801297813653946e-03" rms="3.5102665424346924e-01" purity="4.9536606669425964e-01" nType="0">
        <Node pos="l" depth="1" NCoef="0" IVar="2" Cut="9.3177242279052734e+00" cType="1" res="7.4293860234320164e-03" rms="2.9289868474006653e-01" purity="7.2635781764984131e-01" nType="0">
          <Node pos="l" depth="2" NCoef="0" IVar="-1" Cut="0.0000000000000000e+00" cType="1" res="-1.6672841738909483e-03" rms="3.1379920244216919e-01" purity="6.8184292316436768e-01" nType="-99"/>
          <Node pos="r" depth="2" NCoef="0" IVar="-1" Cut="0.0000000000000000e+00" cType="1" res="2.0278852432966232e-02" rms="2.5262400507926941e-01" purity="8.0112099647521973e-01" nType="-99"/>
        </Node>
        <Node pos="r" depth="1" NCoef="0" IVar="4" Cut="-1.1476839780807495e+00" cType="1" res="-7.1754641830921173e-03" rms="3.5932371020317078e-01" purity="4.5881384611129761e-01" nType="0">
          <Node pos="l" depth="2" NCoef="0" IVar="-1" Cut="0.0000000000000000e+00" cType="1" res="-4.7089997678995132e-03" rms="3.4570300579071045e-01" purity="5.0945830345153809e-01" nType="-99"/>
          <Node pos="r" depth="2" NCoef="0" IVar="-1" Cut="0.0000000000000000e+00" cType="1" res="-1.2025852920487523e-03" rms="3.6384919285774231e-01" purity="4.4139322638511658e-01" nType="-99"/>
        </Node>
      </Node>
    </BinaryTree>
    <BinaryTree type="DecisionTree" boostWeight="1.0000000000000000e+00" itree="340">
      <Node pos="s" depth="0" NCoef="0" IVar="9" Cut="3.6931471824645996e+00" cType="1" res="-3.1522629433311522e-04" rms="2.2966015338897705e-01" purity="5.0211918354034424e-01" nType="0">
        <Node pos="l" depth="1" NCoef="0" IVar="10" Cut="2.0000000000000000e+00" cType="1" res="-5.1716819871217012e-04" rms="2.2716294229030609e-01" purity="5.4337513446807861e-01" nType="0">
          <Node pos="l" depth="2" NCoef="0" IVar="-1" Cut="0.0000000000000000e+00" cType="1" res="2.0685566123574972e-03" rms="3.3409440517425537e-01" purity="5.8539372682571411e-01" nType="-99"/>
          <Node pos="r" depth="2" NCoef="0" IVar="-1" Cut="0.0000000000000000e+00" cType="1" res="-1.4758094912394881e-03" rms="3.4997814893722534e-01" purity="4.7934225201606750e-01" nType="-99"/>
        </Node>
        <Node pos="r" depth="1" NCoef="0" IVar="11" Cut="1.4283148944377899e-01" cType="1" res="-1.7322603380307555e-03" rms="3.7218639254570007e-01" purity="4.1453862190246582e-01" nType="0">
          <Node pos="l" depth="2" NCoef="0" IVar="-1" Cut="0.0000000000000000e+00" cType="1" res="5.5025001056492329e-03" rms="3.2759463787078857e-01" purity="1.5473529696464539e-01" nType="-99"/>
          <Node pos="r" depth="2" NCoef="0" IVar="-1" Cut="0.0000000000000000e+00" cType="1" res="-5.1875379867851734e-03" rms="4.1581207513809204e-01" purity="7.0406162738800049e-01" nType="-99"/>
        </Node>
      </Node>
    </BinaryTree>
    <BinaryTree type="DecisionTree" boostWeight="1.0000000000000000e+00" itree="341">
      <Node pos="s" depth="0" NCoef="0" IVar="7" Cut="-9.5422518253326416e-01" cType="1" res="1.0041117202490568e-03" rms="3.5200598835945129e-01" purity="5.0048315525054932e-01" nType="0">
        <Node pos="l" depth="1" NCoef="0" IVar="1" Cut="6.1362242698669434e+00" cType="1" res="-1.7106534913182259e-02" rms="3.6087054014205933e-01" purity="4.9469980597496033e-01" nType="0">
          <Node pos="l" depth="2" NCoef="0" IVar="-1" Cut="0.0000000000000000e+00" cType="1" res="-1.1655922047793865e-02" rms="3.9004924893379211e-01" purity="3.3125704526901245e-01" nType="-99"/>
          <Node pos="r" depth="2" NCoef="0" IVar="-1" Cut="0.0000000000000000e+00" cType="1" res="6.5583660034462810e-04" rms="3.4015008807182312e-01" purity="5.9579873085021973e-01" nType="-99"/>
        </Node>
        <Node pos="r" depth="1" NCoef="0" IVar="0" Cut="9.5696115493774414e+00" cType="1" res="2.7901690918952227e-03" rms="3.5106903314590454e-01" purity="5.0105351209640503e-01" nType="0">
          <Node pos="l" depth="2" NCoef="0" IVar="-1" Cut="0.0000000000000000e+00" cType="1" res="-3.5181883140467107e-04" rms="3.6247575283050537e-01" purity="4.6265318989753723e-01" nType="-99"/>
          <Node pos="r" depth="2" NCoef="0" IVar="-1" Cut="0.0000000000000000e+00" cType="1" res="3.0108855571597815e-03" rms="3.2627713680267334e-01" purity="5.7981234788894653e-01" nType="-99"/>
        </Node>
      </Node>
    </BinaryTree>
    <BinaryTree type="DecisionTree" boostWeight="1.0000000000000000e+00" itree="342">
      <Node pos="s" depth="0" NCoef="0" IVar="9" Cut="3.6931471824645996e+00" cType="1" res="3.6974129034206271e-04" rms="2.2963307797908783e-01" purity="4.9954405426979065e-01" nType="0">
        <Node pos="l" depth="1" NCoef="0" IVar="9" Cut="2.6931471824645996e+00" cType="1" res="-6.5838656155392528e-04" rms="1.8086683750152588e-01" purity="5.3785109519958496e-01" nType="0">
          <Node pos="l" depth="2" NCoef="0" IVar="-1" Cut="0.0000000000000000e+00" cType="1" res="7.3397173546254635e-03" rms="2.9506450891494751e-01" purity="6.7244333028793335e-01" nType="-99"/>
          <Node pos="r" depth="2" NCoef="0" IVar="-1" Cut="0.0000000000000000e+00" cType="1" res="-5.0493457820266485e-04" rms="3.4607082605361938e-01" purity="5.2778667211532593e-01" nType="-99"/>
        </Node>
        <Node pos="r" depth="1" NCoef="0" IVar="8" Cut="3.1118208169937134e-01" cType="1" res="4.0536047890782356e-03" rms="3.6653777956962585e-01" purity="4.1858172416687012e-01" nType="0">
          <Node pos="l" depth="2" NCoef="0" IVar="-1" Cut="0.0000000000000000e+00" cType="1" res="4.9257476348429918e-04" rms="3.6784297227859497e-01" purity="4.2010533809661865e-01" nType="-99"/>
          <Node pos="r" depth="2" NCoef="0" IVar="-1" Cut="0.0000000000000000e+00" cType="1" res="9.0963151305913925e-03" rms="3.5792672634124756e-01" purity="4.0921214222908020e-01" nType="-99"/>
        </Node>
      </Node>
    </BinaryTree>
    <BinaryTree type="DecisionTree" boostWeight="1.0000000000000000e+00" itree="343">
      <Node pos="s" depth="0" NCoef="0" IVar="7" Cut="-1.2963852882385254e+00" cType="1" res="1.3888777466490865e-03" rms="3.5224917531013489e-01" purity="5.0199073553085327e-01" nType="0">
        <Node pos="l" depth="1" NCoef="0" IVar="-1" Cut="0.0000000000000000e+00" cType="1" res="5.1745162345468998e-03" rms="3.5175147652626038e-01" purity="5.2321630716323853e-01" nType="-99"/>
        <Node pos="r" depth="1" NCoef="0" IVar="8" Cut="-6.6115170717239380e-01" cType="1" res="4.7949736472219229e-04" rms="3.5224834084510803e-01" purity="5.0095218420028687e-01" nType="0">
          <Node pos="l" depth="2" NCoef="0" IVar="-1" Cut="0.0000000000000000e+00" cType="1" res="-1.6126780537888408e-03" rms="4.1309171915054321e-01" purity="5.0573778152465820e-01" nType="-99"/>
          <Node pos="r" depth="2" NCoef="0" IVar="-1" Cut="0.0000000000000000e+00" cType="1" res="5.1314930897206068e-04" rms="3.4768563508987427e-01" purity="5.0062572956085205e-01" nType="-99"/>
        </Node>
      </Node>
    </BinaryTree>
    <BinaryTree type="DecisionTree" boostWeight="1.0000000000000000e+00" itree="344">
      <Node pos="s" depth="0" NCoef="0" IVar="9" Cut="3.0000000000000000e+00" cType="1" res="-4.2812118772417307e-04" rms="2.2858190536499023e-01" purity="4.9768131971359253e-01" nType="0">
        <Node pos="l" depth="1" NCoef="0" IVar="6" Cut="-2.8566725254058838e+00" cType="1" res="1.0405924171209335e-02" rms="3.1360623240470886e-01" purity="6.3703894615173340e-01" nType="0">
          <Node pos="l" depth="2" NCoef="0" IVar="-1" Cut="0.0000000000000000e+00" cType="1" res="8.0336127430200577e-03" rms="2.8420773148536682e-01" purity="7.2063541412353516e-01" nType="-99"/>
          <Node pos="r" depth="2" NCoef="0" IVar="-1" Cut="0.0000000000000000e+00" cType="1" res="-6.1089079827070236e-04" rms="3.3987230062484741e-01" purity="5.5385589599609375e-01" nType="-99"/>
        </Node>
        <Node pos="r" depth="1" NCoef="0" IVar="7" Cut="-5.5238205194473267e-01" cType="1" res="-2.8188733849674463e-03" rms="3.5606625676155090e-01" purity="4.7510689496994019e-01" nType="0">
          <Node pos="l" depth="2" NCoef="0" IVar="-1" Cut="0.0000000000000000e+00" cType="1" res="-4.0723471902310848e-03" rms="3.5551255941390991e-01" purity="4.7728547453880310e-01" nType="-99"/>
          <Node pos="r" depth="2" NCoef="0" IVar="-1" Cut="0.0000000000000000e+00" cType="1" res="-6.7777160438708961e-05" rms="3.5613867640495300e-01" purity="4.7461870312690735e-01" nType="-99"/>
        </Node>
      </Node>
    </BinaryTree>
    <BinaryTree type="DecisionTree" boostWeight="1.0000000000000000e+00" itree="345">
      <Node pos="s" depth="0" NCoef="0" IVar="3" Cut="-1.9223463535308838e+00" cType="1" res="-4.0685432031750679e-03" rms="3.4985712170600891e-01" purity="4.9509871006011963e-01" nType="0">
        <Node pos="l" depth="1" NCoef="0" IVar="13" Cut="4.7514829784631729e-02" cType="1" res="1.2812460772693157e-02" rms="2.9337206482887268e-01" purity="7.5727462768554688e-01" nType="0">
          <Node pos="l" depth="2" NCoef="0" IVar="-1" Cut="0.0000000000000000e+00" cType="1" res="1.3579441234469414e-02" rms="2.9470589756965637e-01" purity="5.6606644392013550e-01" nType="-99"/>
          <Node pos="r" depth="2" NCoef="0" IVar="-1" Cut="0.0000000000000000e+00" cType="1" res="-3.3795699710026383e-04" rms="2.9173868894577026e-01" purity="8.7077188491821289e-01" nType="-99"/>
        </Node>
        <Node pos="r" depth="1" NCoef="0" IVar="7" Cut="1.1918739080429077e+00" cType="1" res="-5.4088579490780830e-03" rms="3.5392135381698608e-01" purity="4.7428250312805176e-01" nType="0">
          <Node pos="l" depth="2" NCoef="0" IVar="-1" Cut="0.0000000000000000e+00" cType="1" res="-1.9467012025415897e-03" rms="3.5504576563835144e-01" purity="4.8687338829040527e-01" nType="-99"/>
          <Node pos="r" depth="2" NCoef="0" IVar="-1" Cut="0.0000000000000000e+00" cType="1" res="3.9662639610469341e-03" rms="3.3627501130104065e-01" purity="2.8797525167465210e-01" nType="-99"/>
        </Node>
      </Node>
    </BinaryTree>
    <BinaryTree type="DecisionTree" boostWeight="1.0000000000000000e+00" itree="346">
      <Node pos="s" depth="0" NCoef="0" IVar="2" Cut="8.9338378906250000e+00" cType="1" res="-3.0150169041007757e-03" rms="3.5095518827438354e-01" purity="4.9894863367080688e-01" nType="0">
        <Node pos="l" depth="1" NCoef="0" IVar="3" Cut="-1.6101022958755493e+00" cType="1" res="-9.8444549366831779e-03" rms="3.6035892367362976e-01" purity="4.7660773992538452e-01" nType="0">
          <Node pos="l" depth="2" NCoef="0" IVar="-1" Cut="0.0000000000000000e+00" cType="1" res="-1.3306310400366783e-02" rms="3.3074200153350830e-01" purity="6.3820058107376099e-01" nType="-99"/>
          <Node pos="r" depth="2" NCoef="0" IVar="-1" Cut="0.0000000000000000e+00" cType="1" res="-1.3881936902180314e-03" rms="3.6289703845977783e-01" purity="4.6104845404624939e-01" nType="-99"/>
        </Node>
        <Node pos="r" depth="1" NCoef="0" IVar="3" Cut="-6.9559693336486816e-01" cType="1" res="1.4631429221481085e-03" rms="3.4457629919052124e-01" purity="5.1359790563583374e-01" nType="0">
          <Node pos="l" depth="2" NCoef="0" IVar="-1" Cut="0.0000000000000000e+00" cType="1" res="6.9465301930904388e-03" rms="2.9760181903839111e-01" purity="7.4374336004257202e-01" nType="-99"/>
          <Node pos="r" depth="2" NCoef="0" IVar="-1" Cut="0.0000000000000000e+00" cType="1" res="-9.2362327268347144e-04" rms="3.5930141806602478e-01" purity="4.3401283025741577e-01" nType="-99"/>
        </Node>
      </Node>
    </BinaryTree>
    <BinaryTree type="DecisionTree" boostWeight="1.0000000000000000e+00" itree="347">
      <Node pos="s" depth="0" NCoef="0" IVar="9" Cut="3.6931471824645996e+00" cType="1" res="1.9200618844479322e-03" rms="2.3243357241153717e-01" purity="4.9978554248809814e-01" nType="0">
        <Node pos="l" depth="1" NCoef="0" IVar="8" Cut="-3.8024994730949402e-01" cType="1" res="-6.2931489082984626e-05" rms="3.4499654173851013e-01" purity="5.3894901275634766e-01" nType="0">
          <Node pos="l" depth="2" NCoef="0" IVar="-1" Cut="0.0000000000000000e+00" cType="1" res="-1.9557680934667587e-03" rms="3.6807036399841309e-01" purity="5.2433377504348755e-01" nType="-99"/>
          <Node pos="r" depth="2" NCoef="0" IVar="-1" Cut="0.0000000000000000e+00" cType="1" res="1.0947030968964100e-03" rms="3.3893936872482300e-01" purity="5.4257935285568237e-01" nType="-99"/>
        </Node>
        <Node pos="r" depth="1" NCoef="0" IVar="2" Cut="9.4072961807250977e+00" cType="1" res="3.1310345511883497e-03" rms="3.6655807495117188e-01" purity="4.1771626472473145e-01" nType="0">
          <Node pos="l" depth="2" NCoef="0" IVar="-1" Cut="0.0000000000000000e+00" cType="1" res="2.5082868523895741e-03" rms="3.6966091394424438e-01" purity="4.1785773634910583e-01" nType="-99"/>
          <Node pos="r" depth="2" NCoef="0" IVar="-1" Cut="0.0000000000000000e+00" cType="1" res="-7.2374558076262474e-03" rms="3.5511401295661926e-01" purity="4.1722130775451660e-01" nType="-99"/>
        </Node>
      </Node>
    </BinaryTree>
    <BinaryTree type="DecisionTree" boostWeight="1.0000000000000000e+00" itree="348">
      <Node pos="s" depth="0" NCoef="0" IVar="9" Cut="3.6931471824645996e+00" cType="1" res="9.0175925288349390e-04" rms="2.3007667064666748e-01" purity="4.9909105896949768e-01" nType="0">
        <Node pos="l" depth="1" NCoef="0" IVar="5" Cut="7.4904289245605469e+00" cType="1" res="-1.9565466791391373e-03" rms="3.4444630146026611e-01" purity="5.3718936443328857e-01" nType="0">
          <Node pos="l" depth="2" NCoef="0" IVar="-1" Cut="0.0000000000000000e+00" cType="1" res="4.8566664918325841e-04" rms="3.4189420938491821e-01" purity="5.5538177490234375e-01" nType="-99"/>
          <Node pos="r" depth="2" NCoef="0" IVar="-1" Cut="0.0000000000000000e+00" cType="1" res="-3.6804780829697847e-03" rms="3.5370811820030212e-01" purity="4.6739119291305542e-01" nType="-99"/>
        </Node>
        <Node pos="r" depth="1" NCoef="0" IVar="12" Cut="3.3320364356040955e-01" cType="1" res="-3.3749267458915710e-05" rms="3.6688753962516785e-01" purity="4.1890645027160645e-01" nType="0">
          <Node pos="l" depth="2" NCoef="0" IVar="-1" Cut="0.0000000000000000e+00" cType="1" res="-4.4012484140694141e-03" rms="3.8244003057479858e-01" purity="7.4916726350784302e-01" nType="-99"/>
          <Node pos="r" depth="2" NCoef="0" IVar="-1" Cut="0.0000000000000000e+00" cType="1" res="2.0741370972245932e-03" rms="3.5881841182708740e-01" purity="2.5552165508270264e-01" nType="-99"/>
        </Node>
      </Node>
    </BinaryTree>
    <BinaryTree type="DecisionTree" boostWeight="1.0000000000000000e+00" itree="349">
      <Node pos="s" depth="0" NCoef="0" IVar="0" Cut="8.0371484756469727e+00" cType="1" res="3.6157383583486080e-03" rms="3.4926629066467285e-01" purity="5.0173038244247437e-01" nType="0">
        <Node pos="l" depth="1" NCoef="0" IVar="8" Cut="-2.9603445529937744e-01" cType="1" res="1.9290521740913391e-02" rms="4.4454953074455261e-01" purity="3.8551932573318481e-01" nType="0">
          <Node pos="l" depth="2" NCoef="0" IVar="-1" Cut="0.0000000000000000e+00" cType="1" res="6.8145734257996082e-03" rms="4.5755952596664429e-01" purity="4.3471205234527588e-01" nType="-99"/>
          <Node pos="r" depth="2" NCoef="0" IVar="-1" Cut="0.0000000000000000e+00" cType="1" res="1.0500987991690636e-03" rms="4.3594065308570862e-01" purity="3.5619968175888062e-01" nType="-99"/>
        </Node>
        <Node pos="r" depth="1" NCoef="0" IVar="6" Cut="-2.2332189083099365e+00" cType="1" res="1.6150209121406078e-03" rms="3.3510786294937134e-01" purity="5.1656347513198853e-01" nType="0">
          <Node pos="l" depth="2" NCoef="0" IVar="-1" Cut="0.0000000000000000e+00" cType="1" res="1.8087689531967044e-03" rms="3.2515877485275269e-01" purity="5.7401949167251587e-01" nType="-99"/>
          <Node pos="r" depth="2" NCoef="0" IVar="-1" Cut="0.0000000000000000e+00" cType="1" res="-2.4072742089629173e-03" rms="3.5996717214584351e-01" purity="3.6416223645210266e-01" nType="-99"/>
        </Node>
      </Node>
    </BinaryTree>
    <BinaryTree type="DecisionTree" boostWeight="1.0000000000000000e+00" itree="350">
      <Node pos="s" depth="0" NCoef="0" IVar="3" Cut="-8.2165896892547607e-02" cType="1" res="2.0509914029389620e-03" rms="3.5064134001731873e-01" purity="4.9969708919525146e-01" nType="0">
        <Node pos="l" depth="1" NCoef="0" IVar="9" Cut="3.6931471824645996e+00" cType="1" res="-2.5172492023557425e-03" rms="2.1540695428848267e-01" purity="6.6068923473358154e-01" nType="0">
          <Node pos="l" depth="2" NCoef="0" IVar="-1" Cut="0.0000000000000000e+00" cType="1" res="-1.8220943165943027e-03" rms="3.0791920423507690e-01" purity="6.9652003049850464e-01" nType="-99"/>
          <Node pos="r" depth="2" NCoef="0" IVar="-1" Cut="0.0000000000000000e+00" cType="1" res="-9.1684999642893672e-04" rms="3.5405823588371277e-01" purity="5.7464736700057983e-01" nType="-99"/>
        </Node>
        <Node pos="r" depth="1" NCoef="0" IVar="1" Cut="7.5454597473144531e+00" cType="1" res="6.0245445929467678e-03" rms="3.6737149953842163e-01" purity="3.9838320016860962e-01" nType="0">
          <Node pos="l" depth="2" NCoef="0" IVar="-1" Cut="0.0000000000000000e+00" cType="1" res="2.4190261028707027e-03" rms="3.6613121628761292e-01" purity="3.9615735411643982e-01" nType="-99"/>
          <Node pos="r" depth="2" NCoef="0" IVar="-1" Cut="0.0000000000000000e+00" cType="1" res="-9.2959972098469734e-03" rms="3.8149344921112061e-01" purity="4.2957261204719543e-01" nType="-99"/>
        </Node>
      </Node>
    </BinaryTree>
    <BinaryTree type="DecisionTree" boostWeight="1.0000000000000000e+00" itree="351">
      <Node pos="s" depth="0" NCoef="0" IVar="9" Cut="3.6931471824645996e+00" cType="1" res="-1.8374157662037760e-05" rms="2.2939410805702209e-01" purity="5.0633734464645386e-01" nType="0">
        <Node pos="l" depth="1" NCoef="0" IVar="3" Cut="8.3801954984664917e-01" cType="1" res="1.8844018923118711e-03" rms="3.4150141477584839e-01" purity="5.4463130235671997e-01" nType="0">
          <Node pos="l" depth="2" NCoef="0" IVar="-1" Cut="0.0000000000000000e+00" cType="1" res="1.3694569934159517e-03" rms="3.3461132645606995e-01" purity="5.9720766544342041e-01" nType="-99"/>
          <Node pos="r" depth="2" NCoef="0" IVar="-1" Cut="0.0000000000000000e+00" cType="1" res="-1.7342705978080630e-03" rms="3.6373615264892578e-01" purity="3.6617588996887207e-01" nType="-99"/>
        </Node>
        <Node pos="r" depth="1" NCoef="0" IVar="3" Cut="-8.2425512373447418e-02" cType="1" res="8.2509750500321388e-03" rms="3.6722135543823242e-01" purity="4.2424863576889038e-01" nType="0">
          <Node pos="l" depth="2" NCoef="0" IVar="-1" Cut="0.0000000000000000e+00" cType="1" res="-2.1852245554327965e-03" rms="3.5142520070075989e-01" purity="5.7164955139160156e-01" nType="-99"/>
          <Node pos="r" depth="2" NCoef="0" IVar="-1" Cut="0.0000000000000000e+00" cType="1" res="5.7022944092750549e-03" rms="3.7556973099708557e-01" purity="3.4179440140724182e-01" nType="-99"/>
        </Node>
      </Node>
    </BinaryTree>
    <BinaryTree type="DecisionTree" boostWeight="1.0000000000000000e+00" itree="352">
      <Node pos="s" depth="0" NCoef="0" IVar="10" Cut="4.0000000000000000e+00" cType="1" res="-2.8812387026846409e-03" rms="2.6935023069381714e-01" purity="5.0062769651412964e-01" nType="0">
        <Node pos="l" depth="1" NCoef="0" IVar="0" Cut="9.7879352569580078e+00" cType="1" res="2.3033493198454380e-04" rms="3.5105934739112854e-01" purity="5.0588226318359375e-01" nType="0">
          <Node pos="l" depth="2" NCoef="0" IVar="-1" Cut="0.0000000000000000e+00" cType="1" res="-8.9701567776501179e-04" rms="3.5685005784034729e-01" purity="4.7721770405769348e-01" nType="-99"/>
          <Node pos="r" depth="2" NCoef="0" IVar="-1" Cut="0.0000000000000000e+00" cType="1" res="2.5928597897291183e-03" rms="3.3296251296997070e-01" purity="5.9158295392990112e-01" nType="-99"/>
        </Node>
        <Node pos="r" depth="1" NCoef="0" IVar="-1" Cut="0.0000000000000000e+00" cType="1" res="-1.2916111387312412e-02" rms="3.5736033320426941e-01" purity="3.4437510371208191e-01" nType="-99"/>
      </Node>
    </BinaryTree>
    <BinaryTree type="DecisionTree" boostWeight="1.0000000000000000e+00" itree="353">
      <Node pos="s" depth="0" NCoef="0" IVar="5" Cut="6.3111414909362793e+00" cType="1" res="-2.4050457868725061e-03" rms="3.4906226396560669e-01" purity="4.9670144915580750e-01" nType="0">
        <Node pos="l" depth="1" NCoef="0" IVar="4" Cut="-2.1471836566925049e+00" cType="1" res="6.6628227941691875e-03" rms="3.6009046435356140e-01" purity="5.3877800703048706e-01" nType="0">
          <Node pos="l" depth="2" NCoef="0" IVar="-1" Cut="0.0000000000000000e+00" cType="1" res="1.0375460609793663e-02" rms="3.2271745800971985e-01" purity="6.7299073934555054e-01" nType="-99"/>
          <Node pos="r" depth="2" NCoef="0" IVar="-1" Cut="0.0000000000000000e+00" cType="1" res="7.1668910095468163e-04" rms="3.6682251095771790e-01" purity="5.1249539852142334e-01" nType="-99"/>
        </Node>
        <Node pos="r" depth="1" NCoef="0" IVar="0" Cut="8.2547416687011719e+00" cType="1" res="-7.0905438624322414e-03" rms="3.4313109517097473e-01" purity="4.7495990991592407e-01" nType="0">
          <Node pos="l" depth="2" NCoef="0" IVar="-1" Cut="0.0000000000000000e+00" cType="1" res="-9.3051381409168243e-03" rms="4.0230360627174377e-01" purity="3.3174613118171692e-01" nType="-99"/>
          <Node pos="r" depth="2" NCoef="0" IVar="-1" Cut="0.0000000000000000e+00" cType="1" res="-1.2374473735690117e-03" rms="3.3693420886993408e-01" purity="4.8828727006912231e-01" nType="-99"/>
        </Node>
      </Node>
    </BinaryTree>
    <BinaryTree type="DecisionTree" boostWeight="1.0000000000000000e+00" itree="354">
      <Node pos="s" depth="0" NCoef="0" IVar="0" Cut="7.8199801445007324e+00" cType="1" res="1.1318769538775086e-03" rms="3.4948557615280151e-01" purity="5.0069564580917358e-01" nType="0">
        <Node pos="l" depth="1" NCoef="0" IVar="-1" Cut="0.0000000000000000e+00" cType="1" res="-3.8656359538435936e-03" rms="4.4406783580780029e-01" purity="3.1492650508880615e-01" nType="-99"/>
        <Node pos="r" depth="1" NCoef="0" IVar="2" Cut="8.4704437255859375e+00" cType="1" res="2.2928896360099316e-03" rms="3.4368827939033508e-01" purity="5.1057571172714233e-01" nType="0">
          <Node pos="l" depth="2" NCoef="0" IVar="-1" Cut="0.0000000000000000e+00" cType="1" res="-2.2382102906703949e-03" rms="3.5741883516311646e-01" purity="4.6347492933273315e-01" nType="-99"/>
          <Node pos="r" depth="2" NCoef="0" IVar="-1" Cut="0.0000000000000000e+00" cType="1" res="1.4232905814424157e-03" rms="3.4157845377922058e-01" purity="5.1750022172927856e-01" nType="-99"/>
        </Node>
      </Node>
    </BinaryTree>
    <BinaryTree type="DecisionTree" boostWeight="1.0000000000000000e+00" itree="355">
      <Node pos="s" depth="0" NCoef="0" IVar="5" Cut="8.6408576965332031e+00" cType="1" res="-1.6773307288531214e-04" rms="3.4917625784873962e-01" purity="4.9568709731101990e-01" nType="0">
        <Node pos="l" depth="1" NCoef="0" IVar="9" Cut="3.0000000000000000e+00" cType="1" res="5.0766440108418465e-04" rms="2.2707247734069824e-01" purity="4.9784827232360840e-01" nType="0">
          <Node pos="l" depth="2" NCoef="0" IVar="-1" Cut="0.0000000000000000e+00" cType="1" res="1.9934666343033314e-03" rms="3.1587779521942139e-01" purity="6.3818067312240601e-01" nType="-99"/>
          <Node pos="r" depth="2" NCoef="0" IVar="-1" Cut="0.0000000000000000e+00" cType="1" res="-5.7612778618931770e-05" rms="3.5167863965034485e-01" purity="4.7495517134666443e-01" nType="-99"/>
        </Node>
        <Node pos="r" depth="1" NCoef="0" IVar="-1" Cut="0.0000000000000000e+00" cType="1" res="-7.4095050804316998e-03" rms="4.2097237706184387e-01" purity="4.1914698481559753e-01" nType="-99"/>
      </Node>
    </BinaryTree>
    <BinaryTree type="DecisionTree" boostWeight="1.0000000000000000e+00" itree="356">
      <Node pos="s" depth="0" NCoef="0" IVar="5" Cut="7.6154279708862305e+00" cType="1" res="-1.9447722006589174e-03" rms="3.5054165124893188e-01" purity="4.9442130327224731e-01" nType="0">
        <Node pos="l" depth="1" NCoef="0" IVar="1" Cut="7.4014382362365723e+00" cType="1" res="-8.7865380919538438e-05" rms="3.4810018539428711e-01" purity="5.0467997789382935e-01" nType="0">
          <Node pos="l" depth="2" NCoef="0" IVar="-1" Cut="0.0000000000000000e+00" cType="1" res="-5.3180532995611429e-04" rms="3.5340726375579834e-01" purity="4.8713997006416321e-01" nType="-99"/>
          <Node pos="r" depth="2" NCoef="0" IVar="-1" Cut="0.0000000000000000e+00" cType="1" res="1.6779253259301186e-02" rms="2.1699781715869904e-01" purity="8.4846693277359009e-01" nType="-99"/>
        </Node>
        <Node pos="r" depth="1" NCoef="0" IVar="3" Cut="5.3172051906585693e-01" cType="1" res="-1.0700116865336895e-02" rms="3.6170282959938049e-01" purity="4.4605156779289246e-01" nType="0">
          <Node pos="l" depth="2" NCoef="0" IVar="-1" Cut="0.0000000000000000e+00" cType="1" res="-9.5495479181408882e-03" rms="3.6332234740257263e-01" purity="4.9304896593093872e-01" nType="-99"/>
          <Node pos="r" depth="2" NCoef="0" IVar="-1" Cut="0.0000000000000000e+00" cType="1" res="1.0481678182259202e-03" rms="3.5991290211677551e-01" purity="4.1841867566108704e-01" nType="-99"/>
        </Node>
      </Node>
    </BinaryTree>
    <BinaryTree type="DecisionTree" boostWeight="1.0000000000000000e+00" itree="357">
      <Node pos="s" depth="0" NCoef="0" IVar="9" Cut="4.0000000000000000e+00" cType="1" res="-2.7218271861784160e-04" rms="2.2863638401031494e-01" purity="4.9856156110763550e-01" nType="0">
        <Node pos="l" depth="1" NCoef="0" IVar="6" Cut="-3.8078815937042236e+00" cType="1" res="6.2097568297758698e-04" rms="3.4769517183303833e-01" purity="5.1122498512268066e-01" nType="0">
          <Node pos="l" depth="2" NCoef="0" IVar="-1" Cut="0.0000000000000000e+00" cType="1" res="3.8725032936781645e-03" rms="3.1900185346603394e-01" purity="6.2623596191406250e-01" nType="-99"/>
          <Node pos="r" depth="2" NCoef="0" IVar="-1" Cut="0.0000000000000000e+00" cType="1" res="-3.9723337977193296e-04" rms="3.5265731811523438e-01" purity="4.9016845226287842e-01" nType="-99"/>
        </Node>
        <Node pos="r" depth="1" NCoef="0" IVar="11" Cut="3.3318728208541870e-01" cType="1" res="-1.2341893278062344e-02" rms="3.7500604987144470e-01" purity="3.6794859170913696e-01" nType="0">
          <Node pos="l" depth="2" NCoef="0" IVar="-1" Cut="0.0000000000000000e+00" cType="1" res="-2.5961818173527718e-03" rms="3.4922268986701965e-01" purity="2.0019693672657013e-01" nType="-99"/>
          <Node pos="r" depth="2" NCoef="0" IVar="-1" Cut="0.0000000000000000e+00" cType="1" res="-1.4924842864274979e-02" rms="4.2293453216552734e-01" purity="7.1533304452896118e-01" nType="-99"/>
        </Node>
      </Node>
    </BinaryTree>
    <BinaryTree type="DecisionTree" boostWeight="1.0000000000000000e+00" itree="358">
      <Node pos="s" depth="0" NCoef="0" IVar="9" Cut="3.6931471824645996e+00" cType="1" res="-2.6085721328854561e-03" rms="2.2759763896465302e-01" purity="4.9758538603782654e-01" nType="0">
        <Node pos="l" depth="1" NCoef="0" IVar="1" Cut="5.9529495239257812e+00" cType="1" res="-2.2077239118516445e-03" rms="3.4179976582527161e-01" purity="5.3639519214630127e-01" nType="0">
          <Node pos="l" depth="2" NCoef="0" IVar="-1" Cut="0.0000000000000000e+00" cType="1" res="-3.9256396703422070e-03" rms="3.9392989873886108e-01" purity="3.6554414033889771e-01" nType="-99"/>
          <Node pos="r" depth="2" NCoef="0" IVar="-1" Cut="0.0000000000000000e+00" cType="1" res="1.1439351364970207e-03" rms="3.1934472918510437e-01" purity="6.0192507505416870e-01" nType="-99"/>
        </Node>
        <Node pos="r" depth="1" NCoef="0" IVar="4" Cut="-2.0172827243804932e+00" cType="1" res="-5.2044901531189680e-04" rms="3.6619308590888977e-01" purity="4.1418024897575378e-01" nType="0">
          <Node pos="l" depth="2" NCoef="0" IVar="-1" Cut="0.0000000000000000e+00" cType="1" res="-1.0387890040874481e-02" rms="3.4215420484542847e-01" purity="4.7670814394950867e-01" nType="-99"/>
          <Node pos="r" depth="2" NCoef="0" IVar="-1" Cut="0.0000000000000000e+00" cType="1" res="9.7529153572395444e-04" rms="3.6922016739845276e-01" purity="4.0571606159210205e-01" nType="-99"/>
        </Node>
      </Node>
    </BinaryTree>
    <BinaryTree type="DecisionTree" boostWeight="1.0000000000000000e+00" itree="359">
      <Node pos="s" depth="0" NCoef="0" IVar="11" Cut="9.0452319383621216e-01" cType="1" res="-3.4157834015786648e-03" rms="3.5051733255386353e-01" purity="4.9703645706176758e-01" nType="0">
        <Node pos="l" depth="1" NCoef="0" IVar="3" Cut="-1.6156731843948364e+00" cType="1" res="-5.8629964478313923e-03" rms="3.6375394463539124e-01" purity="3.9211595058441162e-01" nType="0">
          <Node pos="l" depth="2" NCoef="0" IVar="-1" Cut="0.0000000000000000e+00" cType="1" res="-7.9710111021995544e-03" rms="3.3999854326248169e-01" purity="5.7576560974121094e-01" nType="-99"/>
          <Node pos="r" depth="2" NCoef="0" IVar="-1" Cut="0.0000000000000000e+00" cType="1" res="-1.0559689253568649e-03" rms="3.6583676934242249e-01" purity="3.7495318055152893e-01" nType="-99"/>
        </Node>
        <Node pos="r" depth="1" NCoef="0" IVar="4" Cut="-1.0509107112884521e+00" cType="1" res="5.8051492087543011e-03" rms="2.9517918825149536e-01" purity="8.9236968755722046e-01" nType="0">
          <Node pos="l" depth="2" NCoef="0" IVar="-1" Cut="0.0000000000000000e+00" cType="1" res="-2.2139404900372028e-03" rms="2.5958129763603210e-01" purity="9.1458779573440552e-01" nType="-99"/>
          <Node pos="r" depth="2" NCoef="0" IVar="-1" Cut="0.0000000000000000e+00" cType="1" res="4.4058989733457565e-03" rms="3.1515634059906006e-01" purity="8.7855124473571777e-01" nType="-99"/>
        </Node>
      </Node>
    </BinaryTree>
    <BinaryTree type="DecisionTree" boostWeight="1.0000000000000000e+00" itree="360">
      <Node pos="s" depth="0" NCoef="0" IVar="7" Cut="-9.1442573070526123e-01" cType="1" res="1.5515100676566362e-03" rms="3.5056358575820923e-01" purity="5.0027751922607422e-01" nType="0">
        <Node pos="l" depth="1" NCoef="0" IVar="3" Cut="-6.7640647292137146e-02" cType="1" res="1.8978295847773552e-02" rms="3.4727123379707336e-01" purity="5.2118062973022461e-01" nType="0">
          <Node pos="l" depth="2" NCoef="0" IVar="-1" Cut="0.0000000000000000e+00" cType="1" res="-1.1483439011499286e-03" rms="3.2953149080276489e-01" purity="6.5081012248992920e-01" nType="-99"/>
          <Node pos="r" depth="2" NCoef="0" IVar="-1" Cut="0.0000000000000000e+00" cType="1" res="8.6442111060023308e-03" rms="3.5765358805656433e-01" purity="4.3637683987617493e-01" nType="-99"/>
        </Node>
        <Node pos="r" depth="1" NCoef="0" IVar="7" Cut="4.4266781210899353e-01" cType="1" res="-3.0464548035524786e-04" rms="3.5086145997047424e-01" purity="4.9805110692977905e-01" nType="0">
          <Node pos="l" depth="2" NCoef="0" IVar="-1" Cut="0.0000000000000000e+00" cType="1" res="8.0946693196892738e-04" rms="3.5134568810462952e-01" purity="5.2234834432601929e-01" nType="-99"/>
          <Node pos="r" depth="2" NCoef="0" IVar="-1" Cut="0.0000000000000000e+00" cType="1" res="-1.9862314220517874e-03" rms="3.4979695081710815e-01" purity="4.4887197017669678e-01" nType="-99"/>
        </Node>
      </Node>
    </BinaryTree>
    <BinaryTree type="DecisionTree" boostWeight="1.0000000000000000e+00" itree="361">
      <Node pos="s" depth="0" NCoef="0" IVar="6" Cut="-1.0696411132812500e+00" cType="1" res="6.8282423308119178e-04" rms="3.5073304176330566e-01" purity="5.0002676248550415e-01" nType="0">
        <Node pos="l" depth="1" NCoef="0" IVar="9" Cut="3.6931471824645996e+00" cType="1" res="6.3426111591979861e-04" rms="2.2613663971424103e-01" purity="5.1539671421051025e-01" nType="0">
          <Node pos="l" depth="2" NCoef="0" IVar="-1" Cut="0.0000000000000000e+00" cType="1" res="-2.2156554041430354e-04" rms="3.4019336104393005e-01" purity="5.5736947059631348e-01" nType="-99"/>
          <Node pos="r" depth="2" NCoef="0" IVar="-1" Cut="0.0000000000000000e+00" cType="1" res="-1.5362726117018610e-04" rms="3.6459940671920776e-01" purity="4.2624416947364807e-01" nType="-99"/>
        </Node>
        <Node pos="r" depth="1" NCoef="0" IVar="2" Cut="9.1472921371459961e+00" cType="1" res="2.0513361319899559e-02" rms="3.8544228672981262e-01" purity="2.7526393532752991e-01" nType="0">
          <Node pos="l" depth="2" NCoef="0" IVar="-1" Cut="0.0000000000000000e+00" cType="1" res="1.5215771272778511e-03" rms="3.8103216886520386e-01" purity="2.6340559124946594e-01" nType="-99"/>
          <Node pos="r" depth="2" NCoef="0" IVar="-1" Cut="0.0000000000000000e+00" cType="1" res="1.4630781486630440e-02" rms="3.9047124981880188e-01" purity="2.9103758931159973e-01" nType="-99"/>
        </Node>
      </Node>
    </BinaryTree>
    <BinaryTree type="DecisionTree" boostWeight="1.0000000000000000e+00" itree="362">
      <Node pos="s" depth="0" NCoef="0" IVar="7" Cut="-5.1783001422882080e-01" cType="1" res="2.2240818943828344e-03" rms="3.5117259621620178e-01" purity="5.0522881746292114e-01" nType="0">
        <Node pos="l" depth="1" NCoef="0" IVar="13" Cut="6.1899465322494507e-01" cType="1" res="1.0912753641605377e-02" rms="3.5399305820465088e-01" purity="5.3464585542678833e-01" nType="0">
          <Node pos="l" depth="2" NCoef="0" IVar="-1" Cut="0.0000000000000000e+00" cType="1" res="3.9072805084288120e-03" rms="3.5593137145042419e-01" purity="4.8722076416015625e-01" nType="-99"/>
          <Node pos="r" depth="2" NCoef="0" IVar="-1" Cut="0.0000000000000000e+00" cType="1" res="-3.5838277544826269e-03" rms="3.4280580282211304e-01" purity="7.8679955005645752e-01" nType="-99"/>
        </Node>
        <Node pos="r" depth="1" NCoef="0" IVar="0" Cut="1.0885178565979004e+01" cType="1" res="1.1048188025597483e-04" rms="3.5045048594474792e-01" purity="4.9807286262512207e-01" nType="0">
          <Node pos="l" depth="2" NCoef="0" IVar="-1" Cut="0.0000000000000000e+00" cType="1" res="-3.7047752994112670e-04" rms="3.4841305017471313e-01" purity="4.9412843585014343e-01" nType="-99"/>
          <Node pos="r" depth="2" NCoef="0" IVar="-1" Cut="0.0000000000000000e+00" cType="1" res="5.9026731178164482e-03" rms="3.9539867639541626e-01" purity="5.9387010335922241e-01" nType="-99"/>
        </Node>
      </Node>
    </BinaryTree>
    <BinaryTree type="DecisionTree" boostWeight="1.0000000000000000e+00" itree="363">
      <Node pos="s" depth="0" NCoef="0" IVar="8" Cut="-5.3513187170028687e-01" cType="1" res="-1.1414010077714920e-03" rms="3.5245180130004883e-01" purity="4.9713379144668579e-01" nType="0">
        <Node pos="l" depth="1" NCoef="0" IVar="10" Cut="2.0000000000000000e+00" cType="1" res="-1.4586975798010826e-02" rms="3.0329608917236328e-01" purity="5.0449442863464355e-01" nType="0">
          <Node pos="l" depth="2" NCoef="0" IVar="-1" Cut="0.0000000000000000e+00" cType="1" res="-2.9249969520606101e-04" rms="3.7481424212455750e-01" purity="5.6830018758773804e-01" nType="-99"/>
          <Node pos="r" depth="2" NCoef="0" IVar="-1" Cut="0.0000000000000000e+00" cType="1" res="-4.6815299428999424e-03" rms="4.1956871747970581e-01" purity="4.2883020639419556e-01" nType="-99"/>
        </Node>
        <Node pos="r" depth="1" NCoef="0" IVar="1" Cut="5.4285120964050293e+00" cType="1" res="9.0197572717443109e-04" rms="3.4685310721397400e-01" purity="4.9626502394676208e-01" nType="0">
          <Node pos="l" depth="2" NCoef="0" IVar="-1" Cut="0.0000000000000000e+00" cType="1" res="-3.2233132515102625e-03" rms="3.9243632555007935e-01" purity="2.7179852128028870e-01" nType="-99"/>
          <Node pos="r" depth="2" NCoef="0" IVar="-1" Cut="0.0000000000000000e+00" cType="1" res="9.1014918871223927e-04" rms="3.4100684523582458e-01" purity="5.2289992570877075e-01" nType="-99"/>
        </Node>
      </Node>
    </BinaryTree>
    <BinaryTree type="DecisionTree" boostWeight="1.0000000000000000e+00" itree="364">
      <Node pos="s" depth="0" NCoef="0" IVar="4" Cut="6.8361103534698486e-01" cType="1" res="-1.1853095202241093e-04" rms="3.4897246956825256e-01" purity="4.9705725908279419e-01" nType="0">
        <Node pos="l" depth="1" NCoef="0" IVar="7" Cut="-2.6452189683914185e-01" cType="1" res="9.2216476332396269e-04" rms="3.4823372960090637e-01" purity="5.0314420461654663e-01" nType="0">
          <Node pos="l" depth="2" NCoef="0" IVar="-1" Cut="0.0000000000000000e+00" cType="1" res="-1.5338489320129156e-03" rms="3.5119685530662537e-01" purity="5.1285201311111450e-01" nType="-99"/>
          <Node pos="r" depth="2" NCoef="0" IVar="-1" Cut="0.0000000000000000e+00" cType="1" res="1.1238874867558479e-03" rms="3.4690770506858826e-01" purity="4.9894317984580994e-01" nType="-99"/>
        </Node>
        <Node pos="r" depth="1" NCoef="0" IVar="-1" Cut="0.0000000000000000e+00" cType="1" res="-8.6396662518382072e-03" rms="3.7000948190689087e-01" purity="3.0518537759780884e-01" nType="-99"/>
      </Node>
    </BinaryTree>
    <BinaryTree type="DecisionTree" boostWeight="1.0000000000000000e+00" itree="365">
      <Node pos="s" depth="0" NCoef="0" IVar="9" Cut="3.6931471824645996e+00" cType="1" res="6.0716044390574098e-04" rms="2.2932289540767670e-01" purity="4.9861532449722290e-01" nType="0">
        <Node pos="l" depth="1" NCoef="0" IVar="2" Cut="8.9995059967041016e+00" cType="1" res="-6.2282732687890530e-03" rms="3.4556239843368530e-01" purity="5.3577971458435059e-01" nType="0">
          <Node pos="l" depth="2" NCoef="0" IVar="-1" Cut="0.0000000000000000e+00" cType="1" res="-3.0937613919377327e-03" rms="3.5231360793113708e-01" purity="5.0650143623352051e-01" nType="-99"/>
          <Node pos="r" depth="2" NCoef="0" IVar="-1" Cut="0.0000000000000000e+00" cType="1" res="3.1108941766433418e-04" rms="3.4014365077018738e-01" purity="5.5814301967620850e-01" nType="-99"/>
        </Node>
        <Node pos="r" depth="1" NCoef="0" IVar="0" Cut="8.6947078704833984e+00" cType="1" res="6.2282923609018326e-03" rms="3.6719718575477600e-01" purity="4.1910552978515625e-01" nType="0">
          <Node pos="l" depth="2" NCoef="0" IVar="-1" Cut="0.0000000000000000e+00" cType="1" res="6.7216651514172554e-03" rms="3.9539977908134460e-01" purity="3.4761047363281250e-01" nType="-99"/>
          <Node pos="r" depth="2" NCoef="0" IVar="-1" Cut="0.0000000000000000e+00" cType="1" res="-1.4897153596393764e-04" rms="3.5120838880538940e-01" purity="4.5687142014503479e-01" nType="-99"/>
        </Node>
      </Node>
    </BinaryTree>
    <BinaryTree type="DecisionTree" boostWeight="1.0000000000000000e+00" itree="366">
      <Node pos="s" depth="0" NCoef="0" IVar="0" Cut="1.0878198623657227e+01" cType="1" res="2.2068324033170938e-03" rms="3.5074910521507263e-01" purity="5.0331443548202515e-01" nType="0">
        <Node pos="l" depth="1" NCoef="0" IVar="1" Cut="5.2329692840576172e+00" cType="1" res="9.4422959955409169e-04" rms="3.4848910570144653e-01" purity="4.9969288706779480e-01" nType="0">
          <Node pos="l" depth="2" NCoef="0" IVar="-1" Cut="0.0000000000000000e+00" cType="1" res="3.9768181741237640e-03" rms="4.2825782299041748e-01" purity="2.9277896881103516e-01" nType="-99"/>
          <Node pos="r" depth="2" NCoef="0" IVar="-1" Cut="0.0000000000000000e+00" cType="1" res="-1.0694042430259287e-04" rms="3.4171003103256226e-01" purity="5.1523929834365845e-01" nType="-99"/>
        </Node>
        <Node pos="r" depth="1" NCoef="0" IVar="-1" Cut="0.0000000000000000e+00" cType="1" res="5.8917128480970860e-03" rms="4.0045297145843506e-01" purity="5.9111821651458740e-01" nType="-99"/>
      </Node>
    </BinaryTree>
    <BinaryTree type="DecisionTree" boostWeight="1.0000000000000000e+00" itree="367">
      <Node pos="s" depth="0" NCoef="0" IVar="0" Cut="1.0885243415832520e+01" cType="1" res="4.0012206882238388e-03" rms="3.4956023097038269e-01" purity="5.0525075197219849e-01" nType="0">
        <Node pos="l" depth="1" NCoef="0" IVar="8" Cut="-6.6265237331390381e-01" cType="1" res="3.0073202215135098e-03" rms="3.4725743532180786e-01" purity="5.0144851207733154e-01" nType="0">
          <Node pos="l" depth="2" NCoef="0" IVar="-1" Cut="0.0000000000000000e+00" cType="1" res="1.9923171494156122e-03" rms="4.0299600362777710e-01" purity="5.5615490674972534e-01" nType="-99"/>
          <Node pos="r" depth="2" NCoef="0" IVar="-1" Cut="0.0000000000000000e+00" cType="1" res="6.9074676139280200e-04" rms="3.4313970804214478e-01" purity="4.9775105714797974e-01" nType="-99"/>
        </Node>
        <Node pos="r" depth="1" NCoef="0" IVar="-1" Cut="0.0000000000000000e+00" cType="1" res="5.8234338648617268e-03" rms="4.0440821647644043e-01" purity="6.0491007566452026e-01" nType="-99"/>
      </Node>
    </BinaryTree>
    <BinaryTree type="DecisionTree" boostWeight="1.0000000000000000e+00" itree="368">
      <Node pos="s" depth="0" NCoef="0" IVar="9" Cut="3.0000000000000000e+00" cType="1" res="9.6008030232042074e-04" rms="2.2735998034477234e-01" purity="5.0123608112335205e-01" nType="0">
        <Node pos="l" depth="1" NCoef="0" IVar="6" Cut="-2.0610120296478271e+00" cType="1" res="6.2472857534885406e-03" rms="3.1742641329765320e-01" purity="6.3793557882308960e-01" nType="0">
          <Node pos="l" depth="2" NCoef="0" IVar="-1" Cut="0.0000000000000000e+00" cType="1" res="4.0938979946076870e-03" rms="2.9777663946151733e-01" purity="6.9244343042373657e-01" nType="-99"/>
          <Node pos="r" depth="2" NCoef="0" IVar="-1" Cut="0.0000000000000000e+00" cType="1" res="-3.7729272153228521e-03" rms="3.7443646788597107e-01" purity="4.5695114135742188e-01" nType="-99"/>
        </Node>
        <Node pos="r" depth="1" NCoef="0" IVar="3" Cut="2.2435238957405090e-01" cType="1" res="-1.5944408951327205e-03" rms="3.5574015974998474e-01" purity="4.7904795408248901e-01" nType="0">
          <Node pos="l" depth="2" NCoef="0" IVar="-1" Cut="0.0000000000000000e+00" cType="1" res="-2.1103874314576387e-03" rms="3.3920258283615112e-01" purity="6.0448974370956421e-01" nType="-99"/>
          <Node pos="r" depth="2" NCoef="0" IVar="-1" Cut="0.0000000000000000e+00" cType="1" res="6.4324890263378620e-04" rms="3.7027707695960999e-01" purity="3.6347788572311401e-01" nType="-99"/>
        </Node>
      </Node>
    </BinaryTree>
    <BinaryTree type="DecisionTree" boostWeight="1.0000000000000000e+00" itree="369">
      <Node pos="s" depth="0" NCoef="0" IVar="5" Cut="5.3844027519226074e+00" cType="1" res="4.5974208042025566e-03" rms="3.5077577829360962e-01" purity="5.0404489040374756e-01" nType="0">
        <Node pos="l" depth="1" NCoef="0" IVar="12" Cut="6.6633862257003784e-01" cType="1" res="2.9673378914594650e-02" rms="3.7778639793395996e-01" purity="5.8131033182144165e-01" nType="0">
          <Node pos="l" depth="2" NCoef="0" IVar="-1" Cut="0.0000000000000000e+00" cType="1" res="2.4914601817727089e-04" rms="2.9382124543190002e-01" purity="8.1677889823913574e-01" nType="-99"/>
          <Node pos="r" depth="2" NCoef="0" IVar="-1" Cut="0.0000000000000000e+00" cType="1" res="1.0807791724801064e-02" rms="4.2798042297363281e-01" purity="4.0791156888008118e-01" nType="-99"/>
        </Node>
        <Node pos="r" depth="1" NCoef="0" IVar="2" Cut="8.4966945648193359e+00" cType="1" res="2.4207199458032846e-03" rms="3.4824720025062561e-01" purity="4.9733793735504150e-01" nType="0">
          <Node pos="l" depth="2" NCoef="0" IVar="-1" Cut="0.0000000000000000e+00" cType="1" res="3.6986982449889183e-03" rms="3.5236442089080811e-01" purity="4.8991674184799194e-01" nType="-99"/>
          <Node pos="r" depth="2" NCoef="0" IVar="-1" Cut="0.0000000000000000e+00" cType="1" res="-4.5540604332927614e-05" rms="3.4749975800514221e-01" purity="4.9855613708496094e-01" nType="-99"/>
        </Node>
      </Node>
    </BinaryTree>
    <BinaryTree type="DecisionTree" boostWeight="1.0000000000000000e+00" itree="370">
      <Node pos="s" depth="0" NCoef="0" IVar="9" Cut="3.0000000000000000e+00" cType="1" res="-1.0231517953798175e-03" rms="2.2819659113883972e-01" purity="4.9677631258964539e-01" nType="0">
        <Node pos="l" depth="1" NCoef="0" IVar="1" Cut="5.9732604026794434e+00" cType="1" res="6.8539096973836422e-03" rms="3.2081055641174316e-01" purity="6.3647210597991943e-01" nType="0">
          <Node pos="l" depth="2" NCoef="0" IVar="-1" Cut="0.0000000000000000e+00" cType="1" res="8.5762441158294678e-03" rms="3.6843433976173401e-01" purity="5.1425933837890625e-01" nType="-99"/>
          <Node pos="r" depth="2" NCoef="0" IVar="-1" Cut="0.0000000000000000e+00" cType="1" res="-1.8645251402631402e-03" rms="2.9898831248283386e-01" purity="6.8481725454330444e-01" nType="-99"/>
        </Node>
        <Node pos="r" depth="1" NCoef="0" IVar="5" Cut="4.9592108726501465e+00" cType="1" res="-3.1293460633605719e-03" rms="3.5409745573997498e-01" purity="4.7375941276550293e-01" nType="0">
          <Node pos="l" depth="2" NCoef="0" IVar="-1" Cut="0.0000000000000000e+00" cType="1" res="-9.0412450954318047e-03" rms="3.7409231066703796e-01" purity="5.0320565700531006e-01" nType="-99"/>
          <Node pos="r" depth="2" NCoef="0" IVar="-1" Cut="0.0000000000000000e+00" cType="1" res="-5.9947522822767496e-04" rms="3.5329726338386536e-01" purity="4.7268280386924744e-01" nType="-99"/>
        </Node>
      </Node>
    </BinaryTree>
    <BinaryTree type="DecisionTree" boostWeight="1.0000000000000000e+00" itree="371">
      <Node pos="s" depth="0" NCoef="0" IVar="9" Cut="3.6931471824645996e+00" cType="1" res="1.3843849301338196e-03" rms="2.2712215781211853e-01" purity="5.0175917148590088e-01" nType="0">
        <Node pos="l" depth="1" NCoef="0" IVar="10" Cut="2.0000000000000000e+00" cType="1" res="6.8546895636245608e-04" rms="2.2464710474014282e-01" purity="5.4284292459487915e-01" nType="0">
          <Node pos="l" depth="2" NCoef="0" IVar="-1" Cut="0.0000000000000000e+00" cType="1" res="1.6514500603079796e-03" rms="3.3109152317047119e-01" purity="5.8028966188430786e-01" nType="-99"/>
          <Node pos="r" depth="2" NCoef="0" IVar="-1" Cut="0.0000000000000000e+00" cType="1" res="-2.2477325983345509e-03" rms="3.5517457127571106e-01" purity="4.8496305942535400e-01" nType="-99"/>
        </Node>
        <Node pos="r" depth="1" NCoef="0" IVar="4" Cut="-2.0034127235412598e+00" cType="1" res="2.2336675319820642e-03" rms="3.6380305886268616e-01" purity="4.1582813858985901e-01" nType="0">
          <Node pos="l" depth="2" NCoef="0" IVar="-1" Cut="0.0000000000000000e+00" cType="1" res="-8.7073519825935364e-03" rms="3.4573540091514587e-01" purity="4.6820166707038879e-01" nType="-99"/>
          <Node pos="r" depth="2" NCoef="0" IVar="-1" Cut="0.0000000000000000e+00" cType="1" res="2.1035270765423775e-03" rms="3.6604943871498108e-01" purity="4.0880325436592102e-01" nType="-99"/>
        </Node>
      </Node>
    </BinaryTree>
    <BinaryTree type="DecisionTree" boostWeight="1.0000000000000000e+00" itree="372">
      <Node pos="s" depth="0" NCoef="0" IVar="13" Cut="4.2852550745010376e-01" cType="1" res="-5.5898987920954823e-04" rms="3.4951832890510559e-01" purity="4.9569094181060791e-01" nType="0">
        <Node pos="l" depth="1" NCoef="0" IVar="4" Cut="-1.7317873239517212e+00" cType="1" res="2.3992480710148811e-03" rms="3.4760886430740356e-01" purity="4.2232802510261536e-01" nType="0">
          <Node pos="l" depth="2" NCoef="0" IVar="-1" Cut="0.0000000000000000e+00" cType="1" res="5.3111938759684563e-03" rms="3.2763910293579102e-01" purity="5.2523624897003174e-01" nType="-99"/>
          <Node pos="r" depth="2" NCoef="0" IVar="-1" Cut="0.0000000000000000e+00" cType="1" res="-2.5625588023103774e-05" rms="3.5108190774917603e-01" purity="4.0350306034088135e-01" nType="-99"/>
        </Node>
        <Node pos="r" depth="1" NCoef="0" IVar="11" Cut="8.0839908123016357e-01" cType="1" res="-1.2199767865240574e-02" rms="3.5669493675231934e-01" purity="7.8437685966491699e-01" nType="0">
          <Node pos="l" depth="2" NCoef="0" IVar="-1" Cut="0.0000000000000000e+00" cType="1" res="-1.1220143176615238e-02" rms="3.9393597841262817e-01" purity="6.3515543937683105e-01" nType="-99"/>
          <Node pos="r" depth="2" NCoef="0" IVar="-1" Cut="0.0000000000000000e+00" cType="1" res="-3.9234943687915802e-04" rms="3.3852878212928772e-01" purity="8.4956622123718262e-01" nType="-99"/>
        </Node>
      </Node>
    </BinaryTree>
    <BinaryTree type="DecisionTree" boostWeight="1.0000000000000000e+00" itree="373">
      <Node pos="s" depth="0" NCoef="0" IVar="10" Cut="3.0000000000000000e+00" cType="1" res="4.8802711535245180e-04" rms="2.6496031880378723e-01" purity="4.9911084771156311e-01" nType="0">
        <Node pos="l" depth="1" NCoef="0" IVar="11" Cut="3.8089394569396973e-01" cType="1" res="1.9438762683421373e-03" rms="3.4599116444587708e-01" purity="5.1763486862182617e-01" nType="0">
          <Node pos="l" depth="2" NCoef="0" IVar="-1" Cut="0.0000000000000000e+00" cType="1" res="-4.9124378710985184e-04" rms="3.5917806625366211e-01" purity="2.6920995116233826e-01" nType="-99"/>
          <Node pos="r" depth="2" NCoef="0" IVar="-1" Cut="0.0000000000000000e+00" cType="1" res="2.5317119434475899e-03" rms="3.2682645320892334e-01" purity="8.6081826686859131e-01" nType="-99"/>
        </Node>
        <Node pos="r" depth="1" NCoef="0" IVar="8" Cut="-2.5072124600410461e-01" cType="1" res="-1.3136223889887333e-02" rms="3.6524292826652527e-01" purity="3.9580875635147095e-01" nType="0">
          <Node pos="l" depth="2" NCoef="0" IVar="-1" Cut="0.0000000000000000e+00" cType="1" res="-7.5825625099241734e-03" rms="3.8131642341613770e-01" purity="3.8611128926277161e-01" nType="-99"/>
          <Node pos="r" depth="2" NCoef="0" IVar="-1" Cut="0.0000000000000000e+00" cType="1" res="-2.2491179406642914e-03" rms="3.5874089598655701e-01" purity="3.9944303035736084e-01" nType="-99"/>
        </Node>
      </Node>
    </BinaryTree>
    <BinaryTree type="DecisionTree" boostWeight="1.0000000000000000e+00" itree="374">
      <Node pos="s" depth="0" NCoef="0" IVar="3" Cut="2.2521530091762543e-01" cType="1" res="1.0293956147506833e-03" rms="3.5205161571502686e-01" purity="4.9998685717582703e-01" nType="0">
        <Node pos="l" depth="1" NCoef="0" IVar="11" Cut="1.4285729825496674e-01" cType="1" res="-4.7441273927688599e-03" rms="3.3281078934669495e-01" purity="6.2697321176528931e-01" nType="0">
          <Node pos="l" depth="2" NCoef="0" IVar="-1" Cut="0.0000000000000000e+00" cType="1" res="2.2613990586251020e-03" rms="3.6057925224304199e-01" purity="2.3634123802185059e-01" nType="-99"/>
          <Node pos="r" depth="2" NCoef="0" IVar="-1" Cut="0.0000000000000000e+00" cType="1" res="-5.2082464098930359e-03" rms="3.1461036205291748e-01" purity="8.6285066604614258e-01" nType="-99"/>
        </Node>
        <Node pos="r" depth="1" NCoef="0" IVar="4" Cut="-1.8686048686504364e-01" cType="1" res="6.5335738472640514e-03" rms="3.6937895417213440e-01" purity="3.7892457842826843e-01" nType="0">
          <Node pos="l" depth="2" NCoef="0" IVar="-1" Cut="0.0000000000000000e+00" cType="1" res="-1.3576522469520569e-03" rms="3.6350834369659424e-01" purity="3.8353610038757324e-01" nType="-99"/>
          <Node pos="r" depth="2" NCoef="0" IVar="-1" Cut="0.0000000000000000e+00" cType="1" res="5.1795332692563534e-03" rms="3.7640213966369629e-01" purity="3.7288784980773926e-01" nType="-99"/>
        </Node>
      </Node>
    </BinaryTree>
    <BinaryTree type="DecisionTree" boostWeight="1.0000000000000000e+00" itree="375">
      <Node pos="s" depth="0" NCoef="0" IVar="12" Cut="6.6649878025054932e-01" cType="1" res="1.0410551913082600e-03" rms="3.4888020157814026e-01" purity="4.9777647852897644e-01" nType="0">
        <Node pos="l" depth="1" NCoef="0" IVar="12" Cut="4.7604379057884216e-01" cType="1" res="6.9732894189655781e-03" rms="3.5986471176147461e-01" purity="7.6325666904449463e-01" nType="0">
          <Node pos="l" depth="2" NCoef="0" IVar="-1" Cut="0.0000000000000000e+00" cType="1" res="6.6902878461405635e-04" rms="3.4301233291625977e-01" purity="8.0536192655563354e-01" nType="-99"/>
          <Node pos="r" depth="2" NCoef="0" IVar="-1" Cut="0.0000000000000000e+00" cType="1" res="5.7836044579744339e-03" rms="4.3000453710556030e-01" purity="5.6389957666397095e-01" nType="-99"/>
        </Node>
        <Node pos="r" depth="1" NCoef="0" IVar="11" Cut="1.7628315091133118e-01" cType="1" res="-5.6213694624602795e-03" rms="3.3599105477333069e-01" purity="1.9961865246295929e-01" nType="0">
          <Node pos="l" depth="2" NCoef="0" IVar="-1" Cut="0.0000000000000000e+00" cType="1" res="-6.7656015744432807e-04" rms="3.2533237338066101e-01" purity="1.7732401192188263e-01" nType="-99"/>
          <Node pos="r" depth="2" NCoef="0" IVar="-1" Cut="0.0000000000000000e+00" cType="1" res="-8.7777655571699142e-03" rms="4.6868914365768433e-01" purity="5.4751479625701904e-01" nType="-99"/>
        </Node>
      </Node>
    </BinaryTree>
    <BinaryTree type="DecisionTree" boostWeight="1.0000000000000000e+00" itree="376">
      <Node pos="s" depth="0" NCoef="0" IVar="2" Cut="8.2035484313964844e+00" cType="1" res="-8.8620116002857685e-05" rms="3.5098165273666382e-01" purity="4.9740058183670044e-01" nType="0">
        <Node pos="l" depth="1" NCoef="0" IVar="-1" Cut="0.0000000000000000e+00" cType="1" res="-5.4352562874555588e-03" rms="3.6398422718048096e-01" purity="4.3002352118492126e-01" nType="-99"/>
        <Node pos="r" depth="1" NCoef="0" IVar="0" Cut="7.8202247619628906e+00" cType="1" res="1.6353210667148232e-03" rms="3.5010436177253723e-01" purity="5.0148105621337891e-01" nType="0">
          <Node pos="l" depth="2" NCoef="0" IVar="-1" Cut="0.0000000000000000e+00" cType="1" res="5.4952749051153660e-03" rms="4.5675176382064819e-01" purity="3.7526813149452209e-01" nType="-99"/>
          <Node pos="r" depth="2" NCoef="0" IVar="-1" Cut="0.0000000000000000e+00" cType="1" res="4.8743502702564001e-05" rms="3.4351438283920288e-01" purity="5.0812101364135742e-01" nType="-99"/>
        </Node>
      </Node>
    </BinaryTree>
    <BinaryTree type="DecisionTree" boostWeight="1.0000000000000000e+00" itree="377">
      <Node pos="s" depth="0" NCoef="0" IVar="0" Cut="1.0885105133056641e+01" cType="1" res="-8.0540041381027550e-05" rms="3.5226222872734070e-01" purity="5.0177115201950073e-01" nType="0">
        <Node pos="l" depth="1" NCoef="0" IVar="5" Cut="7.4714884757995605e+00" cType="1" res="-1.0605028364807367e-03" rms="3.5039958357810974e-01" purity="4.9808719754219055e-01" nType="0">
          <Node pos="l" depth="2" NCoef="0" IVar="-1" Cut="0.0000000000000000e+00" cType="1" res="2.7360953390598297e-04" rms="3.5076287388801575e-01" purity="5.1188713312149048e-01" nType="-99"/>
          <Node pos="r" depth="2" NCoef="0" IVar="-1" Cut="0.0000000000000000e+00" cType="1" res="-2.4939230643212795e-03" rms="3.4871426224708557e-01" purity="4.3897277116775513e-01" nType="-99"/>
        </Node>
        <Node pos="r" depth="1" NCoef="0" IVar="-1" Cut="0.0000000000000000e+00" cType="1" res="4.8950840719044209e-03" rms="3.9520299434661865e-01" purity="5.9387129545211792e-01" nType="-99"/>
      </Node>
    </BinaryTree>
    <BinaryTree type="DecisionTree" boostWeight="1.0000000000000000e+00" itree="378">
      <Node pos="s" depth="0" NCoef="0" IVar="2" Cut="9.2648258209228516e+00" cType="1" res="-1.3118314091116190e-03" rms="3.5119992494583130e-01" purity="4.9706575274467468e-01" nType="0">
        <Node pos="l" depth="1" NCoef="0" IVar="13" Cut="4.7614681720733643e-01" cType="1" res="2.3127989843487740e-03" rms="3.5610875487327576e-01" purity="4.9246203899383545e-01" nType="0">
          <Node pos="l" depth="2" NCoef="0" IVar="-1" Cut="0.0000000000000000e+00" cType="1" res="1.3635479845106602e-03" rms="3.5314458608627319e-01" purity="4.2880031466484070e-01" nType="-99"/>
          <Node pos="r" depth="2" NCoef="0" IVar="-1" Cut="0.0000000000000000e+00" cType="1" res="-4.0242886170744896e-03" rms="3.6849191784858704e-01" purity="7.7263140678405762e-01" nType="-99"/>
        </Node>
        <Node pos="r" depth="1" NCoef="0" IVar="3" Cut="-8.2201406359672546e-02" cType="1" res="-8.3461180329322815e-03" rms="3.4136226773262024e-01" purity="5.0600004196166992e-01" nType="0">
          <Node pos="l" depth="2" NCoef="0" IVar="-1" Cut="0.0000000000000000e+00" cType="1" res="2.0068231970071793e-03" rms="3.1048411130905151e-01" purity="6.9675958156585693e-01" nType="-99"/>
          <Node pos="r" depth="2" NCoef="0" IVar="-1" Cut="0.0000000000000000e+00" cType="1" res="-6.4866696484386921e-03" rms="3.6175301671028137e-01" purity="3.6848542094230652e-01" nType="-99"/>
        </Node>
      </Node>
    </BinaryTree>
    <BinaryTree type="DecisionTree" boostWeight="1.0000000000000000e+00" itree="379">
      <Node pos="s" depth="0" NCoef="0" IVar="0" Cut="9.3525800704956055e+00" cType="1" res="6.4197427127510309e-04" rms="3.4857594966888428e-01" purity="5.0212371349334717e-01" nType="0">
        <Node pos="l" depth="1" NCoef="0" IVar="1" Cut="5.3859872817993164e+00" cType="1" res="-3.8262610323727131e-03" rms="3.6610195040702820e-01" purity="4.5261850953102112e-01" nType="0">
          <Node pos="l" depth="2" NCoef="0" IVar="-1" Cut="0.0000000000000000e+00" cType="1" res="2.7509420178830624e-03" rms="4.1700172424316406e-01" purity="3.0113980174064636e-01" nType="-99"/>
          <Node pos="r" depth="2" NCoef="0" IVar="-1" Cut="0.0000000000000000e+00" cType="1" res="-2.1237900946289301e-03" rms="3.5578578710556030e-01" purity="4.8068919777870178e-01" nType="-99"/>
        </Node>
        <Node pos="r" depth="1" NCoef="0" IVar="13" Cut="4.7614671289920807e-02" cType="1" res="7.3729627765715122e-03" rms="3.2025200128555298e-01" purity="5.7669889926910400e-01" nType="0">
          <Node pos="l" depth="2" NCoef="0" IVar="-1" Cut="0.0000000000000000e+00" cType="1" res="-1.7219563014805317e-03" rms="2.5157290697097778e-01" purity="4.1182401776313782e-01" nType="-99"/>
          <Node pos="r" depth="2" NCoef="0" IVar="-1" Cut="0.0000000000000000e+00" cType="1" res="4.0090070106089115e-03" rms="3.6991930007934570e-01" purity="7.2145944833755493e-01" nType="-99"/>
        </Node>
      </Node>
    </BinaryTree>
    <BinaryTree type="DecisionTree" boostWeight="1.0000000000000000e+00" itree="380">
      <Node pos="s" depth="0" NCoef="0" IVar="8" Cut="-4.5631641149520874e-01" cType="1" res="6.8213132908567786e-04" rms="3.4868341684341431e-01" purity="5.0170099735260010e-01" nType="0">
        <Node pos="l" depth="1" NCoef="0" IVar="0" Cut="8.2500410079956055e+00" cType="1" res="-1.8355313688516617e-02" rms="3.7661042809486389e-01" purity="4.9547669291496277e-01" nType="0">
          <Node pos="l" depth="2" NCoef="0" IVar="-1" Cut="0.0000000000000000e+00" cType="1" res="-6.1402358114719391e-03" rms="4.3388453125953674e-01" purity="3.9434090256690979e-01" nType="-99"/>
          <Node pos="r" depth="2" NCoef="0" IVar="-1" Cut="0.0000000000000000e+00" cType="1" res="-1.4931679470464587e-03" rms="3.5089778900146484e-01" purity="5.3567773103713989e-01" nType="-99"/>
        </Node>
        <Node pos="r" depth="1" NCoef="0" IVar="5" Cut="4.9592108726501465e+00" cType="1" res="3.8416855968534946e-03" rms="3.4372708201408386e-01" purity="5.0273400545120239e-01" nType="0">
          <Node pos="l" depth="2" NCoef="0" IVar="-1" Cut="0.0000000000000000e+00" cType="1" res="-7.1756914258003235e-03" rms="3.6355301737785339e-01" purity="5.2476358413696289e-01" nType="-99"/>
          <Node pos="r" depth="2" NCoef="0" IVar="-1" Cut="0.0000000000000000e+00" cType="1" res="1.7830613069236279e-03" rms="3.4291076660156250e-01" purity="5.0189936161041260e-01" nType="-99"/>
        </Node>
      </Node>
    </BinaryTree>
    <BinaryTree type="DecisionTree" boostWeight="1.0000000000000000e+00" itree="381">
      <Node pos="s" depth="0" NCoef="0" IVar="0" Cut="9.7880687713623047e+00" cType="1" res="-2.6770581025630236e-03" rms="3.4953242540359497e-01" purity="4.9475258588790894e-01" nType="0">
        <Node pos="l" depth="1" NCoef="0" IVar="11" Cut="9.5233902335166931e-02" cType="1" res="-6.2213279306888580e-03" rms="3.5707896947860718e-01" purity="4.6588635444641113e-01" nType="0">
          <Node pos="l" depth="2" NCoef="0" IVar="-1" Cut="0.0000000000000000e+00" cType="1" res="3.1454267445951700e-04" rms="3.1517794728279114e-01" purity="1.4725658297538757e-01" nType="-99"/>
          <Node pos="r" depth="2" NCoef="0" IVar="-1" Cut="0.0000000000000000e+00" cType="1" res="-3.3308016136288643e-03" rms="3.8865980505943298e-01" purity="7.3317205905914307e-01" nType="-99"/>
        </Node>
        <Node pos="r" depth="1" NCoef="0" IVar="12" Cut="7.6127636432647705e-01" cType="1" res="8.1436792388558388e-03" rms="3.2517275214195251e-01" purity="5.8288192749023438e-01" nType="0">
          <Node pos="l" depth="2" NCoef="0" IVar="-1" Cut="0.0000000000000000e+00" cType="1" res="4.0513509884476662e-03" rms="3.5215169191360474e-01" purity="7.5455981492996216e-01" nType="-99"/>
          <Node pos="r" depth="2" NCoef="0" IVar="-1" Cut="0.0000000000000000e+00" cType="1" res="-8.6227823048830032e-03" rms="2.2639606893062592e-01" purity="7.8134767711162567e-02" nType="-99"/>
        </Node>
      </Node>
    </BinaryTree>
    <BinaryTree type="DecisionTree" boostWeight="1.0000000000000000e+00" itree="382">
      <Node pos="s" depth="0" NCoef="0" IVar="0" Cut="1.0009326934814453e+01" cType="1" res="2.9062072280794382e-03" rms="3.5063740611076355e-01" purity="5.0074470043182373e-01" nType="0">
        <Node pos="l" depth="1" NCoef="0" IVar="8" Cut="1.3103453814983368e-01" cType="1" res="6.3545443117618561e-04" rms="3.5584416985511780e-01" purity="4.8243445158004761e-01" nType="0">
          <Node pos="l" depth="2" NCoef="0" IVar="-1" Cut="0.0000000000000000e+00" cType="1" res="1.5529120573773980e-03" rms="3.5763680934906006e-01" purity="4.9443832039833069e-01" nType="-99"/>
          <Node pos="r" depth="2" NCoef="0" IVar="-1" Cut="0.0000000000000000e+00" cType="1" res="-4.3011591769754887e-03" rms="3.5058882832527161e-01" purity="4.4979098439216614e-01" nType="-99"/>
        </Node>
        <Node pos="r" depth="1" NCoef="0" IVar="12" Cut="9.0395647287368774e-01" cType="1" res="1.3142708688974380e-02" rms="3.2593882083892822e-01" purity="5.8328717947006226e-01" nType="0">
          <Node pos="l" depth="2" NCoef="0" IVar="-1" Cut="0.0000000000000000e+00" cType="1" res="4.5497771352529526e-03" rms="3.5378748178482056e-01" purity="7.0192223787307739e-01" nType="-99"/>
          <Node pos="r" depth="2" NCoef="0" IVar="-1" Cut="0.0000000000000000e+00" cType="1" res="-2.2629935294389725e-02" rms="1.1891102045774460e-01" purity="1.4245502650737762e-02" nType="-99"/>
        </Node>
      </Node>
    </BinaryTree>
    <BinaryTree type="DecisionTree" boostWeight="1.0000000000000000e+00" itree="383">
      <Node pos="s" depth="0" NCoef="0" IVar="6" Cut="-3.6186268329620361e+00" cType="1" res="1.8127528892364353e-04" rms="3.5176628828048706e-01" purity="4.9835434556007385e-01" nType="0">
        <Node pos="l" depth="1" NCoef="0" IVar="11" Cut="4.7625619918107986e-02" cType="1" res="7.8641157597303391e-03" rms="3.2256567478179932e-01" purity="6.0984414815902710e-01" nType="0">
          <Node pos="l" depth="2" NCoef="0" IVar="-1" Cut="0.0000000000000000e+00" cType="1" res="-9.8409298807382584e-03" rms="1.6798420250415802e-01" purity="3.4269217401742935e-02" nType="-99"/>
          <Node pos="r" depth="2" NCoef="0" IVar="-1" Cut="0.0000000000000000e+00" cType="1" res="4.0252837352454662e-03" rms="3.5804492235183716e-01" purity="7.9427236318588257e-01" nType="-99"/>
        </Node>
        <Node pos="r" depth="1" NCoef="0" IVar="12" Cut="3.3323130011558533e-01" cType="1" res="-1.7352023860439658e-03" rms="3.5865443944931030e-01" purity="4.7054323554039001e-01" nType="0">
          <Node pos="l" depth="2" NCoef="0" IVar="-1" Cut="0.0000000000000000e+00" cType="1" res="-2.9129264876246452e-03" rms="3.5018533468246460e-01" purity="7.9996728897094727e-01" nType="-99"/>
          <Node pos="r" depth="2" NCoef="0" IVar="-1" Cut="0.0000000000000000e+00" cType="1" res="5.3517724154517055e-04" rms="3.6318725347518921e-01" purity="2.8881371021270752e-01" nType="-99"/>
        </Node>
      </Node>
    </BinaryTree>
    <BinaryTree type="DecisionTree" boostWeight="1.0000000000000000e+00" itree="384">
      <Node pos="s" depth="0" NCoef="0" IVar="5" Cut="6.6053829193115234e+00" cType="1" res="1.9099158234894276e-03" rms="3.4765535593032837e-01" purity="4.9930208921432495e-01" nType="0">
        <Node pos="l" depth="1" NCoef="0" IVar="1" Cut="5.2387161254882812e+00" cType="1" res="8.4927035495638847e-03" rms="3.5671424865722656e-01" purity="5.2808028459548950e-01" nType="0">
          <Node pos="l" depth="2" NCoef="0" IVar="-1" Cut="0.0000000000000000e+00" cType="1" res="-1.8722589593380690e-03" rms="4.1927894949913025e-01" purity="2.6926001906394958e-01" nType="-99"/>
          <Node pos="r" depth="2" NCoef="0" IVar="-1" Cut="0.0000000000000000e+00" cType="1" res="3.6224168725311756e-03" rms="3.4629160165786743e-01" purity="5.6686443090438843e-01" nType="-99"/>
        </Node>
        <Node pos="r" depth="1" NCoef="0" IVar="12" Cut="4.7603079676628113e-01" cType="1" res="-3.8946964778006077e-03" rms="3.3936089277267456e-01" purity="4.7392582893371582e-01" nType="0">
          <Node pos="l" depth="2" NCoef="0" IVar="-1" Cut="0.0000000000000000e+00" cType="1" res="1.1839541839435697e-03" rms="3.7309151887893677e-01" purity="7.6053386926651001e-01" nType="-99"/>
          <Node pos="r" depth="2" NCoef="0" IVar="-1" Cut="0.0000000000000000e+00" cType="1" res="-4.2903991416096687e-03" rms="2.9914167523384094e-01" purity="1.6946706175804138e-01" nType="-99"/>
        </Node>
      </Node>
    </BinaryTree>
    <BinaryTree type="DecisionTree" boostWeight="1.0000000000000000e+00" itree="385">
      <Node pos="s" depth="0" NCoef="0" IVar="2" Cut="8.2035484313964844e+00" cType="1" res="-2.9736047144979239e-03" rms="3.4875360131263733e-01" purity="4.9590504169464111e-01" nType="0">
        <Node pos="l" depth="1" NCoef="0" IVar="-1" Cut="0.0000000000000000e+00" cType="1" res="-4.5806216076016426e-03" rms="3.7166869640350342e-01" purity="4.2113444209098816e-01" nType="-99"/>
        <Node pos="r" depth="1" NCoef="0" IVar="11" Cut="2.3806110024452209e-01" cType="1" res="-1.5858227852731943e-03" rms="3.4723874926567078e-01" purity="5.0053054094314575e-01" nType="0">
          <Node pos="l" depth="2" NCoef="0" IVar="-1" Cut="0.0000000000000000e+00" cType="1" res="-1.8789167515933514e-03" rms="3.4388896822929382e-01" purity="2.0988526940345764e-01" nType="-99"/>
          <Node pos="r" depth="2" NCoef="0" IVar="-1" Cut="0.0000000000000000e+00" cType="1" res="1.2271399609744549e-03" rms="3.5089647769927979e-01" purity="8.2796961069107056e-01" nType="-99"/>
        </Node>
      </Node>
    </BinaryTree>
    <BinaryTree type="DecisionTree" boostWeight="1.0000000000000000e+00" itree="386">
      <Node pos="s" depth="0" NCoef="0" IVar="2" Cut="8.1598834991455078e+00" cType="1" res="-9.7724463557824492e-05" rms="3.4907019138336182e-01" purity="4.9989226460456848e-01" nType="0">
        <Node pos="l" depth="1" NCoef="0" IVar="-1" Cut="0.0000000000000000e+00" cType="1" res="4.0280697867274284e-03" rms="3.6669659614562988e-01" purity="4.7411361336708069e-01" nType="-99"/>
        <Node pos="r" depth="1" NCoef="0" IVar="9" Cut="3.6931471824645996e+00" cType="1" res="4.4330594391794875e-05" rms="2.2582027316093445e-01" purity="5.0121092796325684e-01" nType="0">
          <Node pos="l" depth="2" NCoef="0" IVar="-1" Cut="0.0000000000000000e+00" cType="1" res="-6.4059789292514324e-04" rms="3.3949595689773560e-01" purity="5.3842020034790039e-01" nType="-99"/>
          <Node pos="r" depth="2" NCoef="0" IVar="-1" Cut="0.0000000000000000e+00" cType="1" res="4.8262943164445460e-04" rms="3.6580461263656616e-01" purity="4.2178791761398315e-01" nType="-99"/>
        </Node>
      </Node>
    </BinaryTree>
    <BinaryTree type="DecisionTree" boostWeight="1.0000000000000000e+00" itree="387">
      <Node pos="s" depth="0" NCoef="0" IVar="0" Cut="8.2573537826538086e+00" cType="1" res="5.6979293003678322e-04" rms="3.5024002194404602e-01" purity="4.9917310476303101e-01" nType="0">
        <Node pos="l" depth="1" NCoef="0" IVar="8" Cut="-4.5932409167289734e-01" cType="1" res="-1.2823275290429592e-02" rms="4.1388744115829468e-01" purity="3.7069472670555115e-01" nType="0">
          <Node pos="l" depth="2" NCoef="0" IVar="-1" Cut="0.0000000000000000e+00" cType="1" res="-6.8553839810192585e-03" rms="4.2043721675872803e-01" purity="3.8730281591415405e-01" nType="-99"/>
          <Node pos="r" depth="2" NCoef="0" IVar="-1" Cut="0.0000000000000000e+00" cType="1" res="-1.2130016693845391e-03" rms="4.1181790828704834e-01" purity="3.6647939682006836e-01" nType="-99"/>
        </Node>
        <Node pos="r" depth="1" NCoef="0" IVar="3" Cut="8.3801364898681641e-01" cType="1" res="3.6818361841142178e-03" rms="3.3364027738571167e-01" purity="5.2902662754058838e-01" nType="0">
          <Node pos="l" depth="2" NCoef="0" IVar="-1" Cut="0.0000000000000000e+00" cType="1" res="8.0999425335903652e-06" rms="3.2701340317726135e-01" purity="5.7183223962783813e-01" nType="-99"/>
          <Node pos="r" depth="2" NCoef="0" IVar="-1" Cut="0.0000000000000000e+00" cType="1" res="4.2073396034538746e-03" rms="3.5509312152862549e-01" purity="3.8258510828018188e-01" nType="-99"/>
        </Node>
      </Node>
    </BinaryTree>
    <BinaryTree type="DecisionTree" boostWeight="1.0000000000000000e+00" itree="388">
      <Node pos="s" depth="0" NCoef="0" IVar="8" Cut="5.2994567155838013e-01" cType="1" res="1.0307497577741742e-03" rms="3.5163813829421997e-01" purity="5.0092101097106934e-01" nType="0">
        <Node pos="l" depth="1" NCoef="0" IVar="2" Cut="8.7359209060668945e+00" cType="1" res="2.2340456489473581e-03" rms="3.5137221217155457e-01" purity="5.0509464740753174e-01" nType="0">
          <Node pos="l" depth="2" NCoef="0" IVar="-1" Cut="0.0000000000000000e+00" cType="1" res="2.5007538497447968e-03" rms="3.6321660876274109e-01" purity="4.8920780420303345e-01" nType="-99"/>
          <Node pos="r" depth="2" NCoef="0" IVar="-1" Cut="0.0000000000000000e+00" cType="1" res="-4.4592077028937638e-04" rms="3.4714418649673462e-01" purity="5.1054680347442627e-01" nType="-99"/>
        </Node>
        <Node pos="r" depth="1" NCoef="0" IVar="-1" Cut="0.0000000000000000e+00" cType="1" res="-7.9656466841697693e-03" rms="3.5659816861152649e-01" purity="4.0449523925781250e-01" nType="-99"/>
      </Node>
    </BinaryTree>
    <BinaryTree type="DecisionTree" boostWeight="1.0000000000000000e+00" itree="389">
      <Node pos="s" depth="0" NCoef="0" IVar="5" Cut="8.6408576965332031e+00" cType="1" res="1.4845898840576410e-03" rms="3.5058236122131348e-01" purity="4.9958267807960510e-01" nType="0">
        <Node pos="l" depth="1" NCoef="0" IVar="12" Cut="9.5206737518310547e-02" cType="1" res="2.2888588719069958e-03" rms="3.4885126352310181e-01" purity="5.0139063596725464e-01" nType="0">
          <Node pos="l" depth="2" NCoef="0" IVar="-1" Cut="0.0000000000000000e+00" cType="1" res="-1.9281896529719234e-03" rms="3.2146701216697693e-01" purity="8.4373790025711060e-01" nType="-99"/>
          <Node pos="r" depth="2" NCoef="0" IVar="-1" Cut="0.0000000000000000e+00" cType="1" res="1.4026095159351826e-03" rms="3.5934886336326599e-01" purity="3.6222010850906372e-01" nType="-99"/>
        </Node>
        <Node pos="r" depth="1" NCoef="0" IVar="-1" Cut="0.0000000000000000e+00" cType="1" res="-4.8025017604231834e-03" rms="4.0434318780899048e-01" purity="4.3781962990760803e-01" nType="-99"/>
      </Node>
    </BinaryTree>
    <BinaryTree type="DecisionTree" boostWeight="1.0000000000000000e+00" itree="390">
      <Node pos="s" depth="0" NCoef="0" IVar="4" Cut="4.7879314422607422e-01" cType="1" res="-2.7255797758698463e-03" rms="3.5232713818550110e-01" purity="4.9774071574211121e-01" nType="0">
        <Node pos="l" depth="1" NCoef="0" IVar="2" Cut="8.1598834991455078e+00" cType="1" res="-4.1611203923821449e-03" rms="3.4949097037315369e-01" purity="5.0972902774810791e-01" nType="0">
          <Node pos="l" depth="2" NCoef="0" IVar="-1" Cut="0.0000000000000000e+00" cType="1" res="-5.0566219724714756e-03" rms="3.7718394398689270e-01" purity="4.2938899993896484e-01" nType="-99"/>
          <Node pos="r" depth="2" NCoef="0" IVar="-1" Cut="0.0000000000000000e+00" cType="1" res="-9.4532809453085065e-04" rms="3.4800741076469421e-01" purity="5.1375329494476318e-01" nType="-99"/>
        </Node>
        <Node pos="r" depth="1" NCoef="0" IVar="3" Cut="5.3170502185821533e-01" cType="1" res="1.2458614073693752e-02" rms="3.8070470094680786e-01" purity="3.7093600630760193e-01" nType="0">
          <Node pos="l" depth="2" NCoef="0" IVar="-1" Cut="0.0000000000000000e+00" cType="1" res="-2.0544079598039389e-03" rms="3.7064394354820251e-01" purity="3.8462305068969727e-01" nType="-99"/>
          <Node pos="r" depth="2" NCoef="0" IVar="-1" Cut="0.0000000000000000e+00" cType="1" res="8.6575951427221298e-03" rms="3.9075031876564026e-01" purity="3.5495805740356445e-01" nType="-99"/>
        </Node>
      </Node>
    </BinaryTree>
    <BinaryTree type="DecisionTree" boostWeight="1.0000000000000000e+00" itree="391">
      <Node pos="s" depth="0" NCoef="0" IVar="8" Cut="-4.5656114816665649e-01" cType="1" res="9.6282013691961765e-04" rms="3.5096266865730286e-01" purity="4.9945423007011414e-01" nType="0">
        <Node pos="l" depth="1" NCoef="0" IVar="13" Cut="9.5080412924289703e-02" cType="1" res="1.4001740142703056e-02" rms="3.7790265679359436e-01" purity="5.0105613470077515e-01" nType="0">
          <Node pos="l" depth="2" NCoef="0" IVar="-1" Cut="0.0000000000000000e+00" cType="1" res="3.7971602287143469e-03" rms="3.7298506498336792e-01" purity="3.6303895711898804e-01" nType="-99"/>
          <Node pos="r" depth="2" NCoef="0" IVar="-1" Cut="0.0000000000000000e+00" cType="1" res="-1.3871896080672741e-03" rms="3.8585686683654785e-01" purity="7.6024842262268066e-01" nType="-99"/>
        </Node>
        <Node pos="r" depth="1" NCoef="0" IVar="2" Cut="8.4704437255859375e+00" cType="1" res="-1.2124689528718591e-03" rms="3.4621652960777283e-01" purity="4.9918696284294128e-01" nType="0">
          <Node pos="l" depth="2" NCoef="0" IVar="-1" Cut="0.0000000000000000e+00" cType="1" res="-3.7642843089997768e-03" rms="3.6415252089500427e-01" purity="4.5008391141891479e-01" nType="-99"/>
          <Node pos="r" depth="2" NCoef="0" IVar="-1" Cut="0.0000000000000000e+00" cType="1" res="4.4164943392388523e-04" rms="3.4325516223907471e-01" purity="5.0690221786499023e-01" nType="-99"/>
        </Node>
      </Node>
    </BinaryTree>
    <BinaryTree type="DecisionTree" boostWeight="1.0000000000000000e+00" itree="392">
      <Node pos="s" depth="0" NCoef="0" IVar="0" Cut="1.0441261291503906e+01" cType="1" res="3.4130860585719347e-03" rms="3.5097229480743408e-01" purity="5.0404381752014160e-01" nType="0">
        <Node pos="l" depth="1" NCoef="0" IVar="0" Cut="7.7364258766174316e+00" cType="1" res="4.8070116899907589e-03" rms="3.4967505931854248e-01" purity="4.9753230810165405e-01" nType="0">
          <Node pos="l" depth="2" NCoef="0" IVar="-1" Cut="0.0000000000000000e+00" cType="1" res="5.5598174221813679e-03" rms="4.5222008228302002e-01" purity="3.6948260664939880e-01" nType="-99"/>
          <Node pos="r" depth="2" NCoef="0" IVar="-1" Cut="0.0000000000000000e+00" cType="1" res="1.2439782731235027e-03" rms="3.4580427408218384e-01" purity="5.0169044733047485e-01" nType="-99"/>
        </Node>
        <Node pos="r" depth="1" NCoef="0" IVar="8" Cut="1.6994646284729242e-03" cType="1" res="-1.0039720684289932e-02" rms="3.6297902464866638e-01" purity="5.6688648462295532e-01" nType="0">
          <Node pos="l" depth="2" NCoef="0" IVar="-1" Cut="0.0000000000000000e+00" cType="1" res="-4.9047856591641903e-03" rms="3.6523404717445374e-01" purity="5.5661123991012573e-01" nType="-99"/>
          <Node pos="r" depth="2" NCoef="0" IVar="-1" Cut="0.0000000000000000e+00" cType="1" res="1.3735627289861441e-03" rms="3.6062082648277283e-01" purity="5.7446688413619995e-01" nType="-99"/>
        </Node>
      </Node>
    </BinaryTree>
    <BinaryTree type="DecisionTree" boostWeight="1.0000000000000000e+00" itree="393">
      <Node pos="s" depth="0" NCoef="0" IVar="2" Cut="8.3761529922485352e+00" cType="1" res="1.2760449899360538e-03" rms="3.4937301278114319e-01" purity="5.0119221210479736e-01" nType="0">
        <Node pos="l" depth="1" NCoef="0" IVar="1" Cut="6.4747691154479980e+00" cType="1" res="1.7467418685555458e-02" rms="3.6096513271331787e-01" purity="4.7957092523574829e-01" nType="0">
          <Node pos="l" depth="2" NCoef="0" IVar="-1" Cut="0.0000000000000000e+00" cType="1" res="5.6256586685776711e-03" rms="3.8161602616310120e-01" purity="4.2473375797271729e-01" nType="-99"/>
          <Node pos="r" depth="2" NCoef="0" IVar="-1" Cut="0.0000000000000000e+00" cType="1" res="-8.1621226854622364e-04" rms="3.2942840456962585e-01" purity="5.5467098951339722e-01" nType="-99"/>
        </Node>
        <Node pos="r" depth="1" NCoef="0" IVar="6" Cut="-2.5085818767547607e+00" cType="1" res="-5.4688611999154091e-04" rms="3.4799653291702271e-01" purity="5.0362652540206909e-01" nType="0">
          <Node pos="l" depth="2" NCoef="0" IVar="-1" Cut="0.0000000000000000e+00" cType="1" res="1.1441910173743963e-03" rms="3.3120641112327576e-01" purity="5.7295858860015869e-01" nType="-99"/>
          <Node pos="r" depth="2" NCoef="0" IVar="-1" Cut="0.0000000000000000e+00" cType="1" res="-1.9346571061760187e-03" rms="3.7355655431747437e-01" purity="3.9110210537910461e-01" nType="-99"/>
        </Node>
      </Node>
    </BinaryTree>
    <BinaryTree type="DecisionTree" boostWeight="1.0000000000000000e+00" itree="394">
      <Node pos="s" depth="0" NCoef="0" IVar="5" Cut="6.0231308937072754e+00" cType="1" res="6.1030330834910274e-04" rms="3.5079532861709595e-01" purity="5.0093132257461548e-01" nType="0">
        <Node pos="l" depth="1" NCoef="0" IVar="1" Cut="5.9463405609130859e+00" cType="1" res="-9.8071023821830750e-03" rms="3.7284311652183533e-01" purity="5.2946984767913818e-01" nType="0">
          <Node pos="l" depth="2" NCoef="0" IVar="-1" Cut="0.0000000000000000e+00" cType="1" res="-5.0062141381204128e-03" rms="4.1399925947189331e-01" purity="3.5193064808845520e-01" nType="-99"/>
          <Node pos="r" depth="2" NCoef="0" IVar="-1" Cut="0.0000000000000000e+00" cType="1" res="3.3255475573241711e-03" rms="3.1259140372276306e-01" purity="7.5307160615921021e-01" nType="-99"/>
        </Node>
        <Node pos="r" depth="1" NCoef="0" IVar="11" Cut="4.7624494880437851e-02" cType="1" res="3.8318592123687267e-03" rms="3.4362697601318359e-01" purity="4.9210581183433533e-01" nType="0">
          <Node pos="l" depth="2" NCoef="0" IVar="-1" Cut="0.0000000000000000e+00" cType="1" res="-4.8516741953790188e-03" rms="1.8555666506290436e-01" purity="3.9506737142801285e-02" nType="-99"/>
          <Node pos="r" depth="2" NCoef="0" IVar="-1" Cut="0.0000000000000000e+00" cType="1" res="1.9154836190864444e-03" rms="3.9467504620552063e-01" purity="6.9635957479476929e-01" nType="-99"/>
        </Node>
      </Node>
    </BinaryTree>
    <BinaryTree type="DecisionTree" boostWeight="1.0000000000000000e+00" itree="395">
      <Node pos="s" depth="0" NCoef="0" IVar="9" Cut="3.6931471824645996e+00" cType="1" res="4.2414505151100457e-04" rms="2.2796060144901276e-01" purity="5.0325757265090942e-01" nType="0">
        <Node pos="l" depth="1" NCoef="0" IVar="11" Cut="5.7129144668579102e-01" cType="1" res="1.7220999579876661e-03" rms="3.3819466829299927e-01" purity="5.4177320003509521e-01" nType="0">
          <Node pos="l" depth="2" NCoef="0" IVar="-1" Cut="0.0000000000000000e+00" cType="1" res="-7.6766998972743750e-04" rms="3.6012169718742371e-01" purity="3.2172656059265137e-01" nType="-99"/>
          <Node pos="r" depth="2" NCoef="0" IVar="-1" Cut="0.0000000000000000e+00" cType="1" res="3.6315706092864275e-03" rms="3.0020943284034729e-01" purity="8.8876342773437500e-01" nType="-99"/>
        </Node>
        <Node pos="r" depth="1" NCoef="0" IVar="6" Cut="-2.9060683250427246e+00" cType="1" res="1.0377448052167892e-03" rms="3.6969035863876343e-01" purity="4.2172950506210327e-01" nType="0">
          <Node pos="l" depth="2" NCoef="0" IVar="-1" Cut="0.0000000000000000e+00" cType="1" res="4.2883832938969135e-03" rms="3.5244420170783997e-01" purity="5.0528019666671753e-01" nType="-99"/>
          <Node pos="r" depth="2" NCoef="0" IVar="-1" Cut="0.0000000000000000e+00" cType="1" res="-2.5494794826954603e-03" rms="3.8364920020103455e-01" purity="3.5028246045112610e-01" nType="-99"/>
        </Node>
      </Node>
    </BinaryTree>
    <BinaryTree type="DecisionTree" boostWeight="1.0000000000000000e+00" itree="396">
      <Node pos="s" depth="0" NCoef="0" IVar="12" Cut="9.5284253358840942e-02" cType="1" res="1.7758735921233892e-03" rms="3.5106918215751648e-01" purity="4.9872002005577087e-01" nType="0">
        <Node pos="l" depth="1" NCoef="0" IVar="1" Cut="6.2450995445251465e+00" cType="1" res="-6.9750775583088398e-03" rms="3.2312023639678955e-01" purity="8.3571398258209229e-01" nType="0">
          <Node pos="l" depth="2" NCoef="0" IVar="-1" Cut="0.0000000000000000e+00" cType="1" res="-1.3288689777255058e-02" rms="3.7795501947402954e-01" purity="7.8347098827362061e-01" nType="-99"/>
          <Node pos="r" depth="2" NCoef="0" IVar="-1" Cut="0.0000000000000000e+00" cType="1" res="-1.2076877756044269e-03" rms="3.1441277265548706e-01" purity="8.4307700395584106e-01" nType="-99"/>
        </Node>
        <Node pos="r" depth="1" NCoef="0" IVar="4" Cut="-1.4172586202621460e+00" cType="1" res="5.2814087830483913e-03" rms="3.6160039901733398e-01" purity="3.6372387409210205e-01" nType="0">
          <Node pos="l" depth="2" NCoef="0" IVar="-1" Cut="0.0000000000000000e+00" cType="1" res="-2.1863847505301237e-03" rms="3.3815848827362061e-01" purity="3.9606520533561707e-01" nType="-99"/>
          <Node pos="r" depth="2" NCoef="0" IVar="-1" Cut="0.0000000000000000e+00" cType="1" res="2.1983035840094090e-03" rms="3.6695867776870728e-01" purity="3.5593625903129578e-01" nType="-99"/>
        </Node>
      </Node>
    </BinaryTree>
    <BinaryTree type="DecisionTree" boostWeight="1.0000000000000000e+00" itree="397">
      <Node pos="s" depth="0" NCoef="0" IVar="9" Cut="4.6931471824645996e+00" cType="1" res="-1.3130679726600647e-03" rms="2.2990386188030243e-01" purity="5.0231397151947021e-01" nType="0">
        <Node pos="l" depth="1" NCoef="0" IVar="11" Cut="8.0938106775283813e-01" cType="1" res="-1.3105274410918355e-04" rms="3.5098952054977417e-01" purity="5.0237488746643066e-01" nType="0">
          <Node pos="l" depth="2" NCoef="0" IVar="-1" Cut="0.0000000000000000e+00" cType="1" res="-7.5212126830592752e-04" rms="3.6556300520896912e-01" purity="3.5826215147972107e-01" nType="-99"/>
          <Node pos="r" depth="2" NCoef="0" IVar="-1" Cut="0.0000000000000000e+00" cType="1" res="2.7855958323925734e-03" rms="3.0948963761329651e-01" purity="8.7970614433288574e-01" nType="-99"/>
        </Node>
        <Node pos="r" depth="1" NCoef="0" IVar="-1" Cut="0.0000000000000000e+00" cType="1" res="-9.4791866838932037e-02" rms="2.3955488204956055e-01" purity="4.5530702918767929e-02" nType="-99"/>
      </Node>
    </BinaryTree>
    <BinaryTree type="DecisionTree" boostWeight="1.0000000000000000e+00" itree="398">
      <Node pos="s" depth="0" NCoef="0" IVar="9" Cut="3.6931471824645996e+00" cType="1" res="-5.1384227117523551e-04" rms="2.2978712618350983e-01" purity="5.0099283456802368e-01" nType="0">
        <Node pos="l" depth="1" NCoef="0" IVar="11" Cut="6.6651391983032227e-01" cType="1" res="-4.4611097109736875e-05" rms="3.4106379747390747e-01" purity="5.4140436649322510e-01" nType="0">
          <Node pos="l" depth="2" NCoef="0" IVar="-1" Cut="0.0000000000000000e+00" cType="1" res="-1.1558840051293373e-03" rms="3.6480593681335449e-01" purity="3.4777796268463135e-01" nType="-99"/>
          <Node pos="r" depth="2" NCoef="0" IVar="-1" Cut="0.0000000000000000e+00" cType="1" res="3.6582530010491610e-03" rms="2.9268327355384827e-01" purity="8.9416199922561646e-01" nType="-99"/>
        </Node>
        <Node pos="r" depth="1" NCoef="0" IVar="6" Cut="-3.1654846668243408e+00" cType="1" res="-2.0936229266226292e-03" rms="3.6383107304573059e-01" purity="4.1507518291473389e-01" nType="0">
          <Node pos="l" depth="2" NCoef="0" IVar="-1" Cut="0.0000000000000000e+00" cType="1" res="4.1437367908656597e-03" rms="3.4107497334480286e-01" purity="5.1658475399017334e-01" nType="-99"/>
          <Node pos="r" depth="2" NCoef="0" IVar="-1" Cut="0.0000000000000000e+00" cType="1" res="-3.2624925952404737e-03" rms="3.7558338046073914e-01" purity="3.5934954881668091e-01" nType="-99"/>
        </Node>
      </Node>
    </BinaryTree>
    <BinaryTree type="DecisionTree" boostWeight="1.0000000000000000e+00" itree="399">
      <Node pos="s" depth="0" NCoef="0" IVar="7" Cut="1.7470544576644897e+00" cType="1" res="-3.9232457056641579e-03" rms="3.4765392541885376e-01" purity="4.9743041396141052e-01" nType="0">
        <Node pos="l" depth="1" NCoef="0" IVar="7" Cut="-2.9052719473838806e-01" cType="1" res="-2.9742948245257139e-03" rms="3.4832766652107239e-01" purity="5.0530171394348145e-01" nType="0">
          <Node pos="l" depth="2" NCoef="0" IVar="-1" Cut="0.0000000000000000e+00" cType="1" res="-3.1383815221488476e-03" rms="3.4770211577415466e-01" purity="5.1303088665008545e-01" nType="-99"/>
          <Node pos="r" depth="2" NCoef="0" IVar="-1" Cut="0.0000000000000000e+00" cType="1" res="4.8075991799123585e-05" rms="3.4854370355606079e-01" purity="5.0204086303710938e-01" nType="-99"/>
        </Node>
        <Node pos="r" depth="1" NCoef="0" IVar="-1" Cut="0.0000000000000000e+00" cType="1" res="-1.2473343871533871e-02" rms="3.1983307003974915e-01" purity="2.0687237381935120e-01" nType="-99"/>
      </Node>
    </BinaryTree>
    <BinaryTree type="DecisionTree" boostWeight="1.0000000000000000e+00" itree="400">
      <Node pos="s" depth="0" NCoef="0" IVar="11" Cut="9.5229312777519226e-02" cType="1" res="1.1345630045980215e-03" rms="3.5061877965927124e-01" purity="5.0111532211303711e-01" nType="0">
        <Node pos="l" depth="1" NCoef="0" IVar="11" Cut="4.5501100830733776e-03" cType="1" res="6.3758324831724167e-03" rms="3.0585026741027832e-01" purity="1.3834932446479797e-01" nType="0">
          <Node pos="l" depth="2" NCoef="0" IVar="-1" Cut="0.0000000000000000e+00" cType="1" res="-2.1617647260427475e-02" rms="9.7545035183429718e-02" purity="9.6720680594444275e-03" nType="-99"/>
          <Node pos="r" depth="2" NCoef="0" IVar="-1" Cut="0.0000000000000000e+00" cType="1" res="4.8054940998554230e-03" rms="3.8216695189476013e-01" purity="2.1934846043586731e-01" nType="-99"/>
        </Node>
        <Node pos="r" depth="1" NCoef="0" IVar="1" Cut="5.5846633911132812e+00" cType="1" res="-2.5091399438679218e-03" rms="3.7859258055686951e-01" purity="7.5330829620361328e-01" nType="0">
          <Node pos="l" depth="2" NCoef="0" IVar="-1" Cut="0.0000000000000000e+00" cType="1" res="-6.7360657267272472e-03" rms="4.5710331201553345e-01" purity="5.4322606325149536e-01" nType="-99"/>
          <Node pos="r" depth="2" NCoef="0" IVar="-1" Cut="0.0000000000000000e+00" cType="1" res="8.0860656453296542e-05" rms="3.7112599611282349e-01" purity="7.7090424299240112e-01" nType="-99"/>
        </Node>
      </Node>
    </BinaryTree>
    <BinaryTree type="DecisionTree" boostWeight="1.0000000000000000e+00" itree="401">
      <Node pos="s" depth="0" NCoef="0" IVar="5" Cut="7.6898860931396484e+00" cType="1" res="-1.8503561150282621e-03" rms="3.4874829649925232e-01" purity="5.0261116027832031e-01" nType="0">
        <Node pos="l" depth="1" NCoef="0" IVar="13" Cut="9.5216207206249237e-02" cType="1" res="2.4527119239792228e-04" rms="3.4492826461791992e-01" purity="5.1258319616317749e-01" nType="0">
          <Node pos="l" depth="2" NCoef="0" IVar="-1" Cut="0.0000000000000000e+00" cType="1" res="1.5422119759023190e-03" rms="3.3049994707107544e-01" purity="3.0934211611747742e-01" nType="-99"/>
          <Node pos="r" depth="2" NCoef="0" IVar="-1" Cut="0.0000000000000000e+00" cType="1" res="-1.9064289517700672e-03" rms="3.6368227005004883e-01" purity="7.9117530584335327e-01" nType="-99"/>
        </Node>
        <Node pos="r" depth="1" NCoef="0" IVar="3" Cut="5.3189140558242798e-01" cType="1" res="-1.2862390838563442e-02" rms="3.6797478795051575e-01" purity="4.5021033287048340e-01" nType="0">
          <Node pos="l" depth="2" NCoef="0" IVar="-1" Cut="0.0000000000000000e+00" cType="1" res="-9.1030448675155640e-03" rms="3.6791270971298218e-01" purity="4.9045297503471375e-01" nType="-99"/>
          <Node pos="r" depth="2" NCoef="0" IVar="-1" Cut="0.0000000000000000e+00" cType="1" res="-7.8089960879879072e-06" rms="3.6740106344223022e-01" purity="4.2687276005744934e-01" nType="-99"/>
        </Node>
      </Node>
    </BinaryTree>
    <BinaryTree type="DecisionTree" boostWeight="1.0000000000000000e+00" itree="402">
      <Node pos="s" depth="0" NCoef="0" IVar="0" Cut="1.0228443145751953e+01" cType="1" res="-2.0969263277947903e-03" rms="3.4979602694511414e-01" purity="4.9716484546661377e-01" nType="0">
        <Node pos="l" depth="1" NCoef="0" IVar="8" Cut="5.3108179569244385e-01" cType="1" res="-4.0603182278573513e-03" rms="3.4997478127479553e-01" purity="4.8524153232574463e-01" nType="0">
          <Node pos="l" depth="2" NCoef="0" IVar="-1" Cut="0.0000000000000000e+00" cType="1" res="-8.7292405078187585e-04" rms="3.5040798783302307e-01" purity="4.9023771286010742e-01" nType="-99"/>
          <Node pos="r" depth="2" NCoef="0" IVar="-1" Cut="0.0000000000000000e+00" cType="1" res="-9.8869539797306061e-03" rms="3.3848515152931213e-01" purity="3.6867782473564148e-01" nType="-99"/>
        </Node>
        <Node pos="r" depth="1" NCoef="0" IVar="12" Cut="5.7100170850753784e-01" cType="1" res="1.1141159571707249e-02" rms="3.4829953312873840e-01" purity="5.7755720615386963e-01" nType="0">
          <Node pos="l" depth="2" NCoef="0" IVar="-1" Cut="0.0000000000000000e+00" cType="1" res="-9.9602644331753254e-04" rms="3.4731954336166382e-01" purity="7.5647807121276855e-01" nType="-99"/>
          <Node pos="r" depth="2" NCoef="0" IVar="-1" Cut="0.0000000000000000e+00" cType="1" res="7.3937373235821724e-03" rms="3.4861034154891968e-01" purity="3.1392017006874084e-01" nType="-99"/>
        </Node>
      </Node>
    </BinaryTree>
    <BinaryTree type="DecisionTree" boostWeight="1.0000000000000000e+00" itree="403">
      <Node pos="s" depth="0" NCoef="0" IVar="11" Cut="9.5233045518398285e-02" cType="1" res="-6.2307802727445960e-04" rms="3.5423642396926880e-01" purity="4.9903470277786255e-01" nType="0">
        <Node pos="l" depth="1" NCoef="0" IVar="11" Cut="1.3616897165775299e-02" cType="1" res="7.4649578891694546e-03" rms="3.0709499120712280e-01" purity="1.4060880243778229e-01" nType="0">
          <Node pos="l" depth="2" NCoef="0" IVar="-1" Cut="0.0000000000000000e+00" cType="1" res="-9.6187461167573929e-03" rms="1.4516685903072357e-01" purity="2.2461049258708954e-02" nType="-99"/>
          <Node pos="r" depth="2" NCoef="0" IVar="-1" Cut="0.0000000000000000e+00" cType="1" res="5.2168006077408791e-03" rms="4.1642671823501587e-01" purity="2.6907417178153992e-01" nType="-99"/>
        </Node>
        <Node pos="r" depth="1" NCoef="0" IVar="8" Cut="7.5560412369668484e-03" cType="1" res="-6.2456098385155201e-03" rms="3.8350874185562134e-01" purity="7.4820035696029663e-01" nType="0">
          <Node pos="l" depth="2" NCoef="0" IVar="-1" Cut="0.0000000000000000e+00" cType="1" res="-2.9160543344914913e-03" rms="3.8684862852096558e-01" purity="7.4173998832702637e-01" nType="-99"/>
          <Node pos="r" depth="2" NCoef="0" IVar="-1" Cut="0.0000000000000000e+00" cType="1" res="8.4903422975912690e-04" rms="3.7888565659523010e-01" purity="7.5670462846755981e-01" nType="-99"/>
        </Node>
      </Node>
    </BinaryTree>
    <BinaryTree type="DecisionTree" boostWeight="1.0000000000000000e+00" itree="404">
      <Node pos="s" depth="0" NCoef="0" IVar="6" Cut="-1.6375976800918579e+00" cType="1" res="2.6162813883274794e-03" rms="3.5177591443061829e-01" purity="5.0230741500854492e-01" nType="0">
        <Node pos="l" depth="1" NCoef="0" IVar="5" Cut="4.9667744636535645e+00" cType="1" res="5.2226328989490867e-04" rms="3.4578821063041687e-01" purity="5.3216129541397095e-01" nType="0">
          <Node pos="l" depth="2" NCoef="0" IVar="-1" Cut="0.0000000000000000e+00" cType="1" res="9.8749380558729172e-03" rms="3.5663118958473206e-01" purity="6.6645377874374390e-01" nType="-99"/>
          <Node pos="r" depth="2" NCoef="0" IVar="-1" Cut="0.0000000000000000e+00" cType="1" res="-1.4090847980696708e-04" rms="3.4539490938186646e-01" purity="5.2792423963546753e-01" nType="-99"/>
        </Node>
        <Node pos="r" depth="1" NCoef="0" IVar="4" Cut="-3.5754778981208801e-01" cType="1" res="1.5237310901284218e-02" rms="3.8566169142723083e-01" purity="3.2237270474433899e-01" nType="0">
          <Node pos="l" depth="2" NCoef="0" IVar="-1" Cut="0.0000000000000000e+00" cType="1" res="-1.7768083489499986e-04" rms="3.9059060811996460e-01" purity="3.2546463608741760e-01" nType="-99"/>
          <Node pos="r" depth="2" NCoef="0" IVar="-1" Cut="0.0000000000000000e+00" cType="1" res="7.6168864034116268e-03" rms="3.8109990954399109e-01" purity="3.1985062360763550e-01" nType="-99"/>
        </Node>
      </Node>
    </BinaryTree>
    <BinaryTree type="DecisionTree" boostWeight="1.0000000000000000e+00" itree="405">
      <Node pos="s" depth="0" NCoef="0" IVar="6" Cut="-2.1908264160156250e+00" cType="1" res="-1.5427713515236974e-03" rms="3.4793314337730408e-01" purity="4.9388915300369263e-01" nType="0">
        <Node pos="l" depth="1" NCoef="0" IVar="8" Cut="-5.7601290941238403e-01" cType="1" res="2.2751167416572571e-03" rms="3.3626207709312439e-01" purity="5.4987913370132446e-01" nType="0">
          <Node pos="l" depth="2" NCoef="0" IVar="-1" Cut="0.0000000000000000e+00" cType="1" res="3.0960016883909702e-03" rms="3.7729233503341675e-01" purity="5.8642393350601196e-01" nType="-99"/>
          <Node pos="r" depth="2" NCoef="0" IVar="-1" Cut="0.0000000000000000e+00" cType="1" res="1.6607866200502031e-05" rms="3.3211079239845276e-01" purity="5.4648894071578979e-01" nType="-99"/>
        </Node>
        <Node pos="r" depth="1" NCoef="0" IVar="5" Cut="5.7935256958007812e+00" cType="1" res="-1.1551268398761749e-02" rms="3.7663286924362183e-01" purity="3.4711271524429321e-01" nType="0">
          <Node pos="l" depth="2" NCoef="0" IVar="-1" Cut="0.0000000000000000e+00" cType="1" res="-9.5852501690387726e-03" rms="3.9166116714477539e-01" purity="3.4283110499382019e-01" nType="-99"/>
          <Node pos="r" depth="2" NCoef="0" IVar="-1" Cut="0.0000000000000000e+00" cType="1" res="-4.3736776569858193e-04" rms="3.7086981534957886e-01" purity="3.4856483340263367e-01" nType="-99"/>
        </Node>
      </Node>
    </BinaryTree>
    <BinaryTree type="DecisionTree" boostWeight="1.0000000000000000e+00" itree="406">
      <Node pos="s" depth="0" NCoef="0" IVar="7" Cut="3.9701294898986816e-01" cType="1" res="1.0250872001051903e-03" rms="3.4866321086883545e-01" purity="4.9872010946273804e-01" nType="0">
        <Node pos="l" depth="1" NCoef="0" IVar="9" Cut="3.6931471824645996e+00" cType="1" res="-2.0916694775223732e-03" rms="2.2939735651016235e-01" purity="5.1407027244567871e-01" nType="0">
          <Node pos="l" depth="2" NCoef="0" IVar="-1" Cut="0.0000000000000000e+00" cType="1" res="-1.3716587563976645e-03" rms="3.3853375911712646e-01" purity="5.5049121379852295e-01" nType="-99"/>
          <Node pos="r" depth="2" NCoef="0" IVar="-1" Cut="0.0000000000000000e+00" cType="1" res="1.1488070013001561e-03" rms="3.6932846903800964e-01" purity="4.3359327316284180e-01" nType="-99"/>
        </Node>
        <Node pos="r" depth="1" NCoef="0" IVar="0" Cut="8.0384426116943359e+00" cType="1" res="8.6600529029965401e-03" rms="3.4900966286659241e-01" purity="4.6641170978546143e-01" nType="0">
          <Node pos="l" depth="2" NCoef="0" IVar="-1" Cut="0.0000000000000000e+00" cType="1" res="9.7134802490472794e-03" rms="4.4899898767471313e-01" purity="3.6487442255020142e-01" nType="-99"/>
          <Node pos="r" depth="2" NCoef="0" IVar="-1" Cut="0.0000000000000000e+00" cType="1" res="1.4100387925282121e-03" rms="3.3488747477531433e-01" purity="4.7847655415534973e-01" nType="-99"/>
        </Node>
      </Node>
    </BinaryTree>
    <BinaryTree type="DecisionTree" boostWeight="1.0000000000000000e+00" itree="407">
      <Node pos="s" depth="0" NCoef="0" IVar="4" Cut="-1.7554215192794800e+00" cType="1" res="-7.6826581789646298e-05" rms="3.5029408335685730e-01" purity="4.9753659963607788e-01" nType="0">
        <Node pos="l" depth="1" NCoef="0" IVar="3" Cut="-3.8424077630043030e-01" cType="1" res="-9.6517065539956093e-03" rms="3.2509395480155945e-01" purity="5.7114529609680176e-01" nType="0">
          <Node pos="l" depth="2" NCoef="0" IVar="-1" Cut="0.0000000000000000e+00" cType="1" res="5.1550441421568394e-03" rms="2.7370479702949524e-01" purity="7.7720940113067627e-01" nType="-99"/>
          <Node pos="r" depth="2" NCoef="0" IVar="-1" Cut="0.0000000000000000e+00" cType="1" res="-7.2129024192690849e-03" rms="3.5588482022285461e-01" purity="4.2753711342811584e-01" nType="-99"/>
        </Node>
        <Node pos="r" depth="1" NCoef="0" IVar="10" Cut="2.0000000000000000e+00" cType="1" res="5.0722545711323619e-04" rms="2.7090862393379211e-01" purity="4.8418596386909485e-01" nType="0">
          <Node pos="l" depth="2" NCoef="0" IVar="-1" Cut="0.0000000000000000e+00" cType="1" res="1.6428910894319415e-03" rms="3.4384569525718689e-01" purity="5.4129296541213989e-01" nType="-99"/>
          <Node pos="r" depth="2" NCoef="0" IVar="-1" Cut="0.0000000000000000e+00" cType="1" res="-6.9358217297121882e-04" rms="3.6518859863281250e-01" purity="4.2647770047187805e-01" nType="-99"/>
        </Node>
      </Node>
    </BinaryTree>
    <BinaryTree type="DecisionTree" boostWeight="1.0000000000000000e+00" itree="408">
      <Node pos="s" depth="0" NCoef="0" IVar="8" Cut="-6.1815565824508667e-01" cType="1" res="4.2170281521975994e-03" rms="3.4780761599540710e-01" purity="5.0239694118499756e-01" nType="0">
        <Node pos="l" depth="1" NCoef="0" IVar="-1" Cut="0.0000000000000000e+00" cType="1" res="2.9813337605446577e-03" rms="3.9007872343063354e-01" purity="5.5225080251693726e-01" nType="-99"/>
        <Node pos="r" depth="1" NCoef="0" IVar="0" Cut="9.3527164459228516e+00" cType="1" res="2.3661917075514793e-03" rms="3.4394717216491699e-01" purity="4.9819916486740112e-01" nType="0">
          <Node pos="l" depth="2" NCoef="0" IVar="-1" Cut="0.0000000000000000e+00" cType="1" res="-4.9901648890227079e-04" rms="3.6168262362480164e-01" purity="4.4812941551208496e-01" nType="-99"/>
          <Node pos="r" depth="2" NCoef="0" IVar="-1" Cut="0.0000000000000000e+00" cType="1" res="3.0371972825378180e-03" rms="3.1655910611152649e-01" purity="5.7036149501800537e-01" nType="-99"/>
        </Node>
      </Node>
    </BinaryTree>
    <BinaryTree type="DecisionTree" boostWeight="1.0000000000000000e+00" itree="409">
      <Node pos="s" depth="0" NCoef="0" IVar="9" Cut="4.0000000000000000e+00" cType="1" res="-5.5311963660642505e-04" rms="2.2730208933353424e-01" purity="4.9920913577079773e-01" nType="0">
        <Node pos="l" depth="1" NCoef="0" IVar="13" Cut="4.7613002359867096e-02" cType="1" res="1.1561036808416247e-03" rms="3.4709790349006653e-01" purity="5.1209145784378052e-01" nType="0">
          <Node pos="l" depth="2" NCoef="0" IVar="-1" Cut="0.0000000000000000e+00" cType="1" res="-1.6870778053998947e-03" rms="2.9784888029098511e-01" purity="2.6235601305961609e-01" nType="-99"/>
          <Node pos="r" depth="2" NCoef="0" IVar="-1" Cut="0.0000000000000000e+00" cType="1" res="1.4920976245775819e-03" rms="3.8434979319572449e-01" purity="7.2676783800125122e-01" nType="-99"/>
        </Node>
        <Node pos="r" depth="1" NCoef="0" IVar="12" Cut="8.5639387369155884e-01" cType="1" res="-1.0006567463278770e-02" rms="3.6960417032241821e-01" purity="3.6374095082283020e-01" nType="0">
          <Node pos="l" depth="2" NCoef="0" IVar="-1" Cut="0.0000000000000000e+00" cType="1" res="-8.7675834074616432e-03" rms="4.1560414433479309e-01" purity="5.1001858711242676e-01" nType="-99"/>
          <Node pos="r" depth="2" NCoef="0" IVar="-1" Cut="0.0000000000000000e+00" cType="1" res="6.8098511546850204e-03" rms="2.5991731882095337e-01" purity="8.5545927286148071e-02" nType="-99"/>
        </Node>
      </Node>
    </BinaryTree>
    <BinaryTree type="DecisionTree" boostWeight="1.0000000000000000e+00" itree="410">
      <Node pos="s" depth="0" NCoef="0" IVar="1" Cut="5.0537242889404297e+00" cType="1" res="-4.9656303599476814e-04" rms="3.5045528411865234e-01" purity="5.0182402133941650e-01" nType="0">
        <Node pos="l" depth="1" NCoef="0" IVar="-1" Cut="0.0000000000000000e+00" cType="1" res="3.9307959377765656e-03" rms="4.2459776997566223e-01" purity="2.7544492483139038e-01" nType="-99"/>
        <Node pos="r" depth="1" NCoef="0" IVar="9" Cut="3.6931471824645996e+00" cType="1" res="-6.7089269577991217e-05" rms="2.1817104518413544e-01" purity="5.1274192333221436e-01" nType="0">
          <Node pos="l" depth="2" NCoef="0" IVar="-1" Cut="0.0000000000000000e+00" cType="1" res="-5.0214049406349659e-04" rms="3.3715298771858215e-01" purity="5.5282092094421387e-01" nType="-99"/>
          <Node pos="r" depth="2" NCoef="0" IVar="-1" Cut="0.0000000000000000e+00" cType="1" res="-2.3154637892730534e-04" rms="3.6545845866203308e-01" purity="4.2742338776588440e-01" nType="-99"/>
        </Node>
      </Node>
    </BinaryTree>
    <BinaryTree type="DecisionTree" boostWeight="1.0000000000000000e+00" itree="411">
      <Node pos="s" depth="0" NCoef="0" IVar="8" Cut="-2.5488415360450745e-01" cType="1" res="1.1927384184673429e-03" rms="3.4815275669097900e-01" purity="5.0375163555145264e-01" nType="0">
        <Node pos="l" depth="1" NCoef="0" IVar="12" Cut="9.5214110612869263e-01" cType="1" res="1.2327897362411022e-02" rms="3.5788542032241821e-01" purity="5.1272743940353394e-01" nType="0">
          <Node pos="l" depth="2" NCoef="0" IVar="-1" Cut="0.0000000000000000e+00" cType="1" res="2.9818825423717499e-03" rms="3.9275306463241577e-01" purity="6.3660734891891479e-01" nType="-99"/>
          <Node pos="r" depth="2" NCoef="0" IVar="-1" Cut="0.0000000000000000e+00" cType="1" res="-7.7814497053623199e-03" rms="1.5863138437271118e-01" purity="2.8496608138084412e-02" nType="-99"/>
        </Node>
        <Node pos="r" depth="1" NCoef="0" IVar="3" Cut="-3.8757181167602539e-01" cType="1" res="-3.2045717816799879e-03" rms="3.4413430094718933e-01" purity="5.0020706653594971e-01" nType="0">
          <Node pos="l" depth="2" NCoef="0" IVar="-1" Cut="0.0000000000000000e+00" cType="1" res="2.3849196732044220e-03" rms="3.0537745356559753e-01" purity="7.0052134990692139e-01" nType="-99"/>
          <Node pos="r" depth="2" NCoef="0" IVar="-1" Cut="0.0000000000000000e+00" cType="1" res="-2.3578950203955173e-03" rms="3.6023685336112976e-01" purity="4.0961042046546936e-01" nType="-99"/>
        </Node>
      </Node>
    </BinaryTree>
    <BinaryTree type="DecisionTree" boostWeight="1.0000000000000000e+00" itree="412">
      <Node pos="s" depth="0" NCoef="0" IVar="4" Cut="3.8955369591712952e-01" cType="1" res="1.1334161972627044e-03" rms="3.5006576776504517e-01" purity="5.0096040964126587e-01" nType="0">
        <Node pos="l" depth="1" NCoef="0" IVar="5" Cut="7.7776799201965332e+00" cType="1" res="-3.5880945506505668e-04" rms="3.4523266553878784e-01" purity="5.1720857620239258e-01" nType="0">
          <Node pos="l" depth="2" NCoef="0" IVar="-1" Cut="0.0000000000000000e+00" cType="1" res="5.7381595252081752e-04" rms="3.4313848614692688e-01" purity="5.2314513921737671e-01" nType="-99"/>
          <Node pos="r" depth="2" NCoef="0" IVar="-1" Cut="0.0000000000000000e+00" cType="1" res="-5.2437810227274895e-03" rms="3.6249610781669617e-01" purity="4.6521881222724915e-01" nType="-99"/>
        </Node>
        <Node pos="r" depth="1" NCoef="0" IVar="3" Cut="5.4714870452880859e-01" cType="1" res="1.1770222336053848e-02" rms="3.8258433341979980e-01" purity="3.8514161109924316e-01" nType="0">
          <Node pos="l" depth="2" NCoef="0" IVar="-1" Cut="0.0000000000000000e+00" cType="1" res="-1.9616573117673397e-03" rms="3.7876608967781067e-01" purity="4.0341636538505554e-01" nType="-99"/>
          <Node pos="r" depth="2" NCoef="0" IVar="-1" Cut="0.0000000000000000e+00" cType="1" res="7.8944908455014229e-03" rms="3.8574165105819702e-01" purity="3.6375749111175537e-01" nType="-99"/>
        </Node>
      </Node>
    </BinaryTree>
    <BinaryTree type="DecisionTree" boostWeight="1.0000000000000000e+00" itree="413">
      <Node pos="s" depth="0" NCoef="0" IVar="7" Cut="1.7482510805130005e+00" cType="1" res="1.2958468869328499e-03" rms="3.4933689236640930e-01" purity="5.0020772218704224e-01" nType="0">
        <Node pos="l" depth="1" NCoef="0" IVar="2" Cut="8.4691095352172852e+00" cType="1" res="2.0756155718117952e-03" rms="3.5015648603439331e-01" purity="5.0887846946716309e-01" nType="0">
          <Node pos="l" depth="2" NCoef="0" IVar="-1" Cut="0.0000000000000000e+00" cType="1" res="2.8985536191612482e-03" rms="3.5931137204170227e-01" purity="4.8355650901794434e-01" nType="-99"/>
          <Node pos="r" depth="2" NCoef="0" IVar="-1" Cut="0.0000000000000000e+00" cType="1" res="6.0643105825874954e-05" rms="3.4873870015144348e-01" purity="5.1263391971588135e-01" nType="-99"/>
        </Node>
        <Node pos="r" depth="1" NCoef="0" IVar="-1" Cut="0.0000000000000000e+00" cType="1" res="-8.9856274425983429e-03" rms="3.1843543052673340e-01" purity="1.9949814677238464e-01" nType="-99"/>
      </Node>
    </BinaryTree>
    <BinaryTree type="DecisionTree" boostWeight="1.0000000000000000e+00" itree="414">
      <Node pos="s" depth="0" NCoef="0" IVar="4" Cut="6.0388320684432983e-01" cType="1" res="2.6076170615851879e-03" rms="3.5044538974761963e-01" purity="5.0223594903945923e-01" nType="0">
        <Node pos="l" depth="1" NCoef="0" IVar="9" Cut="4.6931471824645996e+00" cType="1" res="1.1128758778795600e-03" rms="2.3021768033504486e-01" purity="5.1111394166946411e-01" nType="0">
          <Node pos="l" depth="2" NCoef="0" IVar="-1" Cut="0.0000000000000000e+00" cType="1" res="1.0259195696562529e-03" rms="3.4886062145233154e-01" purity="5.1114469766616821e-01" nType="-99"/>
          <Node pos="r" depth="2" NCoef="0" IVar="-1" Cut="0.0000000000000000e+00" cType="1" res="2.1730019152164459e-01" rms="4.3623811006546021e-01" purity="2.6720735430717468e-01" nType="-99"/>
        </Node>
        <Node pos="r" depth="1" NCoef="0" IVar="-1" Cut="0.0000000000000000e+00" cType="1" res="-3.5031030420213938e-03" rms="3.7959992885589600e-01" purity="3.2787391543388367e-01" nType="-99"/>
      </Node>
    </BinaryTree>
    <BinaryTree type="DecisionTree" boostWeight="1.0000000000000000e+00" itree="415">
      <Node pos="s" depth="0" NCoef="0" IVar="9" Cut="3.6931471824645996e+00" cType="1" res="-2.4174933787435293e-03" rms="2.3074784874916077e-01" purity="4.9999579787254333e-01" nType="0">
        <Node pos="l" depth="1" NCoef="0" IVar="0" Cut="1.0659797668457031e+01" cType="1" res="-3.4041970502585173e-03" rms="3.4468352794647217e-01" purity="5.3976768255233765e-01" nType="0">
          <Node pos="l" depth="2" NCoef="0" IVar="-1" Cut="0.0000000000000000e+00" cType="1" res="-4.4151488691568375e-04" rms="3.4245815873146057e-01" purity="5.3784424066543579e-01" nType="-99"/>
          <Node pos="r" depth="2" NCoef="0" IVar="-1" Cut="0.0000000000000000e+00" cType="1" res="-5.6382217444479465e-03" rms="3.7635123729705811e-01" purity="5.6954294443130493e-01" nType="-99"/>
        </Node>
        <Node pos="r" depth="1" NCoef="0" IVar="5" Cut="8.0857048034667969e+00" cType="1" res="-8.4418815094977617e-04" rms="3.6400839686393738e-01" purity="4.1624027490615845e-01" nType="0">
          <Node pos="l" depth="2" NCoef="0" IVar="-1" Cut="0.0000000000000000e+00" cType="1" res="-1.2481315061450005e-03" rms="3.6242204904556274e-01" purity="4.1700735688209534e-01" nType="-99"/>
          <Node pos="r" depth="2" NCoef="0" IVar="-1" Cut="0.0000000000000000e+00" cType="1" res="8.8755376636981964e-03" rms="3.8071519136428833e-01" purity="4.0742343664169312e-01" nType="-99"/>
        </Node>
      </Node>
    </BinaryTree>
    <BinaryTree type="DecisionTree" boostWeight="1.0000000000000000e+00" itree="416">
      <Node pos="s" depth="0" NCoef="0" IVar="9" Cut="3.6931471824645996e+00" cType="1" res="-9.3508919235318899e-04" rms="2.2919341921806335e-01" purity="5.0108277797698975e-01" nType="0">
        <Node pos="l" depth="1" NCoef="0" IVar="5" Cut="5.6212034225463867e+00" cType="1" res="-1.6946959076449275e-03" rms="3.4344363212585449e-01" purity="5.3962916135787964e-01" nType="0">
          <Node pos="l" depth="2" NCoef="0" IVar="-1" Cut="0.0000000000000000e+00" cType="1" res="-4.6599656343460083e-03" rms="3.6584919691085815e-01" purity="5.7150536775588989e-01" nType="-99"/>
          <Node pos="r" depth="2" NCoef="0" IVar="-1" Cut="0.0000000000000000e+00" cType="1" res="1.8345504940953106e-04" rms="3.3999112248420715e-01" purity="5.3498524427413940e-01" nType="-99"/>
        </Node>
        <Node pos="r" depth="1" NCoef="0" IVar="8" Cut="-3.2392483949661255e-01" cType="1" res="-2.8756971005350351e-03" rms="3.6991158127784729e-01" purity="4.1872468590736389e-01" nType="0">
          <Node pos="l" depth="2" NCoef="0" IVar="-1" Cut="0.0000000000000000e+00" cType="1" res="-4.0168063715100288e-03" rms="3.8643515110015869e-01" purity="4.0314924716949463e-01" nType="-99"/>
          <Node pos="r" depth="2" NCoef="0" IVar="-1" Cut="0.0000000000000000e+00" cType="1" res="3.8576737279072404e-04" rms="3.6534252762794495e-01" purity="4.2282927036285400e-01" nType="-99"/>
        </Node>
      </Node>
    </BinaryTree>
    <BinaryTree type="DecisionTree" boostWeight="1.0000000000000000e+00" itree="417">
      <Node pos="s" depth="0" NCoef="0" IVar="6" Cut="-8.2963663339614868e-01" cType="1" res="-8.0870429519563913e-04" rms="3.5216420888900757e-01" purity="5.0453305244445801e-01" nType="0">
        <Node pos="l" depth="1" NCoef="0" IVar="13" Cut="1.9045868515968323e-01" cType="1" res="-1.7331681447103620e-03" rms="3.5098141431808472e-01" purity="5.1656365394592285e-01" nType="0">
          <Node pos="l" depth="2" NCoef="0" IVar="-1" Cut="0.0000000000000000e+00" cType="1" res="2.6181273278780282e-04" rms="3.4416529536247253e-01" purity="3.9017528295516968e-01" nType="-99"/>
          <Node pos="r" depth="2" NCoef="0" IVar="-1" Cut="0.0000000000000000e+00" cType="1" res="-2.4098795838654041e-03" rms="3.6487674713134766e-01" purity="7.8310430049896240e-01" nType="-99"/>
        </Node>
        <Node pos="r" depth="1" NCoef="0" IVar="-1" Cut="0.0000000000000000e+00" cType="1" res="4.9580936320126057e-03" rms="3.7510743737220764e-01" purity="2.5770717859268188e-01" nType="-99"/>
      </Node>
    </BinaryTree>
    <BinaryTree type="DecisionTree" boostWeight="1.0000000000000000e+00" itree="418">
      <Node pos="s" depth="0" NCoef="0" IVar="0" Cut="1.0225790023803711e+01" cType="1" res="1.8410844495519996e-03" rms="3.5019189119338989e-01" purity="5.0121498107910156e-01" nType="0">
        <Node pos="l" depth="1" NCoef="0" IVar="9" Cut="3.6931471824645996e+00" cType="1" res="-1.1702947085723281e-03" rms="1.8633405864238739e-01" purity="4.8781061172485352e-01" nType="0">
          <Node pos="l" depth="2" NCoef="0" IVar="-1" Cut="0.0000000000000000e+00" cType="1" res="-6.4788665622472763e-04" rms="3.4385508298873901e-01" purity="5.2803754806518555e-01" nType="-99"/>
          <Node pos="r" depth="2" NCoef="0" IVar="-1" Cut="0.0000000000000000e+00" cType="1" res="8.5354183102026582e-04" rms="3.6555895209312439e-01" purity="4.0262636542320251e-01" nType="-99"/>
        </Node>
        <Node pos="r" depth="1" NCoef="0" IVar="7" Cut="-7.0907729677855968e-03" cType="1" res="1.9326619803905487e-02" rms="3.4471935033798218e-01" purity="5.8604848384857178e-01" nType="0">
          <Node pos="l" depth="2" NCoef="0" IVar="-1" Cut="0.0000000000000000e+00" cType="1" res="1.1034402064979076e-02" rms="3.3826050162315369e-01" purity="6.5735381841659546e-01" nType="-99"/>
          <Node pos="r" depth="2" NCoef="0" IVar="-1" Cut="0.0000000000000000e+00" cType="1" res="3.5311366082169116e-04" rms="3.4761080145835876e-01" purity="5.4052168130874634e-01" nType="-99"/>
        </Node>
      </Node>
    </BinaryTree>
    <BinaryTree type="DecisionTree" boostWeight="1.0000000000000000e+00" itree="419">
      <Node pos="s" depth="0" NCoef="0" IVar="3" Cut="-1.3089330196380615e+00" cType="1" res="8.7178248213604093e-04" rms="3.4725204110145569e-01" purity="5.0316017866134644e-01" nType="0">
        <Node pos="l" depth="1" NCoef="0" IVar="7" Cut="2.7298110723495483e-01" cType="1" res="1.2506391853094101e-02" rms="2.9553124308586121e-01" purity="7.3831164836883545e-01" nType="0">
          <Node pos="l" depth="2" NCoef="0" IVar="-1" Cut="0.0000000000000000e+00" cType="1" res="1.5587669331580400e-03" rms="2.9509544372558594e-01" purity="7.4294817447662354e-01" nType="-99"/>
          <Node pos="r" depth="2" NCoef="0" IVar="-1" Cut="0.0000000000000000e+00" cType="1" res="1.1232946999371052e-02" rms="2.9567256569862366e-01" purity="7.3110723495483398e-01" nType="-99"/>
        </Node>
        <Node pos="r" depth="1" NCoef="0" IVar="1" Cut="4.9874033927917480e+00" cType="1" res="-9.6849841065704823e-04" rms="3.5470789670944214e-01" purity="4.6596559882164001e-01" nType="0">
          <Node pos="l" depth="2" NCoef="0" IVar="-1" Cut="0.0000000000000000e+00" cType="1" res="-5.5958721786737442e-03" rms="3.9717823266983032e-01" purity="2.2074444591999054e-01" nType="-99"/>
          <Node pos="r" depth="2" NCoef="0" IVar="-1" Cut="0.0000000000000000e+00" cType="1" res="-1.1243645531067159e-05" rms="3.5302621126174927e-01" purity="4.7491681575775146e-01" nType="-99"/>
        </Node>
      </Node>
    </BinaryTree>
    <BinaryTree type="DecisionTree" boostWeight="1.0000000000000000e+00" itree="420">
      <Node pos="s" depth="0" NCoef="0" IVar="2" Cut="8.8860054016113281e+00" cType="1" res="-2.9677583370357752e-03" rms="3.4988194704055786e-01" purity="4.9612331390380859e-01" nType="0">
        <Node pos="l" depth="1" NCoef="0" IVar="5" Cut="7.7009458541870117e+00" cType="1" res="-9.2698819935321808e-03" rms="3.5867404937744141e-01" purity="4.6802768111228943e-01" nType="0">
          <Node pos="l" depth="2" NCoef="0" IVar="-1" Cut="0.0000000000000000e+00" cType="1" res="-1.3380515156313777e-03" rms="3.5504472255706787e-01" purity="4.7454199194908142e-01" nType="-99"/>
          <Node pos="r" depth="2" NCoef="0" IVar="-1" Cut="0.0000000000000000e+00" cType="1" res="-5.9309410862624645e-03" rms="3.8276839256286621e-01" purity="4.2143517732620239e-01" nType="-99"/>
        </Node>
        <Node pos="r" depth="1" NCoef="0" IVar="2" Cut="9.0051403045654297e+00" cType="1" res="5.2132515702396631e-04" rms="3.4486842155456543e-01" purity="5.1167804002761841e-01" nType="0">
          <Node pos="l" depth="2" NCoef="0" IVar="-1" Cut="0.0000000000000000e+00" cType="1" res="-3.2500624656677246e-03" rms="3.4913426637649536e-01" purity="4.9112600088119507e-01" nType="-99"/>
          <Node pos="r" depth="2" NCoef="0" IVar="-1" Cut="0.0000000000000000e+00" cType="1" res="1.0090670548379421e-03" rms="3.4410277009010315e-01" purity="5.1513886451721191e-01" nType="-99"/>
        </Node>
      </Node>
    </BinaryTree>
    <BinaryTree type="DecisionTree" boostWeight="1.0000000000000000e+00" itree="421">
      <Node pos="s" depth="0" NCoef="0" IVar="11" Cut="8.0936968326568604e-01" cType="1" res="2.5131290312856436e-03" rms="3.5178765654563904e-01" purity="5.0522631406784058e-01" nType="0">
        <Node pos="l" depth="1" NCoef="0" IVar="9" Cut="4.6931471824645996e+00" cType="1" res="3.2159446272999048e-03" rms="2.5815603137016296e-01" purity="3.6672484874725342e-01" nType="0">
          <Node pos="l" depth="2" NCoef="0" IVar="-1" Cut="0.0000000000000000e+00" cType="1" res="1.5587622765451670e-03" rms="3.6385360360145569e-01" purity="3.6675921082496643e-01" nType="-99"/>
          <Node pos="r" depth="2" NCoef="0" IVar="-1" Cut="0.0000000000000000e+00" cType="1" res="-1.3006439805030823e-01" rms="2.4069941043853760e-01" purity="4.6742264181375504e-02" nType="-99"/>
        </Node>
        <Node pos="r" depth="1" NCoef="0" IVar="3" Cut="-3.8869789242744446e-01" cType="1" res="-6.1633759178221226e-03" rms="3.1759867072105408e-01" purity="8.7094765901565552e-01" nType="0">
          <Node pos="l" depth="2" NCoef="0" IVar="-1" Cut="0.0000000000000000e+00" cType="1" res="3.9092120714485645e-03" rms="2.0818834006786346e-01" purity="9.5239937305450439e-01" nType="-99"/>
          <Node pos="r" depth="2" NCoef="0" IVar="-1" Cut="0.0000000000000000e+00" cType="1" res="-4.2018974199891090e-03" rms="3.7949255108833313e-01" purity="8.0966281890869141e-01" nType="-99"/>
        </Node>
      </Node>
    </BinaryTree>
    <BinaryTree type="DecisionTree" boostWeight="1.0000000000000000e+00" itree="422">
      <Node pos="s" depth="0" NCoef="0" IVar="2" Cut="8.1916484832763672e+00" cType="1" res="-2.7540477458387613e-03" rms="3.5050493478775024e-01" purity="4.9618050456047058e-01" nType="0">
        <Node pos="l" depth="1" NCoef="0" IVar="-1" Cut="0.0000000000000000e+00" cType="1" res="4.1088340803980827e-03" rms="3.7367731332778931e-01" purity="4.8136845231056213e-01" nType="-99"/>
        <Node pos="r" depth="1" NCoef="0" IVar="4" Cut="5.4572504758834839e-01" cType="1" res="-4.1156462393701077e-03" rms="3.4907394647598267e-01" purity="4.9703410267829895e-01" nType="0">
          <Node pos="l" depth="2" NCoef="0" IVar="-1" Cut="0.0000000000000000e+00" cType="1" res="-8.7836780585348606e-04" rms="3.4690645337104797e-01" purity="5.0844073295593262e-01" nType="-99"/>
          <Node pos="r" depth="2" NCoef="0" IVar="-1" Cut="0.0000000000000000e+00" cType="1" res="-5.7646827772259712e-03" rms="3.7890404462814331e-01" purity="3.2985270023345947e-01" nType="-99"/>
        </Node>
      </Node>
    </BinaryTree>
    <BinaryTree type="DecisionTree" boostWeight="1.0000000000000000e+00" itree="423">
      <Node pos="s" depth="0" NCoef="0" IVar="2" Cut="8.3250150680541992e+00" cType="1" res="-6.5432803239673376e-04" rms="3.4831973910331726e-01" purity="5.0005888938903809e-01" nType="0">
        <Node pos="l" depth="1" NCoef="0" IVar="0" Cut="9.0835571289062500e+00" cType="1" res="1.4162848703563213e-02" rms="3.5698461532592773e-01" purity="4.8238351941108704e-01" nType="0">
          <Node pos="l" depth="2" NCoef="0" IVar="-1" Cut="0.0000000000000000e+00" cType="1" res="5.5982917547225952e-03" rms="3.7945041060447693e-01" purity="4.3304264545440674e-01" nType="-99"/>
          <Node pos="r" depth="2" NCoef="0" IVar="-1" Cut="0.0000000000000000e+00" cType="1" res="-9.6214941004291177e-04" rms="3.3137446641921997e-01" purity="5.3290653228759766e-01" nType="-99"/>
        </Node>
        <Node pos="r" depth="1" NCoef="0" IVar="7" Cut="4.9702686071395874e-01" cType="1" res="-2.0492041949182749e-03" rms="3.4746038913726807e-01" purity="5.0172287225723267e-01" nType="0">
          <Node pos="l" depth="2" NCoef="0" IVar="-1" Cut="0.0000000000000000e+00" cType="1" res="-1.6894541913643479e-03" rms="3.4885305166244507e-01" purity="5.1626199483871460e-01" nType="-99"/>
          <Node pos="r" depth="2" NCoef="0" IVar="-1" Cut="0.0000000000000000e+00" cType="1" res="2.3152634967118502e-03" rms="3.4339076280593872e-01" purity="4.6136963367462158e-01" nType="-99"/>
        </Node>
      </Node>
    </BinaryTree>
    <BinaryTree type="DecisionTree" boostWeight="1.0000000000000000e+00" itree="424">
      <Node pos="s" depth="0" NCoef="0" IVar="10" Cut="3.0000000000000000e+00" cType="1" res="-1.9640589598566294e-03" rms="2.6863372325897217e-01" purity="4.9732983112335205e-01" nType="0">
        <Node pos="l" depth="1" NCoef="0" IVar="9" Cut="3.6931471824645996e+00" cType="1" res="-2.1544303745031357e-03" rms="2.0440542697906494e-01" purity="5.1331567764282227e-01" nType="0">
          <Node pos="l" depth="2" NCoef="0" IVar="-1" Cut="0.0000000000000000e+00" cType="1" res="-8.8475621305406094e-04" rms="3.4162086248397827e-01" purity="5.4455649852752686e-01" nType="-99"/>
          <Node pos="r" depth="2" NCoef="0" IVar="-1" Cut="0.0000000000000000e+00" cType="1" res="-2.9007350094616413e-03" rms="3.6724328994750977e-01" purity="4.2627781629562378e-01" nType="-99"/>
        </Node>
        <Node pos="r" depth="1" NCoef="0" IVar="12" Cut="4.2823159694671631e-01" cType="1" res="6.4695081673562527e-03" rms="3.7115699052810669e-01" purity="4.0804621577262878e-01" nType="0">
          <Node pos="l" depth="2" NCoef="0" IVar="-1" Cut="0.0000000000000000e+00" cType="1" res="-2.4684630334377289e-03" rms="3.9923465251922607e-01" purity="7.2470039129257202e-01" nType="-99"/>
          <Node pos="r" depth="2" NCoef="0" IVar="-1" Cut="0.0000000000000000e+00" cType="1" res="5.0129755400121212e-03" rms="3.5466834902763367e-01" purity="2.3533557355403900e-01" nType="-99"/>
        </Node>
      </Node>
    </BinaryTree>
    <BinaryTree type="DecisionTree" boostWeight="1.0000000000000000e+00" itree="425">
      <Node pos="s" depth="0" NCoef="0" IVar="1" Cut="6.0903811454772949e+00" cType="1" res="-3.8845371454954147e-04" rms="3.4903517365455627e-01" purity="4.9780213832855225e-01" nType="0">
        <Node pos="l" depth="1" NCoef="0" IVar="3" Cut="-1.2927793264389038e+00" cType="1" res="-7.4129104614257812e-03" rms="3.8464498519897461e-01" purity="3.5495012998580933e-01" nType="0">
          <Node pos="l" depth="2" NCoef="0" IVar="-1" Cut="0.0000000000000000e+00" cType="1" res="-1.1543392203748226e-02" rms="4.0235379338264465e-01" purity="4.5684266090393066e-01" nType="-99"/>
          <Node pos="r" depth="2" NCoef="0" IVar="-1" Cut="0.0000000000000000e+00" cType="1" res="-6.8001827457919717e-04" rms="3.8225430250167847e-01" purity="3.4310105443000793e-01" nType="-99"/>
        </Node>
        <Node pos="r" depth="1" NCoef="0" IVar="8" Cut="-1.8420647084712982e-01" cType="1" res="3.2353831920772791e-03" rms="3.2910293340682983e-01" purity="5.7149791717529297e-01" nType="0">
          <Node pos="l" depth="2" NCoef="0" IVar="-1" Cut="0.0000000000000000e+00" cType="1" res="3.2801977358758450e-03" rms="3.3545857667922974e-01" purity="5.8230650424957275e-01" nType="-99"/>
          <Node pos="r" depth="2" NCoef="0" IVar="-1" Cut="0.0000000000000000e+00" cType="1" res="-9.9125423002988100e-04" rms="3.2577642798423767e-01" purity="5.6616574525833130e-01" nType="-99"/>
        </Node>
      </Node>
    </BinaryTree>
    <BinaryTree type="DecisionTree" boostWeight="1.0000000000000000e+00" itree="426">
      <Node pos="s" depth="0" NCoef="0" IVar="9" Cut="3.6931471824645996e+00" cType="1" res="2.6714944397099316e-04" rms="2.3063352704048157e-01" purity="4.9950894713401794e-01" nType="0">
        <Node pos="l" depth="1" NCoef="0" IVar="8" Cut="3.2129639387130737e-01" cType="1" res="-5.4524443112313747e-04" rms="3.4439322352409363e-01" purity="5.3705930709838867e-01" nType="0">
          <Node pos="l" depth="2" NCoef="0" IVar="-1" Cut="0.0000000000000000e+00" cType="1" res="5.4707302479073405e-04" rms="3.4344354271888733e-01" purity="5.4258787631988525e-01" nType="-99"/>
          <Node pos="r" depth="2" NCoef="0" IVar="-1" Cut="0.0000000000000000e+00" cType="1" res="-5.5121630430221558e-03" rms="3.5053849220275879e-01" purity="4.9752560257911682e-01" nType="-99"/>
        </Node>
        <Node pos="r" depth="1" NCoef="0" IVar="2" Cut="8.6149749755859375e+00" cType="1" res="8.8652211707085371e-04" rms="3.6906677484512329e-01" purity="4.1871187090873718e-01" nType="0">
          <Node pos="l" depth="2" NCoef="0" IVar="-1" Cut="0.0000000000000000e+00" cType="1" res="-3.9931130595505238e-03" rms="3.7460708618164062e-01" purity="3.8462111353874207e-01" nType="-99"/>
          <Node pos="r" depth="2" NCoef="0" IVar="-1" Cut="0.0000000000000000e+00" cType="1" res="2.0165820606052876e-03" rms="3.6752200126647949e-01" purity="4.2754521965980530e-01" nType="-99"/>
        </Node>
      </Node>
    </BinaryTree>
    <BinaryTree type="DecisionTree" boostWeight="1.0000000000000000e+00" itree="427">
      <Node pos="s" depth="0" NCoef="0" IVar="5" Cut="5.4657030105590820e+00" cType="1" res="1.5807444287929684e-04" rms="3.5173341631889343e-01" purity="4.9888625741004944e-01" nType="0">
        <Node pos="l" depth="1" NCoef="0" IVar="12" Cut="7.1398556232452393e-01" cType="1" res="1.8476145341992378e-02" rms="3.7347102165222168e-01" purity="5.6781065464019775e-01" nType="0">
          <Node pos="l" depth="2" NCoef="0" IVar="-1" Cut="0.0000000000000000e+00" cType="1" res="-2.4811143521219492e-03" rms="3.1833744049072266e-01" purity="7.7513796091079712e-01" nType="-99"/>
          <Node pos="r" depth="2" NCoef="0" IVar="-1" Cut="0.0000000000000000e+00" cType="1" res="9.2103723436594009e-03" rms="4.1817843914031982e-01" purity="3.6926946043968201e-01" nType="-99"/>
        </Node>
        <Node pos="r" depth="1" NCoef="0" IVar="13" Cut="7.1422004699707031e-01" cType="1" res="-1.7558897379785776e-03" rms="3.4932869672775269e-01" purity="4.9168470501899719e-01" nType="0">
          <Node pos="l" depth="2" NCoef="0" IVar="-1" Cut="0.0000000000000000e+00" cType="1" res="-1.0125045664608479e-03" rms="3.4984213113784790e-01" purity="4.5426318049430847e-01" nType="-99"/>
          <Node pos="r" depth="2" NCoef="0" IVar="-1" Cut="0.0000000000000000e+00" cType="1" res="4.1456073522567749e-03" rms="3.4522011876106262e-01" purity="7.6950979232788086e-01" nType="-99"/>
        </Node>
      </Node>
    </BinaryTree>
    <BinaryTree type="DecisionTree" boostWeight="1.0000000000000000e+00" itree="428">
      <Node pos="s" depth="0" NCoef="0" IVar="0" Cut="9.5696115493774414e+00" cType="1" res="-1.7739346949383616e-03" rms="3.5041898488998413e-01" purity="4.9565276503562927e-01" nType="0">
        <Node pos="l" depth="1" NCoef="0" IVar="4" Cut="-1.1766345798969269e-01" cType="1" res="1.3268413022160530e-03" rms="3.5790243744850159e-01" purity="4.6531677246093750e-01" nType="0">
          <Node pos="l" depth="2" NCoef="0" IVar="-1" Cut="0.0000000000000000e+00" cType="1" res="2.0590366329997778e-03" rms="3.4841236472129822e-01" purity="5.0508815050125122e-01" nType="-99"/>
          <Node pos="r" depth="2" NCoef="0" IVar="-1" Cut="0.0000000000000000e+00" cType="1" res="-2.4278345517814159e-03" rms="3.7660971283912659e-01" purity="3.8281753659248352e-01" nType="-99"/>
        </Node>
        <Node pos="r" depth="1" NCoef="0" IVar="13" Cut="1.4283587038516998e-01" cType="1" res="-8.3710467442870140e-03" rms="3.3384418487548828e-01" purity="5.6019455194473267e-01" nType="0">
          <Node pos="l" depth="2" NCoef="0" IVar="-1" Cut="0.0000000000000000e+00" cType="1" res="-4.7522570821456611e-04" rms="3.0500763654708862e-01" purity="5.0330644845962524e-01" nType="-99"/>
          <Node pos="r" depth="2" NCoef="0" IVar="-1" Cut="0.0000000000000000e+00" cType="1" res="-6.0634105466306210e-03" rms="3.8585829734802246e-01" purity="6.7670130729675293e-01" nType="-99"/>
        </Node>
      </Node>
    </BinaryTree>
    <BinaryTree type="DecisionTree" boostWeight="1.0000000000000000e+00" itree="429">
      <Node pos="s" depth="0" NCoef="0" IVar="7" Cut="-5.4315295070409775e-02" cType="1" res="1.4569401973858476e-03" rms="3.4949308633804321e-01" purity="5.0140219926834106e-01" nType="0">
        <Node pos="l" depth="1" NCoef="0" IVar="8" Cut="-4.0448108315467834e-01" cType="1" res="7.6751615852117538e-03" rms="3.5121574997901917e-01" purity="5.2489644289016724e-01" nType="0">
          <Node pos="l" depth="2" NCoef="0" IVar="-1" Cut="0.0000000000000000e+00" cType="1" res="4.7449655830860138e-03" rms="3.9179897308349609e-01" purity="5.4367506504058838e-01" nType="-99"/>
          <Node pos="r" depth="2" NCoef="0" IVar="-1" Cut="0.0000000000000000e+00" cType="1" res="6.6965311998501420e-04" rms="3.4087687730789185e-01" purity="5.2055394649505615e-01" nType="-99"/>
        </Node>
        <Node pos="r" depth="1" NCoef="0" IVar="0" Cut="1.0228524208068848e+01" cType="1" res="-2.7956126723438501e-03" rms="3.4824612736701965e-01" purity="4.8533484339714050e-01" nType="0">
          <Node pos="l" depth="2" NCoef="0" IVar="-1" Cut="0.0000000000000000e+00" cType="1" res="1.3965852303954307e-05" rms="3.4654349088668823e-01" purity="4.7686988115310669e-01" nType="-99"/>
          <Node pos="r" depth="2" NCoef="0" IVar="-1" Cut="0.0000000000000000e+00" cType="1" res="-4.7745914198458195e-03" rms="3.5761454701423645e-01" purity="5.3497570753097534e-01" nType="-99"/>
        </Node>
      </Node>
    </BinaryTree>
    <BinaryTree type="DecisionTree" boostWeight="1.0000000000000000e+00" itree="430">
      <Node pos="s" depth="0" NCoef="0" IVar="5" Cut="8.6248874664306641e+00" cType="1" res="-1.0019034380093217e-03" rms="3.5170996189117432e-01" purity="4.9858739972114563e-01" nType="0">
        <Node pos="l" depth="1" NCoef="0" IVar="3" Cut="5.3171759843826294e-01" cType="1" res="2.9881513910368085e-05" rms="3.4997737407684326e-01" purity="5.0110751390457153e-01" nType="0">
          <Node pos="l" depth="2" NCoef="0" IVar="-1" Cut="0.0000000000000000e+00" cType="1" res="1.4372692676261067e-03" rms="3.4074485301971436e-01" purity="5.9743678569793701e-01" nType="-99"/>
          <Node pos="r" depth="2" NCoef="0" IVar="-1" Cut="0.0000000000000000e+00" cType="1" res="-1.8099112203344703e-03" rms="3.6415299773216248e-01" purity="3.4700277447700500e-01" nType="-99"/>
        </Node>
        <Node pos="r" depth="1" NCoef="0" IVar="-1" Cut="0.0000000000000000e+00" cType="1" res="-7.0641292259097099e-03" rms="4.0386846661567688e-01" purity="4.1435393691062927e-01" nType="-99"/>
      </Node>
    </BinaryTree>
    <BinaryTree type="DecisionTree" boostWeight="1.0000000000000000e+00" itree="431">
      <Node pos="s" depth="0" NCoef="0" IVar="13" Cut="1.9045832753181458e-01" cType="1" res="5.5787671590223908e-04" rms="3.4895521402359009e-01" purity="4.9848261475563049e-01" nType="0">
        <Node pos="l" depth="1" NCoef="0" IVar="4" Cut="-2.4496097564697266e+00" cType="1" res="-2.7167205698788166e-03" rms="3.4620073437690735e-01" purity="3.6843314766883850e-01" nType="0">
          <Node pos="l" depth="2" NCoef="0" IVar="-1" Cut="0.0000000000000000e+00" cType="1" res="6.9274329580366611e-03" rms="3.1752556562423706e-01" purity="4.8609650135040283e-01" nType="-99"/>
          <Node pos="r" depth="2" NCoef="0" IVar="-1" Cut="0.0000000000000000e+00" cType="1" res="-1.3309495989233255e-03" rms="3.4834769368171692e-01" purity="3.5891199111938477e-01" nType="-99"/>
        </Node>
        <Node pos="r" depth="1" NCoef="0" IVar="13" Cut="8.8427728414535522e-01" cType="1" res="7.9371640458703041e-03" rms="3.5497334599494934e-01" purity="7.9154849052429199e-01" nType="0">
          <Node pos="l" depth="2" NCoef="0" IVar="-1" Cut="0.0000000000000000e+00" cType="1" res="3.3760736696422100e-03" rms="3.5571461915969849e-01" purity="8.1258344650268555e-01" nType="-99"/>
          <Node pos="r" depth="2" NCoef="0" IVar="-1" Cut="0.0000000000000000e+00" cType="1" res="-7.3361652903258801e-03" rms="3.4611338376998901e-01" purity="5.7620900869369507e-01" nType="-99"/>
        </Node>
      </Node>
    </BinaryTree>
    <BinaryTree type="DecisionTree" boostWeight="1.0000000000000000e+00" itree="432">
      <Node pos="s" depth="0" NCoef="0" IVar="0" Cut="1.0228381156921387e+01" cType="1" res="1.1022597318515182e-03" rms="3.5062357783317566e-01" purity="5.0133723020553589e-01" nType="0">
        <Node pos="l" depth="1" NCoef="0" IVar="6" Cut="-1.4084670543670654e+00" cType="1" res="-1.1385567486286163e-03" rms="3.5154983401298523e-01" purity="4.8738491535186768e-01" nType="0">
          <Node pos="l" depth="2" NCoef="0" IVar="-1" Cut="0.0000000000000000e+00" cType="1" res="-9.2745933216065168e-04" rms="3.4747275710105896e-01" purity="5.1168829202651978e-01" nType="-99"/>
          <Node pos="r" depth="2" NCoef="0" IVar="-1" Cut="0.0000000000000000e+00" cType="1" res="3.4536353778094053e-03" rms="3.8150745630264282e-01" purity="2.9815062880516052e-01" nType="-99"/>
        </Node>
        <Node pos="r" depth="1" NCoef="0" IVar="1" Cut="6.7839221954345703e+00" cType="1" res="1.5789309516549110e-02" rms="3.4412980079650879e-01" purity="5.9278547763824463e-01" nType="0">
          <Node pos="l" depth="2" NCoef="0" IVar="-1" Cut="0.0000000000000000e+00" cType="1" res="8.5248257964849472e-03" rms="3.3420795202255249e-01" purity="5.3967052698135376e-01" nType="-99"/>
          <Node pos="r" depth="2" NCoef="0" IVar="-1" Cut="0.0000000000000000e+00" cType="1" res="1.8181978957727551e-03" rms="3.4708210825920105e-01" purity="6.1118727922439575e-01" nType="-99"/>
        </Node>
      </Node>
    </BinaryTree>
    <BinaryTree type="DecisionTree" boostWeight="1.0000000000000000e+00" itree="433">
      <Node pos="s" depth="0" NCoef="0" IVar="3" Cut="5.3135865926742554e-01" cType="1" res="2.2151297889649868e-03" rms="3.4934356808662415e-01" purity="5.0456935167312622e-01" nType="0">
        <Node pos="l" depth="1" NCoef="0" IVar="6" Cut="-1.1668993234634399e+00" cType="1" res="-1.7958547687157989e-03" rms="3.3617001771926880e-01" purity="5.8845955133438110e-01" nType="0">
          <Node pos="l" depth="2" NCoef="0" IVar="-1" Cut="0.0000000000000000e+00" cType="1" res="5.9874346334254369e-05" rms="3.3193069696426392e-01" purity="6.0938233137130737e-01" nType="-99"/>
          <Node pos="r" depth="2" NCoef="0" IVar="-1" Cut="0.0000000000000000e+00" cType="1" res="-7.3519544675946236e-03" rms="3.8968199491500854e-01" purity="2.9548934102058411e-01" nType="-99"/>
        </Node>
        <Node pos="r" depth="1" NCoef="0" IVar="4" Cut="-1.8919867277145386e+00" cType="1" res="8.5065327584743500e-03" rms="3.6897301673889160e-01" purity="3.7298384308815002e-01" nType="0">
          <Node pos="l" depth="2" NCoef="0" IVar="-1" Cut="0.0000000000000000e+00" cType="1" res="-6.9602155126631260e-03" rms="3.6300492286682129e-01" purity="3.4543144702911377e-01" nType="-99"/>
          <Node pos="r" depth="2" NCoef="0" IVar="-1" Cut="0.0000000000000000e+00" cType="1" res="3.1015798449516296e-03" rms="3.6949604749679565e-01" purity="3.7635144591331482e-01" nType="-99"/>
        </Node>
      </Node>
    </BinaryTree>
    <BinaryTree type="DecisionTree" boostWeight="1.0000000000000000e+00" itree="434">
      <Node pos="s" depth="0" NCoef="0" IVar="7" Cut="-5.0386494398117065e-01" cType="1" res="1.6553649911656976e-03" rms="3.5164543986320496e-01" purity="5.0130146741867065e-01" nType="0">
        <Node pos="l" depth="1" NCoef="0" IVar="11" Cut="4.7630891203880310e-02" cType="1" res="-7.6998551376163960e-03" rms="3.5593450069427490e-01" purity="5.1089519262313843e-01" nType="0">
          <Node pos="l" depth="2" NCoef="0" IVar="-1" Cut="0.0000000000000000e+00" cType="1" res="5.0829271785914898e-03" rms="2.5020936131477356e-01" purity="7.5140111148357391e-02" nType="-99"/>
          <Node pos="r" depth="2" NCoef="0" IVar="-1" Cut="0.0000000000000000e+00" cType="1" res="-3.4592428710311651e-03" rms="3.9070945978164673e-01" purity="6.8847519159317017e-01" nType="-99"/>
        </Node>
        <Node pos="r" depth="1" NCoef="0" IVar="10" Cut="2.0000000000000000e+00" cType="1" res="2.7141356840729713e-03" rms="2.6519280672073364e-01" purity="4.9884200096130371e-01" nType="0">
          <Node pos="l" depth="2" NCoef="0" IVar="-1" Cut="0.0000000000000000e+00" cType="1" res="-6.2372029060497880e-04" rms="3.4139505028724670e-01" purity="5.4570555686950684e-01" nType="-99"/>
          <Node pos="r" depth="2" NCoef="0" IVar="-1" Cut="0.0000000000000000e+00" cType="1" res="3.1063756905496120e-03" rms="3.5923972725868225e-01" purity="4.5210924744606018e-01" nType="-99"/>
        </Node>
      </Node>
    </BinaryTree>
    <BinaryTree type="DecisionTree" boostWeight="1.0000000000000000e+00" itree="435">
      <Node pos="s" depth="0" NCoef="0" IVar="7" Cut="-5.1492577791213989e-01" cType="1" res="5.7372369337826967e-04" rms="3.4730002284049988e-01" purity="4.9979406595230103e-01" nType="0">
        <Node pos="l" depth="1" NCoef="0" IVar="4" Cut="-3.3514079451560974e-01" cType="1" res="-1.1741320602595806e-02" rms="3.5634061694145203e-01" purity="5.0387179851531982e-01" nType="0">
          <Node pos="l" depth="2" NCoef="0" IVar="-1" Cut="0.0000000000000000e+00" cType="1" res="-9.9637976381927729e-04" rms="3.3992344141006470e-01" purity="5.6924545764923096e-01" nType="-99"/>
          <Node pos="r" depth="2" NCoef="0" IVar="-1" Cut="0.0000000000000000e+00" cType="1" res="-5.6507377885282040e-03" rms="3.7578579783439636e-01" purity="4.2120975255966187e-01" nType="-99"/>
        </Node>
        <Node pos="r" depth="1" NCoef="0" IVar="12" Cut="8.5692673921585083e-01" cType="1" res="3.5368565004318953e-03" rms="3.4502381086349487e-01" purity="4.9881297349929810e-01" nType="0">
          <Node pos="l" depth="2" NCoef="0" IVar="-1" Cut="0.0000000000000000e+00" cType="1" res="1.7473914194852114e-03" rms="3.7555956840515137e-01" purity="6.7626816034317017e-01" nType="-99"/>
          <Node pos="r" depth="2" NCoef="0" IVar="-1" Cut="0.0000000000000000e+00" cType="1" res="-1.9321107538416982e-03" rms="2.6293087005615234e-01" purity="9.6963785588741302e-02" nType="-99"/>
        </Node>
      </Node>
    </BinaryTree>
    <BinaryTree type="DecisionTree" boostWeight="1.0000000000000000e+00" itree="436">
      <Node pos="s" depth="0" NCoef="0" IVar="8" Cut="-5.3513187170028687e-01" cType="1" res="7.5000338256359100e-04" rms="3.4943890571594238e-01" purity="5.0185257196426392e-01" nType="0">
        <Node pos="l" depth="1" NCoef="0" IVar="0" Cut="8.4663629531860352e+00" cType="1" res="1.5391080640256405e-02" rms="3.8040357828140259e-01" purity="5.2848756313323975e-01" nType="0">
          <Node pos="l" depth="2" NCoef="0" IVar="-1" Cut="0.0000000000000000e+00" cType="1" res="-5.3238635882735252e-04" rms="4.1447472572326660e-01" purity="4.6569892764091492e-01" nType="-99"/>
          <Node pos="r" depth="2" NCoef="0" IVar="-1" Cut="0.0000000000000000e+00" cType="1" res="3.4673702903091908e-03" rms="3.5562136769294739e-01" purity="5.6985908746719360e-01" nType="-99"/>
        </Node>
        <Node pos="r" depth="1" NCoef="0" IVar="0" Cut="8.4722490310668945e+00" cType="1" res="-9.7201741300523281e-04" rms="3.4557393193244934e-01" purity="4.9871990084648132e-01" nType="0">
          <Node pos="l" depth="2" NCoef="0" IVar="-1" Cut="0.0000000000000000e+00" cType="1" res="2.8817390557378531e-03" rms="3.9979502558708191e-01" purity="4.0209534764289856e-01" nType="-99"/>
          <Node pos="r" depth="2" NCoef="0" IVar="-1" Cut="0.0000000000000000e+00" cType="1" res="-1.8847608007490635e-03" rms="3.2549059391021729e-01" purity="5.3080123662948608e-01" nType="-99"/>
        </Node>
      </Node>
    </BinaryTree>
    <BinaryTree type="DecisionTree" boostWeight="1.0000000000000000e+00" itree="437">
      <Node pos="s" depth="0" NCoef="0" IVar="9" Cut="3.6931471824645996e+00" cType="1" res="5.7327153626829386e-04" rms="2.3106513917446136e-01" purity="5.0246763229370117e-01" nType="0">
        <Node pos="l" depth="1" NCoef="0" IVar="8" Cut="-2.5483122467994690e-01" cType="1" res="4.1706464253365993e-03" rms="3.4190955758094788e-01" purity="5.4097700119018555e-01" nType="0">
          <Node pos="l" depth="2" NCoef="0" IVar="-1" Cut="0.0000000000000000e+00" cType="1" res="2.7026380412280560e-03" rms="3.5863840579986572e-01" purity="5.4982256889343262e-01" nType="-99"/>
          <Node pos="r" depth="2" NCoef="0" IVar="-1" Cut="0.0000000000000000e+00" cType="1" res="-1.7895395285449922e-04" rms="3.3450037240982056e-01" purity="5.3725033998489380e-01" nType="-99"/>
        </Node>
        <Node pos="r" depth="1" NCoef="0" IVar="2" Cut="8.9629087448120117e+00" cType="1" res="2.7313705068081617e-03" rms="3.6662054061889648e-01" purity="4.1972601413726807e-01" nType="0">
          <Node pos="l" depth="2" NCoef="0" IVar="-1" Cut="0.0000000000000000e+00" cType="1" res="3.8223082665354013e-03" rms="3.7439811229705811e-01" purity="4.2124202847480774e-01" nType="-99"/>
          <Node pos="r" depth="2" NCoef="0" IVar="-1" Cut="0.0000000000000000e+00" cType="1" res="-2.6940535753965378e-03" rms="3.6005872488021851e-01" purity="4.1850873827934265e-01" nType="-99"/>
        </Node>
      </Node>
    </BinaryTree>
    <BinaryTree type="DecisionTree" boostWeight="1.0000000000000000e+00" itree="438">
      <Node pos="s" depth="0" NCoef="0" IVar="9" Cut="3.6931471824645996e+00" cType="1" res="-1.6424998466391116e-04" rms="2.3090898990631104e-01" purity="4.9837070703506470e-01" nType="0">
        <Node pos="l" depth="1" NCoef="0" IVar="11" Cut="9.5235295593738556e-02" cType="1" res="-1.9979157950729132e-03" rms="3.4545746445655823e-01" purity="5.3762841224670410e-01" nType="0">
          <Node pos="l" depth="2" NCoef="0" IVar="-1" Cut="0.0000000000000000e+00" cType="1" res="1.7002875683829188e-03" rms="3.0869799852371216e-01" purity="1.5005174279212952e-01" nType="-99"/>
          <Node pos="r" depth="2" NCoef="0" IVar="-1" Cut="0.0000000000000000e+00" cType="1" res="-1.5863395528867841e-03" rms="3.6640048027038574e-01" purity="7.7877986431121826e-01" nType="-99"/>
        </Node>
        <Node pos="r" depth="1" NCoef="0" IVar="12" Cut="8.5662996768951416e-01" cType="1" res="-5.4684886708855629e-04" rms="3.6433109641075134e-01" purity="4.1546329855918884e-01" nType="0">
          <Node pos="l" depth="2" NCoef="0" IVar="-1" Cut="0.0000000000000000e+00" cType="1" res="1.1194584658369422e-03" rms="4.0927430987358093e-01" purity="5.8201062679290771e-01" nType="-99"/>
          <Node pos="r" depth="2" NCoef="0" IVar="-1" Cut="0.0000000000000000e+00" cType="1" res="-6.4871064387261868e-03" rms="2.4977071583271027e-01" purity="7.8944429755210876e-02" nType="-99"/>
        </Node>
      </Node>
    </BinaryTree>
    <BinaryTree type="DecisionTree" boostWeight="1.0000000000000000e+00" itree="439">
      <Node pos="s" depth="0" NCoef="0" IVar="6" Cut="-1.6518080234527588e+00" cType="1" res="1.7329598776996136e-03" rms="3.4882780909538269e-01" purity="5.0172513723373413e-01" nType="0">
        <Node pos="l" depth="1" NCoef="0" IVar="2" Cut="9.3169393539428711e+00" cType="1" res="4.3325759470462799e-03" rms="3.4337398409843445e-01" purity="5.3627467155456543e-01" nType="0">
          <Node pos="l" depth="2" NCoef="0" IVar="-1" Cut="0.0000000000000000e+00" cType="1" res="2.0729824900627136e-03" rms="3.4769761562347412e-01" purity="5.3175413608551025e-01" nType="-99"/>
          <Node pos="r" depth="2" NCoef="0" IVar="-1" Cut="0.0000000000000000e+00" cType="1" res="-1.6948987031355500e-03" rms="3.3319076895713806e-01" purity="5.4656159877777100e-01" nType="-99"/>
        </Node>
        <Node pos="r" depth="1" NCoef="0" IVar="12" Cut="8.5685861110687256e-01" cType="1" res="-1.3544129207730293e-02" rms="3.7893664836883545e-01" purity="2.9868873953819275e-01" nType="0">
          <Node pos="l" depth="2" NCoef="0" IVar="-1" Cut="0.0000000000000000e+00" cType="1" res="-6.4317788928747177e-03" rms="4.1964212059974670e-01" purity="4.0771722793579102e-01" nType="-99"/>
          <Node pos="r" depth="2" NCoef="0" IVar="-1" Cut="0.0000000000000000e+00" cType="1" res="6.0721049085259438e-03" rms="3.0255740880966187e-01" purity="1.2829191982746124e-01" nType="-99"/>
        </Node>
      </Node>
    </BinaryTree>
    <BinaryTree type="DecisionTree" boostWeight="1.0000000000000000e+00" itree="440">
      <Node pos="s" depth="0" NCoef="0" IVar="11" Cut="4.2850303649902344e-01" cType="1" res="-3.1877374276518822e-03" rms="3.4814593195915222e-01" purity="4.9592885375022888e-01" nType="0">
        <Node pos="l" depth="1" NCoef="0" IVar="8" Cut="-5.5320686101913452e-01" cType="1" res="-8.2601774483919144e-03" rms="3.5780596733093262e-01" purity="2.6334071159362793e-01" nType="0">
          <Node pos="l" depth="2" NCoef="0" IVar="-1" Cut="0.0000000000000000e+00" cType="1" res="-4.0905056521296501e-03" rms="4.1498228907585144e-01" purity="3.6289778351783752e-01" nType="-99"/>
          <Node pos="r" depth="2" NCoef="0" IVar="-1" Cut="0.0000000000000000e+00" cType="1" res="-1.4716231962665915e-03" rms="3.4938290715217590e-01" purity="2.5019401311874390e-01" nType="-99"/>
        </Node>
        <Node pos="r" depth="1" NCoef="0" IVar="4" Cut="3.8062912225723267e-01" cType="1" res="4.6101585030555725e-03" rms="3.3259814977645874e-01" purity="8.5348814725875854e-01" nType="0">
          <Node pos="l" depth="2" NCoef="0" IVar="-1" Cut="0.0000000000000000e+00" cType="1" res="1.0217380477115512e-03" rms="3.2386696338653564e-01" purity="8.6203205585479736e-01" nType="-99"/>
          <Node pos="r" depth="2" NCoef="0" IVar="-1" Cut="0.0000000000000000e+00" cType="1" res="5.4859458468854427e-03" rms="4.1270115971565247e-01" purity="7.6382803916931152e-01" nType="-99"/>
        </Node>
      </Node>
    </BinaryTree>
    <BinaryTree type="DecisionTree" boostWeight="1.0000000000000000e+00" itree="441">
      <Node pos="s" depth="0" NCoef="0" IVar="1" Cut="5.1675124168395996e+00" cType="1" res="-3.1807334162294865e-03" rms="3.4896230697631836e-01" purity="4.9617600440979004e-01" nType="0">
        <Node pos="l" depth="1" NCoef="0" IVar="12" Cut="8.0977123975753784e-01" cType="1" res="-2.7193244546651840e-02" rms="3.9886167645454407e-01" purity="2.4026983976364136e-01" nType="0">
          <Node pos="l" depth="2" NCoef="0" IVar="-1" Cut="0.0000000000000000e+00" cType="1" res="-9.2520704492926598e-03" rms="4.0836256742477417e-01" purity="2.7352431416511536e-01" nType="-99"/>
          <Node pos="r" depth="2" NCoef="0" IVar="-1" Cut="0.0000000000000000e+00" cType="1" res="-1.7690537497401237e-03" rms="3.8849946856498718e-01" purity="2.0823886990547180e-01" nType="-99"/>
        </Node>
        <Node pos="r" depth="1" NCoef="0" IVar="9" Cut="3.6931471824645996e+00" cType="1" res="-5.5245531257241964e-04" rms="2.1708543598651886e-01" purity="5.1180648803710938e-01" nType="0">
          <Node pos="l" depth="2" NCoef="0" IVar="-1" Cut="0.0000000000000000e+00" cType="1" res="3.7767810863442719e-04" rms="3.3578702807426453e-01" purity="5.5426853895187378e-01" nType="-99"/>
          <Node pos="r" depth="2" NCoef="0" IVar="-1" Cut="0.0000000000000000e+00" cType="1" res="-3.2716218847781420e-03" rms="3.6573410034179688e-01" purity="4.2082396149635315e-01" nType="-99"/>
        </Node>
      </Node>
    </BinaryTree>
    <BinaryTree type="DecisionTree" boostWeight="1.0000000000000000e+00" itree="442">
      <Node pos="s" depth="0" NCoef="0" IVar="9" Cut="3.6931471824645996e+00" cType="1" res="-2.4561394820921123e-04" rms="2.3119364678859711e-01" purity="5.0063580274581909e-01" nType="0">
        <Node pos="l" depth="1" NCoef="0" IVar="12" Cut="7.1401584148406982e-01" cType="1" res="-6.0487195150926709e-04" rms="3.4631842374801636e-01" purity="5.3801262378692627e-01" nType="0">
          <Node pos="l" depth="2" NCoef="0" IVar="-1" Cut="0.0000000000000000e+00" cType="1" res="-1.4705935027450323e-03" rms="3.5401982069015503e-01" purity="7.6792305707931519e-01" nType="-99"/>
          <Node pos="r" depth="2" NCoef="0" IVar="-1" Cut="0.0000000000000000e+00" cType="1" res="1.7584568122401834e-03" rms="3.3480083942413330e-01" purity="2.0722925662994385e-01" nType="-99"/>
        </Node>
        <Node pos="r" depth="1" NCoef="0" IVar="13" Cut="1.4284488558769226e-01" cType="1" res="5.7704988867044449e-03" rms="3.6435896158218384e-01" purity="4.2086076736450195e-01" nType="0">
          <Node pos="l" depth="2" NCoef="0" IVar="-1" Cut="0.0000000000000000e+00" cType="1" res="6.4977699366863817e-05" rms="3.4496092796325684e-01" purity="2.7474221587181091e-01" nType="-99"/>
          <Node pos="r" depth="2" NCoef="0" IVar="-1" Cut="0.0000000000000000e+00" cType="1" res="6.1124037019908428e-03" rms="4.0128776431083679e-01" purity="7.2325164079666138e-01" nType="-99"/>
        </Node>
      </Node>
    </BinaryTree>
    <BinaryTree type="DecisionTree" boostWeight="1.0000000000000000e+00" itree="443">
      <Node pos="s" depth="0" NCoef="0" IVar="0" Cut="8.0374441146850586e+00" cType="1" res="-2.6348293758928776e-03" rms="3.4873679280281067e-01" purity="4.9767443537712097e-01" nType="0">
        <Node pos="l" depth="1" NCoef="0" IVar="13" Cut="4.0763210505247116e-02" cType="1" res="-2.4404386058449745e-02" rms="4.3228900432586670e-01" purity="3.3816629648208618e-01" nType="0">
          <Node pos="l" depth="2" NCoef="0" IVar="-1" Cut="0.0000000000000000e+00" cType="1" res="-1.4105386799201369e-03" rms="4.0954005718231201e-01" purity="2.6324889063835144e-01" nType="-99"/>
          <Node pos="r" depth="2" NCoef="0" IVar="-1" Cut="0.0000000000000000e+00" cType="1" res="-8.4399944171309471e-03" rms="4.5522955060005188e-01" purity="4.2058479785919189e-01" nType="-99"/>
        </Node>
        <Node pos="r" depth="1" NCoef="0" IVar="7" Cut="5.1342374086380005e-01" cType="1" res="1.4153421216178685e-04" rms="3.3649185299873352e-01" purity="5.1801717281341553e-01" nType="0">
          <Node pos="l" depth="2" NCoef="0" IVar="-1" Cut="0.0000000000000000e+00" cType="1" res="1.0121777886524796e-03" rms="3.3691164851188660e-01" purity="5.4055398702621460e-01" nType="-99"/>
          <Node pos="r" depth="2" NCoef="0" IVar="-1" Cut="0.0000000000000000e+00" cType="1" res="-2.8258736710995436e-03" rms="3.3510524034500122e-01" purity="4.5240387320518494e-01" nType="-99"/>
        </Node>
      </Node>
    </BinaryTree>
    <BinaryTree type="DecisionTree" boostWeight="1.0000000000000000e+00" itree="444">
      <Node pos="s" depth="0" NCoef="0" IVar="9" Cut="4.0000000000000000e+00" cType="1" res="6.1765097780153155e-04" rms="2.2752051055431366e-01" purity="4.9777337908744812e-01" nType="0">
        <Node pos="l" depth="1" NCoef="0" IVar="12" Cut="9.5214456319808960e-02" cType="1" res="2.2277065727394074e-04" rms="3.4761068224906921e-01" purity="5.1006299257278442e-01" nType="0">
          <Node pos="l" depth="2" NCoef="0" IVar="-1" Cut="0.0000000000000000e+00" cType="1" res="-2.3172185756266117e-03" rms="3.1655201315879822e-01" purity="8.4176343679428101e-01" nType="-99"/>
          <Node pos="r" depth="2" NCoef="0" IVar="-1" Cut="0.0000000000000000e+00" cType="1" res="6.9784611696377397e-04" rms="3.5975211858749390e-01" purity="3.7161701917648315e-01" nType="-99"/>
        </Node>
        <Node pos="r" depth="1" NCoef="0" IVar="7" Cut="1.5670950710773468e-01" cType="1" res="-8.5670603439211845e-03" rms="3.7298884987831116e-01" purity="3.7171500921249390e-01" nType="0">
          <Node pos="l" depth="2" NCoef="0" IVar="-1" Cut="0.0000000000000000e+00" cType="1" res="-1.0636901482939720e-02" rms="3.6935931444168091e-01" purity="3.7738114595413208e-01" nType="-99"/>
          <Node pos="r" depth="2" NCoef="0" IVar="-1" Cut="0.0000000000000000e+00" cType="1" res="9.5112307462841272e-04" rms="3.7652373313903809e-01" purity="3.6572408676147461e-01" nType="-99"/>
        </Node>
      </Node>
    </BinaryTree>
    <BinaryTree type="DecisionTree" boostWeight="1.0000000000000000e+00" itree="445">
      <Node pos="s" depth="0" NCoef="0" IVar="8" Cut="-5.3513187170028687e-01" cType="1" res="-2.1086770575493574e-03" rms="3.4956443309783936e-01" purity="5.0220966339111328e-01" nType="0">
        <Node pos="l" depth="1" NCoef="0" IVar="0" Cut="8.4358816146850586e+00" cType="1" res="-1.7867552116513252e-02" rms="3.9938244223594666e-01" purity="5.0578665733337402e-01" nType="0">
          <Node pos="l" depth="2" NCoef="0" IVar="-1" Cut="0.0000000000000000e+00" cType="1" res="-4.8154494725167751e-03" rms="4.2572501301765442e-01" purity="4.2498359084129333e-01" nType="-99"/>
          <Node pos="r" depth="2" NCoef="0" IVar="-1" Cut="0.0000000000000000e+00" cType="1" res="-9.5057708676904440e-04" rms="3.8210687041282654e-01" purity="5.5507832765579224e-01" nType="-99"/>
        </Node>
        <Node pos="r" depth="1" NCoef="0" IVar="9" Cut="3.6931471824645996e+00" cType="1" res="-8.9361198479309678e-04" rms="2.2067396342754364e-01" purity="5.0178456306457520e-01" nType="0">
          <Node pos="l" depth="2" NCoef="0" IVar="-1" Cut="0.0000000000000000e+00" cType="1" res="3.8791124825365841e-04" rms="3.3380302786827087e-01" purity="5.4341906309127808e-01" nType="-99"/>
          <Node pos="r" depth="2" NCoef="0" IVar="-1" Cut="0.0000000000000000e+00" cType="1" res="-1.5003250446170568e-03" rms="3.6206418275833130e-01" purity="4.1344028711318970e-01" nType="-99"/>
        </Node>
      </Node>
    </BinaryTree>
    <BinaryTree type="DecisionTree" boostWeight="1.0000000000000000e+00" itree="446">
      <Node pos="s" depth="0" NCoef="0" IVar="0" Cut="8.2553510665893555e+00" cType="1" res="-2.4387497978750616e-04" rms="3.5246589779853821e-01" purity="4.9974343180656433e-01" nType="0">
        <Node pos="l" depth="1" NCoef="0" IVar="11" Cut="4.6076521277427673e-02" cType="1" res="-1.1769362725317478e-02" rms="4.1865390539169312e-01" purity="3.7404021620750427e-01" nType="0">
          <Node pos="l" depth="2" NCoef="0" IVar="-1" Cut="0.0000000000000000e+00" cType="1" res="7.4430513195693493e-03" rms="3.1793427467346191e-01" purity="1.3137751817703247e-01" nType="-99"/>
          <Node pos="r" depth="2" NCoef="0" IVar="-1" Cut="0.0000000000000000e+00" cType="1" res="-4.2639672756195068e-03" rms="4.4749727845191956e-01" purity="4.5719504356384277e-01" nType="-99"/>
        </Node>
        <Node pos="r" depth="1" NCoef="0" IVar="8" Cut="-5.7779413461685181e-01" cType="1" res="2.4235099554061890e-03" rms="3.3523461222648621e-01" purity="5.2883535623550415e-01" nType="0">
          <Node pos="l" depth="2" NCoef="0" IVar="-1" Cut="0.0000000000000000e+00" cType="1" res="3.1431631650775671e-03" rms="3.8149729371070862e-01" purity="5.6812524795532227e-01" nType="-99"/>
          <Node pos="r" depth="2" NCoef="0" IVar="-1" Cut="0.0000000000000000e+00" cType="1" res="1.1256743891863152e-04" rms="3.3091107010841370e-01" purity="5.2549129724502563e-01" nType="-99"/>
        </Node>
      </Node>
    </BinaryTree>
    <BinaryTree type="DecisionTree" boostWeight="1.0000000000000000e+00" itree="447">
      <Node pos="s" depth="0" NCoef="0" IVar="1" Cut="7.3700771331787109e+00" cType="1" res="-1.0703860316425562e-03" rms="3.5142284631729126e-01" purity="4.9783736467361450e-01" nType="0">
        <Node pos="l" depth="1" NCoef="0" IVar="0" Cut="1.0561393737792969e+01" cType="1" res="3.0062644509598613e-04" rms="3.5545262694358826e-01" purity="4.8454773426055908e-01" nType="0">
          <Node pos="l" depth="2" NCoef="0" IVar="-1" Cut="0.0000000000000000e+00" cType="1" res="-3.6228806129656732e-04" rms="3.5453376173973083e-01" purity="4.8121199011802673e-01" nType="-99"/>
          <Node pos="r" depth="2" NCoef="0" IVar="-1" Cut="0.0000000000000000e+00" cType="1" res="7.3709432035684586e-03" rms="3.7438356876373291e-01" purity="5.6161034107208252e-01" nType="-99"/>
        </Node>
        <Node pos="r" depth="1" NCoef="0" IVar="3" Cut="-8.1240497529506683e-02" cType="1" res="-1.2912903912365437e-02" rms="3.1422331929206848e-01" purity="6.1263060569763184e-01" nType="0">
          <Node pos="l" depth="2" NCoef="0" IVar="-1" Cut="0.0000000000000000e+00" cType="1" res="1.0361015796661377e-02" rms="2.2949634492397308e-01" purity="8.2170808315277100e-01" nType="-99"/>
          <Node pos="r" depth="2" NCoef="0" IVar="-1" Cut="0.0000000000000000e+00" cType="1" res="-1.0213744826614857e-02" rms="3.7065005302429199e-01" purity="4.2991670966148376e-01" nType="-99"/>
        </Node>
      </Node>
    </BinaryTree>
    <BinaryTree type="DecisionTree" boostWeight="1.0000000000000000e+00" itree="448">
      <Node pos="s" depth="0" NCoef="0" IVar="2" Cut="8.9995059967041016e+00" cType="1" res="-1.7365468665957451e-03" rms="3.5088020563125610e-01" purity="4.9891525506973267e-01" nType="0">
        <Node pos="l" depth="1" NCoef="0" IVar="8" Cut="-3.4805208444595337e-01" cType="1" res="-1.0384595021605492e-02" rms="3.5889467597007751e-01" purity="4.7311052680015564e-01" nType="0">
          <Node pos="l" depth="2" NCoef="0" IVar="-1" Cut="0.0000000000000000e+00" cType="1" res="-3.9147124625742435e-03" rms="3.9386731386184692e-01" purity="4.6833434700965881e-01" nType="-99"/>
          <Node pos="r" depth="2" NCoef="0" IVar="-1" Cut="0.0000000000000000e+00" cType="1" res="-1.4014020562171936e-03" rms="3.4869474172592163e-01" purity="4.7439372539520264e-01" nType="-99"/>
        </Node>
        <Node pos="r" depth="1" NCoef="0" IVar="8" Cut="-4.0723812580108643e-01" cType="1" res="5.3220139816403389e-03" rms="3.4403941035270691e-01" purity="5.1997709274291992e-01" nType="0">
          <Node pos="l" depth="2" NCoef="0" IVar="-1" Cut="0.0000000000000000e+00" cType="1" res="4.1225058957934380e-03" rms="3.6777335405349731e-01" purity="5.4347229003906250e-01" nType="-99"/>
          <Node pos="r" depth="2" NCoef="0" IVar="-1" Cut="0.0000000000000000e+00" cType="1" res="1.1788025731220841e-03" rms="3.3902665972709656e-01" purity="5.1528418064117432e-01" nType="-99"/>
        </Node>
      </Node>
    </BinaryTree>
    <BinaryTree type="DecisionTree" boostWeight="1.0000000000000000e+00" itree="449">
      <Node pos="s" depth="0" NCoef="0" IVar="9" Cut="3.6931471824645996e+00" cType="1" res="2.0054911728948355e-03" rms="2.3181982338428497e-01" purity="5.0106620788574219e-01" nType="0">
        <Node pos="l" depth="1" NCoef="0" IVar="12" Cut="2.3804160952568054e-01" cType="1" res="1.4195777475833893e-03" rms="3.4268292784690857e-01" purity="5.4105597734451294e-01" nType="0">
          <Node pos="l" depth="2" NCoef="0" IVar="-1" Cut="0.0000000000000000e+00" cType="1" res="-1.5914345858618617e-03" rms="3.1318911910057068e-01" purity="8.4554898738861084e-01" nType="-99"/>
          <Node pos="r" depth="2" NCoef="0" IVar="-1" Cut="0.0000000000000000e+00" cType="1" res="1.2333225458860397e-03" rms="3.6087757349014282e-01" purity="3.3897212147712708e-01" nType="-99"/>
        </Node>
        <Node pos="r" depth="1" NCoef="0" IVar="1" Cut="5.8714365959167480e+00" cType="1" res="1.6837681178003550e-03" rms="3.6740517616271973e-01" purity="4.1555225849151611e-01" nType="0">
          <Node pos="l" depth="2" NCoef="0" IVar="-1" Cut="0.0000000000000000e+00" cType="1" res="7.0518082939088345e-03" rms="4.0299183130264282e-01" purity="2.9153767228126526e-01" nType="-99"/>
          <Node pos="r" depth="2" NCoef="0" IVar="-1" Cut="0.0000000000000000e+00" cType="1" res="-1.9354699179530144e-03" rms="3.5405132174491882e-01" purity="4.5842677354812622e-01" nType="-99"/>
        </Node>
      </Node>
    </BinaryTree>
    <BinaryTree type="DecisionTree" boostWeight="1.0000000000000000e+00" itree="450">
      <Node pos="s" depth="0" NCoef="0" IVar="8" Cut="5.2833080291748047e-01" cType="1" res="2.8261495754122734e-03" rms="3.4729152917861938e-01" purity="5.0361651182174683e-01" nType="0">
        <Node pos="l" depth="1" NCoef="0" IVar="9" Cut="3.6931471824645996e+00" cType="1" res="3.3424797584302723e-04" rms="2.2798158228397369e-01" purity="5.0821614265441895e-01" nType="0">
          <Node pos="l" depth="2" NCoef="0" IVar="-1" Cut="0.0000000000000000e+00" cType="1" res="1.1184603208675981e-03" rms="3.3912190794944763e-01" purity="5.5071783065795898e-01" nType="-99"/>
          <Node pos="r" depth="2" NCoef="0" IVar="-1" Cut="0.0000000000000000e+00" cType="1" res="1.4167620101943612e-03" rms="3.6409085988998413e-01" purity="4.1760420799255371e-01" nType="-99"/>
        </Node>
        <Node pos="r" depth="1" NCoef="0" IVar="-1" Cut="0.0000000000000000e+00" cType="1" res="-6.7424173466861248e-03" rms="3.4638890624046326e-01" purity="3.9954850077629089e-01" nType="-99"/>
      </Node>
    </BinaryTree>
    <BinaryTree type="DecisionTree" boostWeight="1.0000000000000000e+00" itree="451">
      <Node pos="s" depth="0" NCoef="0" IVar="3" Cut="-8.2417406141757965e-02" cType="1" res="2.9359513428062201e-04" rms="3.4981274604797363e-01" purity="5.0105673074722290e-01" nType="0">
        <Node pos="l" depth="1" NCoef="0" IVar="2" Cut="9.0205488204956055e+00" cType="1" res="-4.8938444815576077e-03" rms="3.2495224475860596e-01" purity="6.5831351280212402e-01" nType="0">
          <Node pos="l" depth="2" NCoef="0" IVar="-1" Cut="0.0000000000000000e+00" cType="1" res="-5.3711570799350739e-03" rms="3.4423679113388062e-01" purity="6.1216676235198975e-01" nType="-99"/>
          <Node pos="r" depth="2" NCoef="0" IVar="-1" Cut="0.0000000000000000e+00" cType="1" res="3.4356338437646627e-03" rms="3.0877575278282166e-01" purity="6.9387787580490112e-01" nType="-99"/>
        </Node>
        <Node pos="r" depth="1" NCoef="0" IVar="11" Cut="1.4283782243728638e-01" cType="1" res="3.5995081998407841e-03" rms="3.6473476886749268e-01" purity="4.0083819627761841e-01" nType="0">
          <Node pos="l" depth="2" NCoef="0" IVar="-1" Cut="0.0000000000000000e+00" cType="1" res="-1.2463548919185996e-03" rms="3.0855849385261536e-01" purity="1.3457556068897247e-01" nType="-99"/>
          <Node pos="r" depth="2" NCoef="0" IVar="-1" Cut="0.0000000000000000e+00" cType="1" res="2.4423371069133282e-03" rms="4.2112478613853455e-01" purity="7.1372932195663452e-01" nType="-99"/>
        </Node>
      </Node>
    </BinaryTree>
    <BinaryTree type="DecisionTree" boostWeight="1.0000000000000000e+00" itree="452">
      <Node pos="s" depth="0" NCoef="0" IVar="1" Cut="7.6032190322875977e+00" cType="1" res="-3.6287578404881060e-04" rms="3.5031038522720337e-01" purity="4.9918684363365173e-01" nType="0">
        <Node pos="l" depth="1" NCoef="0" IVar="2" Cut="8.5345125198364258e+00" cType="1" res="-1.6602382529526949e-03" rms="3.5295796394348145e-01" purity="4.8961320519447327e-01" nType="0">
          <Node pos="l" depth="2" NCoef="0" IVar="-1" Cut="0.0000000000000000e+00" cType="1" res="-2.3340643383562565e-03" rms="3.7001848220825195e-01" purity="4.3897858262062073e-01" nType="-99"/>
          <Node pos="r" depth="2" NCoef="0" IVar="-1" Cut="0.0000000000000000e+00" cType="1" res="3.7537687603617087e-05" rms="3.4973859786987305e-01" purity="4.9881589412689209e-01" nType="-99"/>
        </Node>
        <Node pos="r" depth="1" NCoef="0" IVar="13" Cut="4.7611955553293228e-02" cType="1" res="1.8806539475917816e-02" rms="3.0791780352592468e-01" purity="6.4064407348632812e-01" nType="0">
          <Node pos="l" depth="2" NCoef="0" IVar="-1" Cut="0.0000000000000000e+00" cType="1" res="1.9777130801230669e-03" rms="2.7535000443458557e-01" purity="5.9468299150466919e-01" nType="-99"/>
          <Node pos="r" depth="2" NCoef="0" IVar="-1" Cut="0.0000000000000000e+00" cType="1" res="1.0308788157999516e-02" rms="3.4816375374794006e-01" purity="7.0621567964553833e-01" nType="-99"/>
        </Node>
      </Node>
    </BinaryTree>
    <BinaryTree type="DecisionTree" boostWeight="1.0000000000000000e+00" itree="453">
      <Node pos="s" depth="0" NCoef="0" IVar="11" Cut="6.6654437780380249e-01" cType="1" res="-2.9021170921623707e-03" rms="3.5017195343971252e-01" purity="4.9462604522705078e-01" nType="0">
        <Node pos="l" depth="1" NCoef="0" IVar="12" Cut="2.8564429283142090e-01" cType="1" res="-5.6838369928300381e-03" rms="3.6367267370223999e-01" purity="3.1643345952033997e-01" nType="0">
          <Node pos="l" depth="2" NCoef="0" IVar="-1" Cut="0.0000000000000000e+00" cType="1" res="-9.7614778205752373e-03" rms="3.8512438535690308e-01" purity="5.8099842071533203e-01" nType="-99"/>
          <Node pos="r" depth="2" NCoef="0" IVar="-1" Cut="0.0000000000000000e+00" cType="1" res="-6.9318251917138696e-04" rms="3.6129161715507507e-01" purity="2.8968679904937744e-01" nType="-99"/>
        </Node>
        <Node pos="r" depth="1" NCoef="0" IVar="4" Cut="-1.8038210868835449e+00" cType="1" res="2.9326281510293484e-03" rms="3.1993016600608826e-01" purity="8.6839061975479126e-01" nType="0">
          <Node pos="l" depth="2" NCoef="0" IVar="-1" Cut="0.0000000000000000e+00" cType="1" res="-7.9269139096140862e-03" rms="2.9005891084671021e-01" purity="8.8877862691879272e-01" nType="-99"/>
          <Node pos="r" depth="2" NCoef="0" IVar="-1" Cut="0.0000000000000000e+00" cType="1" res="2.5324258022010326e-03" rms="3.2607716321945190e-01" purity="8.6386245489120483e-01" nType="-99"/>
        </Node>
      </Node>
    </BinaryTree>
    <BinaryTree type="DecisionTree" boostWeight="1.0000000000000000e+00" itree="454">
      <Node pos="s" depth="0" NCoef="0" IVar="8" Cut="3.0875319242477417e-01" cType="1" res="4.3454562546685338e-04" rms="3.4695032238960266e-01" purity="4.9765357375144958e-01" nType="0">
        <Node pos="l" depth="1" NCoef="0" IVar="8" Cut="1.8106947839260101e-01" cType="1" res="-1.6873212298378348e-03" rms="3.4654366970062256e-01" purity="5.0207996368408203e-01" nType="0">
          <Node pos="l" depth="2" NCoef="0" IVar="-1" Cut="0.0000000000000000e+00" cType="1" res="1.1988561891485006e-04" rms="3.4602138400077820e-01" purity="5.0443267822265625e-01" nType="-99"/>
          <Node pos="r" depth="2" NCoef="0" IVar="-1" Cut="0.0000000000000000e+00" cType="1" res="-7.0151416584849358e-03" rms="3.5019174218177795e-01" purity="4.8353269696235657e-01" nType="-99"/>
        </Node>
        <Node pos="r" depth="1" NCoef="0" IVar="13" Cut="4.7521747648715973e-02" cType="1" res="1.4264200814068317e-02" rms="3.4927353262901306e-01" purity="4.6880385279655457e-01" nType="0">
          <Node pos="l" depth="2" NCoef="0" IVar="-1" Cut="0.0000000000000000e+00" cType="1" res="-7.7810097718611360e-04" rms="2.7874749898910522e-01" purity="2.3596487939357758e-01" nType="-99"/>
          <Node pos="r" depth="2" NCoef="0" IVar="-1" Cut="0.0000000000000000e+00" cType="1" res="7.7823274768888950e-03" rms="4.0290042757987976e-01" purity="6.8324917554855347e-01" nType="-99"/>
        </Node>
      </Node>
    </BinaryTree>
    <BinaryTree type="DecisionTree" boostWeight="1.0000000000000000e+00" itree="455">
      <Node pos="s" depth="0" NCoef="0" IVar="9" Cut="3.6931471824645996e+00" cType="1" res="1.1235539568588138e-03" rms="2.2806853055953979e-01" purity="5.0190502405166626e-01" nType="0">
        <Node pos="l" depth="1" NCoef="0" IVar="5" Cut="8.0437326431274414e+00" cType="1" res="9.1377930948510766e-04" rms="3.4483155608177185e-01" purity="5.4106986522674561e-01" nType="0">
          <Node pos="l" depth="2" NCoef="0" IVar="-1" Cut="0.0000000000000000e+00" cType="1" res="7.9074059613049030e-04" rms="3.4223780035972595e-01" purity="5.4797911643981934e-01" nType="-99"/>
          <Node pos="r" depth="2" NCoef="0" IVar="-1" Cut="0.0000000000000000e+00" cType="1" res="-4.0325927548110485e-03" rms="3.7024676799774170e-01" purity="4.6882268786430359e-01" nType="-99"/>
        </Node>
        <Node pos="r" depth="1" NCoef="0" IVar="8" Cut="-3.2612645626068115e-01" cType="1" res="5.9852087870240211e-03" rms="3.6730349063873291e-01" purity="4.1986826062202454e-01" nType="0">
          <Node pos="l" depth="2" NCoef="0" IVar="-1" Cut="0.0000000000000000e+00" cType="1" res="6.1224396340548992e-03" rms="3.8663968443870544e-01" purity="4.3738457560539246e-01" nType="-99"/>
          <Node pos="r" depth="2" NCoef="0" IVar="-1" Cut="0.0000000000000000e+00" cType="1" res="4.7735599218867719e-04" rms="3.6202824115753174e-01" purity="4.1539114713668823e-01" nType="-99"/>
        </Node>
      </Node>
    </BinaryTree>
    <BinaryTree type="DecisionTree" boostWeight="1.0000000000000000e+00" itree="456">
      <Node pos="s" depth="0" NCoef="0" IVar="9" Cut="3.6931471824645996e+00" cType="1" res="-5.7601183652877808e-04" rms="2.2874207794666290e-01" purity="4.9671733379364014e-01" nType="0">
        <Node pos="l" depth="1" NCoef="0" IVar="10" Cut="3.0000000000000000e+00" cType="1" res="-1.9879390310961753e-04" rms="2.2903189063072205e-01" purity="5.3672540187835693e-01" nType="0">
          <Node pos="l" depth="2" NCoef="0" IVar="-1" Cut="0.0000000000000000e+00" cType="1" res="4.9750925973057747e-04" rms="3.4064173698425293e-01" purity="5.4426932334899902e-01" nType="-99"/>
          <Node pos="r" depth="2" NCoef="0" IVar="-1" Cut="0.0000000000000000e+00" cType="1" res="-5.2199163474142551e-03" rms="3.7062892317771912e-01" purity="4.4993335008621216e-01" nType="-99"/>
        </Node>
        <Node pos="r" depth="1" NCoef="0" IVar="13" Cut="1.4283582568168640e-01" cType="1" res="-2.1007310133427382e-03" rms="3.6249044537544250e-01" purity="4.1171264648437500e-01" nType="0">
          <Node pos="l" depth="2" NCoef="0" IVar="-1" Cut="0.0000000000000000e+00" cType="1" res="-3.0992354732006788e-03" rms="3.4058493375778198e-01" purity="2.6646572351455688e-01" nType="-99"/>
          <Node pos="r" depth="2" NCoef="0" IVar="-1" Cut="0.0000000000000000e+00" cType="1" res="3.0613918788731098e-03" rms="4.0420711040496826e-01" purity="7.1499001979827881e-01" nType="-99"/>
        </Node>
      </Node>
    </BinaryTree>
    <BinaryTree type="DecisionTree" boostWeight="1.0000000000000000e+00" itree="457">
      <Node pos="s" depth="0" NCoef="0" IVar="9" Cut="3.6931471824645996e+00" cType="1" res="-9.3157927040010691e-04" rms="2.3081496357917786e-01" purity="4.9650475382804871e-01" nType="0">
        <Node pos="l" depth="1" NCoef="0" IVar="8" Cut="-4.5736312866210938e-01" cType="1" res="-2.2456173319369555e-03" rms="3.4698823094367981e-01" purity="5.3465223312377930e-01" nType="0">
          <Node pos="l" depth="2" NCoef="0" IVar="-1" Cut="0.0000000000000000e+00" cType="1" res="-2.1110468078404665e-03" rms="3.9448669552803040e-01" purity="5.2420645952224731e-01" nType="-99"/>
          <Node pos="r" depth="2" NCoef="0" IVar="-1" Cut="0.0000000000000000e+00" cType="1" res="1.2773301568813622e-04" rms="3.3783212304115295e-01" purity="5.3649830818176270e-01" nType="-99"/>
        </Node>
        <Node pos="r" depth="1" NCoef="0" IVar="8" Cut="-3.2181978225708008e-01" cType="1" res="-2.1756570786237717e-03" rms="3.6638689041137695e-01" purity="4.1617506742477417e-01" nType="0">
          <Node pos="l" depth="2" NCoef="0" IVar="-1" Cut="0.0000000000000000e+00" cType="1" res="-4.6993168070912361e-03" rms="3.8753482699394226e-01" purity="4.0541243553161621e-01" nType="-99"/>
          <Node pos="r" depth="2" NCoef="0" IVar="-1" Cut="0.0000000000000000e+00" cType="1" res="1.1340292403474450e-03" rms="3.6049026250839233e-01" purity="4.1900038719177246e-01" nType="-99"/>
        </Node>
      </Node>
    </BinaryTree>
    <BinaryTree type="DecisionTree" boostWeight="1.0000000000000000e+00" itree="458">
      <Node pos="s" depth="0" NCoef="0" IVar="0" Cut="1.0663242340087891e+01" cType="1" res="7.4512528954073787e-04" rms="3.4890824556350708e-01" purity="5.0270688533782959e-01" nType="0">
        <Node pos="l" depth="1" NCoef="0" IVar="5" Cut="7.9951486587524414e+00" cType="1" res="-7.0955179398879409e-04" rms="3.4686821699142456e-01" purity="4.9616491794586182e-01" nType="0">
          <Node pos="l" depth="2" NCoef="0" IVar="-1" Cut="0.0000000000000000e+00" cType="1" res="-5.5411248467862606e-04" rms="3.4740436077117920e-01" purity="4.9923682212829590e-01" nType="-99"/>
          <Node pos="r" depth="2" NCoef="0" IVar="-1" Cut="0.0000000000000000e+00" cType="1" res="4.5691765844821930e-03" rms="3.3839523792266846e-01" purity="4.5052191615104675e-01" nType="-99"/>
        </Node>
        <Node pos="r" depth="1" NCoef="0" IVar="12" Cut="4.2809349298477173e-01" cType="1" res="2.3417873308062553e-02" rms="3.7856712937355042e-01" purity="6.0467147827148438e-01" nType="0">
          <Node pos="l" depth="2" NCoef="0" IVar="-1" Cut="0.0000000000000000e+00" cType="1" res="3.1418658327311277e-03" rms="3.4446054697036743e-01" purity="7.5351905822753906e-01" nType="-99"/>
          <Node pos="r" depth="2" NCoef="0" IVar="-1" Cut="0.0000000000000000e+00" cType="1" res="5.9557179920375347e-03" rms="4.0921494364738464e-01" purity="4.5729312300682068e-01" nType="-99"/>
        </Node>
      </Node>
    </BinaryTree>
    <BinaryTree type="DecisionTree" boostWeight="1.0000000000000000e+00" itree="459">
      <Node pos="s" depth="0" NCoef="0" IVar="7" Cut="-1.4053703546524048e+00" cType="1" res="1.8702618544921279e-03" rms="3.4875002503395081e-01" purity="5.0288075208663940e-01" nType="0">
        <Node pos="l" depth="1" NCoef="0" IVar="-1" Cut="0.0000000000000000e+00" cType="1" res="7.5080869719386101e-03" rms="3.3887538313865662e-01" purity="5.3644388914108276e-01" nType="-99"/>
        <Node pos="r" depth="1" NCoef="0" IVar="5" Cut="7.9188108444213867e+00" cType="1" res="7.5746083166450262e-04" rms="3.4907725453376770e-01" purity="5.0158715248107910e-01" nType="0">
          <Node pos="l" depth="2" NCoef="0" IVar="-1" Cut="0.0000000000000000e+00" cType="1" res="6.3209712971001863e-04" rms="3.4714257717132568e-01" purity="5.0885617733001709e-01" nType="-99"/>
          <Node pos="r" depth="2" NCoef="0" IVar="-1" Cut="0.0000000000000000e+00" cType="1" res="-2.4641091004014015e-03" rms="3.6408451199531555e-01" purity="4.4315508008003235e-01" nType="-99"/>
        </Node>
      </Node>
    </BinaryTree>
    <BinaryTree type="DecisionTree" boostWeight="1.0000000000000000e+00" itree="460">
      <Node pos="s" depth="0" NCoef="0" IVar="1" Cut="5.1492319107055664e+00" cType="1" res="-8.8315975153818727e-04" rms="3.5147669911384583e-01" purity="5.0033521652221680e-01" nType="0">
        <Node pos="l" depth="1" NCoef="0" IVar="12" Cut="8.0898910760879517e-01" cType="1" res="1.6177518293261528e-02" rms="4.2114469408988953e-01" purity="2.8343203663825989e-01" nType="0">
          <Node pos="l" depth="2" NCoef="0" IVar="-1" Cut="0.0000000000000000e+00" cType="1" res="1.6245460137724876e-03" rms="4.2871794104576111e-01" purity="3.2426375150680542e-01" nType="-99"/>
          <Node pos="r" depth="2" NCoef="0" IVar="-1" Cut="0.0000000000000000e+00" cType="1" res="5.2398350089788437e-03" rms="4.1351926326751709e-01" purity="2.4385917186737061e-01" nType="-99"/>
        </Node>
        <Node pos="r" depth="1" NCoef="0" IVar="8" Cut="3.6190280318260193e-01" cType="1" res="-1.8635247834026814e-03" rms="3.4702321887016296e-01" purity="5.1279926300048828e-01" nType="0">
          <Node pos="l" depth="2" NCoef="0" IVar="-1" Cut="0.0000000000000000e+00" cType="1" res="-9.8929274827241898e-04" rms="3.4573078155517578e-01" purity="5.1556664705276489e-01" nType="-99"/>
          <Node pos="r" depth="2" NCoef="0" IVar="-1" Cut="0.0000000000000000e+00" cType="1" res="3.2481991220265627e-03" rms="3.5799765586853027e-01" purity="4.8837777972221375e-01" nType="-99"/>
        </Node>
      </Node>
    </BinaryTree>
    <BinaryTree type="DecisionTree" boostWeight="1.0000000000000000e+00" itree="461">
      <Node pos="s" depth="0" NCoef="0" IVar="7" Cut="-2.6449665427207947e-01" cType="1" res="-1.9877790473401546e-03" rms="3.4800699353218079e-01" purity="4.9711796641349792e-01" nType="0">
        <Node pos="l" depth="1" NCoef="0" IVar="3" Cut="-3.8757652044296265e-01" cType="1" res="-9.5825046300888062e-03" rms="3.5091051459312439e-01" purity="5.0973057746887207e-01" nType="0">
          <Node pos="l" depth="2" NCoef="0" IVar="-1" Cut="0.0000000000000000e+00" cType="1" res="5.6070560822263360e-04" rms="3.1298860907554626e-01" purity="7.0914989709854126e-01" nType="-99"/>
          <Node pos="r" depth="2" NCoef="0" IVar="-1" Cut="0.0000000000000000e+00" cType="1" res="-3.7501130718737841e-03" rms="3.6634668707847595e-01" purity="4.2142072319984436e-01" nType="-99"/>
        </Node>
        <Node pos="r" depth="1" NCoef="0" IVar="2" Cut="8.3750495910644531e+00" cType="1" res="1.1845228727906942e-03" rms="3.4673774242401123e-01" purity="4.9184969067573547e-01" nType="0">
          <Node pos="l" depth="2" NCoef="0" IVar="-1" Cut="0.0000000000000000e+00" cType="1" res="3.4332412760704756e-03" rms="3.5039097070693970e-01" purity="4.6687358617782593e-01" nType="-99"/>
          <Node pos="r" depth="2" NCoef="0" IVar="-1" Cut="0.0000000000000000e+00" cType="1" res="-2.2245678701438010e-04" rms="3.4627971053123474e-01" purity="4.9461865425109863e-01" nType="-99"/>
        </Node>
      </Node>
    </BinaryTree>
    <BinaryTree type="DecisionTree" boostWeight="1.0000000000000000e+00" itree="462">
      <Node pos="s" depth="0" NCoef="0" IVar="0" Cut="7.8196702003479004e+00" cType="1" res="8.0697477096691728e-04" rms="3.4955424070358276e-01" purity="5.0045746564865112e-01" nType="0">
        <Node pos="l" depth="1" NCoef="0" IVar="-1" Cut="0.0000000000000000e+00" cType="1" res="-3.5710160154849291e-03" rms="4.4443637132644653e-01" purity="3.1730023026466370e-01" nType="-99"/>
        <Node pos="r" depth="1" NCoef="0" IVar="9" Cut="3.6931471824645996e+00" cType="1" res="7.4741506250575185e-04" rms="2.2831277549266815e-01" purity="5.1039040088653564e-01" nType="0">
          <Node pos="l" depth="2" NCoef="0" IVar="-1" Cut="0.0000000000000000e+00" cType="1" res="3.4324199077673256e-04" rms="3.3460330963134766e-01" purity="5.4845708608627319e-01" nType="-99"/>
          <Node pos="r" depth="2" NCoef="0" IVar="-1" Cut="0.0000000000000000e+00" cType="1" res="1.3832665281370282e-03" rms="3.6215338110923767e-01" purity="4.2901659011840820e-01" nType="-99"/>
        </Node>
      </Node>
    </BinaryTree>
    <BinaryTree type="DecisionTree" boostWeight="1.0000000000000000e+00" itree="463">
      <Node pos="s" depth="0" NCoef="0" IVar="8" Cut="-5.3617858886718750e-01" cType="1" res="9.6404657233506441e-04" rms="3.4776696562767029e-01" purity="4.9976363778114319e-01" nType="0">
        <Node pos="l" depth="1" NCoef="0" IVar="5" Cut="6.4061422348022461e+00" cType="1" res="-1.4351150952279568e-02" rms="3.8711929321289062e-01" purity="4.9142664670944214e-01" nType="0">
          <Node pos="l" depth="2" NCoef="0" IVar="-1" Cut="0.0000000000000000e+00" cType="1" res="1.4685584465041757e-03" rms="4.0168535709381104e-01" purity="5.3574246168136597e-01" nType="-99"/>
          <Node pos="r" depth="2" NCoef="0" IVar="-1" Cut="0.0000000000000000e+00" cType="1" res="-3.7760310806334019e-03" rms="3.7521553039550781e-01" purity="4.5933184027671814e-01" nType="-99"/>
        </Node>
        <Node pos="r" depth="1" NCoef="0" IVar="9" Cut="3.0986123085021973e+00" cType="1" res="9.7771000582724810e-04" rms="1.9848583638668060e-01" purity="5.0077438354492188e-01" nType="0">
          <Node pos="l" depth="2" NCoef="0" IVar="-1" Cut="0.0000000000000000e+00" cType="1" res="4.1427100077271461e-03" rms="3.1510832905769348e-01" purity="6.2348270416259766e-01" nType="-99"/>
          <Node pos="r" depth="2" NCoef="0" IVar="-1" Cut="0.0000000000000000e+00" cType="1" res="3.2948792795650661e-04" rms="3.4840044379234314e-01" purity="4.7368210554122925e-01" nType="-99"/>
        </Node>
      </Node>
    </BinaryTree>
    <BinaryTree type="DecisionTree" boostWeight="1.0000000000000000e+00" itree="464">
      <Node pos="s" depth="0" NCoef="0" IVar="5" Cut="6.7301278114318848e+00" cType="1" res="2.4448096519336104e-04" rms="3.4791076183319092e-01" purity="4.9976840615272522e-01" nType="0">
        <Node pos="l" depth="1" NCoef="0" IVar="3" Cut="-6.9600945711135864e-01" cType="1" res="4.3044136837124825e-03" rms="3.5459986329078674e-01" purity="5.2729588747024536e-01" nType="0">
          <Node pos="l" depth="2" NCoef="0" IVar="-1" Cut="0.0000000000000000e+00" cType="1" res="-2.3109975736588240e-03" rms="3.0684730410575867e-01" purity="7.0398962497711182e-01" nType="-99"/>
          <Node pos="r" depth="2" NCoef="0" IVar="-1" Cut="0.0000000000000000e+00" cType="1" res="2.5390395894646645e-03" rms="3.7824612855911255e-01" purity="4.2990937829017639e-01" nType="-99"/>
        </Node>
        <Node pos="r" depth="1" NCoef="0" IVar="2" Cut="8.9685420989990234e+00" cType="1" res="-4.1176332160830498e-03" rms="3.4052351117134094e-01" purity="4.7019210457801819e-01" nType="0">
          <Node pos="l" depth="2" NCoef="0" IVar="-1" Cut="0.0000000000000000e+00" cType="1" res="1.8736876081675291e-03" rms="3.3838912844657898e-01" purity="4.9357974529266357e-01" nType="-99"/>
          <Node pos="r" depth="2" NCoef="0" IVar="-1" Cut="0.0000000000000000e+00" cType="1" res="-4.3183569796383381e-03" rms="3.4165242314338684e-01" purity="4.5529890060424805e-01" nType="-99"/>
        </Node>
      </Node>
    </BinaryTree>
    <BinaryTree type="DecisionTree" boostWeight="1.0000000000000000e+00" itree="465">
      <Node pos="s" depth="0" NCoef="0" IVar="5" Cut="7.8994703292846680e+00" cType="1" res="-1.0228323517367244e-03" rms="3.4766259789466858e-01" purity="4.9628219008445740e-01" nType="0">
        <Node pos="l" depth="1" NCoef="0" IVar="2" Cut="8.1608285903930664e+00" cType="1" res="9.8917889408767223e-04" rms="3.4528470039367676e-01" purity="5.0449270009994507e-01" nType="0">
          <Node pos="l" depth="2" NCoef="0" IVar="-1" Cut="0.0000000000000000e+00" cType="1" res="-3.6916441749781370e-03" rms="3.6221793293952942e-01" purity="4.4612190127372742e-01" nType="-99"/>
          <Node pos="r" depth="2" NCoef="0" IVar="-1" Cut="0.0000000000000000e+00" cType="1" res="6.5147405257448554e-04" rms="3.4431549906730652e-01" purity="5.0764524936676025e-01" nType="-99"/>
        </Node>
        <Node pos="r" depth="1" NCoef="0" IVar="8" Cut="-9.3814611434936523e-02" cType="1" res="-1.6425846144556999e-02" rms="3.6498704552650452e-01" purity="4.3342635035514832e-01" nType="0">
          <Node pos="l" depth="2" NCoef="0" IVar="-1" Cut="0.0000000000000000e+00" cType="1" res="-6.0480916872620583e-03" rms="3.5991427302360535e-01" purity="4.2902764678001404e-01" nType="-99"/>
          <Node pos="r" depth="2" NCoef="0" IVar="-1" Cut="0.0000000000000000e+00" cType="1" res="-1.5432075597345829e-03" rms="3.6768490076065063e-01" purity="4.3622589111328125e-01" nType="-99"/>
        </Node>
      </Node>
    </BinaryTree>
    <BinaryTree type="DecisionTree" boostWeight="1.0000000000000000e+00" itree="466">
      <Node pos="s" depth="0" NCoef="0" IVar="1" Cut="5.5059595108032227e+00" cType="1" res="3.3850772306323051e-03" rms="3.4751400351524353e-01" purity="5.0642663240432739e-01" nType="0">
        <Node pos="l" depth="1" NCoef="0" IVar="12" Cut="8.0928879976272583e-01" cType="1" res="-1.4570343308150768e-02" rms="4.0331292152404785e-01" purity="2.8902143239974976e-01" nType="0">
          <Node pos="l" depth="2" NCoef="0" IVar="-1" Cut="0.0000000000000000e+00" cType="1" res="-8.0650970339775085e-03" rms="4.2481502890586853e-01" purity="3.8345083594322205e-01" nType="-99"/>
          <Node pos="r" depth="2" NCoef="0" IVar="-1" Cut="0.0000000000000000e+00" cType="1" res="2.0339344628155231e-03" rms="3.8229048252105713e-01" purity="2.0718826353549957e-01" nType="-99"/>
        </Node>
        <Node pos="r" depth="1" NCoef="0" IVar="12" Cut="9.5201325416564941e-01" cType="1" res="5.9876977466046810e-03" rms="3.3858498930931091e-01" purity="5.3793931007385254e-01" nType="0">
          <Node pos="l" depth="2" NCoef="0" IVar="-1" Cut="0.0000000000000000e+00" cType="1" res="2.4009193293750286e-03" rms="3.7018159031867981e-01" purity="6.6133344173431396e-01" nType="-99"/>
          <Node pos="r" depth="2" NCoef="0" IVar="-1" Cut="0.0000000000000000e+00" cType="1" res="-8.5342768579721451e-03" rms="1.4558832347393036e-01" purity="2.4153890088200569e-02" nType="-99"/>
        </Node>
      </Node>
    </BinaryTree>
    <BinaryTree type="DecisionTree" boostWeight="1.0000000000000000e+00" itree="467">
      <Node pos="s" depth="0" NCoef="0" IVar="5" Cut="8.4637947082519531e+00" cType="1" res="5.5603226646780968e-03" rms="3.4871333837509155e-01" purity="5.0294011831283569e-01" nType="0">
        <Node pos="l" depth="1" NCoef="0" IVar="5" Cut="6.2714843750000000e+00" cType="1" res="4.2253602296113968e-03" rms="3.4693443775177002e-01" purity="5.0390410423278809e-01" nType="0">
          <Node pos="l" depth="2" NCoef="0" IVar="-1" Cut="0.0000000000000000e+00" cType="1" res="3.3017036039382219e-03" rms="3.6478891968727112e-01" purity="5.4286497831344604e-01" nType="-99"/>
          <Node pos="r" depth="2" NCoef="0" IVar="-1" Cut="0.0000000000000000e+00" cType="1" res="1.4396823826245964e-04" rms="3.3720013499259949e-01" purity="4.8361322283744812e-01" nType="-99"/>
        </Node>
        <Node pos="r" depth="1" NCoef="0" IVar="-1" Cut="0.0000000000000000e+00" cType="1" res="8.4411101415753365e-03" rms="3.8610932230949402e-01" purity="4.8076784610748291e-01" nType="-99"/>
      </Node>
    </BinaryTree>
    <BinaryTree type="DecisionTree" boostWeight="1.0000000000000000e+00" itree="468">
      <Node pos="s" depth="0" NCoef="0" IVar="8" Cut="-1.0879325866699219e-01" cType="1" res="-9.7955483943223953e-04" rms="3.5040962696075439e-01" purity="4.9641177058219910e-01" nType="0">
        <Node pos="l" depth="1" NCoef="0" IVar="5" Cut="5.7019691467285156e+00" cType="1" res="5.2399085834622383e-03" rms="3.5404381155967712e-01" purity="5.0165367126464844e-01" nType="0">
          <Node pos="l" depth="2" NCoef="0" IVar="-1" Cut="0.0000000000000000e+00" cType="1" res="5.1864753477275372e-03" rms="3.9463457465171814e-01" purity="5.5089932680130005e-01" nType="-99"/>
          <Node pos="r" depth="2" NCoef="0" IVar="-1" Cut="0.0000000000000000e+00" cType="1" res="4.2707502143457532e-04" rms="3.4580510854721069e-01" purity="4.9242958426475525e-01" nType="-99"/>
        </Node>
        <Node pos="r" depth="1" NCoef="0" IVar="5" Cut="6.7394371032714844e+00" cType="1" res="-5.7076145894825459e-03" rms="3.4754705429077148e-01" purity="4.9242690205574036e-01" nType="0">
          <Node pos="l" depth="2" NCoef="0" IVar="-1" Cut="0.0000000000000000e+00" cType="1" res="2.9693834949284792e-04" rms="3.4708592295646667e-01" purity="5.2816796302795410e-01" nType="-99"/>
          <Node pos="r" depth="2" NCoef="0" IVar="-1" Cut="0.0000000000000000e+00" cType="1" res="-4.6862936578691006e-03" rms="3.4788855910301208e-01" purity="4.5632398128509521e-01" nType="-99"/>
        </Node>
      </Node>
    </BinaryTree>
    <BinaryTree type="DecisionTree" boostWeight="1.0000000000000000e+00" itree="469">
      <Node pos="s" depth="0" NCoef="0" IVar="2" Cut="8.1907024383544922e+00" cType="1" res="-1.5781368128955364e-03" rms="3.4914779663085938e-01" purity="4.9827986955642700e-01" nType="0">
        <Node pos="l" depth="1" NCoef="0" IVar="-1" Cut="0.0000000000000000e+00" cType="1" res="-6.3435053452849388e-03" rms="3.7097996473312378e-01" purity="4.4338685274124146e-01" nType="-99"/>
        <Node pos="r" depth="1" NCoef="0" IVar="7" Cut="-1.2637623548507690e+00" cType="1" res="9.9428587418515235e-05" rms="3.4780463576316833e-01" purity="5.0136351585388184e-01" nType="0">
          <Node pos="l" depth="2" NCoef="0" IVar="-1" Cut="0.0000000000000000e+00" cType="1" res="-7.5330832041800022e-03" rms="3.5350069403648376e-01" purity="4.7996079921722412e-01" nType="-99"/>
          <Node pos="r" depth="2" NCoef="0" IVar="-1" Cut="0.0000000000000000e+00" cType="1" res="4.6244196710176766e-04" rms="3.4743893146514893e-01" purity="5.0252360105514526e-01" nType="-99"/>
        </Node>
      </Node>
    </BinaryTree>
    <BinaryTree type="DecisionTree" boostWeight="1.0000000000000000e+00" itree="470">
      <Node pos="s" depth="0" NCoef="0" IVar="0" Cut="8.0372133255004883e+00" cType="1" res="-1.4028641162440181e-03" rms="3.5073587298393250e-01" purity="5.0045633316040039e-01" nType="0">
        <Node pos="l" depth="1" NCoef="0" IVar="7" Cut="-2.9648903012275696e-01" cType="1" res="9.9103059619665146e-03" rms="4.4410893321037292e-01" purity="3.7555927038192749e-01" nType="0">
          <Node pos="l" depth="2" NCoef="0" IVar="-1" Cut="0.0000000000000000e+00" cType="1" res="-5.2325380966067314e-03" rms="4.3782719969749451e-01" purity="3.5206973552703857e-01" nType="-99"/>
          <Node pos="r" depth="2" NCoef="0" IVar="-1" Cut="0.0000000000000000e+00" cType="1" res="5.4967338219285011e-03" rms="4.4588065147399902e-01" purity="3.8653400540351868e-01" nType="-99"/>
        </Node>
        <Node pos="r" depth="1" NCoef="0" IVar="8" Cut="-5.4015201330184937e-01" cType="1" res="-2.8982071671634912e-03" rms="3.3643227815628052e-01" purity="5.1696491241455078e-01" nType="0">
          <Node pos="l" depth="2" NCoef="0" IVar="-1" Cut="0.0000000000000000e+00" cType="1" res="-2.8716342058032751e-03" rms="3.7411507964134216e-01" purity="5.1372176408767700e-01" nType="-99"/>
          <Node pos="r" depth="2" NCoef="0" IVar="-1" Cut="0.0000000000000000e+00" cType="1" res="-2.7805336867459118e-04" rms="3.3217284083366394e-01" purity="5.1730388402938843e-01" nType="-99"/>
        </Node>
      </Node>
    </BinaryTree>
    <BinaryTree type="DecisionTree" boostWeight="1.0000000000000000e+00" itree="471">
      <Node pos="s" depth="0" NCoef="0" IVar="9" Cut="3.6931471824645996e+00" cType="1" res="-3.7579020136035979e-04" rms="2.2788138687610626e-01" purity="4.9753099679946899e-01" nType="0">
        <Node pos="l" depth="1" NCoef="0" IVar="10" Cut="2.0000000000000000e+00" cType="1" res="-2.3224444885272533e-04" rms="2.2721993923187256e-01" purity="5.3711414337158203e-01" nType="0">
          <Node pos="l" depth="2" NCoef="0" IVar="-1" Cut="0.0000000000000000e+00" cType="1" res="1.1208415962755680e-03" rms="3.3361637592315674e-01" purity="5.7598441839218140e-01" nType="-99"/>
          <Node pos="r" depth="2" NCoef="0" IVar="-1" Cut="0.0000000000000000e+00" cType="1" res="-2.1200529299676418e-03" rms="3.5382071137428284e-01" purity="4.7911879420280457e-01" nType="-99"/>
        </Node>
        <Node pos="r" depth="1" NCoef="0" IVar="13" Cut="1.4284516870975494e-01" cType="1" res="-1.5541382599622011e-03" rms="3.6573392152786255e-01" purity="4.1429850459098816e-01" nType="0">
          <Node pos="l" depth="2" NCoef="0" IVar="-1" Cut="0.0000000000000000e+00" cType="1" res="-2.4859220720827579e-03" rms="3.4481933712959290e-01" purity="2.6749813556671143e-01" nType="-99"/>
          <Node pos="r" depth="2" NCoef="0" IVar="-1" Cut="0.0000000000000000e+00" cType="1" res="2.5805188342928886e-03" rms="4.0499976277351379e-01" purity="7.1449506282806396e-01" nType="-99"/>
        </Node>
      </Node>
    </BinaryTree>
    <BinaryTree type="DecisionTree" boostWeight="1.0000000000000000e+00" itree="472">
      <Node pos="s" depth="0" NCoef="0" IVar="1" Cut="5.4422726631164551e+00" cType="1" res="-4.8073446378111839e-03" rms="3.5120496153831482e-01" purity="4.9698823690414429e-01" nType="0">
        <Node pos="l" depth="1" NCoef="0" IVar="3" Cut="-3.6698937416076660e-01" cType="1" res="7.4270367622375488e-03" rms="4.0547177195549011e-01" purity="3.0807405710220337e-01" nType="0">
          <Node pos="l" depth="2" NCoef="0" IVar="-1" Cut="0.0000000000000000e+00" cType="1" res="-6.0516246594488621e-03" rms="4.2409172654151917e-01" purity="3.5606431961059570e-01" nType="-99"/>
          <Node pos="r" depth="2" NCoef="0" IVar="-1" Cut="0.0000000000000000e+00" cType="1" res="4.0475749410688877e-03" rms="3.9884492754936218e-01" purity="2.9309648275375366e-01" nType="-99"/>
        </Node>
        <Node pos="r" depth="1" NCoef="0" IVar="2" Cut="8.2049665451049805e+00" cType="1" res="-6.3495035283267498e-03" rms="3.4372618794441223e-01" purity="5.2080106735229492e-01" nType="0">
          <Node pos="l" depth="2" NCoef="0" IVar="-1" Cut="0.0000000000000000e+00" cType="1" res="-6.3023339025676250e-03" rms="3.6779367923736572e-01" purity="4.5893496274948120e-01" nType="-99"/>
          <Node pos="r" depth="2" NCoef="0" IVar="-1" Cut="0.0000000000000000e+00" cType="1" res="-1.6224085120484233e-03" rms="3.4224084019660950e-01" purity="5.2437186241149902e-01" nType="-99"/>
        </Node>
      </Node>
    </BinaryTree>
    <BinaryTree type="DecisionTree" boostWeight="1.0000000000000000e+00" itree="473">
      <Node pos="s" depth="0" NCoef="0" IVar="0" Cut="1.0439529418945312e+01" cType="1" res="-6.4360641408711672e-04" rms="3.5022395849227905e-01" purity="5.0041800737380981e-01" nType="0">
        <Node pos="l" depth="1" NCoef="0" IVar="4" Cut="3.7675777077674866e-01" cType="1" res="-1.9990156870335340e-03" rms="3.4987878799438477e-01" purity="4.9236732721328735e-01" nType="0">
          <Node pos="l" depth="2" NCoef="0" IVar="-1" Cut="0.0000000000000000e+00" cType="1" res="-1.1002214159816504e-03" rms="3.4620946645736694e-01" purity="5.0906759500503540e-01" nType="-99"/>
          <Node pos="r" depth="2" NCoef="0" IVar="-1" Cut="0.0000000000000000e+00" cType="1" res="2.3311760742217302e-03" rms="3.7659689784049988e-01" purity="3.6449882388114929e-01" nType="-99"/>
        </Node>
        <Node pos="r" depth="1" NCoef="0" IVar="7" Cut="-8.9420247822999954e-03" cType="1" res="1.3149604201316833e-02" rms="3.5342186689376831e-01" purity="5.8234536647796631e-01" nType="0">
          <Node pos="l" depth="2" NCoef="0" IVar="-1" Cut="0.0000000000000000e+00" cType="1" res="9.0510575100779533e-03" rms="3.5055664181709290e-01" purity="6.7617762088775635e-01" nType="-99"/>
          <Node pos="r" depth="2" NCoef="0" IVar="-1" Cut="0.0000000000000000e+00" cType="1" res="-9.4876473303884268e-04" rms="3.5406431555747986e-01" purity="5.2564007043838501e-01" nType="-99"/>
        </Node>
      </Node>
    </BinaryTree>
    <BinaryTree type="DecisionTree" boostWeight="1.0000000000000000e+00" itree="474">
      <Node pos="s" depth="0" NCoef="0" IVar="8" Cut="-6.1795169115066528e-01" cType="1" res="2.6533596683293581e-03" rms="3.4750705957412720e-01" purity="5.0313395261764526e-01" nType="0">
        <Node pos="l" depth="1" NCoef="0" IVar="-1" Cut="0.0000000000000000e+00" cType="1" res="2.9170759953558445e-03" rms="3.9884346723556519e-01" purity="5.3755962848663330e-01" nType="-99"/>
        <Node pos="r" depth="1" NCoef="0" IVar="3" Cut="8.3804255723953247e-01" cType="1" res="8.2333834143355489e-04" rms="3.4295573830604553e-01" purity="5.0035059452056885e-01" nType="0">
          <Node pos="l" depth="2" NCoef="0" IVar="-1" Cut="0.0000000000000000e+00" cType="1" res="1.2978905579075217e-03" rms="3.3831790089607239e-01" purity="5.5152136087417603e-01" nType="-99"/>
          <Node pos="r" depth="2" NCoef="0" IVar="-1" Cut="0.0000000000000000e+00" cType="1" res="-2.6265701744705439e-03" rms="3.5781815648078918e-01" purity="3.2981777191162109e-01" nType="-99"/>
        </Node>
      </Node>
    </BinaryTree>
    <BinaryTree type="DecisionTree" boostWeight="1.0000000000000000e+00" itree="475">
      <Node pos="s" depth="0" NCoef="0" IVar="0" Cut="8.4758501052856445e+00" cType="1" res="-2.1215199958533049e-03" rms="3.4951898455619812e-01" purity="4.9778422713279724e-01" nType="0">
        <Node pos="l" depth="1" NCoef="0" IVar="11" Cut="9.3824125826358795e-02" cType="1" res="-1.1787104420363903e-02" rms="4.0088763833045959e-01" purity="3.9093521237373352e-01" nType="0">
          <Node pos="l" depth="2" NCoef="0" IVar="-1" Cut="0.0000000000000000e+00" cType="1" res="-1.0345154441893101e-03" rms="3.6962297558784485e-01" purity="2.0563873648643494e-01" nType="-99"/>
          <Node pos="r" depth="2" NCoef="0" IVar="-1" Cut="0.0000000000000000e+00" cType="1" res="-4.8922309651970863e-03" rms="4.3783819675445557e-01" purity="6.3071519136428833e-01" nType="-99"/>
        </Node>
        <Node pos="r" depth="1" NCoef="0" IVar="9" Cut="3.6931471824645996e+00" cType="1" res="1.0412277188152075e-03" rms="2.2688460350036621e-01" purity="5.3674840927124023e-01" nType="0">
          <Node pos="l" depth="2" NCoef="0" IVar="-1" Cut="0.0000000000000000e+00" cType="1" res="1.7384930106345564e-04" rms="3.1647065281867981e-01" purity="5.7539641857147217e-01" nType="-99"/>
          <Node pos="r" depth="2" NCoef="0" IVar="-1" Cut="0.0000000000000000e+00" cType="1" res="1.3091231230646372e-03" rms="3.5311183333396912e-01" purity="4.5544680953025818e-01" nType="-99"/>
        </Node>
      </Node>
    </BinaryTree>
    <BinaryTree type="DecisionTree" boostWeight="1.0000000000000000e+00" itree="476">
      <Node pos="s" depth="0" NCoef="0" IVar="0" Cut="1.0881433486938477e+01" cType="1" res="2.2890486288815737e-03" rms="3.4972313046455383e-01" purity="5.0275242328643799e-01" nType="0">
        <Node pos="l" depth="1" NCoef="0" IVar="2" Cut="8.3542976379394531e+00" cType="1" res="1.0858401656150818e-03" rms="3.4772953391075134e-01" purity="4.9913302063941956e-01" nType="0">
          <Node pos="l" depth="2" NCoef="0" IVar="-1" Cut="0.0000000000000000e+00" cType="1" res="4.4939173385500908e-03" rms="3.5958349704742432e-01" purity="4.8641997575759888e-01" nType="-99"/>
          <Node pos="r" depth="2" NCoef="0" IVar="-1" Cut="0.0000000000000000e+00" cType="1" res="-3.6399866803549230e-04" rms="3.4643813967704773e-01" purity="5.0041103363037109e-01" nType="-99"/>
        </Node>
        <Node pos="r" depth="1" NCoef="0" IVar="-1" Cut="0.0000000000000000e+00" cType="1" res="6.1123115010559559e-03" rms="3.9635333418846130e-01" purity="5.9590327739715576e-01" nType="-99"/>
      </Node>
    </BinaryTree>
    <BinaryTree type="DecisionTree" boostWeight="1.0000000000000000e+00" itree="477">
      <Node pos="s" depth="0" NCoef="0" IVar="8" Cut="-6.6115170717239380e-01" cType="1" res="4.5890553155913949e-04" rms="3.5174310207366943e-01" purity="4.9725338816642761e-01" nType="0">
        <Node pos="l" depth="1" NCoef="0" IVar="-1" Cut="0.0000000000000000e+00" cType="1" res="2.2907897364348173e-03" rms="4.1184929013252258e-01" purity="5.3701913356781006e-01" nType="-99"/>
        <Node pos="r" depth="1" NCoef="0" IVar="5" Cut="5.2868986129760742e+00" cType="1" res="-1.0234625078737736e-03" rms="3.4726604819297791e-01" purity="4.9457207322120667e-01" nType="0">
          <Node pos="l" depth="2" NCoef="0" IVar="-1" Cut="0.0000000000000000e+00" cType="1" res="-5.8398693799972534e-03" rms="3.7489742040634155e-01" purity="5.3393155336380005e-01" nType="-99"/>
          <Node pos="r" depth="2" NCoef="0" IVar="-1" Cut="0.0000000000000000e+00" cType="1" res="1.2215404422022402e-04" rms="3.4512463212013245e-01" purity="4.9170291423797607e-01" nType="-99"/>
        </Node>
      </Node>
    </BinaryTree>
    <BinaryTree type="DecisionTree" boostWeight="1.0000000000000000e+00" itree="478">
      <Node pos="s" depth="0" NCoef="0" IVar="13" Cut="4.7614932060241699e-02" cType="1" res="2.5057480670511723e-03" rms="3.4682860970497131e-01" purity="5.0495928525924683e-01" nType="0">
        <Node pos="l" depth="1" NCoef="0" IVar="11" Cut="4.2847949266433716e-01" cType="1" res="-3.3169288653880358e-03" rms="2.9130145907402039e-01" purity="2.5929322838783264e-01" nType="0">
          <Node pos="l" depth="2" NCoef="0" IVar="-1" Cut="0.0000000000000000e+00" cType="1" res="-3.0510688666254282e-03" rms="2.9660546779632568e-01" purity="1.3418923318386078e-01" nType="-99"/>
          <Node pos="r" depth="2" NCoef="0" IVar="-1" Cut="0.0000000000000000e+00" cType="1" res="8.8752182200551033e-03" rms="2.6017108559608459e-01" purity="9.1786116361618042e-01" nType="-99"/>
        </Node>
        <Node pos="r" depth="1" NCoef="0" IVar="3" Cut="5.3124499320983887e-01" cType="1" res="7.5845243409276009e-03" rms="3.8876894116401672e-01" purity="7.1923923492431641e-01" nType="0">
          <Node pos="l" depth="2" NCoef="0" IVar="-1" Cut="0.0000000000000000e+00" cType="1" res="-5.2740570390596986e-04" rms="3.5835871100425720e-01" purity="7.8306275606155396e-01" nType="-99"/>
          <Node pos="r" depth="2" NCoef="0" IVar="-1" Cut="0.0000000000000000e+00" cType="1" res="4.5137233100831509e-03" rms="4.3947613239288330e-01" purity="5.9996807575225830e-01" nType="-99"/>
        </Node>
      </Node>
    </BinaryTree>
    <BinaryTree type="DecisionTree" boostWeight="1.0000000000000000e+00" itree="479">
      <Node pos="s" depth="0" NCoef="0" IVar="0" Cut="8.2571353912353516e+00" cType="1" res="-2.9246998019516468e-03" rms="3.5143342614173889e-01" purity="4.9852061271667480e-01" nType="0">
        <Node pos="l" depth="1" NCoef="0" IVar="4" Cut="-2.2819161415100098e-01" cType="1" res="-1.4772176742553711e-02" rms="4.1279223561286926e-01" purity="3.6601015925407410e-01" nType="0">
          <Node pos="l" depth="2" NCoef="0" IVar="-1" Cut="0.0000000000000000e+00" cType="1" res="-5.8312594774179161e-05" rms="4.1295558214187622e-01" purity="3.8789856433868408e-01" nType="-99"/>
          <Node pos="r" depth="2" NCoef="0" IVar="-1" Cut="0.0000000000000000e+00" cType="1" res="-7.5157023966312408e-03" rms="4.1158464550971985e-01" purity="3.3311110734939575e-01" nType="-99"/>
        </Node>
        <Node pos="r" depth="1" NCoef="0" IVar="1" Cut="5.1525325775146484e+00" cType="1" res="-2.0357557514216751e-04" rms="3.3570176362991333e-01" purity="5.2895557880401611e-01" nType="0">
          <Node pos="l" depth="2" NCoef="0" IVar="-1" Cut="0.0000000000000000e+00" cType="1" res="7.6740421354770660e-03" rms="4.3880003690719604e-01" purity="3.2247555255889893e-01" nType="-99"/>
          <Node pos="r" depth="2" NCoef="0" IVar="-1" Cut="0.0000000000000000e+00" cType="1" res="-5.0547451246529818e-04" rms="3.3132222294807434e-01" purity="5.3637844324111938e-01" nType="-99"/>
        </Node>
      </Node>
    </BinaryTree>
    <BinaryTree type="DecisionTree" boostWeight="1.0000000000000000e+00" itree="480">
      <Node pos="s" depth="0" NCoef="0" IVar="6" Cut="-3.1102011203765869e+00" cType="1" res="-3.6172054242342710e-03" rms="3.4927552938461304e-01" purity="4.9677491188049316e-01" nType="0">
        <Node pos="l" depth="1" NCoef="0" IVar="2" Cut="8.4688673019409180e+00" cType="1" res="2.4467669427394867e-03" rms="3.2353276014328003e-01" purity="5.9284895658493042e-01" nType="0">
          <Node pos="l" depth="2" NCoef="0" IVar="-1" Cut="0.0000000000000000e+00" cType="1" res="7.0928996428847313e-03" rms="3.3638367056846619e-01" purity="5.6565093994140625e-01" nType="-99"/>
          <Node pos="r" depth="2" NCoef="0" IVar="-1" Cut="0.0000000000000000e+00" cType="1" res="-5.1996367983520031e-04" rms="3.2158017158508301e-01" purity="5.9648656845092773e-01" nType="-99"/>
        </Node>
        <Node pos="r" depth="1" NCoef="0" IVar="2" Cut="8.9509191513061523e+00" cType="1" res="-7.3583875782787800e-03" rms="3.6420089006423950e-01" purity="4.3750181794166565e-01" nType="0">
          <Node pos="l" depth="2" NCoef="0" IVar="-1" Cut="0.0000000000000000e+00" cType="1" res="-3.4738047979772091e-03" rms="3.6612313985824585e-01" purity="4.2231035232543945e-01" nType="-99"/>
          <Node pos="r" depth="2" NCoef="0" IVar="-1" Cut="0.0000000000000000e+00" cType="1" res="-2.8868674417026341e-04" rms="3.6268991231918335e-01" purity="4.4827455282211304e-01" nType="-99"/>
        </Node>
      </Node>
    </BinaryTree>
    <BinaryTree type="DecisionTree" boostWeight="1.0000000000000000e+00" itree="481">
      <Node pos="s" depth="0" NCoef="0" IVar="5" Cut="6.2874774932861328e+00" cType="1" res="4.2076484533026814e-04" rms="3.5029444098472595e-01" purity="4.9914982914924622e-01" nType="0">
        <Node pos="l" depth="1" NCoef="0" IVar="3" Cut="5.3168863058090210e-01" cType="1" res="7.3663340881466866e-03" rms="3.6082538962364197e-01" purity="5.4291594028472900e-01" nType="0">
          <Node pos="l" depth="2" NCoef="0" IVar="-1" Cut="0.0000000000000000e+00" cType="1" res="3.9667487144470215e-03" rms="3.5247519612312317e-01" purity="6.0195612907409668e-01" nType="-99"/>
          <Node pos="r" depth="2" NCoef="0" IVar="-1" Cut="0.0000000000000000e+00" cType="1" res="-3.3833233173936605e-03" rms="3.9629173278808594e-01" purity="2.7005201578140259e-01" nType="-99"/>
        </Node>
        <Node pos="r" depth="1" NCoef="0" IVar="3" Cut="-3.8914504647254944e-01" cType="1" res="-3.0149682424962521e-03" rms="3.4491458535194397e-01" purity="4.7750023007392883e-01" nType="0">
          <Node pos="l" depth="2" NCoef="0" IVar="-1" Cut="0.0000000000000000e+00" cType="1" res="-7.3626753874123096e-03" rms="3.1052631139755249e-01" purity="6.8101465702056885e-01" nType="-99"/>
          <Node pos="r" depth="2" NCoef="0" IVar="-1" Cut="0.0000000000000000e+00" cType="1" res="3.1886406941339374e-04" rms="3.5252100229263306e-01" purity="4.2879864573478699e-01" nType="-99"/>
        </Node>
      </Node>
    </BinaryTree>
    <BinaryTree type="DecisionTree" boostWeight="1.0000000000000000e+00" itree="482">
      <Node pos="s" depth="0" NCoef="0" IVar="12" Cut="4.2843466997146606e-01" cType="1" res="3.2968681771308184e-03" rms="3.5071593523025513e-01" purity="5.0477111339569092e-01" nType="0">
        <Node pos="l" depth="1" NCoef="0" IVar="1" Cut="6.2375226020812988e+00" cType="1" res="-1.1057708179578185e-03" rms="3.3792796730995178e-01" purity="8.0726313591003418e-01" nType="0">
          <Node pos="l" depth="2" NCoef="0" IVar="-1" Cut="0.0000000000000000e+00" cType="1" res="-5.3842156194150448e-03" rms="3.8688540458679199e-01" purity="7.4655771255493164e-01" nType="-99"/>
          <Node pos="r" depth="2" NCoef="0" IVar="-1" Cut="0.0000000000000000e+00" cType="1" res="1.1167614720761776e-03" rms="3.2476121187210083e-01" purity="8.2203507423400879e-01" nType="-99"/>
        </Node>
        <Node pos="r" depth="1" NCoef="0" IVar="3" Cut="-1.6127679347991943e+00" cType="1" res="6.6219540312886238e-03" rms="3.6003744602203369e-01" purity="2.7631449699401855e-01" nType="0">
          <Node pos="l" depth="2" NCoef="0" IVar="-1" Cut="0.0000000000000000e+00" cType="1" res="-5.4736598394811153e-03" rms="3.8990119099617004e-01" purity="4.1508263349533081e-01" nType="-99"/>
          <Node pos="r" depth="2" NCoef="0" IVar="-1" Cut="0.0000000000000000e+00" cType="1" res="2.3780274204909801e-03" rms="3.5742604732513428e-01" purity="2.6511317491531372e-01" nType="-99"/>
        </Node>
      </Node>
    </BinaryTree>
    <BinaryTree type="DecisionTree" boostWeight="1.0000000000000000e+00" itree="483">
      <Node pos="s" depth="0" NCoef="0" IVar="4" Cut="-2.5622730255126953e+00" cType="1" res="1.6754649113863707e-03" rms="3.4730330109596252e-01" purity="5.0102823972702026e-01" nType="0">
        <Node pos="l" depth="1" NCoef="0" IVar="11" Cut="9.5249257981777191e-02" cType="1" res="2.0272465422749519e-02" rms="3.0674281716346741e-01" purity="5.9684193134307861e-01" nType="0">
          <Node pos="l" depth="2" NCoef="0" IVar="-1" Cut="0.0000000000000000e+00" cType="1" res="-6.5792369423434138e-04" rms="3.1976529955863953e-01" purity="1.5823069214820862e-01" nType="-99"/>
          <Node pos="r" depth="2" NCoef="0" IVar="-1" Cut="0.0000000000000000e+00" cType="1" res="1.2258214876055717e-02" rms="2.9747322201728821e-01" purity="8.7122023105621338e-01" nType="-99"/>
        </Node>
        <Node pos="r" depth="1" NCoef="0" IVar="3" Cut="5.3135305643081665e-01" cType="1" res="2.6439575594849885e-04" rms="3.5014885663986206e-01" purity="4.9375820159912109e-01" nType="0">
          <Node pos="l" depth="2" NCoef="0" IVar="-1" Cut="0.0000000000000000e+00" cType="1" res="-1.3332247035577893e-03" rms="3.3977264165878296e-01" purity="5.7761204242706299e-01" nType="-99"/>
          <Node pos="r" depth="2" NCoef="0" IVar="-1" Cut="0.0000000000000000e+00" cType="1" res="1.7273520352318883e-03" rms="3.6508393287658691e-01" purity="3.6780223250389099e-01" nType="-99"/>
        </Node>
      </Node>
    </BinaryTree>
    <BinaryTree type="DecisionTree" boostWeight="1.0000000000000000e+00" itree="484">
      <Node pos="s" depth="0" NCoef="0" IVar="9" Cut="3.6931471824645996e+00" cType="1" res="-6.8336282856762409e-04" rms="2.2701233625411987e-01" purity="4.9936363101005554e-01" nType="0">
        <Node pos="l" depth="1" NCoef="0" IVar="10" Cut="2.0000000000000000e+00" cType="1" res="-7.6652632560580969e-04" rms="2.2569610178470612e-01" purity="5.3994196653366089e-01" nType="0">
          <Node pos="l" depth="2" NCoef="0" IVar="-1" Cut="0.0000000000000000e+00" cType="1" res="1.6476704040542245e-03" rms="3.3013546466827393e-01" purity="5.7701247930526733e-01" nType="-99"/>
          <Node pos="r" depth="2" NCoef="0" IVar="-1" Cut="0.0000000000000000e+00" cType="1" res="-1.9133044406771660e-03" rms="3.5394129157066345e-01" purity="4.8327800631523132e-01" nType="-99"/>
        </Node>
        <Node pos="r" depth="1" NCoef="0" IVar="6" Cut="-3.2130193710327148e+00" cType="1" res="2.6515990612097085e-04" rms="3.6580455303192139e-01" purity="4.1379603743553162e-01" nType="0">
          <Node pos="l" depth="2" NCoef="0" IVar="-1" Cut="0.0000000000000000e+00" cType="1" res="5.2740061655640602e-03" rms="3.4398660063743591e-01" purity="5.1348340511322021e-01" nType="-99"/>
          <Node pos="r" depth="2" NCoef="0" IVar="-1" Cut="0.0000000000000000e+00" cType="1" res="-2.2283003199845552e-03" rms="3.7617129087448120e-01" purity="3.6355945467948914e-01" nType="-99"/>
        </Node>
      </Node>
    </BinaryTree>
    <BinaryTree type="DecisionTree" boostWeight="1.0000000000000000e+00" itree="485">
      <Node pos="s" depth="0" NCoef="0" IVar="11" Cut="9.5235295593738556e-02" cType="1" res="1.8556398572400212e-03" rms="3.4585881233215332e-01" purity="4.9917677044868469e-01" nType="0">
        <Node pos="l" depth="1" NCoef="0" IVar="11" Cut="4.5349664986133575e-02" cType="1" res="-3.9872173219919205e-03" rms="2.9939436912536621e-01" purity="1.2851902842521667e-01" nType="0">
          <Node pos="l" depth="2" NCoef="0" IVar="-1" Cut="0.0000000000000000e+00" cType="1" res="7.7556294854730368e-04" rms="2.2416782379150391e-01" purity="6.2308758497238159e-02" nType="-99"/>
          <Node pos="r" depth="2" NCoef="0" IVar="-1" Cut="0.0000000000000000e+00" cType="1" res="-3.1431997194886208e-03" rms="4.3905213475227356e-01" purity="3.0230888724327087e-01" nType="-99"/>
        </Node>
        <Node pos="r" depth="1" NCoef="0" IVar="0" Cut="8.0394010543823242e+00" cType="1" res="5.9948917478322983e-03" rms="3.7525546550750732e-01" purity="7.6176160573959351e-01" nType="0">
          <Node pos="l" depth="2" NCoef="0" IVar="-1" Cut="0.0000000000000000e+00" cType="1" res="-2.5571344885975122e-03" rms="4.6874850988388062e-01" purity="5.2484273910522461e-01" nType="-99"/>
          <Node pos="r" depth="2" NCoef="0" IVar="-1" Cut="0.0000000000000000e+00" cType="1" res="1.9461922347545624e-03" rms="3.6802411079406738e-01" purity="7.7781474590301514e-01" nType="-99"/>
        </Node>
      </Node>
    </BinaryTree>
    <BinaryTree type="DecisionTree" boostWeight="1.0000000000000000e+00" itree="486">
      <Node pos="s" depth="0" NCoef="0" IVar="8" Cut="-1.1105879396200180e-01" cType="1" res="-2.6613944210112095e-03" rms="3.4708350896835327e-01" purity="4.9549528956413269e-01" nType="0">
        <Node pos="l" depth="1" NCoef="0" IVar="3" Cut="5.3184652328491211e-01" cType="1" res="-9.9011044949293137e-03" rms="3.5640946030616760e-01" purity="4.8953890800476074e-01" nType="0">
          <Node pos="l" depth="2" NCoef="0" IVar="-1" Cut="0.0000000000000000e+00" cType="1" res="-9.1212498955428600e-04" rms="3.4506857395172119e-01" purity="5.9077256917953491e-01" nType="-99"/>
          <Node pos="r" depth="2" NCoef="0" IVar="-1" Cut="0.0000000000000000e+00" cType="1" res="-3.6752058658748865e-03" rms="3.7209200859069824e-01" purity="3.4226822853088379e-01" nType="-99"/>
        </Node>
        <Node pos="r" depth="1" NCoef="0" IVar="6" Cut="-1.5541615486145020e+00" cType="1" res="2.8723604045808315e-03" rms="3.3967852592468262e-01" purity="5.0004816055297852e-01" nType="0">
          <Node pos="l" depth="2" NCoef="0" IVar="-1" Cut="0.0000000000000000e+00" cType="1" res="2.5408279616385698e-03" rms="3.3567857742309570e-01" purity="5.3294694423675537e-01" nType="-99"/>
          <Node pos="r" depth="2" NCoef="0" IVar="-1" Cut="0.0000000000000000e+00" cType="1" res="-7.3553174734115601e-03" rms="3.6527612805366516e-01" purity="2.7154418826103210e-01" nType="-99"/>
        </Node>
      </Node>
    </BinaryTree>
    <BinaryTree type="DecisionTree" boostWeight="1.0000000000000000e+00" itree="487">
      <Node pos="s" depth="0" NCoef="0" IVar="5" Cut="5.2586522102355957e+00" cType="1" res="-3.7721104035881581e-06" rms="3.4958758950233459e-01" purity="5.0106328725814819e-01" nType="0">
        <Node pos="l" depth="1" NCoef="0" IVar="1" Cut="5.7145862579345703e+00" cType="1" res="-1.9725512713193893e-02" rms="3.5999983549118042e-01" purity="5.4114151000976562e-01" nType="0">
          <Node pos="l" depth="2" NCoef="0" IVar="-1" Cut="0.0000000000000000e+00" cType="1" res="-1.1258405633270741e-02" rms="4.0538308024406433e-01" purity="3.2523778080940247e-01" nType="-99"/>
          <Node pos="r" depth="2" NCoef="0" IVar="-1" Cut="0.0000000000000000e+00" cType="1" res="7.3651485145092010e-03" rms="3.0661761760711670e-01" purity="7.4527621269226074e-01" nType="-99"/>
        </Node>
        <Node pos="r" depth="1" NCoef="0" IVar="4" Cut="-1.2958104610443115e+00" cType="1" res="1.3610601890832186e-03" rms="3.4881424903869629e-01" purity="4.9828967452049255e-01" nType="0">
          <Node pos="l" depth="2" NCoef="0" IVar="-1" Cut="0.0000000000000000e+00" cType="1" res="-2.6806325186043978e-03" rms="3.1826561689376831e-01" purity="5.7228577136993408e-01" nType="-99"/>
          <Node pos="r" depth="2" NCoef="0" IVar="-1" Cut="0.0000000000000000e+00" cType="1" res="1.0583570692688227e-03" rms="3.5668787360191345e-01" purity="4.7802713513374329e-01" nType="-99"/>
        </Node>
      </Node>
    </BinaryTree>
    <BinaryTree type="DecisionTree" boostWeight="1.0000000000000000e+00" itree="488">
      <Node pos="s" depth="0" NCoef="0" IVar="9" Cut="3.6931471824645996e+00" cType="1" res="-3.1155257020145655e-03" rms="2.2846110165119171e-01" purity="4.9157482385635376e-01" nType="0">
        <Node pos="l" depth="1" NCoef="0" IVar="1" Cut="5.1485333442687988e+00" cType="1" res="-8.9443661272525787e-03" rms="3.4434333443641663e-01" purity="5.2808952331542969e-01" nType="0">
          <Node pos="l" depth="2" NCoef="0" IVar="-1" Cut="0.0000000000000000e+00" cType="1" res="-7.9006673768162727e-03" rms="4.0957957506179810e-01" purity="2.4841769039630890e-01" nType="-99"/>
          <Node pos="r" depth="2" NCoef="0" IVar="-1" Cut="0.0000000000000000e+00" cType="1" res="-1.8929442157968879e-03" rms="3.4013244509696960e-01" purity="5.4404491186141968e-01" nType="-99"/>
        </Node>
        <Node pos="r" depth="1" NCoef="0" IVar="5" Cut="8.0743741989135742e+00" cType="1" res="-2.0408867858350277e-03" rms="3.6281400918960571e-01" purity="4.1307851672172546e-01" nType="0">
          <Node pos="l" depth="2" NCoef="0" IVar="-1" Cut="0.0000000000000000e+00" cType="1" res="8.3344806625973433e-05" rms="3.6128628253936768e-01" purity="4.1663813591003418e-01" nType="-99"/>
          <Node pos="r" depth="2" NCoef="0" IVar="-1" Cut="0.0000000000000000e+00" cType="1" res="-8.8077187538146973e-03" rms="3.7794196605682373e-01" purity="3.7498959898948669e-01" nType="-99"/>
        </Node>
      </Node>
    </BinaryTree>
    <BinaryTree type="DecisionTree" boostWeight="1.0000000000000000e+00" itree="489">
      <Node pos="s" depth="0" NCoef="0" IVar="9" Cut="3.6931471824645996e+00" cType="1" res="1.0747164487838745e-03" rms="2.2919498383998871e-01" purity="5.0187861919403076e-01" nType="0">
        <Node pos="l" depth="1" NCoef="0" IVar="12" Cut="5.2367359399795532e-01" cType="1" res="2.7329449076205492e-03" rms="3.4154593944549561e-01" purity="5.4174327850341797e-01" nType="0">
          <Node pos="l" depth="2" NCoef="0" IVar="-1" Cut="0.0000000000000000e+00" cType="1" res="-1.1564047308638692e-03" rms="3.3079934120178223e-01" purity="8.1764858961105347e-01" nType="-99"/>
          <Node pos="r" depth="2" NCoef="0" IVar="-1" Cut="0.0000000000000000e+00" cType="1" res="2.1817712113261223e-03" rms="3.5156464576721191e-01" purity="2.7357432246208191e-01" nType="-99"/>
        </Node>
        <Node pos="r" depth="1" NCoef="0" IVar="8" Cut="1.0480435937643051e-01" cType="1" res="-1.6545451944693923e-03" rms="3.6545827984809875e-01" purity="4.1760155558586121e-01" nType="0">
          <Node pos="l" depth="2" NCoef="0" IVar="-1" Cut="0.0000000000000000e+00" cType="1" res="-3.1340857967734337e-03" rms="3.6735516786575317e-01" purity="4.1472890973091125e-01" nType="-99"/>
          <Node pos="r" depth="2" NCoef="0" IVar="-1" Cut="0.0000000000000000e+00" cType="1" res="5.1785521209239960e-03" rms="3.6140114068984985e-01" purity="4.2316573858261108e-01" nType="-99"/>
        </Node>
      </Node>
    </BinaryTree>
    <BinaryTree type="DecisionTree" boostWeight="1.0000000000000000e+00" itree="490">
      <Node pos="s" depth="0" NCoef="0" IVar="0" Cut="8.9097642898559570e+00" cType="1" res="-7.2125613223761320e-04" rms="3.5111075639724731e-01" purity="4.9739864468574524e-01" nType="0">
        <Node pos="l" depth="1" NCoef="0" IVar="1" Cut="6.8615360260009766e+00" cType="1" res="5.8538150042295456e-03" rms="3.8071808218955994e-01" purity="4.3377891182899475e-01" nType="0">
          <Node pos="l" depth="2" NCoef="0" IVar="-1" Cut="0.0000000000000000e+00" cType="1" res="8.5670925909653306e-04" rms="3.8666048645973206e-01" purity="4.1714313626289368e-01" nType="-99"/>
          <Node pos="r" depth="2" NCoef="0" IVar="-1" Cut="0.0000000000000000e+00" cType="1" res="9.6272872760891914e-03" rms="3.2032573223114014e-01" purity="5.8591908216476440e-01" nType="-99"/>
        </Node>
        <Node pos="r" depth="1" NCoef="0" IVar="0" Cut="9.0655784606933594e+00" cType="1" res="-5.7509071193635464e-03" rms="3.2656648755073547e-01" purity="5.4606503248214722e-01" nType="0">
          <Node pos="l" depth="2" NCoef="0" IVar="-1" Cut="0.0000000000000000e+00" cType="1" res="-9.5915803685784340e-03" rms="3.3500057458877563e-01" purity="4.6962249279022217e-01" nType="-99"/>
          <Node pos="r" depth="2" NCoef="0" IVar="-1" Cut="0.0000000000000000e+00" cType="1" res="-1.0019639739766717e-03" rms="3.2540267705917358e-01" purity="5.5557090044021606e-01" nType="-99"/>
        </Node>
      </Node>
    </BinaryTree>
    <BinaryTree type="DecisionTree" boostWeight="1.0000000000000000e+00" itree="491">
      <Node pos="s" depth="0" NCoef="0" IVar="4" Cut="-1.4021370410919189e+00" cType="1" res="1.6859495081007481e-03" rms="3.4914645552635193e-01" purity="5.0054854154586792e-01" nType="0">
        <Node pos="l" depth="1" NCoef="0" IVar="5" Cut="6.4365873336791992e+00" cType="1" res="1.1337805539369583e-02" rms="3.1544092297554016e-01" purity="5.9360367059707642e-01" nType="0">
          <Node pos="l" depth="2" NCoef="0" IVar="-1" Cut="0.0000000000000000e+00" cType="1" res="7.9035786911845207e-03" rms="3.1681412458419800e-01" purity="6.4794027805328369e-01" nType="-99"/>
          <Node pos="r" depth="2" NCoef="0" IVar="-1" Cut="0.0000000000000000e+00" cType="1" res="-8.1647996557876468e-04" rms="3.1306409835815430e-01" purity="5.2011042833328247e-01" nType="-99"/>
        </Node>
        <Node pos="r" depth="1" NCoef="0" IVar="8" Cut="-6.6109555959701538e-01" cType="1" res="-1.0067563271149993e-03" rms="3.5793757438659668e-01" purity="4.7458767890930176e-01" nType="0">
          <Node pos="l" depth="2" NCoef="0" IVar="-1" Cut="0.0000000000000000e+00" cType="1" res="-2.2097332403063774e-03" rms="4.1034069657325745e-01" purity="4.8576980829238892e-01" nType="-99"/>
          <Node pos="r" depth="2" NCoef="0" IVar="-1" Cut="0.0000000000000000e+00" cType="1" res="1.2938729196321219e-04" rms="3.5383531451225281e-01" purity="4.7378495335578918e-01" nType="-99"/>
        </Node>
      </Node>
    </BinaryTree>
    <BinaryTree type="DecisionTree" boostWeight="1.0000000000000000e+00" itree="492">
      <Node pos="s" depth="0" NCoef="0" IVar="9" Cut="4.0000000000000000e+00" cType="1" res="3.4281270927749574e-04" rms="2.2621700167655945e-01" purity="5.0112301111221313e-01" nType="0">
        <Node pos="l" depth="1" NCoef="0" IVar="5" Cut="6.8196258544921875e+00" cType="1" res="1.3822689652442932e-03" rms="3.4500923752784729e-01" purity="5.1376438140869141e-01" nType="0">
          <Node pos="l" depth="2" NCoef="0" IVar="-1" Cut="0.0000000000000000e+00" cType="1" res="1.6128498828038573e-03" rms="3.4769603610038757e-01" purity="5.4009664058685303e-01" nType="-99"/>
          <Node pos="r" depth="2" NCoef="0" IVar="-1" Cut="0.0000000000000000e+00" cType="1" res="-1.0626886505633593e-03" rms="3.4151393175125122e-01" purity="4.8049286007881165e-01" nType="-99"/>
        </Node>
        <Node pos="r" depth="1" NCoef="0" IVar="7" Cut="4.4445116072893143e-02" cType="1" res="-5.5079865269362926e-03" rms="3.7302398681640625e-01" purity="3.7063804268836975e-01" nType="0">
          <Node pos="l" depth="2" NCoef="0" IVar="-1" Cut="0.0000000000000000e+00" cType="1" res="4.1675600223243237e-03" rms="3.7758174538612366e-01" purity="3.9471367001533508e-01" nType="-99"/>
          <Node pos="r" depth="2" NCoef="0" IVar="-1" Cut="0.0000000000000000e+00" cType="1" res="-9.9283847957849503e-03" rms="3.6895862221717834e-01" purity="3.5111397504806519e-01" nType="-99"/>
        </Node>
      </Node>
    </BinaryTree>
    <BinaryTree type="DecisionTree" boostWeight="1.0000000000000000e+00" itree="493">
      <Node pos="s" depth="0" NCoef="0" IVar="9" Cut="3.6931471824645996e+00" cType="1" res="9.8477501887828112e-04" rms="2.2931689023971558e-01" purity="5.0048726797103882e-01" nType="0">
        <Node pos="l" depth="1" NCoef="0" IVar="5" Cut="7.0402297973632812e+00" cType="1" res="3.9678849861957133e-04" rms="3.4002938866615295e-01" purity="5.3945046663284302e-01" nType="0">
          <Node pos="l" depth="2" NCoef="0" IVar="-1" Cut="0.0000000000000000e+00" cType="1" res="1.2215718161314726e-03" rms="3.4252026677131653e-01" purity="5.6335085630416870e-01" nType="-99"/>
          <Node pos="r" depth="2" NCoef="0" IVar="-1" Cut="0.0000000000000000e+00" cType="1" res="-1.6169316368177533e-03" rms="3.3536088466644287e-01" purity="4.9626699090003967e-01" nType="-99"/>
        </Node>
        <Node pos="r" depth="1" NCoef="0" IVar="2" Cut="8.9338378906250000e+00" cType="1" res="8.4416184108704329e-04" rms="3.6767947673797607e-01" purity="4.1532638669013977e-01" nType="0">
          <Node pos="l" depth="2" NCoef="0" IVar="-1" Cut="0.0000000000000000e+00" cType="1" res="2.9608947224915028e-03" rms="3.7488394975662231e-01" purity="4.1388639807701111e-01" nType="-99"/>
          <Node pos="r" depth="2" NCoef="0" IVar="-1" Cut="0.0000000000000000e+00" cType="1" res="-2.8653610497713089e-03" rms="3.6215761303901672e-01" purity="4.1638475656509399e-01" nType="-99"/>
        </Node>
      </Node>
    </BinaryTree>
    <BinaryTree type="DecisionTree" boostWeight="1.0000000000000000e+00" itree="494">
      <Node pos="s" depth="0" NCoef="0" IVar="6" Cut="-1.6602021455764771e+00" cType="1" res="-1.3576117344200611e-03" rms="3.4946706891059875e-01" purity="4.9927994608879089e-01" nType="0">
        <Node pos="l" depth="1" NCoef="0" IVar="2" Cut="8.4688673019409180e+00" cType="1" res="1.0229974286630750e-03" rms="3.4483620524406433e-01" purity="5.3505367040634155e-01" nType="0">
          <Node pos="l" depth="2" NCoef="0" IVar="-1" Cut="0.0000000000000000e+00" cType="1" res="3.7367958575487137e-03" rms="3.5041192173957825e-01" purity="5.0485682487487793e-01" nType="-99"/>
          <Node pos="r" depth="2" NCoef="0" IVar="-1" Cut="0.0000000000000000e+00" cType="1" res="-5.1565316971391439e-04" rms="3.4392356872558594e-01" purity="5.3955340385437012e-01" nType="-99"/>
        </Node>
        <Node pos="r" depth="1" NCoef="0" IVar="11" Cut="4.7629851847887039e-02" cType="1" res="-1.5171092934906483e-02" rms="3.7491318583488464e-01" purity="2.9170304536819458e-01" nType="0">
          <Node pos="l" depth="2" NCoef="0" IVar="-1" Cut="0.0000000000000000e+00" cType="1" res="1.3755394611507654e-03" rms="2.5849604606628418e-01" purity="7.8869700431823730e-02" nType="-99"/>
          <Node pos="r" depth="2" NCoef="0" IVar="-1" Cut="0.0000000000000000e+00" cType="1" res="-5.1121669821441174e-03" rms="4.3384742736816406e-01" purity="4.3025860190391541e-01" nType="-99"/>
        </Node>
      </Node>
    </BinaryTree>
    <BinaryTree type="DecisionTree" boostWeight="1.0000000000000000e+00" itree="495">
      <Node pos="s" depth="0" NCoef="0" IVar="13" Cut="9.5229387283325195e-02" cType="1" res="9.9284236785024405e-04" rms="3.5183349251747131e-01" purity="5.0113135576248169e-01" nType="0">
        <Node pos="l" depth="1" NCoef="0" IVar="13" Cut="4.5345835387706757e-03" cType="1" res="5.6979591026902199e-03" rms="3.3359533548355103e-01" purity="3.2623076438903809e-01" nType="0">
          <Node pos="l" depth="2" NCoef="0" IVar="-1" Cut="0.0000000000000000e+00" cType="1" res="-8.9116115123033524e-03" rms="1.4797541499137878e-01" purity="9.1249272227287292e-02" nType="-99"/>
          <Node pos="r" depth="2" NCoef="0" IVar="-1" Cut="0.0000000000000000e+00" cType="1" res="2.8702795971184969e-03" rms="3.9407819509506226e-01" purity="4.4231501221656799e-01" nType="-99"/>
        </Node>
        <Node pos="r" depth="1" NCoef="0" IVar="9" Cut="3.6931471824645996e+00" cType="1" res="-1.1273267446085811e-03" rms="2.0057889819145203e-01" purity="7.5254702568054199e-01" nType="0">
          <Node pos="l" depth="2" NCoef="0" IVar="-1" Cut="0.0000000000000000e+00" cType="1" res="-6.2795553822070360e-04" rms="3.5714933276176453e-01" purity="7.8616660833358765e-01" nType="-99"/>
          <Node pos="r" depth="2" NCoef="0" IVar="-1" Cut="0.0000000000000000e+00" cType="1" res="-4.4853053987026215e-03" rms="4.1896361112594604e-01" purity="6.7173707485198975e-01" nType="-99"/>
        </Node>
      </Node>
    </BinaryTree>
    <BinaryTree type="DecisionTree" boostWeight="1.0000000000000000e+00" itree="496">
      <Node pos="s" depth="0" NCoef="0" IVar="4" Cut="3.9387521147727966e-01" cType="1" res="-1.0296419495716691e-03" rms="3.4968793392181396e-01" purity="5.0001680850982666e-01" nType="0">
        <Node pos="l" depth="1" NCoef="0" IVar="6" Cut="-8.2963663339614868e-01" cType="1" res="6.3898594817146659e-04" rms="3.4532749652862549e-01" purity="5.1912814378738403e-01" nType="0">
          <Node pos="l" depth="2" NCoef="0" IVar="-1" Cut="0.0000000000000000e+00" cType="1" res="4.2596660205163062e-04" rms="3.4396287798881531e-01" purity="5.3226536512374878e-01" nType="-99"/>
          <Node pos="r" depth="2" NCoef="0" IVar="-1" Cut="0.0000000000000000e+00" cType="1" res="-4.1825813241302967e-03" rms="3.7362787127494812e-01" purity="2.3123691976070404e-01" nType="-99"/>
        </Node>
        <Node pos="r" depth="1" NCoef="0" IVar="3" Cut="2.4764929711818695e-01" cType="1" res="-1.3373157940804958e-02" rms="3.8016697764396667e-01" purity="3.5864284634590149e-01" nType="0">
          <Node pos="l" depth="2" NCoef="0" IVar="-1" Cut="0.0000000000000000e+00" cType="1" res="-1.0264859534800053e-02" rms="3.8386899232864380e-01" purity="3.9625424146652222e-01" nType="-99"/>
          <Node pos="r" depth="2" NCoef="0" IVar="-1" Cut="0.0000000000000000e+00" cType="1" res="1.0566042037680745e-03" rms="3.7666350603103638e-01" purity="3.3396291732788086e-01" nType="-99"/>
        </Node>
      </Node>
    </BinaryTree>
    <BinaryTree type="DecisionTree" boostWeight="1.0000000000000000e+00" itree="497">
      <Node pos="s" depth="0" NCoef="0" IVar="6" Cut="-2.5746245384216309e+00" cType="1" res="-4.4536934001371264e-04" rms="3.5231986641883850e-01" purity="5.0157648324966431e-01" nType="0">
        <Node pos="l" depth="1" NCoef="0" IVar="4" Cut="3.9387521147727966e-01" cType="1" res="-6.9694486446678638e-03" rms="3.3629110455513000e-01" purity="5.7069718837738037e-01" nType="0">
          <Node pos="l" depth="2" NCoef="0" IVar="-1" Cut="0.0000000000000000e+00" cType="1" res="-1.4328362885862589e-03" rms="3.2932174205780029e-01" purity="5.9058660268783569e-01" nType="-99"/>
          <Node pos="r" depth="2" NCoef="0" IVar="-1" Cut="0.0000000000000000e+00" cType="1" res="-6.6736768931150436e-03" rms="3.9026126265525818e-01" purity="3.9987677335739136e-01" nType="-99"/>
        </Node>
        <Node pos="r" depth="1" NCoef="0" IVar="0" Cut="8.8992795944213867e+00" cType="1" res="9.1181769967079163e-03" rms="3.7437316775321960e-01" purity="4.0025353431701660e-01" nType="0">
          <Node pos="l" depth="2" NCoef="0" IVar="-1" Cut="0.0000000000000000e+00" cType="1" res="-5.1748618716374040e-04" rms="3.9825132489204407e-01" purity="3.4916928410530090e-01" nType="-99"/>
          <Node pos="r" depth="2" NCoef="0" IVar="-1" Cut="0.0000000000000000e+00" cType="1" res="5.6941360235214233e-03" rms="3.4952154755592346e-01" purity="4.4941586256027222e-01" nType="-99"/>
        </Node>
      </Node>
    </BinaryTree>
    <BinaryTree type="DecisionTree" boostWeight="1.0000000000000000e+00" itree="498">
      <Node pos="s" depth="0" NCoef="0" IVar="8" Cut="-7.2045430541038513e-02" cType="1" res="1.9429148233029991e-04" rms="3.4896886348724365e-01" purity="4.9582117795944214e-01" nType="0">
        <Node pos="l" depth="1" NCoef="0" IVar="5" Cut="7.4221982955932617e+00" cType="1" res="-6.1877327971160412e-03" rms="3.5572120547294617e-01" purity="4.8996385931968689e-01" nType="0">
          <Node pos="l" depth="2" NCoef="0" IVar="-1" Cut="0.0000000000000000e+00" cType="1" res="-2.8478002641350031e-03" rms="3.5612916946411133e-01" purity="4.9481135606765747e-01" nType="-99"/>
          <Node pos="r" depth="2" NCoef="0" IVar="-1" Cut="0.0000000000000000e+00" cType="1" res="2.1670453716069460e-03" rms="3.5368552803993225e-01" purity="4.7208553552627563e-01" nType="-99"/>
        </Node>
        <Node pos="r" depth="1" NCoef="0" IVar="7" Cut="4.6395799517631531e-01" cType="1" res="5.9887180104851723e-03" rms="3.4262007474899292e-01" purity="5.0113922357559204e-01" nType="0">
          <Node pos="l" depth="2" NCoef="0" IVar="-1" Cut="0.0000000000000000e+00" cType="1" res="9.7229157108813524e-04" rms="3.3952200412750244e-01" purity="5.1465666294097900e-01" nType="-99"/>
          <Node pos="r" depth="2" NCoef="0" IVar="-1" Cut="0.0000000000000000e+00" cType="1" res="5.1848930306732655e-03" rms="3.4969717264175415e-01" purity="4.6920931339263916e-01" nType="-99"/>
        </Node>
      </Node>
    </BinaryTree>
    <BinaryTree type="DecisionTree" boostWeight="1.0000000000000000e+00" itree="499">
      <Node pos="s" depth="0" NCoef="0" IVar="4" Cut="-1.7076884508132935e+00" cType="1" res="8.1694073742255569e-04" rms="3.4805864095687866e-01" purity="5.0157916545867920e-01" nType="0">
        <Node pos="l" depth="1" NCoef="0" IVar="12" Cut="8.5649728775024414e-01" cType="1" res="1.2443889863789082e-02" rms="3.1050920486450195e-01" purity="6.0375452041625977e-01" nType="0">
          <Node pos="l" depth="2" NCoef="0" IVar="-1" Cut="0.0000000000000000e+00" cType="1" res="6.9778738543391228e-03" rms="3.1829962134361267e-01" purity="7.8642201423645020e-01" nType="-99"/>
          <Node pos="r" depth="2" NCoef="0" IVar="-1" Cut="0.0000000000000000e+00" cType="1" res="-2.8402816969901323e-03" rms="2.8825253248214722e-01" purity="1.2574040889739990e-01" nType="-99"/>
        </Node>
        <Node pos="r" depth="1" NCoef="0" IVar="5" Cut="5.4203200340270996e+00" cType="1" res="-1.4087840681895614e-03" rms="3.5475030541419983e-01" purity="4.8202002048492432e-01" nType="0">
          <Node pos="l" depth="2" NCoef="0" IVar="-1" Cut="0.0000000000000000e+00" cType="1" res="-7.1167601272463799e-03" rms="3.9821407198905945e-01" purity="4.3922436237335205e-01" nType="-99"/>
          <Node pos="r" depth="2" NCoef="0" IVar="-1" Cut="0.0000000000000000e+00" cType="1" res="1.7722639313433319e-04" rms="3.5155275464057922e-01" purity="4.8488974571228027e-01" nType="-99"/>
        </Node>
      </Node>
    </BinaryTree>
    <BinaryTree type="DecisionTree" boostWeight="1.0000000000000000e+00" itree="500">
      <Node pos="s" depth="0" NCoef="0" IVar="6" Cut="-1.9929618835449219e+00" cType="1" res="3.5697664134204388e-04" rms="3.4892728924751282e-01" purity="5.0224256515502930e-01" nType="0">
        <Node pos="l" depth="1" NCoef="0" IVar="9" Cut="3.6931471824645996e+00" cType="1" res="1.8460337305441499e-03" rms="2.1812145411968231e-01" purity="5.5061954259872437e-01" nType="0">
          <Node pos="l" depth="2" NCoef="0" IVar="-1" Cut="0.0000000000000000e+00" cType="1" res="5.5869907373562455e-04" rms="3.3491379022598267e-01" purity="5.9229159355163574e-01" nType="-99"/>
          <Node pos="r" depth="2" NCoef="0" IVar="-1" Cut="0.0000000000000000e+00" cType="1" res="2.3951581679284573e-03" rms="3.5881581902503967e-01" purity="4.6378901600837708e-01" nType="-99"/>
        </Node>
        <Node pos="r" depth="1" NCoef="0" IVar="6" Cut="-1.7709085941314697e+00" cType="1" res="-1.0371019132435322e-02" rms="3.6959415674209595e-01" purity="3.2958507537841797e-01" nType="0">
          <Node pos="l" depth="2" NCoef="0" IVar="-1" Cut="0.0000000000000000e+00" cType="1" res="-7.4577373452484608e-03" rms="3.5921728610992432e-01" purity="3.8230383396148682e-01" nType="-99"/>
          <Node pos="r" depth="2" NCoef="0" IVar="-1" Cut="0.0000000000000000e+00" cType="1" res="-1.2871457729488611e-03" rms="3.7248912453651428e-01" purity="3.1372040510177612e-01" nType="-99"/>
        </Node>
      </Node>
    </BinaryTree>
    <BinaryTree type="DecisionTree" boostWeight="1.0000000000000000e+00" itree="501">
      <Node pos="s" depth="0" NCoef="0" IVar="8" Cut="-5.3537660837173462e-01" cType="1" res="5.0480419304221869e-04" rms="3.4828233718872070e-01" purity="5.0062763690948486e-01" nType="0">
        <Node pos="l" depth="1" NCoef="0" IVar="3" Cut="2.6212614774703979e-01" cType="1" res="1.6076399013400078e-02" rms="3.8773170113563538e-01" purity="5.3153848648071289e-01" nType="0">
          <Node pos="l" depth="2" NCoef="0" IVar="-1" Cut="0.0000000000000000e+00" cType="1" res="-1.9178770889993757e-04" rms="3.6583304405212402e-01" purity="6.4002162218093872e-01" nType="-99"/>
          <Node pos="r" depth="2" NCoef="0" IVar="-1" Cut="0.0000000000000000e+00" cType="1" res="3.6571526434272528e-03" rms="4.0676674246788025e-01" purity="4.2847341299057007e-01" nType="-99"/>
        </Node>
        <Node pos="r" depth="1" NCoef="0" IVar="1" Cut="5.7224564552307129e+00" cType="1" res="-1.3044241350144148e-03" rms="3.4335929155349731e-01" purity="4.9703615903854370e-01" nType="0">
          <Node pos="l" depth="2" NCoef="0" IVar="-1" Cut="0.0000000000000000e+00" cType="1" res="-3.1819418072700500e-03" rms="3.9322283864021301e-01" purity="3.0128514766693115e-01" nType="-99"/>
          <Node pos="r" depth="2" NCoef="0" IVar="-1" Cut="0.0000000000000000e+00" cType="1" res="3.9416510844603181e-04" rms="3.3095329999923706e-01" purity="5.4146504402160645e-01" nType="-99"/>
        </Node>
      </Node>
    </BinaryTree>
    <BinaryTree type="DecisionTree" boostWeight="1.0000000000000000e+00" itree="502">
      <Node pos="s" depth="0" NCoef="0" IVar="3" Cut="5.3171902894973755e-01" cType="1" res="3.6089224740862846e-03" rms="3.5083582997322083e-01" purity="5.0378566980361938e-01" nType="0">
        <Node pos="l" depth="1" NCoef="0" IVar="4" Cut="4.8242352902889252e-02" cType="1" res="-1.0599809465929866e-03" rms="3.3977368474006653e-01" purity="5.8852320909500122e-01" nType="0">
          <Node pos="l" depth="2" NCoef="0" IVar="-1" Cut="0.0000000000000000e+00" cType="1" res="1.5078132273629308e-03" rms="3.2595127820968628e-01" purity="6.3606315851211548e-01" nType="-99"/>
          <Node pos="r" depth="2" NCoef="0" IVar="-1" Cut="0.0000000000000000e+00" cType="1" res="-4.2266990058124065e-03" rms="3.7924513220787048e-01" purity="4.4014668464660645e-01" nType="-99"/>
        </Node>
        <Node pos="r" depth="1" NCoef="0" IVar="2" Cut="8.6051225662231445e+00" cType="1" res="1.0812946595251560e-02" rms="3.6713489890098572e-01" purity="3.7303742766380310e-01" nType="0">
          <Node pos="l" depth="2" NCoef="0" IVar="-1" Cut="0.0000000000000000e+00" cType="1" res="1.0160270147025585e-02" rms="3.6195045709609985e-01" purity="4.2152374982833862e-01" nType="-99"/>
          <Node pos="r" depth="2" NCoef="0" IVar="-1" Cut="0.0000000000000000e+00" cType="1" res="4.6916076826164499e-05" rms="3.6762675642967224e-01" purity="3.6105585098266602e-01" nType="-99"/>
        </Node>
      </Node>
    </BinaryTree>
    <BinaryTree type="DecisionTree" boostWeight="1.0000000000000000e+00" itree="503">
      <Node pos="s" depth="0" NCoef="0" IVar="5" Cut="8.2200031280517578e+00" cType="1" res="-6.5892608836293221e-04" rms="3.5090908408164978e-01" purity="5.0213015079498291e-01" nType="0">
        <Node pos="l" depth="1" NCoef="0" IVar="7" Cut="-5.0381249189376831e-01" cType="1" res="6.4679147908464074e-04" rms="3.4831938147544861e-01" purity="5.0755816698074341e-01" nType="0">
          <Node pos="l" depth="2" NCoef="0" IVar="-1" Cut="0.0000000000000000e+00" cType="1" res="-2.3917485959827900e-03" rms="3.5139846801757812e-01" purity="5.1572948694229126e-01" nType="-99"/>
          <Node pos="r" depth="2" NCoef="0" IVar="-1" Cut="0.0000000000000000e+00" cType="1" res="9.2171173309907317e-04" rms="3.4747505187988281e-01" purity="5.0542759895324707e-01" nType="-99"/>
        </Node>
        <Node pos="r" depth="1" NCoef="0" IVar="12" Cut="4.2803841829299927e-01" cType="1" res="-1.8863476812839508e-02" rms="3.8474458456039429e-01" purity="4.2645233869552612e-01" nType="0">
          <Node pos="l" depth="2" NCoef="0" IVar="-1" Cut="0.0000000000000000e+00" cType="1" res="-7.7436533756554127e-03" rms="4.1213870048522949e-01" purity="6.0899466276168823e-01" nType="-99"/>
          <Node pos="r" depth="2" NCoef="0" IVar="-1" Cut="0.0000000000000000e+00" cType="1" res="-1.2611510464921594e-03" rms="3.5707643628120422e-01" purity="2.5772008299827576e-01" nType="-99"/>
        </Node>
      </Node>
    </BinaryTree>
    <BinaryTree type="DecisionTree" boostWeight="1.0000000000000000e+00" itree="504">
      <Node pos="s" depth="0" NCoef="0" IVar="8" Cut="-7.2846519947052002e-01" cType="1" res="1.1229304363951087e-03" rms="3.5127219557762146e-01" purity="5.0392216444015503e-01" nType="0">
        <Node pos="l" depth="1" NCoef="0" IVar="-1" Cut="0.0000000000000000e+00" cType="1" res="2.6495191268622875e-03" rms="4.1661918163299561e-01" purity="5.5335658788681030e-01" nType="-99"/>
        <Node pos="r" depth="1" NCoef="0" IVar="7" Cut="-2.6375192403793335e-01" cType="1" res="-2.7199366013519466e-04" rms="3.4734812378883362e-01" purity="5.0125890970230103e-01" nType="0">
          <Node pos="l" depth="2" NCoef="0" IVar="-1" Cut="0.0000000000000000e+00" cType="1" res="-2.9017268680036068e-03" rms="3.5308533906936646e-01" purity="5.1205319166183472e-01" nType="-99"/>
          <Node pos="r" depth="2" NCoef="0" IVar="-1" Cut="0.0000000000000000e+00" cType="1" res="1.0768630309030414e-03" rms="3.4491547942161560e-01" purity="4.9684983491897583e-01" nType="-99"/>
        </Node>
      </Node>
    </BinaryTree>
    <BinaryTree type="DecisionTree" boostWeight="1.0000000000000000e+00" itree="505">
      <Node pos="s" depth="0" NCoef="0" IVar="4" Cut="-3.1955041885375977e+00" cType="1" res="-3.4456266439519823e-04" rms="3.4828144311904907e-01" purity="4.9856474995613098e-01" nType="0">
        <Node pos="l" depth="1" NCoef="0" IVar="-1" Cut="0.0000000000000000e+00" cType="1" res="9.5650656148791313e-03" rms="3.0486097931861877e-01" purity="6.1149078607559204e-01" nType="-99"/>
        <Node pos="r" depth="1" NCoef="0" IVar="3" Cut="-1.3089292049407959e+00" cType="1" res="-1.4016998466104269e-03" rms="3.4986442327499390e-01" purity="4.9404844641685486e-01" nType="0">
          <Node pos="l" depth="2" NCoef="0" IVar="-1" Cut="0.0000000000000000e+00" cType="1" res="-5.7747173123061657e-03" rms="3.0973073840141296e-01" purity="6.9252383708953857e-01" nType="-99"/>
          <Node pos="r" depth="2" NCoef="0" IVar="-1" Cut="0.0000000000000000e+00" cType="1" res="1.3431151455733925e-04" rms="3.5560765862464905e-01" purity="4.6347117424011230e-01" nType="-99"/>
        </Node>
      </Node>
    </BinaryTree>
    <BinaryTree type="DecisionTree" boostWeight="1.0000000000000000e+00" itree="506">
      <Node pos="s" depth="0" NCoef="0" IVar="8" Cut="-6.6087120771408081e-01" cType="1" res="3.9303433150053024e-03" rms="3.4894695878028870e-01" purity="5.0477153062820435e-01" nType="0">
        <Node pos="l" depth="1" NCoef="0" IVar="-1" Cut="0.0000000000000000e+00" cType="1" res="2.9294092673808336e-03" rms="4.0167310833930969e-01" purity="5.5764496326446533e-01" nType="-99"/>
        <Node pos="r" depth="1" NCoef="0" IVar="9" Cut="3.6931471824645996e+00" cType="1" res="2.8889687382616103e-04" rms="2.2278799116611481e-01" purity="5.0097560882568359e-01" nType="0">
          <Node pos="l" depth="2" NCoef="0" IVar="-1" Cut="0.0000000000000000e+00" cType="1" res="6.0907803708687425e-04" rms="3.3650150895118713e-01" purity="5.4244023561477661e-01" nType="-99"/>
          <Node pos="r" depth="2" NCoef="0" IVar="-1" Cut="0.0000000000000000e+00" cType="1" res="1.2016758555546403e-03" rms="3.6145433783531189e-01" purity="4.1455137729644775e-01" nType="-99"/>
        </Node>
      </Node>
    </BinaryTree>
    <BinaryTree type="DecisionTree" boostWeight="1.0000000000000000e+00" itree="507">
      <Node pos="s" depth="0" NCoef="0" IVar="8" Cut="-1.0886470228433609e-01" cType="1" res="2.5288213510066271e-03" rms="3.4970316290855408e-01" purity="5.0006830692291260e-01" nType="0">
        <Node pos="l" depth="1" NCoef="0" IVar="0" Cut="8.2538166046142578e+00" cType="1" res="-3.2341079786419868e-03" rms="3.5614091157913208e-01" purity="4.8846486210823059e-01" nType="0">
          <Node pos="l" depth="2" NCoef="0" IVar="-1" Cut="0.0000000000000000e+00" cType="1" res="-4.0177707560360432e-03" rms="4.1689211130142212e-01" purity="3.7037289142608643e-01" nType="-99"/>
          <Node pos="r" depth="2" NCoef="0" IVar="-1" Cut="0.0000000000000000e+00" cType="1" res="4.2041804408654571e-04" rms="3.3617839217185974e-01" purity="5.2294868230819702e-01" nType="-99"/>
        </Node>
        <Node pos="r" depth="1" NCoef="0" IVar="8" Cut="4.5990505814552307e-01" cType="1" res="6.8583046086132526e-03" rms="3.4472423791885376e-01" purity="5.0878554582595825e-01" nType="0">
          <Node pos="l" depth="2" NCoef="0" IVar="-1" Cut="0.0000000000000000e+00" cType="1" res="1.8041321309283376e-03" rms="3.4268495440483093e-01" purity="5.1362049579620361e-01" nType="-99"/>
          <Node pos="r" depth="2" NCoef="0" IVar="-1" Cut="0.0000000000000000e+00" cType="1" res="7.2219730354845524e-03" rms="3.5978168249130249e-01" purity="4.7100993990898132e-01" nType="-99"/>
        </Node>
      </Node>
    </BinaryTree>
    <BinaryTree type="DecisionTree" boostWeight="1.0000000000000000e+00" itree="508">
      <Node pos="s" depth="0" NCoef="0" IVar="2" Cut="8.3750495910644531e+00" cType="1" res="2.7835916262120008e-04" rms="3.4819021821022034e-01" purity="5.0268113613128662e-01" nType="0">
        <Node pos="l" depth="1" NCoef="0" IVar="3" Cut="2.4950297176837921e-01" cType="1" res="1.4324935153126717e-02" rms="3.4996894001960754e-01" purity="4.9143722653388977e-01" nType="0">
          <Node pos="l" depth="2" NCoef="0" IVar="-1" Cut="0.0000000000000000e+00" cType="1" res="-3.1030175741761923e-03" rms="3.3716118335723877e-01" purity="5.5285394191741943e-01" nType="-99"/>
          <Node pos="r" depth="2" NCoef="0" IVar="-1" Cut="0.0000000000000000e+00" cType="1" res="7.0923347957432270e-03" rms="3.5930681228637695e-01" purity="4.3603479862213135e-01" nType="-99"/>
        </Node>
        <Node pos="r" depth="1" NCoef="0" IVar="0" Cut="1.0662818908691406e+01" cType="1" res="-1.2072041863575578e-03" rms="3.4796842932701111e-01" purity="5.0387030839920044e-01" nType="0">
          <Node pos="l" depth="2" NCoef="0" IVar="-1" Cut="0.0000000000000000e+00" cType="1" res="4.8778424570627976e-06" rms="3.4592267870903015e-01" purity="5.0036638975143433e-01" nType="-99"/>
          <Node pos="r" depth="2" NCoef="0" IVar="-1" Cut="0.0000000000000000e+00" cType="1" res="-4.3951026163995266e-03" rms="3.7738823890686035e-01" purity="5.5746412277221680e-01" nType="-99"/>
        </Node>
      </Node>
    </BinaryTree>
    <BinaryTree type="DecisionTree" boostWeight="1.0000000000000000e+00" itree="509">
      <Node pos="s" depth="0" NCoef="0" IVar="5" Cut="8.1449985504150391e+00" cType="1" res="-2.3597718682140112e-03" rms="3.5130706429481506e-01" purity="4.9792811274528503e-01" nType="0">
        <Node pos="l" depth="1" NCoef="0" IVar="11" Cut="9.5231473445892334e-02" cType="1" res="-3.6420924589037895e-03" rms="3.4990602731704712e-01" purity="5.0082570314407349e-01" nType="0">
          <Node pos="l" depth="2" NCoef="0" IVar="-1" Cut="0.0000000000000000e+00" cType="1" res="9.3932350864633918e-04" rms="3.0920642614364624e-01" purity="1.4163526892662048e-01" nType="-99"/>
          <Node pos="r" depth="2" NCoef="0" IVar="-1" Cut="0.0000000000000000e+00" cType="1" res="-2.2683998104184866e-03" rms="3.7653243541717529e-01" purity="7.6046544313430786e-01" nType="-99"/>
        </Node>
        <Node pos="r" depth="1" NCoef="0" IVar="11" Cut="3.3320537209510803e-01" cType="1" res="1.3641417957842350e-02" rms="3.6796623468399048e-01" purity="4.6177086234092712e-01" nType="0">
          <Node pos="l" depth="2" NCoef="0" IVar="-1" Cut="0.0000000000000000e+00" cType="1" res="-3.7673786282539368e-03" rms="3.3760610222816467e-01" purity="1.8432910740375519e-01" nType="-99"/>
          <Node pos="r" depth="2" NCoef="0" IVar="-1" Cut="0.0000000000000000e+00" cType="1" res="9.6191419288516045e-03" rms="3.9787957072257996e-01" purity="7.8523391485214233e-01" nType="-99"/>
        </Node>
      </Node>
    </BinaryTree>
    <BinaryTree type="DecisionTree" boostWeight="1.0000000000000000e+00" itree="510">
      <Node pos="s" depth="0" NCoef="0" IVar="1" Cut="6.0302743911743164e+00" cType="1" res="1.7325689550489187e-03" rms="3.5163682699203491e-01" purity="5.0075417757034302e-01" nType="0">
        <Node pos="l" depth="1" NCoef="0" IVar="4" Cut="1.4137980341911316e-01" cType="1" res="1.0753749869763851e-02" rms="3.9429259300231934e-01" purity="3.6241608858108521e-01" nType="0">
          <Node pos="l" depth="2" NCoef="0" IVar="-1" Cut="0.0000000000000000e+00" cType="1" res="1.0134645272046328e-03" rms="3.9619201421737671e-01" purity="3.7450739741325378e-01" nType="-99"/>
          <Node pos="r" depth="2" NCoef="0" IVar="-1" Cut="0.0000000000000000e+00" cType="1" res="7.8168911859393120e-03" rms="3.8820132613182068e-01" purity="3.2790452241897583e-01" nType="-99"/>
        </Node>
        <Node pos="r" depth="1" NCoef="0" IVar="2" Cut="8.8053827285766602e+00" cType="1" res="-2.3893369361758232e-03" rms="3.3023646473884583e-01" purity="5.6396275758743286e-01" nType="0">
          <Node pos="l" depth="2" NCoef="0" IVar="-1" Cut="0.0000000000000000e+00" cType="1" res="-2.6565527077764273e-03" rms="3.3989113569259644e-01" purity="5.2309483289718628e-01" nType="-99"/>
          <Node pos="r" depth="2" NCoef="0" IVar="-1" Cut="0.0000000000000000e+00" cType="1" res="5.7924445718526840e-04" rms="3.2597014307975769e-01" purity="5.8133322000503540e-01" nType="-99"/>
        </Node>
      </Node>
    </BinaryTree>
    <BinaryTree type="DecisionTree" boostWeight="1.0000000000000000e+00" itree="511">
      <Node pos="s" depth="0" NCoef="0" IVar="9" Cut="3.6931471824645996e+00" cType="1" res="-1.8482322047930211e-04" rms="2.2892978787422180e-01" purity="5.0113832950592041e-01" nType="0">
        <Node pos="l" depth="1" NCoef="0" IVar="2" Cut="8.8300380706787109e+00" cType="1" res="5.1039684331044555e-04" rms="3.4187158942222595e-01" purity="5.4046869277954102e-01" nType="0">
          <Node pos="l" depth="2" NCoef="0" IVar="-1" Cut="0.0000000000000000e+00" cType="1" res="-2.1224827505648136e-03" rms="3.5175710916519165e-01" purity="5.0562626123428345e-01" nType="-99"/>
          <Node pos="r" depth="2" NCoef="0" IVar="-1" Cut="0.0000000000000000e+00" cType="1" res="1.9278050167486072e-03" rms="3.3735033869743347e-01" purity="5.5560243129730225e-01" nType="-99"/>
        </Node>
        <Node pos="r" depth="1" NCoef="0" IVar="2" Cut="8.5208473205566406e+00" cType="1" res="2.6651090011000633e-03" rms="3.6554235219955444e-01" purity="4.1695639491081238e-01" nType="0">
          <Node pos="l" depth="2" NCoef="0" IVar="-1" Cut="0.0000000000000000e+00" cType="1" res="5.1703355275094509e-03" rms="3.7445771694183350e-01" purity="4.1116088628768921e-01" nType="-99"/>
          <Node pos="r" depth="2" NCoef="0" IVar="-1" Cut="0.0000000000000000e+00" cType="1" res="-1.6971585864666849e-04" rms="3.6368346214294434e-01" purity="4.1809749603271484e-01" nType="-99"/>
        </Node>
      </Node>
    </BinaryTree>
    <BinaryTree type="DecisionTree" boostWeight="1.0000000000000000e+00" itree="512">
      <Node pos="s" depth="0" NCoef="0" IVar="13" Cut="4.7614932060241699e-01" cType="1" res="2.8234135243110359e-04" rms="3.5072794556617737e-01" purity="5.0076293945312500e-01" nType="0">
        <Node pos="l" depth="1" NCoef="0" IVar="3" Cut="5.3173953294754028e-01" cType="1" res="3.1931267585605383e-03" rms="3.5013550519943237e-01" purity="4.3359416723251343e-01" nType="0">
          <Node pos="l" depth="2" NCoef="0" IVar="-1" Cut="0.0000000000000000e+00" cType="1" res="2.4351389147341251e-03" rms="3.4690874814987183e-01" purity="5.2138090133666992e-01" nType="-99"/>
          <Node pos="r" depth="2" NCoef="0" IVar="-1" Cut="0.0000000000000000e+00" cType="1" res="-9.8869227804243565e-04" rms="3.5466775298118591e-01" purity="3.0572479963302612e-01" nType="-99"/>
        </Node>
        <Node pos="r" depth="1" NCoef="0" IVar="12" Cut="4.1765574365854263e-02" cType="1" res="-1.1759735643863678e-02" rms="3.5291334986686707e-01" purity="7.7864378690719604e-01" nType="0">
          <Node pos="l" depth="2" NCoef="0" IVar="-1" Cut="0.0000000000000000e+00" cType="1" res="-1.7684568883851171e-03" rms="3.3846557140350342e-01" purity="8.0772912502288818e-01" nType="-99"/>
          <Node pos="r" depth="2" NCoef="0" IVar="-1" Cut="0.0000000000000000e+00" cType="1" res="-7.9502519220113754e-03" rms="3.7536990642547607e-01" purity="7.3028403520584106e-01" nType="-99"/>
        </Node>
      </Node>
    </BinaryTree>
    <BinaryTree type="DecisionTree" boostWeight="1.0000000000000000e+00" itree="513">
      <Node pos="s" depth="0" NCoef="0" IVar="1" Cut="4.9141068458557129e+00" cType="1" res="1.7264205962419510e-03" rms="3.4956771135330200e-01" purity="5.0102907419204712e-01" nType="0">
        <Node pos="l" depth="1" NCoef="0" IVar="-1" Cut="0.0000000000000000e+00" cType="1" res="7.6440116390585899e-03" rms="4.3741878867149353e-01" purity="2.7996310591697693e-01" nType="-99"/>
        <Node pos="r" depth="1" NCoef="0" IVar="1" Cut="5.9295182228088379e+00" cType="1" res="6.6308706300333142e-04" rms="3.4646654129028320e-01" purity="5.0780940055847168e-01" nType="0">
          <Node pos="l" depth="2" NCoef="0" IVar="-1" Cut="0.0000000000000000e+00" cType="1" res="-1.9586542621254921e-03" rms="3.8843140006065369e-01" purity="3.4939795732498169e-01" nType="-99"/>
          <Node pos="r" depth="2" NCoef="0" IVar="-1" Cut="0.0000000000000000e+00" cType="1" res="1.0811054380610585e-03" rms="3.3170053362846375e-01" purity="5.5909407138824463e-01" nType="-99"/>
        </Node>
      </Node>
    </BinaryTree>
    <BinaryTree type="DecisionTree" boostWeight="1.0000000000000000e+00" itree="514">
      <Node pos="s" depth="0" NCoef="0" IVar="2" Cut="8.2035484313964844e+00" cType="1" res="-1.7361926147714257e-03" rms="3.4850883483886719e-01" purity="4.9865040183067322e-01" nType="0">
        <Node pos="l" depth="1" NCoef="0" IVar="-1" Cut="0.0000000000000000e+00" cType="1" res="-5.1493020728230476e-03" rms="3.6116260290145874e-01" purity="4.3227630853652954e-01" nType="-99"/>
        <Node pos="r" depth="1" NCoef="0" IVar="5" Cut="7.4854450225830078e+00" cType="1" res="-3.1208386644721031e-04" rms="3.4766289591789246e-01" purity="5.0274538993835449e-01" nType="0">
          <Node pos="l" depth="2" NCoef="0" IVar="-1" Cut="0.0000000000000000e+00" cType="1" res="6.6975416848435998e-04" rms="3.4609329700469971e-01" purity="5.1808959245681763e-01" nType="-99"/>
          <Node pos="r" depth="2" NCoef="0" IVar="-1" Cut="0.0000000000000000e+00" cType="1" res="-2.2623855620622635e-03" rms="3.5312265157699585e-01" purity="4.4752740859985352e-01" nType="-99"/>
        </Node>
      </Node>
    </BinaryTree>
    <BinaryTree type="DecisionTree" boostWeight="1.0000000000000000e+00" itree="515">
      <Node pos="s" depth="0" NCoef="0" IVar="8" Cut="-1.0972889512777328e-01" cType="1" res="-2.4318930227309465e-03" rms="3.4869456291198730e-01" purity="4.9495041370391846e-01" nType="0">
        <Node pos="l" depth="1" NCoef="0" IVar="12" Cut="1.9044500589370728e-01" cType="1" res="3.7836758419871330e-03" rms="3.5488131642341614e-01" purity="4.9862769246101379e-01" nType="0">
          <Node pos="l" depth="2" NCoef="0" IVar="-1" Cut="0.0000000000000000e+00" cType="1" res="-3.0084562022238970e-03" rms="3.3024483919143677e-01" purity="8.2863569259643555e-01" nType="-99"/>
          <Node pos="r" depth="2" NCoef="0" IVar="-1" Cut="0.0000000000000000e+00" cType="1" res="2.1008201874792576e-03" rms="3.6548751592636108e-01" purity="3.4688249230384827e-01" nType="-99"/>
        </Node>
        <Node pos="r" depth="1" NCoef="0" IVar="9" Cut="3.6931471824645996e+00" cType="1" res="-4.3932688422501087e-03" rms="2.0984664559364319e-01" purity="4.9212458729743958e-01" nType="0">
          <Node pos="l" depth="2" NCoef="0" IVar="-1" Cut="0.0000000000000000e+00" cType="1" res="-2.5931596755981445e-03" rms="3.3753493428230286e-01" purity="5.3399682044982910e-01" nType="-99"/>
          <Node pos="r" depth="2" NCoef="0" IVar="-1" Cut="0.0000000000000000e+00" cType="1" res="-3.1110031995922327e-03" rms="3.5561385750770569e-01" purity="4.1083648800849915e-01" nType="-99"/>
        </Node>
      </Node>
    </BinaryTree>
    <BinaryTree type="DecisionTree" boostWeight="1.0000000000000000e+00" itree="516">
      <Node pos="s" depth="0" NCoef="0" IVar="13" Cut="6.1899411678314209e-01" cType="1" res="2.7636548038572073e-03" rms="3.5152915120124817e-01" purity="5.0438916683197021e-01" nType="0">
        <Node pos="l" depth="1" NCoef="0" IVar="13" Cut="1.7683953046798706e-01" cType="1" res="4.8319404013454914e-03" rms="3.5161375999450684e-01" purity="4.5673388242721558e-01" nType="0">
          <Node pos="l" depth="2" NCoef="0" IVar="-1" Cut="0.0000000000000000e+00" cType="1" res="5.0080876098945737e-04" rms="3.4831559658050537e-01" purity="3.7003144621849060e-01" nType="-99"/>
          <Node pos="r" depth="2" NCoef="0" IVar="-1" Cut="0.0000000000000000e+00" cType="1" res="4.7922777011990547e-03" rms="3.6425867676734924e-01" purity="8.0382752418518066e-01" nType="-99"/>
        </Node>
        <Node pos="r" depth="1" NCoef="0" IVar="11" Cut="8.0839449167251587e-01" cType="1" res="-9.0099312365055084e-03" rms="3.5081493854522705e-01" purity="7.7566361427307129e-01" nType="0">
          <Node pos="l" depth="2" NCoef="0" IVar="-1" Cut="0.0000000000000000e+00" cType="1" res="-1.2453851290047169e-02" rms="3.6620685458183289e-01" purity="5.1415193080902100e-01" nType="-99"/>
          <Node pos="r" depth="2" NCoef="0" IVar="-1" Cut="0.0000000000000000e+00" cType="1" res="-6.0294050490483642e-04" rms="3.4654858708381653e-01" purity="8.3927023410797119e-01" nType="-99"/>
        </Node>
      </Node>
    </BinaryTree>
    <BinaryTree type="DecisionTree" boostWeight="1.0000000000000000e+00" itree="517">
      <Node pos="s" depth="0" NCoef="0" IVar="0" Cut="7.8196372985839844e+00" cType="1" res="1.8484767060726881e-03" rms="3.4626704454421997e-01" purity="5.0328153371810913e-01" nType="0">
        <Node pos="l" depth="1" NCoef="0" IVar="-1" Cut="0.0000000000000000e+00" cType="1" res="4.0545500814914703e-03" rms="4.5447775721549988e-01" purity="3.6506804823875427e-01" nType="-99"/>
        <Node pos="r" depth="1" NCoef="0" IVar="4" Cut="-9.3029755353927612e-01" cType="1" res="8.0429296940565109e-04" rms="3.3966144919395447e-01" purity="5.1047372817993164e-01" nType="0">
          <Node pos="l" depth="2" NCoef="0" IVar="-1" Cut="0.0000000000000000e+00" cType="1" res="2.6316316798329353e-03" rms="3.1453299522399902e-01" purity="5.9305977821350098e-01" nType="-99"/>
          <Node pos="r" depth="2" NCoef="0" IVar="-1" Cut="0.0000000000000000e+00" cType="1" res="-6.6518079256638885e-04" rms="3.5150185227394104e-01" purity="4.6921274065971375e-01" nType="-99"/>
        </Node>
      </Node>
    </BinaryTree>
    <BinaryTree type="DecisionTree" boostWeight="1.0000000000000000e+00" itree="518">
      <Node pos="s" depth="0" NCoef="0" IVar="9" Cut="3.6931471824645996e+00" cType="1" res="-9.7338733030483127e-04" rms="2.2720922529697418e-01" purity="4.9885571002960205e-01" nType="0">
        <Node pos="l" depth="1" NCoef="0" IVar="11" Cut="5.7129997014999390e-01" cType="1" res="-9.1240421170368791e-04" rms="3.4027901291847229e-01" purity="5.3574460744857788e-01" nType="0">
          <Node pos="l" depth="2" NCoef="0" IVar="-1" Cut="0.0000000000000000e+00" cType="1" res="-1.4627850614488125e-03" rms="3.6144706606864929e-01" purity="3.1955724954605103e-01" nType="-99"/>
          <Node pos="r" depth="2" NCoef="0" IVar="-1" Cut="0.0000000000000000e+00" cType="1" res="3.0594763811677694e-03" rms="3.0262717604637146e-01" purity="8.8616245985031128e-01" nType="-99"/>
        </Node>
        <Node pos="r" depth="1" NCoef="0" IVar="8" Cut="-4.0626227855682373e-01" cType="1" res="3.9411038160324097e-03" rms="3.6268743872642517e-01" purity="4.2012000083923340e-01" nType="0">
          <Node pos="l" depth="2" NCoef="0" IVar="-1" Cut="0.0000000000000000e+00" cType="1" res="4.7987811267375946e-03" rms="3.8071262836456299e-01" purity="4.3826028704643250e-01" nType="-99"/>
          <Node pos="r" depth="2" NCoef="0" IVar="-1" Cut="0.0000000000000000e+00" cType="1" res="3.0802912078797817e-04" rms="3.5925620794296265e-01" purity="4.1686177253723145e-01" nType="-99"/>
        </Node>
      </Node>
    </BinaryTree>
    <BinaryTree type="DecisionTree" boostWeight="1.0000000000000000e+00" itree="519">
      <Node pos="s" depth="0" NCoef="0" IVar="2" Cut="9.1591234207153320e+00" cType="1" res="-1.1044939747080207e-03" rms="3.5142150521278381e-01" purity="4.9901527166366577e-01" nType="0">
        <Node pos="l" depth="1" NCoef="0" IVar="8" Cut="-3.1408196687698364e-01" cType="1" res="-5.5075543932616711e-03" rms="3.5753452777862549e-01" purity="4.8233658075332642e-01" nType="0">
          <Node pos="l" depth="2" NCoef="0" IVar="-1" Cut="0.0000000000000000e+00" cType="1" res="-3.0670699197798967e-03" rms="3.7468001246452332e-01" purity="4.5892155170440674e-01" nType="-99"/>
          <Node pos="r" depth="2" NCoef="0" IVar="-1" Cut="0.0000000000000000e+00" cType="1" res="-1.9554828759282827e-04" rms="3.5178372263908386e-01" purity="4.8976129293441772e-01" nType="-99"/>
        </Node>
        <Node pos="r" depth="1" NCoef="0" IVar="6" Cut="-1.1612125635147095e+00" cType="1" res="4.7773299738764763e-03" rms="3.4299731254577637e-01" purity="5.2129542827606201e-01" nType="0">
          <Node pos="l" depth="2" NCoef="0" IVar="-1" Cut="0.0000000000000000e+00" cType="1" res="8.7327015353366733e-04" rms="3.3868464827537537e-01" purity="5.3558385372161865e-01" nType="-99"/>
          <Node pos="r" depth="2" NCoef="0" IVar="-1" Cut="0.0000000000000000e+00" cType="1" res="1.4723816886544228e-02" rms="3.9523017406463623e-01" purity="3.2639607787132263e-01" nType="-99"/>
        </Node>
      </Node>
    </BinaryTree>
    <BinaryTree type="DecisionTree" boostWeight="1.0000000000000000e+00" itree="520">
      <Node pos="s" depth="0" NCoef="0" IVar="6" Cut="-2.6658041477203369e+00" cType="1" res="1.3411919644568115e-04" rms="3.4902152419090271e-01" purity="5.0049376487731934e-01" nType="0">
        <Node pos="l" depth="1" NCoef="0" IVar="4" Cut="1.9408069550991058e-01" cType="1" res="4.5165768824517727e-03" rms="3.3390700817108154e-01" purity="5.7972425222396851e-01" nType="0">
          <Node pos="l" depth="2" NCoef="0" IVar="-1" Cut="0.0000000000000000e+00" cType="1" res="2.7542505413293839e-03" rms="3.2310369610786438e-01" purity="6.1136710643768311e-01" nType="-99"/>
          <Node pos="r" depth="2" NCoef="0" IVar="-1" Cut="0.0000000000000000e+00" cType="1" res="-2.3109468165785074e-03" rms="3.7859383225440979e-01" purity="4.3660801649093628e-01" nType="-99"/>
        </Node>
        <Node pos="r" depth="1" NCoef="0" IVar="4" Cut="-3.4410101175308228e-01" cType="1" res="-5.5162720382213593e-03" rms="3.6751580238342285e-01" purity="3.9834031462669373e-01" nType="0">
          <Node pos="l" depth="2" NCoef="0" IVar="-1" Cut="0.0000000000000000e+00" cType="1" res="-3.3304237294942141e-03" rms="3.6403498053550720e-01" purity="4.3595337867736816e-01" nType="-99"/>
          <Node pos="r" depth="2" NCoef="0" IVar="-1" Cut="0.0000000000000000e+00" cType="1" res="2.4618778843432665e-04" rms="3.7086346745491028e-01" purity="3.6060163378715515e-01" nType="-99"/>
        </Node>
      </Node>
    </BinaryTree>
    <BinaryTree type="DecisionTree" boostWeight="1.0000000000000000e+00" itree="521">
      <Node pos="s" depth="0" NCoef="0" IVar="2" Cut="8.3750495910644531e+00" cType="1" res="-1.4935623621568084e-03" rms="3.4993967413902283e-01" purity="4.9846667051315308e-01" nType="0">
        <Node pos="l" depth="1" NCoef="0" IVar="3" Cut="2.6980376243591309e-01" cType="1" res="-1.9940011203289032e-02" rms="3.6007371544837952e-01" purity="4.4050946831703186e-01" nType="0">
          <Node pos="l" depth="2" NCoef="0" IVar="-1" Cut="0.0000000000000000e+00" cType="1" res="-8.5651427507400513e-03" rms="3.5887882113456726e-01" purity="5.1606774330139160e-01" nType="-99"/>
          <Node pos="r" depth="2" NCoef="0" IVar="-1" Cut="0.0000000000000000e+00" cType="1" res="-6.7687733098864555e-04" rms="3.6022853851318359e-01" purity="3.7868607044219971e-01" nType="-99"/>
        </Node>
        <Node pos="r" depth="1" NCoef="0" IVar="7" Cut="-5.3455967456102371e-02" cType="1" res="5.5393157526850700e-04" rms="3.4873652458190918e-01" purity="5.0489968061447144e-01" nType="0">
          <Node pos="l" depth="2" NCoef="0" IVar="-1" Cut="0.0000000000000000e+00" cType="1" res="2.2367492783814669e-03" rms="3.4843567013740540e-01" purity="5.2953171730041504e-01" nType="-99"/>
          <Node pos="r" depth="2" NCoef="0" IVar="-1" Cut="0.0000000000000000e+00" cType="1" res="-1.2619569897651672e-03" rms="3.4887260198593140e-01" purity="4.8791867494583130e-01" nType="-99"/>
        </Node>
      </Node>
    </BinaryTree>
    <BinaryTree type="DecisionTree" boostWeight="1.0000000000000000e+00" itree="522">
      <Node pos="s" depth="0" NCoef="0" IVar="9" Cut="4.0000000000000000e+00" cType="1" res="2.5989342248067260e-04" rms="2.2979678213596344e-01" purity="5.0366866588592529e-01" nType="0">
        <Node pos="l" depth="1" NCoef="0" IVar="1" Cut="5.5593991279602051e+00" cType="1" res="3.1543353106826544e-03" rms="3.4856328368186951e-01" purity="5.1685160398483276e-01" nType="0">
          <Node pos="l" depth="2" NCoef="0" IVar="-1" Cut="0.0000000000000000e+00" cType="1" res="2.7486227918416262e-03" rms="4.0815156698226929e-01" purity="3.2487836480140686e-01" nType="-99"/>
          <Node pos="r" depth="2" NCoef="0" IVar="-1" Cut="0.0000000000000000e+00" cType="1" res="4.8440854880027473e-04" rms="3.3763271570205688e-01" purity="5.4871255159378052e-01" nType="-99"/>
        </Node>
        <Node pos="r" depth="1" NCoef="0" IVar="10" Cut="3.0000000000000000e+00" cType="1" res="-5.1651932299137115e-03" rms="2.8130817413330078e-01" purity="3.6662670969963074e-01" nType="0">
          <Node pos="l" depth="2" NCoef="0" IVar="-1" Cut="0.0000000000000000e+00" cType="1" res="-1.3274854049086571e-02" rms="3.7017148733139038e-01" purity="3.7571406364440918e-01" nType="-99"/>
          <Node pos="r" depth="2" NCoef="0" IVar="-1" Cut="0.0000000000000000e+00" cType="1" res="2.5711315684020519e-03" rms="3.7078556418418884e-01" purity="3.5642823576927185e-01" nType="-99"/>
        </Node>
      </Node>
    </BinaryTree>
    <BinaryTree type="DecisionTree" boostWeight="1.0000000000000000e+00" itree="523">
      <Node pos="s" depth="0" NCoef="0" IVar="11" Cut="3.3328029513359070e-01" cType="1" res="-2.1441695280373096e-03" rms="3.4476014971733093e-01" purity="4.9723380804061890e-01" nType="0">
        <Node pos="l" depth="1" NCoef="0" IVar="0" Cut="1.0006997108459473e+01" cType="1" res="-6.3973981887102127e-03" rms="3.4856519103050232e-01" purity="2.4036252498626709e-01" nType="0">
          <Node pos="l" depth="2" NCoef="0" IVar="-1" Cut="0.0000000000000000e+00" cType="1" res="-2.7520928997546434e-03" rms="3.5122823715209961e-01" purity="2.3600573837757111e-01" nType="-99"/>
          <Node pos="r" depth="2" NCoef="0" IVar="-1" Cut="0.0000000000000000e+00" cType="1" res="2.7275143656879663e-03" rms="3.3253335952758789e-01" purity="2.6492348313331604e-01" nType="-99"/>
        </Node>
        <Node pos="r" depth="1" NCoef="0" IVar="1" Cut="5.9808149337768555e+00" cType="1" res="3.5909400321543217e-03" rms="3.3947750926017761e-01" purity="8.4360247850418091e-01" nType="0">
          <Node pos="l" depth="2" NCoef="0" IVar="-1" Cut="0.0000000000000000e+00" cType="1" res="8.1638377159833908e-03" rms="3.7859395146369934e-01" purity="8.0728018283843994e-01" nType="-99"/>
          <Node pos="r" depth="2" NCoef="0" IVar="-1" Cut="0.0000000000000000e+00" cType="1" res="3.5236207622801885e-05" rms="3.3394607901573181e-01" purity="8.4828138351440430e-01" nType="-99"/>
        </Node>
      </Node>
    </BinaryTree>
    <BinaryTree type="DecisionTree" boostWeight="1.0000000000000000e+00" itree="524">
      <Node pos="s" depth="0" NCoef="0" IVar="0" Cut="7.8201389312744141e+00" cType="1" res="2.6623226585797966e-04" rms="3.5173767805099487e-01" purity="5.0055462121963501e-01" nType="0">
        <Node pos="l" depth="1" NCoef="0" IVar="-1" Cut="0.0000000000000000e+00" cType="1" res="5.8002774603664875e-03" rms="4.5802468061447144e-01" purity="3.8210710883140564e-01" nType="-99"/>
        <Node pos="r" depth="1" NCoef="0" IVar="7" Cut="-1.4046379327774048e+00" cType="1" res="-1.3747240882366896e-03" rms="3.4530183672904968e-01" purity="5.0665265321731567e-01" nType="0">
          <Node pos="l" depth="2" NCoef="0" IVar="-1" Cut="0.0000000000000000e+00" cType="1" res="-8.7492810562252998e-03" rms="3.3278328180313110e-01" purity="4.7716414928436279e-01" nType="-99"/>
          <Node pos="r" depth="2" NCoef="0" IVar="-1" Cut="0.0000000000000000e+00" cType="1" res="-1.1368297418812290e-04" rms="3.4572595357894897e-01" purity="5.0776755809783936e-01" nType="-99"/>
        </Node>
      </Node>
    </BinaryTree>
    <BinaryTree type="DecisionTree" boostWeight="1.0000000000000000e+00" itree="525">
      <Node pos="s" depth="0" NCoef="0" IVar="9" Cut="3.6931471824645996e+00" cType="1" res="7.3853356298059225e-05" rms="2.2923170030117035e-01" purity="4.9880397319793701e-01" nType="0">
        <Node pos="l" depth="1" NCoef="0" IVar="5" Cut="7.9099235534667969e+00" cType="1" res="-1.9563925452530384e-03" rms="3.4279465675354004e-01" purity="5.3703141212463379e-01" nType="0">
          <Node pos="l" depth="2" NCoef="0" IVar="-1" Cut="0.0000000000000000e+00" cType="1" res="1.4666060451418161e-05" rms="3.4066182374954224e-01" purity="5.4723602533340454e-01" nType="-99"/>
          <Node pos="r" depth="2" NCoef="0" IVar="-1" Cut="0.0000000000000000e+00" cType="1" res="-3.5864482633769512e-03" rms="3.5847657918930054e-01" purity="4.5813745260238647e-01" nType="-99"/>
        </Node>
        <Node pos="r" depth="1" NCoef="0" IVar="7" Cut="-2.6452189683914185e-01" cType="1" res="7.9973903484642506e-04" rms="3.6520141363143921e-01" purity="4.1779279708862305e-01" nType="0">
          <Node pos="l" depth="2" NCoef="0" IVar="-1" Cut="0.0000000000000000e+00" cType="1" res="-3.5480579826980829e-03" rms="3.6426755785942078e-01" purity="4.2370131611824036e-01" nType="-99"/>
          <Node pos="r" depth="2" NCoef="0" IVar="-1" Cut="0.0000000000000000e+00" cType="1" res="1.9987770356237888e-03" rms="3.6550152301788330e-01" purity="4.1536733508110046e-01" nType="-99"/>
        </Node>
      </Node>
    </BinaryTree>
    <BinaryTree type="DecisionTree" boostWeight="1.0000000000000000e+00" itree="526">
      <Node pos="s" depth="0" NCoef="0" IVar="9" Cut="3.6931471824645996e+00" cType="1" res="-1.2574760476127267e-03" rms="2.2929731011390686e-01" purity="4.9967479705810547e-01" nType="0">
        <Node pos="l" depth="1" NCoef="0" IVar="11" Cut="7.1414631605148315e-01" cType="1" res="-2.6554849464446306e-03" rms="3.4064015746116638e-01" purity="5.3972208499908447e-01" nType="0">
          <Node pos="l" depth="2" NCoef="0" IVar="-1" Cut="0.0000000000000000e+00" cType="1" res="-1.7009694129228592e-03" rms="3.6310920119285583e-01" purity="3.5423022508621216e-01" nType="-99"/>
          <Node pos="r" depth="2" NCoef="0" IVar="-1" Cut="0.0000000000000000e+00" cType="1" res="2.6889131404459476e-03" rms="2.9272270202636719e-01" purity="8.9421391487121582e-01" nType="-99"/>
        </Node>
        <Node pos="r" depth="1" NCoef="0" IVar="10" Cut="2.0000000000000000e+00" cType="1" res="-1.3988212449476123e-03" rms="2.7478468418121338e-01" purity="4.1513115167617798e-01" nType="0">
          <Node pos="l" depth="2" NCoef="0" IVar="-1" Cut="0.0000000000000000e+00" cType="1" res="-6.2147597782313824e-03" rms="3.6411729454994202e-01" purity="4.6102687716484070e-01" nType="-99"/>
          <Node pos="r" depth="2" NCoef="0" IVar="-1" Cut="0.0000000000000000e+00" cType="1" res="1.1047861771658063e-03" rms="3.6388459801673889e-01" purity="3.9797663688659668e-01" nType="-99"/>
        </Node>
      </Node>
    </BinaryTree>
    <BinaryTree type="DecisionTree" boostWeight="1.0000000000000000e+00" itree="527">
      <Node pos="s" depth="0" NCoef="0" IVar="3" Cut="5.3135865926742554e-01" cType="1" res="-2.0348706748336554e-03" rms="3.5190981626510620e-01" purity="4.9795895814895630e-01" nType="0">
        <Node pos="l" depth="1" NCoef="0" IVar="10" Cut="3.0000000000000000e+00" cType="1" res="-2.7165547944605350e-03" rms="2.4333061277866364e-01" purity="5.8313035964965820e-01" nType="0">
          <Node pos="l" depth="2" NCoef="0" IVar="-1" Cut="0.0000000000000000e+00" cType="1" res="-3.5894582979381084e-03" rms="3.3904364705085754e-01" purity="5.9788930416107178e-01" nType="-99"/>
          <Node pos="r" depth="2" NCoef="0" IVar="-1" Cut="0.0000000000000000e+00" cType="1" res="5.4396274499595165e-03" rms="3.6861112713813782e-01" purity="4.9811771512031555e-01" nType="-99"/>
        </Node>
        <Node pos="r" depth="1" NCoef="0" IVar="11" Cut="1.4283350110054016e-01" cType="1" res="5.5946907959878445e-03" rms="3.6409130692481995e-01" purity="3.6626288294792175e-01" nType="0">
          <Node pos="l" depth="2" NCoef="0" IVar="-1" Cut="0.0000000000000000e+00" cType="1" res="-1.5678562922403216e-03" rms="2.9680904746055603e-01" purity="1.1896076053380966e-01" nType="-99"/>
          <Node pos="r" depth="2" NCoef="0" IVar="-1" Cut="0.0000000000000000e+00" cType="1" res="3.2354134600609541e-03" rms="4.3477061390876770e-01" purity="6.8183547258377075e-01" nType="-99"/>
        </Node>
      </Node>
    </BinaryTree>
    <BinaryTree type="DecisionTree" boostWeight="1.0000000000000000e+00" itree="528">
      <Node pos="s" depth="0" NCoef="0" IVar="11" Cut="1.4284762740135193e-01" cType="1" res="-1.9585182890295982e-03" rms="3.5088929533958435e-01" purity="4.9799636006355286e-01" nType="0">
        <Node pos="l" depth="1" NCoef="0" IVar="11" Cut="7.4814349412918091e-02" cType="1" res="4.0574464946985245e-03" rms="3.2691109180450439e-01" purity="1.7723175883293152e-01" nType="0">
          <Node pos="l" depth="2" NCoef="0" IVar="-1" Cut="0.0000000000000000e+00" cType="1" res="-8.1251404481008649e-04" rms="2.7803632616996765e-01" purity="1.0892228037118912e-01" nType="-99"/>
          <Node pos="r" depth="2" NCoef="0" IVar="-1" Cut="0.0000000000000000e+00" cType="1" res="4.3280618265271187e-03" rms="4.6626806259155273e-01" purity="4.3406298756599426e-01" nType="-99"/>
        </Node>
        <Node pos="r" depth="1" NCoef="0" IVar="9" Cut="3.6931471824645996e+00" cType="1" res="-3.5196077078580856e-03" rms="2.0832078158855438e-01" purity="7.8403884172439575e-01" nType="0">
          <Node pos="l" depth="2" NCoef="0" IVar="-1" Cut="0.0000000000000000e+00" cType="1" res="-1.6425463836640120e-03" rms="3.5329285264015198e-01" purity="8.1097811460494995e-01" nType="-99"/>
          <Node pos="r" depth="2" NCoef="0" IVar="-1" Cut="0.0000000000000000e+00" cType="1" res="-3.3369220327585936e-03" rms="4.1276615858078003e-01" purity="7.1461415290832520e-01" nType="-99"/>
        </Node>
      </Node>
    </BinaryTree>
    <BinaryTree type="DecisionTree" boostWeight="1.0000000000000000e+00" itree="529">
      <Node pos="s" depth="0" NCoef="0" IVar="5" Cut="4.8284931182861328e+00" cType="1" res="2.8695346554741263e-04" rms="3.4873667359352112e-01" purity="5.0058245658874512e-01" nType="0">
        <Node pos="l" depth="1" NCoef="0" IVar="-1" Cut="0.0000000000000000e+00" cType="1" res="8.0607244744896889e-03" rms="3.9034619927406311e-01" purity="5.6208312511444092e-01" nType="-99"/>
        <Node pos="r" depth="1" NCoef="0" IVar="11" Cut="4.2850303649902344e-01" cType="1" res="-5.4094917140901089e-04" rms="3.4741729497909546e-01" purity="4.9879410862922668e-01" nType="0">
          <Node pos="l" depth="2" NCoef="0" IVar="-1" Cut="0.0000000000000000e+00" cType="1" res="-1.2644721427932382e-03" rms="3.5698774456977844e-01" purity="2.6266238093376160e-01" nType="-99"/>
          <Node pos="r" depth="2" NCoef="0" IVar="-1" Cut="0.0000000000000000e+00" cType="1" res="2.0309283863753080e-03" rms="3.3234664797782898e-01" purity="8.5538524389266968e-01" nType="-99"/>
        </Node>
      </Node>
    </BinaryTree>
    <BinaryTree type="DecisionTree" boostWeight="1.0000000000000000e+00" itree="530">
      <Node pos="s" depth="0" NCoef="0" IVar="2" Cut="9.2374496459960938e+00" cType="1" res="-3.0734713654965162e-03" rms="3.4768787026405334e-01" purity="4.9724042415618896e-01" nType="0">
        <Node pos="l" depth="1" NCoef="0" IVar="5" Cut="6.5491294860839844e+00" cType="1" res="2.9081219690851867e-04" rms="3.5247337818145752e-01" purity="4.9135455489158630e-01" nType="0">
          <Node pos="l" depth="2" NCoef="0" IVar="-1" Cut="0.0000000000000000e+00" cType="1" res="-1.9859967287629843e-03" rms="3.6391896009445190e-01" purity="4.8327958583831787e-01" nType="-99"/>
          <Node pos="r" depth="2" NCoef="0" IVar="-1" Cut="0.0000000000000000e+00" cType="1" res="1.7486679134890437e-03" rms="3.4245479106903076e-01" purity="4.9811255931854248e-01" nType="-99"/>
        </Node>
        <Node pos="r" depth="1" NCoef="0" IVar="3" Cut="-1.0008494853973389e+00" cType="1" res="-8.9927334338426590e-03" rms="3.3902311325073242e-01" purity="5.0759619474411011e-01" nType="0">
          <Node pos="l" depth="2" NCoef="0" IVar="-1" Cut="0.0000000000000000e+00" cType="1" res="6.3821761868894100e-03" rms="2.7142122387886047e-01" purity="7.5558781623840332e-01" nType="-99"/>
          <Node pos="r" depth="2" NCoef="0" IVar="-1" Cut="0.0000000000000000e+00" cType="1" res="-5.7592662051320076e-03" rms="3.5498887300491333e-01" purity="4.4030568003654480e-01" nType="-99"/>
        </Node>
      </Node>
    </BinaryTree>
    <BinaryTree type="DecisionTree" boostWeight="1.0000000000000000e+00" itree="531">
      <Node pos="s" depth="0" NCoef="0" IVar="1" Cut="5.7681169509887695e+00" cType="1" res="1.3262362917885184e-03" rms="3.4978404641151428e-01" purity="5.0308805704116821e-01" nType="0">
        <Node pos="l" depth="1" NCoef="0" IVar="12" Cut="6.1929649114608765e-01" cType="1" res="1.3451682403683662e-02" rms="4.0455681085586548e-01" purity="3.4023636579513550e-01" nType="0">
          <Node pos="l" depth="2" NCoef="0" IVar="-1" Cut="0.0000000000000000e+00" cType="1" res="-4.4420384801924229e-03" rms="4.2675697803497314e-01" purity="5.8811008930206299e-01" nType="-99"/>
          <Node pos="r" depth="2" NCoef="0" IVar="-1" Cut="0.0000000000000000e+00" cType="1" res="5.7413461618125439e-03" rms="3.9690873026847839e-01" purity="2.6361382007598877e-01" nType="-99"/>
        </Node>
        <Node pos="r" depth="1" NCoef="0" IVar="8" Cut="-5.3543788194656372e-01" cType="1" res="-1.8702400848269463e-03" rms="3.3377826213836670e-01" purity="5.4601854085922241e-01" nType="0">
          <Node pos="l" depth="2" NCoef="0" IVar="-1" Cut="0.0000000000000000e+00" cType="1" res="-2.8351624496281147e-03" rms="3.7564870715141296e-01" purity="5.3518927097320557e-01" nType="-99"/>
          <Node pos="r" depth="2" NCoef="0" IVar="-1" Cut="0.0000000000000000e+00" cType="1" res="7.1751215727999806e-05" rms="3.2889693975448608e-01" purity="5.4718196392059326e-01" nType="-99"/>
        </Node>
      </Node>
    </BinaryTree>
    <BinaryTree type="DecisionTree" boostWeight="1.0000000000000000e+00" itree="532">
      <Node pos="s" depth="0" NCoef="0" IVar="5" Cut="7.1609282493591309e+00" cType="1" res="3.0905974563211203e-03" rms="3.4953558444976807e-01" purity="5.0452804565429688e-01" nType="0">
        <Node pos="l" depth="1" NCoef="0" IVar="3" Cut="5.3107732534408569e-01" cType="1" res="6.1799949035048485e-03" rms="3.4837079048156738e-01" purity="5.2249354124069214e-01" nType="0">
          <Node pos="l" depth="2" NCoef="0" IVar="-1" Cut="0.0000000000000000e+00" cType="1" res="3.6069911438971758e-03" rms="3.3559280633926392e-01" purity="6.1053204536437988e-01" nType="-99"/>
          <Node pos="r" depth="2" NCoef="0" IVar="-1" Cut="0.0000000000000000e+00" cType="1" res="-8.8360504014417529e-04" rms="3.7597721815109253e-01" purity="3.1972283124923706e-01" nType="-99"/>
        </Node>
        <Node pos="r" depth="1" NCoef="0" IVar="8" Cut="-2.3268587887287140e-01" cType="1" res="-3.6421969998627901e-03" rms="3.5196679830551147e-01" purity="4.6537542343139648e-01" nType="0">
          <Node pos="l" depth="2" NCoef="0" IVar="-1" Cut="0.0000000000000000e+00" cType="1" res="2.3424634709954262e-03" rms="3.5970938205718994e-01" purity="4.8863035440444946e-01" nType="-99"/>
          <Node pos="r" depth="2" NCoef="0" IVar="-1" Cut="0.0000000000000000e+00" cType="1" res="-3.9606709033250809e-03" rms="3.4868523478507996e-01" purity="4.5647001266479492e-01" nType="-99"/>
        </Node>
      </Node>
    </BinaryTree>
    <BinaryTree type="DecisionTree" boostWeight="1.0000000000000000e+00" itree="533">
      <Node pos="s" depth="0" NCoef="0" IVar="8" Cut="-2.5202673673629761e-01" cType="1" res="2.1649266127496958e-03" rms="3.5025602579116821e-01" purity="5.0587660074234009e-01" nType="0">
        <Node pos="l" depth="1" NCoef="0" IVar="9" Cut="4.0986123085021973e+00" cType="1" res="2.7015656232833862e-03" rms="2.3641970753669739e-01" purity="5.1254469156265259e-01" nType="0">
          <Node pos="l" depth="2" NCoef="0" IVar="-1" Cut="0.0000000000000000e+00" cType="1" res="2.2556083276867867e-03" rms="3.6086899042129517e-01" purity="5.2019274234771729e-01" nType="-99"/>
          <Node pos="r" depth="2" NCoef="0" IVar="-1" Cut="0.0000000000000000e+00" cType="1" res="-7.5622857548296452e-03" rms="3.7276601791381836e-01" purity="3.2813265919685364e-01" nType="-99"/>
        </Node>
        <Node pos="r" depth="1" NCoef="0" IVar="0" Cut="7.8190226554870605e+00" cType="1" res="-1.2931835372000933e-03" rms="3.4560838341712952e-01" purity="5.0319027900695801e-01" nType="0">
          <Node pos="l" depth="2" NCoef="0" IVar="-1" Cut="0.0000000000000000e+00" cType="1" res="-5.4369373247027397e-03" rms="4.3313568830490112e-01" purity="3.0624485015869141e-01" nType="-99"/>
          <Node pos="r" depth="2" NCoef="0" IVar="-1" Cut="0.0000000000000000e+00" cType="1" res="-1.2597879685927182e-04" rms="3.4148117899894714e-01" purity="5.1131510734558105e-01" nType="-99"/>
        </Node>
      </Node>
    </BinaryTree>
    <BinaryTree type="DecisionTree" boostWeight="1.0000000000000000e+00" itree="534">
      <Node pos="s" depth="0" NCoef="0" IVar="9" Cut="3.6931471824645996e+00" cType="1" res="-1.3557294150814414e-03" rms="2.3005546629428864e-01" purity="4.9659767746925354e-01" nType="0">
        <Node pos="l" depth="1" NCoef="0" IVar="8" Cut="1.5461470186710358e-01" cType="1" res="-2.0354806911200285e-03" rms="3.4484010934829712e-01" purity="5.3610742092132568e-01" nType="0">
          <Node pos="l" depth="2" NCoef="0" IVar="-1" Cut="0.0000000000000000e+00" cType="1" res="3.7125949165783823e-04" rms="3.4542503952980042e-01" purity="5.4113417863845825e-01" nType="-99"/>
          <Node pos="r" depth="2" NCoef="0" IVar="-1" Cut="0.0000000000000000e+00" cType="1" res="-3.8708883803337812e-03" rms="3.4291133284568787e-01" purity="5.2134275436401367e-01" nType="-99"/>
        </Node>
        <Node pos="r" depth="1" NCoef="0" IVar="11" Cut="9.5187556743621826e-01" cType="1" res="-3.4275425132364035e-03" rms="3.6383998394012451e-01" purity="4.1318723559379578e-01" nType="0">
          <Node pos="l" depth="2" NCoef="0" IVar="-1" Cut="0.0000000000000000e+00" cType="1" res="-4.8141335719265044e-04" rms="3.6540406942367554e-01" purity="3.6110672354698181e-01" nType="-99"/>
          <Node pos="r" depth="2" NCoef="0" IVar="-1" Cut="0.0000000000000000e+00" cType="1" res="-1.0445545427501202e-02" rms="3.5005715489387512e-01" purity="8.4584176540374756e-01" nType="-99"/>
        </Node>
      </Node>
    </BinaryTree>
    <BinaryTree type="DecisionTree" boostWeight="1.0000000000000000e+00" itree="535">
      <Node pos="s" depth="0" NCoef="0" IVar="2" Cut="8.1608285903930664e+00" cType="1" res="-3.1743166036903858e-03" rms="3.5021790862083435e-01" purity="4.9367234110832214e-01" nType="0">
        <Node pos="l" depth="1" NCoef="0" IVar="-1" Cut="0.0000000000000000e+00" cType="1" res="-4.4613629579544067e-03" rms="3.6143389344215393e-01" purity="4.2178526520729065e-01" nType="-99"/>
        <Node pos="r" depth="1" NCoef="0" IVar="2" Cut="8.9302024841308594e+00" cType="1" res="-2.1419746335595846e-03" rms="3.4958937764167786e-01" purity="4.9744123220443726e-01" nType="0">
          <Node pos="l" depth="2" NCoef="0" IVar="-1" Cut="0.0000000000000000e+00" cType="1" res="-1.5595139702782035e-03" rms="3.5847935080528259e-01" purity="4.6987977623939514e-01" nType="-99"/>
          <Node pos="r" depth="2" NCoef="0" IVar="-1" Cut="0.0000000000000000e+00" cType="1" res="1.6161632083822042e-04" rms="3.4458670020103455e-01" purity="5.1256579160690308e-01" nType="-99"/>
        </Node>
      </Node>
    </BinaryTree>
    <BinaryTree type="DecisionTree" boostWeight="1.0000000000000000e+00" itree="536">
      <Node pos="s" depth="0" NCoef="0" IVar="0" Cut="1.0876235961914062e+01" cType="1" res="2.9371907003223896e-03" rms="3.4785652160644531e-01" purity="5.0564545392990112e-01" nType="0">
        <Node pos="l" depth="1" NCoef="0" IVar="4" Cut="7.8717693686485291e-02" cType="1" res="4.2821848765015602e-03" rms="3.4555712342262268e-01" purity="5.0401383638381958e-01" nType="0">
          <Node pos="l" depth="2" NCoef="0" IVar="-1" Cut="0.0000000000000000e+00" cType="1" res="4.0403089951723814e-04" rms="3.3811163902282715e-01" purity="5.3608143329620361e-01" nType="-99"/>
          <Node pos="r" depth="2" NCoef="0" IVar="-1" Cut="0.0000000000000000e+00" cType="1" res="3.2806310337036848e-03" rms="3.6648193001747131e-01" purity="4.0946063399314880e-01" nType="-99"/>
        </Node>
        <Node pos="r" depth="1" NCoef="0" IVar="-1" Cut="0.0000000000000000e+00" cType="1" res="-5.7121403515338898e-03" rms="4.0038305521011353e-01" purity="5.4710662364959717e-01" nType="-99"/>
      </Node>
    </BinaryTree>
    <BinaryTree type="DecisionTree" boostWeight="1.0000000000000000e+00" itree="537">
      <Node pos="s" depth="0" NCoef="0" IVar="9" Cut="3.0000000000000000e+00" cType="1" res="5.7256274158135056e-04" rms="2.2693587839603424e-01" purity="4.9918743968009949e-01" nType="0">
        <Node pos="l" depth="1" NCoef="0" IVar="8" Cut="6.4590275287628174e-02" cType="1" res="4.7653857618570328e-03" rms="3.1143799424171448e-01" purity="6.2980759143829346e-01" nType="0">
          <Node pos="l" depth="2" NCoef="0" IVar="-1" Cut="0.0000000000000000e+00" cType="1" res="-6.8702857242897153e-04" rms="3.1413450837135315e-01" purity="6.2839907407760620e-01" nType="-99"/>
          <Node pos="r" depth="2" NCoef="0" IVar="-1" Cut="0.0000000000000000e+00" cType="1" res="7.3126973584294319e-03" rms="3.0530381202697754e-01" purity="6.3269734382629395e-01" nType="-99"/>
        </Node>
        <Node pos="r" depth="1" NCoef="0" IVar="4" Cut="-3.2041411399841309e+00" cType="1" res="3.5672573721967638e-04" rms="3.5662290453910828e-01" purity="4.7833842039108276e-01" nType="0">
          <Node pos="l" depth="2" NCoef="0" IVar="-1" Cut="0.0000000000000000e+00" cType="1" res="-6.3793892040848732e-03" rms="3.2795271277427673e-01" purity="5.5050683021545410e-01" nType="-99"/>
          <Node pos="r" depth="2" NCoef="0" IVar="-1" Cut="0.0000000000000000e+00" cType="1" res="3.2191266654990613e-04" rms="3.5769030451774597e-01" purity="4.7548145055770874e-01" nType="-99"/>
        </Node>
      </Node>
    </BinaryTree>
    <BinaryTree type="DecisionTree" boostWeight="1.0000000000000000e+00" itree="538">
      <Node pos="s" depth="0" NCoef="0" IVar="0" Cut="1.0885145187377930e+01" cType="1" res="1.1259292950853705e-03" rms="3.4886547923088074e-01" purity="5.0022226572036743e-01" nType="0">
        <Node pos="l" depth="1" NCoef="0" IVar="5" Cut="5.3917646408081055e+00" cType="1" res="1.3315495743881911e-04" rms="3.4723961353302002e-01" purity="4.9632832407951355e-01" nType="0">
          <Node pos="l" depth="2" NCoef="0" IVar="-1" Cut="0.0000000000000000e+00" cType="1" res="4.7602946870028973e-03" rms="3.8027259707450867e-01" purity="5.6852239370346069e-01" nType="-99"/>
          <Node pos="r" depth="2" NCoef="0" IVar="-1" Cut="0.0000000000000000e+00" cType="1" res="-4.5595847768709064e-04" rms="3.4393396973609924e-01" purity="4.8955321311950684e-01" nType="-99"/>
        </Node>
        <Node pos="r" depth="1" NCoef="0" IVar="-1" Cut="0.0000000000000000e+00" cType="1" res="5.5260146036744118e-03" rms="3.8901555538177490e-01" purity="6.0468226671218872e-01" nType="-99"/>
      </Node>
    </BinaryTree>
    <BinaryTree type="DecisionTree" boostWeight="1.0000000000000000e+00" itree="539">
      <Node pos="s" depth="0" NCoef="0" IVar="0" Cut="1.0666207313537598e+01" cType="1" res="-1.6463876236230135e-03" rms="3.4821701049804688e-01" purity="4.9614998698234558e-01" nType="0">
        <Node pos="l" depth="1" NCoef="0" IVar="0" Cut="1.0374058723449707e+01" cType="1" res="-9.9385440989863127e-05" rms="3.4567850828170776e-01" purity="4.9327754974365234e-01" nType="0">
          <Node pos="l" depth="2" NCoef="0" IVar="-1" Cut="0.0000000000000000e+00" cType="1" res="-3.6877047386951745e-04" rms="3.4703707695007324e-01" purity="4.8825553059577942e-01" nType="-99"/>
          <Node pos="r" depth="2" NCoef="0" IVar="-1" Cut="0.0000000000000000e+00" cType="1" res="6.2956078909337521e-03" rms="3.1576180458068848e-01" purity="5.9601849317550659e-01" nType="-99"/>
        </Node>
        <Node pos="r" depth="1" NCoef="0" IVar="12" Cut="4.2802646756172180e-01" cType="1" res="-2.6581950485706329e-02" rms="3.8598829507827759e-01" purity="5.4245036840438843e-01" nType="0">
          <Node pos="l" depth="2" NCoef="0" IVar="-1" Cut="0.0000000000000000e+00" cType="1" res="-9.7751393914222717e-03" rms="3.7194970250129700e-01" purity="6.9976329803466797e-01" nType="-99"/>
          <Node pos="r" depth="2" NCoef="0" IVar="-1" Cut="0.0000000000000000e+00" cType="1" res="-3.1918571330606937e-03" rms="3.9858850836753845e-01" purity="3.9399695396423340e-01" nType="-99"/>
        </Node>
      </Node>
    </BinaryTree>
    <BinaryTree type="DecisionTree" boostWeight="1.0000000000000000e+00" itree="540">
      <Node pos="s" depth="0" NCoef="0" IVar="8" Cut="-2.5501993298530579e-01" cType="1" res="7.0350046735256910e-04" rms="3.4836071729660034e-01" purity="5.0076329708099365e-01" nType="0">
        <Node pos="l" depth="1" NCoef="0" IVar="1" Cut="5.7040205001831055e+00" cType="1" res="9.7803333774209023e-03" rms="3.6129465699195862e-01" purity="5.0135344266891479e-01" nType="0">
          <Node pos="l" depth="2" NCoef="0" IVar="-1" Cut="0.0000000000000000e+00" cType="1" res="5.3896061144769192e-03" rms="4.1155293583869934e-01" purity="3.5956934094429016e-01" nType="-99"/>
          <Node pos="r" depth="2" NCoef="0" IVar="-1" Cut="0.0000000000000000e+00" cType="1" res="7.6013646321371198e-04" rms="3.4566214680671692e-01" purity="5.4109537601470947e-01" nType="-99"/>
        </Node>
        <Node pos="r" depth="1" NCoef="0" IVar="0" Cut="7.8200926780700684e+00" cType="1" res="-2.9103308916091919e-03" rms="3.4300869703292847e-01" purity="5.0052827596664429e-01" nType="0">
          <Node pos="l" depth="2" NCoef="0" IVar="-1" Cut="0.0000000000000000e+00" cType="1" res="-8.5374275222420692e-03" rms="4.2945384979248047e-01" purity="2.9316428303718567e-01" nType="-99"/>
          <Node pos="r" depth="2" NCoef="0" IVar="-1" Cut="0.0000000000000000e+00" cType="1" res="-5.4787279805168509e-04" rms="3.3884793519973755e-01" purity="5.0915861129760742e-01" nType="-99"/>
        </Node>
      </Node>
    </BinaryTree>
    <BinaryTree type="DecisionTree" boostWeight="1.0000000000000000e+00" itree="541">
      <Node pos="s" depth="0" NCoef="0" IVar="10" Cut="3.0000000000000000e+00" cType="1" res="-2.3429731372743845e-03" rms="2.6419225335121155e-01" purity="5.0082230567932129e-01" nType="0">
        <Node pos="l" depth="1" NCoef="0" IVar="12" Cut="6.6650968790054321e-01" cType="1" res="-3.6846918519586325e-03" rms="3.4445372223854065e-01" purity="5.1425528526306152e-01" nType="0">
          <Node pos="l" depth="2" NCoef="0" IVar="-1" Cut="0.0000000000000000e+00" cType="1" res="6.3114811200648546e-04" rms="3.5186877846717834e-01" purity="7.7570831775665283e-01" nType="-99"/>
          <Node pos="r" depth="2" NCoef="0" IVar="-1" Cut="0.0000000000000000e+00" cType="1" res="-3.0334379989653826e-03" rms="3.3513507246971130e-01" purity="1.9811412692070007e-01" nType="-99"/>
        </Node>
        <Node pos="r" depth="1" NCoef="0" IVar="3" Cut="8.4858679771423340e-01" cType="1" res="1.3227765448391438e-02" rms="3.6506870388984680e-01" purity="4.2679560184478760e-01" nType="0">
          <Node pos="l" depth="2" NCoef="0" IVar="-1" Cut="0.0000000000000000e+00" cType="1" res="1.9869201350957155e-03" rms="3.6341750621795654e-01" purity="4.5987325906753540e-01" nType="-99"/>
          <Node pos="r" depth="2" NCoef="0" IVar="-1" Cut="0.0000000000000000e+00" cType="1" res="1.1797311715781689e-02" rms="3.6958578228950500e-01" purity="3.1462684273719788e-01" nType="-99"/>
        </Node>
      </Node>
    </BinaryTree>
    <BinaryTree type="DecisionTree" boostWeight="1.0000000000000000e+00" itree="542">
      <Node pos="s" depth="0" NCoef="0" IVar="5" Cut="7.8994703292846680e+00" cType="1" res="-7.0621847407892346e-04" rms="3.5191631317138672e-01" purity="4.9939939379692078e-01" nType="0">
        <Node pos="l" depth="1" NCoef="0" IVar="5" Cut="5.2189002037048340e+00" cType="1" res="1.0016477899625897e-03" rms="3.4869807958602905e-01" purity="5.0777906179428101e-01" nType="0">
          <Node pos="l" depth="2" NCoef="0" IVar="-1" Cut="0.0000000000000000e+00" cType="1" res="-5.5309757590293884e-03" rms="3.7383729219436646e-01" purity="5.3801238536834717e-01" nType="-99"/>
          <Node pos="r" depth="2" NCoef="0" IVar="-1" Cut="0.0000000000000000e+00" cType="1" res="8.2007638411596417e-04" rms="3.4668934345245361e-01" purity="5.0551557540893555e-01" nType="-99"/>
        </Node>
        <Node pos="r" depth="1" NCoef="0" IVar="11" Cut="6.1887687444686890e-01" cType="1" res="-1.3498455286026001e-02" rms="3.7489730119705200e-01" purity="4.3663415312767029e-01" nType="0">
          <Node pos="l" depth="2" NCoef="0" IVar="-1" Cut="0.0000000000000000e+00" cType="1" res="1.1082561286457349e-05" rms="3.4384503960609436e-01" purity="2.4565450847148895e-01" nType="-99"/>
          <Node pos="r" depth="2" NCoef="0" IVar="-1" Cut="0.0000000000000000e+00" cType="1" res="-8.5116298869252205e-03" rms="4.1953325271606445e-01" purity="7.4675643444061279e-01" nType="-99"/>
        </Node>
      </Node>
    </BinaryTree>
    <BinaryTree type="DecisionTree" boostWeight="1.0000000000000000e+00" itree="543">
      <Node pos="s" depth="0" NCoef="0" IVar="1" Cut="5.3008918762207031e+00" cType="1" res="-6.0403521638363600e-04" rms="3.5009998083114624e-01" purity="4.9665987491607666e-01" nType="0">
        <Node pos="l" depth="1" NCoef="0" IVar="10" Cut="2.0000000000000000e+00" cType="1" res="4.4851205311715603e-03" rms="2.7102595567703247e-01" purity="3.0788204073905945e-01" nType="0">
          <Node pos="l" depth="2" NCoef="0" IVar="-1" Cut="0.0000000000000000e+00" cType="1" res="6.6920183598995209e-03" rms="4.3978324532508850e-01" purity="3.8416799902915955e-01" nType="-99"/>
          <Node pos="r" depth="2" NCoef="0" IVar="-1" Cut="0.0000000000000000e+00" cType="1" res="3.3124588662758470e-04" rms="3.8805016875267029e-01" purity="2.3366825282573700e-01" nType="-99"/>
        </Node>
        <Node pos="r" depth="1" NCoef="0" IVar="6" Cut="-2.0043656826019287e+00" cType="1" res="-2.4468309711664915e-03" rms="3.4331932663917542e-01" purity="5.1445931196212769e-01" nType="0">
          <Node pos="l" depth="2" NCoef="0" IVar="-1" Cut="0.0000000000000000e+00" cType="1" res="3.1717665842734277e-04" rms="3.4044554829597473e-01" purity="5.5042409896850586e-01" nType="-99"/>
          <Node pos="r" depth="2" NCoef="0" IVar="-1" Cut="0.0000000000000000e+00" cType="1" res="-5.2578453905880451e-03" rms="3.5602843761444092e-01" purity="3.4594416618347168e-01" nType="-99"/>
        </Node>
      </Node>
    </BinaryTree>
    <BinaryTree type="DecisionTree" boostWeight="1.0000000000000000e+00" itree="544">
      <Node pos="s" depth="0" NCoef="0" IVar="5" Cut="5.0849614143371582e+00" cType="1" res="2.5846152566373348e-03" rms="3.4871354699134827e-01" purity="5.0498813390731812e-01" nType="0">
        <Node pos="l" depth="1" NCoef="0" IVar="-1" Cut="0.0000000000000000e+00" cType="1" res="-8.5690207779407501e-03" rms="3.5941788554191589e-01" purity="5.3771144151687622e-01" nType="-99"/>
        <Node pos="r" depth="1" NCoef="0" IVar="1" Cut="5.4422726631164551e+00" cType="1" res="4.1664894670248032e-03" rms="3.4811475872993469e-01" purity="5.0342351198196411e-01" nType="0">
          <Node pos="l" depth="2" NCoef="0" IVar="-1" Cut="0.0000000000000000e+00" cType="1" res="4.9370331689715385e-03" rms="4.0982538461685181e-01" purity="3.1633222103118896e-01" nType="-99"/>
          <Node pos="r" depth="2" NCoef="0" IVar="-1" Cut="0.0000000000000000e+00" cType="1" res="6.9617957342416048e-04" rms="3.4059369564056396e-01" purity="5.2399522066116333e-01" nType="-99"/>
        </Node>
      </Node>
    </BinaryTree>
    <BinaryTree type="DecisionTree" boostWeight="1.0000000000000000e+00" itree="545">
      <Node pos="s" depth="0" NCoef="0" IVar="5" Cut="6.5107135772705078e+00" cType="1" res="3.2755136489868164e-03" rms="3.4813091158866882e-01" purity="5.0190174579620361e-01" nType="0">
        <Node pos="l" depth="1" NCoef="0" IVar="12" Cut="8.0920755863189697e-01" cType="1" res="1.1265848763287067e-02" rms="3.5670217871665955e-01" purity="5.4140710830688477e-01" nType="0">
          <Node pos="l" depth="2" NCoef="0" IVar="-1" Cut="0.0000000000000000e+00" cType="1" res="1.1253455886617303e-03" rms="3.4509393572807312e-01" purity="7.3474097251892090e-01" nType="-99"/>
          <Node pos="r" depth="2" NCoef="0" IVar="-1" Cut="0.0000000000000000e+00" cType="1" res="6.4259241335093975e-03" rms="3.7363240122795105e-01" purity="2.4220584332942963e-01" nType="-99"/>
        </Node>
        <Node pos="r" depth="1" NCoef="0" IVar="8" Cut="1.0972817428410053e-02" cType="1" res="-2.5303608272224665e-03" rms="3.4165090322494507e-01" purity="4.7319665551185608e-01" nType="0">
          <Node pos="l" depth="2" NCoef="0" IVar="-1" Cut="0.0000000000000000e+00" cType="1" res="-2.1064777392894030e-03" rms="3.4162190556526184e-01" purity="4.7544446587562561e-01" nType="-99"/>
          <Node pos="r" depth="2" NCoef="0" IVar="-1" Cut="0.0000000000000000e+00" cType="1" res="1.8208955880254507e-03" rms="3.4154576063156128e-01" purity="4.7043812274932861e-01" nType="-99"/>
        </Node>
      </Node>
    </BinaryTree>
    <BinaryTree type="DecisionTree" boostWeight="1.0000000000000000e+00" itree="546">
      <Node pos="s" depth="0" NCoef="0" IVar="2" Cut="8.3750495910644531e+00" cType="1" res="-3.8174800574779510e-03" rms="3.4888088703155518e-01" purity="4.9527311325073242e-01" nType="0">
        <Node pos="l" depth="1" NCoef="0" IVar="13" Cut="4.7615300863981247e-02" cType="1" res="1.2988459318876266e-02" rms="3.5783532261848450e-01" purity="4.7305059432983398e-01" nType="0">
          <Node pos="l" depth="2" NCoef="0" IVar="-1" Cut="0.0000000000000000e+00" cType="1" res="-2.4382779374718666e-03" rms="3.0637043714523315e-01" purity="2.2685547173023224e-01" nType="-99"/>
          <Node pos="r" depth="2" NCoef="0" IVar="-1" Cut="0.0000000000000000e+00" cType="1" res="5.7136658579111099e-03" rms="4.0044045448303223e-01" purity="7.1342545747756958e-01" nType="-99"/>
        </Node>
        <Node pos="r" depth="1" NCoef="0" IVar="7" Cut="-5.3399767726659775e-02" cType="1" res="-5.6864530779421329e-03" rms="3.4782066941261292e-01" purity="4.9774450063705444e-01" nType="0">
          <Node pos="l" depth="2" NCoef="0" IVar="-1" Cut="0.0000000000000000e+00" cType="1" res="-3.2170114573091269e-03" rms="3.4697797894477844e-01" purity="5.1330572366714478e-01" nType="-99"/>
          <Node pos="r" depth="2" NCoef="0" IVar="-1" Cut="0.0000000000000000e+00" cType="1" res="-8.3251087926328182e-04" rms="3.4835901856422424e-01" purity="4.8716458678245544e-01" nType="-99"/>
        </Node>
      </Node>
    </BinaryTree>
    <BinaryTree type="DecisionTree" boostWeight="1.0000000000000000e+00" itree="547">
      <Node pos="s" depth="0" NCoef="0" IVar="0" Cut="1.0659732818603516e+01" cType="1" res="-5.8795668883249164e-04" rms="3.5083445906639099e-01" purity="4.9962890148162842e-01" nType="0">
        <Node pos="l" depth="1" NCoef="0" IVar="8" Cut="-6.6087120771408081e-01" cType="1" res="-1.5696759801357985e-03" rms="3.4892082214355469e-01" purity="4.9412482976913452e-01" nType="0">
          <Node pos="l" depth="2" NCoef="0" IVar="-1" Cut="0.0000000000000000e+00" cType="1" res="-1.9830088131129742e-03" rms="4.1159090399742126e-01" purity="5.1463007926940918e-01" nType="-99"/>
          <Node pos="r" depth="2" NCoef="0" IVar="-1" Cut="0.0000000000000000e+00" cType="1" res="-1.2728346337098628e-04" rms="3.4396639466285706e-01" purity="4.9265724420547485e-01" nType="-99"/>
        </Node>
        <Node pos="r" depth="1" NCoef="0" IVar="11" Cut="2.8548902273178101e-01" cType="1" res="1.4547283761203289e-02" rms="3.7879508733749390e-01" purity="5.8448535203933716e-01" nType="0">
          <Node pos="l" depth="2" NCoef="0" IVar="-1" Cut="0.0000000000000000e+00" cType="1" res="6.9804256781935692e-03" rms="3.9294525980949402e-01" purity="3.4599289298057556e-01" nType="-99"/>
          <Node pos="r" depth="2" NCoef="0" IVar="-1" Cut="0.0000000000000000e+00" cType="1" res="-9.0210291091352701e-04" rms="3.6468696594238281e-01" purity="7.9874265193939209e-01" nType="-99"/>
        </Node>
      </Node>
    </BinaryTree>
    <BinaryTree type="DecisionTree" boostWeight="1.0000000000000000e+00" itree="548">
      <Node pos="s" depth="0" NCoef="0" IVar="12" Cut="6.6649949550628662e-01" cType="1" res="-6.8873756390530616e-05" rms="3.4926512837409973e-01" purity="5.0029343366622925e-01" nType="0">
        <Node pos="l" depth="1" NCoef="0" IVar="12" Cut="2.8564152121543884e-01" cType="1" res="3.8655730895698071e-03" rms="3.5928449034690857e-01" purity="7.6289767026901245e-01" nType="0">
          <Node pos="l" depth="2" NCoef="0" IVar="-1" Cut="0.0000000000000000e+00" cType="1" res="-2.0362378563731909e-04" rms="3.3018386363983154e-01" purity="8.2603853940963745e-01" nType="-99"/>
          <Node pos="r" depth="2" NCoef="0" IVar="-1" Cut="0.0000000000000000e+00" cType="1" res="3.1004801858216524e-03" rms="4.2357826232910156e-01" purity="6.0395538806915283e-01" nType="-99"/>
        </Node>
        <Node pos="r" depth="1" NCoef="0" IVar="12" Cut="7.2998815774917603e-01" cType="1" res="-4.5586582273244858e-03" rms="3.3741226792335510e-01" purity="2.0062316954135895e-01" nType="0">
          <Node pos="l" depth="2" NCoef="0" IVar="-1" Cut="0.0000000000000000e+00" cType="1" res="-5.3991479799151421e-03" rms="4.4914188981056213e-01" purity="4.1152018308639526e-01" nType="-99"/>
          <Node pos="r" depth="2" NCoef="0" IVar="-1" Cut="0.0000000000000000e+00" cType="1" res="-4.3169452692382038e-04" rms="3.2305350899696350e-01" purity="1.7812784016132355e-01" nType="-99"/>
        </Node>
      </Node>
    </BinaryTree>
    <BinaryTree type="DecisionTree" boostWeight="1.0000000000000000e+00" itree="549">
      <Node pos="s" depth="0" NCoef="0" IVar="5" Cut="8.3155221939086914e+00" cType="1" res="4.3430025689303875e-03" rms="3.4791809320449829e-01" purity="5.0807738304138184e-01" nType="0">
        <Node pos="l" depth="1" NCoef="0" IVar="0" Cut="8.0314159393310547e+00" cType="1" res="2.5902767665684223e-03" rms="3.4637567400932312e-01" purity="5.0953996181488037e-01" nType="0">
          <Node pos="l" depth="2" NCoef="0" IVar="-1" Cut="0.0000000000000000e+00" cType="1" res="3.8113465998321772e-03" rms="4.4624325633049011e-01" purity="3.8784843683242798e-01" nType="-99"/>
          <Node pos="r" depth="2" NCoef="0" IVar="-1" Cut="0.0000000000000000e+00" cType="1" res="1.0895934246946126e-04" rms="3.3075627684593201e-01" purity="5.2573263645172119e-01" nType="-99"/>
        </Node>
        <Node pos="r" depth="1" NCoef="0" IVar="-1" Cut="0.0000000000000000e+00" cType="1" res="8.4542995318770409e-03" rms="3.7308576703071594e-01" purity="4.8187112808227539e-01" nType="-99"/>
      </Node>
    </BinaryTree>
    <BinaryTree type="DecisionTree" boostWeight="1.0000000000000000e+00" itree="550">
      <Node pos="s" depth="0" NCoef="0" IVar="5" Cut="8.6798038482666016e+00" cType="1" res="4.7985315177356824e-05" rms="3.5113814473152161e-01" purity="5.0144904851913452e-01" nType="0">
        <Node pos="l" depth="1" NCoef="0" IVar="9" Cut="3.6931471824645996e+00" cType="1" res="9.3681708676740527e-04" rms="2.3109142482280731e-01" purity="5.0399565696716309e-01" nType="0">
          <Node pos="l" depth="2" NCoef="0" IVar="-1" Cut="0.0000000000000000e+00" cType="1" res="3.7740456173196435e-04" rms="3.4089773893356323e-01" purity="5.4541081190109253e-01" nType="-99"/>
          <Node pos="r" depth="2" NCoef="0" IVar="-1" Cut="0.0000000000000000e+00" cType="1" res="4.1444748057983816e-04" rms="3.6626541614532471e-01" purity="4.1694644093513489e-01" nType="-99"/>
        </Node>
        <Node pos="r" depth="1" NCoef="0" IVar="-1" Cut="0.0000000000000000e+00" cType="1" res="-1.0010274127125740e-02" rms="4.1137316823005676e-01" purity="4.0743741393089294e-01" nType="-99"/>
      </Node>
    </BinaryTree>
    <BinaryTree type="DecisionTree" boostWeight="1.0000000000000000e+00" itree="551">
      <Node pos="s" depth="0" NCoef="0" IVar="9" Cut="3.6931471824645996e+00" cType="1" res="-9.4514503143727779e-04" rms="2.2708438336849213e-01" purity="4.9769580364227295e-01" nType="0">
        <Node pos="l" depth="1" NCoef="0" IVar="11" Cut="1.9046105444431305e-01" cType="1" res="1.5550514217466116e-03" rms="3.3865186572074890e-01" purity="5.3568106889724731e-01" nType="0">
          <Node pos="l" depth="2" NCoef="0" IVar="-1" Cut="0.0000000000000000e+00" cType="1" res="-1.2636353494599462e-03" rms="3.4034103155136108e-01" purity="2.0820175111293793e-01" nType="-99"/>
          <Node pos="r" depth="2" NCoef="0" IVar="-1" Cut="0.0000000000000000e+00" cType="1" res="2.2240516263991594e-03" rms="3.3695110678672791e-01" purity="8.4107244014739990e-01" nType="-99"/>
        </Node>
        <Node pos="r" depth="1" NCoef="0" IVar="1" Cut="6.1014714241027832e+00" cType="1" res="2.8115353779867291e-04" rms="3.6519882082939148e-01" purity="4.1646608710289001e-01" nType="0">
          <Node pos="l" depth="2" NCoef="0" IVar="-1" Cut="0.0000000000000000e+00" cType="1" res="-4.0841512382030487e-03" rms="3.8835954666137695e-01" purity="2.8134596347808838e-01" nType="-99"/>
          <Node pos="r" depth="2" NCoef="0" IVar="-1" Cut="0.0000000000000000e+00" cType="1" res="2.7350122109055519e-03" rms="3.5166060924530029e-01" purity="4.9073621630668640e-01" nType="-99"/>
        </Node>
      </Node>
    </BinaryTree>
    <BinaryTree type="DecisionTree" boostWeight="1.0000000000000000e+00" itree="552">
      <Node pos="s" depth="0" NCoef="0" IVar="8" Cut="-6.6087120771408081e-01" cType="1" res="2.5121981743723154e-03" rms="3.5022687911987305e-01" purity="5.0256174802780151e-01" nType="0">
        <Node pos="l" depth="1" NCoef="0" IVar="-1" Cut="0.0000000000000000e+00" cType="1" res="-1.7746480880305171e-03" rms="4.0314489603042603e-01" purity="5.2500176429748535e-01" nType="-99"/>
        <Node pos="r" depth="1" NCoef="0" IVar="8" Cut="-4.6601828932762146e-01" cType="1" res="3.8717638235539198e-03" rms="3.4620469808578491e-01" purity="5.0100100040435791e-01" nType="0">
          <Node pos="l" depth="2" NCoef="0" IVar="-1" Cut="0.0000000000000000e+00" cType="1" res="3.8564298301935196e-03" rms="3.5948780179023743e-01" purity="5.1346689462661743e-01" nType="-99"/>
          <Node pos="r" depth="2" NCoef="0" IVar="-1" Cut="0.0000000000000000e+00" cType="1" res="9.0346619253978133e-04" rms="3.4502398967742920e-01" purity="4.9994853138923645e-01" nType="-99"/>
        </Node>
      </Node>
    </BinaryTree>
    <BinaryTree type="DecisionTree" boostWeight="1.0000000000000000e+00" itree="553">
      <Node pos="s" depth="0" NCoef="0" IVar="2" Cut="8.9995059967041016e+00" cType="1" res="-1.6076800238806754e-04" rms="3.5124102234840393e-01" purity="4.9952957034111023e-01" nType="0">
        <Node pos="l" depth="1" NCoef="0" IVar="3" Cut="2.3934319615364075e-01" cType="1" res="4.7162864357233047e-03" rms="3.5771206021308899e-01" purity="4.8488703370094299e-01" nType="0">
          <Node pos="l" depth="2" NCoef="0" IVar="-1" Cut="0.0000000000000000e+00" cType="1" res="-1.0399926686659455e-03" rms="3.4326675534248352e-01" purity="5.8606344461441040e-01" nType="-99"/>
          <Node pos="r" depth="2" NCoef="0" IVar="-1" Cut="0.0000000000000000e+00" cType="1" res="2.5193500332534313e-03" rms="3.6994424462318420e-01" purity="3.9471349120140076e-01" nType="-99"/>
        </Node>
        <Node pos="r" depth="1" NCoef="0" IVar="9" Cut="3.0000000000000000e+00" cType="1" res="-1.3124063843861222e-03" rms="2.2693818807601929e-01" purity="5.1118165254592896e-01" nType="0">
          <Node pos="l" depth="2" NCoef="0" IVar="-1" Cut="0.0000000000000000e+00" cType="1" res="2.7251094579696655e-03" rms="3.0449011921882629e-01" purity="6.5607392787933350e-01" nType="-99"/>
          <Node pos="r" depth="2" NCoef="0" IVar="-1" Cut="0.0000000000000000e+00" cType="1" res="-2.3636664263904095e-03" rms="3.5274061560630798e-01" purity="4.8559081554412842e-01" nType="-99"/>
        </Node>
      </Node>
    </BinaryTree>
    <BinaryTree type="DecisionTree" boostWeight="1.0000000000000000e+00" itree="554">
      <Node pos="s" depth="0" NCoef="0" IVar="10" Cut="3.0000000000000000e+00" cType="1" res="-7.5444218236953020e-04" rms="2.6614561676979065e-01" purity="5.0250548124313354e-01" nType="0">
        <Node pos="l" depth="1" NCoef="0" IVar="9" Cut="3.6931471824645996e+00" cType="1" res="4.4048381823813543e-05" rms="2.0649482309818268e-01" purity="5.2080261707305908e-01" nType="0">
          <Node pos="l" depth="2" NCoef="0" IVar="-1" Cut="0.0000000000000000e+00" cType="1" res="8.3563692169263959e-04" rms="3.3925622701644897e-01" purity="5.5142223834991455e-01" nType="-99"/>
          <Node pos="r" depth="2" NCoef="0" IVar="-1" Cut="0.0000000000000000e+00" cType="1" res="-9.7044836729764938e-04" rms="3.6668992042541504e-01" purity="4.3431806564331055e-01" nType="-99"/>
        </Node>
        <Node pos="r" depth="1" NCoef="0" IVar="1" Cut="6.0036029815673828e+00" cType="1" res="-9.8077356815338135e-03" rms="3.6685618758201599e-01" purity="4.0085172653198242e-01" nType="0">
          <Node pos="l" depth="2" NCoef="0" IVar="-1" Cut="0.0000000000000000e+00" cType="1" res="-8.6584547534584999e-03" rms="3.7928223609924316e-01" purity="2.4835379421710968e-01" nType="-99"/>
          <Node pos="r" depth="2" NCoef="0" IVar="-1" Cut="0.0000000000000000e+00" cType="1" res="-3.7855395930819213e-04" rms="3.6050152778625488e-01" purity="4.7299936413764954e-01" nType="-99"/>
        </Node>
      </Node>
    </BinaryTree>
    <BinaryTree type="DecisionTree" boostWeight="1.0000000000000000e+00" itree="555">
      <Node pos="s" depth="0" NCoef="0" IVar="2" Cut="8.6258335113525391e+00" cType="1" res="1.2559039751067758e-03" rms="3.4901931881904602e-01" purity="5.0178277492523193e-01" nType="0">
        <Node pos="l" depth="1" NCoef="0" IVar="5" Cut="7.2065353393554688e+00" cType="1" res="1.1860708706080914e-02" rms="3.5909506678581238e-01" purity="4.9172753095626831e-01" nType="0">
          <Node pos="l" depth="2" NCoef="0" IVar="-1" Cut="0.0000000000000000e+00" cType="1" res="8.4717350546270609e-04" rms="3.6196365952491760e-01" purity="4.8962685465812683e-01" nType="-99"/>
          <Node pos="r" depth="2" NCoef="0" IVar="-1" Cut="0.0000000000000000e+00" cType="1" res="6.6986698657274246e-03" rms="3.4885632991790771e-01" purity="4.9828606843948364e-01" nType="-99"/>
        </Node>
        <Node pos="r" depth="1" NCoef="0" IVar="1" Cut="5.7224564552307129e+00" cType="1" res="-1.3857682934030890e-03" rms="3.4641334414482117e-01" purity="5.0428754091262817e-01" nType="0">
          <Node pos="l" depth="2" NCoef="0" IVar="-1" Cut="0.0000000000000000e+00" cType="1" res="-3.1660320237278938e-03" rms="3.9438855648040771e-01" purity="3.0752319097518921e-01" nType="-99"/>
          <Node pos="r" depth="2" NCoef="0" IVar="-1" Cut="0.0000000000000000e+00" cType="1" res="3.4940562909469008e-04" rms="3.3432087302207947e-01" purity="5.4969960451126099e-01" nType="-99"/>
        </Node>
      </Node>
    </BinaryTree>
    <BinaryTree type="DecisionTree" boostWeight="1.0000000000000000e+00" itree="556">
      <Node pos="s" depth="0" NCoef="0" IVar="0" Cut="8.0388259887695312e+00" cType="1" res="-1.1852881871163845e-03" rms="3.4810760617256165e-01" purity="4.9888688325881958e-01" nType="0">
        <Node pos="l" depth="1" NCoef="0" IVar="0" Cut="7.9344134330749512e+00" cType="1" res="-1.8120568245649338e-02" rms="4.3663492798805237e-01" purity="3.4454545378684998e-01" nType="0">
          <Node pos="l" depth="2" NCoef="0" IVar="-1" Cut="0.0000000000000000e+00" cType="1" res="-5.3089549764990807e-03" rms="4.4517561793327332e-01" purity="3.2806244492530823e-01" nType="-99"/>
          <Node pos="r" depth="2" NCoef="0" IVar="-1" Cut="0.0000000000000000e+00" cType="1" res="1.8652074504643679e-03" rms="4.1198053956031799e-01" purity="3.8828384876251221e-01" nType="-99"/>
        </Node>
        <Node pos="r" depth="1" NCoef="0" IVar="13" Cut="4.7614932060241699e-02" cType="1" res="8.9804001618176699e-04" rms="3.3554902672767639e-01" purity="5.1787346601486206e-01" nType="0">
          <Node pos="l" depth="2" NCoef="0" IVar="-1" Cut="0.0000000000000000e+00" cType="1" res="-1.5473100356757641e-03" rms="2.7132195234298706e-01" purity="2.5463420152664185e-01" nType="-99"/>
          <Node pos="r" depth="2" NCoef="0" IVar="-1" Cut="0.0000000000000000e+00" cType="1" res="1.1720702750608325e-03" rms="3.8064342737197876e-01" purity="7.3618346452713013e-01" nType="-99"/>
        </Node>
      </Node>
    </BinaryTree>
    <BinaryTree type="DecisionTree" boostWeight="1.0000000000000000e+00" itree="557">
      <Node pos="s" depth="0" NCoef="0" IVar="5" Cut="8.3447704315185547e+00" cType="1" res="1.7930464819073677e-03" rms="3.5085535049438477e-01" purity="4.9914947152137756e-01" nType="0">
        <Node pos="l" depth="1" NCoef="0" IVar="0" Cut="8.9098644256591797e+00" cType="1" res="3.2111833570525050e-04" rms="3.4927302598953247e-01" purity="5.0143146514892578e-01" nType="0">
          <Node pos="l" depth="2" NCoef="0" IVar="-1" Cut="0.0000000000000000e+00" cType="1" res="1.4710503164678812e-03" rms="3.7781882286071777e-01" purity="4.3683257699012756e-01" nType="-99"/>
          <Node pos="r" depth="2" NCoef="0" IVar="-1" Cut="0.0000000000000000e+00" cType="1" res="-1.3107894919812679e-03" rms="3.2361081242561340e-01" purity="5.5504918098449707e-01" nType="-99"/>
        </Node>
        <Node pos="r" depth="1" NCoef="0" IVar="-1" Cut="0.0000000000000000e+00" cType="1" res="6.0945977456867695e-03" rms="3.7690487504005432e-01" purity="4.5861047506332397e-01" nType="-99"/>
      </Node>
    </BinaryTree>
    <BinaryTree type="DecisionTree" boostWeight="1.0000000000000000e+00" itree="558">
      <Node pos="s" depth="0" NCoef="0" IVar="4" Cut="-1.1766345798969269e-01" cType="1" res="-2.8061610646545887e-03" rms="3.4935027360916138e-01" purity="4.9680221080780029e-01" nType="0">
        <Node pos="l" depth="1" NCoef="0" IVar="3" Cut="2.2440788149833679e-01" cType="1" res="-6.7817433737218380e-03" rms="3.3554738759994507e-01" purity="5.3772455453872681e-01" nType="0">
          <Node pos="l" depth="2" NCoef="0" IVar="-1" Cut="0.0000000000000000e+00" cType="1" res="-1.4859085786156356e-04" rms="3.0959162116050720e-01" purity="6.8355596065521240e-01" nType="-99"/>
          <Node pos="r" depth="2" NCoef="0" IVar="-1" Cut="0.0000000000000000e+00" cType="1" res="-3.9156996645033360e-03" rms="3.6159765720367432e-01" purity="3.7874665856361389e-01" nType="-99"/>
        </Node>
        <Node pos="r" depth="1" NCoef="0" IVar="6" Cut="-3.6821660995483398e+00" cType="1" res="4.6645491383969784e-03" rms="3.7379780411720276e-01" purity="4.1990292072296143e-01" nType="0">
          <Node pos="l" depth="2" NCoef="0" IVar="-1" Cut="0.0000000000000000e+00" cType="1" res="-6.6049280576407909e-03" rms="3.6699894070625305e-01" purity="4.7276344895362854e-01" nType="-99"/>
          <Node pos="r" depth="2" NCoef="0" IVar="-1" Cut="0.0000000000000000e+00" cType="1" res="2.5888695381581783e-03" rms="3.7481167912483215e-01" purity="4.0992519259452820e-01" nType="-99"/>
        </Node>
      </Node>
    </BinaryTree>
    <BinaryTree type="DecisionTree" boostWeight="1.0000000000000000e+00" itree="559">
      <Node pos="s" depth="0" NCoef="0" IVar="4" Cut="-3.1982204914093018e+00" cType="1" res="2.5869146920740604e-03" rms="3.4735059738159180e-01" purity="5.0274264812469482e-01" nType="0">
        <Node pos="l" depth="1" NCoef="0" IVar="-1" Cut="0.0000000000000000e+00" cType="1" res="9.2020062729716301e-03" rms="3.2482364773750305e-01" purity="6.0859894752502441e-01" nType="-99"/>
        <Node pos="r" depth="1" NCoef="0" IVar="0" Cut="8.2528238296508789e+00" cType="1" res="1.6110996948555112e-03" rms="3.4821009635925293e-01" purity="4.9839454889297485e-01" nType="0">
          <Node pos="l" depth="2" NCoef="0" IVar="-1" Cut="0.0000000000000000e+00" cType="1" res="-2.1730035077780485e-03" rms="4.1507038474082947e-01" purity="3.6821514368057251e-01" nType="-99"/>
          <Node pos="r" depth="2" NCoef="0" IVar="-1" Cut="0.0000000000000000e+00" cType="1" res="1.3269477058202028e-03" rms="3.3124792575836182e-01" purity="5.2770453691482544e-01" nType="-99"/>
        </Node>
      </Node>
    </BinaryTree>
    <BinaryTree type="DecisionTree" boostWeight="1.0000000000000000e+00" itree="560">
      <Node pos="s" depth="0" NCoef="0" IVar="12" Cut="8.0931979417800903e-01" cType="1" res="1.6786414198577404e-03" rms="3.5101228952407837e-01" purity="5.0263565778732300e-01" nType="0">
        <Node pos="l" depth="1" NCoef="0" IVar="1" Cut="5.7773308753967285e+00" cType="1" res="-2.0192163065075874e-03" rms="3.7504407763481140e-01" purity="7.0003551244735718e-01" nType="0">
          <Node pos="l" depth="2" NCoef="0" IVar="-1" Cut="0.0000000000000000e+00" cType="1" res="-4.2430907487869263e-03" rms="4.3113753199577332e-01" purity="4.5613929629325867e-01" nType="-99"/>
          <Node pos="r" depth="2" NCoef="0" IVar="-1" Cut="0.0000000000000000e+00" cType="1" res="3.7059775786474347e-04" rms="3.6382931470870972e-01" purity="7.4433165788650513e-01" nType="-99"/>
        </Node>
        <Node pos="r" depth="1" NCoef="0" IVar="12" Cut="9.7254395484924316e-01" cType="1" res="8.3366753533482552e-03" rms="3.0286064743995667e-01" purity="1.4721500873565674e-01" nType="0">
          <Node pos="l" depth="2" NCoef="0" IVar="-1" Cut="0.0000000000000000e+00" cType="1" res="4.9997717142105103e-03" rms="3.8107377290725708e-01" purity="2.4083924293518066e-01" nType="-99"/>
          <Node pos="r" depth="2" NCoef="0" IVar="-1" Cut="0.0000000000000000e+00" cType="1" res="-9.1741345822811127e-03" rms="1.3652275502681732e-01" purity="1.9952083006501198e-02" nType="-99"/>
        </Node>
      </Node>
    </BinaryTree>
    <BinaryTree type="DecisionTree" boostWeight="1.0000000000000000e+00" itree="561">
      <Node pos="s" depth="0" NCoef="0" IVar="0" Cut="1.0882005691528320e+01" cType="1" res="5.2247982239350677e-05" rms="3.5027265548706055e-01" purity="5.0301271677017212e-01" nType="0">
        <Node pos="l" depth="1" NCoef="0" IVar="8" Cut="-5.3513187170028687e-01" cType="1" res="-1.0283971205353737e-03" rms="3.4881490468978882e-01" purity="4.9896836280822754e-01" nType="0">
          <Node pos="l" depth="2" NCoef="0" IVar="-1" Cut="0.0000000000000000e+00" cType="1" res="-2.4522799067199230e-03" rms="3.9939817786216736e-01" purity="5.0389254093170166e-01" nType="-99"/>
          <Node pos="r" depth="2" NCoef="0" IVar="-1" Cut="0.0000000000000000e+00" cType="1" res="3.9921989082358778e-04" rms="3.4226357936859131e-01" purity="4.9838489294052124e-01" nType="-99"/>
        </Node>
        <Node pos="r" depth="1" NCoef="0" IVar="-1" Cut="0.0000000000000000e+00" cType="1" res="5.3685731254518032e-03" rms="3.8549703359603882e-01" purity="6.0918200016021729e-01" nType="-99"/>
      </Node>
    </BinaryTree>
    <BinaryTree type="DecisionTree" boostWeight="1.0000000000000000e+00" itree="562">
      <Node pos="s" depth="0" NCoef="0" IVar="0" Cut="7.8198819160461426e+00" cType="1" res="1.5027320478111506e-03" rms="3.4918391704559326e-01" purity="5.0191611051559448e-01" nType="0">
        <Node pos="l" depth="1" NCoef="0" IVar="-1" Cut="0.0000000000000000e+00" cType="1" res="5.2709137089550495e-03" rms="4.5940470695495605e-01" purity="3.7250936031341553e-01" nType="-99"/>
        <Node pos="r" depth="1" NCoef="0" IVar="9" Cut="3.6931471824645996e+00" cType="1" res="-4.1587327723391354e-04" rms="2.2934003174304962e-01" purity="5.0899428129196167e-01" nType="0">
          <Node pos="l" depth="2" NCoef="0" IVar="-1" Cut="0.0000000000000000e+00" cType="1" res="5.5610993877053261e-04" rms="3.3415663242340088e-01" purity="5.4970598220825195e-01" nType="-99"/>
          <Node pos="r" depth="2" NCoef="0" IVar="-1" Cut="0.0000000000000000e+00" cType="1" res="-1.6608344158157706e-03" rms="3.5845068097114563e-01" purity="4.2154574394226074e-01" nType="-99"/>
        </Node>
      </Node>
    </BinaryTree>
    <BinaryTree type="DecisionTree" boostWeight="1.0000000000000000e+00" itree="563">
      <Node pos="s" depth="0" NCoef="0" IVar="12" Cut="4.7611448913812637e-02" cType="1" res="4.2071528150700033e-04" rms="3.5040137171745300e-01" purity="5.0338244438171387e-01" nType="0">
        <Node pos="l" depth="1" NCoef="0" IVar="11" Cut="8.5698378086090088e-01" cType="1" res="-5.9664659202098846e-03" rms="3.1531295180320740e-01" purity="8.4811627864837646e-01" nType="0">
          <Node pos="l" depth="2" NCoef="0" IVar="-1" Cut="0.0000000000000000e+00" cType="1" res="-1.3281313702464104e-02" rms="3.8745641708374023e-01" purity="5.8255189657211304e-01" nType="-99"/>
          <Node pos="r" depth="2" NCoef="0" IVar="-1" Cut="0.0000000000000000e+00" cType="1" res="-3.0714846798218787e-04" rms="3.0399516224861145e-01" purity="8.8358914852142334e-01" nType="-99"/>
        </Node>
        <Node pos="r" depth="1" NCoef="0" IVar="12" Cut="6.8232202529907227e-01" cType="1" res="2.4624078068882227e-03" rms="3.6087489128112793e-01" purity="3.9318668842315674e-01" nType="0">
          <Node pos="l" depth="2" NCoef="0" IVar="-1" Cut="0.0000000000000000e+00" cType="1" res="2.0774521399289370e-03" rms="3.9409527182579041e-01" purity="6.8630659580230713e-01" nType="-99"/>
          <Node pos="r" depth="2" NCoef="0" IVar="-1" Cut="0.0000000000000000e+00" cType="1" res="-5.2572973072528839e-04" rms="3.3689886331558228e-01" purity="1.9817577302455902e-01" nType="-99"/>
        </Node>
      </Node>
    </BinaryTree>
    <BinaryTree type="DecisionTree" boostWeight="1.0000000000000000e+00" itree="564">
      <Node pos="s" depth="0" NCoef="0" IVar="0" Cut="1.0878161430358887e+01" cType="1" res="-1.4576573448721319e-04" rms="3.4790095686912537e-01" purity="4.9835693836212158e-01" nType="0">
        <Node pos="l" depth="1" NCoef="0" IVar="6" Cut="-2.7298448085784912e+00" cType="1" res="-1.1625856859609485e-03" rms="3.4605693817138672e-01" purity="4.9449583888053894e-01" nType="0">
          <Node pos="l" depth="2" NCoef="0" IVar="-1" Cut="0.0000000000000000e+00" cType="1" res="1.3365856138989329e-03" rms="3.2333627343177795e-01" purity="5.7537901401519775e-01" nType="-99"/>
          <Node pos="r" depth="2" NCoef="0" IVar="-1" Cut="0.0000000000000000e+00" cType="1" res="-1.9257320091128349e-03" rms="3.6985194683074951e-01" purity="4.0356850624084473e-01" nType="-99"/>
        </Node>
        <Node pos="r" depth="1" NCoef="0" IVar="-1" Cut="0.0000000000000000e+00" cType="1" res="5.8215833269059658e-03" rms="3.9224597811698914e-01" purity="5.9961718320846558e-01" nType="-99"/>
      </Node>
    </BinaryTree>
    <BinaryTree type="DecisionTree" boostWeight="1.0000000000000000e+00" itree="565">
      <Node pos="s" depth="0" NCoef="0" IVar="9" Cut="3.6931471824645996e+00" cType="1" res="3.9830635068938136e-04" rms="2.2819148004055023e-01" purity="5.0055754184722900e-01" nType="0">
        <Node pos="l" depth="1" NCoef="0" IVar="3" Cut="-8.1349931657314301e-02" cType="1" res="-1.4435966731980443e-03" rms="3.4310212731361389e-01" purity="5.3996813297271729e-01" nType="0">
          <Node pos="l" depth="2" NCoef="0" IVar="-1" Cut="0.0000000000000000e+00" cType="1" res="2.6427020784467459e-03" rms="3.1121197342872620e-01" purity="7.0623195171356201e-01" nType="-99"/>
          <Node pos="r" depth="2" NCoef="0" IVar="-1" Cut="0.0000000000000000e+00" cType="1" res="-1.7797532491385937e-03" rms="3.6300134658813477e-01" purity="4.2725235223770142e-01" nType="-99"/>
        </Node>
        <Node pos="r" depth="1" NCoef="0" IVar="11" Cut="9.5207512378692627e-01" cType="1" res="1.4605354517698288e-03" rms="3.6615154147148132e-01" purity="4.1725704073905945e-01" nType="0">
          <Node pos="l" depth="2" NCoef="0" IVar="-1" Cut="0.0000000000000000e+00" cType="1" res="1.6119043575599790e-03" rms="3.6820036172866821e-01" purity="3.6613497138023376e-01" nType="-99"/>
          <Node pos="r" depth="2" NCoef="0" IVar="-1" Cut="0.0000000000000000e+00" cType="1" res="-1.0451084934175014e-02" rms="3.4770485758781433e-01" purity="8.4386438131332397e-01" nType="-99"/>
        </Node>
      </Node>
    </BinaryTree>
    <BinaryTree type="DecisionTree" boostWeight="1.0000000000000000e+00" itree="566">
      <Node pos="s" depth="0" NCoef="0" IVar="2" Cut="9.2374496459960938e+00" cType="1" res="1.5879459679126740e-03" rms="3.4944069385528564e-01" purity="5.0383144617080688e-01" nType="0">
        <Node pos="l" depth="1" NCoef="0" IVar="6" Cut="-4.3475170135498047e+00" cType="1" res="-2.1434980444610119e-03" rms="3.5428985953330994e-01" purity="4.9035805463790894e-01" nType="0">
          <Node pos="l" depth="2" NCoef="0" IVar="-1" Cut="0.0000000000000000e+00" cType="1" res="6.1094202101230621e-03" rms="3.2090815901756287e-01" purity="6.2038272619247437e-01" nType="-99"/>
          <Node pos="r" depth="2" NCoef="0" IVar="-1" Cut="0.0000000000000000e+00" cType="1" res="-9.6784299239516258e-04" rms="3.5624510049819946e-01" purity="4.8206418752670288e-01" nType="-99"/>
        </Node>
        <Node pos="r" depth="1" NCoef="0" IVar="3" Cut="5.3124499320983887e-01" cType="1" res="8.0371014773845673e-03" rms="3.4080079197883606e-01" purity="5.2711784839630127e-01" nType="0">
          <Node pos="l" depth="2" NCoef="0" IVar="-1" Cut="0.0000000000000000e+00" cType="1" res="7.0114522241055965e-03" rms="3.2376956939697266e-01" purity="6.3540238142013550e-01" nType="-99"/>
          <Node pos="r" depth="2" NCoef="0" IVar="-1" Cut="0.0000000000000000e+00" cType="1" res="-7.2571181226521730e-04" rms="3.6668592691421509e-01" purity="3.5038033127784729e-01" nType="-99"/>
        </Node>
      </Node>
    </BinaryTree>
    <BinaryTree type="DecisionTree" boostWeight="1.0000000000000000e+00" itree="567">
      <Node pos="s" depth="0" NCoef="0" IVar="8" Cut="-6.6183072328567505e-01" cType="1" res="-1.3372200774028897e-03" rms="3.5155078768730164e-01" purity="5.0087821483612061e-01" nType="0">
        <Node pos="l" depth="1" NCoef="0" IVar="-1" Cut="0.0000000000000000e+00" cType="1" res="-2.1523353643715382e-03" rms="4.1574665904045105e-01" purity="5.0751924514770508e-01" nType="-99"/>
        <Node pos="r" depth="1" NCoef="0" IVar="1" Cut="5.7681169509887695e+00" cType="1" res="-2.0524994397419505e-05" rms="3.4665998816490173e-01" purity="5.0042140483856201e-01" nType="0">
          <Node pos="l" depth="2" NCoef="0" IVar="-1" Cut="0.0000000000000000e+00" cType="1" res="2.6096773799508810e-03" rms="3.9640209078788757e-01" purity="3.3087313175201416e-01" nType="-99"/>
          <Node pos="r" depth="2" NCoef="0" IVar="-1" Cut="0.0000000000000000e+00" cType="1" res="-9.2435337137430906e-04" rms="3.3255538344383240e-01" purity="5.4422694444656372e-01" nType="-99"/>
        </Node>
      </Node>
    </BinaryTree>
    <BinaryTree type="DecisionTree" boostWeight="1.0000000000000000e+00" itree="568">
      <Node pos="s" depth="0" NCoef="0" IVar="2" Cut="8.2049665451049805e+00" cType="1" res="-3.2194212544709444e-03" rms="3.5123980045318604e-01" purity="4.9805685877799988e-01" nType="0">
        <Node pos="l" depth="1" NCoef="0" IVar="-1" Cut="0.0000000000000000e+00" cType="1" res="-5.3141750395298004e-03" rms="3.8147273659706116e-01" purity="4.5530605316162109e-01" nType="-99"/>
        <Node pos="r" depth="1" NCoef="0" IVar="0" Cut="1.0663195610046387e+01" cType="1" res="-1.8428151961416006e-03" rms="3.4935787320137024e-01" purity="5.0053459405899048e-01" nType="0">
          <Node pos="l" depth="2" NCoef="0" IVar="-1" Cut="0.0000000000000000e+00" cType="1" res="-2.2820896992925555e-04" rms="3.4636020660400391e-01" purity="4.9715393781661987e-01" nType="-99"/>
          <Node pos="r" depth="2" NCoef="0" IVar="-1" Cut="0.0000000000000000e+00" cType="1" res="-4.0637766942381859e-03" rms="3.9392405748367310e-01" purity="5.5479377508163452e-01" nType="-99"/>
        </Node>
      </Node>
    </BinaryTree>
    <BinaryTree type="DecisionTree" boostWeight="1.0000000000000000e+00" itree="569">
      <Node pos="s" depth="0" NCoef="0" IVar="8" Cut="-6.6087120771408081e-01" cType="1" res="3.3838634844869375e-03" rms="3.5046002268791199e-01" purity="5.0409960746765137e-01" nType="0">
        <Node pos="l" depth="1" NCoef="0" IVar="-1" Cut="0.0000000000000000e+00" cType="1" res="2.8727878816425800e-03" rms="3.9756187796592712e-01" purity="5.4830557107925415e-01" nType="-99"/>
        <Node pos="r" depth="1" NCoef="0" IVar="8" Cut="-4.6587741374969482e-01" cType="1" res="1.9286656752228737e-03" rms="3.4706962108612061e-01" purity="5.0117534399032593e-01" nType="0">
          <Node pos="l" depth="2" NCoef="0" IVar="-1" Cut="0.0000000000000000e+00" cType="1" res="-3.8605618756264448e-03" rms="3.7424018979072571e-01" purity="4.8148167133331299e-01" nType="-99"/>
          <Node pos="r" depth="2" NCoef="0" IVar="-1" Cut="0.0000000000000000e+00" cType="1" res="1.3683013385161757e-03" rms="3.4456917643547058e-01" purity="5.0286960601806641e-01" nType="-99"/>
        </Node>
      </Node>
    </BinaryTree>
    <BinaryTree type="DecisionTree" boostWeight="1.0000000000000000e+00" itree="570">
      <Node pos="s" depth="0" NCoef="0" IVar="2" Cut="8.8053827285766602e+00" cType="1" res="-3.5176489036530256e-03" rms="3.4928053617477417e-01" purity="4.9882906675338745e-01" nType="0">
        <Node pos="l" depth="1" NCoef="0" IVar="3" Cut="-3.6423939466476440e-01" cType="1" res="-9.9841216579079628e-03" rms="3.6243006587028503e-01" purity="4.6582046151161194e-01" nType="0">
          <Node pos="l" depth="2" NCoef="0" IVar="-1" Cut="0.0000000000000000e+00" cType="1" res="-6.3638212159276009e-03" rms="3.4983330965042114e-01" purity="5.9680444002151489e-01" nType="-99"/>
          <Node pos="r" depth="2" NCoef="0" IVar="-1" Cut="0.0000000000000000e+00" cType="1" res="-8.6291076149791479e-04" rms="3.6704155802726746e-01" purity="4.1499865055084229e-01" nType="-99"/>
        </Node>
        <Node pos="r" depth="1" NCoef="0" IVar="3" Cut="-6.9599241018295288e-01" cType="1" res="-7.4248679447919130e-04" rms="3.4344556927680969e-01" purity="5.1299512386322021e-01" nType="0">
          <Node pos="l" depth="2" NCoef="0" IVar="-1" Cut="0.0000000000000000e+00" cType="1" res="4.5284675434231758e-03" rms="2.9548138380050659e-01" purity="7.3543983697891235e-01" nType="-99"/>
          <Node pos="r" depth="2" NCoef="0" IVar="-1" Cut="0.0000000000000000e+00" cType="1" res="-1.4010736485943198e-03" rms="3.5838124155998230e-01" purity="4.3656930327415466e-01" nType="-99"/>
        </Node>
      </Node>
    </BinaryTree>
    <BinaryTree type="DecisionTree" boostWeight="1.0000000000000000e+00" itree="571">
      <Node pos="s" depth="0" NCoef="0" IVar="2" Cut="8.6181879043579102e+00" cType="1" res="2.7579150628298521e-04" rms="3.4925287961959839e-01" purity="5.0060695409774780e-01" nType="0">
        <Node pos="l" depth="1" NCoef="0" IVar="7" Cut="4.8501157760620117e-01" cType="1" res="2.0033596083521843e-02" rms="3.5652226209640503e-01" purity="4.9657109379768372e-01" nType="0">
          <Node pos="l" depth="2" NCoef="0" IVar="-1" Cut="0.0000000000000000e+00" cType="1" res="5.7771708816289902e-03" rms="3.5663157701492310e-01" purity="5.2482557296752930e-01" nType="-99"/>
          <Node pos="r" depth="2" NCoef="0" IVar="-1" Cut="0.0000000000000000e+00" cType="1" res="-1.1919467942789197e-03" rms="3.5496538877487183e-01" purity="4.1831576824188232e-01" nType="-99"/>
        </Node>
        <Node pos="r" depth="1" NCoef="0" IVar="4" Cut="-1.7163234949111938e-01" cType="1" res="-4.4143036939203739e-03" rms="3.4733989834785461e-01" purity="5.0156503915786743e-01" nType="0">
          <Node pos="l" depth="2" NCoef="0" IVar="-1" Cut="0.0000000000000000e+00" cType="1" res="1.2486957712098956e-04" rms="3.2989129424095154e-01" purity="5.5893307924270630e-01" nType="-99"/>
          <Node pos="r" depth="2" NCoef="0" IVar="-1" Cut="0.0000000000000000e+00" cType="1" res="-3.4338552504777908e-03" rms="3.7420853972434998e-01" purity="4.0696915984153748e-01" nType="-99"/>
        </Node>
      </Node>
    </BinaryTree>
    <BinaryTree type="DecisionTree" boostWeight="1.0000000000000000e+00" itree="572">
      <Node pos="s" depth="0" NCoef="0" IVar="8" Cut="-5.8341348171234131e-01" cType="1" res="-1.9332903902977705e-03" rms="3.4849277138710022e-01" purity="4.9557548761367798e-01" nType="0">
        <Node pos="l" depth="1" NCoef="0" IVar="-1" Cut="0.0000000000000000e+00" cType="1" res="1.8499741563573480e-03" rms="4.0372648835182190e-01" purity="5.3073930740356445e-01" nType="-99"/>
        <Node pos="r" depth="1" NCoef="0" IVar="1" Cut="7.8307819366455078e+00" cType="1" res="-3.7214844487607479e-03" rms="3.4257012605667114e-01" purity="4.9214190244674683e-01" nType="0">
          <Node pos="l" depth="2" NCoef="0" IVar="-1" Cut="0.0000000000000000e+00" cType="1" res="-1.0331327794119716e-03" rms="3.4288552403450012e-01" purity="4.8844569921493530e-01" nType="-99"/>
          <Node pos="r" depth="2" NCoef="0" IVar="-1" Cut="0.0000000000000000e+00" cType="1" res="-9.4602322205901146e-03" rms="3.3310249447822571e-01" purity="5.9241998195648193e-01" nType="-99"/>
        </Node>
      </Node>
    </BinaryTree>
    <BinaryTree type="DecisionTree" boostWeight="1.0000000000000000e+00" itree="573">
      <Node pos="s" depth="0" NCoef="0" IVar="6" Cut="-3.9382429122924805e+00" cType="1" res="-1.9674233626574278e-03" rms="3.4964933991432190e-01" purity="4.9759060144424438e-01" nType="0">
        <Node pos="l" depth="1" NCoef="0" IVar="11" Cut="4.7621477395296097e-02" cType="1" res="1.3426988385617733e-02" rms="3.1312012672424316e-01" purity="6.1772942543029785e-01" nType="0">
          <Node pos="l" depth="2" NCoef="0" IVar="-1" Cut="0.0000000000000000e+00" cType="1" res="-5.6183515116572380e-03" rms="1.6819077730178833e-01" purity="3.7281099706888199e-02" nType="-99"/>
          <Node pos="r" depth="2" NCoef="0" IVar="-1" Cut="0.0000000000000000e+00" cType="1" res="5.6325593031942844e-03" rms="3.4657129645347595e-01" purity="8.0261534452438354e-01" nType="-99"/>
        </Node>
        <Node pos="r" depth="1" NCoef="0" IVar="5" Cut="5.4382920265197754e+00" cType="1" res="-4.1492255404591560e-03" rms="3.5446804761886597e-01" purity="4.8056375980377197e-01" nType="0">
          <Node pos="l" depth="2" NCoef="0" IVar="-1" Cut="0.0000000000000000e+00" cType="1" res="-5.5222273804247379e-03" rms="3.7712082266807556e-01" purity="5.0891935825347900e-01" nType="-99"/>
          <Node pos="r" depth="2" NCoef="0" IVar="-1" Cut="0.0000000000000000e+00" cType="1" res="-6.8684591678902507e-04" rms="3.5187685489654541e-01" purity="4.7748941183090210e-01" nType="-99"/>
        </Node>
      </Node>
    </BinaryTree>
    <BinaryTree type="DecisionTree" boostWeight="1.0000000000000000e+00" itree="574">
      <Node pos="s" depth="0" NCoef="0" IVar="2" Cut="8.4704437255859375e+00" cType="1" res="-3.2289123628288507e-03" rms="3.5030013322830200e-01" purity="4.9790593981742859e-01" nType="0">
        <Node pos="l" depth="1" NCoef="0" IVar="3" Cut="-7.3955312371253967e-02" cType="1" res="-1.9629323855042458e-02" rms="3.6242359876632690e-01" purity="4.5179000496864319e-01" nType="0">
          <Node pos="l" depth="2" NCoef="0" IVar="-1" Cut="0.0000000000000000e+00" cType="1" res="-1.2275896966457367e-02" rms="3.5024291276931763e-01" purity="5.2486068010330200e-01" nType="-99"/>
          <Node pos="r" depth="2" NCoef="0" IVar="-1" Cut="0.0000000000000000e+00" cType="1" res="-9.4448158051818609e-05" rms="3.6730492115020752e-01" purity="4.1295856237411499e-01" nType="-99"/>
        </Node>
        <Node pos="r" depth="1" NCoef="0" IVar="4" Cut="3.7675777077674866e-01" cType="1" res="-7.0521014276891947e-04" rms="3.4832859039306641e-01" purity="5.0500231981277466e-01" nType="0">
          <Node pos="l" depth="2" NCoef="0" IVar="-1" Cut="0.0000000000000000e+00" cType="1" res="-1.1221382301300764e-03" rms="3.4369602799415588e-01" purity="5.2363348007202148e-01" nType="-99"/>
          <Node pos="r" depth="2" NCoef="0" IVar="-1" Cut="0.0000000000000000e+00" cType="1" res="4.5739533379673958e-03" rms="3.7849131226539612e-01" purity="3.7544152140617371e-01" nType="-99"/>
        </Node>
      </Node>
    </BinaryTree>
    <BinaryTree type="DecisionTree" boostWeight="1.0000000000000000e+00" itree="575">
      <Node pos="s" depth="0" NCoef="0" IVar="4" Cut="5.7725203037261963e-01" cType="1" res="2.9097322840243578e-03" rms="3.4912359714508057e-01" purity="5.0096476078033447e-01" nType="0">
        <Node pos="l" depth="1" NCoef="0" IVar="11" Cut="7.1412092447280884e-01" cType="1" res="1.6997942002490163e-03" rms="3.4657180309295654e-01" purity="5.0799804925918579e-01" nType="0">
          <Node pos="l" depth="2" NCoef="0" IVar="-1" Cut="0.0000000000000000e+00" cType="1" res="-3.9060303242877126e-04" rms="3.6238855123519897e-01" purity="3.3599326014518738e-01" nType="-99"/>
          <Node pos="r" depth="2" NCoef="0" IVar="-1" Cut="0.0000000000000000e+00" cType="1" res="3.6134528927505016e-03" rms="3.0945670604705811e-01" purity="8.8044625520706177e-01" nType="-99"/>
        </Node>
        <Node pos="r" depth="1" NCoef="0" IVar="1" Cut="6.2657876014709473e+00" cType="1" res="2.3870710283517838e-02" rms="3.9009928703308105e-01" purity="3.7911915779113770e-01" nType="0">
          <Node pos="l" depth="2" NCoef="0" IVar="-1" Cut="0.0000000000000000e+00" cType="1" res="6.6692405380308628e-03" rms="3.8370838761329651e-01" purity="3.1470361351966858e-01" nType="-99"/>
          <Node pos="r" depth="2" NCoef="0" IVar="-1" Cut="0.0000000000000000e+00" cType="1" res="4.8466920852661133e-03" rms="3.9585620164871216e-01" purity="4.3806394934654236e-01" nType="-99"/>
        </Node>
      </Node>
    </BinaryTree>
    <BinaryTree type="DecisionTree" boostWeight="1.0000000000000000e+00" itree="576">
      <Node pos="s" depth="0" NCoef="0" IVar="0" Cut="1.0662734031677246e+01" cType="1" res="-3.2804632792249322e-04" rms="3.4958201646804810e-01" purity="4.9707460403442383e-01" nType="0">
        <Node pos="l" depth="1" NCoef="0" IVar="0" Cut="7.8924913406372070e+00" cType="1" res="1.2442349689081311e-03" rms="3.4707468748092651e-01" purity="4.9503874778747559e-01" nType="0">
          <Node pos="l" depth="2" NCoef="0" IVar="-1" Cut="0.0000000000000000e+00" cType="1" res="2.9619024135172367e-03" rms="4.5421481132507324e-01" purity="3.6884146928787231e-01" nType="-99"/>
          <Node pos="r" depth="2" NCoef="0" IVar="-1" Cut="0.0000000000000000e+00" cType="1" res="2.3568925826111808e-05" rms="3.3719861507415771e-01" purity="5.0494492053985596e-01" nType="-99"/>
        </Node>
        <Node pos="r" depth="1" NCoef="0" IVar="-1" Cut="0.0000000000000000e+00" cType="1" res="-5.8223023079335690e-03" rms="3.8786435127258301e-01" purity="5.3081887960433960e-01" nType="-99"/>
      </Node>
    </BinaryTree>
    <BinaryTree type="DecisionTree" boostWeight="1.0000000000000000e+00" itree="577">
      <Node pos="s" depth="0" NCoef="0" IVar="0" Cut="8.4768285751342773e+00" cType="1" res="-2.9741746839135885e-03" rms="3.4980130195617676e-01" purity="4.9927306175231934e-01" nType="0">
        <Node pos="l" depth="1" NCoef="0" IVar="12" Cut="4.2899671196937561e-01" cType="1" res="7.9705212265253067e-03" rms="4.0362736582756042e-01" purity="4.0679922699928284e-01" nType="0">
          <Node pos="l" depth="2" NCoef="0" IVar="-1" Cut="0.0000000000000000e+00" cType="1" res="-6.0006109997630119e-03" rms="3.8993996381759644e-01" purity="7.4097216129302979e-01" nType="-99"/>
          <Node pos="r" depth="2" NCoef="0" IVar="-1" Cut="0.0000000000000000e+00" cType="1" res="3.2488047145307064e-03" rms="4.0612536668777466e-01" purity="3.3829495310783386e-01" nType="-99"/>
        </Node>
        <Node pos="r" depth="1" NCoef="0" IVar="1" Cut="5.6301889419555664e+00" cType="1" res="-6.9450270384550095e-03" rms="3.2800647616386414e-01" purity="5.3282350301742554e-01" nType="0">
          <Node pos="l" depth="2" NCoef="0" IVar="-1" Cut="0.0000000000000000e+00" cType="1" res="2.3985481821000576e-03" rms="3.9150157570838928e-01" purity="3.3826145529747009e-01" nType="-99"/>
          <Node pos="r" depth="2" NCoef="0" IVar="-1" Cut="0.0000000000000000e+00" cType="1" res="-2.9687241185456514e-03" rms="3.1992906332015991e-01" purity="5.5496275424957275e-01" nType="-99"/>
        </Node>
      </Node>
    </BinaryTree>
    <BinaryTree type="DecisionTree" boostWeight="1.0000000000000000e+00" itree="578">
      <Node pos="s" depth="0" NCoef="0" IVar="8" Cut="-5.7623726129531860e-01" cType="1" res="-2.0318198949098587e-03" rms="3.5034233331680298e-01" purity="4.9811935424804688e-01" nType="0">
        <Node pos="l" depth="1" NCoef="0" IVar="-1" Cut="0.0000000000000000e+00" cType="1" res="-2.2120845969766378e-03" rms="4.0040969848632812e-01" purity="4.9955382943153381e-01" nType="-99"/>
        <Node pos="r" depth="1" NCoef="0" IVar="1" Cut="5.7224564552307129e+00" cType="1" res="-4.2751990258693695e-04" rms="3.4505414962768555e-01" purity="4.9798011779785156e-01" nType="0">
          <Node pos="l" depth="2" NCoef="0" IVar="-1" Cut="0.0000000000000000e+00" cType="1" res="-2.9213370289653540e-03" rms="3.9279878139495850e-01" purity="3.0816352367401123e-01" nType="-99"/>
          <Node pos="r" depth="2" NCoef="0" IVar="-1" Cut="0.0000000000000000e+00" cType="1" res="7.3978560976684093e-04" rms="3.3296415209770203e-01" purity="5.4198384284973145e-01" nType="-99"/>
        </Node>
      </Node>
    </BinaryTree>
    <BinaryTree type="DecisionTree" boostWeight="1.0000000000000000e+00" itree="579">
      <Node pos="s" depth="0" NCoef="0" IVar="9" Cut="3.6931471824645996e+00" cType="1" res="-1.4362959191203117e-03" rms="2.2864529490470886e-01" purity="4.9896413087844849e-01" nType="0">
        <Node pos="l" depth="1" NCoef="0" IVar="0" Cut="9.1300535202026367e+00" cType="1" res="-1.0368368821218610e-03" rms="3.3911058306694031e-01" purity="5.3814131021499634e-01" nType="0">
          <Node pos="l" depth="2" NCoef="0" IVar="-1" Cut="0.0000000000000000e+00" cType="1" res="-1.7634842079132795e-03" rms="3.6683028936386108e-01" purity="4.7637760639190674e-01" nType="-99"/>
          <Node pos="r" depth="2" NCoef="0" IVar="-1" Cut="0.0000000000000000e+00" cType="1" res="1.4972445787861943e-03" rms="3.0709043145179749e-01" purity="6.0320520401000977e-01" nType="-99"/>
        </Node>
        <Node pos="r" depth="1" NCoef="0" IVar="2" Cut="8.6914930343627930e+00" cType="1" res="-1.6090654535219073e-03" rms="3.6534017324447632e-01" purity="4.1505518555641174e-01" nType="0">
          <Node pos="l" depth="2" NCoef="0" IVar="-1" Cut="0.0000000000000000e+00" cType="1" res="-4.4023720547556877e-03" rms="3.7130337953567505e-01" purity="3.8295176625251770e-01" nType="-99"/>
          <Node pos="r" depth="2" NCoef="0" IVar="-1" Cut="0.0000000000000000e+00" cType="1" res="1.6104214591905475e-03" rms="3.6305755376815796e-01" purity="4.2644673585891724e-01" nType="-99"/>
        </Node>
      </Node>
    </BinaryTree>
    <BinaryTree type="DecisionTree" boostWeight="1.0000000000000000e+00" itree="580">
      <Node pos="s" depth="0" NCoef="0" IVar="9" Cut="3.0000000000000000e+00" cType="1" res="2.7077848790213466e-04" rms="2.2841516137123108e-01" purity="5.0192004442214966e-01" nType="0">
        <Node pos="l" depth="1" NCoef="0" IVar="7" Cut="-5.2520233392715454e-01" cType="1" res="1.0604566894471645e-02" rms="3.1256812810897827e-01" purity="6.3911676406860352e-01" nType="0">
          <Node pos="l" depth="2" NCoef="0" IVar="-1" Cut="0.0000000000000000e+00" cType="1" res="1.0368727147579193e-02" rms="3.0427694320678711e-01" purity="6.9434255361557007e-01" nType="-99"/>
          <Node pos="r" depth="2" NCoef="0" IVar="-1" Cut="0.0000000000000000e+00" cType="1" res="1.3436360750347376e-03" rms="3.1449252367019653e-01" purity="6.2406009435653687e-01" nType="-99"/>
        </Node>
        <Node pos="r" depth="1" NCoef="0" IVar="2" Cut="9.0205488204956055e+00" cType="1" res="-1.1810543219326064e-04" rms="3.5130718350410461e-01" purity="4.7962084412574768e-01" nType="0">
          <Node pos="l" depth="2" NCoef="0" IVar="-1" Cut="0.0000000000000000e+00" cType="1" res="1.2521025491878390e-03" rms="3.5794034600257874e-01" purity="4.6947243809700012e-01" nType="-99"/>
          <Node pos="r" depth="2" NCoef="0" IVar="-1" Cut="0.0000000000000000e+00" cType="1" res="-1.9810697995126247e-03" rms="3.4538519382476807e-01" purity="4.8841327428817749e-01" nType="-99"/>
        </Node>
      </Node>
    </BinaryTree>
    <BinaryTree type="DecisionTree" boostWeight="1.0000000000000000e+00" itree="581">
      <Node pos="s" depth="0" NCoef="0" IVar="3" Cut="2.2440256178379059e-01" cType="1" res="4.3281423859298229e-03" rms="3.5053530335426331e-01" purity="5.0380152463912964e-01" nType="0">
        <Node pos="l" depth="1" NCoef="0" IVar="1" Cut="7.1189007759094238e+00" cType="1" res="-2.0091710612177849e-03" rms="3.2748535275459290e-01" purity="6.3103932142257690e-01" nType="0">
          <Node pos="l" depth="2" NCoef="0" IVar="-1" Cut="0.0000000000000000e+00" cType="1" res="-2.2094740997999907e-03" rms="3.4417408704757690e-01" purity="5.8787274360656738e-01" nType="-99"/>
          <Node pos="r" depth="2" NCoef="0" IVar="-1" Cut="0.0000000000000000e+00" cType="1" res="8.2826884463429451e-03" rms="2.5017967820167542e-01" purity="8.0146723985671997e-01" nType="-99"/>
        </Node>
        <Node pos="r" depth="1" NCoef="0" IVar="8" Cut="-4.3789896368980408e-01" cType="1" res="1.0267107747495174e-02" rms="3.7073990702629089e-01" purity="3.8456159830093384e-01" nType="0">
          <Node pos="l" depth="2" NCoef="0" IVar="-1" Cut="0.0000000000000000e+00" cType="1" res="4.6517113223671913e-03" rms="4.1147685050964355e-01" purity="4.3155398964881897e-01" nType="-99"/>
          <Node pos="r" depth="2" NCoef="0" IVar="-1" Cut="0.0000000000000000e+00" cType="1" res="1.5405677258968353e-03" rms="3.6204451322555542e-01" purity="3.7544274330139160e-01" nType="-99"/>
        </Node>
      </Node>
    </BinaryTree>
    <BinaryTree type="DecisionTree" boostWeight="1.0000000000000000e+00" itree="582">
      <Node pos="s" depth="0" NCoef="0" IVar="2" Cut="8.1608285903930664e+00" cType="1" res="-1.5529041411355138e-03" rms="3.4923979640007019e-01" purity="4.9947872757911682e-01" nType="0">
        <Node pos="l" depth="1" NCoef="0" IVar="-1" Cut="0.0000000000000000e+00" cType="1" res="-3.8878619670867920e-03" rms="3.6144003272056580e-01" purity="4.2559012770652771e-01" nType="-99"/>
        <Node pos="r" depth="1" NCoef="0" IVar="0" Cut="1.0876309394836426e+01" cType="1" res="-5.6300236610695720e-04" rms="3.4855690598487854e-01" purity="5.0337278842926025e-01" nType="0">
          <Node pos="l" depth="2" NCoef="0" IVar="-1" Cut="0.0000000000000000e+00" cType="1" res="-4.7008803812786937e-04" rms="3.4638974070549011e-01" purity="4.9958696961402893e-01" nType="-99"/>
          <Node pos="r" depth="2" NCoef="0" IVar="-1" Cut="0.0000000000000000e+00" cType="1" res="4.6397587284445763e-03" rms="3.9747789502143860e-01" purity="5.9647136926651001e-01" nType="-99"/>
        </Node>
      </Node>
    </BinaryTree>
    <BinaryTree type="DecisionTree" boostWeight="1.0000000000000000e+00" itree="583">
      <Node pos="s" depth="0" NCoef="0" IVar="12" Cut="6.6649949550628662e-01" cType="1" res="1.7194575630128384e-03" rms="3.4477037191390991e-01" purity="4.9938669800758362e-01" nType="0">
        <Node pos="l" depth="1" NCoef="0" IVar="4" Cut="3.9137668907642365e-02" cType="1" res="4.8352107405662537e-03" rms="3.5538959503173828e-01" purity="7.6625114679336548e-01" nType="0">
          <Node pos="l" depth="2" NCoef="0" IVar="-1" Cut="0.0000000000000000e+00" cType="1" res="3.7192512536421418e-05" rms="3.3712226152420044e-01" purity="7.9797989130020142e-01" nType="-99"/>
          <Node pos="r" depth="2" NCoef="0" IVar="-1" Cut="0.0000000000000000e+00" cType="1" res="4.2779822833836079e-03" rms="4.0707933902740479e-01" purity="6.6667354106903076e-01" nType="-99"/>
        </Node>
        <Node pos="r" depth="1" NCoef="0" IVar="1" Cut="6.6918606758117676e+00" cType="1" res="-1.7830285942181945e-03" rms="3.3239346742630005e-01" purity="1.9939859211444855e-01" nType="0">
          <Node pos="l" depth="2" NCoef="0" IVar="-1" Cut="0.0000000000000000e+00" cType="1" res="8.5971766384318471e-04" rms="3.5235175490379333e-01" purity="2.2061415016651154e-01" nType="-99"/>
          <Node pos="r" depth="2" NCoef="0" IVar="-1" Cut="0.0000000000000000e+00" cType="1" res="-9.4527909532189369e-03" rms="2.3711626231670380e-01" purity="1.1585745960474014e-01" nType="-99"/>
        </Node>
      </Node>
    </BinaryTree>
    <BinaryTree type="DecisionTree" boostWeight="1.0000000000000000e+00" itree="584">
      <Node pos="s" depth="0" NCoef="0" IVar="9" Cut="3.0000000000000000e+00" cType="1" res="-1.4525079168379307e-03" rms="2.2881717979907990e-01" purity="4.9579367041587830e-01" nType="0">
        <Node pos="l" depth="1" NCoef="0" IVar="0" Cut="8.4628896713256836e+00" cType="1" res="7.2643179446458817e-03" rms="3.0263441801071167e-01" purity="6.3586705923080444e-01" nType="0">
          <Node pos="l" depth="2" NCoef="0" IVar="-1" Cut="0.0000000000000000e+00" cType="1" res="-4.6637472696602345e-03" rms="3.8312971591949463e-01" purity="5.1411253213882446e-01" nType="-99"/>
          <Node pos="r" depth="2" NCoef="0" IVar="-1" Cut="0.0000000000000000e+00" cType="1" res="6.0687921941280365e-03" rms="2.6845213770866394e-01" purity="6.7810285091400146e-01" nType="-99"/>
        </Node>
        <Node pos="r" depth="1" NCoef="0" IVar="1" Cut="5.5352697372436523e+00" cType="1" res="-2.1763781551271677e-03" rms="3.5321792960166931e-01" purity="4.7294676303863525e-01" nType="0">
          <Node pos="l" depth="2" NCoef="0" IVar="-1" Cut="0.0000000000000000e+00" cType="1" res="2.4061077274382114e-03" rms="4.0865793824195862e-01" purity="2.9349115490913391e-01" nType="-99"/>
          <Node pos="r" depth="2" NCoef="0" IVar="-1" Cut="0.0000000000000000e+00" cType="1" res="-1.3490191195160151e-03" rms="3.4350454807281494e-01" purity="5.0157654285430908e-01" nType="-99"/>
        </Node>
      </Node>
    </BinaryTree>
    <BinaryTree type="DecisionTree" boostWeight="1.0000000000000000e+00" itree="585">
      <Node pos="s" depth="0" NCoef="0" IVar="9" Cut="3.6931471824645996e+00" cType="1" res="-4.9779826076701283e-04" rms="2.2535924613475800e-01" purity="5.0079506635665894e-01" nType="0">
        <Node pos="l" depth="1" NCoef="0" IVar="8" Cut="-5.8849364519119263e-01" cType="1" res="-9.4038143288344145e-04" rms="3.3941856026649475e-01" purity="5.3772711753845215e-01" nType="0">
          <Node pos="l" depth="2" NCoef="0" IVar="-1" Cut="0.0000000000000000e+00" cType="1" res="2.8009382076561451e-03" rms="3.6831560730934143e-01" purity="5.8485150337219238e-01" nType="-99"/>
          <Node pos="r" depth="2" NCoef="0" IVar="-1" Cut="0.0000000000000000e+00" cType="1" res="-1.1505803558975458e-03" rms="3.3622571825981140e-01" purity="5.3293436765670776e-01" nType="-99"/>
        </Node>
        <Node pos="r" depth="1" NCoef="0" IVar="5" Cut="6.8025732040405273e+00" cType="1" res="1.5365412691608071e-03" rms="3.6480501294136047e-01" purity="4.2181706428527832e-01" nType="0">
          <Node pos="l" depth="2" NCoef="0" IVar="-1" Cut="0.0000000000000000e+00" cType="1" res="-1.5141438925638795e-03" rms="3.6795327067375183e-01" purity="4.2358708381652832e-01" nType="-99"/>
          <Node pos="r" depth="2" NCoef="0" IVar="-1" Cut="0.0000000000000000e+00" cType="1" res="2.8648786246776581e-03" rms="3.6098560690879822e-01" purity="4.1974380612373352e-01" nType="-99"/>
        </Node>
      </Node>
    </BinaryTree>
    <BinaryTree type="DecisionTree" boostWeight="1.0000000000000000e+00" itree="586">
      <Node pos="s" depth="0" NCoef="0" IVar="3" Cut="5.3166937828063965e-01" cType="1" res="-5.0887512770714238e-05" rms="3.4842345118522644e-01" purity="4.9912840127944946e-01" nType="0">
        <Node pos="l" depth="1" NCoef="0" IVar="11" Cut="1.9045540690422058e-01" cType="1" res="3.6257728934288025e-03" rms="3.3777424693107605e-01" purity="5.9377163648605347e-01" nType="0">
          <Node pos="l" depth="2" NCoef="0" IVar="-1" Cut="0.0000000000000000e+00" cType="1" res="3.8103968836367130e-03" rms="3.6114495992660522e-01" purity="2.5597575306892395e-01" nType="-99"/>
          <Node pos="r" depth="2" NCoef="0" IVar="-1" Cut="0.0000000000000000e+00" cType="1" res="-1.7400971846655011e-03" rms="3.1765356659889221e-01" purity="8.6359202861785889e-01" nType="-99"/>
        </Node>
        <Node pos="r" depth="1" NCoef="0" IVar="2" Cut="8.5208473205566406e+00" cType="1" res="-5.6548034772276878e-03" rms="3.6398464441299438e-01" purity="3.5487446188926697e-01" nType="0">
          <Node pos="l" depth="2" NCoef="0" IVar="-1" Cut="0.0000000000000000e+00" cType="1" res="2.6828232221305370e-03" rms="3.6750578880310059e-01" purity="3.9986303448677063e-01" nType="-99"/>
          <Node pos="r" depth="2" NCoef="0" IVar="-1" Cut="0.0000000000000000e+00" cType="1" res="-2.7405500877648592e-03" rms="3.6314332485198975e-01" purity="3.4605583548545837e-01" nType="-99"/>
        </Node>
      </Node>
    </BinaryTree>
    <BinaryTree type="DecisionTree" boostWeight="1.0000000000000000e+00" itree="587">
      <Node pos="s" depth="0" NCoef="0" IVar="5" Cut="8.6001110076904297e+00" cType="1" res="-1.5960979508236051e-03" rms="3.4977349638938904e-01" purity="4.9739983677864075e-01" nType="0">
        <Node pos="l" depth="1" NCoef="0" IVar="10" Cut="3.0000000000000000e+00" cType="1" res="1.1056175571866333e-04" rms="2.6520693302154541e-01" purity="4.9970477819442749e-01" nType="0">
          <Node pos="l" depth="2" NCoef="0" IVar="-1" Cut="0.0000000000000000e+00" cType="1" res="3.8021558430045843e-04" rms="3.4534078836441040e-01" purity="5.1907533407211304e-01" nType="-99"/>
          <Node pos="r" depth="2" NCoef="0" IVar="-1" Cut="0.0000000000000000e+00" cType="1" res="-4.1860551573336124e-03" rms="3.6308419704437256e-01" purity="3.9372742176055908e-01" nType="-99"/>
        </Node>
        <Node pos="r" depth="1" NCoef="0" IVar="-1" Cut="0.0000000000000000e+00" cType="1" res="-5.8762738481163979e-03" rms="3.9631998538970947e-01" purity="4.2435601353645325e-01" nType="-99"/>
      </Node>
    </BinaryTree>
    <BinaryTree type="DecisionTree" boostWeight="1.0000000000000000e+00" itree="588">
      <Node pos="s" depth="0" NCoef="0" IVar="2" Cut="8.3263092041015625e+00" cType="1" res="3.7725751753896475e-03" rms="3.4728497266769409e-01" purity="5.0488013029098511e-01" nType="0">
        <Node pos="l" depth="1" NCoef="0" IVar="0" Cut="9.0213546752929688e+00" cType="1" res="2.8013225644826889e-02" rms="3.5789802670478821e-01" purity="4.9390795826911926e-01" nType="0">
          <Node pos="l" depth="2" NCoef="0" IVar="-1" Cut="0.0000000000000000e+00" cType="1" res="8.6715873330831528e-03" rms="3.9664983749389648e-01" purity="4.5619118213653564e-01" nType="-99"/>
          <Node pos="r" depth="2" NCoef="0" IVar="-1" Cut="0.0000000000000000e+00" cType="1" res="2.0795848686248064e-03" rms="3.1590339541435242e-01" purity="5.2944839000701904e-01" nType="-99"/>
        </Node>
        <Node pos="r" depth="1" NCoef="0" IVar="7" Cut="1.3749742507934570e-01" cType="1" res="1.5143583295866847e-03" rms="3.4619331359863281e-01" purity="5.0590234994888306e-01" nType="0">
          <Node pos="l" depth="2" NCoef="0" IVar="-1" Cut="0.0000000000000000e+00" cType="1" res="-1.4248045627027750e-03" rms="3.4930607676506042e-01" purity="5.1883077621459961e-01" nType="-99"/>
          <Node pos="r" depth="2" NCoef="0" IVar="-1" Cut="0.0000000000000000e+00" cType="1" res="2.6849133428186178e-03" rms="3.4260392189025879e-01" purity="4.9166160821914673e-01" nType="-99"/>
        </Node>
      </Node>
    </BinaryTree>
    <BinaryTree type="DecisionTree" boostWeight="1.0000000000000000e+00" itree="589">
      <Node pos="s" depth="0" NCoef="0" IVar="0" Cut="7.8189792633056641e+00" cType="1" res="4.8127578338608146e-04" rms="3.4826442599296570e-01" purity="5.0071668624877930e-01" nType="0">
        <Node pos="l" depth="1" NCoef="0" IVar="-1" Cut="0.0000000000000000e+00" cType="1" res="-5.2556558512151241e-03" rms="4.4724354147911072e-01" purity="3.2228428125381470e-01" nType="-99"/>
        <Node pos="r" depth="1" NCoef="0" IVar="8" Cut="-3.2208493351936340e-01" cType="1" res="2.1103878971189260e-03" rms="3.4203818440437317e-01" purity="5.1033902168273926e-01" nType="0">
          <Node pos="l" depth="2" NCoef="0" IVar="-1" Cut="0.0000000000000000e+00" cType="1" res="-1.7130457563325763e-03" rms="3.5312953591346741e-01" purity="4.9674969911575317e-01" nType="-99"/>
          <Node pos="r" depth="2" NCoef="0" IVar="-1" Cut="0.0000000000000000e+00" cType="1" res="2.0888764411211014e-03" rms="3.3874681591987610e-01" purity="5.1420408487319946e-01" nType="-99"/>
        </Node>
      </Node>
    </BinaryTree>
    <BinaryTree type="DecisionTree" boostWeight="1.0000000000000000e+00" itree="590">
      <Node pos="s" depth="0" NCoef="0" IVar="5" Cut="8.4933223724365234e+00" cType="1" res="-3.3446759916841984e-03" rms="3.4923121333122253e-01" purity="4.9657016992568970e-01" nType="0">
        <Node pos="l" depth="1" NCoef="0" IVar="0" Cut="1.0549191474914551e+01" cType="1" res="-2.5144771207123995e-03" rms="3.4766557812690735e-01" purity="4.9983477592468262e-01" nType="0">
          <Node pos="l" depth="2" NCoef="0" IVar="-1" Cut="0.0000000000000000e+00" cType="1" res="-1.0680238483473659e-03" rms="3.4853506088256836e-01" purity="4.9177137017250061e-01" nType="-99"/>
          <Node pos="r" depth="2" NCoef="0" IVar="-1" Cut="0.0000000000000000e+00" cType="1" res="4.1367849335074425e-03" rms="3.2839846611022949e-01" purity="6.6778808832168579e-01" nType="-99"/>
        </Node>
        <Node pos="r" depth="1" NCoef="0" IVar="-1" Cut="0.0000000000000000e+00" cType="1" res="-5.5581573396921158e-03" rms="3.8642191886901855e-01" purity="4.1331490874290466e-01" nType="-99"/>
      </Node>
    </BinaryTree>
    <BinaryTree type="DecisionTree" boostWeight="1.0000000000000000e+00" itree="591">
      <Node pos="s" depth="0" NCoef="0" IVar="1" Cut="5.5140705108642578e+00" cType="1" res="-4.7243433073163033e-04" rms="3.4946778416633606e-01" purity="5.0147908926010132e-01" nType="0">
        <Node pos="l" depth="1" NCoef="0" IVar="6" Cut="-1.6549620628356934e+00" cType="1" res="-1.1888936161994934e-02" rms="3.9996680617332458e-01" purity="2.8519791364669800e-01" nType="0">
          <Node pos="l" depth="2" NCoef="0" IVar="-1" Cut="0.0000000000000000e+00" cType="1" res="1.3255564263090491e-03" rms="4.0556922554969788e-01" purity="3.3116441965103149e-01" nType="-99"/>
          <Node pos="r" depth="2" NCoef="0" IVar="-1" Cut="0.0000000000000000e+00" cType="1" res="-6.5177064388990402e-03" rms="3.9434069395065308e-01" purity="2.4503962695598602e-01" nType="-99"/>
        </Node>
        <Node pos="r" depth="1" NCoef="0" IVar="1" Cut="5.6885538101196289e+00" cType="1" res="1.2360671535134315e-03" rms="3.4123542904853821e-01" purity="5.3384596109390259e-01" nType="0">
          <Node pos="l" depth="2" NCoef="0" IVar="-1" Cut="0.0000000000000000e+00" cType="1" res="8.4959641098976135e-03" rms="3.8713791966438293e-01" purity="3.8416984677314758e-01" nType="-99"/>
          <Node pos="r" depth="2" NCoef="0" IVar="-1" Cut="0.0000000000000000e+00" cType="1" res="-2.3341122141573578e-04" rms="3.3811351656913757e-01" purity="5.4303967952728271e-01" nType="-99"/>
        </Node>
      </Node>
    </BinaryTree>
    <BinaryTree type="DecisionTree" boostWeight="1.0000000000000000e+00" itree="592">
      <Node pos="s" depth="0" NCoef="0" IVar="7" Cut="1.0656232833862305e+00" cType="1" res="1.8954697297886014e-03" rms="3.4946772456169128e-01" purity="5.0316536426544189e-01" nType="0">
        <Node pos="l" depth="1" NCoef="0" IVar="6" Cut="-3.1308720111846924e+00" cType="1" res="4.2925082379952073e-04" rms="3.5012990236282349e-01" purity="5.1640212535858154e-01" nType="0">
          <Node pos="l" depth="2" NCoef="0" IVar="-1" Cut="0.0000000000000000e+00" cType="1" res="-1.6358416760340333e-03" rms="3.2412827014923096e-01" purity="5.9010422229766846e-01" nType="-99"/>
          <Node pos="r" depth="2" NCoef="0" IVar="-1" Cut="0.0000000000000000e+00" cType="1" res="1.0640111286193132e-03" rms="3.6670824885368347e-01" purity="4.6631950139999390e-01" nType="-99"/>
        </Node>
        <Node pos="r" depth="1" NCoef="0" IVar="12" Cut="8.5692787170410156e-01" cType="1" res="1.9263301044702530e-02" rms="3.4104719758033752e-01" purity="3.4637179970741272e-01" nType="0">
          <Node pos="l" depth="2" NCoef="0" IVar="-1" Cut="0.0000000000000000e+00" cType="1" res="8.7693883106112480e-03" rms="3.9594224095344543e-01" purity="5.1695281267166138e-01" nType="-99"/>
          <Node pos="r" depth="2" NCoef="0" IVar="-1" Cut="0.0000000000000000e+00" cType="1" res="-4.0097874589264393e-03" rms="2.1813850104808807e-01" purity="6.1090763658285141e-02" nType="-99"/>
        </Node>
      </Node>
    </BinaryTree>
    <BinaryTree type="DecisionTree" boostWeight="1.0000000000000000e+00" itree="593">
      <Node pos="s" depth="0" NCoef="0" IVar="7" Cut="-5.0386494398117065e-01" cType="1" res="-1.3106835540384054e-03" rms="3.5002809762954712e-01" purity="4.9923008680343628e-01" nType="0">
        <Node pos="l" depth="1" NCoef="0" IVar="5" Cut="6.0617022514343262e+00" cType="1" res="-1.6570102423429489e-02" rms="3.5786861181259155e-01" purity="5.0594544410705566e-01" nType="0">
          <Node pos="l" depth="2" NCoef="0" IVar="-1" Cut="0.0000000000000000e+00" cType="1" res="-1.3045137748122215e-02" rms="3.6461794376373291e-01" purity="5.1789283752441406e-01" nType="-99"/>
          <Node pos="r" depth="2" NCoef="0" IVar="-1" Cut="0.0000000000000000e+00" cType="1" res="-1.8678846536204219e-03" rms="3.5494899749755859e-01" purity="5.0189435482025146e-01" nType="-99"/>
        </Node>
        <Node pos="r" depth="1" NCoef="0" IVar="4" Cut="-1.0559183359146118e+00" cType="1" res="2.4538878351449966e-03" rms="3.4796375036239624e-01" purity="4.9757334589958191e-01" nType="0">
          <Node pos="l" depth="2" NCoef="0" IVar="-1" Cut="0.0000000000000000e+00" cType="1" res="-1.3383624609559774e-03" rms="3.2577446103096008e-01" purity="5.7243788242340088e-01" nType="-99"/>
          <Node pos="r" depth="2" NCoef="0" IVar="-1" Cut="0.0000000000000000e+00" cType="1" res="1.3924915110692382e-03" rms="3.5684618353843689e-01" purity="4.6611231565475464e-01" nType="-99"/>
        </Node>
      </Node>
    </BinaryTree>
    <BinaryTree type="DecisionTree" boostWeight="1.0000000000000000e+00" itree="594">
      <Node pos="s" depth="0" NCoef="0" IVar="1" Cut="4.9032959938049316e+00" cType="1" res="-5.1975116366520524e-04" rms="3.4684094786643982e-01" purity="5.0334072113037109e-01" nType="0">
        <Node pos="l" depth="1" NCoef="0" IVar="-1" Cut="0.0000000000000000e+00" cType="1" res="-8.8037643581628799e-03" rms="3.9049762487411499e-01" purity="2.0004360377788544e-01" nType="-99"/>
        <Node pos="r" depth="1" NCoef="0" IVar="13" Cut="1.9045972824096680e-01" cType="1" res="7.2179210837930441e-04" rms="3.4541404247283936e-01" purity="5.1213198900222778e-01" nType="0">
          <Node pos="l" depth="2" NCoef="0" IVar="-1" Cut="0.0000000000000000e+00" cType="1" res="-7.2571128839626908e-04" rms="3.4153354167938232e-01" purity="3.7939932942390442e-01" nType="-99"/>
          <Node pos="r" depth="2" NCoef="0" IVar="-1" Cut="0.0000000000000000e+00" cType="1" res="2.4391931947320700e-03" rms="3.5345411300659180e-01" purity="7.9529750347137451e-01" nType="-99"/>
        </Node>
      </Node>
    </BinaryTree>
    <BinaryTree type="DecisionTree" boostWeight="1.0000000000000000e+00" itree="595">
      <Node pos="s" depth="0" NCoef="0" IVar="9" Cut="3.6931471824645996e+00" cType="1" res="-4.5122846495360136e-04" rms="2.2823350131511688e-01" purity="5.0117671489715576e-01" nType="0">
        <Node pos="l" depth="1" NCoef="0" IVar="1" Cut="5.4422726631164551e+00" cType="1" res="1.0285091120749712e-03" rms="3.4128460288047791e-01" purity="5.4143214225769043e-01" nType="0">
          <Node pos="l" depth="2" NCoef="0" IVar="-1" Cut="0.0000000000000000e+00" cType="1" res="-3.9094765670597553e-03" rms="4.0502130985260010e-01" purity="3.0458870530128479e-01" nType="-99"/>
          <Node pos="r" depth="2" NCoef="0" IVar="-1" Cut="0.0000000000000000e+00" cType="1" res="1.0309629142284393e-03" rms="3.3255180716514587e-01" purity="5.7043087482452393e-01" nType="-99"/>
        </Node>
        <Node pos="r" depth="1" NCoef="0" IVar="12" Cut="1.9038344919681549e-01" cType="1" res="-1.6899263719096780e-03" rms="3.6418882012367249e-01" purity="4.1548654437065125e-01" nType="0">
          <Node pos="l" depth="2" NCoef="0" IVar="-1" Cut="0.0000000000000000e+00" cType="1" res="-4.7473763115704060e-03" rms="3.7689542770385742e-01" purity="7.6821523904800415e-01" nType="-99"/>
          <Node pos="r" depth="2" NCoef="0" IVar="-1" Cut="0.0000000000000000e+00" cType="1" res="7.6732400339096785e-04" rms="3.5916554927825928e-01" purity="2.8123486042022705e-01" nType="-99"/>
        </Node>
      </Node>
    </BinaryTree>
    <BinaryTree type="DecisionTree" boostWeight="1.0000000000000000e+00" itree="596">
      <Node pos="s" depth="0" NCoef="0" IVar="11" Cut="4.7626588493585587e-02" cType="1" res="-3.1744174193590879e-03" rms="3.5244899988174438e-01" purity="5.0019830465316772e-01" nType="0">
        <Node pos="l" depth="1" NCoef="0" IVar="11" Cut="2.2845142520964146e-03" cType="1" res="5.9197871014475822e-03" rms="2.3558677732944489e-01" purity="6.8047858774662018e-02" nType="0">
          <Node pos="l" depth="2" NCoef="0" IVar="-1" Cut="0.0000000000000000e+00" cType="1" res="-2.7348631992936134e-02" rms="7.4768677353858948e-02" purity="5.5416608229279518e-03" nType="-99"/>
          <Node pos="r" depth="2" NCoef="0" IVar="-1" Cut="0.0000000000000000e+00" cType="1" res="9.2728659510612488e-03" rms="3.0590674281120300e-01" purity="1.1643056571483612e-01" nType="-99"/>
        </Node>
        <Node pos="r" depth="1" NCoef="0" IVar="12" Cut="8.8974237442016602e-01" cType="1" res="-7.0215105079114437e-03" rms="3.9145955443382263e-01" purity="6.8300950527191162e-01" nType="0">
          <Node pos="l" depth="2" NCoef="0" IVar="-1" Cut="0.0000000000000000e+00" cType="1" res="-1.3969752471894026e-03" rms="3.8976854085922241e-01" purity="6.9838774204254150e-01" nType="-99"/>
          <Node pos="r" depth="2" NCoef="0" IVar="-1" Cut="0.0000000000000000e+00" cType="1" res="-7.4462033808231354e-03" rms="4.3108710646629333e-01" purity="2.8954151272773743e-01" nType="-99"/>
        </Node>
      </Node>
    </BinaryTree>
    <BinaryTree type="DecisionTree" boostWeight="1.0000000000000000e+00" itree="597">
      <Node pos="s" depth="0" NCoef="0" IVar="12" Cut="7.6171278953552246e-01" cType="1" res="5.9149449225515127e-04" rms="3.4519308805465698e-01" purity="4.9816349148750305e-01" nType="0">
        <Node pos="l" depth="1" NCoef="0" IVar="8" Cut="-4.3617504835128784e-01" cType="1" res="5.0573227927088737e-03" rms="3.6910790205001831e-01" purity="7.2442364692687988e-01" nType="0">
          <Node pos="l" depth="2" NCoef="0" IVar="-1" Cut="0.0000000000000000e+00" cType="1" res="2.9553426429629326e-03" rms="3.9025193452835083e-01" purity="7.2068744897842407e-01" nType="-99"/>
          <Node pos="r" depth="2" NCoef="0" IVar="-1" Cut="0.0000000000000000e+00" cType="1" res="6.3550932100042701e-04" rms="3.6517453193664551e-01" purity="7.2508019208908081e-01" nType="-99"/>
        </Node>
        <Node pos="r" depth="1" NCoef="0" IVar="6" Cut="-1.0019358396530151e+00" cType="1" res="-6.2898835167288780e-03" rms="3.0456197261810303e-01" purity="1.4952006936073303e-01" nType="0">
          <Node pos="l" depth="2" NCoef="0" IVar="-1" Cut="0.0000000000000000e+00" cType="1" res="-1.5457739355042577e-03" rms="3.0522423982620239e-01" purity="1.5241810679435730e-01" nType="-99"/>
          <Node pos="r" depth="2" NCoef="0" IVar="-1" Cut="0.0000000000000000e+00" cType="1" res="-1.0931950062513351e-02" rms="2.9551506042480469e-01" purity="1.1572847515344620e-01" nType="-99"/>
        </Node>
      </Node>
    </BinaryTree>
    <BinaryTree type="DecisionTree" boostWeight="1.0000000000000000e+00" itree="598">
      <Node pos="s" depth="0" NCoef="0" IVar="8" Cut="2.0795702934265137e-01" cType="1" res="9.5775793306529522e-04" rms="3.4865903854370117e-01" purity="5.0159078836441040e-01" nType="0">
        <Node pos="l" depth="1" NCoef="0" IVar="11" Cut="9.5235295593738556e-02" cType="1" res="3.4819610882550478e-03" rms="3.4862115979194641e-01" purity="5.1109099388122559e-01" nType="0">
          <Node pos="l" depth="2" NCoef="0" IVar="-1" Cut="0.0000000000000000e+00" cType="1" res="3.2445325050503016e-03" rms="3.0738380551338196e-01" purity="1.4054408669471741e-01" nType="-99"/>
          <Node pos="r" depth="2" NCoef="0" IVar="-1" Cut="0.0000000000000000e+00" cType="1" res="7.0271280492306687e-06" rms="3.7400379776954651e-01" purity="7.6273864507675171e-01" nType="-99"/>
        </Node>
        <Node pos="r" depth="1" NCoef="0" IVar="11" Cut="1.9040653109550476e-01" cType="1" res="-8.6109247058629990e-03" rms="3.4863677620887756e-01" purity="4.6557769179344177e-01" nType="0">
          <Node pos="l" depth="2" NCoef="0" IVar="-1" Cut="0.0000000000000000e+00" cType="1" res="-5.9208460152149200e-03" rms="3.2235199213027954e-01" purity="1.6797485947608948e-01" nType="-99"/>
          <Node pos="r" depth="2" NCoef="0" IVar="-1" Cut="0.0000000000000000e+00" cType="1" res="8.9109831606037915e-05" rms="3.7498658895492554e-01" purity="7.8987026214599609e-01" nType="-99"/>
        </Node>
      </Node>
    </BinaryTree>
    <BinaryTree type="DecisionTree" boostWeight="1.0000000000000000e+00" itree="599">
      <Node pos="s" depth="0" NCoef="0" IVar="11" Cut="7.1416157484054565e-01" cType="1" res="1.0941155487671494e-03" rms="3.4710520505905151e-01" purity="5.0120425224304199e-01" nType="0">
        <Node pos="l" depth="1" NCoef="0" IVar="12" Cut="1.9041533768177032e-01" cType="1" res="-1.7461309907957911e-03" rms="3.6204576492309570e-01" purity="3.3286800980567932e-01" nType="0">
          <Node pos="l" depth="2" NCoef="0" IVar="-1" Cut="0.0000000000000000e+00" cType="1" res="-6.6210743971168995e-03" rms="3.6697101593017578e-01" purity="5.9362471103668213e-01" nType="-99"/>
          <Node pos="r" depth="2" NCoef="0" IVar="-1" Cut="0.0000000000000000e+00" cType="1" res="-3.8591238990193233e-05" rms="3.6162286996841431e-01" purity="3.1331285834312439e-01" nType="-99"/>
        </Node>
        <Node pos="r" depth="1" NCoef="0" IVar="3" Cut="5.3117513656616211e-01" cType="1" res="7.4289799667894840e-03" rms="3.1111520528793335e-01" purity="8.7666022777557373e-01" nType="0">
          <Node pos="l" depth="2" NCoef="0" IVar="-1" Cut="0.0000000000000000e+00" cType="1" res="8.0179708311334252e-04" rms="2.6799809932708740e-01" purity="9.1259485483169556e-01" nType="-99"/>
          <Node pos="r" depth="2" NCoef="0" IVar="-1" Cut="0.0000000000000000e+00" cType="1" res="5.2656708285212517e-03" rms="3.9747631549835205e-01" purity="7.8814363479614258e-01" nType="-99"/>
        </Node>
      </Node>
    </BinaryTree>
    <BinaryTree type="DecisionTree" boostWeight="1.0000000000000000e+00" itree="600">
      <Node pos="s" depth="0" NCoef="0" IVar="13" Cut="6.6660904884338379e-01" cType="1" res="-1.1621747398748994e-03" rms="3.5162734985351562e-01" purity="4.9736377596855164e-01" nType="0">
        <Node pos="l" depth="1" NCoef="0" IVar="6" Cut="-2.8780827522277832e+00" cType="1" res="8.8074104860424995e-04" rms="3.5102102160453796e-01" purity="4.5731025934219360e-01" nType="0">
          <Node pos="l" depth="2" NCoef="0" IVar="-1" Cut="0.0000000000000000e+00" cType="1" res="2.4572897236794233e-03" rms="3.2755389809608459e-01" purity="5.4412961006164551e-01" nType="-99"/>
          <Node pos="r" depth="2" NCoef="0" IVar="-1" Cut="0.0000000000000000e+00" cType="1" res="-1.1721050832420588e-03" rms="3.6877042055130005e-01" purity="3.8729983568191528e-01" nType="-99"/>
        </Node>
        <Node pos="r" depth="1" NCoef="0" IVar="5" Cut="6.8603491783142090e+00" cType="1" res="-1.4824639074504375e-02" rms="3.5535392165184021e-01" purity="7.6523071527481079e-01" nType="0">
          <Node pos="l" depth="2" NCoef="0" IVar="-1" Cut="0.0000000000000000e+00" cType="1" res="-2.2185938432812691e-03" rms="2.9633569717407227e-01" purity="8.9119642972946167e-01" nType="-99"/>
          <Node pos="r" depth="2" NCoef="0" IVar="-1" Cut="0.0000000000000000e+00" cType="1" res="-7.8782243654131889e-03" rms="4.1631412506103516e-01" purity="6.1001116037368774e-01" nType="-99"/>
        </Node>
      </Node>
    </BinaryTree>
    <BinaryTree type="DecisionTree" boostWeight="1.0000000000000000e+00" itree="601">
      <Node pos="s" depth="0" NCoef="0" IVar="13" Cut="7.6182311773300171e-01" cType="1" res="2.7298352215439081e-03" rms="3.5169503092765808e-01" purity="5.0405961275100708e-01" nType="0">
        <Node pos="l" depth="1" NCoef="0" IVar="1" Cut="4.9851870536804199e+00" cType="1" res="4.8564574681222439e-03" rms="3.5158458352088928e-01" purity="4.7867438197135925e-01" nType="0">
          <Node pos="l" depth="2" NCoef="0" IVar="-1" Cut="0.0000000000000000e+00" cType="1" res="6.3094212673604488e-03" rms="4.3380752205848694e-01" purity="2.8248381614685059e-01" nType="-99"/>
          <Node pos="r" depth="2" NCoef="0" IVar="-1" Cut="0.0000000000000000e+00" cType="1" res="1.1331290006637573e-03" rms="3.4798207879066467e-01" purity="4.8624983429908752e-01" nType="-99"/>
        </Node>
        <Node pos="r" depth="1" NCoef="0" IVar="1" Cut="6.5499529838562012e+00" cType="1" res="-1.7451614141464233e-02" rms="3.5210284590721130e-01" purity="7.4496376514434814e-01" nType="0">
          <Node pos="l" depth="2" NCoef="0" IVar="-1" Cut="0.0000000000000000e+00" cType="1" res="-2.3353215306997299e-02" rms="3.8753738999366760e-01" purity="7.7969855070114136e-01" nType="-99"/>
          <Node pos="r" depth="2" NCoef="0" IVar="-1" Cut="0.0000000000000000e+00" cType="1" res="-2.0668371580541134e-03" rms="3.3660864830017090e-01" purity="7.3151755332946777e-01" nType="-99"/>
        </Node>
      </Node>
    </BinaryTree>
    <BinaryTree type="DecisionTree" boostWeight="1.0000000000000000e+00" itree="602">
      <Node pos="s" depth="0" NCoef="0" IVar="11" Cut="9.5220959186553955e-01" cType="1" res="3.8034885656088591e-03" rms="3.4926769137382507e-01" purity="5.0618201494216919e-01" nType="0">
        <Node pos="l" depth="1" NCoef="0" IVar="2" Cut="9.4508819580078125e+00" cType="1" res="5.5832332000136375e-03" rms="3.5848391056060791e-01" purity="4.3425431847572327e-01" nType="0">
          <Node pos="l" depth="2" NCoef="0" IVar="-1" Cut="0.0000000000000000e+00" cType="1" res="2.1658933255821466e-03" rms="3.6008119583129883e-01" purity="4.3592184782028198e-01" nType="-99"/>
          <Node pos="r" depth="2" NCoef="0" IVar="-1" Cut="0.0000000000000000e+00" cType="1" res="-2.4723324459046125e-03" rms="3.5202750563621521e-01" purity="4.2780467867851257e-01" nType="-99"/>
        </Node>
        <Node pos="r" depth="1" NCoef="0" IVar="2" Cut="9.0800952911376953e+00" cType="1" res="-5.8305445127189159e-03" rms="2.9422619938850403e-01" purity="8.9553791284561157e-01" nType="0">
          <Node pos="l" depth="2" NCoef="0" IVar="-1" Cut="0.0000000000000000e+00" cType="1" res="-7.5889094732701778e-03" rms="3.1876972317695618e-01" purity="8.7604784965515137e-01" nType="-99"/>
          <Node pos="r" depth="2" NCoef="0" IVar="-1" Cut="0.0000000000000000e+00" cType="1" res="5.2286409772932529e-03" rms="2.6898229122161865e-01" purity="9.1338640451431274e-01" nType="-99"/>
        </Node>
      </Node>
    </BinaryTree>
    <BinaryTree type="DecisionTree" boostWeight="1.0000000000000000e+00" itree="603">
      <Node pos="s" depth="0" NCoef="0" IVar="0" Cut="8.6946010589599609e+00" cType="1" res="-5.8085925411432981e-04" rms="3.4785729646682739e-01" purity="4.9901565909385681e-01" nType="0">
        <Node pos="l" depth="1" NCoef="0" IVar="12" Cut="6.1907553672790527e-01" cType="1" res="-5.9962170198559761e-03" rms="3.8704615831375122e-01" purity="4.1349020600318909e-01" nType="0">
          <Node pos="l" depth="2" NCoef="0" IVar="-1" Cut="0.0000000000000000e+00" cType="1" res="-5.4980311542749405e-03" rms="3.9374256134033203e-01" purity="7.0205157995223999e-01" nType="-99"/>
          <Node pos="r" depth="2" NCoef="0" IVar="-1" Cut="0.0000000000000000e+00" cType="1" res="2.1132589608896524e-04" rms="3.8349956274032593e-01" purity="2.7042815089225769e-01" nType="-99"/>
        </Node>
        <Node pos="r" depth="1" NCoef="0" IVar="1" Cut="5.5137872695922852e+00" cType="1" res="2.2979378700256348e-03" rms="3.2507041096687317e-01" purity="5.4448086023330688e-01" nType="0">
          <Node pos="l" depth="2" NCoef="0" IVar="-1" Cut="0.0000000000000000e+00" cType="1" res="6.6321804188191891e-03" rms="3.8291925191879272e-01" purity="3.3992344141006470e-01" nType="-99"/>
          <Node pos="r" depth="2" NCoef="0" IVar="-1" Cut="0.0000000000000000e+00" cType="1" res="1.7450370069127530e-04" rms="3.2048749923706055e-01" purity="5.5901879072189331e-01" nType="-99"/>
        </Node>
      </Node>
    </BinaryTree>
    <BinaryTree type="DecisionTree" boostWeight="1.0000000000000000e+00" itree="604">
      <Node pos="s" depth="0" NCoef="0" IVar="8" Cut="-5.8428573608398438e-01" cType="1" res="-7.5648201163858175e-04" rms="3.4824258089065552e-01" purity="4.9806347489356995e-01" nType="0">
        <Node pos="l" depth="1" NCoef="0" IVar="-1" Cut="0.0000000000000000e+00" cType="1" res="-2.5956828612834215e-03" rms="3.9918065071105957e-01" purity="4.9211844801902771e-01" nType="-99"/>
        <Node pos="r" depth="1" NCoef="0" IVar="8" Cut="-3.9686623215675354e-01" cType="1" res="1.2954374542459846e-03" rms="3.4275171160697937e-01" purity="4.9864858388900757e-01" nType="0">
          <Node pos="l" depth="2" NCoef="0" IVar="-1" Cut="0.0000000000000000e+00" cType="1" res="5.0047356635332108e-03" rms="3.4840342402458191e-01" purity="5.1510578393936157e-01" nType="-99"/>
          <Node pos="r" depth="2" NCoef="0" IVar="-1" Cut="0.0000000000000000e+00" cType="1" res="-3.5535648930817842e-04" rms="3.4206047654151917e-01" purity="4.9687176942825317e-01" nType="-99"/>
        </Node>
      </Node>
    </BinaryTree>
    <BinaryTree type="DecisionTree" boostWeight="1.0000000000000000e+00" itree="605">
      <Node pos="s" depth="0" NCoef="0" IVar="5" Cut="6.8406019210815430e+00" cType="1" res="-8.4036827320232987e-04" rms="3.4811234474182129e-01" purity="5.0061523914337158e-01" nType="0">
        <Node pos="l" depth="1" NCoef="0" IVar="1" Cut="5.1688232421875000e+00" cType="1" res="3.7889219820499420e-03" rms="3.5041016340255737e-01" purity="5.2723264694213867e-01" nType="0">
          <Node pos="l" depth="2" NCoef="0" IVar="-1" Cut="0.0000000000000000e+00" cType="1" res="-4.2560999281704426e-03" rms="4.0444397926330566e-01" purity="2.4571217596530914e-01" nType="-99"/>
          <Node pos="r" depth="2" NCoef="0" IVar="-1" Cut="0.0000000000000000e+00" cType="1" res="2.0720502361655235e-03" rms="3.4418794512748718e-01" purity="5.5662494897842407e-01" nType="-99"/>
        </Node>
        <Node pos="r" depth="1" NCoef="0" IVar="13" Cut="8.0942100286483765e-01" cType="1" res="-6.8740672431886196e-03" rms="3.4500125050544739e-01" purity="4.6592271327972412e-01" nType="0">
          <Node pos="l" depth="2" NCoef="0" IVar="-1" Cut="0.0000000000000000e+00" cType="1" res="-1.1273567797616124e-03" rms="3.3794331550598145e-01" purity="4.5848289132118225e-01" nType="-99"/>
          <Node pos="r" depth="2" NCoef="0" IVar="-1" Cut="0.0000000000000000e+00" cType="1" res="-1.1688608676195145e-02" rms="4.1260984539985657e-01" purity="5.4684209823608398e-01" nType="-99"/>
        </Node>
      </Node>
    </BinaryTree>
    <BinaryTree type="DecisionTree" boostWeight="1.0000000000000000e+00" itree="606">
      <Node pos="s" depth="0" NCoef="0" IVar="2" Cut="8.5902156829833984e+00" cType="1" res="1.1883818660862744e-04" rms="3.4867498278617859e-01" purity="4.9869659543037415e-01" nType="0">
        <Node pos="l" depth="1" NCoef="0" IVar="1" Cut="6.4842162132263184e+00" cType="1" res="-1.0004368610680103e-02" rms="3.6000099778175354e-01" purity="4.6298232674598694e-01" nType="0">
          <Node pos="l" depth="2" NCoef="0" IVar="-1" Cut="0.0000000000000000e+00" cType="1" res="9.1543636517599225e-04" rms="3.7648710608482361e-01" purity="4.1255542635917664e-01" nType="-99"/>
          <Node pos="r" depth="2" NCoef="0" IVar="-1" Cut="0.0000000000000000e+00" cType="1" res="-7.3377238586544991e-03" rms="3.3701521158218384e-01" purity="5.2678257226943970e-01" nType="-99"/>
        </Node>
        <Node pos="r" depth="1" NCoef="0" IVar="9" Cut="3.6931471824645996e+00" cType="1" res="-5.7041627587750554e-04" rms="2.2364261746406555e-01" purity="5.0652229785919189e-01" nType="0">
          <Node pos="l" depth="2" NCoef="0" IVar="-1" Cut="0.0000000000000000e+00" cType="1" res="5.5613334552617744e-05" rms="3.3924329280853271e-01" purity="5.4285502433776855e-01" nType="-99"/>
          <Node pos="r" depth="2" NCoef="0" IVar="-1" Cut="0.0000000000000000e+00" cType="1" res="3.0575098935514688e-03" rms="3.6057415604591370e-01" purity="4.2726090550422668e-01" nType="-99"/>
        </Node>
      </Node>
    </BinaryTree>
    <BinaryTree type="DecisionTree" boostWeight="1.0000000000000000e+00" itree="607">
      <Node pos="s" depth="0" NCoef="0" IVar="8" Cut="-5.3513187170028687e-01" cType="1" res="-2.8264361899346113e-03" rms="3.4862086176872253e-01" purity="4.9480441212654114e-01" nType="0">
        <Node pos="l" depth="1" NCoef="0" IVar="3" Cut="2.3573946952819824e-01" cType="1" res="1.3762971386313438e-02" rms="3.8901764154434204e-01" purity="5.2502977848052979e-01" nType="0">
          <Node pos="l" depth="2" NCoef="0" IVar="-1" Cut="0.0000000000000000e+00" cType="1" res="-1.7297366866841912e-03" rms="3.6960926651954651e-01" purity="6.2780523300170898e-01" nType="-99"/>
          <Node pos="r" depth="2" NCoef="0" IVar="-1" Cut="0.0000000000000000e+00" cType="1" res="3.8904391694813967e-03" rms="4.0274193882942200e-01" purity="4.4275727868080139e-01" nType="-99"/>
        </Node>
        <Node pos="r" depth="1" NCoef="0" IVar="2" Cut="8.4688673019409180e+00" cType="1" res="-4.8230807296931744e-03" rms="3.4338462352752686e-01" purity="4.9116659164428711e-01" nType="0">
          <Node pos="l" depth="2" NCoef="0" IVar="-1" Cut="0.0000000000000000e+00" cType="1" res="-4.2753918096423149e-03" rms="3.5665658116340637e-01" purity="4.4329145550727844e-01" nType="-99"/>
          <Node pos="r" depth="2" NCoef="0" IVar="-1" Cut="0.0000000000000000e+00" cType="1" res="-1.0894542792811990e-03" rms="3.4133464097976685e-01" purity="4.9823307991027832e-01" nType="-99"/>
        </Node>
      </Node>
    </BinaryTree>
    <BinaryTree type="DecisionTree" boostWeight="1.0000000000000000e+00" itree="608">
      <Node pos="s" depth="0" NCoef="0" IVar="4" Cut="6.0388320684432983e-01" cType="1" res="-2.4764332920312881e-03" rms="3.4929862618446350e-01" purity="4.9393278360366821e-01" nType="0">
        <Node pos="l" depth="1" NCoef="0" IVar="6" Cut="-4.1593904495239258e+00" cType="1" res="-1.6058224719017744e-03" rms="3.4824019670486450e-01" purity="5.0283181667327881e-01" nType="0">
          <Node pos="l" depth="2" NCoef="0" IVar="-1" Cut="0.0000000000000000e+00" cType="1" res="4.7088204883038998e-03" rms="3.0720192193984985e-01" purity="6.2028980255126953e-01" nType="-99"/>
          <Node pos="r" depth="2" NCoef="0" IVar="-1" Cut="0.0000000000000000e+00" cType="1" res="-8.7194849038496614e-04" rms="3.5188570618629456e-01" purity="4.9159964919090271e-01" nType="-99"/>
        </Node>
        <Node pos="r" depth="1" NCoef="0" IVar="-1" Cut="0.0000000000000000e+00" cType="1" res="-4.7629605978727341e-03" rms="3.6831942200660706e-01" purity="3.2598376274108887e-01" nType="-99"/>
      </Node>
    </BinaryTree>
    <BinaryTree type="DecisionTree" boostWeight="1.0000000000000000e+00" itree="609">
      <Node pos="s" depth="0" NCoef="0" IVar="8" Cut="-6.6115170717239380e-01" cType="1" res="6.9785892264917493e-04" rms="3.4924709796905518e-01" purity="5.0058066844940186e-01" nType="0">
        <Node pos="l" depth="1" NCoef="0" IVar="-1" Cut="0.0000000000000000e+00" cType="1" res="-2.6520348619669676e-03" rms="4.2042699456214905e-01" purity="5.0302469730377197e-01" nType="-99"/>
        <Node pos="r" depth="1" NCoef="0" IVar="9" Cut="3.6931471824645996e+00" cType="1" res="8.6571840802207589e-04" rms="2.2112223505973816e-01" purity="5.0040268898010254e-01" nType="0">
          <Node pos="l" depth="2" NCoef="0" IVar="-1" Cut="0.0000000000000000e+00" cType="1" res="9.0691639343276620e-04" rms="3.3607363700866699e-01" purity="5.4275083541870117e-01" nType="-99"/>
          <Node pos="r" depth="2" NCoef="0" IVar="-1" Cut="0.0000000000000000e+00" cType="1" res="7.9778372310101986e-04" rms="3.5817483067512512e-01" purity="4.1244441270828247e-01" nType="-99"/>
        </Node>
      </Node>
    </BinaryTree>
    <BinaryTree type="DecisionTree" boostWeight="1.0000000000000000e+00" itree="610">
      <Node pos="s" depth="0" NCoef="0" IVar="9" Cut="3.6931471824645996e+00" cType="1" res="-1.1145166354253888e-03" rms="2.2688356041908264e-01" purity="4.9702379107475281e-01" nType="0">
        <Node pos="l" depth="1" NCoef="0" IVar="1" Cut="7.6182508468627930e+00" cType="1" res="-5.5490182712674141e-03" rms="3.3989995718002319e-01" purity="5.3163748979568481e-01" nType="0">
          <Node pos="l" depth="2" NCoef="0" IVar="-1" Cut="0.0000000000000000e+00" cType="1" res="-1.9580018706619740e-03" rms="3.4213286638259888e-01" purity="5.2315795421600342e-01" nType="-99"/>
          <Node pos="r" depth="2" NCoef="0" IVar="-1" Cut="0.0000000000000000e+00" cType="1" res="6.5172603353857994e-03" rms="2.9934656620025635e-01" purity="6.7135739326477051e-01" nType="-99"/>
        </Node>
        <Node pos="r" depth="1" NCoef="0" IVar="11" Cut="9.0434825420379639e-01" cType="1" res="6.3825682736933231e-03" rms="3.6868369579315186e-01" purity="4.2441350221633911e-01" nType="0">
          <Node pos="l" depth="2" NCoef="0" IVar="-1" Cut="0.0000000000000000e+00" cType="1" res="3.7398647982627153e-03" rms="3.6948660016059875e-01" purity="3.4918072819709778e-01" nType="-99"/>
          <Node pos="r" depth="2" NCoef="0" IVar="-1" Cut="0.0000000000000000e+00" cType="1" res="-5.8823814615607262e-03" rms="3.6372855305671692e-01" purity="8.2845193147659302e-01" nType="-99"/>
        </Node>
      </Node>
    </BinaryTree>
    <BinaryTree type="DecisionTree" boostWeight="1.0000000000000000e+00" itree="611">
      <Node pos="s" depth="0" NCoef="0" IVar="7" Cut="3.9624801278114319e-01" cType="1" res="-3.7332475767470896e-04" rms="3.4984770417213440e-01" purity="4.9850109219551086e-01" nType="0">
        <Node pos="l" depth="1" NCoef="0" IVar="1" Cut="6.5531678199768066e+00" cType="1" res="-3.3834958449006081e-03" rms="3.4979039430618286e-01" purity="5.1469928026199341e-01" nType="0">
          <Node pos="l" depth="2" NCoef="0" IVar="-1" Cut="0.0000000000000000e+00" cType="1" res="-1.9757358822971582e-03" rms="3.7657868862152100e-01" purity="4.2686796188354492e-01" nType="-99"/>
          <Node pos="r" depth="2" NCoef="0" IVar="-1" Cut="0.0000000000000000e+00" cType="1" res="7.6609459938481450e-04" rms="3.0975046753883362e-01" purity="6.3365858793258667e-01" nType="-99"/>
        </Node>
        <Node pos="r" depth="1" NCoef="0" IVar="5" Cut="7.8311204910278320e+00" cType="1" res="5.9722200967371464e-03" rms="3.4988364577293396e-01" purity="4.6435490250587463e-01" nType="0">
          <Node pos="l" depth="2" NCoef="0" IVar="-1" Cut="0.0000000000000000e+00" cType="1" res="1.0109080467373133e-03" rms="3.4707906842231750e-01" purity="4.7129061818122864e-01" nType="-99"/>
          <Node pos="r" depth="2" NCoef="0" IVar="-1" Cut="0.0000000000000000e+00" cType="1" res="5.6384811177849770e-03" rms="3.6523965001106262e-01" purity="4.2436996102333069e-01" nType="-99"/>
        </Node>
      </Node>
    </BinaryTree>
    <BinaryTree type="DecisionTree" boostWeight="1.0000000000000000e+00" itree="612">
      <Node pos="s" depth="0" NCoef="0" IVar="1" Cut="6.5545892715454102e+00" cType="1" res="1.0569426231086254e-03" rms="3.5225522518157959e-01" purity="4.9913194775581360e-01" nType="0">
        <Node pos="l" depth="1" NCoef="0" IVar="8" Cut="-6.1882394552230835e-01" cType="1" res="5.6579313240945339e-03" rms="3.7665843963623047e-01" purity="4.2096227407455444e-01" nType="0">
          <Node pos="l" depth="2" NCoef="0" IVar="-1" Cut="0.0000000000000000e+00" cType="1" res="4.1612787172198296e-03" rms="4.1745007038116455e-01" purity="4.8213380575180054e-01" nType="-99"/>
          <Node pos="r" depth="2" NCoef="0" IVar="-1" Cut="0.0000000000000000e+00" cType="1" res="8.5247820243239403e-04" rms="3.7249013781547546e-01" purity="4.1525322198867798e-01" nType="-99"/>
        </Node>
        <Node pos="r" depth="1" NCoef="0" IVar="2" Cut="9.0248241424560547e+00" cType="1" res="-5.0220023840665817e-03" rms="3.1704428791999817e-01" purity="6.0241174697875977e-01" nType="0">
          <Node pos="l" depth="2" NCoef="0" IVar="-1" Cut="0.0000000000000000e+00" cType="1" res="-4.6478835865855217e-03" rms="3.2659527659416199e-01" purity="5.6124317646026611e-01" nType="-99"/>
          <Node pos="r" depth="2" NCoef="0" IVar="-1" Cut="0.0000000000000000e+00" cType="1" res="2.1715969778597355e-03" rms="3.0899292230606079e-01" purity="6.3468956947326660e-01" nType="-99"/>
        </Node>
      </Node>
    </BinaryTree>
    <BinaryTree type="DecisionTree" boostWeight="1.0000000000000000e+00" itree="613">
      <Node pos="s" depth="0" NCoef="0" IVar="10" Cut="3.0000000000000000e+00" cType="1" res="-1.3883025385439396e-03" rms="2.6592099666595459e-01" purity="4.9744853377342224e-01" nType="0">
        <Node pos="l" depth="1" NCoef="0" IVar="7" Cut="1.5547697544097900e+00" cType="1" res="-3.3673604484647512e-03" rms="3.4643265604972839e-01" purity="5.1233017444610596e-01" nType="0">
          <Node pos="l" depth="2" NCoef="0" IVar="-1" Cut="0.0000000000000000e+00" cType="1" res="-7.1549485437572002e-04" rms="3.4710001945495605e-01" purity="5.2312523126602173e-01" nType="-99"/>
          <Node pos="r" depth="2" NCoef="0" IVar="-1" Cut="0.0000000000000000e+00" cType="1" res="-8.9340517297387123e-03" rms="3.2631403207778931e-01" purity="2.1180684864521027e-01" nType="-99"/>
        </Node>
        <Node pos="r" depth="1" NCoef="0" IVar="13" Cut="4.7610990703105927e-02" cType="1" res="1.0388975031673908e-02" rms="3.6478206515312195e-01" purity="4.1664931178092957e-01" nType="0">
          <Node pos="l" depth="2" NCoef="0" IVar="-1" Cut="0.0000000000000000e+00" cType="1" res="-1.4989698538556695e-03" rms="2.9826623201370239e-01" purity="1.8617214262485504e-01" nType="-99"/>
          <Node pos="r" depth="2" NCoef="0" IVar="-1" Cut="0.0000000000000000e+00" cType="1" res="5.7202558964490891e-03" rms="4.2036312818527222e-01" purity="6.4660835266113281e-01" nType="-99"/>
        </Node>
      </Node>
    </BinaryTree>
    <BinaryTree type="DecisionTree" boostWeight="1.0000000000000000e+00" itree="614">
      <Node pos="s" depth="0" NCoef="0" IVar="5" Cut="7.4198160171508789e+00" cType="1" res="-5.7232186918554362e-06" rms="3.5139784216880798e-01" purity="5.0109076499938965e-01" nType="0">
        <Node pos="l" depth="1" NCoef="0" IVar="13" Cut="4.2853206396102905e-01" cType="1" res="2.7691037394106388e-03" rms="3.5061734914779663e-01" purity="5.1547831296920776e-01" nType="0">
          <Node pos="l" depth="2" NCoef="0" IVar="-1" Cut="0.0000000000000000e+00" cType="1" res="1.5585182700306177e-03" rms="3.5316044092178345e-01" purity="4.2659080028533936e-01" nType="-99"/>
          <Node pos="r" depth="2" NCoef="0" IVar="-1" Cut="0.0000000000000000e+00" cType="1" res="-2.7374303899705410e-03" rms="3.4105813503265381e-01" purity="8.3821493387222290e-01" nType="-99"/>
        </Node>
        <Node pos="r" depth="1" NCoef="0" IVar="8" Cut="-2.3019996285438538e-01" cType="1" res="-9.2757018283009529e-03" rms="3.5383501648902893e-01" purity="4.5302563905715942e-01" nType="0">
          <Node pos="l" depth="2" NCoef="0" IVar="-1" Cut="0.0000000000000000e+00" cType="1" res="-4.2880335822701454e-03" rms="3.6816051602363586e-01" purity="4.4014200568199158e-01" nType="-99"/>
          <Node pos="r" depth="2" NCoef="0" IVar="-1" Cut="0.0000000000000000e+00" cType="1" res="-9.4151549274101853e-04" rms="3.4810432791709900e-01" purity="4.5783472061157227e-01" nType="-99"/>
        </Node>
      </Node>
    </BinaryTree>
    <BinaryTree type="DecisionTree" boostWeight="1.0000000000000000e+00" itree="615">
      <Node pos="s" depth="0" NCoef="0" IVar="5" Cut="8.3685550689697266e+00" cType="1" res="-9.1280351625755429e-04" rms="3.4941151738166809e-01" purity="4.9968755245208740e-01" nType="0">
        <Node pos="l" depth="1" NCoef="0" IVar="5" Cut="8.0107650756835938e+00" cType="1" res="-2.1850182674825191e-03" rms="3.4721285104751587e-01" purity="5.0143569707870483e-01" nType="0">
          <Node pos="l" depth="2" NCoef="0" IVar="-1" Cut="0.0000000000000000e+00" cType="1" res="-3.5004681558348238e-04" rms="3.4656548500061035e-01" purity="5.0489890575408936e-01" nType="-99"/>
          <Node pos="r" depth="2" NCoef="0" IVar="-1" Cut="0.0000000000000000e+00" cType="1" res="-6.4174104481935501e-03" rms="3.5984686017036438e-01" purity="4.2866075038909912e-01" nType="-99"/>
        </Node>
        <Node pos="r" depth="1" NCoef="0" IVar="-1" Cut="0.0000000000000000e+00" cType="1" res="5.3213620558381081e-03" rms="3.8875511288642883e-01" purity="4.6581012010574341e-01" nType="-99"/>
      </Node>
    </BinaryTree>
    <BinaryTree type="DecisionTree" boostWeight="1.0000000000000000e+00" itree="616">
      <Node pos="s" depth="0" NCoef="0" IVar="13" Cut="9.5229879021644592e-02" cType="1" res="6.8266864400357008e-04" rms="3.4900116920471191e-01" purity="5.0221031904220581e-01" nType="0">
        <Node pos="l" depth="1" NCoef="0" IVar="13" Cut="4.5343087986111641e-03" cType="1" res="5.0980458036065102e-03" rms="3.2883200049400330e-01" purity="3.2466700673103333e-01" nType="0">
          <Node pos="l" depth="2" NCoef="0" IVar="-1" Cut="0.0000000000000000e+00" cType="1" res="-1.0771734640002251e-02" rms="1.4698949456214905e-01" purity="8.5910730063915253e-02" nType="-99"/>
          <Node pos="r" depth="2" NCoef="0" IVar="-1" Cut="0.0000000000000000e+00" cType="1" res="2.9162724968045950e-03" rms="3.9006257057189941e-01" purity="4.4659423828125000e-01" nType="-99"/>
        </Node>
        <Node pos="r" depth="1" NCoef="0" IVar="12" Cut="5.6674146652221680e-01" cType="1" res="-5.5868779309093952e-03" rms="3.7569564580917358e-01" purity="7.5431013107299805e-01" nType="0">
          <Node pos="l" depth="2" NCoef="0" IVar="-1" Cut="0.0000000000000000e+00" cType="1" res="-7.4440072239667643e-06" rms="3.6359506845474243e-01" purity="7.9149669408798218e-01" nType="-99"/>
          <Node pos="r" depth="2" NCoef="0" IVar="-1" Cut="0.0000000000000000e+00" cType="1" res="-7.2049279697239399e-03" rms="4.5145970582962036e-01" purity="4.8618996143341064e-01" nType="-99"/>
        </Node>
      </Node>
    </BinaryTree>
    <BinaryTree type="DecisionTree" boostWeight="1.0000000000000000e+00" itree="617">
      <Node pos="s" depth="0" NCoef="0" IVar="9" Cut="3.6931471824645996e+00" cType="1" res="5.0399522297084332e-04" rms="2.2862073779106140e-01" purity="5.0315386056900024e-01" nType="0">
        <Node pos="l" depth="1" NCoef="0" IVar="10" Cut="3.0000000000000000e+00" cType="1" res="8.0713571514934301e-04" rms="2.2701592743396759e-01" purity="5.4307395219802856e-01" nType="0">
          <Node pos="l" depth="2" NCoef="0" IVar="-1" Cut="0.0000000000000000e+00" cType="1" res="4.9252045573666692e-04" rms="3.4079506993293762e-01" purity="5.5108416080474854e-01" nType="-99"/>
          <Node pos="r" depth="2" NCoef="0" IVar="-1" Cut="0.0000000000000000e+00" cType="1" res="-4.3125175870954990e-03" rms="3.6793488264083862e-01" purity="4.5171600580215454e-01" nType="-99"/>
        </Node>
        <Node pos="r" depth="1" NCoef="0" IVar="4" Cut="-1.3984637260437012e+00" cType="1" res="1.7812983132898808e-03" rms="3.6332267522811890e-01" purity="4.1739520430564880e-01" nType="0">
          <Node pos="l" depth="2" NCoef="0" IVar="-1" Cut="0.0000000000000000e+00" cType="1" res="6.2797470018267632e-03" rms="3.4266829490661621e-01" purity="5.0872719287872314e-01" nType="-99"/>
          <Node pos="r" depth="2" NCoef="0" IVar="-1" Cut="0.0000000000000000e+00" cType="1" res="-5.6740734726190567e-04" rms="3.6848109960556030e-01" purity="3.9342960715293884e-01" nType="-99"/>
        </Node>
      </Node>
    </BinaryTree>
    <BinaryTree type="DecisionTree" boostWeight="1.0000000000000000e+00" itree="618">
      <Node pos="s" depth="0" NCoef="0" IVar="12" Cut="7.6165521144866943e-01" cType="1" res="1.0518106864765286e-03" rms="3.4861576557159424e-01" purity="5.0281637907028198e-01" nType="0">
        <Node pos="l" depth="1" NCoef="0" IVar="3" Cut="-8.2016862928867340e-02" cType="1" res="4.7542620450258255e-03" rms="3.7098190188407898e-01" purity="7.2832232713699341e-01" nType="0">
          <Node pos="l" depth="2" NCoef="0" IVar="-1" Cut="0.0000000000000000e+00" cType="1" res="-7.9787860158830881e-04" rms="3.1071519851684570e-01" purity="8.4333568811416626e-01" nType="-99"/>
          <Node pos="r" depth="2" NCoef="0" IVar="-1" Cut="0.0000000000000000e+00" cType="1" res="2.1251772996038198e-03" rms="4.1425165534019470e-01" purity="6.3301777839660645e-01" nType="-99"/>
        </Node>
        <Node pos="r" depth="1" NCoef="0" IVar="12" Cut="8.6368834972381592e-01" cType="1" res="-4.6002226881682873e-03" rms="3.1130471825599670e-01" purity="1.5856681764125824e-01" nType="0">
          <Node pos="l" depth="2" NCoef="0" IVar="-1" Cut="0.0000000000000000e+00" cType="1" res="-3.5091312602162361e-03" rms="4.2588660120964050e-01" purity="3.3686658740043640e-01" nType="-99"/>
          <Node pos="r" depth="2" NCoef="0" IVar="-1" Cut="0.0000000000000000e+00" cType="1" res="-6.5488005930092186e-05" rms="2.6250031590461731e-01" purity="9.9624536931514740e-02" nType="-99"/>
        </Node>
      </Node>
    </BinaryTree>
    <BinaryTree type="DecisionTree" boostWeight="1.0000000000000000e+00" itree="619">
      <Node pos="s" depth="0" NCoef="0" IVar="2" Cut="8.2049665451049805e+00" cType="1" res="1.8532730173319578e-03" rms="3.4670382738113403e-01" purity="4.9874892830848694e-01" nType="0">
        <Node pos="l" depth="1" NCoef="0" IVar="-1" Cut="0.0000000000000000e+00" cType="1" res="-3.6550955846905708e-03" rms="3.6420747637748718e-01" purity="4.3949055671691895e-01" nType="-99"/>
        <Node pos="r" depth="1" NCoef="0" IVar="0" Cut="1.0006763458251953e+01" cType="1" res="3.0671018175780773e-03" rms="3.4558355808258057e-01" purity="5.0231885910034180e-01" nType="0">
          <Node pos="l" depth="2" NCoef="0" IVar="-1" Cut="0.0000000000000000e+00" cType="1" res="1.7497842200100422e-03" rms="3.4780281782150269e-01" purity="4.8880198597908020e-01" nType="-99"/>
          <Node pos="r" depth="2" NCoef="0" IVar="-1" Cut="0.0000000000000000e+00" cType="1" res="-2.0478842779994011e-03" rms="3.3546581864356995e-01" purity="5.6171643733978271e-01" nType="-99"/>
        </Node>
      </Node>
    </BinaryTree>
    <BinaryTree type="DecisionTree" boostWeight="1.0000000000000000e+00" itree="620">
      <Node pos="s" depth="0" NCoef="0" IVar="8" Cut="-5.7623726129531860e-01" cType="1" res="-2.3900001542642713e-04" rms="3.4929066896438599e-01" purity="4.9839213490486145e-01" nType="0">
        <Node pos="l" depth="1" NCoef="0" IVar="-1" Cut="0.0000000000000000e+00" cType="1" res="-2.8887644875794649e-03" rms="3.8635185360908508e-01" purity="4.8594713211059570e-01" nType="-99"/>
        <Node pos="r" depth="1" NCoef="0" IVar="8" Cut="2.6409369707107544e-01" cType="1" res="2.0740428008139133e-03" rms="3.4538894891738892e-01" purity="4.9960178136825562e-01" nType="0">
          <Node pos="l" depth="2" NCoef="0" IVar="-1" Cut="0.0000000000000000e+00" cType="1" res="1.8409457697998732e-04" rms="3.4324842691421509e-01" purity="5.0253134965896606e-01" nType="-99"/>
          <Node pos="r" depth="2" NCoef="0" IVar="-1" Cut="0.0000000000000000e+00" cType="1" res="2.9943049885332584e-03" rms="3.5455077886581421e-01" purity="4.8674258589744568e-01" nType="-99"/>
        </Node>
      </Node>
    </BinaryTree>
    <BinaryTree type="DecisionTree" boostWeight="1.0000000000000000e+00" itree="621">
      <Node pos="s" depth="0" NCoef="0" IVar="6" Cut="-2.5922062397003174e+00" cType="1" res="-2.6541657280176878e-03" rms="3.5188183188438416e-01" purity="5.0049692392349243e-01" nType="0">
        <Node pos="l" depth="1" NCoef="0" IVar="6" Cut="-3.1265645027160645e+00" cType="1" res="1.2611589627340436e-03" rms="3.3541366457939148e-01" purity="5.7670307159423828e-01" nType="0">
          <Node pos="l" depth="2" NCoef="0" IVar="-1" Cut="0.0000000000000000e+00" cType="1" res="-1.3341677840799093e-03" rms="3.2651123404502869e-01" purity="5.9191280603408813e-01" nType="-99"/>
          <Node pos="r" depth="2" NCoef="0" IVar="-1" Cut="0.0000000000000000e+00" cType="1" res="2.9845056124031544e-03" rms="3.5037139058113098e-01" purity="5.4988390207290649e-01" nType="-99"/>
        </Node>
        <Node pos="r" depth="1" NCoef="0" IVar="4" Cut="-9.1955885291099548e-03" cType="1" res="-8.2422439008951187e-03" rms="3.7406131625175476e-01" purity="3.9173293113708496e-01" nType="0">
          <Node pos="l" depth="2" NCoef="0" IVar="-1" Cut="0.0000000000000000e+00" cType="1" res="-3.9787082932889462e-03" rms="3.7206855416297913e-01" purity="4.1126659512519836e-01" nType="-99"/>
          <Node pos="r" depth="2" NCoef="0" IVar="-1" Cut="0.0000000000000000e+00" cType="1" res="1.0222402634099126e-03" rms="3.7749600410461426e-01" purity="3.5481569170951843e-01" nType="-99"/>
        </Node>
      </Node>
    </BinaryTree>
    <BinaryTree type="DecisionTree" boostWeight="1.0000000000000000e+00" itree="622">
      <Node pos="s" depth="0" NCoef="0" IVar="5" Cut="6.0231308937072754e+00" cType="1" res="-5.5106717627495527e-04" rms="3.4858363866806030e-01" purity="5.0141042470932007e-01" nType="0">
        <Node pos="l" depth="1" NCoef="0" IVar="2" Cut="8.7815771102905273e+00" cType="1" res="-1.2840316630899906e-02" rms="3.6636987328529358e-01" purity="5.3427278995513916e-01" nType="0">
          <Node pos="l" depth="2" NCoef="0" IVar="-1" Cut="0.0000000000000000e+00" cType="1" res="-6.9078910164535046e-03" rms="3.8655751943588257e-01" purity="4.2432615160942078e-01" nType="-99"/>
          <Node pos="r" depth="2" NCoef="0" IVar="-1" Cut="0.0000000000000000e+00" cType="1" res="-1.0109684662893414e-03" rms="3.5672596096992493e-01" purity="5.8226728439331055e-01" nType="-99"/>
        </Node>
        <Node pos="r" depth="1" NCoef="0" IVar="13" Cut="4.7614689916372299e-02" cType="1" res="3.1783133745193481e-03" rms="3.4291666746139526e-01" purity="4.9143779277801514e-01" nType="0">
          <Node pos="l" depth="2" NCoef="0" IVar="-1" Cut="0.0000000000000000e+00" cType="1" res="-1.8721366068348289e-03" rms="2.6381078362464905e-01" purity="2.4186123907566071e-01" nType="-99"/>
          <Node pos="r" depth="2" NCoef="0" IVar="-1" Cut="0.0000000000000000e+00" cType="1" res="2.1178703755140305e-03" rms="3.9684188365936279e-01" purity="6.9927936792373657e-01" nType="-99"/>
        </Node>
      </Node>
    </BinaryTree>
    <BinaryTree type="DecisionTree" boostWeight="1.0000000000000000e+00" itree="623">
      <Node pos="s" depth="0" NCoef="0" IVar="5" Cut="8.5271978378295898e+00" cType="1" res="-1.5621304919477552e-04" rms="3.5090771317481995e-01" purity="4.9972885847091675e-01" nType="0">
        <Node pos="l" depth="1" NCoef="0" IVar="0" Cut="1.0218591690063477e+01" cType="1" res="6.0527434106916189e-04" rms="3.4926491975784302e-01" purity="5.0288951396942139e-01" nType="0">
          <Node pos="l" depth="2" NCoef="0" IVar="-1" Cut="0.0000000000000000e+00" cType="1" res="-4.1622572462074459e-04" rms="3.5295626521110535e-01" purity="4.8803189396858215e-01" nType="-99"/>
          <Node pos="r" depth="2" NCoef="0" IVar="-1" Cut="0.0000000000000000e+00" cType="1" res="5.1379608921706676e-03" rms="3.1338965892791748e-01" purity="6.3717657327651978e-01" nType="-99"/>
        </Node>
        <Node pos="r" depth="1" NCoef="0" IVar="-1" Cut="0.0000000000000000e+00" cType="1" res="-4.5154439285397530e-03" rms="3.9053761959075928e-01" purity="4.1787984967231750e-01" nType="-99"/>
      </Node>
    </BinaryTree>
    <BinaryTree type="DecisionTree" boostWeight="1.0000000000000000e+00" itree="624">
      <Node pos="s" depth="0" NCoef="0" IVar="8" Cut="-6.6287565231323242e-01" cType="1" res="1.8872281070798635e-03" rms="3.5054418444633484e-01" purity="4.9954208731651306e-01" nType="0">
        <Node pos="l" depth="1" NCoef="0" IVar="-1" Cut="0.0000000000000000e+00" cType="1" res="-3.0262733343988657e-03" rms="4.0906724333763123e-01" purity="4.8188349604606628e-01" nType="-99"/>
        <Node pos="r" depth="1" NCoef="0" IVar="2" Cut="8.5902156829833984e+00" cType="1" res="3.9140554144978523e-03" rms="3.4610399603843689e-01" purity="5.0074523687362671e-01" nType="0">
          <Node pos="l" depth="2" NCoef="0" IVar="-1" Cut="0.0000000000000000e+00" cType="1" res="3.0243925284594297e-03" rms="3.5835278034210205e-01" purity="4.8517876863479614e-01" nType="-99"/>
          <Node pos="r" depth="2" NCoef="0" IVar="-1" Cut="0.0000000000000000e+00" cType="1" res="6.7758001387119293e-04" rms="3.4324389696121216e-01" purity="5.0425696372985840e-01" nType="-99"/>
        </Node>
      </Node>
    </BinaryTree>
    <BinaryTree type="DecisionTree" boostWeight="1.0000000000000000e+00" itree="625">
      <Node pos="s" depth="0" NCoef="0" IVar="1" Cut="4.9816446304321289e+00" cType="1" res="3.3367644064128399e-03" rms="3.4649470448493958e-01" purity="5.0281685590744019e-01" nType="0">
        <Node pos="l" depth="1" NCoef="0" IVar="-1" Cut="0.0000000000000000e+00" cType="1" res="6.6976305097341537e-03" rms="4.3057534098625183e-01" purity="2.8672477602958679e-01" nType="-99"/>
        <Node pos="r" depth="1" NCoef="0" IVar="11" Cut="6.1893337965011597e-01" cType="1" res="2.2915373556315899e-03" rms="3.4311941266059875e-01" purity="5.1040875911712646e-01" nType="0">
          <Node pos="l" depth="2" NCoef="0" IVar="-1" Cut="0.0000000000000000e+00" cType="1" res="-4.8722236533649266e-04" rms="3.5668286681175232e-01" purity="3.1344026327133179e-01" nType="-99"/>
          <Node pos="r" depth="2" NCoef="0" IVar="-1" Cut="0.0000000000000000e+00" cType="1" res="3.8828297983855009e-03" rms="3.1655311584472656e-01" purity="8.7224751710891724e-01" nType="-99"/>
        </Node>
      </Node>
    </BinaryTree>
    <BinaryTree type="DecisionTree" boostWeight="1.0000000000000000e+00" itree="626">
      <Node pos="s" depth="0" NCoef="0" IVar="9" Cut="3.0000000000000000e+00" cType="1" res="6.5298547269776464e-04" rms="2.2921936213970184e-01" purity="4.9865990877151489e-01" nType="0">
        <Node pos="l" depth="1" NCoef="0" IVar="5" Cut="6.5991144180297852e+00" cType="1" res="7.7296704985201359e-03" rms="3.1323161721229553e-01" purity="6.3746851682662964e-01" nType="0">
          <Node pos="l" depth="2" NCoef="0" IVar="-1" Cut="0.0000000000000000e+00" cType="1" res="-1.1933958157896996e-03" rms="3.2668218016624451e-01" purity="6.6625189781188965e-01" nType="-99"/>
          <Node pos="r" depth="2" NCoef="0" IVar="-1" Cut="0.0000000000000000e+00" cType="1" res="5.1909126341342926e-03" rms="3.0054908990859985e-01" purity="6.1219143867492676e-01" nType="-99"/>
        </Node>
        <Node pos="r" depth="1" NCoef="0" IVar="8" Cut="-2.5383740663528442e-01" cType="1" res="-1.5887278132140636e-03" rms="3.5513761639595032e-01" purity="4.7556391358375549e-01" nType="0">
          <Node pos="l" depth="2" NCoef="0" IVar="-1" Cut="0.0000000000000000e+00" cType="1" res="-2.0133291836827993e-03" rms="3.7119805812835693e-01" purity="4.6191582083702087e-01" nType="-99"/>
          <Node pos="r" depth="2" NCoef="0" IVar="-1" Cut="0.0000000000000000e+00" cType="1" res="6.5754324896261096e-04" rms="3.4867367148399353e-01" purity="4.8083981871604919e-01" nType="-99"/>
        </Node>
      </Node>
    </BinaryTree>
    <BinaryTree type="DecisionTree" boostWeight="1.0000000000000000e+00" itree="627">
      <Node pos="s" depth="0" NCoef="0" IVar="8" Cut="-6.1795169115066528e-01" cType="1" res="2.3650210350751877e-03" rms="3.4726145863533020e-01" purity="5.0371664762496948e-01" nType="0">
        <Node pos="l" depth="1" NCoef="0" IVar="-1" Cut="0.0000000000000000e+00" cType="1" res="3.2698418945074081e-03" rms="3.9716103672981262e-01" purity="5.5310904979705811e-01" nType="-99"/>
        <Node pos="r" depth="1" NCoef="0" IVar="11" Cut="3.8087299466133118e-01" cType="1" res="2.0177943224553019e-04" rms="3.4274008870124817e-01" purity="4.9965018033981323e-01" nType="0">
          <Node pos="l" depth="2" NCoef="0" IVar="-1" Cut="0.0000000000000000e+00" cType="1" res="-1.1559977428987622e-03" rms="3.5004833340644836e-01" purity="2.4608890712261200e-01" nType="-99"/>
          <Node pos="r" depth="2" NCoef="0" IVar="-1" Cut="0.0000000000000000e+00" cType="1" res="2.1047317422926426e-03" rms="3.3221948146820068e-01" purity="8.5287928581237793e-01" nType="-99"/>
        </Node>
      </Node>
    </BinaryTree>
    <BinaryTree type="DecisionTree" boostWeight="1.0000000000000000e+00" itree="628">
      <Node pos="s" depth="0" NCoef="0" IVar="8" Cut="-6.6087120771408081e-01" cType="1" res="-2.2561149671673775e-03" rms="3.4977072477340698e-01" purity="4.9995976686477661e-01" nType="0">
        <Node pos="l" depth="1" NCoef="0" IVar="-1" Cut="0.0000000000000000e+00" cType="1" res="-2.8631743043661118e-03" rms="4.1298720240592957e-01" purity="4.9998673796653748e-01" nType="-99"/>
        <Node pos="r" depth="1" NCoef="0" IVar="6" Cut="-1.7465869188308716e+00" cType="1" res="-6.3348602270707488e-04" rms="3.4516474604606628e-01" purity="4.9995797872543335e-01" nType="0">
          <Node pos="l" depth="2" NCoef="0" IVar="-1" Cut="0.0000000000000000e+00" cType="1" res="-8.8510138448327780e-04" rms="3.3922815322875977e-01" purity="5.3403735160827637e-01" nType="-99"/>
          <Node pos="r" depth="2" NCoef="0" IVar="-1" Cut="0.0000000000000000e+00" cType="1" res="2.5975387543439865e-03" rms="3.7440738081932068e-01" purity="3.2252132892608643e-01" nType="-99"/>
        </Node>
      </Node>
    </BinaryTree>
    <BinaryTree type="DecisionTree" boostWeight="1.0000000000000000e+00" itree="629">
      <Node pos="s" depth="0" NCoef="0" IVar="8" Cut="-4.5656114816665649e-01" cType="1" res="2.4931775406002998e-03" rms="3.5059806704521179e-01" purity="5.0688064098358154e-01" nType="0">
        <Node pos="l" depth="1" NCoef="0" IVar="7" Cut="-5.4129261523485184e-02" cType="1" res="1.3907846994698048e-02" rms="3.8527801632881165e-01" purity="5.3048831224441528e-01" nType="0">
          <Node pos="l" depth="2" NCoef="0" IVar="-1" Cut="0.0000000000000000e+00" cType="1" res="3.8759671151638031e-03" rms="3.9914232492446899e-01" purity="5.6906801462173462e-01" nType="-99"/>
          <Node pos="r" depth="2" NCoef="0" IVar="-1" Cut="0.0000000000000000e+00" cType="1" res="1.2677404447458684e-04" rms="3.7301242351531982e-01" purity="4.9883171916007996e-01" nType="-99"/>
        </Node>
        <Node pos="r" depth="1" NCoef="0" IVar="7" Cut="1.5933104753494263e+00" cType="1" res="6.0717959422618151e-04" rms="3.4449577331542969e-01" purity="5.0298011302947998e-01" nType="0">
          <Node pos="l" depth="2" NCoef="0" IVar="-1" Cut="0.0000000000000000e+00" cType="1" res="5.3864985238760710e-04" rms="3.4465968608856201e-01" purity="5.1225119829177856e-01" nType="-99"/>
          <Node pos="r" depth="2" NCoef="0" IVar="-1" Cut="0.0000000000000000e+00" cType="1" res="-1.0110229253768921e-02" rms="3.3836182951927185e-01" purity="2.1992266178131104e-01" nType="-99"/>
        </Node>
      </Node>
    </BinaryTree>
    <BinaryTree type="DecisionTree" boostWeight="1.0000000000000000e+00" itree="630">
      <Node pos="s" depth="0" NCoef="0" IVar="6" Cut="-2.8458335399627686e+00" cType="1" res="-5.2534975111484528e-04" rms="3.4803697466850281e-01" purity="4.9811673164367676e-01" nType="0">
        <Node pos="l" depth="1" NCoef="0" IVar="5" Cut="6.1431579589843750e+00" cType="1" res="4.2550195939838886e-03" rms="3.2495462894439697e-01" purity="5.8459919691085815e-01" nType="0">
          <Node pos="l" depth="2" NCoef="0" IVar="-1" Cut="0.0000000000000000e+00" cType="1" res="6.6499379463493824e-03" rms="3.1886991858482361e-01" purity="7.0397901535034180e-01" nType="-99"/>
          <Node pos="r" depth="2" NCoef="0" IVar="-1" Cut="0.0000000000000000e+00" cType="1" res="2.9295685817487538e-04" rms="3.2641613483428955e-01" purity="5.5388909578323364e-01" nType="-99"/>
        </Node>
        <Node pos="r" depth="1" NCoef="0" IVar="12" Cut="7.1410578489303589e-01" cType="1" res="-5.0565465353429317e-03" rms="3.6852687597274780e-01" purity="4.1614207625389099e-01" nType="0">
          <Node pos="l" depth="2" NCoef="0" IVar="-1" Cut="0.0000000000000000e+00" cType="1" res="-3.9489492774009705e-03" rms="3.9652210474014282e-01" purity="6.5984821319580078e-01" nType="-99"/>
          <Node pos="r" depth="2" NCoef="0" IVar="-1" Cut="0.0000000000000000e+00" cType="1" res="1.4365081442520022e-03" rms="3.4077522158622742e-01" purity="1.9447726011276245e-01" nType="-99"/>
        </Node>
      </Node>
    </BinaryTree>
    <BinaryTree type="DecisionTree" boostWeight="1.0000000000000000e+00" itree="631">
      <Node pos="s" depth="0" NCoef="0" IVar="5" Cut="7.4303855895996094e+00" cType="1" res="7.4520097114145756e-03" rms="3.4707617759704590e-01" purity="5.0603461265563965e-01" nType="0">
        <Node pos="l" depth="1" NCoef="0" IVar="10" Cut="3.0000000000000000e+00" cType="1" res="3.1597909983247519e-03" rms="2.9578503966331482e-01" purity="5.1474028825759888e-01" nType="0">
          <Node pos="l" depth="2" NCoef="0" IVar="-1" Cut="0.0000000000000000e+00" cType="1" res="1.7340071499347687e-03" rms="3.4360942244529724e-01" purity="5.3336375951766968e-01" nType="-99"/>
          <Node pos="r" depth="2" NCoef="0" IVar="-1" Cut="0.0000000000000000e+00" cType="1" res="-1.9344803877174854e-03" rms="3.6788854002952576e-01" purity="4.1324338316917419e-01" nType="-99"/>
        </Node>
        <Node pos="r" depth="1" NCoef="0" IVar="12" Cut="6.6633689403533936e-01" cType="1" res="1.9749717786908150e-02" rms="3.4532850980758667e-01" purity="4.7665408253669739e-01" nType="0">
          <Node pos="l" depth="2" NCoef="0" IVar="-1" Cut="0.0000000000000000e+00" cType="1" res="7.0411604829132557e-03" rms="3.8743650913238525e-01" purity="7.0094656944274902e-01" nType="-99"/>
          <Node pos="r" depth="2" NCoef="0" IVar="-1" Cut="0.0000000000000000e+00" cType="1" res="-7.5545482104644179e-04" rms="2.6310122013092041e-01" purity="1.1856182664632797e-01" nType="-99"/>
        </Node>
      </Node>
    </BinaryTree>
    <BinaryTree type="DecisionTree" boostWeight="1.0000000000000000e+00" itree="632">
      <Node pos="s" depth="0" NCoef="0" IVar="2" Cut="8.1608285903930664e+00" cType="1" res="-1.7370638670399785e-03" rms="3.4986320137977600e-01" purity="4.9792686104774475e-01" nType="0">
        <Node pos="l" depth="1" NCoef="0" IVar="-1" Cut="0.0000000000000000e+00" cType="1" res="4.1758525185286999e-03" rms="3.7005704641342163e-01" purity="4.8210036754608154e-01" nType="-99"/>
        <Node pos="r" depth="1" NCoef="0" IVar="13" Cut="8.5706233978271484e-01" cType="1" res="-2.9547763988375664e-03" rms="3.4877732396125793e-01" purity="4.9871885776519775e-01" nType="0">
          <Node pos="l" depth="2" NCoef="0" IVar="-1" Cut="0.0000000000000000e+00" cType="1" res="-1.2470651417970657e-03" rms="3.4889668226242065e-01" purity="4.8896786570549011e-01" nType="-99"/>
          <Node pos="r" depth="2" NCoef="0" IVar="-1" Cut="0.0000000000000000e+00" cType="1" res="8.0915791913866997e-03" rms="3.4539791941642761e-01" purity="7.0508605241775513e-01" nType="-99"/>
        </Node>
      </Node>
    </BinaryTree>
    <BinaryTree type="DecisionTree" boostWeight="1.0000000000000000e+00" itree="633">
      <Node pos="s" depth="0" NCoef="0" IVar="0" Cut="7.8198037147521973e+00" cType="1" res="2.5222112890332937e-03" rms="3.4716987609863281e-01" purity="5.0321274995803833e-01" nType="0">
        <Node pos="l" depth="1" NCoef="0" IVar="-1" Cut="0.0000000000000000e+00" cType="1" res="5.2428757771849632e-03" rms="4.5464268326759338e-01" purity="3.7463566660881042e-01" nType="-99"/>
        <Node pos="r" depth="1" NCoef="0" IVar="5" Cut="8.5271978378295898e+00" cType="1" res="1.1100405827164650e-03" rms="3.4033811092376709e-01" purity="5.1016283035278320e-01" nType="0">
          <Node pos="l" depth="2" NCoef="0" IVar="-1" Cut="0.0000000000000000e+00" cType="1" res="6.5352593082934618e-04" rms="3.3849495649337769e-01" purity="5.1377362012863159e-01" nType="-99"/>
          <Node pos="r" depth="2" NCoef="0" IVar="-1" Cut="0.0000000000000000e+00" cType="1" res="-5.7244487106800079e-03" rms="3.8413205742835999e-01" purity="4.1688311100006104e-01" nType="-99"/>
        </Node>
      </Node>
    </BinaryTree>
    <BinaryTree type="DecisionTree" boostWeight="1.0000000000000000e+00" itree="634">
      <Node pos="s" depth="0" NCoef="0" IVar="0" Cut="8.9135904312133789e+00" cType="1" res="8.4326678188517690e-04" rms="3.4981977939605713e-01" purity="5.0167596340179443e-01" nType="0">
        <Node pos="l" depth="1" NCoef="0" IVar="0" Cut="7.8512191772460938e+00" cType="1" res="9.0896319597959518e-03" rms="3.8080114126205444e-01" purity="4.4164761900901794e-01" nType="0">
          <Node pos="l" depth="2" NCoef="0" IVar="-1" Cut="0.0000000000000000e+00" cType="1" res="5.4007545113563538e-03" rms="4.6097865700721741e-01" purity="3.8478469848632812e-01" nType="-99"/>
          <Node pos="r" depth="2" NCoef="0" IVar="-1" Cut="0.0000000000000000e+00" cType="1" res="1.6927635297179222e-03" rms="3.6636772751808167e-01" purity="4.5066627860069275e-01" nType="-99"/>
        </Node>
        <Node pos="r" depth="1" NCoef="0" IVar="7" Cut="-3.7007215619087219e-01" cType="1" res="-5.2960384637117386e-03" rms="3.2470548152923584e-01" purity="5.4636621475219727e-01" nType="0">
          <Node pos="l" depth="2" NCoef="0" IVar="-1" Cut="0.0000000000000000e+00" cType="1" res="2.6580269914120436e-03" rms="3.1774464249610901e-01" purity="5.7767009735107422e-01" nType="-99"/>
          <Node pos="r" depth="2" NCoef="0" IVar="-1" Cut="0.0000000000000000e+00" cType="1" res="-3.1851590611040592e-03" rms="3.2673820853233337e-01" purity="5.3654056787490845e-01" nType="-99"/>
        </Node>
      </Node>
    </BinaryTree>
    <BinaryTree type="DecisionTree" boostWeight="1.0000000000000000e+00" itree="635">
      <Node pos="s" depth="0" NCoef="0" IVar="1" Cut="5.2507128715515137e+00" cType="1" res="-3.0264954548329115e-03" rms="3.5037770867347717e-01" purity="4.9842897057533264e-01" nType="0">
        <Node pos="l" depth="1" NCoef="0" IVar="12" Cut="8.0928879976272583e-01" cType="1" res="1.9509078934788704e-02" rms="4.2132246494293213e-01" purity="3.0189594626426697e-01" nType="0">
          <Node pos="l" depth="2" NCoef="0" IVar="-1" Cut="0.0000000000000000e+00" cType="1" res="-6.6975509980693460e-04" rms="4.2894050478935242e-01" purity="3.5025668144226074e-01" nType="-99"/>
          <Node pos="r" depth="2" NCoef="0" IVar="-1" Cut="0.0000000000000000e+00" cType="1" res="1.0893086902797222e-02" rms="4.1172420978546143e-01" purity="2.5074830651283264e-01" nType="-99"/>
        </Node>
        <Node pos="r" depth="1" NCoef="0" IVar="0" Cut="1.0225334167480469e+01" cType="1" res="-4.7596921212971210e-03" rms="3.4425547719001770e-01" purity="5.1354420185089111e-01" nType="0">
          <Node pos="l" depth="2" NCoef="0" IVar="-1" Cut="0.0000000000000000e+00" cType="1" res="-8.2695228047668934e-04" rms="3.4220385551452637e-01" purity="5.0697749853134155e-01" nType="-99"/>
          <Node pos="r" depth="2" NCoef="0" IVar="-1" Cut="0.0000000000000000e+00" cType="1" res="-4.6650585718452930e-03" rms="3.5624605417251587e-01" purity="5.5368775129318237e-01" nType="-99"/>
        </Node>
      </Node>
    </BinaryTree>
    <BinaryTree type="DecisionTree" boostWeight="1.0000000000000000e+00" itree="636">
      <Node pos="s" depth="0" NCoef="0" IVar="1" Cut="4.9759173393249512e+00" cType="1" res="-9.0371142141520977e-04" rms="3.4763965010643005e-01" purity="4.9821424484252930e-01" nType="0">
        <Node pos="l" depth="1" NCoef="0" IVar="-1" Cut="0.0000000000000000e+00" cType="1" res="-5.6212176568806171e-03" rms="4.0888935327529907e-01" purity="2.2718867659568787e-01" nType="-99"/>
        <Node pos="r" depth="1" NCoef="0" IVar="4" Cut="5.1721446216106415e-02" cType="1" res="8.9504392235539854e-06" rms="3.4523838758468628e-01" purity="5.0780308246612549e-01" nType="0">
          <Node pos="l" depth="2" NCoef="0" IVar="-1" Cut="0.0000000000000000e+00" cType="1" res="8.9785741874948144e-04" rms="3.3639270067214966e-01" purity="5.4695838689804077e-01" nType="-99"/>
          <Node pos="r" depth="2" NCoef="0" IVar="-1" Cut="0.0000000000000000e+00" cType="1" res="-1.8704762915149331e-03" rms="3.6850559711456299e-01" purity="3.9946797490119934e-01" nType="-99"/>
        </Node>
      </Node>
    </BinaryTree>
    <BinaryTree type="DecisionTree" boostWeight="1.0000000000000000e+00" itree="637">
      <Node pos="s" depth="0" NCoef="0" IVar="11" Cut="9.5234006643295288e-02" cType="1" res="1.8650422571226954e-03" rms="3.5038301348686218e-01" purity="5.0235819816589355e-01" nType="0">
        <Node pos="l" depth="1" NCoef="0" IVar="11" Cut="8.1616640090942383e-02" cType="1" res="6.8341288715600967e-03" rms="3.0524280667304993e-01" purity="1.4008137583732605e-01" nType="0">
          <Node pos="l" depth="2" NCoef="0" IVar="-1" Cut="0.0000000000000000e+00" cType="1" res="7.2030402952805161e-04" rms="2.8886240720748901e-01" purity="1.1900090426206589e-01" nType="-99"/>
          <Node pos="r" depth="2" NCoef="0" IVar="-1" Cut="0.0000000000000000e+00" cType="1" res="1.3262832537293434e-02" rms="4.7738581895828247e-01" purity="4.4473803043365479e-01" nType="-99"/>
        </Node>
        <Node pos="r" depth="1" NCoef="0" IVar="8" Cut="-1.1878379434347153e-01" cType="1" res="-1.6011982224881649e-03" rms="3.7865999341011047e-01" purity="7.5506836175918579e-01" nType="0">
          <Node pos="l" depth="2" NCoef="0" IVar="-1" Cut="0.0000000000000000e+00" cType="1" res="-2.2683886345475912e-03" rms="3.8723734021186829e-01" purity="7.3668867349624634e-01" nType="-99"/>
          <Node pos="r" depth="2" NCoef="0" IVar="-1" Cut="0.0000000000000000e+00" cType="1" res="1.8115249695256352e-03" rms="3.7221103906631470e-01" purity="7.6829260587692261e-01" nType="-99"/>
        </Node>
      </Node>
    </BinaryTree>
    <BinaryTree type="DecisionTree" boostWeight="1.0000000000000000e+00" itree="638">
      <Node pos="s" depth="0" NCoef="0" IVar="6" Cut="-1.4067665338516235e+00" cType="1" res="4.9293535994365811e-04" rms="3.5087054967880249e-01" purity="5.0424414873123169e-01" nType="0">
        <Node pos="l" depth="1" NCoef="0" IVar="0" Cut="1.0885208129882812e+01" cType="1" res="2.0726758521050215e-03" rms="3.4790390729904175e-01" purity="5.2925378084182739e-01" nType="0">
          <Node pos="l" depth="2" NCoef="0" IVar="-1" Cut="0.0000000000000000e+00" cType="1" res="2.9132564668543637e-04" rms="3.4526345133781433e-01" purity="5.2581024169921875e-01" nType="-99"/>
          <Node pos="r" depth="2" NCoef="0" IVar="-1" Cut="0.0000000000000000e+00" cType="1" res="5.3136134520173073e-03" rms="4.0473037958145142e-01" purity="6.1109864711761475e-01" nType="-99"/>
        </Node>
        <Node pos="r" depth="1" NCoef="0" IVar="12" Cut="9.0438431501388550e-01" cType="1" res="-1.3525519520044327e-02" rms="3.7588188052177429e-01" purity="2.8231108188629150e-01" nType="0">
          <Node pos="l" depth="2" NCoef="0" IVar="-1" Cut="0.0000000000000000e+00" cType="1" res="-5.2423980087041855e-03" rms="4.1048893332481384e-01" purity="3.5829886794090271e-01" nType="-99"/>
          <Node pos="r" depth="2" NCoef="0" IVar="-1" Cut="0.0000000000000000e+00" cType="1" res="8.3350576460361481e-03" rms="2.6756840944290161e-01" purity="9.0648986399173737e-02" nType="-99"/>
        </Node>
      </Node>
    </BinaryTree>
    <BinaryTree type="DecisionTree" boostWeight="1.0000000000000000e+00" itree="639">
      <Node pos="s" depth="0" NCoef="0" IVar="0" Cut="7.8200154304504395e+00" cType="1" res="-7.2915706550702453e-04" rms="3.4996700286865234e-01" purity="5.0049984455108643e-01" nType="0">
        <Node pos="l" depth="1" NCoef="0" IVar="-1" Cut="0.0000000000000000e+00" cType="1" res="-4.2679519392549992e-03" rms="4.4759219884872437e-01" purity="3.2680252194404602e-01" nType="-99"/>
        <Node pos="r" depth="1" NCoef="0" IVar="9" Cut="3.6931471824645996e+00" cType="1" res="-5.4298110626405105e-05" rms="2.3002256453037262e-01" purity="5.0988483428955078e-01" nType="0">
          <Node pos="l" depth="2" NCoef="0" IVar="-1" Cut="0.0000000000000000e+00" cType="1" res="2.7922130539081991e-04" rms="3.3453348278999329e-01" purity="5.4983872175216675e-01" nType="-99"/>
          <Node pos="r" depth="2" NCoef="0" IVar="-1" Cut="0.0000000000000000e+00" cType="1" res="-1.8732731405179948e-04" rms="3.6292442679405212e-01" purity="4.2477786540985107e-01" nType="-99"/>
        </Node>
      </Node>
    </BinaryTree>
    <BinaryTree type="DecisionTree" boostWeight="1.0000000000000000e+00" itree="640">
      <Node pos="s" depth="0" NCoef="0" IVar="1" Cut="5.5000257492065430e+00" cType="1" res="3.3469128538854420e-05" rms="3.5030478239059448e-01" purity="5.0216174125671387e-01" nType="0">
        <Node pos="l" depth="1" NCoef="0" IVar="2" Cut="8.9035711288452148e+00" cType="1" res="2.0160188898444176e-02" rms="4.0743532776832581e-01" purity="3.2146000862121582e-01" nType="0">
          <Node pos="l" depth="2" NCoef="0" IVar="-1" Cut="0.0000000000000000e+00" cType="1" res="6.4886743202805519e-03" rms="4.1818842291831970e-01" purity="3.3366188406944275e-01" nType="-99"/>
          <Node pos="r" depth="2" NCoef="0" IVar="-1" Cut="0.0000000000000000e+00" cType="1" res="2.3466956336051226e-03" rms="3.9982900023460388e-01" purity="3.1351792812347412e-01" nType="-99"/>
        </Node>
        <Node pos="r" depth="1" NCoef="0" IVar="7" Cut="-9.5422518253326416e-01" cType="1" res="-2.9392531141638756e-03" rms="3.4095570445060730e-01" purity="5.2885138988494873e-01" nType="0">
          <Node pos="l" depth="2" NCoef="0" IVar="-1" Cut="0.0000000000000000e+00" cType="1" res="5.1140836440026760e-03" rms="3.2978940010070801e-01" purity="5.5506259202957153e-01" nType="-99"/>
          <Node pos="r" depth="2" NCoef="0" IVar="-1" Cut="0.0000000000000000e+00" cType="1" res="-1.5370487235486507e-03" rms="3.4196579456329346e-01" purity="5.2627897262573242e-01" nType="-99"/>
        </Node>
      </Node>
    </BinaryTree>
    <BinaryTree type="DecisionTree" boostWeight="1.0000000000000000e+00" itree="641">
      <Node pos="s" depth="0" NCoef="0" IVar="1" Cut="5.2485570907592773e+00" cType="1" res="3.3261349890381098e-03" rms="3.4919282793998718e-01" purity="5.0487083196640015e-01" nType="0">
        <Node pos="l" depth="1" NCoef="0" IVar="0" Cut="8.2758483886718750e+00" cType="1" res="2.8577467426657677e-02" rms="4.2095112800598145e-01" purity="3.0223643779754639e-01" nType="0">
          <Node pos="l" depth="2" NCoef="0" IVar="-1" Cut="0.0000000000000000e+00" cType="1" res="7.7393127139657736e-04" rms="4.0288114547729492e-01" purity="2.5867813825607300e-01" nType="-99"/>
          <Node pos="r" depth="2" NCoef="0" IVar="-1" Cut="0.0000000000000000e+00" cType="1" res="1.2238278053700924e-02" rms="4.3707513809204102e-01" purity="3.4649348258972168e-01" nType="-99"/>
        </Node>
        <Node pos="r" depth="1" NCoef="0" IVar="0" Cut="7.8201389312744141e+00" cType="1" res="1.3892782153561711e-03" rms="3.4299275279045105e-01" purity="5.2041351795196533e-01" nType="0">
          <Node pos="l" depth="2" NCoef="0" IVar="-1" Cut="0.0000000000000000e+00" cType="1" res="-4.6128290705382824e-03" rms="4.5363342761993408e-01" purity="3.5494142770767212e-01" nType="-99"/>
          <Node pos="r" depth="2" NCoef="0" IVar="-1" Cut="0.0000000000000000e+00" cType="1" res="7.9310440924018621e-04" rms="3.3735308051109314e-01" purity="5.2755516767501831e-01" nType="-99"/>
        </Node>
      </Node>
    </BinaryTree>
    <BinaryTree type="DecisionTree" boostWeight="1.0000000000000000e+00" itree="642">
      <Node pos="s" depth="0" NCoef="0" IVar="0" Cut="8.0378952026367188e+00" cType="1" res="8.9985440718010068e-04" rms="3.5077065229415894e-01" purity="5.0461614131927490e-01" nType="0">
        <Node pos="l" depth="1" NCoef="0" IVar="11" Cut="8.0478467047214508e-02" cType="1" res="1.8913652747869492e-02" rms="4.4461417198181152e-01" purity="3.9256903529167175e-01" nType="0">
          <Node pos="l" depth="2" NCoef="0" IVar="-1" Cut="0.0000000000000000e+00" cType="1" res="1.8370182078797370e-04" rms="4.2467698454856873e-01" purity="2.6836368441581726e-01" nType="-99"/>
          <Node pos="r" depth="2" NCoef="0" IVar="-1" Cut="0.0000000000000000e+00" cType="1" res="7.2600673884153366e-03" rms="4.6614137291908264e-01" purity="5.3906124830245972e-01" nType="-99"/>
        </Node>
        <Node pos="r" depth="1" NCoef="0" IVar="2" Cut="8.5345125198364258e+00" cType="1" res="-1.4354599406942725e-03" rms="3.3662435412406921e-01" purity="5.1914197206497192e-01" nType="0">
          <Node pos="l" depth="2" NCoef="0" IVar="-1" Cut="0.0000000000000000e+00" cType="1" res="-2.9250937514007092e-03" rms="3.5348814725875854e-01" purity="4.8451572656631470e-01" nType="-99"/>
          <Node pos="r" depth="2" NCoef="0" IVar="-1" Cut="0.0000000000000000e+00" cType="1" res="3.0256251920945942e-04" rms="3.3343482017517090e-01" purity="5.2539896965026855e-01" nType="-99"/>
        </Node>
      </Node>
    </BinaryTree>
    <BinaryTree type="DecisionTree" boostWeight="1.0000000000000000e+00" itree="643">
      <Node pos="s" depth="0" NCoef="0" IVar="3" Cut="5.3131258487701416e-01" cType="1" res="-1.3456274755299091e-03" rms="3.5042354464530945e-01" purity="4.9815699458122253e-01" nType="0">
        <Node pos="l" depth="1" NCoef="0" IVar="2" Cut="8.3761529922485352e+00" cType="1" res="-5.7357107289135456e-03" rms="3.3922049403190613e-01" purity="5.8317381143569946e-01" nType="0">
          <Node pos="l" depth="2" NCoef="0" IVar="-1" Cut="0.0000000000000000e+00" cType="1" res="-6.0943830758333206e-03" rms="3.6081463098526001e-01" purity="4.9318003654479980e-01" nType="-99"/>
          <Node pos="r" depth="2" NCoef="0" IVar="-1" Cut="0.0000000000000000e+00" cType="1" res="-1.1704054195433855e-03" rms="3.3675345778465271e-01" purity="5.9271842241287231e-01" nType="-99"/>
        </Node>
        <Node pos="r" depth="1" NCoef="0" IVar="4" Cut="-1.0304808616638184e+00" cType="1" res="5.4846974089741707e-03" rms="3.6707052588462830e-01" purity="3.6588320136070251e-01" nType="0">
          <Node pos="l" depth="2" NCoef="0" IVar="-1" Cut="0.0000000000000000e+00" cType="1" res="-2.8530175331979990e-03" rms="3.5587507486343384e-01" purity="3.6166325211524963e-01" nType="-99"/>
          <Node pos="r" depth="2" NCoef="0" IVar="-1" Cut="0.0000000000000000e+00" cType="1" res="2.7805771678686142e-03" rms="3.7093359231948853e-01" purity="3.6743167042732239e-01" nType="-99"/>
        </Node>
      </Node>
    </BinaryTree>
    <BinaryTree type="DecisionTree" boostWeight="1.0000000000000000e+00" itree="644">
      <Node pos="s" depth="0" NCoef="0" IVar="8" Cut="-5.3543788194656372e-01" cType="1" res="-1.3550156727433205e-03" rms="3.5170361399650574e-01" purity="4.9721053242683411e-01" nType="0">
        <Node pos="l" depth="1" NCoef="0" IVar="0" Cut="8.4672203063964844e+00" cType="1" res="-1.7958931624889374e-02" rms="3.8847604393959045e-01" purity="4.8737147450447083e-01" nType="0">
          <Node pos="l" depth="2" NCoef="0" IVar="-1" Cut="0.0000000000000000e+00" cType="1" res="-5.2920202724635601e-03" rms="4.1917130351066589e-01" purity="4.2703679203987122e-01" nType="-99"/>
          <Node pos="r" depth="2" NCoef="0" IVar="-1" Cut="0.0000000000000000e+00" cType="1" res="-7.1416929131373763e-04" rms="3.6614388227462769e-01" purity="5.2752971649169922e-01" nType="-99"/>
        </Node>
        <Node pos="r" depth="1" NCoef="0" IVar="9" Cut="3.6931471824645996e+00" cType="1" res="1.8129432573914528e-03" rms="2.2456145286560059e-01" purity="4.9838578701019287e-01" nType="0">
          <Node pos="l" depth="2" NCoef="0" IVar="-1" Cut="0.0000000000000000e+00" cType="1" res="4.5851818867959082e-04" rms="3.3955794572830200e-01" purity="5.3857809305191040e-01" nType="-99"/>
          <Node pos="r" depth="2" NCoef="0" IVar="-1" Cut="0.0000000000000000e+00" cType="1" res="-4.4968107249587774e-04" rms="3.6190637946128845e-01" purity="4.1519176959991455e-01" nType="-99"/>
        </Node>
      </Node>
    </BinaryTree>
    <BinaryTree type="DecisionTree" boostWeight="1.0000000000000000e+00" itree="645">
      <Node pos="s" depth="0" NCoef="0" IVar="8" Cut="-6.6087120771408081e-01" cType="1" res="7.6439272379502654e-04" rms="3.5114541649818420e-01" purity="4.9965149164199829e-01" nType="0">
        <Node pos="l" depth="1" NCoef="0" IVar="-1" Cut="0.0000000000000000e+00" cType="1" res="-2.5643699336796999e-03" rms="4.0723115205764771e-01" purity="5.0065433979034424e-01" nType="-99"/>
        <Node pos="r" depth="1" NCoef="0" IVar="9" Cut="3.6931471824645996e+00" cType="1" res="9.1061729472130537e-04" rms="2.2342737019062042e-01" purity="4.9958246946334839e-01" nType="0">
          <Node pos="l" depth="2" NCoef="0" IVar="-1" Cut="0.0000000000000000e+00" cType="1" res="1.0635446524247527e-03" rms="3.3869078755378723e-01" purity="5.3720986843109131e-01" nType="-99"/>
          <Node pos="r" depth="2" NCoef="0" IVar="-1" Cut="0.0000000000000000e+00" cType="1" res="1.8740603991318494e-04" rms="3.6341729760169983e-01" purity="4.2091882228851318e-01" nType="-99"/>
        </Node>
      </Node>
    </BinaryTree>
    <BinaryTree type="DecisionTree" boostWeight="1.0000000000000000e+00" itree="646">
      <Node pos="s" depth="0" NCoef="0" IVar="5" Cut="8.4780883789062500e+00" cType="1" res="1.1582333827391267e-03" rms="3.4932136535644531e-01" purity="5.0240516662597656e-01" nType="0">
        <Node pos="l" depth="1" NCoef="0" IVar="7" Cut="6.6975992918014526e-01" cType="1" res="2.0983193535357714e-03" rms="3.4730786085128784e-01" purity="5.0565934181213379e-01" nType="0">
          <Node pos="l" depth="2" NCoef="0" IVar="-1" Cut="0.0000000000000000e+00" cType="1" res="5.7983601436717436e-05" rms="3.4753078222274780e-01" purity="5.2093172073364258e-01" nType="-99"/>
          <Node pos="r" depth="2" NCoef="0" IVar="-1" Cut="0.0000000000000000e+00" cType="1" res="3.2786882948130369e-03" rms="3.4616795182228088e-01" purity="4.3665042519569397e-01" nType="-99"/>
        </Node>
        <Node pos="r" depth="1" NCoef="0" IVar="-1" Cut="0.0000000000000000e+00" cType="1" res="-3.9550787769258022e-03" rms="3.9110845327377319e-01" purity="4.2954975366592407e-01" nType="-99"/>
      </Node>
    </BinaryTree>
    <BinaryTree type="DecisionTree" boostWeight="1.0000000000000000e+00" itree="647">
      <Node pos="s" depth="0" NCoef="0" IVar="13" Cut="1.9045200943946838e-01" cType="1" res="-3.3160967286676168e-03" rms="3.4909045696258545e-01" purity="4.9952626228332520e-01" nType="0">
        <Node pos="l" depth="1" NCoef="0" IVar="11" Cut="4.7626517713069916e-02" cType="1" res="-6.0160742141306400e-03" rms="3.4573537111282349e-01" purity="3.6580136418342590e-01" nType="0">
          <Node pos="l" depth="2" NCoef="0" IVar="-1" Cut="0.0000000000000000e+00" cType="1" res="2.2128723503556103e-04" rms="2.2993279993534088e-01" purity="6.4520828425884247e-02" nType="-99"/>
          <Node pos="r" depth="2" NCoef="0" IVar="-1" Cut="0.0000000000000000e+00" cType="1" res="-2.1566776558756828e-03" rms="4.1201508045196533e-01" purity="5.9302347898483276e-01" nType="-99"/>
        </Node>
        <Node pos="r" depth="1" NCoef="0" IVar="0" Cut="1.0229818344116211e+01" cType="1" res="2.6007462292909622e-03" rms="3.5626092553138733e-01" purity="7.9257649183273315e-01" nType="0">
          <Node pos="l" depth="2" NCoef="0" IVar="-1" Cut="0.0000000000000000e+00" cType="1" res="1.9116522744297981e-03" rms="3.5230523347854614e-01" purity="8.1250470876693726e-01" nType="-99"/>
          <Node pos="r" depth="2" NCoef="0" IVar="-1" Cut="0.0000000000000000e+00" cType="1" res="-6.2861233018338680e-03" rms="3.9081847667694092e-01" purity="6.0283845663070679e-01" nType="-99"/>
        </Node>
      </Node>
    </BinaryTree>
    <BinaryTree type="DecisionTree" boostWeight="1.0000000000000000e+00" itree="648">
      <Node pos="s" depth="0" NCoef="0" IVar="10" Cut="2.0000000000000000e+00" cType="1" res="-1.2105922214686871e-03" rms="2.6654243469238281e-01" purity="4.9892053008079529e-01" nType="0">
        <Node pos="l" depth="1" NCoef="0" IVar="7" Cut="-5.0431060791015625e-01" cType="1" res="4.3235952034592628e-03" rms="3.3456647396087646e-01" purity="5.5984628200531006e-01" nType="0">
          <Node pos="l" depth="2" NCoef="0" IVar="-1" Cut="0.0000000000000000e+00" cType="1" res="6.5070781856775284e-03" rms="3.2590252161026001e-01" purity="5.9246289730072021e-01" nType="-99"/>
          <Node pos="r" depth="2" NCoef="0" IVar="-1" Cut="0.0000000000000000e+00" cType="1" res="-5.4403972171712667e-05" rms="3.3658722043037415e-01" purity="5.5154561996459961e-01" nType="-99"/>
        </Node>
        <Node pos="r" depth="1" NCoef="0" IVar="7" Cut="8.6974841356277466e-01" cType="1" res="-6.5115988254547119e-03" rms="3.5846495628356934e-01" purity="4.3835237622261047e-01" nType="0">
          <Node pos="l" depth="2" NCoef="0" IVar="-1" Cut="0.0000000000000000e+00" cType="1" res="-3.0119130387902260e-03" rms="3.5863292217254639e-01" purity="4.4785794615745544e-01" nType="-99"/>
          <Node pos="r" depth="2" NCoef="0" IVar="-1" Cut="0.0000000000000000e+00" cType="1" res="6.9070546887814999e-03" rms="3.5591098666191101e-01" purity="3.6415961384773254e-01" nType="-99"/>
        </Node>
      </Node>
    </BinaryTree>
    <BinaryTree type="DecisionTree" boostWeight="1.0000000000000000e+00" itree="649">
      <Node pos="s" depth="0" NCoef="0" IVar="0" Cut="7.8192906379699707e+00" cType="1" res="-1.4197996351867914e-03" rms="3.4795203804969788e-01" purity="4.9913617968559265e-01" nType="0">
        <Node pos="l" depth="1" NCoef="0" IVar="-1" Cut="0.0000000000000000e+00" cType="1" res="-6.0937651433050632e-03" rms="4.3761241436004639e-01" purity="3.1072756648063660e-01" nType="-99"/>
        <Node pos="r" depth="1" NCoef="0" IVar="9" Cut="3.6931471824645996e+00" cType="1" res="3.2866100082173944e-04" rms="2.2678267955780029e-01" purity="5.0899505615234375e-01" nType="0">
          <Node pos="l" depth="2" NCoef="0" IVar="-1" Cut="0.0000000000000000e+00" cType="1" res="-1.0394543642178178e-04" rms="3.3411112427711487e-01" purity="5.5170822143554688e-01" nType="-99"/>
          <Node pos="r" depth="2" NCoef="0" IVar="-1" Cut="0.0000000000000000e+00" cType="1" res="6.2456895830109715e-04" rms="3.5967659950256348e-01" purity="4.1875487565994263e-01" nType="-99"/>
        </Node>
      </Node>
    </BinaryTree>
    <BinaryTree type="DecisionTree" boostWeight="1.0000000000000000e+00" itree="650">
      <Node pos="s" depth="0" NCoef="0" IVar="2" Cut="9.4326639175415039e+00" cType="1" res="1.2749175948556513e-04" rms="3.4797263145446777e-01" purity="4.9965548515319824e-01" nType="0">
        <Node pos="l" depth="1" NCoef="0" IVar="12" Cut="1.9047632813453674e-01" cType="1" res="3.2404419034719467e-03" rms="3.5028597712516785e-01" purity="4.9685272574424744e-01" nType="0">
          <Node pos="l" depth="2" NCoef="0" IVar="-1" Cut="0.0000000000000000e+00" cType="1" res="-1.3270558556541800e-03" rms="3.3136707544326782e-01" purity="8.3036816120147705e-01" nType="-99"/>
          <Node pos="r" depth="2" NCoef="0" IVar="-1" Cut="0.0000000000000000e+00" cType="1" res="1.6923086950555444e-03" rms="3.5953333973884583e-01" purity="3.2608607411384583e-01" nType="-99"/>
        </Node>
        <Node pos="r" depth="1" NCoef="0" IVar="5" Cut="7.6154279708862305e+00" cType="1" res="-1.0680422186851501e-02" rms="3.3959722518920898e-01" purity="5.0938624143600464e-01" nType="0">
          <Node pos="l" depth="2" NCoef="0" IVar="-1" Cut="0.0000000000000000e+00" cType="1" res="-2.1120763849467039e-03" rms="3.3210268616676331e-01" purity="5.4007351398468018e-01" nType="-99"/>
          <Node pos="r" depth="2" NCoef="0" IVar="-1" Cut="0.0000000000000000e+00" cType="1" res="-1.1848929338157177e-02" rms="3.6375707387924194e-01" purity="4.0138795971870422e-01" nType="-99"/>
        </Node>
      </Node>
    </BinaryTree>
    <BinaryTree type="DecisionTree" boostWeight="1.0000000000000000e+00" itree="651">
      <Node pos="s" depth="0" NCoef="0" IVar="5" Cut="6.7167968750000000e+00" cType="1" res="-1.0583433322608471e-03" rms="3.4954318404197693e-01" purity="4.9726492166519165e-01" nType="0">
        <Node pos="l" depth="1" NCoef="0" IVar="1" Cut="6.0723857879638672e+00" cType="1" res="3.4343290608376265e-03" rms="3.5449469089508057e-01" purity="5.2331835031509399e-01" nType="0">
          <Node pos="l" depth="2" NCoef="0" IVar="-1" Cut="0.0000000000000000e+00" cType="1" res="-6.2047212850302458e-04" rms="3.9484846591949463e-01" purity="3.6849004030227661e-01" nType="-99"/>
          <Node pos="r" depth="2" NCoef="0" IVar="-1" Cut="0.0000000000000000e+00" cType="1" res="3.8385167717933655e-03" rms="3.0852487683296204e-01" purity="6.7900627851486206e-01" nType="-99"/>
        </Node>
        <Node pos="r" depth="1" NCoef="0" IVar="2" Cut="8.4977979660034180e+00" cType="1" res="-5.7673132978379726e-03" rms="3.4421390295028687e-01" purity="4.6995711326599121e-01" nType="0">
          <Node pos="l" depth="2" NCoef="0" IVar="-1" Cut="0.0000000000000000e+00" cType="1" res="3.0881876591593027e-03" rms="3.3825337886810303e-01" purity="5.0076472759246826e-01" nType="-99"/>
          <Node pos="r" depth="2" NCoef="0" IVar="-1" Cut="0.0000000000000000e+00" cType="1" res="-2.7393195778131485e-03" rms="3.4494796395301819e-01" purity="4.6558251976966858e-01" nType="-99"/>
        </Node>
      </Node>
    </BinaryTree>
    <BinaryTree type="DecisionTree" boostWeight="1.0000000000000000e+00" itree="652">
      <Node pos="s" depth="0" NCoef="0" IVar="0" Cut="9.1335487365722656e+00" cType="1" res="-3.1607258133590221e-03" rms="3.4762996435165405e-01" purity="4.9830028414726257e-01" nType="0">
        <Node pos="l" depth="1" NCoef="0" IVar="6" Cut="-2.8891754150390625e+00" cType="1" res="-8.0361180007457733e-03" rms="3.6943802237510681e-01" purity="4.3636286258697510e-01" nType="0">
          <Node pos="l" depth="2" NCoef="0" IVar="-1" Cut="0.0000000000000000e+00" cType="1" res="6.2937766779214144e-04" rms="3.4980851411819458e-01" purity="5.2619099617004395e-01" nType="-99"/>
          <Node pos="r" depth="2" NCoef="0" IVar="-1" Cut="0.0000000000000000e+00" cType="1" res="-4.0825167670845985e-03" rms="3.8324412703514099e-01" purity="3.6941245198249817e-01" nType="-99"/>
        </Node>
        <Node pos="r" depth="1" NCoef="0" IVar="8" Cut="-1.1817308515310287e-01" cType="1" res="2.0005758851766586e-03" rms="3.2286199927330017e-01" purity="5.6386995315551758e-01" nType="0">
          <Node pos="l" depth="2" NCoef="0" IVar="-1" Cut="0.0000000000000000e+00" cType="1" res="2.6105032302439213e-03" rms="3.2622784376144409e-01" purity="5.7326018810272217e-01" nType="-99"/>
          <Node pos="r" depth="2" NCoef="0" IVar="-1" Cut="0.0000000000000000e+00" cType="1" res="-1.6323381569236517e-03" rms="3.2072189450263977e-01" purity="5.5834382772445679e-01" nType="-99"/>
        </Node>
      </Node>
    </BinaryTree>
    <BinaryTree type="DecisionTree" boostWeight="1.0000000000000000e+00" itree="653">
      <Node pos="s" depth="0" NCoef="0" IVar="0" Cut="9.5715179443359375e+00" cType="1" res="-5.0678183324635029e-03" rms="3.5080525279045105e-01" purity="4.9506059288978577e-01" nType="0">
        <Node pos="l" depth="1" NCoef="0" IVar="7" Cut="-1.5055046975612640e-01" cType="1" res="-9.4084683805704117e-03" rms="3.6080619692802429e-01" purity="4.5950296521186829e-01" nType="0">
          <Node pos="l" depth="2" NCoef="0" IVar="-1" Cut="0.0000000000000000e+00" cType="1" res="-5.3681842982769012e-03" rms="3.6565139889717102e-01" purity="4.6988442540168762e-01" nType="-99"/>
          <Node pos="r" depth="2" NCoef="0" IVar="-1" Cut="0.0000000000000000e+00" cType="1" res="-1.2111988617107272e-03" rms="3.5785302519798279e-01" purity="4.5348006486892700e-01" nType="-99"/>
        </Node>
        <Node pos="r" depth="1" NCoef="0" IVar="12" Cut="3.3320537209510803e-01" cType="1" res="4.2975628748536110e-03" rms="3.2799515128135681e-01" purity="5.7177972793579102e-01" nType="0">
          <Node pos="l" depth="2" NCoef="0" IVar="-1" Cut="0.0000000000000000e+00" cType="1" res="-2.5283154100179672e-03" rms="3.1814515590667725e-01" purity="8.1594538688659668e-01" nType="-99"/>
          <Node pos="r" depth="2" NCoef="0" IVar="-1" Cut="0.0000000000000000e+00" cType="1" res="4.0981592610478401e-03" rms="3.3807718753814697e-01" purity="3.0291530489921570e-01" nType="-99"/>
        </Node>
      </Node>
    </BinaryTree>
    <BinaryTree type="DecisionTree" boostWeight="1.0000000000000000e+00" itree="654">
      <Node pos="s" depth="0" NCoef="0" IVar="7" Cut="1.2978383302688599e+00" cType="1" res="-8.4878416964784265e-04" rms="3.4784111380577087e-01" purity="4.9738708138465881e-01" nType="0">
        <Node pos="l" depth="1" NCoef="0" IVar="7" Cut="-2.4711857736110687e-01" cType="1" res="-1.8207936082035303e-03" rms="3.4794777631759644e-01" purity="5.0809532403945923e-01" nType="0">
          <Node pos="l" depth="2" NCoef="0" IVar="-1" Cut="0.0000000000000000e+00" cType="1" res="1.5344769926741719e-03" rms="3.5358911752700806e-01" purity="5.1842314004898071e-01" nType="-99"/>
          <Node pos="r" depth="2" NCoef="0" IVar="-1" Cut="0.0000000000000000e+00" cType="1" res="-1.5876897377893329e-03" rms="3.4517297148704529e-01" purity="5.0316882133483887e-01" nType="-99"/>
        </Node>
        <Node pos="r" depth="1" NCoef="0" IVar="-1" Cut="0.0000000000000000e+00" cType="1" res="6.0034831985831261e-03" rms="3.4528613090515137e-01" purity="2.9374405741691589e-01" nType="-99"/>
      </Node>
    </BinaryTree>
    <BinaryTree type="DecisionTree" boostWeight="1.0000000000000000e+00" itree="655">
      <Node pos="s" depth="0" NCoef="0" IVar="7" Cut="1.2977708578109741e+00" cType="1" res="-1.2953032273799181e-03" rms="3.5084339976310730e-01" purity="4.9916484951972961e-01" nType="0">
        <Node pos="l" depth="1" NCoef="0" IVar="6" Cut="-9.5318990945816040e-01" cType="1" res="-2.5261216796934605e-03" rms="3.5111114382743835e-01" purity="5.1037836074829102e-01" nType="0">
          <Node pos="l" depth="2" NCoef="0" IVar="-1" Cut="0.0000000000000000e+00" cType="1" res="-5.0428055692464113e-04" rms="3.4946721792221069e-01" purity="5.1821464300155640e-01" nType="-99"/>
          <Node pos="r" depth="2" NCoef="0" IVar="-1" Cut="0.0000000000000000e+00" cType="1" res="-7.1686287410557270e-03" rms="3.9938074350357056e-01" purity="2.5848984718322754e-01" nType="-99"/>
        </Node>
        <Node pos="r" depth="1" NCoef="0" IVar="12" Cut="7.1410793066024780e-01" cType="1" res="2.0662060007452965e-02" rms="3.4529605507850647e-01" purity="2.9912036657333374e-01" nType="0">
          <Node pos="l" depth="2" NCoef="0" IVar="-1" Cut="0.0000000000000000e+00" cType="1" res="7.5321537442505360e-03" rms="4.1526466608047485e-01" purity="5.1673012971878052e-01" nType="-99"/>
          <Node pos="r" depth="2" NCoef="0" IVar="-1" Cut="0.0000000000000000e+00" cType="1" res="4.1900319047272205e-03" rms="2.5938531756401062e-01" purity="8.8290244340896606e-02" nType="-99"/>
        </Node>
      </Node>
    </BinaryTree>
    <BinaryTree type="DecisionTree" boostWeight="1.0000000000000000e+00" itree="656">
      <Node pos="s" depth="0" NCoef="0" IVar="7" Cut="-1.4046828746795654e+00" cType="1" res="-1.6086735995486379e-03" rms="3.5054764151573181e-01" purity="4.9564561247825623e-01" nType="0">
        <Node pos="l" depth="1" NCoef="0" IVar="-1" Cut="0.0000000000000000e+00" cType="1" res="-7.3968293145298958e-03" rms="3.3902335166931152e-01" purity="4.8665854334831238e-01" nType="-99"/>
        <Node pos="r" depth="1" NCoef="0" IVar="2" Cut="8.1608285903930664e+00" cType="1" res="-6.4176646992564201e-04" rms="3.5096386075019836e-01" purity="4.9600338935852051e-01" nType="0">
          <Node pos="l" depth="2" NCoef="0" IVar="-1" Cut="0.0000000000000000e+00" cType="1" res="-4.4268462806940079e-03" rms="3.7789893150329590e-01" purity="4.2489451169967651e-01" nType="-99"/>
          <Node pos="r" depth="2" NCoef="0" IVar="-1" Cut="0.0000000000000000e+00" cType="1" res="1.6260461416095495e-04" rms="3.4947213530540466e-01" purity="4.9968868494033813e-01" nType="-99"/>
        </Node>
      </Node>
    </BinaryTree>
    <BinaryTree type="DecisionTree" boostWeight="1.0000000000000000e+00" itree="657">
      <Node pos="s" depth="0" NCoef="0" IVar="2" Cut="8.9735202789306641e+00" cType="1" res="1.3365910854190588e-03" rms="3.4771737456321716e-01" purity="5.0168514251708984e-01" nType="0">
        <Node pos="l" depth="1" NCoef="0" IVar="11" Cut="6.6651481389999390e-01" cType="1" res="-4.4599734246730804e-03" rms="3.5397535562515259e-01" purity="4.7497209906578064e-01" nType="0">
          <Node pos="l" depth="2" NCoef="0" IVar="-1" Cut="0.0000000000000000e+00" cType="1" res="-2.0211262162774801e-03" rms="3.6595785617828369e-01" purity="3.0230709910392761e-01" nType="-99"/>
          <Node pos="r" depth="2" NCoef="0" IVar="-1" Cut="0.0000000000000000e+00" cType="1" res="2.5478086899966002e-03" rms="3.2478803396224976e-01" purity="8.6674165725708008e-01" nType="-99"/>
        </Node>
        <Node pos="r" depth="1" NCoef="0" IVar="8" Cut="-4.5736312866210938e-01" cType="1" res="5.6114941835403442e-03" rms="3.4296628832817078e-01" purity="5.2138572931289673e-01" nType="0">
          <Node pos="l" depth="2" NCoef="0" IVar="-1" Cut="0.0000000000000000e+00" cType="1" res="5.1739448681473732e-03" rms="3.7047612667083740e-01" purity="5.4493165016174316e-01" nType="-99"/>
          <Node pos="r" depth="2" NCoef="0" IVar="-1" Cut="0.0000000000000000e+00" cType="1" res="8.8366935960948467e-04" rms="3.3798533678054810e-01" purity="5.1743471622467041e-01" nType="-99"/>
        </Node>
      </Node>
    </BinaryTree>
    <BinaryTree type="DecisionTree" boostWeight="1.0000000000000000e+00" itree="658">
      <Node pos="s" depth="0" NCoef="0" IVar="7" Cut="1.1913095712661743e+00" cType="1" res="-7.0444564335048199e-04" rms="3.4690010547637939e-01" purity="4.9822965264320374e-01" nType="0">
        <Node pos="l" depth="1" NCoef="0" IVar="6" Cut="-1.8551005125045776e+00" cType="1" res="-1.7601356375962496e-03" rms="3.4736374020576477e-01" purity="5.1016789674758911e-01" nType="0">
          <Node pos="l" depth="2" NCoef="0" IVar="-1" Cut="0.0000000000000000e+00" cType="1" res="1.1358252959325910e-04" rms="3.4126290678977966e-01" purity="5.4029995203018188e-01" nType="-99"/>
          <Node pos="r" depth="2" NCoef="0" IVar="-1" Cut="0.0000000000000000e+00" cType="1" res="-3.6154580302536488e-03" rms="3.8136336207389832e-01" purity="3.3112847805023193e-01" nType="-99"/>
        </Node>
        <Node pos="r" depth="1" NCoef="0" IVar="11" Cut="9.5213942229747772e-02" cType="1" res="1.5265705995261669e-02" rms="3.3940905332565308e-01" purity="3.1763115525245667e-01" nType="0">
          <Node pos="l" depth="2" NCoef="0" IVar="-1" Cut="0.0000000000000000e+00" cType="1" res="-1.1789146810770035e-03" rms="2.4076035618782043e-01" purity="7.7685169875621796e-02" nType="-99"/>
          <Node pos="r" depth="2" NCoef="0" IVar="-1" Cut="0.0000000000000000e+00" cType="1" res="7.0762308314442635e-03" rms="4.2509835958480835e-01" purity="5.9546780586242676e-01" nType="-99"/>
        </Node>
      </Node>
    </BinaryTree>
    <BinaryTree type="DecisionTree" boostWeight="1.0000000000000000e+00" itree="659">
      <Node pos="s" depth="0" NCoef="0" IVar="0" Cut="8.2578907012939453e+00" cType="1" res="-6.0722330817952752e-04" rms="3.4956037998199463e-01" purity="5.0061827898025513e-01" nType="0">
        <Node pos="l" depth="1" NCoef="0" IVar="8" Cut="-2.5176161527633667e-01" cType="1" res="-9.9549852311611176e-03" rms="4.1686964035034180e-01" purity="3.6967840790748596e-01" nType="0">
          <Node pos="l" depth="2" NCoef="0" IVar="-1" Cut="0.0000000000000000e+00" cType="1" res="-4.8684896901249886e-03" rms="4.2044708132743835e-01" purity="3.7563407421112061e-01" nType="-99"/>
          <Node pos="r" depth="2" NCoef="0" IVar="-1" Cut="0.0000000000000000e+00" cType="1" res="1.3256398960947990e-04" rms="4.1429010033607483e-01" purity="3.6598482728004456e-01" nType="-99"/>
        </Node>
        <Node pos="r" depth="1" NCoef="0" IVar="3" Cut="2.2452552616596222e-01" cType="1" res="1.5318067744374275e-03" rms="3.3220949769020081e-01" purity="5.3058099746704102e-01" nType="0">
          <Node pos="l" depth="2" NCoef="0" IVar="-1" Cut="0.0000000000000000e+00" cType="1" res="-1.3441786868497729e-03" rms="3.0388554930686951e-01" purity="6.5726274251937866e-01" nType="-99"/>
          <Node pos="r" depth="2" NCoef="0" IVar="-1" Cut="0.0000000000000000e+00" cType="1" res="1.7583166481927037e-03" rms="3.5839143395423889e-01" purity="4.0310257673263550e-01" nType="-99"/>
        </Node>
      </Node>
    </BinaryTree>
    <BinaryTree type="DecisionTree" boostWeight="1.0000000000000000e+00" itree="660">
      <Node pos="s" depth="0" NCoef="0" IVar="1" Cut="4.9198656082153320e+00" cType="1" res="4.3177744373679161e-03" rms="3.4593266248703003e-01" purity="5.0362998247146606e-01" nType="0">
        <Node pos="l" depth="1" NCoef="0" IVar="-1" Cut="0.0000000000000000e+00" cType="1" res="-7.2208349592983723e-03" rms="3.9379039406776428e-01" purity="2.1069450676441193e-01" nType="-99"/>
        <Node pos="r" depth="1" NCoef="0" IVar="9" Cut="4.6931471824645996e+00" cType="1" res="2.4244885426014662e-03" rms="2.2261466085910797e-01" purity="5.1225352287292480e-01" nType="0">
          <Node pos="l" depth="2" NCoef="0" IVar="-1" Cut="0.0000000000000000e+00" cType="1" res="1.6826039645820856e-03" rms="3.4433424472808838e-01" purity="5.1227396726608276e-01" nType="-99"/>
          <Node pos="r" depth="2" NCoef="0" IVar="-1" Cut="0.0000000000000000e+00" cType="1" res="3.3203446865081787e-01" rms="4.9750170111656189e-01" purity="3.1194204092025757e-01" nType="-99"/>
        </Node>
      </Node>
    </BinaryTree>
    <BinaryTree type="DecisionTree" boostWeight="1.0000000000000000e+00" itree="661">
      <Node pos="s" depth="0" NCoef="0" IVar="2" Cut="8.9509191513061523e+00" cType="1" res="2.6981038972735405e-03" rms="3.4939441084861755e-01" purity="5.0352621078491211e-01" nType="0">
        <Node pos="l" depth="1" NCoef="0" IVar="0" Cut="8.0360221862792969e+00" cType="1" res="8.3757480606436729e-03" rms="3.5857844352722168e-01" purity="4.9303814768791199e-01" nType="0">
          <Node pos="l" depth="2" NCoef="0" IVar="-1" Cut="0.0000000000000000e+00" cType="1" res="4.5928722247481346e-03" rms="4.4920304417610168e-01" purity="3.7284371256828308e-01" nType="-99"/>
          <Node pos="r" depth="2" NCoef="0" IVar="-1" Cut="0.0000000000000000e+00" cType="1" res="1.3047119136899710e-03" rms="3.4492129087448120e-01" purity="5.0868386030197144e-01" nType="-99"/>
        </Node>
        <Node pos="r" depth="1" NCoef="0" IVar="3" Cut="-1.6157014369964600e+00" cType="1" res="-1.2499538715928793e-03" rms="3.4280771017074585e-01" purity="5.1081931591033936e-01" nType="0">
          <Node pos="l" depth="2" NCoef="0" IVar="-1" Cut="0.0000000000000000e+00" cType="1" res="1.0243951342999935e-02" rms="2.6767316460609436e-01" purity="7.6430535316467285e-01" nType="-99"/>
          <Node pos="r" depth="2" NCoef="0" IVar="-1" Cut="0.0000000000000000e+00" cType="1" res="-1.3491905992850661e-03" rms="3.5124641656875610e-01" purity="4.7818261384963989e-01" nType="-99"/>
        </Node>
      </Node>
    </BinaryTree>
    <BinaryTree type="DecisionTree" boostWeight="1.0000000000000000e+00" itree="662">
      <Node pos="s" depth="0" NCoef="0" IVar="1" Cut="5.2438020706176758e+00" cType="1" res="3.5230645444244146e-03" rms="3.5048529505729675e-01" purity="5.0385296344757080e-01" nType="0">
        <Node pos="l" depth="1" NCoef="0" IVar="7" Cut="7.2180725634098053e-02" cType="1" res="1.7565151676535606e-02" rms="4.2048865556716919e-01" purity="2.9244974255561829e-01" nType="0">
          <Node pos="l" depth="2" NCoef="0" IVar="-1" Cut="0.0000000000000000e+00" cType="1" res="8.2157719880342484e-03" rms="4.3301540613174438e-01" purity="3.2811114192008972e-01" nType="-99"/>
          <Node pos="r" depth="2" NCoef="0" IVar="-1" Cut="0.0000000000000000e+00" cType="1" res="-6.9208926288411021e-04" rms="4.0756222605705261e-01" purity="2.5973960757255554e-01" nType="-99"/>
        </Node>
        <Node pos="r" depth="1" NCoef="0" IVar="1" Cut="6.9292125701904297e+00" cType="1" res="2.4757201317697763e-03" rms="3.4467181563377380e-01" purity="5.1962065696716309e-01" nType="0">
          <Node pos="l" depth="2" NCoef="0" IVar="-1" Cut="0.0000000000000000e+00" cType="1" res="-3.0977036658441648e-05" rms="3.5691836476325989e-01" purity="4.7481098771095276e-01" nType="-99"/>
          <Node pos="r" depth="2" NCoef="0" IVar="-1" Cut="0.0000000000000000e+00" cType="1" res="3.3854844514280558e-03" rms="3.0898523330688477e-01" purity="6.4092642068862915e-01" nType="-99"/>
        </Node>
      </Node>
    </BinaryTree>
    <BinaryTree type="DecisionTree" boostWeight="1.0000000000000000e+00" itree="663">
      <Node pos="s" depth="0" NCoef="0" IVar="10" Cut="2.0000000000000000e+00" cType="1" res="-2.4348309671040624e-04" rms="2.6882317662239075e-01" purity="5.0337153673171997e-01" nType="0">
        <Node pos="l" depth="1" NCoef="0" IVar="3" Cut="-3.8913789391517639e-01" cType="1" res="-2.9562260024249554e-03" rms="3.3910530805587769e-01" purity="5.5414867401123047e-01" nType="0">
          <Node pos="l" depth="2" NCoef="0" IVar="-1" Cut="0.0000000000000000e+00" cType="1" res="3.1312562059611082e-03" rms="2.9950320720672607e-01" purity="7.4114060401916504e-01" nType="-99"/>
          <Node pos="r" depth="2" NCoef="0" IVar="-1" Cut="0.0000000000000000e+00" cType="1" res="-2.1205511875450611e-03" rms="3.5601896047592163e-01" purity="4.6664455533027649e-01" nType="-99"/>
        </Node>
        <Node pos="r" depth="1" NCoef="0" IVar="1" Cut="5.5432457923889160e+00" cType="1" res="5.6474618613719940e-03" rms="3.5774981975555420e-01" purity="4.5238015055656433e-01" nType="0">
          <Node pos="l" depth="2" NCoef="0" IVar="-1" Cut="0.0000000000000000e+00" cType="1" res="5.4825474508106709e-03" rms="4.0426182746887207e-01" purity="2.7409023046493530e-01" nType="-99"/>
          <Node pos="r" depth="2" NCoef="0" IVar="-1" Cut="0.0000000000000000e+00" cType="1" res="1.0044638765975833e-03" rms="3.4931665658950806e-01" purity="4.8215287923812866e-01" nType="-99"/>
        </Node>
      </Node>
    </BinaryTree>
    <BinaryTree type="DecisionTree" boostWeight="1.0000000000000000e+00" itree="664">
      <Node pos="s" depth="0" NCoef="0" IVar="0" Cut="1.0228331565856934e+01" cType="1" res="-9.8615302704274654e-04" rms="3.4785050153732300e-01" purity="4.9779707193374634e-01" nType="0">
        <Node pos="l" depth="1" NCoef="0" IVar="13" Cut="5.2376151084899902e-01" cType="1" res="-3.3539664000272751e-03" rms="3.4802162647247314e-01" purity="4.8362344503402710e-01" nType="0">
          <Node pos="l" depth="2" NCoef="0" IVar="-1" Cut="0.0000000000000000e+00" cType="1" res="-1.6596672357991338e-03" rms="3.4961670637130737e-01" purity="4.0417233109474182e-01" nType="-99"/>
          <Node pos="r" depth="2" NCoef="0" IVar="-1" Cut="0.0000000000000000e+00" cType="1" res="2.4005866143852472e-03" rms="3.4103208780288696e-01" purity="8.1967705488204956e-01" nType="-99"/>
        </Node>
        <Node pos="r" depth="1" NCoef="0" IVar="13" Cut="1.4284479618072510e-01" cType="1" res="1.4406404457986355e-02" rms="3.4634158015251160e-01" purity="5.8993625640869141e-01" nType="0">
          <Node pos="l" depth="2" NCoef="0" IVar="-1" Cut="0.0000000000000000e+00" cType="1" res="5.9817843139171600e-03" rms="3.2827016711235046e-01" purity="5.7853221893310547e-01" nType="-99"/>
          <Node pos="r" depth="2" NCoef="0" IVar="-1" Cut="0.0000000000000000e+00" cType="1" res="-2.3836807813495398e-03" rms="3.8739994168281555e-01" purity="6.1889803409576416e-01" nType="-99"/>
        </Node>
      </Node>
    </BinaryTree>
    <BinaryTree type="DecisionTree" boostWeight="1.0000000000000000e+00" itree="665">
      <Node pos="s" depth="0" NCoef="0" IVar="0" Cut="1.0009455680847168e+01" cType="1" res="-2.0945898722857237e-03" rms="3.4712058305740356e-01" purity="4.9850317835807800e-01" nType="0">
        <Node pos="l" depth="1" NCoef="0" IVar="13" Cut="8.0934894084930420e-01" cType="1" res="-4.2366753332316875e-03" rms="3.5077929496765137e-01" purity="4.7968578338623047e-01" nType="0">
          <Node pos="l" depth="2" NCoef="0" IVar="-1" Cut="0.0000000000000000e+00" cType="1" res="-1.8490601796656847e-03" rms="3.5128942131996155e-01" purity="4.5096498727798462e-01" nType="-99"/>
          <Node pos="r" depth="2" NCoef="0" IVar="-1" Cut="0.0000000000000000e+00" cType="1" res="6.2634837813675404e-03" rms="3.4435927867889404e-01" purity="8.0277591943740845e-01" nType="-99"/>
        </Node>
        <Node pos="r" depth="1" NCoef="0" IVar="13" Cut="3.3330452442169189e-01" cType="1" res="7.2106355801224709e-03" rms="3.3059662580490112e-01" purity="5.8024621009826660e-01" nType="0">
          <Node pos="l" depth="2" NCoef="0" IVar="-1" Cut="0.0000000000000000e+00" cType="1" res="3.3386161085218191e-03" rms="3.2090303301811218e-01" purity="5.8281213045120239e-01" nType="-99"/>
          <Node pos="r" depth="2" NCoef="0" IVar="-1" Cut="0.0000000000000000e+00" cType="1" res="-8.7983291596174240e-03" rms="3.8080859184265137e-01" purity="5.6503844261169434e-01" nType="-99"/>
        </Node>
      </Node>
    </BinaryTree>
    <BinaryTree type="DecisionTree" boostWeight="1.0000000000000000e+00" itree="666">
      <Node pos="s" depth="0" NCoef="0" IVar="8" Cut="-6.6265237331390381e-01" cType="1" res="-3.9281765930354595e-03" rms="3.4915834665298462e-01" purity="4.9661237001419067e-01" nType="0">
        <Node pos="l" depth="1" NCoef="0" IVar="-1" Cut="0.0000000000000000e+00" cType="1" res="-2.6294060517102480e-03" rms="4.0988260507583618e-01" purity="4.9272030591964722e-01" nType="-99"/>
        <Node pos="r" depth="1" NCoef="0" IVar="13" Cut="4.7614932060241699e-01" cType="1" res="-2.7054171077907085e-03" rms="3.4478321671485901e-01" purity="4.9686664342880249e-01" nType="0">
          <Node pos="l" depth="2" NCoef="0" IVar="-1" Cut="0.0000000000000000e+00" cType="1" res="-1.5957883442752063e-04" rms="3.4219872951507568e-01" purity="4.2782795429229736e-01" nType="-99"/>
          <Node pos="r" depth="2" NCoef="0" IVar="-1" Cut="0.0000000000000000e+00" cType="1" res="-4.5595583505928516e-03" rms="3.5487592220306396e-01" purity="7.7532988786697388e-01" nType="-99"/>
        </Node>
      </Node>
    </BinaryTree>
    <BinaryTree type="DecisionTree" boostWeight="1.0000000000000000e+00" itree="667">
      <Node pos="s" depth="0" NCoef="0" IVar="5" Cut="7.5539202690124512e+00" cType="1" res="5.5009883362799883e-04" rms="3.4941685199737549e-01" purity="5.0026714801788330e-01" nType="0">
        <Node pos="l" depth="1" NCoef="0" IVar="2" Cut="8.4704437255859375e+00" cType="1" res="3.8803399074822664e-03" rms="3.4580755233764648e-01" purity="5.1252317428588867e-01" nType="0">
          <Node pos="l" depth="2" NCoef="0" IVar="-1" Cut="0.0000000000000000e+00" cType="1" res="-1.7381724901497364e-03" rms="3.5923248529434204e-01" purity="4.6229639649391174e-01" nType="-99"/>
          <Node pos="r" depth="2" NCoef="0" IVar="-1" Cut="0.0000000000000000e+00" cType="1" res="2.1009386982768774e-03" rms="3.4345948696136475e-01" purity="5.2094519138336182e-01" nType="-99"/>
        </Node>
        <Node pos="r" depth="1" NCoef="0" IVar="1" Cut="6.7087731361389160e+00" cType="1" res="-1.3710378669202328e-02" rms="3.6412397027015686e-01" purity="4.4778540730476379e-01" nType="0">
          <Node pos="l" depth="2" NCoef="0" IVar="-1" Cut="0.0000000000000000e+00" cType="1" res="2.5658763479441404e-03" rms="3.6307823657989502e-01" purity="3.9110422134399414e-01" nType="-99"/>
          <Node pos="r" depth="2" NCoef="0" IVar="-1" Cut="0.0000000000000000e+00" cType="1" res="-6.4013134688138962e-03" rms="3.6407145857810974e-01" purity="4.7289991378784180e-01" nType="-99"/>
        </Node>
      </Node>
    </BinaryTree>
    <BinaryTree type="DecisionTree" boostWeight="1.0000000000000000e+00" itree="668">
      <Node pos="s" depth="0" NCoef="0" IVar="12" Cut="6.1884540319442749e-01" cType="1" res="1.7180998111143708e-03" rms="3.4992972016334534e-01" purity="5.0523430109024048e-01" nType="0">
        <Node pos="l" depth="1" NCoef="0" IVar="12" Cut="5.5989760160446167e-01" cType="1" res="-2.5893354322761297e-03" rms="3.5350981354713440e-01" purity="7.7187949419021606e-01" nType="0">
          <Node pos="l" depth="2" NCoef="0" IVar="-1" Cut="0.0000000000000000e+00" cType="1" res="-2.5537749752402306e-04" rms="3.4845703840255737e-01" purity="7.8846323490142822e-01" nType="-99"/>
          <Node pos="r" depth="2" NCoef="0" IVar="-1" Cut="0.0000000000000000e+00" cType="1" res="-5.8773686178028584e-03" rms="4.3127310276031494e-01" purity="4.8166981339454651e-01" nType="-99"/>
        </Node>
        <Node pos="r" depth="1" NCoef="0" IVar="1" Cut="6.7395167350769043e+00" cType="1" res="6.1998702585697174e-03" rms="3.4610852599143982e-01" purity="2.2779719531536102e-01" nType="0">
          <Node pos="l" depth="2" NCoef="0" IVar="-1" Cut="0.0000000000000000e+00" cType="1" res="2.7252337895333767e-03" rms="3.6504518985748291e-01" purity="2.4795655906200409e-01" nType="-99"/>
          <Node pos="r" depth="2" NCoef="0" IVar="-1" Cut="0.0000000000000000e+00" cType="1" res="-5.5291946046054363e-03" rms="2.4771107733249664e-01" purity="1.4089311659336090e-01" nType="-99"/>
        </Node>
      </Node>
    </BinaryTree>
    <BinaryTree type="DecisionTree" boostWeight="1.0000000000000000e+00" itree="669">
      <Node pos="s" depth="0" NCoef="0" IVar="8" Cut="-5.7623726129531860e-01" cType="1" res="-1.3099601346766576e-05" rms="3.5097593069076538e-01" purity="5.0270044803619385e-01" nType="0">
        <Node pos="l" depth="1" NCoef="0" IVar="-1" Cut="0.0000000000000000e+00" cType="1" res="-2.2923927754163742e-03" rms="3.9820560812950134e-01" purity="5.0038474798202515e-01" nType="-99"/>
        <Node pos="r" depth="1" NCoef="0" IVar="2" Cut="8.9995059967041016e+00" cType="1" res="1.8070354126393795e-03" rms="3.4600409865379333e-01" purity="5.0292479991912842e-01" nType="0">
          <Node pos="l" depth="2" NCoef="0" IVar="-1" Cut="0.0000000000000000e+00" cType="1" res="2.1446377504616976e-03" rms="3.5227739810943604e-01" purity="4.9253350496292114e-01" nType="-99"/>
          <Node pos="r" depth="2" NCoef="0" IVar="-1" Cut="0.0000000000000000e+00" cType="1" res="-1.4428803697228432e-03" rms="3.4077104926109314e-01" purity="5.1132285594940186e-01" nType="-99"/>
        </Node>
      </Node>
    </BinaryTree>
    <BinaryTree type="DecisionTree" boostWeight="1.0000000000000000e+00" itree="670">
      <Node pos="s" depth="0" NCoef="0" IVar="0" Cut="9.7903823852539062e+00" cType="1" res="8.2022954302374274e-05" rms="3.4808534383773804e-01" purity="5.0386035442352295e-01" nType="0">
        <Node pos="l" depth="1" NCoef="0" IVar="13" Cut="1.9028814136981964e-01" cType="1" res="-2.1736642811447382e-03" rms="3.5479769110679626e-01" purity="4.7704085707664490e-01" nType="0">
          <Node pos="l" depth="2" NCoef="0" IVar="-1" Cut="0.0000000000000000e+00" cType="1" res="-1.6771734226495028e-03" rms="3.5541000962257385e-01" purity="3.0495187640190125e-01" nType="-99"/>
          <Node pos="r" depth="2" NCoef="0" IVar="-1" Cut="0.0000000000000000e+00" cType="1" res="1.7432152526453137e-03" rms="3.5345700383186340e-01" purity="8.2189494371414185e-01" nType="-99"/>
        </Node>
        <Node pos="r" depth="1" NCoef="0" IVar="13" Cut="9.5229372382164001e-02" cType="1" res="6.7835468798875809e-03" rms="3.2724067568778992e-01" purity="5.8353972434997559e-01" nType="0">
          <Node pos="l" depth="2" NCoef="0" IVar="-1" Cut="0.0000000000000000e+00" cType="1" res="5.3499024361371994e-03" rms="2.8771805763244629e-01" purity="5.3498011827468872e-01" nType="-99"/>
          <Node pos="r" depth="2" NCoef="0" IVar="-1" Cut="0.0000000000000000e+00" cType="1" res="-1.3644980499520898e-03" rms="3.8248074054718018e-01" purity="6.6244345903396606e-01" nType="-99"/>
        </Node>
      </Node>
    </BinaryTree>
    <BinaryTree type="DecisionTree" boostWeight="1.0000000000000000e+00" itree="671">
      <Node pos="s" depth="0" NCoef="0" IVar="0" Cut="1.0881928443908691e+01" cType="1" res="2.3639586288481951e-03" rms="3.4828689694404602e-01" purity="5.0257778167724609e-01" nType="0">
        <Node pos="l" depth="1" NCoef="0" IVar="10" Cut="3.0000000000000000e+00" cType="1" res="6.6964142024517059e-04" rms="2.3271209001541138e-01" purity="4.9862578511238098e-01" nType="0">
          <Node pos="l" depth="2" NCoef="0" IVar="-1" Cut="0.0000000000000000e+00" cType="1" res="1.0515736648812890e-03" rms="3.4280681610107422e-01" purity="5.1833897829055786e-01" nType="-99"/>
          <Node pos="r" depth="2" NCoef="0" IVar="-1" Cut="0.0000000000000000e+00" cType="1" res="-3.0174637213349342e-03" rms="3.6586865782737732e-01" purity="3.9073491096496582e-01" nType="-99"/>
        </Node>
        <Node pos="r" depth="1" NCoef="0" IVar="-1" Cut="0.0000000000000000e+00" cType="1" res="4.9765035510063171e-03" rms="3.9104568958282471e-01" purity="6.0499948263168335e-01" nType="-99"/>
      </Node>
    </BinaryTree>
    <BinaryTree type="DecisionTree" boostWeight="1.0000000000000000e+00" itree="672">
      <Node pos="s" depth="0" NCoef="0" IVar="5" Cut="5.5540461540222168e+00" cType="1" res="8.0336525570601225e-04" rms="3.4864115715026855e-01" purity="5.0171238183975220e-01" nType="0">
        <Node pos="l" depth="1" NCoef="0" IVar="1" Cut="5.9073691368103027e+00" cType="1" res="-1.2087534181773663e-02" rms="3.6758530139923096e-01" purity="5.2735167741775513e-01" nType="0">
          <Node pos="l" depth="2" NCoef="0" IVar="-1" Cut="0.0000000000000000e+00" cType="1" res="-5.5766296572983265e-03" rms="4.1633683443069458e-01" purity="3.5959577560424805e-01" nType="-99"/>
          <Node pos="r" depth="2" NCoef="0" IVar="-1" Cut="0.0000000000000000e+00" cType="1" res="4.7880024649202824e-03" rms="2.7891758084297180e-01" purity="7.7551990747451782e-01" nType="-99"/>
        </Node>
        <Node pos="r" depth="1" NCoef="0" IVar="1" Cut="5.8544611930847168e+00" cType="1" res="2.4341135285794735e-03" rms="3.4613659977912903e-01" purity="4.9846887588500977e-01" nType="0">
          <Node pos="l" depth="2" NCoef="0" IVar="-1" Cut="0.0000000000000000e+00" cType="1" res="3.9272638969123363e-03" rms="3.9034155011177063e-01" purity="3.3368712663650513e-01" nType="-99"/>
          <Node pos="r" depth="2" NCoef="0" IVar="-1" Cut="0.0000000000000000e+00" cType="1" res="-2.3885372502263635e-04" rms="3.3404129743576050e-01" purity="5.3985327482223511e-01" nType="-99"/>
        </Node>
      </Node>
    </BinaryTree>
    <BinaryTree type="DecisionTree" boostWeight="1.0000000000000000e+00" itree="673">
      <Node pos="s" depth="0" NCoef="0" IVar="8" Cut="-4.3789896368980408e-01" cType="1" res="1.6727667534723878e-03" rms="3.4692522883415222e-01" purity="5.0014328956604004e-01" nType="0">
        <Node pos="l" depth="1" NCoef="0" IVar="0" Cut="9.1153259277343750e+00" cType="1" res="1.3666721060872078e-02" rms="3.7436994910240173e-01" purity="5.1076126098632812e-01" nType="0">
          <Node pos="l" depth="2" NCoef="0" IVar="-1" Cut="0.0000000000000000e+00" cType="1" res="4.1075083427131176e-03" rms="3.9079397916793823e-01" purity="4.9077257513999939e-01" nType="-99"/>
          <Node pos="r" depth="2" NCoef="0" IVar="-1" Cut="0.0000000000000000e+00" cType="1" res="-8.7562849512323737e-04" rms="3.4187832474708557e-01" purity="5.4682612419128418e-01" nType="-99"/>
        </Node>
        <Node pos="r" depth="1" NCoef="0" IVar="7" Cut="-2.6375192403793335e-01" cType="1" res="-4.5812164898961782e-04" rms="3.4177485108375549e-01" purity="4.9825689196586609e-01" nType="0">
          <Node pos="l" depth="2" NCoef="0" IVar="-1" Cut="0.0000000000000000e+00" cType="1" res="-4.1188267059624195e-03" rms="3.3891883492469788e-01" purity="5.0589120388031006e-01" nType="-99"/>
          <Node pos="r" depth="2" NCoef="0" IVar="-1" Cut="0.0000000000000000e+00" cType="1" res="1.4764498919248581e-03" rms="3.4285530447959900e-01" purity="4.9508845806121826e-01" nType="-99"/>
        </Node>
      </Node>
    </BinaryTree>
    <BinaryTree type="DecisionTree" boostWeight="1.0000000000000000e+00" itree="674">
      <Node pos="s" depth="0" NCoef="0" IVar="10" Cut="2.0000000000000000e+00" cType="1" res="-1.5330147289205343e-04" rms="2.6686048507690430e-01" purity="5.0189685821533203e-01" nType="0">
        <Node pos="l" depth="1" NCoef="0" IVar="4" Cut="2.7360904216766357e-01" cType="1" res="-3.6814720369875431e-03" rms="3.3891311287879944e-01" purity="5.5521869659423828e-01" nType="0">
          <Node pos="l" depth="2" NCoef="0" IVar="-1" Cut="0.0000000000000000e+00" cType="1" res="-2.1425746381282806e-03" rms="3.3151885867118835e-01" purity="5.7496780157089233e-01" nType="-99"/>
          <Node pos="r" depth="2" NCoef="0" IVar="-1" Cut="0.0000000000000000e+00" cType="1" res="2.8372693341225386e-03" rms="3.7382003664970398e-01" purity="4.5490771532058716e-01" nType="-99"/>
        </Node>
        <Node pos="r" depth="1" NCoef="0" IVar="3" Cut="-3.8757899403572083e-01" cType="1" res="6.3671576790511608e-03" rms="3.6106702685356140e-01" purity="4.4968143105506897e-01" nType="0">
          <Node pos="l" depth="2" NCoef="0" IVar="-1" Cut="0.0000000000000000e+00" cType="1" res="-3.0545436311513186e-03" rms="3.3534958958625793e-01" purity="6.1923187971115112e-01" nType="-99"/>
          <Node pos="r" depth="2" NCoef="0" IVar="-1" Cut="0.0000000000000000e+00" cType="1" res="3.4742404241114855e-03" rms="3.7093058228492737e-01" purity="3.8013118505477905e-01" nType="-99"/>
        </Node>
      </Node>
    </BinaryTree>
    <BinaryTree type="DecisionTree" boostWeight="1.0000000000000000e+00" itree="675">
      <Node pos="s" depth="0" NCoef="0" IVar="8" Cut="3.1087613105773926e-01" cType="1" res="2.5164573453366756e-03" rms="3.4744849801063538e-01" purity="5.0232958793640137e-01" nType="0">
        <Node pos="l" depth="1" NCoef="0" IVar="5" Cut="5.5540461540222168e+00" cType="1" res="4.1708238422870636e-03" rms="3.4674078226089478e-01" purity="5.0871133804321289e-01" nType="0">
          <Node pos="l" depth="2" NCoef="0" IVar="-1" Cut="0.0000000000000000e+00" cType="1" res="5.5454601533710957e-03" rms="3.7309175729751587e-01" purity="5.6385874748229980e-01" nType="-99"/>
          <Node pos="r" depth="2" NCoef="0" IVar="-1" Cut="0.0000000000000000e+00" cType="1" res="6.7084346665069461e-04" rms="3.4317746758460999e-01" purity="5.0166559219360352e-01" nType="-99"/>
        </Node>
        <Node pos="r" depth="1" NCoef="0" IVar="12" Cut="6.1827540397644043e-01" cType="1" res="-8.3188135176897049e-03" rms="3.5185623168945312e-01" purity="4.6053200960159302e-01" nType="0">
          <Node pos="l" depth="2" NCoef="0" IVar="-1" Cut="0.0000000000000000e+00" cType="1" res="1.2213470181450248e-03" rms="3.7935507297515869e-01" purity="7.0282202959060669e-01" nType="-99"/>
          <Node pos="r" depth="2" NCoef="0" IVar="-1" Cut="0.0000000000000000e+00" cType="1" res="-7.4980910867452621e-03" rms="3.1702357530593872e-01" purity="1.8416531383991241e-01" nType="-99"/>
        </Node>
      </Node>
    </BinaryTree>
    <BinaryTree type="DecisionTree" boostWeight="1.0000000000000000e+00" itree="676">
      <Node pos="s" depth="0" NCoef="0" IVar="6" Cut="-1.6518080234527588e+00" cType="1" res="1.1575446114875376e-04" rms="3.5033178329467773e-01" purity="5.0257498025894165e-01" nType="0">
        <Node pos="l" depth="1" NCoef="0" IVar="8" Cut="-5.7697242498397827e-01" cType="1" res="-2.3269969969987869e-03" rms="3.4398841857910156e-01" purity="5.3349977731704712e-01" nType="0">
          <Node pos="l" depth="2" NCoef="0" IVar="-1" Cut="0.0000000000000000e+00" cType="1" res="-2.5693944189697504e-03" rms="4.0060067176818848e-01" purity="5.2861219644546509e-01" nType="-99"/>
          <Node pos="r" depth="2" NCoef="0" IVar="-1" Cut="0.0000000000000000e+00" cType="1" res="-1.5103905752766877e-04" rms="3.3770269155502319e-01" purity="5.3399199247360229e-01" nType="-99"/>
        </Node>
        <Node pos="r" depth="1" NCoef="0" IVar="11" Cut="1.9040141999721527e-01" cType="1" res="1.4405833557248116e-02" rms="3.8504359126091003e-01" purity="3.2166519761085510e-01" nType="0">
          <Node pos="l" depth="2" NCoef="0" IVar="-1" Cut="0.0000000000000000e+00" cType="1" res="5.9928447008132935e-03" rms="3.6714345216751099e-01" purity="2.0523381233215332e-01" nType="-99"/>
          <Node pos="r" depth="2" NCoef="0" IVar="-1" Cut="0.0000000000000000e+00" cType="1" res="-1.0435481090098619e-03" rms="4.3215933442115784e-01" purity="6.5909659862518311e-01" nType="-99"/>
        </Node>
      </Node>
    </BinaryTree>
    <BinaryTree type="DecisionTree" boostWeight="1.0000000000000000e+00" itree="677">
      <Node pos="s" depth="0" NCoef="0" IVar="0" Cut="9.3525800704956055e+00" cType="1" res="-3.9030294865369797e-03" rms="3.5036492347717285e-01" purity="4.9744835495948792e-01" nType="0">
        <Node pos="l" depth="1" NCoef="0" IVar="12" Cut="9.0455442667007446e-01" cType="1" res="-8.4086740389466286e-03" rms="3.6599627137184143e-01" purity="4.4735938310623169e-01" nType="0">
          <Node pos="l" depth="2" NCoef="0" IVar="-1" Cut="0.0000000000000000e+00" cType="1" res="-2.8413594700396061e-03" rms="4.0211769938468933e-01" purity="5.8980053663253784e-01" nType="-99"/>
          <Node pos="r" depth="2" NCoef="0" IVar="-1" Cut="0.0000000000000000e+00" cType="1" res="3.3160747989313677e-05" rms="2.5061208009719849e-01" purity="8.2612663507461548e-02" nType="-99"/>
        </Node>
        <Node pos="r" depth="1" NCoef="0" IVar="6" Cut="-2.3339774608612061e+00" cType="1" res="2.9506708960980177e-03" rms="3.2503002882003784e-01" purity="5.7364040613174438e-01" nType="0">
          <Node pos="l" depth="2" NCoef="0" IVar="-1" Cut="0.0000000000000000e+00" cType="1" res="-7.5707392534241080e-04" rms="3.1827092170715332e-01" purity="6.1822885274887085e-01" nType="-99"/>
          <Node pos="r" depth="2" NCoef="0" IVar="-1" Cut="0.0000000000000000e+00" cType="1" res="4.9893851391971111e-03" rms="3.4303978085517883e-01" purity="4.4722950458526611e-01" nType="-99"/>
        </Node>
      </Node>
    </BinaryTree>
    <BinaryTree type="DecisionTree" boostWeight="1.0000000000000000e+00" itree="678">
      <Node pos="s" depth="0" NCoef="0" IVar="5" Cut="5.6882486343383789e+00" cType="1" res="1.1835021432489157e-03" rms="3.4958297014236450e-01" purity="4.9869462847709656e-01" nType="0">
        <Node pos="l" depth="1" NCoef="0" IVar="13" Cut="4.7087453305721283e-02" cType="1" res="1.3595720753073692e-02" rms="3.7155506014823914e-01" purity="5.5526185035705566e-01" nType="0">
          <Node pos="l" depth="2" NCoef="0" IVar="-1" Cut="0.0000000000000000e+00" cType="1" res="6.1715347692370415e-03" rms="4.0123000741004944e-01" purity="3.2930082082748413e-01" nType="-99"/>
          <Node pos="r" depth="2" NCoef="0" IVar="-1" Cut="0.0000000000000000e+00" cType="1" res="-4.6360708074644208e-04" rms="3.3720797300338745e-01" purity="7.9085743427276611e-01" nType="-99"/>
        </Node>
        <Node pos="r" depth="1" NCoef="0" IVar="12" Cut="6.6644793748855591e-01" cType="1" res="-8.2404800923541188e-04" rms="3.4585624933242798e-01" purity="4.8954543471336365e-01" nType="0">
          <Node pos="l" depth="2" NCoef="0" IVar="-1" Cut="0.0000000000000000e+00" cType="1" res="1.3198154047131538e-03" rms="3.6691367626190186e-01" purity="7.5727498531341553e-01" nType="-99"/>
          <Node pos="r" depth="2" NCoef="0" IVar="-1" Cut="0.0000000000000000e+00" cType="1" res="-2.3384829983115196e-03" rms="3.1892612576484680e-01" purity="1.7157672345638275e-01" nType="-99"/>
        </Node>
      </Node>
    </BinaryTree>
    <BinaryTree type="DecisionTree" boostWeight="1.0000000000000000e+00" itree="679">
      <Node pos="s" depth="0" NCoef="0" IVar="12" Cut="7.1404725313186646e-01" cType="1" res="-9.6634903457015753e-04" rms="3.4895554184913635e-01" purity="4.9700185656547546e-01" nType="0">
        <Node pos="l" depth="1" NCoef="0" IVar="6" Cut="-1.6701939105987549e+00" cType="1" res="-7.0498972199857235e-03" rms="3.6464139819145203e-01" purity="7.3383724689483643e-01" nType="0">
          <Node pos="l" depth="2" NCoef="0" IVar="-1" Cut="0.0000000000000000e+00" cType="1" res="-1.1252691037952900e-03" rms="3.5774385929107666e-01" purity="7.6551365852355957e-01" nType="-99"/>
          <Node pos="r" depth="2" NCoef="0" IVar="-1" Cut="0.0000000000000000e+00" cType="1" res="-7.0936656557023525e-03" rms="4.1567787528038025e-01" purity="4.7554579377174377e-01" nType="-99"/>
        </Node>
        <Node pos="r" depth="1" NCoef="0" IVar="12" Cut="9.8606318235397339e-01" cType="1" res="6.9303386844694614e-03" rms="3.2730737328529358e-01" purity="1.8958018720149994e-01" nType="0">
          <Node pos="l" depth="2" NCoef="0" IVar="-1" Cut="0.0000000000000000e+00" cType="1" res="3.1730569899082184e-03" rms="3.7636649608612061e-01" purity="2.5343263149261475e-01" nType="-99"/>
          <Node pos="r" depth="2" NCoef="0" IVar="-1" Cut="0.0000000000000000e+00" cType="1" res="-1.7874680459499359e-02" rms="9.9285483360290527e-02" purity="1.0273656807839870e-02" nType="-99"/>
        </Node>
      </Node>
    </BinaryTree>
    <BinaryTree type="DecisionTree" boostWeight="1.0000000000000000e+00" itree="680">
      <Node pos="s" depth="0" NCoef="0" IVar="1" Cut="4.9874033927917480e+00" cType="1" res="-6.7342707188799977e-04" rms="3.4804189205169678e-01" purity="5.0409311056137085e-01" nType="0">
        <Node pos="l" depth="1" NCoef="0" IVar="-1" Cut="0.0000000000000000e+00" cType="1" res="-5.2770460024476051e-03" rms="4.0742063522338867e-01" purity="2.3199158906936646e-01" nType="-99"/>
        <Node pos="r" depth="1" NCoef="0" IVar="3" Cut="5.3117513656616211e-01" cType="1" res="1.5795609215274453e-04" rms="3.4575325250625610e-01" purity="5.1360046863555908e-01" nType="0">
          <Node pos="l" depth="2" NCoef="0" IVar="-1" Cut="0.0000000000000000e+00" cType="1" res="-1.2296326458454132e-03" rms="3.2939630746841431e-01" purity="6.0183000564575195e-01" nType="-99"/>
          <Node pos="r" depth="2" NCoef="0" IVar="-1" Cut="0.0000000000000000e+00" cType="1" res="1.5864261658862233e-03" rms="3.6999064683914185e-01" purity="3.7454298138618469e-01" nType="-99"/>
        </Node>
      </Node>
    </BinaryTree>
    <BinaryTree type="DecisionTree" boostWeight="1.0000000000000000e+00" itree="681">
      <Node pos="s" depth="0" NCoef="0" IVar="9" Cut="3.0000000000000000e+00" cType="1" res="-6.7179970210418105e-04" rms="2.2841361165046692e-01" purity="4.9512249231338501e-01" nType="0">
        <Node pos="l" depth="1" NCoef="0" IVar="2" Cut="8.9639310836791992e+00" cType="1" res="8.7589686736464500e-03" rms="3.1482180953025818e-01" purity="6.4521658420562744e-01" nType="0">
          <Node pos="l" depth="2" NCoef="0" IVar="-1" Cut="0.0000000000000000e+00" cType="1" res="-2.0448619034141302e-03" rms="3.2732629776000977e-01" purity="6.0998350381851196e-01" nType="-99"/>
          <Node pos="r" depth="2" NCoef="0" IVar="-1" Cut="0.0000000000000000e+00" cType="1" res="8.2311844453215599e-03" rms="3.0661407113075256e-01" purity="6.6614377498626709e-01" nType="-99"/>
        </Node>
        <Node pos="r" depth="1" NCoef="0" IVar="7" Cut="-5.5233711004257202e-01" cType="1" res="-3.0776057392358780e-03" rms="3.5249656438827515e-01" purity="4.7066137194633484e-01" nType="0">
          <Node pos="l" depth="2" NCoef="0" IVar="-1" Cut="0.0000000000000000e+00" cType="1" res="-3.6505700554698706e-03" rms="3.5718062520027161e-01" purity="4.6742540597915649e-01" nType="-99"/>
          <Node pos="r" depth="2" NCoef="0" IVar="-1" Cut="0.0000000000000000e+00" cType="1" res="-2.3926267749629915e-04" rms="3.5138988494873047e-01" purity="4.7139209508895874e-01" nType="-99"/>
        </Node>
      </Node>
    </BinaryTree>
    <BinaryTree type="DecisionTree" boostWeight="1.0000000000000000e+00" itree="682">
      <Node pos="s" depth="0" NCoef="0" IVar="4" Cut="-2.7311773300170898e+00" cType="1" res="-1.4728965470567346e-03" rms="3.4846809506416321e-01" purity="5.0278174877166748e-01" nType="0">
        <Node pos="l" depth="1" NCoef="0" IVar="3" Cut="-8.1119768321514130e-02" cType="1" res="-2.1430777385830879e-02" rms="3.2166567444801331e-01" purity="5.7792037725448608e-01" nType="0">
          <Node pos="l" depth="2" NCoef="0" IVar="-1" Cut="0.0000000000000000e+00" cType="1" res="-3.6809041630476713e-03" rms="2.8302922844886780e-01" purity="7.6660948991775513e-01" nType="-99"/>
          <Node pos="r" depth="2" NCoef="0" IVar="-1" Cut="0.0000000000000000e+00" cType="1" res="-1.0825851000845432e-02" rms="3.5330754518508911e-01" purity="4.0241742134094238e-01" nType="-99"/>
        </Node>
        <Node pos="r" depth="1" NCoef="0" IVar="4" Cut="-2.3529129028320312e+00" cType="1" res="-1.9644791609607637e-04" rms="3.5007378458976746e-01" purity="4.9797615408897400e-01" nType="0">
          <Node pos="l" depth="2" NCoef="0" IVar="-1" Cut="0.0000000000000000e+00" cType="1" res="1.0956821963191032e-02" rms="2.9790255427360535e-01" purity="6.2734997272491455e-01" nType="-99"/>
          <Node pos="r" depth="2" NCoef="0" IVar="-1" Cut="0.0000000000000000e+00" cType="1" res="-3.3725093817338347e-04" rms="3.5152173042297363e-01" purity="4.9397620558738708e-01" nType="-99"/>
        </Node>
      </Node>
    </BinaryTree>
    <BinaryTree type="DecisionTree" boostWeight="1.0000000000000000e+00" itree="683">
      <Node pos="s" depth="0" NCoef="0" IVar="11" Cut="3.3328369259834290e-01" cType="1" res="-2.1912292577326298e-03" rms="3.4784516692161560e-01" purity="4.9900966882705688e-01" nType="0">
        <Node pos="l" depth="1" NCoef="0" IVar="12" Cut="4.2843466997146606e-01" cType="1" res="-6.3563128933310509e-03" rms="3.5384052991867065e-01" purity="2.4366873502731323e-01" nType="0">
          <Node pos="l" depth="2" NCoef="0" IVar="-1" Cut="0.0000000000000000e+00" cType="1" res="-9.5062730833888054e-03" rms="3.6848476529121399e-01" purity="3.0554679036140442e-01" nType="-99"/>
          <Node pos="r" depth="2" NCoef="0" IVar="-1" Cut="0.0000000000000000e+00" cType="1" res="-1.2423817533999681e-03" rms="3.5291245579719543e-01" purity="2.4020606279373169e-01" nType="-99"/>
        </Node>
        <Node pos="r" depth="1" NCoef="0" IVar="10" Cut="3.0000000000000000e+00" cType="1" res="6.9338188041001558e-05" rms="2.2218656539916992e-01" purity="8.4363400936126709e-01" nType="0">
          <Node pos="l" depth="2" NCoef="0" IVar="-1" Cut="0.0000000000000000e+00" cType="1" res="2.2463749628514051e-03" rms="3.2885989546775818e-01" purity="8.5663574934005737e-01" nType="-99"/>
          <Node pos="r" depth="2" NCoef="0" IVar="-1" Cut="0.0000000000000000e+00" cType="1" res="-5.8736284263432026e-03" rms="4.0616720914840698e-01" purity="7.5181716680526733e-01" nType="-99"/>
        </Node>
      </Node>
    </BinaryTree>
    <BinaryTree type="DecisionTree" boostWeight="1.0000000000000000e+00" itree="684">
      <Node pos="s" depth="0" NCoef="0" IVar="8" Cut="-4.5656114816665649e-01" cType="1" res="5.8104615891352296e-04" rms="3.4961876273155212e-01" purity="5.0270158052444458e-01" nType="0">
        <Node pos="l" depth="1" NCoef="0" IVar="7" Cut="1.1223331093788147e-01" cType="1" res="1.6097960993647575e-02" rms="3.8196861743927002e-01" purity="5.2144098281860352e-01" nType="0">
          <Node pos="l" depth="2" NCoef="0" IVar="-1" Cut="0.0000000000000000e+00" cType="1" res="4.5112478546798229e-03" rms="3.9756891131401062e-01" purity="5.5838078260421753e-01" nType="-99"/>
          <Node pos="r" depth="2" NCoef="0" IVar="-1" Cut="0.0000000000000000e+00" cType="1" res="-2.0471727475523949e-04" rms="3.6268073320388794e-01" purity="4.7954961657524109e-01" nType="-99"/>
        </Node>
        <Node pos="r" depth="1" NCoef="0" IVar="9" Cut="4.0986123085021973e+00" cType="1" res="1.0987488785758615e-03" rms="1.9530168175697327e-01" purity="4.9970456957817078e-01" nType="0">
          <Node pos="l" depth="2" NCoef="0" IVar="-1" Cut="0.0000000000000000e+00" cType="1" res="-5.6525896070525050e-04" rms="3.4262832999229431e-01" purity="5.0763744115829468e-01" nType="-99"/>
          <Node pos="r" depth="2" NCoef="0" IVar="-1" Cut="0.0000000000000000e+00" cType="1" res="-5.3911539725959301e-03" rms="3.7009686231613159e-01" purity="3.5347676277160645e-01" nType="-99"/>
        </Node>
      </Node>
    </BinaryTree>
    <BinaryTree type="DecisionTree" boostWeight="1.0000000000000000e+00" itree="685">
      <Node pos="s" depth="0" NCoef="0" IVar="8" Cut="-5.3513187170028687e-01" cType="1" res="-3.8692734669893980e-03" rms="3.4980750083923340e-01" purity="4.9749189615249634e-01" nType="0">
        <Node pos="l" depth="1" NCoef="0" IVar="1" Cut="6.2052097320556641e+00" cType="1" res="-1.6158405691385269e-02" rms="3.8292568922042847e-01" purity="4.9789530038833618e-01" nType="0">
          <Node pos="l" depth="2" NCoef="0" IVar="-1" Cut="0.0000000000000000e+00" cType="1" res="-4.7376556321978569e-03" rms="4.0653970837593079e-01" purity="3.8199970126152039e-01" nType="-99"/>
          <Node pos="r" depth="2" NCoef="0" IVar="-1" Cut="0.0000000000000000e+00" cType="1" res="1.4150245988275856e-04" rms="3.6225798726081848e-01" purity="5.8945864439010620e-01" nType="-99"/>
        </Node>
        <Node pos="r" depth="1" NCoef="0" IVar="0" Cut="1.0885105133056641e+01" cType="1" res="-2.4082772433757782e-03" rms="3.4563019871711731e-01" purity="4.9744391441345215e-01" nType="0">
          <Node pos="l" depth="2" NCoef="0" IVar="-1" Cut="0.0000000000000000e+00" cType="1" res="-5.4346176330000162e-04" rms="3.4313291311264038e-01" purity="4.9544143676757812e-01" nType="-99"/>
          <Node pos="r" depth="2" NCoef="0" IVar="-1" Cut="0.0000000000000000e+00" cType="1" res="-6.1941328458487988e-03" rms="4.0393921732902527e-01" purity="5.4899370670318604e-01" nType="-99"/>
        </Node>
      </Node>
    </BinaryTree>
    <BinaryTree type="DecisionTree" boostWeight="1.0000000000000000e+00" itree="686">
      <Node pos="s" depth="0" NCoef="0" IVar="6" Cut="-2.5174524784088135e+00" cType="1" res="8.9770404156297445e-04" rms="3.4856745600700378e-01" purity="5.0012338161468506e-01" nType="0">
        <Node pos="l" depth="1" NCoef="0" IVar="9" Cut="3.6931471824645996e+00" cType="1" res="2.6080107782036066e-03" rms="2.0903651416301727e-01" purity="5.7129061222076416e-01" nType="0">
          <Node pos="l" depth="2" NCoef="0" IVar="-1" Cut="0.0000000000000000e+00" cType="1" res="1.5557680744677782e-03" rms="3.2565867900848389e-01" purity="6.1408507823944092e-01" nType="-99"/>
          <Node pos="r" depth="2" NCoef="0" IVar="-1" Cut="0.0000000000000000e+00" cType="1" res="1.4961416600272059e-03" rms="3.5006704926490784e-01" purity="4.7753193974494934e-01" nType="-99"/>
        </Node>
        <Node pos="r" depth="1" NCoef="0" IVar="7" Cut="8.9759492874145508e-01" cType="1" res="-5.5801812559366226e-03" rms="3.7203127145767212e-01" purity="3.8256159424781799e-01" nType="0">
          <Node pos="l" depth="2" NCoef="0" IVar="-1" Cut="0.0000000000000000e+00" cType="1" res="-2.9120310209691525e-03" rms="3.7841647863388062e-01" purity="3.8950046896934509e-01" nType="-99"/>
          <Node pos="r" depth="2" NCoef="0" IVar="-1" Cut="0.0000000000000000e+00" cType="1" res="2.9277859721332788e-03" rms="3.5343423485755920e-01" purity="3.6347416043281555e-01" nType="-99"/>
        </Node>
      </Node>
    </BinaryTree>
    <BinaryTree type="DecisionTree" boostWeight="1.0000000000000000e+00" itree="687">
      <Node pos="s" depth="0" NCoef="0" IVar="4" Cut="5.5852097272872925e-01" cType="1" res="2.8343652375042439e-03" rms="3.4644410014152527e-01" purity="5.0193095207214355e-01" nType="0">
        <Node pos="l" depth="1" NCoef="0" IVar="9" Cut="3.6931471824645996e+00" cType="1" res="2.2674640640616417e-03" rms="2.2873584926128387e-01" purity="5.1261746883392334e-01" nType="0">
          <Node pos="l" depth="2" NCoef="0" IVar="-1" Cut="0.0000000000000000e+00" cType="1" res="1.0135006159543991e-03" rms="3.3530282974243164e-01" purity="5.5278676748275757e-01" nType="-99"/>
          <Node pos="r" depth="2" NCoef="0" IVar="-1" Cut="0.0000000000000000e+00" cType="1" res="2.5345601607114077e-03" rms="3.6221110820770264e-01" purity="4.2661133408546448e-01" nType="-99"/>
        </Node>
        <Node pos="r" depth="1" NCoef="0" IVar="7" Cut="2.0598059520125389e-02" cType="1" res="-2.2208385169506073e-02" rms="3.7927874922752380e-01" purity="3.4019324183464050e-01" nType="0">
          <Node pos="l" depth="2" NCoef="0" IVar="-1" Cut="0.0000000000000000e+00" cType="1" res="-3.4763358416967094e-04" rms="3.9425152540206909e-01" purity="3.7549138069152832e-01" nType="-99"/>
          <Node pos="r" depth="2" NCoef="0" IVar="-1" Cut="0.0000000000000000e+00" cType="1" res="-9.9403467029333115e-03" rms="3.6568647623062134e-01" purity="3.1127303838729858e-01" nType="-99"/>
        </Node>
      </Node>
    </BinaryTree>
    <BinaryTree type="DecisionTree" boostWeight="1.0000000000000000e+00" itree="688">
      <Node pos="s" depth="0" NCoef="0" IVar="4" Cut="-3.5369460582733154e+00" cType="1" res="3.8253541570156813e-03" rms="3.4903955459594727e-01" purity="5.0401329994201660e-01" nType="0">
        <Node pos="l" depth="1" NCoef="0" IVar="-1" Cut="0.0000000000000000e+00" cType="1" res="1.0742516256868839e-02" rms="3.0649727582931519e-01" purity="6.1527228355407715e-01" nType="-99"/>
        <Node pos="r" depth="1" NCoef="0" IVar="4" Cut="2.1388089656829834e-01" cType="1" res="3.0931283254176378e-03" rms="3.5012730956077576e-01" purity="5.0090050697326660e-01" nType="0">
          <Node pos="l" depth="2" NCoef="0" IVar="-1" Cut="0.0000000000000000e+00" cType="1" res="1.1305099906167015e-04" rms="3.4137889742851257e-01" purity="5.2488934993743896e-01" nType="-99"/>
          <Node pos="r" depth="2" NCoef="0" IVar="-1" Cut="0.0000000000000000e+00" cType="1" res="3.4340913407504559e-03" rms="3.8286688923835754e-01" purity="4.0514853596687317e-01" nType="-99"/>
        </Node>
      </Node>
    </BinaryTree>
    <BinaryTree type="DecisionTree" boostWeight="1.0000000000000000e+00" itree="689">
      <Node pos="s" depth="0" NCoef="0" IVar="6" Cut="-4.4796214103698730e+00" cType="1" res="-3.7652291357517242e-03" rms="3.4918820858001709e-01" purity="4.9551326036453247e-01" nType="0">
        <Node pos="l" depth="1" NCoef="0" IVar="-1" Cut="0.0000000000000000e+00" cType="1" res="5.4106861352920532e-03" rms="3.0107641220092773e-01" purity="6.2962561845779419e-01" nType="-99"/>
        <Node pos="r" depth="1" NCoef="0" IVar="1" Cut="5.4876079559326172e+00" cType="1" res="-4.7100218944251537e-03" rms="3.5138884186744690e-01" purity="4.8882380127906799e-01" nType="0">
          <Node pos="l" depth="2" NCoef="0" IVar="-1" Cut="0.0000000000000000e+00" cType="1" res="1.5493126120418310e-03" rms="4.0382230281829834e-01" purity="3.0223992466926575e-01" nType="-99"/>
          <Node pos="r" depth="2" NCoef="0" IVar="-1" Cut="0.0000000000000000e+00" cType="1" res="-2.0067894365638494e-03" rms="3.4298947453498840e-01" purity="5.1620084047317505e-01" nType="-99"/>
        </Node>
      </Node>
    </BinaryTree>
    <BinaryTree type="DecisionTree" boostWeight="1.0000000000000000e+00" itree="690">
      <Node pos="s" depth="0" NCoef="0" IVar="2" Cut="8.2616081237792969e+00" cType="1" res="-2.1227584220468998e-03" rms="3.5016345977783203e-01" purity="4.9713796377182007e-01" nType="0">
        <Node pos="l" depth="1" NCoef="0" IVar="-1" Cut="0.0000000000000000e+00" cType="1" res="-5.1893470808863640e-03" rms="3.5561451315879822e-01" purity="4.3728184700012207e-01" nType="-99"/>
        <Node pos="r" depth="1" NCoef="0" IVar="8" Cut="-5.3537660837173462e-01" cType="1" res="-3.8733822293579578e-04" rms="3.4970337152481079e-01" purity="5.0145071744918823e-01" nType="0">
          <Node pos="l" depth="2" NCoef="0" IVar="-1" Cut="0.0000000000000000e+00" cType="1" res="1.3263501459732652e-03" rms="4.0004709362983704e-01" purity="5.2784156799316406e-01" nType="-99"/>
          <Node pos="r" depth="2" NCoef="0" IVar="-1" Cut="0.0000000000000000e+00" cType="1" res="-6.4191874116659164e-04" rms="3.4314656257629395e-01" purity="4.9828600883483887e-01" nType="-99"/>
        </Node>
      </Node>
    </BinaryTree>
    <BinaryTree type="DecisionTree" boostWeight="1.0000000000000000e+00" itree="691">
      <Node pos="s" depth="0" NCoef="0" IVar="1" Cut="5.1873960494995117e+00" cType="1" res="-1.9243964925408363e-03" rms="3.4925723075866699e-01" purity="4.9649089574813843e-01" nType="0">
        <Node pos="l" depth="1" NCoef="0" IVar="0" Cut="8.3366594314575195e+00" cType="1" res="-2.3802667856216431e-02" rms="3.9763975143432617e-01" purity="2.4476987123489380e-01" nType="0">
          <Node pos="l" depth="2" NCoef="0" IVar="-1" Cut="0.0000000000000000e+00" cType="1" res="-1.0015627369284630e-02" rms="3.7697860598564148e-01" purity="2.0976743102073669e-01" nType="-99"/>
          <Node pos="r" depth="2" NCoef="0" IVar="-1" Cut="0.0000000000000000e+00" cType="1" res="4.5013980707153678e-04" rms="4.1932517290115356e-01" purity="2.8620120882987976e-01" nType="-99"/>
        </Node>
        <Node pos="r" depth="1" NCoef="0" IVar="0" Cut="7.8201389312744141e+00" cType="1" res="-5.4727442329749465e-04" rms="3.4593924880027771e-01" purity="5.1233541965484619e-01" nType="0">
          <Node pos="l" depth="2" NCoef="0" IVar="-1" Cut="0.0000000000000000e+00" cType="1" res="3.5310040693730116e-03" rms="4.6226328611373901e-01" purity="3.8973417878150940e-01" nType="-99"/>
          <Node pos="r" depth="2" NCoef="0" IVar="-1" Cut="0.0000000000000000e+00" cType="1" res="-4.5845014392398298e-04" rms="3.3986559510231018e-01" purity="5.1774305105209351e-01" nType="-99"/>
        </Node>
      </Node>
    </BinaryTree>
    <BinaryTree type="DecisionTree" boostWeight="1.0000000000000000e+00" itree="692">
      <Node pos="s" depth="0" NCoef="0" IVar="4" Cut="-2.9348032549023628e-02" cType="1" res="-1.2363889254629612e-03" rms="3.4928730130195618e-01" purity="4.9548295140266418e-01" nType="0">
        <Node pos="l" depth="1" NCoef="0" IVar="4" Cut="-1.7481583356857300e+00" cType="1" res="1.8952782265841961e-03" rms="3.3676797151565552e-01" purity="5.3748679161071777e-01" nType="0">
          <Node pos="l" depth="2" NCoef="0" IVar="-1" Cut="0.0000000000000000e+00" cType="1" res="-3.7929089739918709e-03" rms="3.2284602522850037e-01" purity="5.7113784551620483e-01" nType="-99"/>
          <Node pos="r" depth="2" NCoef="0" IVar="-1" Cut="0.0000000000000000e+00" cType="1" res="1.7559193074703217e-03" rms="3.4064075350761414e-01" purity="5.2766329050064087e-01" nType="-99"/>
        </Node>
        <Node pos="r" depth="1" NCoef="0" IVar="1" Cut="6.4209399223327637e+00" cType="1" res="-8.3099845796823502e-03" rms="3.7593826651573181e-01" purity="4.0060746669769287e-01" nType="0">
          <Node pos="l" depth="2" NCoef="0" IVar="-1" Cut="0.0000000000000000e+00" cType="1" res="3.1374421087093651e-04" rms="3.7839275598526001e-01" purity="3.4856519103050232e-01" nType="-99"/>
          <Node pos="r" depth="2" NCoef="0" IVar="-1" Cut="0.0000000000000000e+00" cType="1" res="-4.6654371544718742e-03" rms="3.7268137931823730e-01" purity="4.6247106790542603e-01" nType="-99"/>
        </Node>
      </Node>
    </BinaryTree>
    <BinaryTree type="DecisionTree" boostWeight="1.0000000000000000e+00" itree="693">
      <Node pos="s" depth="0" NCoef="0" IVar="0" Cut="1.0212663650512695e+01" cType="1" res="2.5163847021758556e-04" rms="3.4981483221054077e-01" purity="4.9947479367256165e-01" nType="0">
        <Node pos="l" depth="1" NCoef="0" IVar="5" Cut="7.9372825622558594e+00" cType="1" res="2.4195888545364141e-03" rms="3.4944924712181091e-01" purity="4.8933732509613037e-01" nType="0">
          <Node pos="l" depth="2" NCoef="0" IVar="-1" Cut="0.0000000000000000e+00" cType="1" res="4.1992243495769799e-04" rms="3.5030779242515564e-01" purity="4.9170449376106262e-01" nType="-99"/>
          <Node pos="r" depth="2" NCoef="0" IVar="-1" Cut="0.0000000000000000e+00" cType="1" res="7.8710708767175674e-03" rms="3.2965230941772461e-01" purity="4.3852296471595764e-01" nType="-99"/>
        </Node>
        <Node pos="r" depth="1" NCoef="0" IVar="4" Cut="-1.1566103696823120e+00" cType="1" res="-1.3809468597173691e-02" rms="3.5185259580612183e-01" purity="5.6522524356842041e-01" nType="0">
          <Node pos="l" depth="2" NCoef="0" IVar="-1" Cut="0.0000000000000000e+00" cType="1" res="5.4911863990128040e-03" rms="2.8388705849647522e-01" purity="7.3560863733291626e-01" nType="-99"/>
          <Node pos="r" depth="2" NCoef="0" IVar="-1" Cut="0.0000000000000000e+00" cType="1" res="-4.7615794464945793e-03" rms="3.6778202652931213e-01" purity="5.1891815662384033e-01" nType="-99"/>
        </Node>
      </Node>
    </BinaryTree>
    <BinaryTree type="DecisionTree" boostWeight="1.0000000000000000e+00" itree="694">
      <Node pos="s" depth="0" NCoef="0" IVar="1" Cut="6.2922458648681641e+00" cType="1" res="-1.4338354812934995e-03" rms="3.4754914045333862e-01" purity="5.0025743246078491e-01" nType="0">
        <Node pos="l" depth="1" NCoef="0" IVar="7" Cut="-5.0537919998168945e-01" cType="1" res="-6.9220629520714283e-03" rms="3.8094362616539001e-01" purity="3.7690559029579163e-01" nType="0">
          <Node pos="l" depth="2" NCoef="0" IVar="-1" Cut="0.0000000000000000e+00" cType="1" res="-7.1933888830244541e-03" rms="3.7800428271293640e-01" purity="3.6175486445426941e-01" nType="-99"/>
          <Node pos="r" depth="2" NCoef="0" IVar="-1" Cut="0.0000000000000000e+00" cType="1" res="-1.0303852468496189e-04" rms="3.8149198889732361e-01" purity="3.8108551502227783e-01" nType="-99"/>
        </Node>
        <Node pos="r" depth="1" NCoef="0" IVar="6" Cut="-3.0049881935119629e+00" cType="1" res="2.7909169439226389e-03" rms="3.1940937042236328e-01" purity="5.9521174430847168e-01" nType="0">
          <Node pos="l" depth="2" NCoef="0" IVar="-1" Cut="0.0000000000000000e+00" cType="1" res="2.9360910411924124e-03" rms="3.0977097153663635e-01" purity="6.3447338342666626e-01" nType="-99"/>
          <Node pos="r" depth="2" NCoef="0" IVar="-1" Cut="0.0000000000000000e+00" cType="1" res="-1.5356030780822039e-03" rms="3.3340477943420410e-01" purity="5.3539377450942993e-01" nType="-99"/>
        </Node>
      </Node>
    </BinaryTree>
    <BinaryTree type="DecisionTree" boostWeight="1.0000000000000000e+00" itree="695">
      <Node pos="s" depth="0" NCoef="0" IVar="13" Cut="1.9045877456665039e-01" cType="1" res="3.3208049717359245e-04" rms="3.4728574752807617e-01" purity="5.0099158287048340e-01" nType="0">
        <Node pos="l" depth="1" NCoef="0" IVar="11" Cut="9.5236830413341522e-02" cType="1" res="-3.1887318473309278e-03" rms="3.4462913870811462e-01" purity="3.6547294259071350e-01" nType="0">
          <Node pos="l" depth="2" NCoef="0" IVar="-1" Cut="0.0000000000000000e+00" cType="1" res="5.8465375332161784e-04" rms="3.0131790041923523e-01" purity="1.3406413793563843e-01" nType="-99"/>
          <Node pos="r" depth="2" NCoef="0" IVar="-1" Cut="0.0000000000000000e+00" cType="1" res="-2.1174231078475714e-03" rms="3.9754647016525269e-01" purity="6.9094610214233398e-01" nType="-99"/>
        </Node>
        <Node pos="r" depth="1" NCoef="0" IVar="3" Cut="2.2855989634990692e-01" cType="1" res="8.1121409311890602e-03" rms="3.5296073555946350e-01" purity="8.0045199394226074e-01" nType="0">
          <Node pos="l" depth="2" NCoef="0" IVar="-1" Cut="0.0000000000000000e+00" cType="1" res="-4.0715258364798501e-05" rms="2.9831799864768982e-01" purity="8.7803053855895996e-01" nType="-99"/>
          <Node pos="r" depth="2" NCoef="0" IVar="-1" Cut="0.0000000000000000e+00" cType="1" res="4.4973529875278473e-03" rms="4.1557699441909790e-01" purity="6.9507879018783569e-01" nType="-99"/>
        </Node>
      </Node>
    </BinaryTree>
    <BinaryTree type="DecisionTree" boostWeight="1.0000000000000000e+00" itree="696">
      <Node pos="s" depth="0" NCoef="0" IVar="7" Cut="8.2858914136886597e-01" cType="1" res="-7.6737359631806612e-04" rms="3.4814226627349854e-01" purity="4.9790519475936890e-01" nType="0">
        <Node pos="l" depth="1" NCoef="0" IVar="3" Cut="-1.9090945720672607e+00" cType="1" res="1.0275085223838687e-03" rms="3.4841361641883850e-01" purity="5.1741081476211548e-01" nType="0">
          <Node pos="l" depth="2" NCoef="0" IVar="-1" Cut="0.0000000000000000e+00" cType="1" res="8.9271161705255508e-03" rms="2.8016063570976257e-01" purity="7.5993448495864868e-01" nType="-99"/>
          <Node pos="r" depth="2" NCoef="0" IVar="-1" Cut="0.0000000000000000e+00" cType="1" res="-1.3236545783001930e-04" rms="3.5332036018371582e-01" purity="4.9777966737747192e-01" nType="-99"/>
        </Node>
        <Node pos="r" depth="1" NCoef="0" IVar="1" Cut="6.0265130996704102e+00" cType="1" res="-1.2493477202951908e-02" rms="3.4613543748855591e-01" purity="3.7047377228736877e-01" nType="0">
          <Node pos="l" depth="2" NCoef="0" IVar="-1" Cut="0.0000000000000000e+00" cType="1" res="-8.3072166889905930e-03" rms="3.6397957801818848e-01" purity="2.4727873504161835e-01" nType="-99"/>
          <Node pos="r" depth="2" NCoef="0" IVar="-1" Cut="0.0000000000000000e+00" cType="1" res="-1.0983406100422144e-03" rms="3.3612796664237976e-01" purity="4.3454414606094360e-01" nType="-99"/>
        </Node>
      </Node>
    </BinaryTree>
    <BinaryTree type="DecisionTree" boostWeight="1.0000000000000000e+00" itree="697">
      <Node pos="s" depth="0" NCoef="0" IVar="5" Cut="6.1221985816955566e+00" cType="1" res="6.8176892818883061e-04" rms="3.5028725862503052e-01" purity="4.9879422783851624e-01" nType="0">
        <Node pos="l" depth="1" NCoef="0" IVar="2" Cut="9.0959739685058594e+00" cType="1" res="-7.2627300396561623e-03" rms="3.6635893583297729e-01" purity="5.2519667148590088e-01" nType="0">
          <Node pos="l" depth="2" NCoef="0" IVar="-1" Cut="0.0000000000000000e+00" cType="1" res="-3.9253109134733677e-03" rms="3.8074561953544617e-01" purity="4.6049505472183228e-01" nType="-99"/>
          <Node pos="r" depth="2" NCoef="0" IVar="-1" Cut="0.0000000000000000e+00" cType="1" res="2.4646888487040997e-03" rms="3.4745261073112488e-01" purity="6.0462391376495361e-01" nType="-99"/>
        </Node>
        <Node pos="r" depth="1" NCoef="0" IVar="6" Cut="-2.7434630393981934e+00" cType="1" res="3.5564273130148649e-03" rms="3.4424188733100891e-01" purity="4.8924070596694946e-01" nType="0">
          <Node pos="l" depth="2" NCoef="0" IVar="-1" Cut="0.0000000000000000e+00" cType="1" res="-3.7883417098782957e-04" rms="3.3537894487380981e-01" purity="5.4872500896453857e-01" nType="-99"/>
          <Node pos="r" depth="2" NCoef="0" IVar="-1" Cut="0.0000000000000000e+00" cType="1" res="2.8731264173984528e-03" rms="3.5599794983863831e-01" purity="4.0721744298934937e-01" nType="-99"/>
        </Node>
      </Node>
    </BinaryTree>
    <BinaryTree type="DecisionTree" boostWeight="1.0000000000000000e+00" itree="698">
      <Node pos="s" depth="0" NCoef="0" IVar="8" Cut="3.6190280318260193e-01" cType="1" res="4.2057581595145166e-04" rms="3.4529155492782593e-01" purity="4.9776032567024231e-01" nType="0">
        <Node pos="l" depth="1" NCoef="0" IVar="0" Cut="8.0378952026367188e+00" cType="1" res="-1.1366374092176557e-03" rms="3.4459254145622253e-01" purity="4.9962189793586731e-01" nType="0">
          <Node pos="l" depth="2" NCoef="0" IVar="-1" Cut="0.0000000000000000e+00" cType="1" res="-3.1408513896167278e-03" rms="4.3033778667449951e-01" purity="3.4865942597389221e-01" nType="-99"/>
          <Node pos="r" depth="2" NCoef="0" IVar="-1" Cut="0.0000000000000000e+00" cType="1" res="2.2655419888906181e-04" rms="3.3206173777580261e-01" purity="5.1881796121597290e-01" nType="-99"/>
        </Node>
        <Node pos="r" depth="1" NCoef="0" IVar="12" Cut="7.6121753454208374e-01" cType="1" res="1.4237322844564915e-02" rms="3.5113027691841125e-01" purity="4.8124328255653381e-01" nType="0">
          <Node pos="l" depth="2" NCoef="0" IVar="-1" Cut="0.0000000000000000e+00" cType="1" res="7.2750621475279331e-03" rms="3.8121217489242554e-01" purity="6.3360494375228882e-01" nType="-99"/>
          <Node pos="r" depth="2" NCoef="0" IVar="-1" Cut="0.0000000000000000e+00" cType="1" res="-6.7148329690098763e-03" rms="2.6345753669738770e-01" purity="1.1695486307144165e-01" nType="-99"/>
        </Node>
      </Node>
    </BinaryTree>
    <BinaryTree type="DecisionTree" boostWeight="1.0000000000000000e+00" itree="699">
      <Node pos="s" depth="0" NCoef="0" IVar="12" Cut="7.1410638093948364e-01" cType="1" res="-2.1815388463437557e-03" rms="3.5023799538612366e-01" purity="4.9641421437263489e-01" nType="0">
        <Node pos="l" depth="1" NCoef="0" IVar="0" Cut="8.4721593856811523e+00" cType="1" res="-6.5785767510533333e-03" rms="3.6616900563240051e-01" purity="7.3275440931320190e-01" nType="0">
          <Node pos="l" depth="2" NCoef="0" IVar="-1" Cut="0.0000000000000000e+00" cType="1" res="-6.8990294821560383e-03" rms="4.1013711690902710e-01" purity="5.8652293682098389e-01" nType="-99"/>
          <Node pos="r" depth="2" NCoef="0" IVar="-1" Cut="0.0000000000000000e+00" cType="1" res="-5.6434422731399536e-04" rms="3.5620915889739990e-01" purity="7.6303237676620483e-01" nType="-99"/>
        </Node>
        <Node pos="r" depth="1" NCoef="0" IVar="8" Cut="-5.3432691097259521e-01" cType="1" res="3.5745329223573208e-03" rms="3.2812738418579102e-01" purity="1.8702614307403564e-01" nType="0">
          <Node pos="l" depth="2" NCoef="0" IVar="-1" Cut="0.0000000000000000e+00" cType="1" res="5.7967188768088818e-03" rms="4.0382817387580872e-01" purity="3.2331153750419617e-01" nType="-99"/>
          <Node pos="r" depth="2" NCoef="0" IVar="-1" Cut="0.0000000000000000e+00" cType="1" res="-4.9533223500475287e-04" rms="3.1680339574813843e-01" purity="1.6956527531147003e-01" nType="-99"/>
        </Node>
      </Node>
    </BinaryTree>
    <BinaryTree type="DecisionTree" boostWeight="1.0000000000000000e+00" itree="700">
      <Node pos="s" depth="0" NCoef="0" IVar="12" Cut="7.1404796838760376e-01" cType="1" res="-1.6389458905905485e-03" rms="3.5133874416351318e-01" purity="4.9926951527595520e-01" nType="0">
        <Node pos="l" depth="1" NCoef="0" IVar="1" Cut="6.2345442771911621e+00" cType="1" res="-5.5887792259454727e-03" rms="3.6823064088821411e-01" purity="7.3520231246948242e-01" nType="0">
          <Node pos="l" depth="2" NCoef="0" IVar="-1" Cut="0.0000000000000000e+00" cType="1" res="-4.8465556465089321e-03" rms="4.1870307922363281e-01" purity="6.1151087284088135e-01" nType="-99"/>
          <Node pos="r" depth="2" NCoef="0" IVar="-1" Cut="0.0000000000000000e+00" cType="1" res="5.2032715757377446e-05" rms="3.4679368138313293e-01" purity="7.8256380558013916e-01" nType="-99"/>
        </Node>
        <Node pos="r" depth="1" NCoef="0" IVar="5" Cut="6.7966027259826660e+00" cType="1" res="3.5517686046659946e-03" rms="3.2774683833122253e-01" purity="1.8921607732772827e-01" nType="0">
          <Node pos="l" depth="2" NCoef="0" IVar="-1" Cut="0.0000000000000000e+00" cType="1" res="2.8088409453630447e-03" rms="3.7407010793685913e-01" purity="2.5439971685409546e-01" nType="-99"/>
          <Node pos="r" depth="2" NCoef="0" IVar="-1" Cut="0.0000000000000000e+00" cType="1" res="-3.7184830289334059e-03" rms="2.3630441725254059e-01" purity="8.6194559931755066e-02" nType="-99"/>
        </Node>
      </Node>
    </BinaryTree>
    <BinaryTree type="DecisionTree" boostWeight="1.0000000000000000e+00" itree="701">
      <Node pos="s" depth="0" NCoef="0" IVar="6" Cut="-3.1562871932983398e+00" cType="1" res="2.2091085556894541e-03" rms="3.5089471936225891e-01" purity="5.0075113773345947e-01" nType="0">
        <Node pos="l" depth="1" NCoef="0" IVar="4" Cut="1.4583003520965576e-01" cType="1" res="-5.4524415172636509e-03" rms="3.2480803132057190e-01" purity="5.8323669433593750e-01" nType="0">
          <Node pos="l" depth="2" NCoef="0" IVar="-1" Cut="0.0000000000000000e+00" cType="1" res="-3.3883424475789070e-04" rms="3.1361928582191467e-01" purity="6.2471854686737061e-01" nType="-99"/>
          <Node pos="r" depth="2" NCoef="0" IVar="-1" Cut="0.0000000000000000e+00" cType="1" res="-6.0252603143453598e-03" rms="3.6580666899681091e-01" purity="4.1633483767509460e-01" nType="-99"/>
        </Node>
        <Node pos="r" depth="1" NCoef="0" IVar="5" Cut="8.1565322875976562e+00" cType="1" res="6.6439476795494556e-03" rms="3.6507073044776917e-01" purity="4.5300489664077759e-01" nType="0">
          <Node pos="l" depth="2" NCoef="0" IVar="-1" Cut="0.0000000000000000e+00" cType="1" res="1.3800369342789054e-03" rms="3.6387622356414795e-01" purity="4.5385143160820007e-01" nType="-99"/>
          <Node pos="r" depth="2" NCoef="0" IVar="-1" Cut="0.0000000000000000e+00" cType="1" res="7.1246754378080368e-03" rms="3.8236212730407715e-01" purity="4.3963456153869629e-01" nType="-99"/>
        </Node>
      </Node>
    </BinaryTree>
    <BinaryTree type="DecisionTree" boostWeight="1.0000000000000000e+00" itree="702">
      <Node pos="s" depth="0" NCoef="0" IVar="8" Cut="-6.6109555959701538e-01" cType="1" res="4.7997973160818219e-04" rms="3.4758251905441284e-01" purity="5.0428205728530884e-01" nType="0">
        <Node pos="l" depth="1" NCoef="0" IVar="-1" Cut="0.0000000000000000e+00" cType="1" res="-1.7886576242744923e-03" rms="4.0157973766326904e-01" purity="5.1513618230819702e-01" nType="-99"/>
        <Node pos="r" depth="1" NCoef="0" IVar="6" Cut="-3.6768398284912109e+00" cType="1" res="1.5954051632434130e-03" rms="3.4374502301216125e-01" purity="5.0357574224472046e-01" nType="0">
          <Node pos="l" depth="2" NCoef="0" IVar="-1" Cut="0.0000000000000000e+00" cType="1" res="3.8764325436204672e-03" rms="3.0962568521499634e-01" purity="6.1769700050354004e-01" nType="-99"/>
          <Node pos="r" depth="2" NCoef="0" IVar="-1" Cut="0.0000000000000000e+00" cType="1" res="-8.9581328211352229e-05" rms="3.5106706619262695e-01" purity="4.7743603587150574e-01" nType="-99"/>
        </Node>
      </Node>
    </BinaryTree>
    <BinaryTree type="DecisionTree" boostWeight="1.0000000000000000e+00" itree="703">
      <Node pos="s" depth="0" NCoef="0" IVar="0" Cut="1.0666245460510254e+01" cType="1" res="-2.3864947725087404e-03" rms="3.4802147746086121e-01" purity="4.9668824672698975e-01" nType="0">
        <Node pos="l" depth="1" NCoef="0" IVar="4" Cut="-3.2255703210830688e-01" cType="1" res="-8.0997269833460450e-04" rms="3.4591779112815857e-01" purity="4.9401909112930298e-01" nType="0">
          <Node pos="l" depth="2" NCoef="0" IVar="-1" Cut="0.0000000000000000e+00" cType="1" res="-2.0039596129208803e-03" rms="3.2968407869338989e-01" purity="5.3998070955276489e-01" nType="-99"/>
          <Node pos="r" depth="2" NCoef="0" IVar="-1" Cut="0.0000000000000000e+00" cType="1" res="1.5050583751872182e-03" rms="3.6553281545639038e-01" purity="4.3523401021957397e-01" nType="-99"/>
        </Node>
        <Node pos="r" depth="1" NCoef="0" IVar="1" Cut="7.4168357849121094e+00" cType="1" res="-2.6572357863187790e-02" rms="3.7800973653793335e-01" purity="5.3763645887374878e-01" nType="0">
          <Node pos="l" depth="2" NCoef="0" IVar="-1" Cut="0.0000000000000000e+00" cType="1" res="-2.5939708575606346e-03" rms="3.8485741615295410e-01" purity="5.3073567152023315e-01" nType="-99"/>
          <Node pos="r" depth="2" NCoef="0" IVar="-1" Cut="0.0000000000000000e+00" cType="1" res="-8.6659938097000122e-03" rms="3.7047192454338074e-01" purity="5.4455608129501343e-01" nType="-99"/>
        </Node>
      </Node>
    </BinaryTree>
    <BinaryTree type="DecisionTree" boostWeight="1.0000000000000000e+00" itree="704">
      <Node pos="s" depth="0" NCoef="0" IVar="0" Cut="1.0878161430358887e+01" cType="1" res="1.2833614600822330e-03" rms="3.5272297263145447e-01" purity="4.9786797165870667e-01" nType="0">
        <Node pos="l" depth="1" NCoef="0" IVar="0" Cut="7.7571282386779785e+00" cType="1" res="2.4710004217922688e-03" rms="3.5028082132339478e-01" purity="4.9659803509712219e-01" nType="0">
          <Node pos="l" depth="2" NCoef="0" IVar="-1" Cut="0.0000000000000000e+00" cType="1" res="6.0417898930609226e-03" rms="4.5629149675369263e-01" purity="3.7509471178054810e-01" nType="-99"/>
          <Node pos="r" depth="2" NCoef="0" IVar="-1" Cut="0.0000000000000000e+00" cType="1" res="4.1497059282846749e-04" rms="3.4573334455490112e-01" purity="5.0104272365570068e-01" nType="-99"/>
        </Node>
        <Node pos="r" depth="1" NCoef="0" IVar="-1" Cut="0.0000000000000000e+00" cType="1" res="-5.7327924296259880e-03" rms="4.0947023034095764e-01" purity="5.3058010339736938e-01" nType="-99"/>
      </Node>
    </BinaryTree>
    <BinaryTree type="DecisionTree" boostWeight="1.0000000000000000e+00" itree="705">
      <Node pos="s" depth="0" NCoef="0" IVar="12" Cut="5.2363783121109009e-01" cType="1" res="1.9600407686084509e-03" rms="3.4705030918121338e-01" purity="5.0402879714965820e-01" nType="0">
        <Node pos="l" depth="1" NCoef="0" IVar="4" Cut="4.6986857056617737e-01" cType="1" res="6.3563054427504539e-03" rms="3.4128347039222717e-01" purity="8.0394053459167480e-01" nType="0">
          <Node pos="l" depth="2" NCoef="0" IVar="-1" Cut="0.0000000000000000e+00" cType="1" res="1.4910264872014523e-03" rms="3.3408328890800476e-01" purity="8.1186765432357788e-01" nType="-99"/>
          <Node pos="r" depth="2" NCoef="0" IVar="-1" Cut="0.0000000000000000e+00" cType="1" res="7.5517054647207260e-03" rms="4.2874002456665039e-01" purity="6.9269865751266479e-01" nType="-99"/>
        </Node>
        <Node pos="r" depth="1" NCoef="0" IVar="11" Cut="1.8509234488010406e-01" cType="1" res="-1.8669056007638574e-03" rms="3.5194873809814453e-01" purity="2.4295571446418762e-01" nType="0">
          <Node pos="l" depth="2" NCoef="0" IVar="-1" Cut="0.0000000000000000e+00" cType="1" res="1.7795430903788656e-04" rms="3.3612534403800964e-01" purity="1.9233910739421844e-01" nType="-99"/>
          <Node pos="r" depth="2" NCoef="0" IVar="-1" Cut="0.0000000000000000e+00" cType="1" res="-3.5113967023789883e-03" rms="4.5294886827468872e-01" purity="6.2266570329666138e-01" nType="-99"/>
        </Node>
      </Node>
    </BinaryTree>
    <BinaryTree type="DecisionTree" boostWeight="1.0000000000000000e+00" itree="706">
      <Node pos="s" depth="0" NCoef="0" IVar="8" Cut="-5.7697242498397827e-01" cType="1" res="8.9599180500954390e-04" rms="3.4844791889190674e-01" purity="4.9966391921043396e-01" nType="0">
        <Node pos="l" depth="1" NCoef="0" IVar="-1" Cut="0.0000000000000000e+00" cType="1" res="2.2912097629159689e-03" rms="3.9154702425003052e-01" purity="5.3286045789718628e-01" nType="-99"/>
        <Node pos="r" depth="1" NCoef="0" IVar="5" Cut="5.8285341262817383e+00" cType="1" res="-8.9837686391547322e-04" rms="3.4391629695892334e-01" purity="4.9643597006797791e-01" nType="0">
          <Node pos="l" depth="2" NCoef="0" IVar="-1" Cut="0.0000000000000000e+00" cType="1" res="3.3493496011942625e-03" rms="3.6080601811408997e-01" purity="5.4986739158630371e-01" nType="-99"/>
          <Node pos="r" depth="2" NCoef="0" IVar="-1" Cut="0.0000000000000000e+00" cType="1" res="-1.1723048519343138e-03" rms="3.4024766087532043e-01" purity="4.8531311750411987e-01" nType="-99"/>
        </Node>
      </Node>
    </BinaryTree>
    <BinaryTree type="DecisionTree" boostWeight="1.0000000000000000e+00" itree="707">
      <Node pos="s" depth="0" NCoef="0" IVar="2" Cut="8.5902156829833984e+00" cType="1" res="1.1211896780878305e-03" rms="3.4617760777473450e-01" purity="4.9731016159057617e-01" nType="0">
        <Node pos="l" depth="1" NCoef="0" IVar="4" Cut="-7.6043039560317993e-01" cType="1" res="1.4358539134263992e-02" rms="3.5510361194610596e-01" purity="4.8004391789436340e-01" nType="0">
          <Node pos="l" depth="2" NCoef="0" IVar="-1" Cut="0.0000000000000000e+00" cType="1" res="-1.7968221800401807e-04" rms="3.3497950434684753e-01" purity="4.9141028523445129e-01" nType="-99"/>
          <Node pos="r" depth="2" NCoef="0" IVar="-1" Cut="0.0000000000000000e+00" cType="1" res="4.3128724209964275e-03" rms="3.6569055914878845e-01" purity="4.7363197803497314e-01" nType="-99"/>
        </Node>
        <Node pos="r" depth="1" NCoef="0" IVar="3" Cut="5.3118073940277100e-01" cType="1" res="-1.9067903049290180e-03" rms="3.4403172135353088e-01" purity="5.0125968456268311e-01" nType="0">
          <Node pos="l" depth="2" NCoef="0" IVar="-1" Cut="0.0000000000000000e+00" cType="1" res="7.9959904542192817e-04" rms="3.3098754286766052e-01" purity="5.9871453046798706e-01" nType="-99"/>
          <Node pos="r" depth="2" NCoef="0" IVar="-1" Cut="0.0000000000000000e+00" cType="1" res="-2.4803185369819403e-03" rms="3.6379548907279968e-01" purity="3.4568315744400024e-01" nType="-99"/>
        </Node>
      </Node>
    </BinaryTree>
    <BinaryTree type="DecisionTree" boostWeight="1.0000000000000000e+00" itree="708">
      <Node pos="s" depth="0" NCoef="0" IVar="12" Cut="3.3326241374015808e-01" cType="1" res="2.0347980316728354e-03" rms="3.4929242730140686e-01" purity="5.0168156623840332e-01" nType="0">
        <Node pos="l" depth="1" NCoef="0" IVar="5" Cut="8.0007486343383789e+00" cType="1" res="-4.6496982686221600e-03" rms="3.3409473299980164e-01" purity="8.1698042154312134e-01" nType="0">
          <Node pos="l" depth="2" NCoef="0" IVar="-1" Cut="0.0000000000000000e+00" cType="1" res="-3.3992889802902937e-04" rms="3.2418480515480042e-01" purity="8.3851391077041626e-01" nType="-99"/>
          <Node pos="r" depth="2" NCoef="0" IVar="-1" Cut="0.0000000000000000e+00" cType="1" res="-9.0161059051752090e-03" rms="4.0543264150619507e-01" purity="6.3926112651824951e-01" nType="-99"/>
        </Node>
        <Node pos="r" depth="1" NCoef="0" IVar="0" Cut="1.0666207313537598e+01" cType="1" res="6.4684213139116764e-03" rms="3.5894924402236938e-01" purity="2.9255345463752747e-01" nType="0">
          <Node pos="l" depth="2" NCoef="0" IVar="-1" Cut="0.0000000000000000e+00" cType="1" res="1.2438750127330422e-03" rms="3.5635343194007874e-01" purity="2.8112840652465820e-01" nType="-99"/>
          <Node pos="r" depth="2" NCoef="0" IVar="-1" Cut="0.0000000000000000e+00" cType="1" res="7.4464455246925354e-03" rms="3.9730325341224670e-01" purity="4.7817409038543701e-01" nType="-99"/>
        </Node>
      </Node>
    </BinaryTree>
    <BinaryTree type="DecisionTree" boostWeight="1.0000000000000000e+00" itree="709">
      <Node pos="s" depth="0" NCoef="0" IVar="9" Cut="3.6931471824645996e+00" cType="1" res="-8.9625839609652758e-04" rms="2.2632341086864471e-01" purity="5.0161314010620117e-01" nType="0">
        <Node pos="l" depth="1" NCoef="0" IVar="6" Cut="-2.6621127128601074e+00" cType="1" res="-8.5285981185734272e-05" rms="3.3871093392372131e-01" purity="5.4012721776962280e-01" nType="0">
          <Node pos="l" depth="2" NCoef="0" IVar="-1" Cut="0.0000000000000000e+00" cType="1" res="1.5798121457919478e-03" rms="3.2003176212310791e-01" purity="6.2211543321609497e-01" nType="-99"/>
          <Node pos="r" depth="2" NCoef="0" IVar="-1" Cut="0.0000000000000000e+00" cType="1" res="-1.7034980701282620e-03" rms="3.6147531867027283e-01" purity="4.3335542082786560e-01" nType="-99"/>
        </Node>
        <Node pos="r" depth="1" NCoef="0" IVar="5" Cut="5.5195631980895996e+00" cType="1" res="1.9829580560326576e-03" rms="3.6757087707519531e-01" purity="4.2137685418128967e-01" nType="0">
          <Node pos="l" depth="2" NCoef="0" IVar="-1" Cut="0.0000000000000000e+00" cType="1" res="1.1633831076323986e-02" rms="3.9264869689941406e-01" purity="4.9391657114028931e-01" nType="-99"/>
          <Node pos="r" depth="2" NCoef="0" IVar="-1" Cut="0.0000000000000000e+00" cType="1" res="-6.3642155146226287e-04" rms="3.6436328291893005e-01" purity="4.1291609406471252e-01" nType="-99"/>
        </Node>
      </Node>
    </BinaryTree>
    <BinaryTree type="DecisionTree" boostWeight="1.0000000000000000e+00" itree="710">
      <Node pos="s" depth="0" NCoef="0" IVar="0" Cut="8.2579898834228516e+00" cType="1" res="-3.6293527227826416e-04" rms="3.4851184487342834e-01" purity="4.9839252233505249e-01" nType="0">
        <Node pos="l" depth="1" NCoef="0" IVar="10" Cut="2.0000000000000000e+00" cType="1" res="-5.1249521784484386e-03" rms="2.3067371547222137e-01" purity="3.7051779031753540e-01" nType="0">
          <Node pos="l" depth="2" NCoef="0" IVar="-1" Cut="0.0000000000000000e+00" cType="1" res="-5.1323035731911659e-03" rms="4.1920647025108337e-01" purity="4.1842409968376160e-01" nType="-99"/>
          <Node pos="r" depth="2" NCoef="0" IVar="-1" Cut="0.0000000000000000e+00" cType="1" res="-2.0651338854804635e-04" rms="4.1157802939414978e-01" purity="3.2742187380790710e-01" nType="-99"/>
        </Node>
        <Node pos="r" depth="1" NCoef="0" IVar="8" Cut="-5.4523211717605591e-01" cType="1" res="2.4125743657350540e-03" rms="3.3095705509185791e-01" purity="5.2815002202987671e-01" nType="0">
          <Node pos="l" depth="2" NCoef="0" IVar="-1" Cut="0.0000000000000000e+00" cType="1" res="2.7877551037818193e-03" rms="3.7306514382362366e-01" purity="5.6338292360305786e-01" nType="-99"/>
          <Node pos="r" depth="2" NCoef="0" IVar="-1" Cut="0.0000000000000000e+00" cType="1" res="1.0620590910548344e-04" rms="3.2653287053108215e-01" purity="5.2475500106811523e-01" nType="-99"/>
        </Node>
      </Node>
    </BinaryTree>
    <BinaryTree type="DecisionTree" boostWeight="1.0000000000000000e+00" itree="711">
      <Node pos="s" depth="0" NCoef="0" IVar="8" Cut="-5.8428573608398438e-01" cType="1" res="4.7823230852372944e-04" rms="3.4602972865104675e-01" purity="5.0022774934768677e-01" nType="0">
        <Node pos="l" depth="1" NCoef="0" IVar="-1" Cut="0.0000000000000000e+00" cType="1" res="2.9956190846860409e-03" rms="3.9317187666893005e-01" purity="5.3383713960647583e-01" nType="-99"/>
        <Node pos="r" depth="1" NCoef="0" IVar="1" Cut="7.8838047981262207e+00" cType="1" res="-1.8020384013652802e-03" rms="3.4114065766334534e-01" purity="4.9704554677009583e-01" nType="0">
          <Node pos="l" depth="2" NCoef="0" IVar="-1" Cut="0.0000000000000000e+00" cType="1" res="-9.2566275270655751e-04" rms="3.4166628122329712e-01" purity="4.9267479777336121e-01" nType="-99"/>
          <Node pos="r" depth="2" NCoef="0" IVar="-1" Cut="0.0000000000000000e+00" cType="1" res="8.3569493144750595e-03" rms="3.2289832830429077e-01" purity="6.3646131753921509e-01" nType="-99"/>
        </Node>
      </Node>
    </BinaryTree>
    <BinaryTree type="DecisionTree" boostWeight="1.0000000000000000e+00" itree="712">
      <Node pos="s" depth="0" NCoef="0" IVar="5" Cut="5.7290730476379395e+00" cType="1" res="-3.4758102265186608e-04" rms="3.4536558389663696e-01" purity="4.9978831410408020e-01" nType="0">
        <Node pos="l" depth="1" NCoef="0" IVar="1" Cut="6.0041952133178711e+00" cType="1" res="-1.5569488517940044e-02" rms="3.6607417464256287e-01" purity="5.2976876497268677e-01" nType="0">
          <Node pos="l" depth="2" NCoef="0" IVar="-1" Cut="0.0000000000000000e+00" cType="1" res="-7.1851005777716637e-03" rms="4.1210961341857910e-01" purity="3.6114713549613953e-01" nType="-99"/>
          <Node pos="r" depth="2" NCoef="0" IVar="-1" Cut="0.0000000000000000e+00" cType="1" res="6.7620254121720791e-03" rms="2.7485749125480652e-01" purity="7.9900872707366943e-01" nType="-99"/>
        </Node>
        <Node pos="r" depth="1" NCoef="0" IVar="12" Cut="9.0445977449417114e-01" cType="1" res="2.3114623036235571e-03" rms="3.4154972434043884e-01" purity="4.9455109238624573e-01" nType="0">
          <Node pos="l" depth="2" NCoef="0" IVar="-1" Cut="0.0000000000000000e+00" cType="1" res="1.3777026906609535e-03" rms="3.8026204705238342e-01" purity="6.5277624130249023e-01" nType="-99"/>
          <Node pos="r" depth="2" NCoef="0" IVar="-1" Cut="0.0000000000000000e+00" cType="1" res="-5.4140943102538586e-03" rms="1.9249305129051208e-01" purity="4.4402580708265305e-02" nType="-99"/>
        </Node>
      </Node>
    </BinaryTree>
    <BinaryTree type="DecisionTree" boostWeight="1.0000000000000000e+00" itree="713">
      <Node pos="s" depth="0" NCoef="0" IVar="6" Cut="-4.1240139007568359e+00" cType="1" res="-5.1904172869399190e-04" rms="3.4894612431526184e-01" purity="4.9912258982658386e-01" nType="0">
        <Node pos="l" depth="1" NCoef="0" IVar="1" Cut="6.7649421691894531e+00" cType="1" res="1.4731167815625668e-02" rms="3.1876629590988159e-01" purity="6.2008273601531982e-01" nType="0">
          <Node pos="l" depth="2" NCoef="0" IVar="-1" Cut="0.0000000000000000e+00" cType="1" res="7.1776648983359337e-03" rms="3.5657900571823120e-01" purity="5.5674648284912109e-01" nType="-99"/>
          <Node pos="r" depth="2" NCoef="0" IVar="-1" Cut="0.0000000000000000e+00" cType="1" res="2.4817567318677902e-03" rms="2.9577431082725525e-01" purity="6.5459322929382324e-01" nType="-99"/>
        </Node>
        <Node pos="r" depth="1" NCoef="0" IVar="9" Cut="3.6931471824645996e+00" cType="1" res="-1.7745107179507613e-03" rms="2.3236961662769318e-01" purity="4.8697873950004578e-01" nType="0">
          <Node pos="l" depth="2" NCoef="0" IVar="-1" Cut="0.0000000000000000e+00" cType="1" res="-8.0146070104092360e-04" rms="3.4360161423683167e-01" purity="5.2360409498214722e-01" nType="-99"/>
          <Node pos="r" depth="2" NCoef="0" IVar="-1" Cut="0.0000000000000000e+00" cType="1" res="-1.7921893231687136e-05" rms="3.6866778135299683e-01" purity="4.0882104635238647e-01" nType="-99"/>
        </Node>
      </Node>
    </BinaryTree>
    <BinaryTree type="DecisionTree" boostWeight="1.0000000000000000e+00" itree="714">
      <Node pos="s" depth="0" NCoef="0" IVar="7" Cut="-1.2643727064132690e+00" cType="1" res="9.4705360243096948e-04" rms="3.4766316413879395e-01" purity="4.9958825111389160e-01" nType="0">
        <Node pos="l" depth="1" NCoef="0" IVar="-1" Cut="0.0000000000000000e+00" cType="1" res="-6.7520197480916977e-03" rms="3.4306409955024719e-01" purity="4.7714868187904358e-01" nType="-99"/>
        <Node pos="r" depth="1" NCoef="0" IVar="7" Cut="-3.3273097872734070e-01" cType="1" res="2.1767471916973591e-03" rms="3.4785765409469604e-01" purity="5.0075912475585938e-01" nType="0">
          <Node pos="l" depth="2" NCoef="0" IVar="-1" Cut="0.0000000000000000e+00" cType="1" res="3.5037037450820208e-03" rms="3.4990066289901733e-01" purity="5.3288513422012329e-01" nType="-99"/>
          <Node pos="r" depth="2" NCoef="0" IVar="-1" Cut="0.0000000000000000e+00" cType="1" res="-2.3972944472916424e-04" rms="3.4718766808509827e-01" purity="4.9113073945045471e-01" nType="-99"/>
        </Node>
      </Node>
    </BinaryTree>
    <BinaryTree type="DecisionTree" boostWeight="1.0000000000000000e+00" itree="715">
      <Node pos="s" depth="0" NCoef="0" IVar="3" Cut="8.3801364898681641e-01" cType="1" res="3.9961142465472221e-04" rms="3.4940677881240845e-01" purity="5.0118041038513184e-01" nType="0">
        <Node pos="l" depth="1" NCoef="0" IVar="12" Cut="2.3803581297397614e-01" cType="1" res="3.2243852037936449e-03" rms="3.4339314699172974e-01" purity="5.4860055446624756e-01" nType="0">
          <Node pos="l" depth="2" NCoef="0" IVar="-1" Cut="0.0000000000000000e+00" cType="1" res="-1.5809540636837482e-03" rms="3.0795544385910034e-01" purity="8.5695308446884155e-01" nType="-99"/>
          <Node pos="r" depth="2" NCoef="0" IVar="-1" Cut="0.0000000000000000e+00" cType="1" res="2.0440269727259874e-03" rms="3.6433902382850647e-01" purity="3.4991055727005005e-01" nType="-99"/>
        </Node>
        <Node pos="r" depth="1" NCoef="0" IVar="3" Cut="1.1009111404418945e+00" cType="1" res="-8.9817950502038002e-03" rms="3.6852025985717773e-01" purity="3.4369254112243652e-01" nType="0">
          <Node pos="l" depth="2" NCoef="0" IVar="-1" Cut="0.0000000000000000e+00" cType="1" res="-8.4225565660744905e-04" rms="3.7006071209907532e-01" purity="3.4958320856094360e-01" nType="-99"/>
          <Node pos="r" depth="2" NCoef="0" IVar="-1" Cut="0.0000000000000000e+00" cType="1" res="-1.0128749534487724e-02" rms="3.5942640900611877e-01" purity="3.1426820158958435e-01" nType="-99"/>
        </Node>
      </Node>
    </BinaryTree>
    <BinaryTree type="DecisionTree" boostWeight="1.0000000000000000e+00" itree="716">
      <Node pos="s" depth="0" NCoef="0" IVar="5" Cut="5.7045416831970215e+00" cType="1" res="-1.0873688006540760e-04" rms="3.4834828972816467e-01" purity="4.9868336319923401e-01" nType="0">
        <Node pos="l" depth="1" NCoef="0" IVar="12" Cut="5.7096266746520996e-01" cType="1" res="1.4882373623549938e-02" rms="3.6810600757598877e-01" purity="5.5180162191390991e-01" nType="0">
          <Node pos="l" depth="2" NCoef="0" IVar="-1" Cut="0.0000000000000000e+00" cType="1" res="-1.5522068133577704e-03" rms="2.7563005685806274e-01" purity="8.5654383897781372e-01" nType="-99"/>
          <Node pos="r" depth="2" NCoef="0" IVar="-1" Cut="0.0000000000000000e+00" cType="1" res="5.3750686347484589e-03" rms="4.1179299354553223e-01" purity="3.7591955065727234e-01" nType="-99"/>
        </Node>
        <Node pos="r" depth="1" NCoef="0" IVar="2" Cut="9.0013980865478516e+00" cType="1" res="-2.6889001019299030e-03" rms="3.4476783871650696e-01" purity="4.8954099416732788e-01" nType="0">
          <Node pos="l" depth="2" NCoef="0" IVar="-1" Cut="0.0000000000000000e+00" cType="1" res="-1.9247422460466623e-03" rms="3.4900170564651489e-01" purity="4.7435024380683899e-01" nType="-99"/>
          <Node pos="r" depth="2" NCoef="0" IVar="-1" Cut="0.0000000000000000e+00" cType="1" res="6.1712076421827078e-04" rms="3.4131109714508057e-01" purity="5.0159442424774170e-01" nType="-99"/>
        </Node>
      </Node>
    </BinaryTree>
    <BinaryTree type="DecisionTree" boostWeight="1.0000000000000000e+00" itree="717">
      <Node pos="s" depth="0" NCoef="0" IVar="6" Cut="-9.6030443906784058e-01" cType="1" res="-1.3537984341382980e-03" rms="3.5089242458343506e-01" purity="5.0015801191329956e-01" nType="0">
        <Node pos="l" depth="1" NCoef="0" IVar="12" Cut="3.3322578668594360e-01" cType="1" res="2.8766944888047874e-04" rms="3.4968021512031555e-01" purity="5.1665240526199341e-01" nType="0">
          <Node pos="l" depth="2" NCoef="0" IVar="-1" Cut="0.0000000000000000e+00" cType="1" res="-1.9912223797291517e-03" rms="3.3680257201194763e-01" purity="8.1875634193420410e-01" nType="-99"/>
          <Node pos="r" depth="2" NCoef="0" IVar="-1" Cut="0.0000000000000000e+00" cType="1" res="1.2196748284623027e-03" rms="3.5853880643844604e-01" purity="3.0082350969314575e-01" nType="-99"/>
        </Node>
        <Node pos="r" depth="1" NCoef="0" IVar="0" Cut="8.5541629791259766e+00" cType="1" res="-2.8852159157395363e-02" rms="3.6952787637710571e-01" purity="2.2383995354175568e-01" nType="0">
          <Node pos="l" depth="2" NCoef="0" IVar="-1" Cut="0.0000000000000000e+00" cType="1" res="-1.1518604122102261e-02" rms="3.8276666402816772e-01" purity="1.9161945581436157e-01" nType="-99"/>
          <Node pos="r" depth="2" NCoef="0" IVar="-1" Cut="0.0000000000000000e+00" cType="1" res="-3.9182621985673904e-03" rms="3.5626280307769775e-01" purity="2.5345224142074585e-01" nType="-99"/>
        </Node>
      </Node>
    </BinaryTree>
    <BinaryTree type="DecisionTree" boostWeight="1.0000000000000000e+00" itree="718">
      <Node pos="s" depth="0" NCoef="0" IVar="7" Cut="-9.5468771457672119e-01" cType="1" res="-3.4682551631703973e-04" rms="3.5132893919944763e-01" purity="5.0249934196472168e-01" nType="0">
        <Node pos="l" depth="1" NCoef="0" IVar="6" Cut="-4.1166000366210938e+00" cType="1" res="2.4440171197056770e-02" rms="3.5171470046043396e-01" purity="5.3026419878005981e-01" nType="0">
          <Node pos="l" depth="2" NCoef="0" IVar="-1" Cut="0.0000000000000000e+00" cType="1" res="1.5021270373836160e-03" rms="3.2347840070724487e-01" purity="5.7982879877090454e-01" nType="-99"/>
          <Node pos="r" depth="2" NCoef="0" IVar="-1" Cut="0.0000000000000000e+00" cType="1" res="1.2984372675418854e-02" rms="3.8549625873565674e-01" purity="4.6235057711601257e-01" nType="-99"/>
        </Node>
        <Node pos="r" depth="1" NCoef="0" IVar="4" Cut="-1.0428786277770996e+00" cType="1" res="-2.7764113619923592e-03" rms="3.5119697451591492e-01" purity="4.9977785348892212e-01" nType="0">
          <Node pos="l" depth="2" NCoef="0" IVar="-1" Cut="0.0000000000000000e+00" cType="1" res="2.1853456273674965e-03" rms="3.3216217160224915e-01" purity="5.8959323167800903e-01" nType="-99"/>
          <Node pos="r" depth="2" NCoef="0" IVar="-1" Cut="0.0000000000000000e+00" cType="1" res="-1.8749256851151586e-03" rms="3.5904136300086975e-01" purity="4.6097049117088318e-01" nType="-99"/>
        </Node>
      </Node>
    </BinaryTree>
    <BinaryTree type="DecisionTree" boostWeight="1.0000000000000000e+00" itree="719">
      <Node pos="s" depth="0" NCoef="0" IVar="1" Cut="6.2394404411315918e+00" cType="1" res="4.4644373701885343e-04" rms="3.5207986831665039e-01" purity="5.0200027227401733e-01" nType="0">
        <Node pos="l" depth="1" NCoef="0" IVar="3" Cut="-1.5816758871078491e+00" cType="1" res="6.9147162139415741e-03" rms="3.8667616248130798e-01" purity="3.8591906428337097e-01" nType="0">
          <Node pos="l" depth="2" NCoef="0" IVar="-1" Cut="0.0000000000000000e+00" cType="1" res="-5.8883661404252052e-03" rms="3.9326751232147217e-01" purity="5.0206065177917480e-01" nType="-99"/>
          <Node pos="r" depth="2" NCoef="0" IVar="-1" Cut="0.0000000000000000e+00" cType="1" res="2.4425615556538105e-03" rms="3.8602259755134583e-01" purity="3.7628445029258728e-01" nType="-99"/>
        </Node>
        <Node pos="r" depth="1" NCoef="0" IVar="0" Cut="8.2575511932373047e+00" cType="1" res="-3.9679305627942085e-03" rms="3.2629680633544922e-01" purity="5.8122169971466064e-01" nType="0">
          <Node pos="l" depth="2" NCoef="0" IVar="-1" Cut="0.0000000000000000e+00" cType="1" res="-6.2957275658845901e-03" rms="4.1012933850288391e-01" purity="4.3495720624923706e-01" nType="-99"/>
          <Node pos="r" depth="2" NCoef="0" IVar="-1" Cut="0.0000000000000000e+00" cType="1" res="-6.5171899041160941e-04" rms="3.1724300980567932e-01" purity="5.9490501880645752e-01" nType="-99"/>
        </Node>
      </Node>
    </BinaryTree>
    <BinaryTree type="DecisionTree" boostWeight="1.0000000000000000e+00" itree="720">
      <Node pos="s" depth="0" NCoef="0" IVar="2" Cut="8.1078567504882812e+00" cType="1" res="6.6123745637014508e-04" rms="3.4798020124435425e-01" purity="5.0152462720870972e-01" nType="0">
        <Node pos="l" depth="1" NCoef="0" IVar="-1" Cut="0.0000000000000000e+00" cType="1" res="4.3365443125367165e-03" rms="3.4580984711647034e-01" purity="4.7822329401969910e-01" nType="-99"/>
        <Node pos="r" depth="1" NCoef="0" IVar="4" Cut="-1.4130135774612427e+00" cType="1" res="-2.4707693955861032e-04" rms="3.4804242849349976e-01" purity="5.0250965356826782e-01" nType="0">
          <Node pos="l" depth="2" NCoef="0" IVar="-1" Cut="0.0000000000000000e+00" cType="1" res="-3.2683240715414286e-03" rms="3.2690051198005676e-01" purity="5.7766562700271606e-01" nType="-99"/>
          <Node pos="r" depth="2" NCoef="0" IVar="-1" Cut="0.0000000000000000e+00" cType="1" res="6.3000782392919064e-04" rms="3.5361346602439880e-01" purity="4.8178777098655701e-01" nType="-99"/>
        </Node>
      </Node>
    </BinaryTree>
    <BinaryTree type="DecisionTree" boostWeight="1.0000000000000000e+00" itree="721">
      <Node pos="s" depth="0" NCoef="0" IVar="10" Cut="2.0000000000000000e+00" cType="1" res="-7.9466291936114430e-04" rms="2.6645866036415100e-01" purity="5.0178754329681396e-01" nType="0">
        <Node pos="l" depth="1" NCoef="0" IVar="8" Cut="-4.3617504835128784e-01" cType="1" res="-7.0255305618047714e-03" rms="3.4146234393119812e-01" purity="5.5489355325698853e-01" nType="0">
          <Node pos="l" depth="2" NCoef="0" IVar="-1" Cut="0.0000000000000000e+00" cType="1" res="-3.8527119904756546e-03" rms="3.8546645641326904e-01" purity="5.3348618745803833e-01" nType="-99"/>
          <Node pos="r" depth="2" NCoef="0" IVar="-1" Cut="0.0000000000000000e+00" cType="1" res="-1.3180235400795937e-03" rms="3.3250322937965393e-01" purity="5.5888265371322632e-01" nType="-99"/>
        </Node>
        <Node pos="r" depth="1" NCoef="0" IVar="2" Cut="9.4508819580078125e+00" cType="1" res="4.7668796032667160e-03" rms="3.5992899537086487e-01" purity="4.4986674189567566e-01" nType="0">
          <Node pos="l" depth="2" NCoef="0" IVar="-1" Cut="0.0000000000000000e+00" cType="1" res="3.3627150696702302e-04" rms="3.6131969094276428e-01" purity="4.4243338704109192e-01" nType="-99"/>
          <Node pos="r" depth="2" NCoef="0" IVar="-1" Cut="0.0000000000000000e+00" cType="1" res="9.3217594549059868e-03" rms="3.5418882966041565e-01" purity="4.7849929332733154e-01" nType="-99"/>
        </Node>
      </Node>
    </BinaryTree>
    <BinaryTree type="DecisionTree" boostWeight="1.0000000000000000e+00" itree="722">
      <Node pos="s" depth="0" NCoef="0" IVar="0" Cut="1.0666245460510254e+01" cType="1" res="-3.3572292886674404e-03" rms="3.4798893332481384e-01" purity="4.9332401156425476e-01" nType="0">
        <Node pos="l" depth="1" NCoef="0" IVar="0" Cut="8.1849403381347656e+00" cType="1" res="-1.3675703667104244e-03" rms="3.4604111313819885e-01" purity="4.9143540859222412e-01" nType="0">
          <Node pos="l" depth="2" NCoef="0" IVar="-1" Cut="0.0000000000000000e+00" cType="1" res="-3.3004514407366514e-03" rms="4.1765773296356201e-01" purity="3.5823568701744080e-01" nType="-99"/>
          <Node pos="r" depth="2" NCoef="0" IVar="-1" Cut="0.0000000000000000e+00" cType="1" res="5.0195906078442931e-04" rms="3.2929092645645142e-01" purity="5.1886916160583496e-01" nType="-99"/>
        </Node>
        <Node pos="r" depth="1" NCoef="0" IVar="-1" Cut="0.0000000000000000e+00" cType="1" res="-7.9575609415769577e-03" rms="3.7679642438888550e-01" purity="5.2404767274856567e-01" nType="-99"/>
      </Node>
    </BinaryTree>
    <BinaryTree type="DecisionTree" boostWeight="1.0000000000000000e+00" itree="723">
      <Node pos="s" depth="0" NCoef="0" IVar="7" Cut="1.1916490793228149e+00" cType="1" res="2.9382004868239164e-04" rms="3.4757888317108154e-01" purity="5.0071382522583008e-01" nType="0">
        <Node pos="l" depth="1" NCoef="0" IVar="7" Cut="-2.8227972984313965e-01" cType="1" res="1.7007354181259871e-03" rms="3.4818994998931885e-01" purity="5.1433420181274414e-01" nType="0">
          <Node pos="l" depth="2" NCoef="0" IVar="-1" Cut="0.0000000000000000e+00" cType="1" res="-1.8502119928598404e-03" rms="3.4987255930900574e-01" purity="5.1119929552078247e-01" nType="-99"/>
          <Node pos="r" depth="2" NCoef="0" IVar="-1" Cut="0.0000000000000000e+00" cType="1" res="1.6321834409609437e-03" rms="3.4736892580986023e-01" purity="5.1574873924255371e-01" nType="-99"/>
        </Node>
        <Node pos="r" depth="1" NCoef="0" IVar="6" Cut="-1.0090196132659912e+00" cType="1" res="-2.1059980615973473e-02" rms="3.3744955062866211e-01" purity="2.9398685693740845e-01" nType="0">
          <Node pos="l" depth="2" NCoef="0" IVar="-1" Cut="0.0000000000000000e+00" cType="1" res="-1.1855062097311020e-02" rms="3.3782142400741577e-01" purity="3.3502483367919922e-01" nType="-99"/>
          <Node pos="r" depth="2" NCoef="0" IVar="-1" Cut="0.0000000000000000e+00" cType="1" res="8.4878987399861217e-04" rms="3.3543765544891357e-01" purity="2.4882569909095764e-01" nType="-99"/>
        </Node>
      </Node>
    </BinaryTree>
    <BinaryTree type="DecisionTree" boostWeight="1.0000000000000000e+00" itree="724">
      <Node pos="s" depth="0" NCoef="0" IVar="7" Cut="1.5567840337753296e+00" cType="1" res="2.1002376452088356e-03" rms="3.4932127594947815e-01" purity="5.0138795375823975e-01" nType="0">
        <Node pos="l" depth="1" NCoef="0" IVar="1" Cut="5.8312168121337891e+00" cType="1" res="1.0033692233264446e-03" rms="3.4927928447723389e-01" purity="5.1021528244018555e-01" nType="0">
          <Node pos="l" depth="2" NCoef="0" IVar="-1" Cut="0.0000000000000000e+00" cType="1" res="2.3102820850908756e-03" rms="4.0163445472717285e-01" purity="3.4738409519195557e-01" nType="-99"/>
          <Node pos="r" depth="2" NCoef="0" IVar="-1" Cut="0.0000000000000000e+00" cType="1" res="-4.9102347111329436e-04" rms="3.3246159553527832e-01" purity="5.5758452415466309e-01" nType="-99"/>
        </Node>
        <Node pos="r" depth="1" NCoef="0" IVar="-1" Cut="0.0000000000000000e+00" cType="1" res="1.1929247528314590e-02" rms="3.4913820028305054e-01" purity="2.6057305932044983e-01" nType="-99"/>
      </Node>
    </BinaryTree>
    <BinaryTree type="DecisionTree" boostWeight="1.0000000000000000e+00" itree="725">
      <Node pos="s" depth="0" NCoef="0" IVar="9" Cut="3.6931471824645996e+00" cType="1" res="-1.2068809010088444e-03" rms="2.2635768353939056e-01" purity="4.9835869669914246e-01" nType="0">
        <Node pos="l" depth="1" NCoef="0" IVar="1" Cut="5.4317288398742676e+00" cType="1" res="-6.3659218139946461e-03" rms="3.4017199277877808e-01" purity="5.3296059370040894e-01" nType="0">
          <Node pos="l" depth="2" NCoef="0" IVar="-1" Cut="0.0000000000000000e+00" cType="1" res="-4.4573345221579075e-03" rms="4.0338003635406494e-01" purity="3.0489870905876160e-01" nType="-99"/>
          <Node pos="r" depth="2" NCoef="0" IVar="-1" Cut="0.0000000000000000e+00" cType="1" res="-1.2451398652046919e-03" rms="3.3186495304107666e-01" purity="5.5986088514328003e-01" nType="-99"/>
        </Node>
        <Node pos="r" depth="1" NCoef="0" IVar="3" Cut="-1.6154744625091553e+00" cType="1" res="4.1403300128877163e-03" rms="3.6770379543304443e-01" purity="4.2547744512557983e-01" nType="0">
          <Node pos="l" depth="2" NCoef="0" IVar="-1" Cut="0.0000000000000000e+00" cType="1" res="-1.3011976145207882e-02" rms="3.3824804425239563e-01" purity="6.1784082651138306e-01" nType="-99"/>
          <Node pos="r" depth="2" NCoef="0" IVar="-1" Cut="0.0000000000000000e+00" cType="1" res="2.9036018531769514e-03" rms="3.7055391073226929e-01" purity="4.0495836734771729e-01" nType="-99"/>
        </Node>
      </Node>
    </BinaryTree>
    <BinaryTree type="DecisionTree" boostWeight="1.0000000000000000e+00" itree="726">
      <Node pos="s" depth="0" NCoef="0" IVar="12" Cut="6.6645163297653198e-01" cType="1" res="-5.7579734129831195e-04" rms="3.4794083237648010e-01" purity="4.9709454178810120e-01" nType="0">
        <Node pos="l" depth="1" NCoef="0" IVar="12" Cut="6.0296738147735596e-01" cType="1" res="3.8994234055280685e-03" rms="3.5915040969848633e-01" purity="7.6196694374084473e-01" nType="0">
          <Node pos="l" depth="2" NCoef="0" IVar="-1" Cut="0.0000000000000000e+00" cType="1" res="4.2787494021467865e-04" rms="3.5323482751846313e-01" purity="7.7884954214096069e-01" nType="-99"/>
          <Node pos="r" depth="2" NCoef="0" IVar="-1" Cut="0.0000000000000000e+00" cType="1" res="6.5286075696349144e-03" rms="4.2763990163803101e-01" purity="5.4136914014816284e-01" nType="-99"/>
        </Node>
        <Node pos="r" depth="1" NCoef="0" IVar="11" Cut="4.4082436710596085e-02" cType="1" res="-5.6286482140421867e-03" rms="3.3476176857948303e-01" purity="1.9803416728973389e-01" nType="0">
          <Node pos="l" depth="2" NCoef="0" IVar="-1" Cut="0.0000000000000000e+00" cType="1" res="1.7494427447672933e-04" rms="2.1726508438587189e-01" purity="5.7067062705755234e-02" nType="-99"/>
          <Node pos="r" depth="2" NCoef="0" IVar="-1" Cut="0.0000000000000000e+00" cType="1" res="-2.3158849216997623e-03" rms="4.5300096273422241e-01" purity="4.0073305368423462e-01" nType="-99"/>
        </Node>
      </Node>
    </BinaryTree>
    <BinaryTree type="DecisionTree" boostWeight="1.0000000000000000e+00" itree="727">
      <Node pos="s" depth="0" NCoef="0" IVar="8" Cut="-5.8339685201644897e-01" cType="1" res="2.2417178843170404e-03" rms="3.4742853045463562e-01" purity="4.9809664487838745e-01" nType="0">
        <Node pos="l" depth="1" NCoef="0" IVar="-1" Cut="0.0000000000000000e+00" cType="1" res="2.6977297384291887e-03" rms="3.9401260018348694e-01" purity="5.2994060516357422e-01" nType="-99"/>
        <Node pos="r" depth="1" NCoef="0" IVar="2" Cut="8.6169261932373047e+00" cType="1" res="3.9681600173935294e-04" rms="3.4268555045127869e-01" purity="4.9511554837226868e-01" nType="0">
          <Node pos="l" depth="2" NCoef="0" IVar="-1" Cut="0.0000000000000000e+00" cType="1" res="2.4746921844780445e-03" rms="3.4889087080955505e-01" purity="4.7327974438667297e-01" nType="-99"/>
          <Node pos="r" depth="2" NCoef="0" IVar="-1" Cut="0.0000000000000000e+00" cType="1" res="-8.0133648589253426e-04" rms="3.4117314219474792e-01" purity="5.0022333860397339e-01" nType="-99"/>
        </Node>
      </Node>
    </BinaryTree>
    <BinaryTree type="DecisionTree" boostWeight="1.0000000000000000e+00" itree="728">
      <Node pos="s" depth="0" NCoef="0" IVar="9" Cut="3.6931471824645996e+00" cType="1" res="7.6686771353706717e-04" rms="2.2946065664291382e-01" purity="5.0356495380401611e-01" nType="0">
        <Node pos="l" depth="1" NCoef="0" IVar="4" Cut="-3.1938768923282623e-02" cType="1" res="2.7874920051544905e-03" rms="3.4088313579559326e-01" purity="5.4106140136718750e-01" nType="0">
          <Node pos="l" depth="2" NCoef="0" IVar="-1" Cut="0.0000000000000000e+00" cType="1" res="2.2385742049664259e-03" rms="3.2944709062576294e-01" purity="5.8879697322845459e-01" nType="-99"/>
          <Node pos="r" depth="2" NCoef="0" IVar="-1" Cut="0.0000000000000000e+00" cType="1" res="-1.6877875896170735e-03" rms="3.6525481939315796e-01" purity="4.3291383981704712e-01" nType="-99"/>
        </Node>
        <Node pos="r" depth="1" NCoef="0" IVar="0" Cut="1.0444130897521973e+01" cType="1" res="5.3889020346105099e-03" rms="3.6339703202247620e-01" purity="4.2415785789489746e-01" nType="0">
          <Node pos="l" depth="2" NCoef="0" IVar="-1" Cut="0.0000000000000000e+00" cType="1" res="3.1473515555262566e-03" rms="3.6131268739700317e-01" purity="4.1845944523811340e-01" nType="-99"/>
          <Node pos="r" depth="2" NCoef="0" IVar="-1" Cut="0.0000000000000000e+00" cType="1" res="-5.9408741071820259e-03" rms="3.8276761770248413e-01" purity="4.8112505674362183e-01" nType="-99"/>
        </Node>
      </Node>
    </BinaryTree>
    <BinaryTree type="DecisionTree" boostWeight="1.0000000000000000e+00" itree="729">
      <Node pos="s" depth="0" NCoef="0" IVar="9" Cut="3.6931471824645996e+00" cType="1" res="-6.9471599999815226e-04" rms="2.3125374317169189e-01" purity="5.0046801567077637e-01" nType="0">
        <Node pos="l" depth="1" NCoef="0" IVar="1" Cut="5.1765499114990234e+00" cType="1" res="-4.9433601088821888e-04" rms="3.4014603495597839e-01" purity="5.3996777534484863e-01" nType="0">
          <Node pos="l" depth="2" NCoef="0" IVar="-1" Cut="0.0000000000000000e+00" cType="1" res="-5.6185112334787846e-03" rms="4.0635332465171814e-01" purity="2.6421475410461426e-01" nType="-99"/>
          <Node pos="r" depth="2" NCoef="0" IVar="-1" Cut="0.0000000000000000e+00" cType="1" res="4.0035633719526231e-04" rms="3.3537343144416809e-01" purity="5.5761355161666870e-01" nType="-99"/>
        </Node>
        <Node pos="r" depth="1" NCoef="0" IVar="8" Cut="-4.7676578164100647e-01" cType="1" res="-4.0121679194271564e-04" rms="3.6998409032821655e-01" purity="4.1644439101219177e-01" nType="0">
          <Node pos="l" depth="2" NCoef="0" IVar="-1" Cut="0.0000000000000000e+00" cType="1" res="4.8469430766999722e-03" rms="4.0799933671951294e-01" purity="4.3446442484855652e-01" nType="-99"/>
          <Node pos="r" depth="2" NCoef="0" IVar="-1" Cut="0.0000000000000000e+00" cType="1" res="-1.7112653004005551e-03" rms="3.6448568105697632e-01" purity="4.1404375433921814e-01" nType="-99"/>
        </Node>
      </Node>
    </BinaryTree>
    <BinaryTree type="DecisionTree" boostWeight="1.0000000000000000e+00" itree="730">
      <Node pos="s" depth="0" NCoef="0" IVar="4" Cut="-1.0139647722244263e+00" cType="1" res="-1.7913278425112367e-03" rms="3.4806120395660400e-01" purity="4.9787771701812744e-01" nType="0">
        <Node pos="l" depth="1" NCoef="0" IVar="9" Cut="3.0986123085021973e+00" cType="1" res="-1.4513599453493953e-03" rms="2.0003414154052734e-01" purity="5.7067394256591797e-01" nType="0">
          <Node pos="l" depth="2" NCoef="0" IVar="-1" Cut="0.0000000000000000e+00" cType="1" res="-2.3968648165464401e-03" rms="2.9290860891342163e-01" purity="6.9861721992492676e-01" nType="-99"/>
          <Node pos="r" depth="2" NCoef="0" IVar="-1" Cut="0.0000000000000000e+00" cType="1" res="-3.7203882820904255e-03" rms="3.3427798748016357e-01" purity="5.4196566343307495e-01" nType="-99"/>
        </Node>
        <Node pos="r" depth="1" NCoef="0" IVar="5" Cut="8.3868513107299805e+00" cType="1" res="1.6052909195423126e-03" rms="3.5684502124786377e-01" purity="4.6584489941596985e-01" nType="0">
          <Node pos="l" depth="2" NCoef="0" IVar="-1" Cut="0.0000000000000000e+00" cType="1" res="-1.1010497837560251e-04" rms="3.5536864399909973e-01" purity="4.6642240881919861e-01" nType="-99"/>
          <Node pos="r" depth="2" NCoef="0" IVar="-1" Cut="0.0000000000000000e+00" cType="1" res="6.7862267605960369e-03" rms="3.7671414017677307e-01" purity="4.5733389258384705e-01" nType="-99"/>
        </Node>
      </Node>
    </BinaryTree>
    <BinaryTree type="DecisionTree" boostWeight="1.0000000000000000e+00" itree="731">
      <Node pos="s" depth="0" NCoef="0" IVar="10" Cut="4.0000000000000000e+00" cType="1" res="1.2053019599989057e-03" rms="2.6833817362785339e-01" purity="4.9722507596015930e-01" nType="0">
        <Node pos="l" depth="1" NCoef="0" IVar="0" Cut="8.2571353912353516e+00" cType="1" res="2.1248608827590942e-03" rms="3.4952148795127869e-01" purity="5.0231266021728516e-01" nType="0">
          <Node pos="l" depth="2" NCoef="0" IVar="-1" Cut="0.0000000000000000e+00" cType="1" res="2.3036855272948742e-03" rms="4.1899818181991577e-01" purity="3.9403584599494934e-01" nType="-99"/>
          <Node pos="r" depth="2" NCoef="0" IVar="-1" Cut="0.0000000000000000e+00" cType="1" res="3.0186292860889807e-05" rms="3.3092704415321350e-01" purity="5.2792650461196899e-01" nType="-99"/>
        </Node>
        <Node pos="r" depth="1" NCoef="0" IVar="-1" Cut="0.0000000000000000e+00" cType="1" res="-1.0905011557042599e-02" rms="3.5531255602836609e-01" purity="3.4337249398231506e-01" nType="-99"/>
      </Node>
    </BinaryTree>
    <BinaryTree type="DecisionTree" boostWeight="1.0000000000000000e+00" itree="732">
      <Node pos="s" depth="0" NCoef="0" IVar="9" Cut="3.6931471824645996e+00" cType="1" res="1.2082718603778630e-04" rms="2.3020195960998535e-01" purity="4.9916335940361023e-01" nType="0">
        <Node pos="l" depth="1" NCoef="0" IVar="5" Cut="7.5225019454956055e+00" cType="1" res="6.3085422152653337e-04" rms="3.4118920564651489e-01" purity="5.3658360242843628e-01" nType="0">
          <Node pos="l" depth="2" NCoef="0" IVar="-1" Cut="0.0000000000000000e+00" cType="1" res="1.1198947904631495e-03" rms="3.3870238065719604e-01" purity="5.5465745925903320e-01" nType="-99"/>
          <Node pos="r" depth="2" NCoef="0" IVar="-1" Cut="0.0000000000000000e+00" cType="1" res="-3.0796984210610390e-03" rms="3.5091990232467651e-01" purity="4.6207773685455322e-01" nType="-99"/>
        </Node>
        <Node pos="r" depth="1" NCoef="0" IVar="4" Cut="-7.9396671056747437e-01" cType="1" res="-2.4224461230915040e-04" rms="3.6791774630546570e-01" purity="4.1795045137405396e-01" nType="0">
          <Node pos="l" depth="2" NCoef="0" IVar="-1" Cut="0.0000000000000000e+00" cType="1" res="-4.6718316152691841e-03" rms="3.5648632049560547e-01" purity="4.7396576404571533e-01" nType="-99"/>
          <Node pos="r" depth="2" NCoef="0" IVar="-1" Cut="0.0000000000000000e+00" cType="1" res="2.0428418647497892e-03" rms="3.7409225106239319e-01" purity="3.8632974028587341e-01" nType="-99"/>
        </Node>
      </Node>
    </BinaryTree>
    <BinaryTree type="DecisionTree" boostWeight="1.0000000000000000e+00" itree="733">
      <Node pos="s" depth="0" NCoef="0" IVar="0" Cut="1.0007227897644043e+01" cType="1" res="1.4506785664707422e-03" rms="3.5118228197097778e-01" purity="4.9940019845962524e-01" nType="0">
        <Node pos="l" depth="1" NCoef="0" IVar="6" Cut="-3.4305050373077393e+00" cType="1" res="4.1314619593322277e-03" rms="3.5331103205680847e-01" purity="4.8482736945152283e-01" nType="0">
          <Node pos="l" depth="2" NCoef="0" IVar="-1" Cut="0.0000000000000000e+00" cType="1" res="-1.5812956262379885e-03" rms="3.2478520274162292e-01" purity="5.7624489068984985e-01" nType="-99"/>
          <Node pos="r" depth="2" NCoef="0" IVar="-1" Cut="0.0000000000000000e+00" cType="1" res="2.0167063921689987e-03" rms="3.6207345128059387e-01" purity="4.5505368709564209e-01" nType="-99"/>
        </Node>
        <Node pos="r" depth="1" NCoef="0" IVar="6" Cut="-3.6593523025512695e+00" cType="1" res="-1.0469035245478153e-02" rms="3.4130162000656128e-01" purity="5.6419610977172852e-01" nType="0">
          <Node pos="l" depth="2" NCoef="0" IVar="-1" Cut="0.0000000000000000e+00" cType="1" res="5.6730466894805431e-03" rms="3.0256161093711853e-01" purity="6.7063140869140625e-01" nType="-99"/>
          <Node pos="r" depth="2" NCoef="0" IVar="-1" Cut="0.0000000000000000e+00" cType="1" res="-4.6395291574299335e-03" rms="3.5221743583679199e-01" purity="5.3067809343338013e-01" nType="-99"/>
        </Node>
      </Node>
    </BinaryTree>
    <BinaryTree type="DecisionTree" boostWeight="1.0000000000000000e+00" itree="734">
      <Node pos="s" depth="0" NCoef="0" IVar="9" Cut="4.6931471824645996e+00" cType="1" res="6.8138971982989460e-05" rms="2.2846360504627228e-01" purity="5.0074583292007446e-01" nType="0">
        <Node pos="l" depth="1" NCoef="0" IVar="4" Cut="5.9216356277465820e-01" cType="1" res="-6.0190897784195840e-05" rms="3.4874001145362854e-01" purity="5.0079292058944702e-01" nType="0">
          <Node pos="l" depth="2" NCoef="0" IVar="-1" Cut="0.0000000000000000e+00" cType="1" res="-2.7639389736577868e-04" rms="3.4698393940925598e-01" purity="5.0750124454498291e-01" nType="-99"/>
          <Node pos="r" depth="2" NCoef="0" IVar="-1" Cut="0.0000000000000000e+00" cType="1" res="3.7550721317529678e-03" rms="3.7917053699493408e-01" purity="3.7773224711418152e-01" nType="-99"/>
        </Node>
        <Node pos="r" depth="1" NCoef="0" IVar="-1" Cut="0.0000000000000000e+00" cType="1" res="-1.3072057068347931e-01" rms="3.3574771881103516e-01" purity="8.7409719824790955e-02" nType="-99"/>
      </Node>
    </BinaryTree>
    <BinaryTree type="DecisionTree" boostWeight="1.0000000000000000e+00" itree="735">
      <Node pos="s" depth="0" NCoef="0" IVar="1" Cut="5.1274132728576660e+00" cType="1" res="-1.5065900515764952e-03" rms="3.4760293364524841e-01" purity="4.9919265508651733e-01" nType="0">
        <Node pos="l" depth="1" NCoef="0" IVar="-1" Cut="0.0000000000000000e+00" cType="1" res="-5.7740355841815472e-03" rms="4.0073877573013306e-01" purity="2.3540095984935760e-01" nType="-99"/>
        <Node pos="r" depth="1" NCoef="0" IVar="6" Cut="-1.0266939401626587e+00" cType="1" res="-1.0918905172729865e-04" rms="3.4437078237533569e-01" purity="5.1378279924392700e-01" nType="0">
          <Node pos="l" depth="2" NCoef="0" IVar="-1" Cut="0.0000000000000000e+00" cType="1" res="-3.7191840237937868e-04" rms="3.4369212388992310e-01" purity="5.2331387996673584e-01" nType="-99"/>
          <Node pos="r" depth="2" NCoef="0" IVar="-1" Cut="0.0000000000000000e+00" cType="1" res="7.3373261839151382e-03" rms="3.5882306098937988e-01" purity="2.9243397712707520e-01" nType="-99"/>
        </Node>
      </Node>
    </BinaryTree>
    <BinaryTree type="DecisionTree" boostWeight="1.0000000000000000e+00" itree="736">
      <Node pos="s" depth="0" NCoef="0" IVar="5" Cut="7.4303855895996094e+00" cType="1" res="-1.8825631123036146e-03" rms="3.4978124499320984e-01" purity="4.9657586216926575e-01" nType="0">
        <Node pos="l" depth="1" NCoef="0" IVar="5" Cut="5.2412848472595215e+00" cType="1" res="2.9619829729199409e-04" rms="3.4728229045867920e-01" purity="5.1214349269866943e-01" nType="0">
          <Node pos="l" depth="2" NCoef="0" IVar="-1" Cut="0.0000000000000000e+00" cType="1" res="-5.8563961647450924e-03" rms="3.6027392745018005e-01" purity="5.4391020536422729e-01" nType="-99"/>
          <Node pos="r" depth="2" NCoef="0" IVar="-1" Cut="0.0000000000000000e+00" cType="1" res="6.6583324223756790e-04" rms="3.4609887003898621e-01" purity="5.0945097208023071e-01" nType="-99"/>
        </Node>
        <Node pos="r" depth="1" NCoef="0" IVar="8" Cut="8.1333145499229431e-02" cType="1" res="-9.4377836212515831e-03" rms="3.5820922255516052e-01" purity="4.4259262084960938e-01" nType="0">
          <Node pos="l" depth="2" NCoef="0" IVar="-1" Cut="0.0000000000000000e+00" cType="1" res="-4.4073532335460186e-03" rms="3.5767865180969238e-01" purity="4.4684782624244690e-01" nType="-99"/>
          <Node pos="r" depth="2" NCoef="0" IVar="-1" Cut="0.0000000000000000e+00" cType="1" res="1.6236541559919715e-03" rms="3.5857242345809937e-01" purity="4.3604588508605957e-01" nType="-99"/>
        </Node>
      </Node>
    </BinaryTree>
    <BinaryTree type="DecisionTree" boostWeight="1.0000000000000000e+00" itree="737">
      <Node pos="s" depth="0" NCoef="0" IVar="13" Cut="1.4284372329711914e-01" cType="1" res="4.0341247222386301e-04" rms="3.4707674384117126e-01" purity="5.0304406881332397e-01" nType="0">
        <Node pos="l" depth="1" NCoef="0" IVar="13" Cut="6.1196167021989822e-02" cType="1" res="-2.4785485584288836e-03" rms="3.3742550015449524e-01" purity="3.4631675481796265e-01" nType="0">
          <Node pos="l" depth="2" NCoef="0" IVar="-1" Cut="0.0000000000000000e+00" cType="1" res="5.6624517310410738e-04" rms="3.0830463767051697e-01" purity="2.8565007448196411e-01" nType="-99"/>
          <Node pos="r" depth="2" NCoef="0" IVar="-1" Cut="0.0000000000000000e+00" cType="1" res="-3.2393150031566620e-03" rms="4.3026590347290039e-01" purity="5.7724469900131226e-01" nType="-99"/>
        </Node>
        <Node pos="r" depth="1" NCoef="0" IVar="11" Cut="3.3311536908149719e-01" cType="1" res="5.5948751978576183e-03" rms="3.6375916004180908e-01" purity="7.8536719083786011e-01" nType="0">
          <Node pos="l" depth="2" NCoef="0" IVar="-1" Cut="0.0000000000000000e+00" cType="1" res="9.8096411675214767e-03" rms="4.0944984555244446e-01" purity="5.2468651533126831e-01" nType="-99"/>
          <Node pos="r" depth="2" NCoef="0" IVar="-1" Cut="0.0000000000000000e+00" cType="1" res="-2.4296861374750733e-04" rms="3.5582175850868225e-01" purity="8.2529264688491821e-01" nType="-99"/>
        </Node>
      </Node>
    </BinaryTree>
    <BinaryTree type="DecisionTree" boostWeight="1.0000000000000000e+00" itree="738">
      <Node pos="s" depth="0" NCoef="0" IVar="8" Cut="-6.6109555959701538e-01" cType="1" res="6.1036233091726899e-05" rms="3.4821617603302002e-01" purity="4.9732059240341187e-01" nType="0">
        <Node pos="l" depth="1" NCoef="0" IVar="-1" Cut="0.0000000000000000e+00" cType="1" res="-2.0057805813848972e-03" rms="4.0634530782699585e-01" purity="5.1129245758056641e-01" nType="-99"/>
        <Node pos="r" depth="1" NCoef="0" IVar="8" Cut="6.0509359836578369e-01" cType="1" res="1.2455469695851207e-03" rms="3.4404671192169189e-01" purity="4.9640846252441406e-01" nType="0">
          <Node pos="l" depth="2" NCoef="0" IVar="-1" Cut="0.0000000000000000e+00" cType="1" res="7.0320250233635306e-04" rms="3.4411117434501648e-01" purity="5.0025957822799683e-01" nType="-99"/>
          <Node pos="r" depth="2" NCoef="0" IVar="-1" Cut="0.0000000000000000e+00" cType="1" res="-7.5511876493692398e-03" rms="3.4103757143020630e-01" purity="3.7399852275848389e-01" nType="-99"/>
        </Node>
      </Node>
    </BinaryTree>
    <BinaryTree type="DecisionTree" boostWeight="1.0000000000000000e+00" itree="739">
      <Node pos="s" depth="0" NCoef="0" IVar="8" Cut="-6.1795169115066528e-01" cType="1" res="-3.2638265111017972e-05" rms="3.5077765583992004e-01" purity="5.0006937980651855e-01" nType="0">
        <Node pos="l" depth="1" NCoef="0" IVar="-1" Cut="0.0000000000000000e+00" cType="1" res="1.9854884594678879e-03" rms="3.9959630370140076e-01" purity="5.4032498598098755e-01" nType="-99"/>
        <Node pos="r" depth="1" NCoef="0" IVar="8" Cut="-4.2705851793289185e-01" cType="1" res="-1.5273902099579573e-03" rms="3.4625929594039917e-01" purity="4.9663969874382019e-01" nType="0">
          <Node pos="l" depth="2" NCoef="0" IVar="-1" Cut="0.0000000000000000e+00" cType="1" res="-3.7483188789337873e-03" rms="3.6819392442703247e-01" purity="4.8221194744110107e-01" nType="-99"/>
          <Node pos="r" depth="2" NCoef="0" IVar="-1" Cut="0.0000000000000000e+00" cType="1" res="-1.7516204025014304e-05" rms="3.4406203031539917e-01" purity="4.9801293015480042e-01" nType="-99"/>
        </Node>
      </Node>
    </BinaryTree>
    <BinaryTree type="DecisionTree" boostWeight="1.0000000000000000e+00" itree="740">
      <Node pos="s" depth="0" NCoef="0" IVar="10" Cut="3.0000000000000000e+00" cType="1" res="-1.2448190245777369e-03" rms="2.6979851722717285e-01" purity="4.9846050143241882e-01" nType="0">
        <Node pos="l" depth="1" NCoef="0" IVar="8" Cut="-6.6183072328567505e-01" cType="1" res="-1.9251704216003418e-03" rms="3.4576222300529480e-01" purity="5.1317447423934937e-01" nType="0">
          <Node pos="l" depth="2" NCoef="0" IVar="-1" Cut="0.0000000000000000e+00" cType="1" res="-2.2270588669925928e-03" rms="4.0266460180282593e-01" purity="5.0111770629882812e-01" nType="-99"/>
          <Node pos="r" depth="2" NCoef="0" IVar="-1" Cut="0.0000000000000000e+00" cType="1" res="-1.9749035709537566e-04" rms="3.4159177541732788e-01" purity="5.1397794485092163e-01" nType="-99"/>
        </Node>
        <Node pos="r" depth="1" NCoef="0" IVar="2" Cut="9.0496196746826172e+00" cType="1" res="1.2046842835843563e-02" rms="3.7080281972885132e-01" purity="4.1889905929565430e-01" nType="0">
          <Node pos="l" depth="2" NCoef="0" IVar="-1" Cut="0.0000000000000000e+00" cType="1" res="6.1792084015905857e-03" rms="3.7763753533363342e-01" purity="4.1863042116165161e-01" nType="-99"/>
          <Node pos="r" depth="2" NCoef="0" IVar="-1" Cut="0.0000000000000000e+00" cType="1" res="-8.9186022523790598e-04" rms="3.6272549629211426e-01" purity="4.1919052600860596e-01" nType="-99"/>
        </Node>
      </Node>
    </BinaryTree>
    <BinaryTree type="DecisionTree" boostWeight="1.0000000000000000e+00" itree="741">
      <Node pos="s" depth="0" NCoef="0" IVar="9" Cut="3.0000000000000000e+00" cType="1" res="-7.6373986667022109e-04" rms="2.2773119807243347e-01" purity="4.9847707152366638e-01" nType="0">
        <Node pos="l" depth="1" NCoef="0" IVar="8" Cut="-2.2405812144279480e-01" cType="1" res="5.9591494500637054e-03" rms="3.1400024890899658e-01" purity="6.4015668630599976e-01" nType="0">
          <Node pos="l" depth="2" NCoef="0" IVar="-1" Cut="0.0000000000000000e+00" cType="1" res="-2.0144032314419746e-03" rms="3.3854296803474426e-01" purity="6.0710006952285767e-01" nType="-99"/>
          <Node pos="r" depth="2" NCoef="0" IVar="-1" Cut="0.0000000000000000e+00" cType="1" res="5.9171882458031178e-03" rms="2.9955765604972839e-01" purity="6.5803217887878418e-01" nType="-99"/>
        </Node>
        <Node pos="r" depth="1" NCoef="0" IVar="4" Cut="-2.9614233970642090e-01" cType="1" res="-3.5902692470699549e-03" rms="3.5385829210281372e-01" purity="4.7533300518989563e-01" nType="0">
          <Node pos="l" depth="2" NCoef="0" IVar="-1" Cut="0.0000000000000000e+00" cType="1" res="2.7989072259515524e-04" rms="3.3830139040946960e-01" purity="5.3337109088897705e-01" nType="-99"/>
          <Node pos="r" depth="2" NCoef="0" IVar="-1" Cut="0.0000000000000000e+00" cType="1" res="-2.4703482631593943e-03" rms="3.7285432219505310e-01" purity="4.0061378479003906e-01" nType="-99"/>
        </Node>
      </Node>
    </BinaryTree>
    <BinaryTree type="DecisionTree" boostWeight="1.0000000000000000e+00" itree="742">
      <Node pos="s" depth="0" NCoef="0" IVar="0" Cut="9.1335487365722656e+00" cType="1" res="-1.8873384688049555e-03" rms="3.5140386223793030e-01" purity="4.9865034222602844e-01" nType="0">
        <Node pos="l" depth="1" NCoef="0" IVar="0" Cut="7.8928608894348145e+00" cType="1" res="-8.1208385527133942e-03" rms="3.7361764907836914e-01" purity="4.3583509325981140e-01" nType="0">
          <Node pos="l" depth="2" NCoef="0" IVar="-1" Cut="0.0000000000000000e+00" cType="1" res="1.5943686012178659e-03" rms="4.5318794250488281e-01" purity="3.5527595877647400e-01" nType="-99"/>
          <Node pos="r" depth="2" NCoef="0" IVar="-1" Cut="0.0000000000000000e+00" cType="1" res="-3.2978344243019819e-03" rms="3.5961091518402100e-01" purity="4.4834929704666138e-01" nType="-99"/>
        </Node>
        <Node pos="r" depth="1" NCoef="0" IVar="1" Cut="5.8150730133056641e+00" cType="1" res="4.8804841935634613e-03" rms="3.2543924450874329e-01" purity="5.6685000658035278e-01" nType="0">
          <Node pos="l" depth="2" NCoef="0" IVar="-1" Cut="0.0000000000000000e+00" cType="1" res="9.4472281634807587e-03" rms="3.5582718253135681e-01" purity="3.9522767066955566e-01" nType="-99"/>
          <Node pos="r" depth="2" NCoef="0" IVar="-1" Cut="0.0000000000000000e+00" cType="1" res="7.1331014623865485e-04" rms="3.2218098640441895e-01" purity="5.8368337154388428e-01" nType="-99"/>
        </Node>
      </Node>
    </BinaryTree>
    <BinaryTree type="DecisionTree" boostWeight="1.0000000000000000e+00" itree="743">
      <Node pos="s" depth="0" NCoef="0" IVar="0" Cut="1.0885105133056641e+01" cType="1" res="8.7620905833318830e-04" rms="3.4901043772697449e-01" purity="4.9884057044982910e-01" nType="0">
        <Node pos="l" depth="1" NCoef="0" IVar="5" Cut="5.1503930091857910e+00" cType="1" res="-2.6265875203534961e-04" rms="3.4725433588027954e-01" purity="4.9483823776245117e-01" nType="0">
          <Node pos="l" depth="2" NCoef="0" IVar="-1" Cut="0.0000000000000000e+00" cType="1" res="4.7959736548364162e-03" rms="3.7301445007324219e-01" purity="5.6080967187881470e-01" nType="-99"/>
          <Node pos="r" depth="2" NCoef="0" IVar="-1" Cut="0.0000000000000000e+00" cType="1" res="-3.9995761471800506e-04" rms="3.4569641947746277e-01" purity="4.9106952548027039e-01" nType="-99"/>
        </Node>
        <Node pos="r" depth="1" NCoef="0" IVar="-1" Cut="0.0000000000000000e+00" cType="1" res="5.4596341215074062e-03" rms="3.9006072282791138e-01" purity="6.0102713108062744e-01" nType="-99"/>
      </Node>
    </BinaryTree>
    <BinaryTree type="DecisionTree" boostWeight="1.0000000000000000e+00" itree="744">
      <Node pos="s" depth="0" NCoef="0" IVar="5" Cut="5.3844027519226074e+00" cType="1" res="2.8908485546708107e-03" rms="3.4901297092437744e-01" purity="5.0045120716094971e-01" nType="0">
        <Node pos="l" depth="1" NCoef="0" IVar="8" Cut="-2.2290703654289246e-01" cType="1" res="1.9633447751402855e-02" rms="3.7089455127716064e-01" purity="5.5895322561264038e-01" nType="0">
          <Node pos="l" depth="2" NCoef="0" IVar="-1" Cut="0.0000000000000000e+00" cType="1" res="9.6728494390845299e-03" rms="3.9250385761260986e-01" purity="5.6052565574645996e-01" nType="-99"/>
          <Node pos="r" depth="2" NCoef="0" IVar="-1" Cut="0.0000000000000000e+00" cType="1" res="1.7915643984451890e-03" rms="3.5756263136863708e-01" purity="5.5808269977569580e-01" nType="-99"/>
        </Node>
        <Node pos="r" depth="1" NCoef="0" IVar="10" Cut="2.0000000000000000e+00" cType="1" res="-1.1993875523330644e-04" rms="2.5771501660346985e-01" purity="4.9512031674385071e-01" nType="0">
          <Node pos="l" depth="2" NCoef="0" IVar="-1" Cut="0.0000000000000000e+00" cType="1" res="-1.4577272813767195e-03" rms="3.3742392063140869e-01" purity="5.4093092679977417e-01" nType="-99"/>
          <Node pos="r" depth="2" NCoef="0" IVar="-1" Cut="0.0000000000000000e+00" cType="1" res="2.2436806466430426e-03" rms="3.5596001148223877e-01" purity="4.4971841573715210e-01" nType="-99"/>
        </Node>
      </Node>
    </BinaryTree>
    <BinaryTree type="DecisionTree" boostWeight="1.0000000000000000e+00" itree="745">
      <Node pos="s" depth="0" NCoef="0" IVar="9" Cut="3.6931471824645996e+00" cType="1" res="2.0735038560815156e-04" rms="2.2812055051326752e-01" purity="5.0251686573028564e-01" nType="0">
        <Node pos="l" depth="1" NCoef="0" IVar="0" Cut="7.8198819160461426e+00" cType="1" res="2.9041564557701349e-03" rms="3.4288269281387329e-01" purity="5.4416865110397339e-01" nType="0">
          <Node pos="l" depth="2" NCoef="0" IVar="-1" Cut="0.0000000000000000e+00" cType="1" res="5.0740283913910389e-03" rms="4.6392667293548584e-01" purity="4.1303849220275879e-01" nType="-99"/>
          <Node pos="r" depth="2" NCoef="0" IVar="-1" Cut="0.0000000000000000e+00" cType="1" res="3.9887399179860950e-04" rms="3.3519265055656433e-01" purity="5.5111116170883179e-01" nType="-99"/>
        </Node>
        <Node pos="r" depth="1" NCoef="0" IVar="0" Cut="8.9134340286254883e+00" cType="1" res="-5.1172892563045025e-03" rms="3.6740183830261230e-01" purity="4.1332262754440308e-01" nType="0">
          <Node pos="l" depth="2" NCoef="0" IVar="-1" Cut="0.0000000000000000e+00" cType="1" res="-4.6417498961091042e-03" rms="3.8294646143913269e-01" purity="3.3517888188362122e-01" nType="-99"/>
          <Node pos="r" depth="2" NCoef="0" IVar="-1" Cut="0.0000000000000000e+00" cType="1" res="1.7447196296416223e-04" rms="3.5492742061614990e-01" purity="4.7321498394012451e-01" nType="-99"/>
        </Node>
      </Node>
    </BinaryTree>
    <BinaryTree type="DecisionTree" boostWeight="1.0000000000000000e+00" itree="746">
      <Node pos="s" depth="0" NCoef="0" IVar="8" Cut="-6.6087120771408081e-01" cType="1" res="-3.2329717651009560e-03" rms="3.4962779283523560e-01" purity="4.9585869908332825e-01" nType="0">
        <Node pos="l" depth="1" NCoef="0" IVar="-1" Cut="0.0000000000000000e+00" cType="1" res="-4.7151283361017704e-03" rms="4.0823474526405334e-01" purity="4.8105648159980774e-01" nType="-99"/>
        <Node pos="r" depth="1" NCoef="0" IVar="1" Cut="4.9966735839843750e+00" cType="1" res="-6.9107924355193973e-04" rms="3.4544387459754944e-01" purity="4.9679154157638550e-01" nType="0">
          <Node pos="l" depth="2" NCoef="0" IVar="-1" Cut="0.0000000000000000e+00" cType="1" res="5.3384420461952686e-03" rms="4.2391321063041687e-01" purity="2.6577848196029663e-01" nType="-99"/>
          <Node pos="r" depth="2" NCoef="0" IVar="-1" Cut="0.0000000000000000e+00" cType="1" res="-5.3790875244885683e-04" rms="3.4231683611869812e-01" purity="5.0493931770324707e-01" nType="-99"/>
        </Node>
      </Node>
    </BinaryTree>
    <BinaryTree type="DecisionTree" boostWeight="1.0000000000000000e+00" itree="747">
      <Node pos="s" depth="0" NCoef="0" IVar="2" Cut="8.3263092041015625e+00" cType="1" res="-3.9355317130684853e-04" rms="3.4908309578895569e-01" purity="4.9735423922538757e-01" nType="0">
        <Node pos="l" depth="1" NCoef="0" IVar="7" Cut="8.4101833403110504e-02" cType="1" res="2.1403091028332710e-02" rms="3.5063418745994568e-01" purity="4.8745840787887573e-01" nType="0">
          <Node pos="l" depth="2" NCoef="0" IVar="-1" Cut="0.0000000000000000e+00" cType="1" res="5.4329754784703255e-03" rms="3.6689144372940063e-01" purity="5.1773864030838013e-01" nType="-99"/>
          <Node pos="r" depth="2" NCoef="0" IVar="-1" Cut="0.0000000000000000e+00" cType="1" res="2.4611863773316145e-03" rms="3.3261719346046448e-01" purity="4.5599877834320068e-01" nType="-99"/>
        </Node>
        <Node pos="r" depth="1" NCoef="0" IVar="1" Cut="6.0955681800842285e+00" cType="1" res="-2.3808330297470093e-03" rms="3.4887361526489258e-01" purity="4.9825647473335266e-01" nType="0">
          <Node pos="l" depth="2" NCoef="0" IVar="-1" Cut="0.0000000000000000e+00" cType="1" res="-2.4805362336337566e-03" rms="3.8528642058372498e-01" purity="3.5050171613693237e-01" nType="-99"/>
          <Node pos="r" depth="2" NCoef="0" IVar="-1" Cut="0.0000000000000000e+00" cType="1" res="4.0857121348381042e-04" rms="3.2861608266830444e-01" purity="5.7390671968460083e-01" nType="-99"/>
        </Node>
      </Node>
    </BinaryTree>
    <BinaryTree type="DecisionTree" boostWeight="1.0000000000000000e+00" itree="748">
      <Node pos="s" depth="0" NCoef="0" IVar="0" Cut="1.0881473541259766e+01" cType="1" res="2.5415536947548389e-03" rms="3.4866389632225037e-01" purity="4.9963527917861938e-01" nType="0">
        <Node pos="l" depth="1" NCoef="0" IVar="5" Cut="8.4061746597290039e+00" cType="1" res="1.6674597281962633e-03" rms="3.4706375002861023e-01" purity="4.9623274803161621e-01" nType="0">
          <Node pos="l" depth="2" NCoef="0" IVar="-1" Cut="0.0000000000000000e+00" cType="1" res="2.8942548669874668e-04" rms="3.4712257981300354e-01" purity="4.9791309237480164e-01" nType="-99"/>
          <Node pos="r" depth="2" NCoef="0" IVar="-1" Cut="0.0000000000000000e+00" cType="1" res="7.9433172941207886e-03" rms="3.4398421645164490e-01" purity="4.3702957034111023e-01" nType="-99"/>
        </Node>
        <Node pos="r" depth="1" NCoef="0" IVar="-1" Cut="0.0000000000000000e+00" cType="1" res="5.5785714648663998e-03" rms="3.8887023925781250e-01" purity="5.9205353260040283e-01" nType="-99"/>
      </Node>
    </BinaryTree>
    <BinaryTree type="DecisionTree" boostWeight="1.0000000000000000e+00" itree="749">
      <Node pos="s" depth="0" NCoef="0" IVar="0" Cut="1.0882031440734863e+01" cType="1" res="2.5494026485830545e-03" rms="3.4920793771743774e-01" purity="5.0064074993133545e-01" nType="0">
        <Node pos="l" depth="1" NCoef="0" IVar="0" Cut="7.9137301445007324e+00" cType="1" res="1.7049626912921667e-03" rms="3.4722819924354553e-01" purity="4.9682489037513733e-01" nType="0">
          <Node pos="l" depth="2" NCoef="0" IVar="-1" Cut="0.0000000000000000e+00" cType="1" res="-2.4204892106354237e-03" rms="4.5281195640563965e-01" purity="3.4591808915138245e-01" nType="-99"/>
          <Node pos="r" depth="2" NCoef="0" IVar="-1" Cut="0.0000000000000000e+00" cType="1" res="9.7346474649384618e-04" rms="3.3653563261032104e-01" purity="5.0985085964202881e-01" nType="-99"/>
        </Node>
        <Node pos="r" depth="1" NCoef="0" IVar="-1" Cut="0.0000000000000000e+00" cType="1" res="4.4339881278574467e-03" rms="3.9653307199478149e-01" purity="5.9969782829284668e-01" nType="-99"/>
      </Node>
    </BinaryTree>
    <BinaryTree type="DecisionTree" boostWeight="1.0000000000000000e+00" itree="750">
      <Node pos="s" depth="0" NCoef="0" IVar="8" Cut="-6.6087120771408081e-01" cType="1" res="-7.8678032150492072e-04" rms="3.4838885068893433e-01" purity="4.9813580513000488e-01" nType="0">
        <Node pos="l" depth="1" NCoef="0" IVar="-1" Cut="0.0000000000000000e+00" cType="1" res="-2.6886230334639549e-03" rms="4.1183766722679138e-01" purity="4.7552710771560669e-01" nType="-99"/>
        <Node pos="r" depth="1" NCoef="0" IVar="0" Cut="8.2575511932373047e+00" cType="1" res="1.0009190300479531e-03" rms="3.4358492493629456e-01" purity="4.9967035651206970e-01" nType="0">
          <Node pos="l" depth="2" NCoef="0" IVar="-1" Cut="0.0000000000000000e+00" cType="1" res="2.6408976409584284e-03" rms="4.1566789150238037e-01" purity="3.8222491741180420e-01" nType="-99"/>
          <Node pos="r" depth="2" NCoef="0" IVar="-1" Cut="0.0000000000000000e+00" cType="1" res="-4.4171934132464230e-04" rms="3.2602891325950623e-01" purity="5.2484095096588135e-01" nType="-99"/>
        </Node>
      </Node>
    </BinaryTree>
    <BinaryTree type="DecisionTree" boostWeight="1.0000000000000000e+00" itree="751">
      <Node pos="s" depth="0" NCoef="0" IVar="8" Cut="-5.3617858886718750e-01" cType="1" res="2.9711206443607807e-03" rms="3.4841275215148926e-01" purity="5.0504314899444580e-01" nType="0">
        <Node pos="l" depth="1" NCoef="0" IVar="11" Cut="1.4285594224929810e-01" cType="1" res="3.5955853760242462e-02" rms="3.8089090585708618e-01" purity="5.6725901365280151e-01" nType="0">
          <Node pos="l" depth="2" NCoef="0" IVar="-1" Cut="0.0000000000000000e+00" cType="1" res="3.2272350508719683e-03" rms="3.9428594708442688e-01" purity="3.0312067270278931e-01" nType="-99"/>
          <Node pos="r" depth="2" NCoef="0" IVar="-1" Cut="0.0000000000000000e+00" cType="1" res="5.4218140430748463e-03" rms="3.6785206198692322e-01" purity="8.0966788530349731e-01" nType="-99"/>
        </Node>
        <Node pos="r" depth="1" NCoef="0" IVar="9" Cut="3.6931471824645996e+00" cType="1" res="-1.5827546303626150e-04" rms="2.2204652428627014e-01" purity="4.9774315953254700e-01" nType="0">
          <Node pos="l" depth="2" NCoef="0" IVar="-1" Cut="0.0000000000000000e+00" cType="1" res="1.5664391685277224e-04" rms="3.3665412664413452e-01" purity="5.3807401657104492e-01" nType="-99"/>
          <Node pos="r" depth="2" NCoef="0" IVar="-1" Cut="0.0000000000000000e+00" cType="1" res="-1.6946911346167326e-03" rms="3.5927036404609680e-01" purity="4.1432768106460571e-01" nType="-99"/>
        </Node>
      </Node>
    </BinaryTree>
    <BinaryTree type="DecisionTree" boostWeight="1.0000000000000000e+00" itree="752">
      <Node pos="s" depth="0" NCoef="0" IVar="0" Cut="7.8202247619628906e+00" cType="1" res="-7.4811035301536322e-04" rms="3.4653592109680176e-01" purity="4.9768650531768799e-01" nType="0">
        <Node pos="l" depth="1" NCoef="0" IVar="-1" Cut="0.0000000000000000e+00" cType="1" res="-5.7996674440801144e-03" rms="4.3570637702941895e-01" purity="3.0871731042861938e-01" nType="-99"/>
        <Node pos="r" depth="1" NCoef="0" IVar="9" Cut="3.6931471824645996e+00" cType="1" res="-3.0676138703711331e-04" rms="2.2749942541122437e-01" purity="5.0763219594955444e-01" nType="0">
          <Node pos="l" depth="2" NCoef="0" IVar="-1" Cut="0.0000000000000000e+00" cType="1" res="2.6437905034981668e-04" rms="3.3208778500556946e-01" purity="5.4923820495605469e-01" nType="-99"/>
          <Node pos="r" depth="2" NCoef="0" IVar="-1" Cut="0.0000000000000000e+00" cType="1" res="2.8728944016620517e-04" rms="3.5943174362182617e-01" purity="4.1989308595657349e-01" nType="-99"/>
        </Node>
      </Node>
    </BinaryTree>
    <BinaryTree type="DecisionTree" boostWeight="1.0000000000000000e+00" itree="753">
      <Node pos="s" depth="0" NCoef="0" IVar="2" Cut="8.5612230300903320e+00" cType="1" res="-1.0471584973856807e-03" rms="3.4740379452705383e-01" purity="4.9506911635398865e-01" nType="0">
        <Node pos="l" depth="1" NCoef="0" IVar="8" Cut="-8.9893683791160583e-02" cType="1" res="-1.5253211371600628e-02" rms="3.5745027661323547e-01" purity="4.5347127318382263e-01" nType="0">
          <Node pos="l" depth="2" NCoef="0" IVar="-1" Cut="0.0000000000000000e+00" cType="1" res="-4.8658680170774460e-03" rms="3.6458215117454529e-01" purity="4.4475820660591125e-01" nType="-99"/>
          <Node pos="r" depth="2" NCoef="0" IVar="-1" Cut="0.0000000000000000e+00" cType="1" res="-7.1418617153540254e-04" rms="3.5114839673042297e-01" purity="4.6045148372650146e-01" nType="-99"/>
        </Node>
        <Node pos="r" depth="1" NCoef="0" IVar="3" Cut="-3.8869318366050720e-01" cType="1" res="1.8854243680834770e-03" rms="3.4522071480751038e-01" purity="5.0365626811981201e-01" nType="0">
          <Node pos="l" depth="2" NCoef="0" IVar="-1" Cut="0.0000000000000000e+00" cType="1" res="4.1688219644129276e-03" rms="3.0976811051368713e-01" purity="6.9996035099029541e-01" nType="-99"/>
          <Node pos="r" depth="2" NCoef="0" IVar="-1" Cut="0.0000000000000000e+00" cType="1" res="-5.3801533067598939e-04" rms="3.6017182469367981e-01" purity="4.1413909196853638e-01" nType="-99"/>
        </Node>
      </Node>
    </BinaryTree>
    <BinaryTree type="DecisionTree" boostWeight="1.0000000000000000e+00" itree="754">
      <Node pos="s" depth="0" NCoef="0" IVar="7" Cut="-9.3771409988403320e-01" cType="1" res="3.3442757558077574e-03" rms="3.4887269139289856e-01" purity="5.0390750169754028e-01" nType="0">
        <Node pos="l" depth="1" NCoef="0" IVar="11" Cut="8.0938076972961426e-01" cType="1" res="-1.1155324056744576e-02" rms="3.4969320893287659e-01" purity="5.0634711980819702e-01" nType="0">
          <Node pos="l" depth="2" NCoef="0" IVar="-1" Cut="0.0000000000000000e+00" cType="1" res="-4.6765743754804134e-03" rms="3.6775356531143188e-01" purity="3.6018779873847961e-01" nType="-99"/>
          <Node pos="r" depth="2" NCoef="0" IVar="-1" Cut="0.0000000000000000e+00" cType="1" res="3.4400236327201128e-03" rms="2.9583317041397095e-01" purity="8.9318400621414185e-01" nType="-99"/>
        </Node>
        <Node pos="r" depth="1" NCoef="0" IVar="5" Cut="4.9587044715881348e+00" cType="1" res="4.8498278483748436e-03" rms="3.4875285625457764e-01" purity="5.0365418195724487e-01" nType="0">
          <Node pos="l" depth="2" NCoef="0" IVar="-1" Cut="0.0000000000000000e+00" cType="1" res="-4.9181394279003143e-03" rms="3.8182991743087769e-01" purity="5.3468471765518188e-01" nType="-99"/>
          <Node pos="r" depth="2" NCoef="0" IVar="-1" Cut="0.0000000000000000e+00" cType="1" res="1.7331531271338463e-03" rms="3.4743425250053406e-01" purity="5.0249987840652466e-01" nType="-99"/>
        </Node>
      </Node>
    </BinaryTree>
    <BinaryTree type="DecisionTree" boostWeight="1.0000000000000000e+00" itree="755">
      <Node pos="s" depth="0" NCoef="0" IVar="8" Cut="-5.7861030101776123e-01" cType="1" res="1.5350177418440580e-03" rms="3.4973821043968201e-01" purity="5.0118088722229004e-01" nType="0">
        <Node pos="l" depth="1" NCoef="0" IVar="-1" Cut="0.0000000000000000e+00" cType="1" res="2.1239318884909153e-03" rms="3.9237537980079651e-01" purity="5.4433459043502808e-01" nType="-99"/>
        <Node pos="r" depth="1" NCoef="0" IVar="13" Cut="2.3807466030120850e-01" cType="1" res="-1.2995116412639618e-04" rms="3.4525364637374878e-01" purity="4.9697270989418030e-01" nType="0">
          <Node pos="l" depth="2" NCoef="0" IVar="-1" Cut="0.0000000000000000e+00" cType="1" res="-9.0574490604922175e-04" rms="3.4168750047683716e-01" purity="3.7727192044258118e-01" nType="-99"/>
          <Node pos="r" depth="2" NCoef="0" IVar="-1" Cut="0.0000000000000000e+00" cType="1" res="2.2434014827013016e-03" rms="3.5389953851699829e-01" purity="7.9496741294860840e-01" nType="-99"/>
        </Node>
      </Node>
    </BinaryTree>
    <BinaryTree type="DecisionTree" boostWeight="1.0000000000000000e+00" itree="756">
      <Node pos="s" depth="0" NCoef="0" IVar="1" Cut="5.3288631439208984e+00" cType="1" res="-1.8585702637210488e-03" rms="3.4853211045265198e-01" purity="4.9535736441612244e-01" nType="0">
        <Node pos="l" depth="1" NCoef="0" IVar="11" Cut="4.3391432613134384e-02" cType="1" res="1.3656033203005791e-02" rms="4.1312366724014282e-01" purity="2.9185941815376282e-01" nType="0">
          <Node pos="l" depth="2" NCoef="0" IVar="-1" Cut="0.0000000000000000e+00" cType="1" res="1.2810912914574146e-02" rms="3.4814512729644775e-01" purity="1.4932674169540405e-01" nType="-99"/>
          <Node pos="r" depth="2" NCoef="0" IVar="-1" Cut="0.0000000000000000e+00" cType="1" res="2.0363456860650331e-04" rms="4.4314715266227722e-01" purity="3.6723837256431580e-01" nType="-99"/>
        </Node>
        <Node pos="r" depth="1" NCoef="0" IVar="5" Cut="8.5496397018432617e+00" cType="1" res="-3.3998221624642611e-03" rms="3.4141039848327637e-01" purity="5.1557326316833496e-01" nType="0">
          <Node pos="l" depth="2" NCoef="0" IVar="-1" Cut="0.0000000000000000e+00" cType="1" res="-1.3739361893385649e-03" rms="3.3905795216560364e-01" purity="5.1739442348480225e-01" nType="-99"/>
          <Node pos="r" depth="2" NCoef="0" IVar="-1" Cut="0.0000000000000000e+00" cType="1" res="4.2447075247764587e-03" rms="3.9831164479255676e-01" purity="4.6711185574531555e-01" nType="-99"/>
        </Node>
      </Node>
    </BinaryTree>
    <BinaryTree type="DecisionTree" boostWeight="1.0000000000000000e+00" itree="757">
      <Node pos="s" depth="0" NCoef="0" IVar="7" Cut="1.5567840337753296e+00" cType="1" res="3.1930245459079742e-03" rms="3.4869030117988586e-01" purity="5.0518453121185303e-01" nType="0">
        <Node pos="l" depth="1" NCoef="0" IVar="2" Cut="8.2049665451049805e+00" cType="1" res="4.1310405358672142e-03" rms="3.4894710779190063e-01" purity="5.1477068662643433e-01" nType="0">
          <Node pos="l" depth="2" NCoef="0" IVar="-1" Cut="0.0000000000000000e+00" cType="1" res="3.9243078790605068e-03" rms="3.7729060649871826e-01" purity="4.9295833706855774e-01" nType="-99"/>
          <Node pos="r" depth="2" NCoef="0" IVar="-1" Cut="0.0000000000000000e+00" cType="1" res="9.2785153537988663e-04" rms="3.4708002209663391e-01" purity="5.1612424850463867e-01" nType="-99"/>
        </Node>
        <Node pos="r" depth="1" NCoef="0" IVar="-1" Cut="0.0000000000000000e+00" cType="1" res="-7.8483242541551590e-03" rms="3.4023544192314148e-01" purity="2.3284667730331421e-01" nType="-99"/>
      </Node>
    </BinaryTree>
    <BinaryTree type="DecisionTree" boostWeight="1.0000000000000000e+00" itree="758">
      <Node pos="s" depth="0" NCoef="0" IVar="9" Cut="4.0000000000000000e+00" cType="1" res="-6.8305700551718473e-04" rms="2.2814226150512695e-01" purity="4.9943917989730835e-01" nType="0">
        <Node pos="l" depth="1" NCoef="0" IVar="8" Cut="-2.5383740663528442e-01" cType="1" res="-1.0781538439914584e-03" rms="3.4547343850135803e-01" purity="5.1277667284011841e-01" nType="0">
          <Node pos="l" depth="2" NCoef="0" IVar="-1" Cut="0.0000000000000000e+00" cType="1" res="1.3105261605232954e-03" rms="3.5963788628578186e-01" purity="5.1512855291366577e-01" nType="-99"/>
          <Node pos="r" depth="2" NCoef="0" IVar="-1" Cut="0.0000000000000000e+00" cType="1" res="-1.6116918995976448e-03" rms="3.3937546610832214e-01" purity="5.1180219650268555e-01" nType="-99"/>
        </Node>
        <Node pos="r" depth="1" NCoef="0" IVar="8" Cut="8.9495420455932617e-02" cType="1" res="-1.3001937419176102e-02" rms="3.7553629279136658e-01" purity="3.6071240901947021e-01" nType="0">
          <Node pos="l" depth="2" NCoef="0" IVar="-1" Cut="0.0000000000000000e+00" cType="1" res="-1.3140747323632240e-02" rms="3.7487626075744629e-01" purity="3.5207581520080566e-01" nType="-99"/>
          <Node pos="r" depth="2" NCoef="0" IVar="-1" Cut="0.0000000000000000e+00" cType="1" res="3.3905692398548126e-03" rms="3.7593117356300354e-01" purity="3.7498188018798828e-01" nType="-99"/>
        </Node>
      </Node>
    </BinaryTree>
    <BinaryTree type="DecisionTree" boostWeight="1.0000000000000000e+00" itree="759">
      <Node pos="s" depth="0" NCoef="0" IVar="8" Cut="-4.5631641149520874e-01" cType="1" res="7.9452455975115299e-04" rms="3.4900039434432983e-01" purity="5.0144183635711670e-01" nType="0">
        <Node pos="l" depth="1" NCoef="0" IVar="7" Cut="-5.5932112038135529e-02" cType="1" res="2.2259948775172234e-02" rms="3.8248965144157410e-01" purity="5.2654403448104858e-01" nType="0">
          <Node pos="l" depth="2" NCoef="0" IVar="-1" Cut="0.0000000000000000e+00" cType="1" res="6.6268420778214931e-03" rms="3.8817912340164185e-01" purity="5.9412401914596558e-01" nType="-99"/>
          <Node pos="r" depth="2" NCoef="0" IVar="-1" Cut="0.0000000000000000e+00" cType="1" res="4.7983680269680917e-04" rms="3.7696039676666260e-01" purity="4.7489601373672485e-01" nType="-99"/>
        </Node>
        <Node pos="r" depth="1" NCoef="0" IVar="1" Cut="7.0302438735961914e+00" cType="1" res="-2.7070371434092522e-03" rms="3.4310021996498108e-01" purity="4.9734705686569214e-01" nType="0">
          <Node pos="l" depth="2" NCoef="0" IVar="-1" Cut="0.0000000000000000e+00" cType="1" res="-1.9717209506779909e-03" rms="3.5417097806930542e-01" purity="4.5197466015815735e-01" nType="-99"/>
          <Node pos="r" depth="2" NCoef="0" IVar="-1" Cut="0.0000000000000000e+00" cType="1" res="3.1556710600852966e-03" rms="3.0049833655357361e-01" purity="6.5772145986557007e-01" nType="-99"/>
        </Node>
      </Node>
    </BinaryTree>
    <BinaryTree type="DecisionTree" boostWeight="1.0000000000000000e+00" itree="760">
      <Node pos="s" depth="0" NCoef="0" IVar="11" Cut="6.6654270887374878e-01" cType="1" res="-3.3412771299481392e-03" rms="3.4808495640754700e-01" purity="4.9987903237342834e-01" nType="0">
        <Node pos="l" depth="1" NCoef="0" IVar="12" Cut="1.9042882323265076e-01" cType="1" res="-7.1211443282663822e-03" rms="3.6303097009658813e-01" purity="3.1806665658950806e-01" nType="0">
          <Node pos="l" depth="2" NCoef="0" IVar="-1" Cut="0.0000000000000000e+00" cType="1" res="-1.2078472413122654e-02" rms="3.7348747253417969e-01" purity="5.3231883049011230e-01" nType="-99"/>
          <Node pos="r" depth="2" NCoef="0" IVar="-1" Cut="0.0000000000000000e+00" cType="1" res="-1.3253230135887861e-03" rms="3.6229100823402405e-01" purity="3.0536711215972900e-01" nType="-99"/>
        </Node>
        <Node pos="r" depth="1" NCoef="0" IVar="3" Cut="5.3180158138275146e-01" cType="1" res="4.3938551098108292e-03" rms="3.1515741348266602e-01" purity="8.7194037437438965e-01" nType="0">
          <Node pos="l" depth="2" NCoef="0" IVar="-1" Cut="0.0000000000000000e+00" cType="1" res="-3.7395182880572975e-04" rms="2.7022045850753784e-01" purity="9.1130334138870239e-01" nType="-99"/>
          <Node pos="r" depth="2" NCoef="0" IVar="-1" Cut="0.0000000000000000e+00" cType="1" res="3.8879839703440666e-03" rms="4.0272456407546997e-01" purity="7.7756404876708984e-01" nType="-99"/>
        </Node>
      </Node>
    </BinaryTree>
    <BinaryTree type="DecisionTree" boostWeight="1.0000000000000000e+00" itree="761">
      <Node pos="s" depth="0" NCoef="0" IVar="4" Cut="5.7725203037261963e-01" cType="1" res="-8.4783264901489019e-04" rms="3.4620088338851929e-01" purity="4.9986040592193604e-01" nType="0">
        <Node pos="l" depth="1" NCoef="0" IVar="12" Cut="6.6645413637161255e-01" cType="1" res="5.8488914510235190e-04" rms="3.4414497017860413e-01" purity="5.1005840301513672e-01" nType="0">
          <Node pos="l" depth="2" NCoef="0" IVar="-1" Cut="0.0000000000000000e+00" cType="1" res="1.7683869227766991e-03" rms="3.5194057226181030e-01" purity="7.7013605833053589e-01" nType="-99"/>
          <Node pos="r" depth="2" NCoef="0" IVar="-1" Cut="0.0000000000000000e+00" cType="1" res="-1.6987591516226530e-03" rms="3.3463156223297119e-01" purity="2.0396147668361664e-01" nType="-99"/>
        </Node>
        <Node pos="r" depth="1" NCoef="0" IVar="13" Cut="4.7587867826223373e-02" cType="1" res="-2.5091407820582390e-02" rms="3.7848234176635742e-01" purity="3.2729649543762207e-01" nType="0">
          <Node pos="l" depth="2" NCoef="0" IVar="-1" Cut="0.0000000000000000e+00" cType="1" res="-1.1379469651728868e-03" rms="2.8403517603874207e-01" purity="1.6193327307701111e-01" nType="-99"/>
          <Node pos="r" depth="2" NCoef="0" IVar="-1" Cut="0.0000000000000000e+00" cType="1" res="-7.9024201259016991e-03" rms="4.5083212852478027e-01" purity="4.8842680454254150e-01" nType="-99"/>
        </Node>
      </Node>
    </BinaryTree>
    <BinaryTree type="DecisionTree" boostWeight="1.0000000000000000e+00" itree="762">
      <Node pos="s" depth="0" NCoef="0" IVar="2" Cut="8.2399415969848633e+00" cType="1" res="8.7216736574191600e-05" rms="3.4582033753395081e-01" purity="4.9815472960472107e-01" nType="0">
        <Node pos="l" depth="1" NCoef="0" IVar="-1" Cut="0.0000000000000000e+00" cType="1" res="-3.9087566547095776e-03" rms="3.5989931225776672e-01" purity="4.4251894950866699e-01" nType="-99"/>
        <Node pos="r" depth="1" NCoef="0" IVar="9" Cut="3.6931471824645996e+00" cType="1" res="2.1660632919520140e-03" rms="2.2595107555389404e-01" purity="5.0198179483413696e-01" nType="0">
          <Node pos="l" depth="2" NCoef="0" IVar="-1" Cut="0.0000000000000000e+00" cType="1" res="3.3493828959763050e-04" rms="3.3765879273414612e-01" purity="5.4205453395843506e-01" nType="-99"/>
          <Node pos="r" depth="2" NCoef="0" IVar="-1" Cut="0.0000000000000000e+00" cType="1" res="8.4540568059310317e-04" rms="3.5965046286582947e-01" purity="4.1575312614440918e-01" nType="-99"/>
        </Node>
      </Node>
    </BinaryTree>
    <BinaryTree type="DecisionTree" boostWeight="1.0000000000000000e+00" itree="763">
      <Node pos="s" depth="0" NCoef="0" IVar="3" Cut="5.3171342611312866e-01" cType="1" res="1.2047102209180593e-03" rms="3.4874811768531799e-01" purity="5.0001275539398193e-01" nType="0">
        <Node pos="l" depth="1" NCoef="0" IVar="11" Cut="1.4283926784992218e-01" cType="1" res="4.9969465471804142e-03" rms="3.3862099051475525e-01" purity="5.9476011991500854e-01" nType="0">
          <Node pos="l" depth="2" NCoef="0" IVar="-1" Cut="0.0000000000000000e+00" cType="1" res="3.9633125998079777e-03" rms="3.5589161515235901e-01" purity="2.2528146207332611e-01" nType="-99"/>
          <Node pos="r" depth="2" NCoef="0" IVar="-1" Cut="0.0000000000000000e+00" cType="1" res="-3.6351435119286180e-04" rms="3.2600936293601990e-01" purity="8.5026055574417114e-01" nType="-99"/>
        </Node>
        <Node pos="r" depth="1" NCoef="0" IVar="2" Cut="8.8233394622802734e+00" cType="1" res="-4.6568471007049084e-03" rms="3.6376947164535522e-01" purity="3.5356432199478149e-01" nType="0">
          <Node pos="l" depth="2" NCoef="0" IVar="-1" Cut="0.0000000000000000e+00" cType="1" res="-3.7673080805689096e-03" rms="3.6044073104858398e-01" purity="3.4567841887474060e-01" nType="-99"/>
          <Node pos="r" depth="2" NCoef="0" IVar="-1" Cut="0.0000000000000000e+00" cType="1" res="8.3568558329716325e-04" rms="3.6516326665878296e-01" purity="3.5741263628005981e-01" nType="-99"/>
        </Node>
      </Node>
    </BinaryTree>
    <BinaryTree type="DecisionTree" boostWeight="1.0000000000000000e+00" itree="764">
      <Node pos="s" depth="0" NCoef="0" IVar="12" Cut="8.0926632881164551e-01" cType="1" res="7.4565829709172249e-04" rms="3.4671208262443542e-01" purity="5.0002706050872803e-01" nType="0">
        <Node pos="l" depth="1" NCoef="0" IVar="12" Cut="3.8537570834159851e-01" cType="1" res="4.3945726938545704e-03" rms="3.7228995561599731e-01" purity="7.0069211721420288e-01" nType="0">
          <Node pos="l" depth="2" NCoef="0" IVar="-1" Cut="0.0000000000000000e+00" cType="1" res="-3.1838917493587360e-05" rms="3.3203408122062683e-01" purity="8.1605225801467896e-01" nType="-99"/>
          <Node pos="r" depth="2" NCoef="0" IVar="-1" Cut="0.0000000000000000e+00" cType="1" res="2.1651857532560825e-03" rms="4.3361198902130127e-01" purity="4.9922758340835571e-01" nType="-99"/>
        </Node>
        <Node pos="r" depth="1" NCoef="0" IVar="12" Cut="9.1808384656906128e-01" cType="1" res="-5.9494278393685818e-03" rms="2.9393321275711060e-01" purity="1.3184355199337006e-01" nType="0">
          <Node pos="l" depth="2" NCoef="0" IVar="-1" Cut="0.0000000000000000e+00" cType="1" res="-3.7822509184479713e-03" rms="4.1049629449844360e-01" purity="2.8150144219398499e-01" nType="-99"/>
          <Node pos="r" depth="2" NCoef="0" IVar="-1" Cut="0.0000000000000000e+00" cType="1" res="-2.3231739760376513e-04" rms="2.1109020709991455e-01" purity="5.5761057883501053e-02" nType="-99"/>
        </Node>
      </Node>
    </BinaryTree>
    <BinaryTree type="DecisionTree" boostWeight="1.0000000000000000e+00" itree="765">
      <Node pos="s" depth="0" NCoef="0" IVar="0" Cut="8.9111566543579102e+00" cType="1" res="1.4534931397065520e-03" rms="3.4934258460998535e-01" purity="5.0039517879486084e-01" nType="0">
        <Node pos="l" depth="1" NCoef="0" IVar="3" Cut="-6.9552201032638550e-01" cType="1" res="-3.1063926871865988e-03" rms="3.8043701648712158e-01" purity="4.2606383562088013e-01" nType="0">
          <Node pos="l" depth="2" NCoef="0" IVar="-1" Cut="0.0000000000000000e+00" cType="1" res="-4.8050298355519772e-03" rms="3.6536937952041626e-01" purity="5.8636361360549927e-01" nType="-99"/>
          <Node pos="r" depth="2" NCoef="0" IVar="-1" Cut="0.0000000000000000e+00" cType="1" res="1.3308224151842296e-04" rms="3.8448223471641541e-01" purity="3.8107836246490479e-01" nType="-99"/>
        </Node>
        <Node pos="r" depth="1" NCoef="0" IVar="1" Cut="5.8858323097229004e+00" cType="1" res="4.9011814408004284e-03" rms="3.2381373643875122e-01" purity="5.5659639835357666e-01" nType="0">
          <Node pos="l" depth="2" NCoef="0" IVar="-1" Cut="0.0000000000000000e+00" cType="1" res="5.8868872001767159e-03" rms="3.6837121844291687e-01" purity="3.7918046116828918e-01" nType="-99"/>
          <Node pos="r" depth="2" NCoef="0" IVar="-1" Cut="0.0000000000000000e+00" cType="1" res="8.3488161908462644e-04" rms="3.1635490059852600e-01" purity="5.8381092548370361e-01" nType="-99"/>
        </Node>
      </Node>
    </BinaryTree>
    <BinaryTree type="DecisionTree" boostWeight="1.0000000000000000e+00" itree="766">
      <Node pos="s" depth="0" NCoef="0" IVar="8" Cut="-5.3513187170028687e-01" cType="1" res="-1.4000682858750224e-03" rms="3.5005182027816772e-01" purity="4.9662870168685913e-01" nType="0">
        <Node pos="l" depth="1" NCoef="0" IVar="12" Cut="7.1388649940490723e-01" cType="1" res="-1.7868265509605408e-02" rms="3.8789018988609314e-01" purity="4.8638355731964111e-01" nType="0">
          <Node pos="l" depth="2" NCoef="0" IVar="-1" Cut="0.0000000000000000e+00" cType="1" res="-7.5266556814312935e-04" rms="4.0184283256530762e-01" purity="7.1200489997863770e-01" nType="-99"/>
          <Node pos="r" depth="2" NCoef="0" IVar="-1" Cut="0.0000000000000000e+00" cType="1" res="-3.9546280167996883e-03" rms="3.7348118424415588e-01" purity="2.6728296279907227e-01" nType="-99"/>
        </Node>
        <Node pos="r" depth="1" NCoef="0" IVar="6" Cut="-7.8903001546859741e-01" cType="1" res="4.9268925795331597e-04" rms="3.4538713097572327e-01" purity="4.9780622124671936e-01" nType="0">
          <Node pos="l" depth="2" NCoef="0" IVar="-1" Cut="0.0000000000000000e+00" cType="1" res="5.6662125280126929e-04" rms="3.4447342157363892e-01" purity="5.1006680727005005e-01" nType="-99"/>
          <Node pos="r" depth="2" NCoef="0" IVar="-1" Cut="0.0000000000000000e+00" cType="1" res="-7.3304283432662487e-03" rms="3.6452928185462952e-01" purity="2.2130964696407318e-01" nType="-99"/>
        </Node>
      </Node>
    </BinaryTree>
    <BinaryTree type="DecisionTree" boostWeight="1.0000000000000000e+00" itree="767">
      <Node pos="s" depth="0" NCoef="0" IVar="9" Cut="3.6931471824645996e+00" cType="1" res="1.2689761933870614e-04" rms="2.2702503204345703e-01" purity="5.0069904327392578e-01" nType="0">
        <Node pos="l" depth="1" NCoef="0" IVar="6" Cut="-3.1562871932983398e+00" cType="1" res="3.2330057001672685e-04" rms="3.3902502059936523e-01" purity="5.4161882400512695e-01" nType="0">
          <Node pos="l" depth="2" NCoef="0" IVar="-1" Cut="0.0000000000000000e+00" cType="1" res="-2.1932565141469240e-03" rms="3.1379181146621704e-01" purity="6.2944728136062622e-01" nType="-99"/>
          <Node pos="r" depth="2" NCoef="0" IVar="-1" Cut="0.0000000000000000e+00" cType="1" res="1.1327840620651841e-03" rms="3.5296690464019775e-01" purity="4.8992639780044556e-01" nType="-99"/>
        </Node>
        <Node pos="r" depth="1" NCoef="0" IVar="6" Cut="-3.1326897144317627e+00" cType="1" res="-5.1699607865884900e-04" rms="3.6206281185150146e-01" purity="4.1388079524040222e-01" nType="0">
          <Node pos="l" depth="2" NCoef="0" IVar="-1" Cut="0.0000000000000000e+00" cType="1" res="4.0550539270043373e-03" rms="3.3793106675148010e-01" purity="5.1504319906234741e-01" nType="-99"/>
          <Node pos="r" depth="2" NCoef="0" IVar="-1" Cut="0.0000000000000000e+00" cType="1" res="-2.2814243566244841e-03" rms="3.7500783801078796e-01" purity="3.5623422265052795e-01" nType="-99"/>
        </Node>
      </Node>
    </BinaryTree>
    <BinaryTree type="DecisionTree" boostWeight="1.0000000000000000e+00" itree="768">
      <Node pos="s" depth="0" NCoef="0" IVar="9" Cut="3.6931471824645996e+00" cType="1" res="1.5433417866006494e-03" rms="2.2488798201084137e-01" purity="4.9945122003555298e-01" nType="0">
        <Node pos="l" depth="1" NCoef="0" IVar="0" Cut="8.6825771331787109e+00" cType="1" res="-6.4031739020720124e-04" rms="3.4080049395561218e-01" purity="5.3715884685516357e-01" nType="0">
          <Node pos="l" depth="2" NCoef="0" IVar="-1" Cut="0.0000000000000000e+00" cType="1" res="1.7908334266394377e-03" rms="3.8235193490982056e-01" purity="4.6046388149261475e-01" nType="-99"/>
          <Node pos="r" depth="2" NCoef="0" IVar="-1" Cut="0.0000000000000000e+00" cType="1" res="-1.4528266619890928e-03" rms="3.1720796227455139e-01" purity="5.7664686441421509e-01" nType="-99"/>
        </Node>
        <Node pos="r" depth="1" NCoef="0" IVar="0" Cut="1.0436882019042969e+01" cType="1" res="2.3755249567329884e-03" rms="3.6306717991828918e-01" purity="4.1955769062042236e-01" nType="0">
          <Node pos="l" depth="2" NCoef="0" IVar="-1" Cut="0.0000000000000000e+00" cType="1" res="1.6689550830051303e-03" rms="3.6123129725456238e-01" purity="4.1164305806159973e-01" nType="-99"/>
          <Node pos="r" depth="2" NCoef="0" IVar="-1" Cut="0.0000000000000000e+00" cType="1" res="-3.7828334607183933e-03" rms="3.8024008274078369e-01" purity="4.9741923809051514e-01" nType="-99"/>
        </Node>
      </Node>
    </BinaryTree>
    <BinaryTree type="DecisionTree" boostWeight="1.0000000000000000e+00" itree="769">
      <Node pos="s" depth="0" NCoef="0" IVar="8" Cut="2.0552967488765717e-01" cType="1" res="2.1645100787281990e-04" rms="3.5076978802680969e-01" purity="4.9790614843368530e-01" nType="0">
        <Node pos="l" depth="1" NCoef="0" IVar="3" Cut="2.2440256178379059e-01" cType="1" res="-1.9188706064596772e-03" rms="3.5053104162216187e-01" purity="5.0074976682662964e-01" nType="0">
          <Node pos="l" depth="2" NCoef="0" IVar="-1" Cut="0.0000000000000000e+00" cType="1" res="-2.3345500230789185e-03" rms="3.3290898799896240e-01" purity="6.2661635875701904e-01" nType="-99"/>
          <Node pos="r" depth="2" NCoef="0" IVar="-1" Cut="0.0000000000000000e+00" cType="1" res="6.4200977794826031e-04" rms="3.6612072587013245e-01" purity="3.8355141878128052e-01" nType="-99"/>
        </Node>
        <Node pos="r" depth="1" NCoef="0" IVar="11" Cut="9.0457922220230103e-01" cType="1" res="8.1222364678978920e-03" rms="3.5153946280479431e-01" purity="4.8737794160842896e-01" nType="0">
          <Node pos="l" depth="2" NCoef="0" IVar="-1" Cut="0.0000000000000000e+00" cType="1" res="4.1506937704980373e-03" rms="3.5913920402526855e-01" purity="4.0902173519134521e-01" nType="-99"/>
          <Node pos="r" depth="2" NCoef="0" IVar="-1" Cut="0.0000000000000000e+00" cType="1" res="-8.4665762260556221e-03" rms="3.0989107489585876e-01" purity="8.7696385383605957e-01" nType="-99"/>
        </Node>
      </Node>
    </BinaryTree>
    <BinaryTree type="DecisionTree" boostWeight="1.0000000000000000e+00" itree="770">
      <Node pos="s" depth="0" NCoef="0" IVar="4" Cut="5.7725203037261963e-01" cType="1" res="3.4847958886530250e-05" rms="3.4798073768615723e-01" purity="5.0105220079421997e-01" nType="0">
        <Node pos="l" depth="1" NCoef="0" IVar="3" Cut="-1.9221128225326538e+00" cType="1" res="-1.2881807051599026e-03" rms="3.4565919637680054e-01" purity="5.0867205858230591e-01" nType="0">
          <Node pos="l" depth="2" NCoef="0" IVar="-1" Cut="0.0000000000000000e+00" cType="1" res="6.5403040498495102e-03" rms="2.8552016615867615e-01" purity="7.5253206491470337e-01" nType="-99"/>
          <Node pos="r" depth="2" NCoef="0" IVar="-1" Cut="0.0000000000000000e+00" cType="1" res="-7.8075256897136569e-04" rms="3.5019597411155701e-01" purity="4.8824638128280640e-01" nType="-99"/>
        </Node>
        <Node pos="r" depth="1" NCoef="0" IVar="13" Cut="4.7353923320770264e-02" cType="1" res="2.0986111834645271e-02" rms="3.8226249814033508e-01" purity="3.8038527965545654e-01" nType="0">
          <Node pos="l" depth="2" NCoef="0" IVar="-1" Cut="0.0000000000000000e+00" cType="1" res="-5.1259912652312778e-06" rms="2.8922787308692932e-01" purity="1.4960978925228119e-01" nType="-99"/>
          <Node pos="r" depth="2" NCoef="0" IVar="-1" Cut="0.0000000000000000e+00" cType="1" res="6.9687212817370892e-03" rms="4.4842168688774109e-01" purity="5.8614873886108398e-01" nType="-99"/>
        </Node>
      </Node>
    </BinaryTree>
    <BinaryTree type="DecisionTree" boostWeight="1.0000000000000000e+00" itree="771">
      <Node pos="s" depth="0" NCoef="0" IVar="0" Cut="9.3510217666625977e+00" cType="1" res="5.3153792396187782e-04" rms="3.4563249349594116e-01" purity="4.9954324960708618e-01" nType="0">
        <Node pos="l" depth="1" NCoef="0" IVar="10" Cut="3.0000000000000000e+00" cType="1" res="9.9868595134466887e-04" rms="2.1646389365196228e-01" purity="4.5809552073478699e-01" nType="0">
          <Node pos="l" depth="2" NCoef="0" IVar="-1" Cut="0.0000000000000000e+00" cType="1" res="1.7646558117121458e-03" rms="3.6156752705574036e-01" purity="4.7771281003952026e-01" nType="-99"/>
          <Node pos="r" depth="2" NCoef="0" IVar="-1" Cut="0.0000000000000000e+00" cType="1" res="-2.7823001146316528e-03" rms="3.6859863996505737e-01" purity="3.5432282090187073e-01" nType="-99"/>
        </Node>
        <Node pos="r" depth="1" NCoef="0" IVar="6" Cut="-3.1771633625030518e+00" cType="1" res="-4.4651748612523079e-03" rms="3.1774622201919556e-01" purity="5.6269866228103638e-01" nType="0">
          <Node pos="l" depth="2" NCoef="0" IVar="-1" Cut="0.0000000000000000e+00" cType="1" res="1.6359485452994704e-03" rms="2.9399824142456055e-01" purity="6.5626269578933716e-01" nType="-99"/>
          <Node pos="r" depth="2" NCoef="0" IVar="-1" Cut="0.0000000000000000e+00" cType="1" res="-3.1446800567209721e-03" rms="3.3344095945358276e-01" purity="4.9628597497940063e-01" nType="-99"/>
        </Node>
      </Node>
    </BinaryTree>
    <BinaryTree type="DecisionTree" boostWeight="1.0000000000000000e+00" itree="772">
      <Node pos="s" depth="0" NCoef="0" IVar="9" Cut="3.6931471824645996e+00" cType="1" res="-3.3727184927556664e-05" rms="2.2791323065757751e-01" purity="5.0054538249969482e-01" nType="0">
        <Node pos="l" depth="1" NCoef="0" IVar="3" Cut="-2.5332798957824707e+00" cType="1" res="5.3508987184613943e-04" rms="3.3718580007553101e-01" purity="5.4009866714477539e-01" nType="0">
          <Node pos="l" depth="2" NCoef="0" IVar="-1" Cut="0.0000000000000000e+00" cType="1" res="1.2682115659117699e-02" rms="2.4725222587585449e-01" purity="8.1518125534057617e-01" nType="-99"/>
          <Node pos="r" depth="2" NCoef="0" IVar="-1" Cut="0.0000000000000000e+00" cType="1" res="-1.7618965648580343e-04" rms="3.4055167436599731e-01" purity="5.2798813581466675e-01" nType="-99"/>
        </Node>
        <Node pos="r" depth="1" NCoef="0" IVar="12" Cut="5.2349036931991577e-01" cType="1" res="1.6592310275882483e-03" rms="3.6925065517425537e-01" purity="4.1658812761306763e-01" nType="0">
          <Node pos="l" depth="2" NCoef="0" IVar="-1" Cut="0.0000000000000000e+00" cType="1" res="-4.7504184767603874e-03" rms="3.9736354351043701e-01" purity="7.1534401178359985e-01" nType="-99"/>
          <Node pos="r" depth="2" NCoef="0" IVar="-1" Cut="0.0000000000000000e+00" cType="1" res="4.5934738591313362e-03" rms="3.4914684295654297e-01" purity="2.1948653459548950e-01" nType="-99"/>
        </Node>
      </Node>
    </BinaryTree>
    <BinaryTree type="DecisionTree" boostWeight="1.0000000000000000e+00" itree="773">
      <Node pos="s" depth="0" NCoef="0" IVar="12" Cut="5.2357691526412964e-01" cType="1" res="1.0115333134308457e-03" rms="3.5120671987533569e-01" purity="4.9810275435447693e-01" nType="0">
        <Node pos="l" depth="1" NCoef="0" IVar="1" Cut="5.9114985466003418e+00" cType="1" res="-4.4242767617106438e-03" rms="3.4744247794151306e-01" purity="7.9046374559402466e-01" nType="0">
          <Node pos="l" depth="2" NCoef="0" IVar="-1" Cut="0.0000000000000000e+00" cType="1" res="-6.7660058848559856e-03" rms="4.0736082196235657e-01" purity="6.4777880907058716e-01" nType="-99"/>
          <Node pos="r" depth="2" NCoef="0" IVar="-1" Cut="0.0000000000000000e+00" cType="1" res="-5.5020360741764307e-04" rms="3.3921483159065247e-01" purity="8.0806362628936768e-01" nType="-99"/>
        </Node>
        <Node pos="r" depth="1" NCoef="0" IVar="12" Cut="6.8226426839828491e-01" cType="1" res="5.6185144931077957e-03" rms="3.5430043935775757e-01" purity="2.5031968951225281e-01" nType="0">
          <Node pos="l" depth="2" NCoef="0" IVar="-1" Cut="0.0000000000000000e+00" cType="1" res="4.4083842076361179e-03" rms="4.4137403368949890e-01" purity="5.3216701745986938e-01" nType="-99"/>
          <Node pos="r" depth="2" NCoef="0" IVar="-1" Cut="0.0000000000000000e+00" cType="1" res="7.4029527604579926e-04" rms="3.3584645390510559e-01" purity="1.9878067076206207e-01" nType="-99"/>
        </Node>
      </Node>
    </BinaryTree>
    <BinaryTree type="DecisionTree" boostWeight="1.0000000000000000e+00" itree="774">
      <Node pos="s" depth="0" NCoef="0" IVar="4" Cut="-5.0706309080123901e-01" cType="1" res="-1.8175549339503050e-03" rms="3.4796375036239624e-01" purity="4.9976685643196106e-01" nType="0">
        <Node pos="l" depth="1" NCoef="0" IVar="10" Cut="2.0000000000000000e+00" cType="1" res="1.3343919999897480e-03" rms="2.6222580671310425e-01" purity="5.6627738475799561e-01" nType="0">
          <Node pos="l" depth="2" NCoef="0" IVar="-1" Cut="0.0000000000000000e+00" cType="1" res="3.2300825696438551e-03" rms="3.1189379096031189e-01" purity="6.2491339445114136e-01" nType="-99"/>
          <Node pos="r" depth="2" NCoef="0" IVar="-1" Cut="0.0000000000000000e+00" cType="1" res="-1.2987412046641111e-03" rms="3.4236603975296021e-01" purity="5.0605833530426025e-01" nType="-99"/>
        </Node>
        <Node pos="r" depth="1" NCoef="0" IVar="2" Cut="8.7055139541625977e+00" cType="1" res="-6.0064429417252541e-03" rms="3.6588826775550842e-01" purity="4.3847313523292542e-01" nType="0">
          <Node pos="l" depth="2" NCoef="0" IVar="-1" Cut="0.0000000000000000e+00" cType="1" res="1.1092296335846186e-03" rms="3.7388852238655090e-01" purity="4.5961427688598633e-01" nType="-99"/>
          <Node pos="r" depth="2" NCoef="0" IVar="-1" Cut="0.0000000000000000e+00" cType="1" res="-3.1006156932562590e-03" rms="3.6310765147209167e-01" purity="4.3145406246185303e-01" nType="-99"/>
        </Node>
      </Node>
    </BinaryTree>
    <BinaryTree type="DecisionTree" boostWeight="1.0000000000000000e+00" itree="775">
      <Node pos="s" depth="0" NCoef="0" IVar="2" Cut="8.2035484313964844e+00" cType="1" res="-2.5357962585985661e-03" rms="3.5008177161216736e-01" purity="4.9840697646141052e-01" nType="0">
        <Node pos="l" depth="1" NCoef="0" IVar="-1" Cut="0.0000000000000000e+00" cType="1" res="-4.1399328038096428e-03" rms="3.7043714523315430e-01" purity="4.3770653009414673e-01" nType="-99"/>
        <Node pos="r" depth="1" NCoef="0" IVar="4" Cut="3.7226948142051697e-01" cType="1" res="-1.4614333631470799e-03" rms="3.4883850812911987e-01" purity="5.0191593170166016e-01" nType="0">
          <Node pos="l" depth="2" NCoef="0" IVar="-1" Cut="0.0000000000000000e+00" cType="1" res="1.9150617299601436e-04" rms="3.4479409456253052e-01" purity="5.2477860450744629e-01" nType="-99"/>
          <Node pos="r" depth="2" NCoef="0" IVar="-1" Cut="0.0000000000000000e+00" cType="1" res="-3.8446174003183842e-03" rms="3.7508156895637512e-01" purity="3.4522953629493713e-01" nType="-99"/>
        </Node>
      </Node>
    </BinaryTree>
    <BinaryTree type="DecisionTree" boostWeight="1.0000000000000000e+00" itree="776">
      <Node pos="s" depth="0" NCoef="0" IVar="8" Cut="-5.8361744880676270e-01" cType="1" res="1.6178085934370756e-03" rms="3.4630087018013000e-01" purity="4.9999964237213135e-01" nType="0">
        <Node pos="l" depth="1" NCoef="0" IVar="-1" Cut="0.0000000000000000e+00" cType="1" res="2.4336508940905333e-03" rms="3.8832089304924011e-01" purity="5.3305774927139282e-01" nType="-99"/>
        <Node pos="r" depth="1" NCoef="0" IVar="11" Cut="6.6655141115188599e-01" cType="1" res="-9.9407712696120143e-05" rms="3.4195777773857117e-01" purity="4.9683466553688049e-01" nType="0">
          <Node pos="l" depth="2" NCoef="0" IVar="-1" Cut="0.0000000000000000e+00" cType="1" res="-9.4096042448654771e-04" rms="3.5492578148841858e-01" purity="3.0567654967308044e-01" nType="-99"/>
          <Node pos="r" depth="2" NCoef="0" IVar="-1" Cut="0.0000000000000000e+00" cType="1" res="2.3244938347488642e-03" rms="3.1490898132324219e-01" purity="8.7169373035430908e-01" nType="-99"/>
        </Node>
      </Node>
    </BinaryTree>
    <BinaryTree type="DecisionTree" boostWeight="1.0000000000000000e+00" itree="777">
      <Node pos="s" depth="0" NCoef="0" IVar="9" Cut="3.6931471824645996e+00" cType="1" res="1.4872076280880719e-04" rms="2.2767928242683411e-01" purity="5.0179290771484375e-01" nType="0">
        <Node pos="l" depth="1" NCoef="0" IVar="1" Cut="6.5473742485046387e+00" cType="1" res="2.1784210111945868e-03" rms="3.3913651108741760e-01" purity="5.4027867317199707e-01" nType="0">
          <Node pos="l" depth="2" NCoef="0" IVar="-1" Cut="0.0000000000000000e+00" cType="1" res="1.7325740773230791e-03" rms="3.6613380908966064e-01" purity="4.6388319134712219e-01" nType="-99"/>
          <Node pos="r" depth="2" NCoef="0" IVar="-1" Cut="0.0000000000000000e+00" cType="1" res="-1.3650896726176143e-03" rms="3.0089282989501953e-01" purity="6.3819789886474609e-01" nType="-99"/>
        </Node>
        <Node pos="r" depth="1" NCoef="0" IVar="2" Cut="8.7273426055908203e+00" cType="1" res="5.6234677322208881e-04" rms="3.6701038479804993e-01" purity="4.1977411508560181e-01" nType="0">
          <Node pos="l" depth="2" NCoef="0" IVar="-1" Cut="0.0000000000000000e+00" cType="1" res="4.5504835434257984e-03" rms="3.7309017777442932e-01" purity="4.1783648729324341e-01" nType="-99"/>
          <Node pos="r" depth="2" NCoef="0" IVar="-1" Cut="0.0000000000000000e+00" cType="1" res="-2.4686658289283514e-03" rms="3.6445727944374084e-01" purity="4.2052349448204041e-01" nType="-99"/>
        </Node>
      </Node>
    </BinaryTree>
    <BinaryTree type="DecisionTree" boostWeight="1.0000000000000000e+00" itree="778">
      <Node pos="s" depth="0" NCoef="0" IVar="5" Cut="8.3027410507202148e+00" cType="1" res="-8.5570232477039099e-04" rms="3.4829604625701904e-01" purity="4.9893358349800110e-01" nType="0">
        <Node pos="l" depth="1" NCoef="0" IVar="5" Cut="5.0772852897644043e+00" cType="1" res="-1.7464814009144902e-03" rms="3.4622237086296082e-01" purity="5.0069755315780640e-01" nType="0">
          <Node pos="l" depth="2" NCoef="0" IVar="-1" Cut="0.0000000000000000e+00" cType="1" res="-6.3408249989151955e-03" rms="3.6325114965438843e-01" purity="5.3731846809387207e-01" nType="-99"/>
          <Node pos="r" depth="2" NCoef="0" IVar="-1" Cut="0.0000000000000000e+00" cType="1" res="-2.3522276023868471e-04" rms="3.4535750746726990e-01" purity="4.9894967675209045e-01" nType="-99"/>
        </Node>
        <Node pos="r" depth="1" NCoef="0" IVar="0" Cut="1.0673828125000000e+01" cType="1" res="1.4811047352850437e-02" rms="3.8259756565093994e-01" purity="4.6790948510169983e-01" nType="0">
          <Node pos="l" depth="2" NCoef="0" IVar="-1" Cut="0.0000000000000000e+00" cType="1" res="3.8750995881855488e-03" rms="3.4400358796119690e-01" purity="4.3329602479934692e-01" nType="-99"/>
          <Node pos="r" depth="2" NCoef="0" IVar="-1" Cut="0.0000000000000000e+00" cType="1" res="3.3242898061871529e-03" rms="4.1427585482597351e-01" purity="4.9907258152961731e-01" nType="-99"/>
        </Node>
      </Node>
    </BinaryTree>
    <BinaryTree type="DecisionTree" boostWeight="1.0000000000000000e+00" itree="779">
      <Node pos="s" depth="0" NCoef="0" IVar="9" Cut="3.6931471824645996e+00" cType="1" res="1.1255321442149580e-04" rms="2.2689859569072723e-01" purity="5.0218051671981812e-01" nType="0">
        <Node pos="l" depth="1" NCoef="0" IVar="13" Cut="1.4284023642539978e-01" cType="1" res="2.7904962189495564e-03" rms="3.3934542536735535e-01" purity="5.4231858253479004e-01" nType="0">
          <Node pos="l" depth="2" NCoef="0" IVar="-1" Cut="0.0000000000000000e+00" cType="1" res="1.9189848098903894e-03" rms="3.3501660823822021e-01" purity="3.9253604412078857e-01" nType="-99"/>
          <Node pos="r" depth="2" NCoef="0" IVar="-1" Cut="0.0000000000000000e+00" cType="1" res="-1.5138721792027354e-03" rms="3.4661856293678284e-01" purity="8.0331170558929443e-01" nType="-99"/>
        </Node>
        <Node pos="r" depth="1" NCoef="0" IVar="0" Cut="8.0384635925292969e+00" cType="1" res="-3.1153568997979164e-03" rms="3.6731395125389099e-01" purity="4.1576558351516724e-01" nType="0">
          <Node pos="l" depth="2" NCoef="0" IVar="-1" Cut="0.0000000000000000e+00" cType="1" res="-8.6098089814186096e-03" rms="4.0882438421249390e-01" purity="2.5568225979804993e-01" nType="-99"/>
          <Node pos="r" depth="2" NCoef="0" IVar="-1" Cut="0.0000000000000000e+00" cType="1" res="5.9956724726362154e-05" rms="3.6152172088623047e-01" purity="4.3627583980560303e-01" nType="-99"/>
        </Node>
      </Node>
    </BinaryTree>
    <BinaryTree type="DecisionTree" boostWeight="1.0000000000000000e+00" itree="780">
      <Node pos="s" depth="0" NCoef="0" IVar="0" Cut="1.0009326934814453e+01" cType="1" res="-1.6939548077061772e-03" rms="3.4838068485260010e-01" purity="4.9830430746078491e-01" nType="0">
        <Node pos="l" depth="1" NCoef="0" IVar="6" Cut="-1.6518080234527588e+00" cType="1" res="-4.8739393241703510e-03" rms="3.5110446810722351e-01" purity="4.7710496187210083e-01" nType="0">
          <Node pos="l" depth="2" NCoef="0" IVar="-1" Cut="0.0000000000000000e+00" cType="1" res="-9.1876403894275427e-04" rms="3.4475374221801758e-01" purity="5.1345312595367432e-01" nType="-99"/>
          <Node pos="r" depth="2" NCoef="0" IVar="-1" Cut="0.0000000000000000e+00" cType="1" res="-3.9904089644551277e-03" rms="3.8255855441093445e-01" purity="2.8622901439666748e-01" nType="-99"/>
        </Node>
        <Node pos="r" depth="1" NCoef="0" IVar="13" Cut="4.7613408416509628e-02" cType="1" res="1.2218417599797249e-02" rms="3.3585098385810852e-01" purity="5.9105122089385986e-01" nType="0">
          <Node pos="l" depth="2" NCoef="0" IVar="-1" Cut="0.0000000000000000e+00" cType="1" res="-1.8826867453753948e-03" rms="2.8002554178237915e-01" purity="5.1670396327972412e-01" nType="-99"/>
          <Node pos="r" depth="2" NCoef="0" IVar="-1" Cut="0.0000000000000000e+00" cType="1" res="5.8970516547560692e-03" rms="3.8466811180114746e-01" purity="6.6841447353363037e-01" nType="-99"/>
        </Node>
      </Node>
    </BinaryTree>
    <BinaryTree type="DecisionTree" boostWeight="1.0000000000000000e+00" itree="781">
      <Node pos="s" depth="0" NCoef="0" IVar="7" Cut="-5.7904291152954102e-01" cType="1" res="1.8640254857018590e-03" rms="3.4660929441452026e-01" purity="5.0177937746047974e-01" nType="0">
        <Node pos="l" depth="1" NCoef="0" IVar="6" Cut="-3.1523680686950684e+00" cType="1" res="1.2700176797807217e-02" rms="3.4807494282722473e-01" purity="5.2953964471817017e-01" nType="0">
          <Node pos="l" depth="2" NCoef="0" IVar="-1" Cut="0.0000000000000000e+00" cType="1" res="1.6819762531667948e-03" rms="3.3106151223182678e-01" purity="5.5959576368331909e-01" nType="-99"/>
          <Node pos="r" depth="2" NCoef="0" IVar="-1" Cut="0.0000000000000000e+00" cType="1" res="9.2103295028209686e-03" rms="4.1181343793869019e-01" purity="4.0029963850975037e-01" nType="-99"/>
        </Node>
        <Node pos="r" depth="1" NCoef="0" IVar="2" Cut="8.1598834991455078e+00" cType="1" res="-4.7653177171014249e-04" rms="3.4624737501144409e-01" purity="4.9578323960304260e-01" nType="0">
          <Node pos="l" depth="2" NCoef="0" IVar="-1" Cut="0.0000000000000000e+00" cType="1" res="-6.4970087260007858e-03" rms="3.5665827989578247e-01" purity="4.1160035133361816e-01" nType="-99"/>
          <Node pos="r" depth="2" NCoef="0" IVar="-1" Cut="0.0000000000000000e+00" cType="1" res="3.8839792250655591e-04" rms="3.4559670090675354e-01" purity="5.0028312206268311e-01" nType="-99"/>
        </Node>
      </Node>
    </BinaryTree>
    <BinaryTree type="DecisionTree" boostWeight="1.0000000000000000e+00" itree="782">
      <Node pos="s" depth="0" NCoef="0" IVar="1" Cut="7.3612418174743652e+00" cType="1" res="-9.6058310009539127e-04" rms="3.4868788719177246e-01" purity="5.0008159875869751e-01" nType="0">
        <Node pos="l" depth="1" NCoef="0" IVar="8" Cut="-2.5386664271354675e-01" cType="1" res="8.9030497474595904e-04" rms="3.5300171375274658e-01" purity="4.8515987396240234e-01" nType="0">
          <Node pos="l" depth="2" NCoef="0" IVar="-1" Cut="0.0000000000000000e+00" cType="1" res="1.4432136667892337e-03" rms="3.6749807000160217e-01" purity="4.8982015252113342e-01" nType="-99"/>
          <Node pos="r" depth="2" NCoef="0" IVar="-1" Cut="0.0000000000000000e+00" cType="1" res="-6.7903153831139207e-04" rms="3.4685426950454712e-01" purity="4.8325139284133911e-01" nType="-99"/>
        </Node>
        <Node pos="r" depth="1" NCoef="0" IVar="3" Cut="-8.1340841948986053e-02" cType="1" res="-1.5879714861512184e-02" rms="3.1134232878684998e-01" purity="6.2035846710205078e-01" nType="0">
          <Node pos="l" depth="2" NCoef="0" IVar="-1" Cut="0.0000000000000000e+00" cType="1" res="3.7199810612946749e-03" rms="2.3397269845008850e-01" purity="8.2705837488174438e-01" nType="-99"/>
          <Node pos="r" depth="2" NCoef="0" IVar="-1" Cut="0.0000000000000000e+00" cType="1" res="-9.0227471664547920e-03" rms="3.6446577310562134e-01" purity="4.4060474634170532e-01" nType="-99"/>
        </Node>
      </Node>
    </BinaryTree>
    <BinaryTree type="DecisionTree" boostWeight="1.0000000000000000e+00" itree="783">
      <Node pos="s" depth="0" NCoef="0" IVar="5" Cut="7.5539202690124512e+00" cType="1" res="5.2461924497038126e-04" rms="3.4862315654754639e-01" purity="4.9750474095344543e-01" nType="0">
        <Node pos="l" depth="1" NCoef="0" IVar="2" Cut="8.8068008422851562e+00" cType="1" res="2.7972890529781580e-03" rms="3.4547957777976990e-01" purity="5.1062220335006714e-01" nType="0">
          <Node pos="l" depth="2" NCoef="0" IVar="-1" Cut="0.0000000000000000e+00" cType="1" res="2.2817708086222410e-03" rms="3.5693180561065674e-01" purity="4.8409307003021240e-01" nType="-99"/>
          <Node pos="r" depth="2" NCoef="0" IVar="-1" Cut="0.0000000000000000e+00" cType="1" res="-2.7056515682488680e-04" rms="3.4001377224922180e-01" purity="5.2285289764404297e-01" nType="-99"/>
        </Node>
        <Node pos="r" depth="1" NCoef="0" IVar="4" Cut="-6.3547319173812866e-01" cType="1" res="-8.7024783715605736e-03" rms="3.6095827817916870e-01" purity="4.4424736499786377e-01" nType="0">
          <Node pos="l" depth="2" NCoef="0" IVar="-1" Cut="0.0000000000000000e+00" cType="1" res="-1.0188408195972443e-02" rms="3.5187473893165588e-01" purity="4.5758777856826782e-01" nType="-99"/>
          <Node pos="r" depth="2" NCoef="0" IVar="-1" Cut="0.0000000000000000e+00" cType="1" res="-2.5940520572476089e-04" rms="3.6322325468063354e-01" purity="4.4033664464950562e-01" nType="-99"/>
        </Node>
      </Node>
    </BinaryTree>
    <BinaryTree type="DecisionTree" boostWeight="1.0000000000000000e+00" itree="784">
      <Node pos="s" depth="0" NCoef="0" IVar="10" Cut="2.0000000000000000e+00" cType="1" res="1.9975721370428801e-03" rms="2.6618495583534241e-01" purity="5.0115257501602173e-01" nType="0">
        <Node pos="l" depth="1" NCoef="0" IVar="8" Cut="-3.8024994730949402e-01" cType="1" res="7.9174842685461044e-03" rms="3.3460935950279236e-01" purity="5.6214815378189087e-01" nType="0">
          <Node pos="l" depth="2" NCoef="0" IVar="-1" Cut="0.0000000000000000e+00" cType="1" res="4.6742805279791355e-03" rms="3.5312825441360474e-01" purity="5.8452409505844116e-01" nType="-99"/>
          <Node pos="r" depth="2" NCoef="0" IVar="-1" Cut="0.0000000000000000e+00" cType="1" res="1.1834023753181100e-03" rms="3.2967698574066162e-01" purity="5.5659097433090210e-01" nType="-99"/>
        </Node>
        <Node pos="r" depth="1" NCoef="0" IVar="0" Cut="8.0384025573730469e+00" cType="1" res="-1.5158676542341709e-03" rms="3.5849258303642273e-01" purity="4.3999466300010681e-01" nType="0">
          <Node pos="l" depth="2" NCoef="0" IVar="-1" Cut="0.0000000000000000e+00" cType="1" res="5.0105685368180275e-03" rms="4.3986514210700989e-01" purity="3.3010122179985046e-01" nType="-99"/>
          <Node pos="r" depth="2" NCoef="0" IVar="-1" Cut="0.0000000000000000e+00" cType="1" res="-1.5034391544759274e-03" rms="3.4626516699790955e-01" purity="4.5442244410514832e-01" nType="-99"/>
        </Node>
      </Node>
    </BinaryTree>
    <BinaryTree type="DecisionTree" boostWeight="1.0000000000000000e+00" itree="785">
      <Node pos="s" depth="0" NCoef="0" IVar="7" Cut="-9.1442573070526123e-01" cType="1" res="8.8022643467411399e-04" rms="3.4831693768501282e-01" purity="5.0486153364181519e-01" nType="0">
        <Node pos="l" depth="1" NCoef="0" IVar="2" Cut="9.2960119247436523e+00" cType="1" res="2.3828981444239616e-02" rms="3.4106713533401489e-01" purity="5.4093998670578003e-01" nType="0">
          <Node pos="l" depth="2" NCoef="0" IVar="-1" Cut="0.0000000000000000e+00" cType="1" res="8.1720668822526932e-03" rms="3.4346643090248108e-01" purity="5.4121649265289307e-01" nType="-99"/>
          <Node pos="r" depth="2" NCoef="0" IVar="-1" Cut="0.0000000000000000e+00" cType="1" res="4.9043190665543079e-04" rms="3.3445036411285400e-01" purity="5.4031348228454590e-01" nType="-99"/>
        </Node>
        <Node pos="r" depth="1" NCoef="0" IVar="6" Cut="-1.8530486822128296e+00" cType="1" res="-1.6356703126803041e-03" rms="3.4901079535484314e-01" purity="5.0090622901916504e-01" nType="0">
          <Node pos="l" depth="2" NCoef="0" IVar="-1" Cut="0.0000000000000000e+00" cType="1" res="-1.8464538734406233e-03" rms="3.3994850516319275e-01" purity="5.4190289974212646e-01" nType="-99"/>
          <Node pos="r" depth="2" NCoef="0" IVar="-1" Cut="0.0000000000000000e+00" cType="1" res="3.7577543407678604e-03" rms="3.8132646679878235e-01" purity="3.4382283687591553e-01" nType="-99"/>
        </Node>
      </Node>
    </BinaryTree>
    <BinaryTree type="DecisionTree" boostWeight="1.0000000000000000e+00" itree="786">
      <Node pos="s" depth="0" NCoef="0" IVar="0" Cut="8.0384025573730469e+00" cType="1" res="-1.8597674788907170e-03" rms="3.4711852669715881e-01" purity="5.0012969970703125e-01" nType="0">
        <Node pos="l" depth="1" NCoef="0" IVar="2" Cut="8.9433898925781250e+00" cType="1" res="-1.6118807718157768e-02" rms="4.3546849489212036e-01" purity="3.5274687409400940e-01" nType="0">
          <Node pos="l" depth="2" NCoef="0" IVar="-1" Cut="0.0000000000000000e+00" cType="1" res="-5.0219688564538956e-03" rms="4.2773294448852539e-01" purity="3.0816671252250671e-01" nType="-99"/>
          <Node pos="r" depth="2" NCoef="0" IVar="-1" Cut="0.0000000000000000e+00" cType="1" res="-8.9974334696307778e-04" rms="4.4049412012100220e-01" purity="3.8460978865623474e-01" nType="-99"/>
        </Node>
        <Node pos="r" depth="1" NCoef="0" IVar="12" Cut="1.4281013607978821e-01" cType="1" res="-4.2610165110090747e-05" rms="3.3414176106452942e-01" purity="5.1891201734542847e-01" nType="0">
          <Node pos="l" depth="2" NCoef="0" IVar="-1" Cut="0.0000000000000000e+00" cType="1" res="-2.3118038661777973e-03" rms="3.2498884201049805e-01" purity="8.3498609066009521e-01" nType="-99"/>
          <Node pos="r" depth="2" NCoef="0" IVar="-1" Cut="0.0000000000000000e+00" cType="1" res="9.4608304789289832e-04" rms="3.3918774127960205e-01" purity="3.3937087655067444e-01" nType="-99"/>
        </Node>
      </Node>
    </BinaryTree>
    <BinaryTree type="DecisionTree" boostWeight="1.0000000000000000e+00" itree="787">
      <Node pos="s" depth="0" NCoef="0" IVar="6" Cut="-3.2392005920410156e+00" cType="1" res="1.0976013727486134e-03" rms="3.5120597481727600e-01" purity="4.9950069189071655e-01" nType="0">
        <Node pos="l" depth="1" NCoef="0" IVar="4" Cut="-1.1766345798969269e-01" cType="1" res="-7.2411545552313328e-03" rms="3.2791814208030701e-01" purity="5.8706408739089966e-01" nType="0">
          <Node pos="l" depth="2" NCoef="0" IVar="-1" Cut="0.0000000000000000e+00" cType="1" res="-9.1316405450925231e-04" rms="3.0735892057418823e-01" purity="6.3695019483566284e-01" nType="-99"/>
          <Node pos="r" depth="2" NCoef="0" IVar="-1" Cut="0.0000000000000000e+00" cType="1" res="-4.7987485304474831e-03" rms="3.6793437600135803e-01" purity="4.8003527522087097e-01" nType="-99"/>
        </Node>
        <Node pos="r" depth="1" NCoef="0" IVar="8" Cut="-5.8361744880676270e-01" cType="1" res="5.2464487962424755e-03" rms="3.6216369271278381e-01" purity="4.5593458414077759e-01" nType="0">
          <Node pos="l" depth="2" NCoef="0" IVar="-1" Cut="0.0000000000000000e+00" cType="1" res="4.3627186678349972e-03" rms="3.9246624708175659e-01" purity="5.2404218912124634e-01" nType="-99"/>
          <Node pos="r" depth="2" NCoef="0" IVar="-1" Cut="0.0000000000000000e+00" cType="1" res="5.5620964849367738e-04" rms="3.5865214467048645e-01" purity="4.4879353046417236e-01" nType="-99"/>
        </Node>
      </Node>
    </BinaryTree>
    <BinaryTree type="DecisionTree" boostWeight="1.0000000000000000e+00" itree="788">
      <Node pos="s" depth="0" NCoef="0" IVar="6" Cut="-6.8683493137359619e-01" cType="1" res="3.3856651280075312e-03" rms="3.4808146953582764e-01" purity="5.0436884164810181e-01" nType="0">
        <Node pos="l" depth="1" NCoef="0" IVar="0" Cut="7.8196372985839844e+00" cType="1" res="2.2867280058562756e-03" rms="3.4600871801376343e-01" purity="5.1401865482330322e-01" nType="0">
          <Node pos="l" depth="2" NCoef="0" IVar="-1" Cut="0.0000000000000000e+00" cType="1" res="-4.2114243842661381e-03" rms="4.4751864671707153e-01" purity="3.3914965391159058e-01" nType="-99"/>
          <Node pos="r" depth="2" NCoef="0" IVar="-1" Cut="0.0000000000000000e+00" cType="1" res="1.1396195041015744e-03" rms="3.4010475873947144e-01" purity="5.2273511886596680e-01" nType="-99"/>
        </Node>
        <Node pos="r" depth="1" NCoef="0" IVar="-1" Cut="0.0000000000000000e+00" cType="1" res="8.0893086269497871e-03" rms="3.9523428678512573e-01" purity="2.6405400037765503e-01" nType="-99"/>
      </Node>
    </BinaryTree>
    <BinaryTree type="DecisionTree" boostWeight="1.0000000000000000e+00" itree="789">
      <Node pos="s" depth="0" NCoef="0" IVar="9" Cut="3.6931471824645996e+00" cType="1" res="6.3138210680335760e-04" rms="2.2790996730327606e-01" purity="4.9830672144889832e-01" nType="0">
        <Node pos="l" depth="1" NCoef="0" IVar="13" Cut="6.6660904884338379e-01" cType="1" res="1.2796384980902076e-03" rms="3.4184905886650085e-01" purity="5.4001480340957642e-01" nType="0">
          <Node pos="l" depth="2" NCoef="0" IVar="-1" Cut="0.0000000000000000e+00" cType="1" res="8.7167223682627082e-04" rms="3.4232628345489502e-01" purity="4.9703919887542725e-01" nType="-99"/>
          <Node pos="r" depth="2" NCoef="0" IVar="-1" Cut="0.0000000000000000e+00" cType="1" res="-4.4370554387569427e-03" rms="3.3874118328094482e-01" purity="7.9401457309722900e-01" nType="-99"/>
        </Node>
        <Node pos="r" depth="1" NCoef="0" IVar="7" Cut="-3.2233127951622009e-01" cType="1" res="-2.0544393919408321e-04" rms="3.6640378832817078e-01" purity="4.0873450040817261e-01" nType="0">
          <Node pos="l" depth="2" NCoef="0" IVar="-1" Cut="0.0000000000000000e+00" cType="1" res="-7.7956374734640121e-03" rms="3.7027084827423096e-01" purity="4.0713512897491455e-01" nType="-99"/>
          <Node pos="r" depth="2" NCoef="0" IVar="-1" Cut="0.0000000000000000e+00" cType="1" res="2.6579548139125109e-03" rms="3.6478969454765320e-01" purity="4.0929228067398071e-01" nType="-99"/>
        </Node>
      </Node>
    </BinaryTree>
    <BinaryTree type="DecisionTree" boostWeight="1.0000000000000000e+00" itree="790">
      <Node pos="s" depth="0" NCoef="0" IVar="1" Cut="6.0036029815673828e+00" cType="1" res="4.4318605796433985e-04" rms="3.4790492057800293e-01" purity="5.0194591283798218e-01" nType="0">
        <Node pos="l" depth="1" NCoef="0" IVar="8" Cut="1.0800989717245102e-01" cType="1" res="9.7397183999419212e-03" rms="3.9059895277023315e-01" purity="3.6004826426506042e-01" nType="0">
          <Node pos="l" depth="2" NCoef="0" IVar="-1" Cut="0.0000000000000000e+00" cType="1" res="3.6579370498657227e-03" rms="3.9356371760368347e-01" purity="3.7289202213287354e-01" nType="-99"/>
          <Node pos="r" depth="2" NCoef="0" IVar="-1" Cut="0.0000000000000000e+00" cType="1" res="-1.2454284587875009e-03" rms="3.8282644748687744e-01" purity="3.2832124829292297e-01" nType="-99"/>
        </Node>
        <Node pos="r" depth="1" NCoef="0" IVar="2" Cut="9.0221252441406250e+00" cType="1" res="-3.4859967418015003e-03" rms="3.2811558246612549e-01" purity="5.6191903352737427e-01" nType="0">
          <Node pos="l" depth="2" NCoef="0" IVar="-1" Cut="0.0000000000000000e+00" cType="1" res="-3.1059170141816139e-03" rms="3.3591780066490173e-01" purity="5.2909982204437256e-01" nType="-99"/>
          <Node pos="r" depth="2" NCoef="0" IVar="-1" Cut="0.0000000000000000e+00" cType="1" res="1.7531224293634295e-03" rms="3.2135123014450073e-01" purity="5.8895736932754517e-01" nType="-99"/>
        </Node>
      </Node>
    </BinaryTree>
    <BinaryTree type="DecisionTree" boostWeight="1.0000000000000000e+00" itree="791">
      <Node pos="s" depth="0" NCoef="0" IVar="12" Cut="9.0446168184280396e-01" cType="1" res="2.1361601538956165e-03" rms="3.4995377063751221e-01" purity="5.0311315059661865e-01" nType="0">
        <Node pos="l" depth="1" NCoef="0" IVar="11" Cut="1.9046047329902649e-01" cType="1" res="4.3549691326916218e-03" rms="3.8350251317024231e-01" purity="6.5026795864105225e-01" nType="0">
          <Node pos="l" depth="2" NCoef="0" IVar="-1" Cut="0.0000000000000000e+00" cType="1" res="2.4490663781762123e-03" rms="4.2677894234657288e-01" purity="3.3951899409294128e-01" nType="-99"/>
          <Node pos="r" depth="2" NCoef="0" IVar="-1" Cut="0.0000000000000000e+00" cType="1" res="3.7341025745263323e-05" rms="3.5939884185791016e-01" purity="8.0848270654678345e-01" nType="-99"/>
        </Node>
        <Node pos="r" depth="1" NCoef="0" IVar="12" Cut="9.6340584754943848e-01" cType="1" res="-4.4984463602304459e-03" rms="2.2097802162170410e-01" purity="6.3096091151237488e-02" nType="0">
          <Node pos="l" depth="2" NCoef="0" IVar="-1" Cut="0.0000000000000000e+00" cType="1" res="-4.5700091868638992e-03" rms="3.1320428848266602e-01" purity="1.3373169302940369e-01" nType="-99"/>
          <Node pos="r" depth="2" NCoef="0" IVar="-1" Cut="0.0000000000000000e+00" cType="1" res="-1.3878803292755038e-04" rms="1.5801282227039337e-01" purity="2.8966689482331276e-02" nType="-99"/>
        </Node>
      </Node>
    </BinaryTree>
    <BinaryTree type="DecisionTree" boostWeight="1.0000000000000000e+00" itree="792">
      <Node pos="s" depth="0" NCoef="0" IVar="8" Cut="-5.3543788194656372e-01" cType="1" res="-1.4051342441234738e-04" rms="3.4653875231742859e-01" purity="4.9778819084167480e-01" nType="0">
        <Node pos="l" depth="1" NCoef="0" IVar="10" Cut="2.0000000000000000e+00" cType="1" res="-6.9143087603151798e-03" rms="3.0709043145179749e-01" purity="5.0228768587112427e-01" nType="0">
          <Node pos="l" depth="2" NCoef="0" IVar="-1" Cut="0.0000000000000000e+00" cType="1" res="-3.3186996006406844e-04" rms="3.7010195851325989e-01" purity="5.4870569705963135e-01" nType="-99"/>
          <Node pos="r" depth="2" NCoef="0" IVar="-1" Cut="0.0000000000000000e+00" cType="1" res="-3.7688370794057846e-03" rms="4.0496504306793213e-01" purity="4.4270044565200806e-01" nType="-99"/>
        </Node>
        <Node pos="r" depth="1" NCoef="0" IVar="5" Cut="6.1453356742858887e+00" cType="1" res="1.4888207660987973e-03" rms="3.4154117107391357e-01" purity="4.9725642800331116e-01" nType="0">
          <Node pos="l" depth="2" NCoef="0" IVar="-1" Cut="0.0000000000000000e+00" cType="1" res="3.2150833867490292e-03" rms="3.5386654734611511e-01" purity="5.4049181938171387e-01" nType="-99"/>
          <Node pos="r" depth="2" NCoef="0" IVar="-1" Cut="0.0000000000000000e+00" cType="1" res="-6.1389547772705555e-04" rms="3.3666875958442688e-01" purity="4.8077031970024109e-01" nType="-99"/>
        </Node>
      </Node>
    </BinaryTree>
    <BinaryTree type="DecisionTree" boostWeight="1.0000000000000000e+00" itree="793">
      <Node pos="s" depth="0" NCoef="0" IVar="7" Cut="-9.5427387952804565e-01" cType="1" res="1.1432649625930935e-04" rms="3.5012513399124146e-01" purity="5.0241726636886597e-01" nType="0">
        <Node pos="l" depth="1" NCoef="0" IVar="0" Cut="8.8697853088378906e+00" cType="1" res="-1.2379181571304798e-02" rms="3.4605389833450317e-01" purity="5.0774484872817993e-01" nType="0">
          <Node pos="l" depth="2" NCoef="0" IVar="-1" Cut="0.0000000000000000e+00" cType="1" res="-8.0911628901958466e-03" rms="3.8054144382476807e-01" purity="4.1505810618400574e-01" nType="-99"/>
          <Node pos="r" depth="2" NCoef="0" IVar="-1" Cut="0.0000000000000000e+00" cType="1" res="1.1256096186116338e-03" rms="3.1486240029335022e-01" purity="5.8198481798171997e-01" nType="-99"/>
        </Node>
        <Node pos="r" depth="1" NCoef="0" IVar="8" Cut="-5.7629340887069702e-01" cType="1" res="1.3409000821411610e-03" rms="3.5049828886985779e-01" purity="5.0189423561096191e-01" nType="0">
          <Node pos="l" depth="2" NCoef="0" IVar="-1" Cut="0.0000000000000000e+00" cType="1" res="1.9577119965106249e-03" rms="4.0058717131614685e-01" purity="5.3956222534179688e-01" nType="-99"/>
          <Node pos="r" depth="2" NCoef="0" IVar="-1" Cut="0.0000000000000000e+00" cType="1" res="-5.2178475016262382e-05" rms="3.4508049488067627e-01" purity="4.9814552068710327e-01" nType="-99"/>
        </Node>
      </Node>
    </BinaryTree>
    <BinaryTree type="DecisionTree" boostWeight="1.0000000000000000e+00" itree="794">
      <Node pos="s" depth="0" NCoef="0" IVar="1" Cut="5.2507128715515137e+00" cType="1" res="1.4059019740670919e-03" rms="3.4814593195915222e-01" purity="4.9823516607284546e-01" nType="0">
        <Node pos="l" depth="1" NCoef="0" IVar="7" Cut="7.3345378041267395e-02" cType="1" res="-1.6202585771679878e-02" rms="4.0829464793205261e-01" purity="2.6385143399238586e-01" nType="0">
          <Node pos="l" depth="2" NCoef="0" IVar="-1" Cut="0.0000000000000000e+00" cType="1" res="-7.4682681588456035e-04" rms="4.2168137431144714e-01" purity="2.9283460974693298e-01" nType="-99"/>
          <Node pos="r" depth="2" NCoef="0" IVar="-1" Cut="0.0000000000000000e+00" cType="1" res="-6.6722696647047997e-03" rms="3.9468842744827271e-01" purity="2.3612111806869507e-01" nType="-99"/>
        </Node>
        <Node pos="r" depth="1" NCoef="0" IVar="0" Cut="1.0867751121520996e+01" cType="1" res="2.7379998937249184e-03" rms="3.4313020110130310e-01" purity="5.1596653461456299e-01" nType="0">
          <Node pos="l" depth="2" NCoef="0" IVar="-1" Cut="0.0000000000000000e+00" cType="1" res="5.8890657965093851e-04" rms="3.4079745411872864e-01" purity="5.1242953538894653e-01" nType="-99"/>
          <Node pos="r" depth="2" NCoef="0" IVar="-1" Cut="0.0000000000000000e+00" cType="1" res="5.1432754844427109e-03" rms="3.9362537860870361e-01" purity="5.9955626726150513e-01" nType="-99"/>
        </Node>
      </Node>
    </BinaryTree>
    <BinaryTree type="DecisionTree" boostWeight="1.0000000000000000e+00" itree="795">
      <Node pos="s" depth="0" NCoef="0" IVar="0" Cut="8.2565927505493164e+00" cType="1" res="-9.1124745085835457e-04" rms="3.4815460443496704e-01" purity="4.9814045429229736e-01" nType="0">
        <Node pos="l" depth="1" NCoef="0" IVar="8" Cut="-3.5987627506256104e-01" cType="1" res="1.0310154408216476e-02" rms="4.1898420453071594e-01" purity="3.8952887058258057e-01" nType="0">
          <Node pos="l" depth="2" NCoef="0" IVar="-1" Cut="0.0000000000000000e+00" cType="1" res="-2.0100804977118969e-03" rms="4.2218482494354248e-01" purity="4.0397030115127563e-01" nType="-99"/>
          <Node pos="r" depth="2" NCoef="0" IVar="-1" Cut="0.0000000000000000e+00" cType="1" res="5.0466046668589115e-03" rms="4.1731128096580505e-01" purity="3.8361132144927979e-01" nType="-99"/>
        </Node>
        <Node pos="r" depth="1" NCoef="0" IVar="5" Cut="8.5271978378295898e+00" cType="1" res="-3.5101666580885649e-03" rms="3.2953187823295593e-01" purity="5.2329528331756592e-01" nType="0">
          <Node pos="l" depth="2" NCoef="0" IVar="-1" Cut="0.0000000000000000e+00" cType="1" res="-7.9079193528741598e-04" rms="3.2550665736198425e-01" purity="5.2790236473083496e-01" nType="-99"/>
          <Node pos="r" depth="2" NCoef="0" IVar="-1" Cut="0.0000000000000000e+00" cType="1" res="-5.7403426617383957e-03" rms="4.0568801760673523e-01" purity="4.2437651753425598e-01" nType="-99"/>
        </Node>
      </Node>
    </BinaryTree>
    <BinaryTree type="DecisionTree" boostWeight="1.0000000000000000e+00" itree="796">
      <Node pos="s" depth="0" NCoef="0" IVar="4" Cut="-9.4545435905456543e-01" cType="1" res="-5.0752600654959679e-03" rms="3.4775024652481079e-01" purity="4.9679759144783020e-01" nType="0">
        <Node pos="l" depth="1" NCoef="0" IVar="12" Cut="2.8565385937690735e-01" cType="1" res="1.6878074966371059e-03" rms="3.2845801115036011e-01" purity="5.7609707117080688e-01" nType="0">
          <Node pos="l" depth="2" NCoef="0" IVar="-1" Cut="0.0000000000000000e+00" cType="1" res="-3.8784111384302378e-03" rms="2.9704850912094116e-01" purity="8.5594284534454346e-01" nType="-99"/>
          <Node pos="r" depth="2" NCoef="0" IVar="-1" Cut="0.0000000000000000e+00" cType="1" res="2.8172887396067381e-03" rms="3.5216963291168213e-01" purity="3.4416672587394714e-01" nType="-99"/>
        </Node>
        <Node pos="r" depth="1" NCoef="0" IVar="11" Cut="4.7607943415641785e-01" cType="1" res="-8.4010446444153786e-03" rms="3.5680794715881348e-01" purity="4.5780155062675476e-01" nType="0">
          <Node pos="l" depth="2" NCoef="0" IVar="-1" Cut="0.0000000000000000e+00" cType="1" res="-3.7003534380346537e-03" rms="3.5801234841346741e-01" purity="2.5543761253356934e-01" nType="-99"/>
          <Node pos="r" depth="2" NCoef="0" IVar="-1" Cut="0.0000000000000000e+00" cType="1" res="6.0343422228470445e-04" rms="3.5432949662208557e-01" purity="8.3408260345458984e-01" nType="-99"/>
        </Node>
      </Node>
    </BinaryTree>
    <BinaryTree type="DecisionTree" boostWeight="1.0000000000000000e+00" itree="797">
      <Node pos="s" depth="0" NCoef="0" IVar="10" Cut="3.0000000000000000e+00" cType="1" res="-5.4489879403263330e-04" rms="2.6724481582641602e-01" purity="5.0040340423583984e-01" nType="0">
        <Node pos="l" depth="1" NCoef="0" IVar="3" Cut="5.3117221593856812e-01" cType="1" res="-1.9702757708728313e-03" rms="3.4638449549674988e-01" purity="5.1456546783447266e-01" nType="0">
          <Node pos="l" depth="2" NCoef="0" IVar="-1" Cut="0.0000000000000000e+00" cType="1" res="-1.8155210418626666e-03" rms="3.3549442887306213e-01" purity="6.0249173641204834e-01" nType="-99"/>
          <Node pos="r" depth="2" NCoef="0" IVar="-1" Cut="0.0000000000000000e+00" cType="1" res="9.2311453772708774e-04" rms="3.6276018619537354e-01" purity="3.7644815444946289e-01" nType="-99"/>
        </Node>
        <Node pos="r" depth="1" NCoef="0" IVar="1" Cut="5.6354289054870605e+00" cType="1" res="1.1986512690782547e-02" rms="3.6617821455001831e-01" purity="4.2150878906250000e-01" nType="0">
          <Node pos="l" depth="2" NCoef="0" IVar="-1" Cut="0.0000000000000000e+00" cType="1" res="-6.1150509864091873e-03" rms="3.6704364418983459e-01" purity="2.2107499837875366e-01" nType="-99"/>
          <Node pos="r" depth="2" NCoef="0" IVar="-1" Cut="0.0000000000000000e+00" cType="1" res="5.7731098495423794e-03" rms="3.6564967036247253e-01" purity="4.6367618441581726e-01" nType="-99"/>
        </Node>
      </Node>
    </BinaryTree>
    <BinaryTree type="DecisionTree" boostWeight="1.0000000000000000e+00" itree="798">
      <Node pos="s" depth="0" NCoef="0" IVar="1" Cut="5.6095943450927734e+00" cType="1" res="-5.4073176579549909e-04" rms="3.4857153892517090e-01" purity="5.0196337699890137e-01" nType="0">
        <Node pos="l" depth="1" NCoef="0" IVar="12" Cut="7.1410518884658813e-01" cType="1" res="-1.1458743363618851e-02" rms="4.0187472105026245e-01" purity="3.0398240685462952e-01" nType="0">
          <Node pos="l" depth="2" NCoef="0" IVar="-1" Cut="0.0000000000000000e+00" cType="1" res="-7.9177254810929298e-03" rms="4.2991578578948975e-01" purity="4.5356935262680054e-01" nType="-99"/>
          <Node pos="r" depth="2" NCoef="0" IVar="-1" Cut="0.0000000000000000e+00" cType="1" res="2.8741196729242802e-04" rms="3.8726127147674561e-01" purity="2.3322421312332153e-01" nType="-99"/>
        </Node>
        <Node pos="r" depth="1" NCoef="0" IVar="2" Cut="8.3761529922485352e+00" cType="1" res="1.4856018824502826e-03" rms="3.3771565556526184e-01" purity="5.3870779275894165e-01" nType="0">
          <Node pos="l" depth="2" NCoef="0" IVar="-1" Cut="0.0000000000000000e+00" cType="1" res="3.9078085683286190e-03" rms="3.5059413313865662e-01" purity="5.2208811044692993e-01" nType="-99"/>
          <Node pos="r" depth="2" NCoef="0" IVar="-1" Cut="0.0000000000000000e+00" cType="1" res="-1.2664370296988636e-04" rms="3.3626344799995422e-01" purity="5.4047495126724243e-01" nType="-99"/>
        </Node>
      </Node>
    </BinaryTree>
    <BinaryTree type="DecisionTree" boostWeight="1.0000000000000000e+00" itree="799">
      <Node pos="s" depth="0" NCoef="0" IVar="9" Cut="3.6931471824645996e+00" cType="1" res="-2.4807700538076460e-04" rms="2.2755965590476990e-01" purity="4.9823021888732910e-01" nType="0">
        <Node pos="l" depth="1" NCoef="0" IVar="2" Cut="8.4038143157958984e+00" cType="1" res="-7.3558499570935965e-04" rms="3.3948215842247009e-01" purity="5.3678327798843384e-01" nType="0">
          <Node pos="l" depth="2" NCoef="0" IVar="-1" Cut="0.0000000000000000e+00" cType="1" res="4.2901993729174137e-03" rms="3.4664890170097351e-01" purity="5.2116495370864868e-01" nType="-99"/>
          <Node pos="r" depth="2" NCoef="0" IVar="-1" Cut="0.0000000000000000e+00" cType="1" res="-1.0865380754694343e-03" rms="3.3853435516357422e-01" purity="5.3854346275329590e-01" nType="-99"/>
        </Node>
        <Node pos="r" depth="1" NCoef="0" IVar="3" Cut="-6.9595700502395630e-01" cType="1" res="2.3041365202516317e-03" rms="3.6734762787818909e-01" purity="4.1783460974693298e-01" nType="0">
          <Node pos="l" depth="2" NCoef="0" IVar="-1" Cut="0.0000000000000000e+00" cType="1" res="-4.7678807750344276e-03" rms="3.5067063570022583e-01" purity="6.0001200437545776e-01" nType="-99"/>
          <Node pos="r" depth="2" NCoef="0" IVar="-1" Cut="0.0000000000000000e+00" cType="1" res="2.2315948735922575e-03" rms="3.7184482812881470e-01" purity="3.6632844805717468e-01" nType="-99"/>
        </Node>
      </Node>
    </BinaryTree>
    <BinaryTree type="DecisionTree" boostWeight="1.0000000000000000e+00" itree="800">
      <Node pos="s" depth="0" NCoef="0" IVar="1" Cut="5.4422726631164551e+00" cType="1" res="8.4141845582053065e-04" rms="3.4793585538864136e-01" purity="5.0155586004257202e-01" nType="0">
        <Node pos="l" depth="1" NCoef="0" IVar="2" Cut="9.2788553237915039e+00" cType="1" res="-1.6082692891359329e-02" rms="3.9521875977516174e-01" purity="2.8012278676033020e-01" nType="0">
          <Node pos="l" depth="2" NCoef="0" IVar="-1" Cut="0.0000000000000000e+00" cType="1" res="-5.4592229425907135e-03" rms="3.9043611288070679e-01" purity="2.6981407403945923e-01" nType="-99"/>
          <Node pos="r" depth="2" NCoef="0" IVar="-1" Cut="0.0000000000000000e+00" cType="1" res="3.7272183690220118e-03" rms="4.0427565574645996e-01" purity="3.0293765664100647e-01" nType="-99"/>
        </Node>
        <Node pos="r" depth="1" NCoef="0" IVar="9" Cut="3.6931471824645996e+00" cType="1" res="2.1895798854529858e-03" rms="2.0943355560302734e-01" purity="5.2901291847229004e-01" nType="0">
          <Node pos="l" depth="2" NCoef="0" IVar="-1" Cut="0.0000000000000000e+00" cType="1" res="8.1886857515200973e-04" rms="3.3082574605941772e-01" purity="5.6907874345779419e-01" nType="-99"/>
          <Node pos="r" depth="2" NCoef="0" IVar="-1" Cut="0.0000000000000000e+00" cType="1" res="1.2017755070701241e-03" rms="3.6333337426185608e-01" purity="4.4379925727844238e-01" nType="-99"/>
        </Node>
      </Node>
    </BinaryTree>
    <BinaryTree type="DecisionTree" boostWeight="1.0000000000000000e+00" itree="801">
      <Node pos="s" depth="0" NCoef="0" IVar="5" Cut="4.8476676940917969e+00" cType="1" res="-1.4592239167541265e-03" rms="3.4734404087066650e-01" purity="4.9510741233825684e-01" nType="0">
        <Node pos="l" depth="1" NCoef="0" IVar="-1" Cut="0.0000000000000000e+00" cType="1" res="5.9458012692630291e-03" rms="3.7568217515945435e-01" purity="5.8344417810440063e-01" nType="-99"/>
        <Node pos="r" depth="1" NCoef="0" IVar="0" Cut="9.5698089599609375e+00" cType="1" res="-2.1388474851846695e-03" rms="3.4644192457199097e-01" purity="4.9247789382934570e-01" nType="0">
          <Node pos="l" depth="2" NCoef="0" IVar="-1" Cut="0.0000000000000000e+00" cType="1" res="-1.4913128688931465e-03" rms="3.5652720928192139e-01" purity="4.5596671104431152e-01" nType="-99"/>
          <Node pos="r" depth="2" NCoef="0" IVar="-1" Cut="0.0000000000000000e+00" cType="1" res="1.1112355859950185e-03" rms="3.2471370697021484e-01" purity="5.6731742620468140e-01" nType="-99"/>
        </Node>
      </Node>
    </BinaryTree>
    <BinaryTree type="DecisionTree" boostWeight="1.0000000000000000e+00" itree="802">
      <Node pos="s" depth="0" NCoef="0" IVar="1" Cut="5.5140218734741211e+00" cType="1" res="-1.7576596001163125e-03" rms="3.4704250097274780e-01" purity="4.9870952963829041e-01" nType="0">
        <Node pos="l" depth="1" NCoef="0" IVar="12" Cut="9.0448141098022461e-01" cType="1" res="-1.6767863184213638e-02" rms="3.9881378412246704e-01" purity="2.8482475876808167e-01" nType="0">
          <Node pos="l" depth="2" NCoef="0" IVar="-1" Cut="0.0000000000000000e+00" cType="1" res="-6.0579990968108177e-03" rms="4.2399185895919800e-01" purity="3.4385520219802856e-01" nType="-99"/>
          <Node pos="r" depth="2" NCoef="0" IVar="-1" Cut="0.0000000000000000e+00" cType="1" res="6.4404839649796486e-03" rms="3.2803741097450256e-01" purity="1.4289933443069458e-01" nType="-99"/>
        </Node>
        <Node pos="r" depth="1" NCoef="0" IVar="0" Cut="7.8201127052307129e+00" cType="1" res="5.6561589008197188e-04" rms="3.3826258778572083e-01" purity="5.3181457519531250e-01" nType="0">
          <Node pos="l" depth="2" NCoef="0" IVar="-1" Cut="0.0000000000000000e+00" cType="1" res="-3.7326950114220381e-03" rms="4.5676213502883911e-01" purity="3.7109610438346863e-01" nType="-99"/>
          <Node pos="r" depth="2" NCoef="0" IVar="-1" Cut="0.0000000000000000e+00" cType="1" res="4.3329779873602092e-04" rms="3.3318251371383667e-01" purity="5.3760570287704468e-01" nType="-99"/>
        </Node>
      </Node>
    </BinaryTree>
    <BinaryTree type="DecisionTree" boostWeight="1.0000000000000000e+00" itree="803">
      <Node pos="s" depth="0" NCoef="0" IVar="2" Cut="8.4702129364013672e+00" cType="1" res="-1.8083513714373112e-03" rms="3.4954905509948730e-01" purity="4.9905270338058472e-01" nType="0">
        <Node pos="l" depth="1" NCoef="0" IVar="7" Cut="1.1462356895208359e-01" cType="1" res="-1.8431238830089569e-02" rms="3.6352726817131042e-01" purity="4.5483165979385376e-01" nType="0">
          <Node pos="l" depth="2" NCoef="0" IVar="-1" Cut="0.0000000000000000e+00" cType="1" res="-6.6945580765604973e-03" rms="3.7419390678405762e-01" purity="4.5611160993576050e-01" nType="-99"/>
          <Node pos="r" depth="2" NCoef="0" IVar="-1" Cut="0.0000000000000000e+00" cType="1" res="-4.6669188304804265e-04" rms="3.5174536705017090e-01" purity="4.5354416966438293e-01" nType="-99"/>
        </Node>
        <Node pos="r" depth="1" NCoef="0" IVar="9" Cut="3.6931471824645996e+00" cType="1" res="2.2966723918216303e-05" rms="2.2631742060184479e-01" purity="5.0560438632965088e-01" nType="0">
          <Node pos="l" depth="2" NCoef="0" IVar="-1" Cut="0.0000000000000000e+00" cType="1" res="-1.3473478611558676e-04" rms="3.3979517221450806e-01" purity="5.4395270347595215e-01" nType="-99"/>
          <Node pos="r" depth="2" NCoef="0" IVar="-1" Cut="0.0000000000000000e+00" cType="1" res="1.2729179579764605e-03" rms="3.6307436227798462e-01" purity="4.2322638630867004e-01" nType="-99"/>
        </Node>
      </Node>
    </BinaryTree>
    <BinaryTree type="DecisionTree" boostWeight="1.0000000000000000e+00" itree="804">
      <Node pos="s" depth="0" NCoef="0" IVar="11" Cut="3.3327645063400269e-01" cType="1" res="1.3612776529043913e-03" rms="3.4582009911537170e-01" purity="5.0022417306900024e-01" nType="0">
        <Node pos="l" depth="1" NCoef="0" IVar="11" Cut="2.0632022619247437e-01" cType="1" res="-2.3746732622385025e-03" rms="3.5213840007781982e-01" purity="2.4411681294441223e-01" nType="0">
          <Node pos="l" depth="2" NCoef="0" IVar="-1" Cut="0.0000000000000000e+00" cType="1" res="-9.0444584202487022e-05" rms="3.3807730674743652e-01" purity="2.0292113721370697e-01" nType="-99"/>
          <Node pos="r" depth="2" NCoef="0" IVar="-1" Cut="0.0000000000000000e+00" cType="1" res="-3.6434854846447706e-03" rms="4.5632672309875488e-01" purity="6.0320568084716797e-01" nType="-99"/>
        </Node>
        <Node pos="r" depth="1" NCoef="0" IVar="3" Cut="5.3117221593856812e-01" cType="1" res="6.4061535522341728e-03" rms="3.3703455328941345e-01" purity="8.4606117010116577e-01" nType="0">
          <Node pos="l" depth="2" NCoef="0" IVar="-1" Cut="0.0000000000000000e+00" cType="1" res="8.1032549496740103e-04" rms="2.9187625646591187e-01" purity="8.9193969964981079e-01" nType="-99"/>
          <Node pos="r" depth="2" NCoef="0" IVar="-1" Cut="0.0000000000000000e+00" cType="1" res="3.5467513371258974e-03" rms="4.2182564735412598e-01" purity="7.4185132980346680e-01" nType="-99"/>
        </Node>
      </Node>
    </BinaryTree>
    <BinaryTree type="DecisionTree" boostWeight="1.0000000000000000e+00" itree="805">
      <Node pos="s" depth="0" NCoef="0" IVar="4" Cut="6.0388320684432983e-01" cType="1" res="2.3205878678709269e-03" rms="3.4631124138832092e-01" purity="5.0307440757751465e-01" nType="0">
        <Node pos="l" depth="1" NCoef="0" IVar="5" Cut="4.9587044715881348e+00" cType="1" res="1.1758524924516678e-03" rms="3.4461531043052673e-01" purity="5.1019293069839478e-01" nType="0">
          <Node pos="l" depth="2" NCoef="0" IVar="-1" Cut="0.0000000000000000e+00" cType="1" res="-6.5418584272265434e-03" rms="3.5854724049568176e-01" purity="5.4933696985244751e-01" nType="-99"/>
          <Node pos="r" depth="2" NCoef="0" IVar="-1" Cut="0.0000000000000000e+00" cType="1" res="6.4842193387448788e-04" rms="3.4401762485504150e-01" purity="5.0863766670227051e-01" nType="-99"/>
        </Node>
        <Node pos="r" depth="1" NCoef="0" IVar="-1" Cut="0.0000000000000000e+00" cType="1" res="5.9280586428940296e-03" rms="3.7707784771919250e-01" purity="3.6470198631286621e-01" nType="-99"/>
      </Node>
    </BinaryTree>
    <BinaryTree type="DecisionTree" boostWeight="1.0000000000000000e+00" itree="806">
      <Node pos="s" depth="0" NCoef="0" IVar="12" Cut="6.6644680500030518e-01" cType="1" res="-8.4435223834589124e-04" rms="3.4650397300720215e-01" purity="4.9761903285980225e-01" nType="0">
        <Node pos="l" depth="1" NCoef="0" IVar="1" Cut="5.7773308753967285e+00" cType="1" res="5.1099127158522606e-03" rms="3.5799145698547363e-01" purity="7.6396769285202026e-01" nType="0">
          <Node pos="l" depth="2" NCoef="0" IVar="-1" Cut="0.0000000000000000e+00" cType="1" res="5.0545278936624527e-03" rms="4.1994294524192810e-01" purity="5.8345288038253784e-01" nType="-99"/>
          <Node pos="r" depth="2" NCoef="0" IVar="-1" Cut="0.0000000000000000e+00" cType="1" res="8.5859611863270402e-04" rms="3.4930446743965149e-01" purity="7.8680920600891113e-01" nType="-99"/>
        </Node>
        <Node pos="r" depth="1" NCoef="0" IVar="12" Cut="7.2994923591613770e-01" cType="1" res="-7.6608685776591301e-03" rms="3.3273583650588989e-01" purity="1.9269973039627075e-01" nType="0">
          <Node pos="l" depth="2" NCoef="0" IVar="-1" Cut="0.0000000000000000e+00" cType="1" res="-6.6866008564829826e-03" rms="4.4335943460464478e-01" purity="3.9906194806098938e-01" nType="-99"/>
          <Node pos="r" depth="2" NCoef="0" IVar="-1" Cut="0.0000000000000000e+00" cType="1" res="-1.3186059659346938e-03" rms="3.1827548146247864e-01" purity="1.7043040692806244e-01" nType="-99"/>
        </Node>
      </Node>
    </BinaryTree>
    <BinaryTree type="DecisionTree" boostWeight="1.0000000000000000e+00" itree="807">
      <Node pos="s" depth="0" NCoef="0" IVar="2" Cut="9.1743068695068359e+00" cType="1" res="1.5934309922158718e-03" rms="3.4664535522460938e-01" purity="5.0201356410980225e-01" nType="0">
        <Node pos="l" depth="1" NCoef="0" IVar="3" Cut="-3.8757181167602539e-01" cType="1" res="6.2462077476084232e-03" rms="3.5276386141777039e-01" purity="4.9699023365974426e-01" nType="0">
          <Node pos="l" depth="2" NCoef="0" IVar="-1" Cut="0.0000000000000000e+00" cType="1" res="-3.2852746080607176e-03" rms="3.2809272408485413e-01" purity="6.4797043800354004e-01" nType="-99"/>
          <Node pos="r" depth="2" NCoef="0" IVar="-1" Cut="0.0000000000000000e+00" cType="1" res="2.9613294173032045e-03" rms="3.6197289824485779e-01" purity="4.3642655014991760e-01" nType="-99"/>
        </Node>
        <Node pos="r" depth="1" NCoef="0" IVar="13" Cut="6.6650754213333130e-01" cType="1" res="-4.9956389702856541e-03" rms="3.3768135309219360e-01" purity="5.0912743806838989e-01" nType="0">
          <Node pos="l" depth="2" NCoef="0" IVar="-1" Cut="0.0000000000000000e+00" cType="1" res="-3.3390251919627190e-03" rms="3.3981695771217346e-01" purity="4.6118819713592529e-01" nType="-99"/>
          <Node pos="r" depth="2" NCoef="0" IVar="-1" Cut="0.0000000000000000e+00" cType="1" res="7.1937181055545807e-03" rms="3.2359841465950012e-01" purity="8.0564981698989868e-01" nType="-99"/>
        </Node>
      </Node>
    </BinaryTree>
    <BinaryTree type="DecisionTree" boostWeight="1.0000000000000000e+00" itree="808">
      <Node pos="s" depth="0" NCoef="0" IVar="6" Cut="-1.0696411132812500e+00" cType="1" res="8.7083422113209963e-04" rms="3.4957274794578552e-01" purity="5.0209563970565796e-01" nType="0">
        <Node pos="l" depth="1" NCoef="0" IVar="2" Cut="8.5902156829833984e+00" cType="1" res="-3.5673336242325604e-04" rms="3.4736728668212891e-01" purity="5.1737695932388306e-01" nType="0">
          <Node pos="l" depth="2" NCoef="0" IVar="-1" Cut="0.0000000000000000e+00" cType="1" res="2.2608353756368160e-03" rms="3.5626173019409180e-01" purity="5.0692385435104370e-01" nType="-99"/>
          <Node pos="r" depth="2" NCoef="0" IVar="-1" Cut="0.0000000000000000e+00" cType="1" res="-1.0056230239570141e-03" rms="3.4532070159912109e-01" purity="5.1968288421630859e-01" nType="-99"/>
        </Node>
        <Node pos="r" depth="1" NCoef="0" IVar="1" Cut="5.3229246139526367e+00" cType="1" res="1.8590696156024933e-02" rms="3.7954309582710266e-01" purity="2.8151026368141174e-01" nType="0">
          <Node pos="l" depth="2" NCoef="0" IVar="-1" Cut="0.0000000000000000e+00" cType="1" res="-1.0134275071322918e-03" rms="3.9640155434608459e-01" purity="2.3258216679096222e-01" nType="-99"/>
          <Node pos="r" depth="2" NCoef="0" IVar="-1" Cut="0.0000000000000000e+00" cType="1" res="1.1032708920538425e-02" rms="3.6235517263412476e-01" purity="3.2581955194473267e-01" nType="-99"/>
        </Node>
      </Node>
    </BinaryTree>
    <BinaryTree type="DecisionTree" boostWeight="1.0000000000000000e+00" itree="809">
      <Node pos="s" depth="0" NCoef="0" IVar="0" Cut="1.0444565773010254e+01" cType="1" res="3.3909361809492111e-03" rms="3.4543937444686890e-01" purity="5.0365853309631348e-01" nType="0">
        <Node pos="l" depth="1" NCoef="0" IVar="8" Cut="-4.5850303769111633e-01" cType="1" res="1.8208927940577269e-03" rms="3.4425985813140869e-01" purity="4.9501806497573853e-01" nType="0">
          <Node pos="l" depth="2" NCoef="0" IVar="-1" Cut="0.0000000000000000e+00" cType="1" res="-1.4545277226716280e-03" rms="3.7442836165428162e-01" purity="4.9766775965690613e-01" nType="-99"/>
          <Node pos="r" depth="2" NCoef="0" IVar="-1" Cut="0.0000000000000000e+00" cType="1" res="1.3677843380719423e-03" rms="3.3895820379257202e-01" purity="4.9457830190658569e-01" nType="-99"/>
        </Node>
        <Node pos="r" depth="1" NCoef="0" IVar="3" Cut="5.4024261236190796e-01" cType="1" res="1.8760500475764275e-02" rms="3.5641494393348694e-01" purity="5.8824270963668823e-01" nType="0">
          <Node pos="l" depth="2" NCoef="0" IVar="-1" Cut="0.0000000000000000e+00" cType="1" res="1.3997093774378300e-03" rms="3.3654099702835083e-01" purity="6.7565596103668213e-01" nType="-99"/>
          <Node pos="r" depth="2" NCoef="0" IVar="-1" Cut="0.0000000000000000e+00" cType="1" res="7.5486521236598492e-03" rms="3.8135731220245361e-01" purity="4.6756154298782349e-01" nType="-99"/>
        </Node>
      </Node>
    </BinaryTree>
    <BinaryTree type="DecisionTree" boostWeight="1.0000000000000000e+00" itree="810">
      <Node pos="s" depth="0" NCoef="0" IVar="8" Cut="-6.6115170717239380e-01" cType="1" res="-3.4973199944943190e-03" rms="3.4924456477165222e-01" purity="4.9847859144210815e-01" nType="0">
        <Node pos="l" depth="1" NCoef="0" IVar="-1" Cut="0.0000000000000000e+00" cType="1" res="-2.5266041047871113e-03" rms="4.1043558716773987e-01" purity="5.1627361774444580e-01" nType="-99"/>
        <Node pos="r" depth="1" NCoef="0" IVar="4" Cut="-2.0367386341094971e+00" cType="1" res="-2.0920520182698965e-03" rms="3.4457945823669434e-01" purity="4.9725124239921570e-01" nType="0">
          <Node pos="l" depth="2" NCoef="0" IVar="-1" Cut="0.0000000000000000e+00" cType="1" res="4.2775771580636501e-03" rms="3.1634062528610229e-01" purity="6.0235530138015747e-01" nType="-99"/>
          <Node pos="r" depth="2" NCoef="0" IVar="-1" Cut="0.0000000000000000e+00" cType="1" res="-1.2718902435153723e-03" rms="3.4820121526718140e-01" purity="4.8298260569572449e-01" nType="-99"/>
        </Node>
      </Node>
    </BinaryTree>
    <BinaryTree type="DecisionTree" boostWeight="1.0000000000000000e+00" itree="811">
      <Node pos="s" depth="0" NCoef="0" IVar="10" Cut="3.0000000000000000e+00" cType="1" res="-1.1510214535519481e-03" rms="2.6762247085571289e-01" purity="5.0066739320755005e-01" nType="0">
        <Node pos="l" depth="1" NCoef="0" IVar="1" Cut="6.5051631927490234e+00" cType="1" res="-1.9981090445071459e-03" rms="3.4764346480369568e-01" purity="5.1549249887466431e-01" nType="0">
          <Node pos="l" depth="2" NCoef="0" IVar="-1" Cut="0.0000000000000000e+00" cType="1" res="8.3676294889301062e-04" rms="3.7389564514160156e-01" purity="4.3066161870956421e-01" nType="-99"/>
          <Node pos="r" depth="2" NCoef="0" IVar="-1" Cut="0.0000000000000000e+00" cType="1" res="-2.8744898736476898e-03" rms="3.1396922469139099e-01" purity="6.1496531963348389e-01" nType="-99"/>
        </Node>
        <Node pos="r" depth="1" NCoef="0" IVar="4" Cut="7.2957597672939301e-02" cType="1" res="1.0698310099542141e-02" rms="3.6518141627311707e-01" purity="4.1813415288925171e-01" nType="0">
          <Node pos="l" depth="2" NCoef="0" IVar="-1" Cut="0.0000000000000000e+00" cType="1" res="6.5313751110807061e-04" rms="3.5772261023521423e-01" purity="4.3968272209167480e-01" nType="-99"/>
          <Node pos="r" depth="2" NCoef="0" IVar="-1" Cut="0.0000000000000000e+00" cType="1" res="9.3204900622367859e-03" rms="3.8353180885314941e-01" purity="3.6014914512634277e-01" nType="-99"/>
        </Node>
      </Node>
    </BinaryTree>
    <BinaryTree type="DecisionTree" boostWeight="1.0000000000000000e+00" itree="812">
      <Node pos="s" depth="0" NCoef="0" IVar="11" Cut="9.5235884189605713e-02" cType="1" res="-2.9293261468410492e-03" rms="3.5270050168037415e-01" purity="4.9765789508819580e-01" nType="0">
        <Node pos="l" depth="1" NCoef="0" IVar="11" Cut="7.2551518678665161e-02" cType="1" res="5.1026348955929279e-03" rms="3.0520886182785034e-01" purity="1.4075748622417450e-01" nType="0">
          <Node pos="l" depth="2" NCoef="0" IVar="-1" Cut="0.0000000000000000e+00" cType="1" res="1.0650297917891294e-04" rms="2.7848002314567566e-01" purity="1.0939673334360123e-01" nType="-99"/>
          <Node pos="r" depth="2" NCoef="0" IVar="-1" Cut="0.0000000000000000e+00" cType="1" res="8.2143181934952736e-03" rms="4.7456300258636475e-01" purity="4.1012033820152283e-01" nType="-99"/>
        </Node>
        <Node pos="r" depth="1" NCoef="0" IVar="1" Cut="6.2235808372497559e+00" cType="1" res="-8.5059981793165207e-03" rms="3.8211989402770996e-01" purity="7.4545747041702271e-01" nType="0">
          <Node pos="l" depth="2" NCoef="0" IVar="-1" Cut="0.0000000000000000e+00" cType="1" res="-6.6247796639800072e-03" rms="4.3579301238059998e-01" purity="6.3182973861694336e-01" nType="-99"/>
          <Node pos="r" depth="2" NCoef="0" IVar="-1" Cut="0.0000000000000000e+00" cType="1" res="3.4387361665721983e-05" rms="3.5835307836532593e-01" purity="7.9032796621322632e-01" nType="-99"/>
        </Node>
      </Node>
    </BinaryTree>
    <BinaryTree type="DecisionTree" boostWeight="1.0000000000000000e+00" itree="813">
      <Node pos="s" depth="0" NCoef="0" IVar="1" Cut="4.9141068458557129e+00" cType="1" res="-2.6469526346772909e-04" rms="3.4733062982559204e-01" purity="4.9725136160850525e-01" nType="0">
        <Node pos="l" depth="1" NCoef="0" IVar="-1" Cut="0.0000000000000000e+00" cType="1" res="1.0146749205887318e-02" rms="4.3197345733642578e-01" purity="2.8751844167709351e-01" nType="-99"/>
        <Node pos="r" depth="1" NCoef="0" IVar="2" Cut="8.1420955657958984e+00" cType="1" res="-1.7385722603648901e-03" rms="3.4444421529769897e-01" purity="5.0335597991943359e-01" nType="0">
          <Node pos="l" depth="2" NCoef="0" IVar="-1" Cut="0.0000000000000000e+00" cType="1" res="-5.4944679141044617e-03" rms="3.6561453342437744e-01" purity="4.2528930306434631e-01" nType="-99"/>
          <Node pos="r" depth="2" NCoef="0" IVar="-1" Cut="0.0000000000000000e+00" cType="1" res="-1.7330695118289441e-04" rms="3.4337812662124634e-01" purity="5.0699883699417114e-01" nType="-99"/>
        </Node>
      </Node>
    </BinaryTree>
    <BinaryTree type="DecisionTree" boostWeight="1.0000000000000000e+00" itree="814">
      <Node pos="s" depth="0" NCoef="0" IVar="9" Cut="4.0986123085021973e+00" cType="1" res="1.8571226974017918e-04" rms="2.0786888897418976e-01" purity="5.0484800338745117e-01" nType="0">
        <Node pos="l" depth="1" NCoef="0" IVar="8" Cut="-2.2752200067043304e-01" cType="1" res="2.7556093409657478e-03" rms="3.4809491038322449e-01" purity="5.1319777965545654e-01" nType="0">
          <Node pos="l" depth="2" NCoef="0" IVar="-1" Cut="0.0000000000000000e+00" cType="1" res="1.9409911474213004e-03" rms="3.5835158824920654e-01" purity="5.1920408010482788e-01" nType="-99"/>
          <Node pos="r" depth="2" NCoef="0" IVar="-1" Cut="0.0000000000000000e+00" cType="1" res="-2.2693672508466989e-04" rms="3.4318482875823975e-01" purity="5.1041370630264282e-01" nType="-99"/>
        </Node>
        <Node pos="r" depth="1" NCoef="0" IVar="-1" Cut="0.0000000000000000e+00" cType="1" res="-7.3789074085652828e-03" rms="3.6235114932060242e-01" purity="3.4618011116981506e-01" nType="-99"/>
      </Node>
    </BinaryTree>
    <BinaryTree type="DecisionTree" boostWeight="1.0000000000000000e+00" itree="815">
      <Node pos="s" depth="0" NCoef="0" IVar="11" Cut="3.3327582478523254e-01" cType="1" res="3.4279196988791227e-03" rms="3.4988769888877869e-01" purity="4.9940553307533264e-01" nType="0">
        <Node pos="l" depth="1" NCoef="0" IVar="11" Cut="7.9346507787704468e-02" cType="1" res="7.3547172360122204e-03" rms="3.5433241724967957e-01" purity="2.5404360890388489e-01" nType="0">
          <Node pos="l" depth="2" NCoef="0" IVar="-1" Cut="0.0000000000000000e+00" cType="1" res="-7.7061029151082039e-04" rms="2.8301727771759033e-01" purity="1.1238758265972137e-01" nType="-99"/>
          <Node pos="r" depth="2" NCoef="0" IVar="-1" Cut="0.0000000000000000e+00" cType="1" res="3.9662811905145645e-03" rms="4.6218332648277283e-01" purity="5.3000175952911377e-01" nType="-99"/>
        </Node>
        <Node pos="r" depth="1" NCoef="0" IVar="2" Cut="8.5809917449951172e+00" cType="1" res="-1.9813308026641607e-03" rms="3.4359744191169739e-01" purity="8.3739697933197021e-01" nType="0">
          <Node pos="l" depth="2" NCoef="0" IVar="-1" Cut="0.0000000000000000e+00" cType="1" res="-5.6000337935984135e-03" rms="3.7240019440650940e-01" purity="8.0525386333465576e-01" nType="-99"/>
          <Node pos="r" depth="2" NCoef="0" IVar="-1" Cut="0.0000000000000000e+00" cType="1" res="8.4746390348300338e-04" rms="3.3749622106552124e-01" purity="8.4370505809783936e-01" nType="-99"/>
        </Node>
      </Node>
    </BinaryTree>
    <BinaryTree type="DecisionTree" boostWeight="1.0000000000000000e+00" itree="816">
      <Node pos="s" depth="0" NCoef="0" IVar="1" Cut="5.7704014778137207e+00" cType="1" res="5.3741660667583346e-04" rms="3.4759849309921265e-01" purity="5.0058221817016602e-01" nType="0">
        <Node pos="l" depth="1" NCoef="0" IVar="4" Cut="-5.6807726621627808e-01" cType="1" res="-1.0881774127483368e-02" rms="3.9100286364555359e-01" purity="3.1177955865859985e-01" nType="0">
          <Node pos="l" depth="2" NCoef="0" IVar="-1" Cut="0.0000000000000000e+00" cType="1" res="-5.6173200719058514e-03" rms="3.9874100685119629e-01" purity="3.2176741957664490e-01" nType="-99"/>
          <Node pos="r" depth="2" NCoef="0" IVar="-1" Cut="0.0000000000000000e+00" cType="1" res="-1.9719997362699360e-04" rms="3.8525491952896118e-01" purity="3.0489584803581238e-01" nType="-99"/>
        </Node>
        <Node pos="r" depth="1" NCoef="0" IVar="8" Cut="-5.3617858886718750e-01" cType="1" res="3.5401547793298960e-03" rms="3.3518868684768677e-01" purity="5.5022883415222168e-01" nType="0">
          <Node pos="l" depth="2" NCoef="0" IVar="-1" Cut="0.0000000000000000e+00" cType="1" res="2.4231963325291872e-03" rms="3.7578505277633667e-01" purity="5.8794075250625610e-01" nType="-99"/>
          <Node pos="r" depth="2" NCoef="0" IVar="-1" Cut="0.0000000000000000e+00" cType="1" res="6.7208497785031796e-04" rms="3.3024770021438599e-01" purity="5.4597479104995728e-01" nType="-99"/>
        </Node>
      </Node>
    </BinaryTree>
    <BinaryTree type="DecisionTree" boostWeight="1.0000000000000000e+00" itree="817">
      <Node pos="s" depth="0" NCoef="0" IVar="0" Cut="1.0881510734558105e+01" cType="1" res="2.4419676046818495e-03" rms="3.4864595532417297e-01" purity="5.0497001409530640e-01" nType="0">
        <Node pos="l" depth="1" NCoef="0" IVar="1" Cut="5.1509304046630859e+00" cType="1" res="3.3274427987635136e-03" rms="3.4694367647171021e-01" purity="5.0319653749465942e-01" nType="0">
          <Node pos="l" depth="2" NCoef="0" IVar="-1" Cut="0.0000000000000000e+00" cType="1" res="4.1731409728527069e-03" rms="4.2449223995208740e-01" purity="2.8857704997062683e-01" nType="-99"/>
          <Node pos="r" depth="2" NCoef="0" IVar="-1" Cut="0.0000000000000000e+00" cType="1" res="7.3267263360321522e-04" rms="3.4166845679283142e-01" purity="5.1616448163986206e-01" nType="-99"/>
        </Node>
        <Node pos="r" depth="1" NCoef="0" IVar="-1" Cut="0.0000000000000000e+00" cType="1" res="-3.9264885708689690e-03" rms="3.8871964812278748e-01" purity="5.5001389980316162e-01" nType="-99"/>
      </Node>
    </BinaryTree>
    <BinaryTree type="DecisionTree" boostWeight="1.0000000000000000e+00" itree="818">
      <Node pos="s" depth="0" NCoef="0" IVar="4" Cut="-1.8513509035110474e+00" cType="1" res="5.8396643726155162e-04" rms="3.4911453723907471e-01" purity="4.9811029434204102e-01" nType="0">
        <Node pos="l" depth="1" NCoef="0" IVar="6" Cut="-2.1880915164947510e+00" cType="1" res="-1.1550935916602612e-02" rms="3.3127531409263611e-01" purity="5.7540458440780640e-01" nType="0">
          <Node pos="l" depth="2" NCoef="0" IVar="-1" Cut="0.0000000000000000e+00" cType="1" res="-8.3486251533031464e-03" rms="3.1782230734825134e-01" purity="6.1948031187057495e-01" nType="-99"/>
          <Node pos="r" depth="2" NCoef="0" IVar="-1" Cut="0.0000000000000000e+00" cType="1" res="4.6240305528044701e-03" rms="3.7259376049041748e-01" purity="4.2352744936943054e-01" nType="-99"/>
        </Node>
        <Node pos="r" depth="1" NCoef="0" IVar="6" Cut="-2.0610120296478271e+00" cType="1" res="2.5457411538809538e-03" rms="3.5187432169914246e-01" purity="4.8561459779739380e-01" nType="0">
          <Node pos="l" depth="2" NCoef="0" IVar="-1" Cut="0.0000000000000000e+00" cType="1" res="1.7211179947480559e-03" rms="3.4123456478118896e-01" purity="5.3619915246963501e-01" nType="-99"/>
          <Node pos="r" depth="2" NCoef="0" IVar="-1" Cut="0.0000000000000000e+00" cType="1" res="-1.7827474512159824e-03" rms="3.8219729065895081e-01" purity="3.3210569620132446e-01" nType="-99"/>
        </Node>
      </Node>
    </BinaryTree>
    <BinaryTree type="DecisionTree" boostWeight="1.0000000000000000e+00" itree="819">
      <Node pos="s" depth="0" NCoef="0" IVar="0" Cut="7.8199801445007324e+00" cType="1" res="-9.9913355370517820e-05" rms="3.4923049807548523e-01" purity="5.0083500146865845e-01" nType="0">
        <Node pos="l" depth="1" NCoef="0" IVar="-1" Cut="0.0000000000000000e+00" cType="1" res="-4.9846228212118149e-03" rms="4.3710327148437500e-01" purity="3.1951743364334106e-01" nType="-99"/>
        <Node pos="r" depth="1" NCoef="0" IVar="0" Cut="8.6531553268432617e+00" cType="1" res="1.3391316169872880e-03" rms="3.4382170438766479e-01" purity="5.1056492328643799e-01" nType="0">
          <Node pos="l" depth="2" NCoef="0" IVar="-1" Cut="0.0000000000000000e+00" cType="1" res="2.6192299555987120e-03" rms="3.7867796421051025e-01" purity="4.3564039468765259e-01" nType="-99"/>
          <Node pos="r" depth="2" NCoef="0" IVar="-1" Cut="0.0000000000000000e+00" cType="1" res="-6.9742108462378383e-04" rms="3.2802185416221619e-01" purity="5.4202663898468018e-01" nType="-99"/>
        </Node>
      </Node>
    </BinaryTree>
    <BinaryTree type="DecisionTree" boostWeight="1.0000000000000000e+00" itree="820">
      <Node pos="s" depth="0" NCoef="0" IVar="8" Cut="-4.3685406446456909e-01" cType="1" res="-1.9357730634510517e-03" rms="3.4956166148185730e-01" purity="4.9957096576690674e-01" nType="0">
        <Node pos="l" depth="1" NCoef="0" IVar="4" Cut="-7.8558224439620972e-01" cType="1" res="-1.2574685737490654e-02" rms="3.7837275862693787e-01" purity="5.0041866302490234e-01" nType="0">
          <Node pos="l" depth="2" NCoef="0" IVar="-1" Cut="0.0000000000000000e+00" cType="1" res="1.8143904162570834e-03" rms="3.6442774534225464e-01" purity="5.9245747327804565e-01" nType="-99"/>
          <Node pos="r" depth="2" NCoef="0" IVar="-1" Cut="0.0000000000000000e+00" cType="1" res="-3.2662015873938799e-03" rms="3.8443884253501892e-01" purity="4.5583376288414001e-01" nType="-99"/>
        </Node>
        <Node pos="r" depth="1" NCoef="0" IVar="5" Cut="6.4922161102294922e+00" cType="1" res="1.3010303518967703e-05" rms="3.4398716688156128e-01" purity="4.9941572546958923e-01" nType="0">
          <Node pos="l" depth="2" NCoef="0" IVar="-1" Cut="0.0000000000000000e+00" cType="1" res="2.6630540378391743e-03" rms="3.5082483291625977e-01" purity="5.3485828638076782e-01" nType="-99"/>
          <Node pos="r" depth="2" NCoef="0" IVar="-1" Cut="0.0000000000000000e+00" cType="1" res="-1.9138174830004573e-03" rms="3.3912155032157898e-01" purity="4.7509628534317017e-01" nType="-99"/>
        </Node>
      </Node>
    </BinaryTree>
    <BinaryTree type="DecisionTree" boostWeight="1.0000000000000000e+00" itree="821">
      <Node pos="s" depth="0" NCoef="0" IVar="6" Cut="-2.7449371814727783e+00" cType="1" res="4.0986677049659193e-04" rms="3.4678670763969421e-01" purity="5.0131827592849731e-01" nType="0">
        <Node pos="l" depth="1" NCoef="0" IVar="5" Cut="7.4588232040405273e+00" cType="1" res="3.8896114565432072e-03" rms="3.2957115769386292e-01" purity="5.8368670940399170e-01" nType="0">
          <Node pos="l" depth="2" NCoef="0" IVar="-1" Cut="0.0000000000000000e+00" cType="1" res="2.8072062414139509e-03" rms="3.1877887248992920e-01" purity="6.1324518918991089e-01" nType="-99"/>
          <Node pos="r" depth="2" NCoef="0" IVar="-1" Cut="0.0000000000000000e+00" cType="1" res="-1.9058802863582969e-03" rms="3.5936313867568970e-01" purity="4.9625554680824280e-01" nType="-99"/>
        </Node>
        <Node pos="r" depth="1" NCoef="0" IVar="2" Cut="8.7273426055908203e+00" cType="1" res="-3.5066343843936920e-03" rms="3.6515393853187561e-01" purity="4.0861147642135620e-01" nType="0">
          <Node pos="l" depth="2" NCoef="0" IVar="-1" Cut="0.0000000000000000e+00" cType="1" res="-3.8812393322587013e-03" rms="3.6544230580329895e-01" purity="3.7518900632858276e-01" nType="-99"/>
          <Node pos="r" depth="2" NCoef="0" IVar="-1" Cut="0.0000000000000000e+00" cType="1" res="8.7727070786058903e-04" rms="3.6485004425048828e-01" purity="4.2057612538337708e-01" nType="-99"/>
        </Node>
      </Node>
    </BinaryTree>
    <BinaryTree type="DecisionTree" boostWeight="1.0000000000000000e+00" itree="822">
      <Node pos="s" depth="0" NCoef="0" IVar="4" Cut="5.9482902288436890e-01" cType="1" res="2.1298278588801622e-03" rms="3.4481406211853027e-01" purity="5.0061166286468506e-01" nType="0">
        <Node pos="l" depth="1" NCoef="0" IVar="4" Cut="1.0388417541980743e-01" cType="1" res="3.5202724393457174e-03" rms="3.4290599822998047e-01" purity="5.1003021001815796e-01" nType="0">
          <Node pos="l" depth="2" NCoef="0" IVar="-1" Cut="0.0000000000000000e+00" cType="1" res="2.1052408555988222e-04" rms="3.3481198549270630e-01" purity="5.3109264373779297e-01" nType="-99"/>
          <Node pos="r" depth="2" NCoef="0" IVar="-1" Cut="0.0000000000000000e+00" cType="1" res="3.6772785242646933e-03" rms="3.7281528115272522e-01" purity="4.2721962928771973e-01" nType="-99"/>
        </Node>
        <Node pos="r" depth="1" NCoef="0" IVar="-1" Cut="0.0000000000000000e+00" cType="1" res="-5.8160158805549145e-03" rms="3.7794405221939087e-01" purity="3.2358080148696899e-01" nType="-99"/>
      </Node>
    </BinaryTree>
    <BinaryTree type="DecisionTree" boostWeight="1.0000000000000000e+00" itree="823">
      <Node pos="s" depth="0" NCoef="0" IVar="11" Cut="5.7133203744888306e-01" cType="1" res="-1.2434659292921424e-03" rms="3.4783828258514404e-01" purity="4.9846008419990540e-01" nType="0">
        <Node pos="l" depth="1" NCoef="0" IVar="12" Cut="2.8562802076339722e-01" cType="1" res="-4.9089239910244942e-03" rms="3.6098298430442810e-01" purity="2.9880046844482422e-01" nType="0">
          <Node pos="l" depth="2" NCoef="0" IVar="-1" Cut="0.0000000000000000e+00" cType="1" res="-8.9490571990609169e-03" rms="3.9861586689949036e-01" purity="4.8582330346107483e-01" nType="-99"/>
          <Node pos="r" depth="2" NCoef="0" IVar="-1" Cut="0.0000000000000000e+00" cType="1" res="-7.5416098115965724e-04" rms="3.5822778940200806e-01" purity="2.8630632162094116e-01" nType="-99"/>
        </Node>
        <Node pos="r" depth="1" NCoef="0" IVar="8" Cut="-2.9850829392671585e-02" cType="1" res="5.4961275309324265e-03" rms="3.2216450572013855e-01" purity="8.6556959152221680e-01" nType="0">
          <Node pos="l" depth="2" NCoef="0" IVar="-1" Cut="0.0000000000000000e+00" cType="1" res="-3.0189767130650580e-04" rms="3.2777398824691772e-01" purity="8.6065590381622314e-01" nType="-99"/>
          <Node pos="r" depth="2" NCoef="0" IVar="-1" Cut="0.0000000000000000e+00" cType="1" res="5.6120962835848331e-03" rms="3.1583860516548157e-01" purity="8.7088453769683838e-01" nType="-99"/>
        </Node>
      </Node>
    </BinaryTree>
    <BinaryTree type="DecisionTree" boostWeight="1.0000000000000000e+00" itree="824">
      <Node pos="s" depth="0" NCoef="0" IVar="11" Cut="4.7629684209823608e-02" cType="1" res="-2.3530842736363411e-03" rms="3.5150408744812012e-01" purity="5.0040709972381592e-01" nType="0">
        <Node pos="l" depth="1" NCoef="0" IVar="11" Cut="2.0422693341970444e-02" cType="1" res="5.0915339961647987e-03" rms="2.3604002594947815e-01" purity="6.9006040692329407e-02" nType="0">
          <Node pos="l" depth="2" NCoef="0" IVar="-1" Cut="0.0000000000000000e+00" cType="1" res="-3.0323725659400225e-03" rms="1.7313502728939056e-01" purity="3.3131014555692673e-02" nType="-99"/>
          <Node pos="r" depth="2" NCoef="0" IVar="-1" Cut="0.0000000000000000e+00" cType="1" res="8.6865993216633797e-03" rms="3.8616511225700378e-01" purity="2.0069679617881775e-01" nType="-99"/>
        </Node>
        <Node pos="r" depth="1" NCoef="0" IVar="7" Cut="1.0034179687500000e-01" cType="1" res="-5.5499761365354061e-03" rms="3.9070865511894226e-01" purity="6.8566077947616577e-01" nType="0">
          <Node pos="l" depth="2" NCoef="0" IVar="-1" Cut="0.0000000000000000e+00" cType="1" res="-3.0882321298122406e-03" rms="3.8802364468574524e-01" purity="6.9477212429046631e-01" nType="-99"/>
          <Node pos="r" depth="2" NCoef="0" IVar="-1" Cut="0.0000000000000000e+00" cType="1" res="4.2570594814606011e-04" rms="3.9333176612854004e-01" purity="6.7624425888061523e-01" nType="-99"/>
        </Node>
      </Node>
    </BinaryTree>
    <BinaryTree type="DecisionTree" boostWeight="1.0000000000000000e+00" itree="825">
      <Node pos="s" depth="0" NCoef="0" IVar="1" Cut="7.3276386260986328e+00" cType="1" res="3.3695471938699484e-03" rms="3.4781593084335327e-01" purity="5.0464731454849243e-01" nType="0">
        <Node pos="l" depth="1" NCoef="0" IVar="1" Cut="6.9706497192382812e+00" cType="1" res="1.9626277498900890e-03" rms="3.5411572456359863e-01" purity="4.8549911379814148e-01" nType="0">
          <Node pos="l" depth="2" NCoef="0" IVar="-1" Cut="0.0000000000000000e+00" cType="1" res="1.0678702965378761e-03" rms="3.6050114035606384e-01" purity="4.6452733874320984e-01" nType="-99"/>
          <Node pos="r" depth="2" NCoef="0" IVar="-1" Cut="0.0000000000000000e+00" cType="1" res="-3.4890137612819672e-03" rms="3.0876499414443970e-01" purity="6.2299090623855591e-01" nType="-99"/>
        </Node>
        <Node pos="r" depth="1" NCoef="0" IVar="10" Cut="2.0000000000000000e+00" cType="1" res="4.9516917206346989e-03" rms="1.4429837465286255e-01" purity="6.4164930582046509e-01" nType="0">
          <Node pos="l" depth="2" NCoef="0" IVar="-1" Cut="0.0000000000000000e+00" cType="1" res="1.0014687431976199e-03" rms="2.8319692611694336e-01" purity="6.7004615068435669e-01" nType="-99"/>
          <Node pos="r" depth="2" NCoef="0" IVar="-1" Cut="0.0000000000000000e+00" cType="1" res="9.2386407777667046e-03" rms="3.1623587012290955e-01" purity="6.0674375295639038e-01" nType="-99"/>
        </Node>
      </Node>
    </BinaryTree>
    <BinaryTree type="DecisionTree" boostWeight="1.0000000000000000e+00" itree="826">
      <Node pos="s" depth="0" NCoef="0" IVar="9" Cut="4.6931471824645996e+00" cType="1" res="7.9185387585312128e-04" rms="2.2698864340782166e-01" purity="4.9909150600433350e-01" nType="0">
        <Node pos="l" depth="1" NCoef="0" IVar="3" Cut="-1.9230055809020996e+00" cType="1" res="-5.1365606486797333e-04" rms="3.4933561086654663e-01" purity="4.9912425875663757e-01" nType="0">
          <Node pos="l" depth="2" NCoef="0" IVar="-1" Cut="0.0000000000000000e+00" cType="1" res="-6.6448156721889973e-03" rms="3.0341285467147827e-01" purity="7.2495424747467041e-01" nType="-99"/>
          <Node pos="r" depth="2" NCoef="0" IVar="-1" Cut="0.0000000000000000e+00" cType="1" res="1.7393576854374260e-04" rms="3.5274437069892883e-01" purity="4.8097094893455505e-01" nType="-99"/>
        </Node>
        <Node pos="r" depth="1" NCoef="0" IVar="-1" Cut="0.0000000000000000e+00" cType="1" res="1.2286931276321411e-01" rms="4.4949799776077271e-01" purity="2.3872877657413483e-01" nType="-99"/>
      </Node>
    </BinaryTree>
    <BinaryTree type="DecisionTree" boostWeight="1.0000000000000000e+00" itree="827">
      <Node pos="s" depth="0" NCoef="0" IVar="8" Cut="-2.2776553034782410e-01" cType="1" res="9.6679112175479531e-05" rms="3.4960237145423889e-01" purity="5.0268310308456421e-01" nType="0">
        <Node pos="l" depth="1" NCoef="0" IVar="4" Cut="-1.0543949604034424e+00" cType="1" res="-8.1222271546721458e-03" rms="3.5949340462684631e-01" purity="4.9182081222534180e-01" nType="0">
          <Node pos="l" depth="2" NCoef="0" IVar="-1" Cut="0.0000000000000000e+00" cType="1" res="2.2872155532240868e-03" rms="3.4235489368438721e-01" purity="5.7302337884902954e-01" nType="-99"/>
          <Node pos="r" depth="2" NCoef="0" IVar="-1" Cut="0.0000000000000000e+00" cType="1" res="-2.8950802516192198e-03" rms="3.6560854315757751e-01" purity="4.6082130074501038e-01" nType="-99"/>
        </Node>
        <Node pos="r" depth="1" NCoef="0" IVar="4" Cut="-1.6416136920452118e-01" cType="1" res="3.6971140652894974e-03" rms="3.4511849284172058e-01" purity="5.0744152069091797e-01" nType="0">
          <Node pos="l" depth="2" NCoef="0" IVar="-1" Cut="0.0000000000000000e+00" cType="1" res="7.2716633439995348e-05" rms="3.3043694496154785e-01" purity="5.5261242389678955e-01" nType="-99"/>
          <Node pos="r" depth="2" NCoef="0" IVar="-1" Cut="0.0000000000000000e+00" cType="1" res="3.2527763396501541e-03" rms="3.6895626783370972e-01" purity="4.2965283989906311e-01" nType="-99"/>
        </Node>
      </Node>
    </BinaryTree>
    <BinaryTree type="DecisionTree" boostWeight="1.0000000000000000e+00" itree="828">
      <Node pos="s" depth="0" NCoef="0" IVar="2" Cut="8.1598834991455078e+00" cType="1" res="-3.0632906127721071e-03" rms="3.5017633438110352e-01" purity="4.9907451868057251e-01" nType="0">
        <Node pos="l" depth="1" NCoef="0" IVar="-1" Cut="0.0000000000000000e+00" cType="1" res="3.2681059092283249e-03" rms="3.6788323521614075e-01" purity="4.5031106472015381e-01" nType="-99"/>
        <Node pos="r" depth="1" NCoef="0" IVar="2" Cut="8.6215295791625977e+00" cType="1" res="-4.1116243228316307e-03" rms="3.4916886687278748e-01" purity="5.0169396400451660e-01" nType="0">
          <Node pos="l" depth="2" NCoef="0" IVar="-1" Cut="0.0000000000000000e+00" cType="1" res="-3.0763044487684965e-03" rms="3.5815480351448059e-01" purity="4.7097867727279663e-01" nType="-99"/>
          <Node pos="r" depth="2" NCoef="0" IVar="-1" Cut="0.0000000000000000e+00" cType="1" res="-7.4174447217956185e-04" rms="3.4749862551689148e-01" purity="5.0719845294952393e-01" nType="-99"/>
        </Node>
      </Node>
    </BinaryTree>
    <BinaryTree type="DecisionTree" boostWeight="1.0000000000000000e+00" itree="829">
      <Node pos="s" depth="0" NCoef="0" IVar="0" Cut="8.0390567779541016e+00" cType="1" res="-4.0199137292802334e-03" rms="3.5045433044433594e-01" purity="4.9715423583984375e-01" nType="0">
        <Node pos="l" depth="1" NCoef="0" IVar="0" Cut="7.9345774650573730e+00" cType="1" res="-2.0073691383004189e-02" rms="4.3247342109680176e-01" purity="3.4302476048469543e-01" nType="0">
          <Node pos="l" depth="2" NCoef="0" IVar="-1" Cut="0.0000000000000000e+00" cType="1" res="-5.1840119995176792e-03" rms="4.3915891647338867e-01" purity="3.2962504029273987e-01" nType="-99"/>
          <Node pos="r" depth="2" NCoef="0" IVar="-1" Cut="0.0000000000000000e+00" cType="1" res="-1.2307037832215428e-04" rms="4.1404172778129578e-01" purity="3.7768891453742981e-01" nType="-99"/>
        </Node>
        <Node pos="r" depth="1" NCoef="0" IVar="6" Cut="-7.7791768312454224e-01" cType="1" res="-1.9919509068131447e-03" rms="3.3862918615341187e-01" purity="5.1662433147430420e-01" nType="0">
          <Node pos="l" depth="2" NCoef="0" IVar="-1" Cut="0.0000000000000000e+00" cType="1" res="-8.8564056204631925e-04" rms="3.3669334650039673e-01" purity="5.2634769678115845e-01" nType="-99"/>
          <Node pos="r" depth="2" NCoef="0" IVar="-1" Cut="0.0000000000000000e+00" cType="1" res="4.9528582021594048e-03" rms="3.8413670659065247e-01" purity="2.6891112327575684e-01" nType="-99"/>
        </Node>
      </Node>
    </BinaryTree>
    <BinaryTree type="DecisionTree" boostWeight="1.0000000000000000e+00" itree="830">
      <Node pos="s" depth="0" NCoef="0" IVar="7" Cut="4.6377459168434143e-01" cType="1" res="2.2118634078651667e-03" rms="3.5044485330581665e-01" purity="5.0255113840103149e-01" nType="0">
        <Node pos="l" depth="1" NCoef="0" IVar="0" Cut="7.8200130462646484e+00" cType="1" res="-6.1296572675928473e-04" rms="3.5237196087837219e-01" purity="5.1952999830245972e-01" nType="0">
          <Node pos="l" depth="2" NCoef="0" IVar="-1" Cut="0.0000000000000000e+00" cType="1" res="-4.7467197291553020e-03" rms="4.4231247901916504e-01" purity="3.2921260595321655e-01" nType="-99"/>
          <Node pos="r" depth="2" NCoef="0" IVar="-1" Cut="0.0000000000000000e+00" cType="1" res="2.4533283431082964e-04" rms="3.4678661823272705e-01" purity="5.2982234954833984e-01" nType="-99"/>
        </Node>
        <Node pos="r" depth="1" NCoef="0" IVar="13" Cut="1.4284032583236694e-01" cType="1" res="9.3741165474057198e-03" rms="3.4540703892707825e-01" purity="4.5950195193290710e-01" nType="0">
          <Node pos="l" depth="2" NCoef="0" IVar="-1" Cut="0.0000000000000000e+00" cType="1" res="5.1471265032887459e-04" rms="3.3200666308403015e-01" purity="3.1536442041397095e-01" nType="-99"/>
          <Node pos="r" depth="2" NCoef="0" IVar="-1" Cut="0.0000000000000000e+00" cType="1" res="7.1850265376269817e-03" rms="3.7116235494613647e-01" purity="7.5853776931762695e-01" nType="-99"/>
        </Node>
      </Node>
    </BinaryTree>
    <BinaryTree type="DecisionTree" boostWeight="1.0000000000000000e+00" itree="831">
      <Node pos="s" depth="0" NCoef="0" IVar="0" Cut="1.0881928443908691e+01" cType="1" res="1.4950862387195230e-03" rms="3.4975919127464294e-01" purity="5.0428330898284912e-01" nType="0">
        <Node pos="l" depth="1" NCoef="0" IVar="7" Cut="-5.3933482617139816e-02" cType="1" res="2.7637025341391563e-03" rms="3.4788066148757935e-01" purity="5.0269609689712524e-01" nType="0">
          <Node pos="l" depth="2" NCoef="0" IVar="-1" Cut="0.0000000000000000e+00" cType="1" res="-9.5202366355806589e-04" rms="3.4951755404472351e-01" purity="5.1775741577148438e-01" nType="-99"/>
          <Node pos="r" depth="2" NCoef="0" IVar="-1" Cut="0.0000000000000000e+00" cType="1" res="2.2538802586495876e-03" rms="3.4665152430534363e-01" purity="4.9200886487960815e-01" nType="-99"/>
        </Node>
        <Node pos="r" depth="1" NCoef="0" IVar="-1" Cut="0.0000000000000000e+00" cType="1" res="-5.6095258332788944e-03" rms="3.9320844411849976e-01" purity="5.4469305276870728e-01" nType="-99"/>
      </Node>
    </BinaryTree>
    <BinaryTree type="DecisionTree" boostWeight="1.0000000000000000e+00" itree="832">
      <Node pos="s" depth="0" NCoef="0" IVar="7" Cut="-5.4116897284984589e-02" cType="1" res="-1.9934540614485741e-03" rms="3.4935143589973450e-01" purity="4.9932408332824707e-01" nType="0">
        <Node pos="l" depth="1" NCoef="0" IVar="8" Cut="-4.0448108315467834e-01" cType="1" res="4.0632677264511585e-03" rms="3.5311895608901978e-01" purity="5.2405864000320435e-01" nType="0">
          <Node pos="l" depth="2" NCoef="0" IVar="-1" Cut="0.0000000000000000e+00" cType="1" res="3.9576753042638302e-03" rms="3.8192048668861389e-01" purity="5.5530726909637451e-01" nType="-99"/>
          <Node pos="r" depth="2" NCoef="0" IVar="-1" Cut="0.0000000000000000e+00" cType="1" res="-3.1896572909317911e-04" rms="3.4605377912521362e-01" purity="5.1696097850799561e-01" nType="-99"/>
        </Node>
        <Node pos="r" depth="1" NCoef="0" IVar="0" Cut="1.0228271484375000e+01" cType="1" res="-6.1827539466321468e-03" rms="3.4665966033935547e-01" purity="4.8221573233604431e-01" nType="0">
          <Node pos="l" depth="2" NCoef="0" IVar="-1" Cut="0.0000000000000000e+00" cType="1" res="-1.1528559261932969e-03" rms="3.4727579355239868e-01" purity="4.7625342011451721e-01" nType="-99"/>
          <Node pos="r" depth="2" NCoef="0" IVar="-1" Cut="0.0000000000000000e+00" cType="1" res="-5.7053957134485245e-03" rms="3.4240549802780151e-01" purity="5.1900100708007812e-01" nType="-99"/>
        </Node>
      </Node>
    </BinaryTree>
    <BinaryTree type="DecisionTree" boostWeight="1.0000000000000000e+00" itree="833">
      <Node pos="s" depth="0" NCoef="0" IVar="6" Cut="-4.5809478759765625e+00" cType="1" res="-1.7956782830879092e-03" rms="3.4971013665199280e-01" purity="4.9726530909538269e-01" nType="0">
        <Node pos="l" depth="1" NCoef="0" IVar="-1" Cut="0.0000000000000000e+00" cType="1" res="-8.5137039422988892e-03" rms="3.1764137744903564e-01" purity="5.8101797103881836e-01" nType="-99"/>
        <Node pos="r" depth="1" NCoef="0" IVar="6" Cut="-3.5460851192474365e+00" cType="1" res="-9.6901442157104611e-04" rms="3.5091796517372131e-01" purity="4.9388465285301208e-01" nType="0">
          <Node pos="l" depth="2" NCoef="0" IVar="-1" Cut="0.0000000000000000e+00" cType="1" res="3.4167487174272537e-03" rms="3.2131010293960571e-01" purity="6.0838621854782104e-01" nType="-99"/>
          <Node pos="r" depth="2" NCoef="0" IVar="-1" Cut="0.0000000000000000e+00" cType="1" res="-1.0177001822739840e-03" rms="3.5758101940155029e-01" purity="4.6652361750602722e-01" nType="-99"/>
        </Node>
      </Node>
    </BinaryTree>
    <BinaryTree type="DecisionTree" boostWeight="1.0000000000000000e+00" itree="834">
      <Node pos="s" depth="0" NCoef="0" IVar="11" Cut="1.4284577965736389e-01" cType="1" res="3.0416746158152819e-03" rms="3.4975185990333557e-01" purity="5.0063538551330566e-01" nType="0">
        <Node pos="l" depth="1" NCoef="0" IVar="11" Cut="6.8146884441375732e-03" cType="1" res="9.2250658199191093e-03" rms="3.2936760783195496e-01" purity="1.8101157248020172e-01" nType="0">
          <Node pos="l" depth="2" NCoef="0" IVar="-1" Cut="0.0000000000000000e+00" cType="1" res="-1.6517113894224167e-02" rms="1.0595422238111496e-01" purity="1.1497187428176403e-02" nType="-99"/>
          <Node pos="r" depth="2" NCoef="0" IVar="-1" Cut="0.0000000000000000e+00" cType="1" res="4.4791139662265778e-03" rms="4.0840929746627808e-01" purity="2.8321975469589233e-01" nType="-99"/>
        </Node>
        <Node pos="r" depth="1" NCoef="0" IVar="0" Cut="8.3124008178710938e+00" cType="1" res="-2.5062381755560637e-03" rms="3.6699035763740540e-01" purity="7.8741085529327393e-01" nType="0">
          <Node pos="l" depth="2" NCoef="0" IVar="-1" Cut="0.0000000000000000e+00" cType="1" res="-5.7854042388498783e-03" rms="4.3920242786407471e-01" purity="6.5200465917587280e-01" nType="-99"/>
          <Node pos="r" depth="2" NCoef="0" IVar="-1" Cut="0.0000000000000000e+00" cType="1" res="2.0110422337893397e-04" rms="3.5667023062705994e-01" purity="8.0457121133804321e-01" nType="-99"/>
        </Node>
      </Node>
    </BinaryTree>
    <BinaryTree type="DecisionTree" boostWeight="1.0000000000000000e+00" itree="835">
      <Node pos="s" depth="0" NCoef="0" IVar="7" Cut="1.4608460664749146e+00" cType="1" res="-5.8075222186744213e-03" rms="3.5010460019111633e-01" purity="4.9381399154663086e-01" nType="0">
        <Node pos="l" depth="1" NCoef="0" IVar="8" Cut="-5.8366847038269043e-01" cType="1" res="-4.9518258310854435e-03" rms="3.5064306855201721e-01" purity="5.0490349531173706e-01" nType="0">
          <Node pos="l" depth="2" NCoef="0" IVar="-1" Cut="0.0000000000000000e+00" cType="1" res="-2.2172434255480766e-03" rms="4.0941852331161499e-01" purity="5.2192109823226929e-01" nType="-99"/>
          <Node pos="r" depth="2" NCoef="0" IVar="-1" Cut="0.0000000000000000e+00" cType="1" res="-1.2333584018051624e-03" rms="3.4420236945152283e-01" purity="5.0320726633071899e-01" nType="-99"/>
        </Node>
        <Node pos="r" depth="1" NCoef="0" IVar="-1" Cut="0.0000000000000000e+00" cType="1" res="-8.5619958117604256e-03" rms="3.3656698465347290e-01" purity="2.3302164673805237e-01" nType="-99"/>
      </Node>
    </BinaryTree>
    <BinaryTree type="DecisionTree" boostWeight="1.0000000000000000e+00" itree="836">
      <Node pos="s" depth="0" NCoef="0" IVar="1" Cut="5.4422726631164551e+00" cType="1" res="-2.3874647449702024e-03" rms="3.4920626878738403e-01" purity="4.9683836102485657e-01" nType="0">
        <Node pos="l" depth="1" NCoef="0" IVar="0" Cut="8.5583896636962891e+00" cType="1" res="1.0084213688969612e-02" rms="4.0461274981498718e-01" purity="3.0606135725975037e-01" nType="0">
          <Node pos="l" depth="2" NCoef="0" IVar="-1" Cut="0.0000000000000000e+00" cType="1" res="-1.9433731213212013e-03" rms="4.0553748607635498e-01" purity="2.7746066451072693e-01" nType="-99"/>
          <Node pos="r" depth="2" NCoef="0" IVar="-1" Cut="0.0000000000000000e+00" cType="1" res="9.4531960785388947e-03" rms="4.0125957131385803e-01" purity="3.5186269879341125e-01" nType="-99"/>
        </Node>
        <Node pos="r" depth="1" NCoef="0" IVar="8" Cut="-3.2181978225708008e-01" cType="1" res="-3.9429543539881706e-03" rms="3.4163433313369751e-01" purity="5.2063244581222534e-01" nType="0">
          <Node pos="l" depth="2" NCoef="0" IVar="-1" Cut="0.0000000000000000e+00" cType="1" res="-2.0934501662850380e-03" rms="3.5839855670928955e-01" purity="5.1520091295242310e-01" nType="-99"/>
          <Node pos="r" depth="2" NCoef="0" IVar="-1" Cut="0.0000000000000000e+00" cType="1" res="-7.0888095069676638e-04" rms="3.3672189712524414e-01" purity="5.2216500043869019e-01" nType="-99"/>
        </Node>
      </Node>
    </BinaryTree>
    <BinaryTree type="DecisionTree" boostWeight="1.0000000000000000e+00" itree="837">
      <Node pos="s" depth="0" NCoef="0" IVar="0" Cut="8.0384025573730469e+00" cType="1" res="6.0695136198773980e-04" rms="3.4637159109115601e-01" purity="4.9932849407196045e-01" nType="0">
        <Node pos="l" depth="1" NCoef="0" IVar="4" Cut="9.8150052130222321e-02" cType="1" res="-1.2618009001016617e-02" rms="4.3416640162467957e-01" purity="3.4989368915557861e-01" nType="0">
          <Node pos="l" depth="2" NCoef="0" IVar="-1" Cut="0.0000000000000000e+00" cType="1" res="-9.9984370172023773e-04" rms="4.3413716554641724e-01" purity="3.6390003561973572e-01" nType="-99"/>
          <Node pos="r" depth="2" NCoef="0" IVar="-1" Cut="0.0000000000000000e+00" cType="1" res="-6.6880397498607635e-03" rms="4.3343716859817505e-01" purity="3.0765557289123535e-01" nType="-99"/>
        </Node>
        <Node pos="r" depth="1" NCoef="0" IVar="4" Cut="-1.9290417432785034e+00" cType="1" res="2.2836585994809866e-03" rms="3.3355683088302612e-01" purity="5.1827436685562134e-01" nType="0">
          <Node pos="l" depth="2" NCoef="0" IVar="-1" Cut="0.0000000000000000e+00" cType="1" res="5.3220782428979874e-03" rms="3.0198171734809875e-01" purity="6.2811636924743652e-01" nType="-99"/>
          <Node pos="r" depth="2" NCoef="0" IVar="-1" Cut="0.0000000000000000e+00" cType="1" res="2.1606466907542199e-04" rms="3.3796191215515137e-01" purity="5.0197398662567139e-01" nType="-99"/>
        </Node>
      </Node>
    </BinaryTree>
    <BinaryTree type="DecisionTree" boostWeight="1.0000000000000000e+00" itree="838">
      <Node pos="s" depth="0" NCoef="0" IVar="5" Cut="8.6408576965332031e+00" cType="1" res="-1.2200290802866220e-03" rms="3.4799921512603760e-01" purity="4.9700415134429932e-01" nType="0">
        <Node pos="l" depth="1" NCoef="0" IVar="2" Cut="8.5914773941040039e+00" cType="1" res="-8.9953617134597152e-05" rms="3.4612756967544556e-01" purity="5.0000590085983276e-01" nType="0">
          <Node pos="l" depth="2" NCoef="0" IVar="-1" Cut="0.0000000000000000e+00" cType="1" res="1.5286752022802830e-03" rms="3.5781845450401306e-01" purity="4.7936224937438965e-01" nType="-99"/>
          <Node pos="r" depth="2" NCoef="0" IVar="-1" Cut="0.0000000000000000e+00" cType="1" res="-6.3625036273151636e-04" rms="3.4341862797737122e-01" purity="5.0464844703674316e-01" nType="-99"/>
        </Node>
        <Node pos="r" depth="1" NCoef="0" IVar="-1" Cut="0.0000000000000000e+00" cType="1" res="-7.6838154345750809e-03" rms="4.0086400508880615e-01" purity="4.0251675248146057e-01" nType="-99"/>
      </Node>
    </BinaryTree>
    <BinaryTree type="DecisionTree" boostWeight="1.0000000000000000e+00" itree="839">
      <Node pos="s" depth="0" NCoef="0" IVar="0" Cut="8.0390701293945312e+00" cType="1" res="1.1267042282270268e-04" rms="3.4901461005210876e-01" purity="5.0110173225402832e-01" nType="0">
        <Node pos="l" depth="1" NCoef="0" IVar="10" Cut="2.0000000000000000e+00" cType="1" res="6.9004246033728123e-03" rms="2.3949094116687775e-01" purity="3.8237240910530090e-01" nType="0">
          <Node pos="l" depth="2" NCoef="0" IVar="-1" Cut="0.0000000000000000e+00" cType="1" res="8.4056424384471029e-05" rms="4.5030775666236877e-01" purity="4.2479318380355835e-01" nType="-99"/>
          <Node pos="r" depth="2" NCoef="0" IVar="-1" Cut="0.0000000000000000e+00" cType="1" res="7.0734084583818913e-03" rms="4.4451001286506653e-01" purity="3.4478849172592163e-01" nType="-99"/>
        </Node>
        <Node pos="r" depth="1" NCoef="0" IVar="9" Cut="3.6931471824645996e+00" cType="1" res="-9.2010310618206859e-04" rms="2.2433401644229889e-01" purity="5.1604312658309937e-01" nType="0">
          <Node pos="l" depth="2" NCoef="0" IVar="-1" Cut="0.0000000000000000e+00" cType="1" res="-4.3590401764959097e-04" rms="3.2518014311790466e-01" purity="5.5837321281433105e-01" nType="-99"/>
          <Node pos="r" depth="2" NCoef="0" IVar="-1" Cut="0.0000000000000000e+00" cType="1" res="-1.3843211345374584e-03" rms="3.5343149304389954e-01" purity="4.2642384767532349e-01" nType="-99"/>
        </Node>
      </Node>
    </BinaryTree>
    <BinaryTree type="DecisionTree" boostWeight="1.0000000000000000e+00" itree="840">
      <Node pos="s" depth="0" NCoef="0" IVar="2" Cut="8.3761529922485352e+00" cType="1" res="-3.2347510568797588e-04" rms="3.4970682859420776e-01" purity="4.9820733070373535e-01" nType="0">
        <Node pos="l" depth="1" NCoef="0" IVar="0" Cut="9.0842027664184570e+00" cType="1" res="1.6612846404314041e-02" rms="3.6644935607910156e-01" purity="4.8657745122909546e-01" nType="0">
          <Node pos="l" depth="2" NCoef="0" IVar="-1" Cut="0.0000000000000000e+00" cType="1" res="6.3627217896282673e-03" rms="3.9360067248344421e-01" purity="4.3984580039978027e-01" nType="-99"/>
          <Node pos="r" depth="2" NCoef="0" IVar="-1" Cut="0.0000000000000000e+00" cType="1" res="-6.3826976111158729e-04" rms="3.3587083220481873e-01" purity="5.3349786996841431e-01" nType="-99"/>
        </Node>
        <Node pos="r" depth="1" NCoef="0" IVar="7" Cut="1.5823364257812500e-01" cType="1" res="-2.2110543213784695e-03" rms="3.4773984551429749e-01" purity="4.9950346350669861e-01" nType="0">
          <Node pos="l" depth="2" NCoef="0" IVar="-1" Cut="0.0000000000000000e+00" cType="1" res="-1.9802383612841368e-03" rms="3.4927621483802795e-01" purity="5.1638585329055786e-01" nType="-99"/>
          <Node pos="r" depth="2" NCoef="0" IVar="-1" Cut="0.0000000000000000e+00" cType="1" res="8.0308836186304688e-04" rms="3.4593227505683899e-01" purity="4.8037621378898621e-01" nType="-99"/>
        </Node>
      </Node>
    </BinaryTree>
    <BinaryTree type="DecisionTree" boostWeight="1.0000000000000000e+00" itree="841">
      <Node pos="s" depth="0" NCoef="0" IVar="10" Cut="4.0000000000000000e+00" cType="1" res="2.0246303174644709e-03" rms="2.6569339632987976e-01" purity="5.0470095872879028e-01" nType="0">
        <Node pos="l" depth="1" NCoef="0" IVar="7" Cut="2.7389663457870483e-01" cType="1" res="2.2131938021630049e-03" rms="3.4543403983116150e-01" purity="5.0786149501800537e-01" nType="0">
          <Node pos="l" depth="2" NCoef="0" IVar="-1" Cut="0.0000000000000000e+00" cType="1" res="1.8467076588422060e-03" rms="3.4504872560501099e-01" purity="5.3039854764938354e-01" nType="-99"/>
          <Node pos="r" depth="2" NCoef="0" IVar="-1" Cut="0.0000000000000000e+00" cType="1" res="-1.2007105397060513e-03" rms="3.4593519568443298e-01" purity="4.7325453162193298e-01" nType="-99"/>
        </Node>
        <Node pos="r" depth="1" NCoef="0" IVar="-1" Cut="0.0000000000000000e+00" cType="1" res="1.1113661341369152e-02" rms="3.5621300339698792e-01" purity="4.0321660041809082e-01" nType="-99"/>
      </Node>
    </BinaryTree>
    <BinaryTree type="DecisionTree" boostWeight="1.0000000000000000e+00" itree="842">
      <Node pos="s" depth="0" NCoef="0" IVar="2" Cut="8.1608285903930664e+00" cType="1" res="1.7862049862742424e-03" rms="3.4847554564476013e-01" purity="4.9880018830299377e-01" nType="0">
        <Node pos="l" depth="1" NCoef="0" IVar="-1" Cut="0.0000000000000000e+00" cType="1" res="4.0999595075845718e-03" rms="3.6809185147285461e-01" purity="4.6331748366355896e-01" nType="-99"/>
        <Node pos="r" depth="1" NCoef="0" IVar="4" Cut="-1.1042063236236572e+00" cType="1" res="6.3492328627035022e-04" rms="3.4736075997352600e-01" purity="5.0069218873977661e-01" nType="0">
          <Node pos="l" depth="2" NCoef="0" IVar="-1" Cut="0.0000000000000000e+00" cType="1" res="-1.8640318885445595e-03" rms="3.1998318433761597e-01" purity="5.7718801498413086e-01" nType="-99"/>
          <Node pos="r" depth="2" NCoef="0" IVar="-1" Cut="0.0000000000000000e+00" cType="1" res="8.3593098679557443e-04" rms="3.5783588886260986e-01" purity="4.6968999505043030e-01" nType="-99"/>
        </Node>
      </Node>
    </BinaryTree>
    <BinaryTree type="DecisionTree" boostWeight="1.0000000000000000e+00" itree="843">
      <Node pos="s" depth="0" NCoef="0" IVar="2" Cut="9.4527740478515625e+00" cType="1" res="1.4947573072277009e-04" rms="3.4998258948326111e-01" purity="5.0091385841369629e-01" nType="0">
        <Node pos="l" depth="1" NCoef="0" IVar="3" Cut="-1.3069908618927002e+00" cType="1" res="-2.3178362753242254e-03" rms="3.5282492637634277e-01" purity="4.9471336603164673e-01" nType="0">
          <Node pos="l" depth="2" NCoef="0" IVar="-1" Cut="0.0000000000000000e+00" cType="1" res="-6.5860259346663952e-03" rms="3.1474637985229492e-01" purity="6.8254750967025757e-01" nType="-99"/>
          <Node pos="r" depth="2" NCoef="0" IVar="-1" Cut="0.0000000000000000e+00" cType="1" res="-1.8330925740883686e-05" rms="3.5800457000732422e-01" purity="4.6721532940864563e-01" nType="-99"/>
        </Node>
        <Node pos="r" depth="1" NCoef="0" IVar="5" Cut="7.5161714553833008e+00" cType="1" res="9.1836573556065559e-03" rms="3.3921909332275391e-01" purity="5.2361738681793213e-01" nType="0">
          <Node pos="l" depth="2" NCoef="0" IVar="-1" Cut="0.0000000000000000e+00" cType="1" res="7.4869277887046337e-03" rms="3.3283513784408569e-01" purity="5.5469965934753418e-01" nType="-99"/>
          <Node pos="r" depth="2" NCoef="0" IVar="-1" Cut="0.0000000000000000e+00" cType="1" res="-1.6528315609320998e-03" rms="3.5755419731140137e-01" purity="4.2921346426010132e-01" nType="-99"/>
        </Node>
      </Node>
    </BinaryTree>
    <BinaryTree type="DecisionTree" boostWeight="1.0000000000000000e+00" itree="844">
      <Node pos="s" depth="0" NCoef="0" IVar="1" Cut="5.8665246963500977e+00" cType="1" res="1.5333984047174454e-03" rms="3.4819263219833374e-01" purity="5.0091862678527832e-01" nType="0">
        <Node pos="l" depth="1" NCoef="0" IVar="6" Cut="-6.7612725496292114e-01" cType="1" res="1.2200939469039440e-02" rms="3.9374572038650513e-01" purity="3.4485498070716858e-01" nType="0">
          <Node pos="l" depth="2" NCoef="0" IVar="-1" Cut="0.0000000000000000e+00" cType="1" res="3.8877187762409449e-03" rms="3.9627695083618164e-01" purity="3.6446836590766907e-01" nType="-99"/>
          <Node pos="r" depth="2" NCoef="0" IVar="-1" Cut="0.0000000000000000e+00" cType="1" res="-4.8190001398324966e-03" rms="3.7276354432106018e-01" purity="1.9794154167175293e-01" nType="-99"/>
        </Node>
        <Node pos="r" depth="1" NCoef="0" IVar="0" Cut="1.0885263442993164e+01" cType="1" res="-1.8662469228729606e-03" rms="3.3229401707649231e-01" purity="5.5065459012985229e-01" nType="0">
          <Node pos="l" depth="2" NCoef="0" IVar="-1" Cut="0.0000000000000000e+00" cType="1" res="-1.1524595320224762e-03" rms="3.2917505502700806e-01" purity="5.4805982112884521e-01" nType="-99"/>
          <Node pos="r" depth="2" NCoef="0" IVar="-1" Cut="0.0000000000000000e+00" cType="1" res="5.6306552141904831e-03" rms="3.8558512926101685e-01" purity="5.9990704059600830e-01" nType="-99"/>
        </Node>
      </Node>
    </BinaryTree>
    <BinaryTree type="DecisionTree" boostWeight="1.0000000000000000e+00" itree="845">
      <Node pos="s" depth="0" NCoef="0" IVar="7" Cut="1.7475750446319580e+00" cType="1" res="-3.3764550462365150e-03" rms="3.4827131032943726e-01" purity="4.9872329831123352e-01" nType="0">
        <Node pos="l" depth="1" NCoef="0" IVar="3" Cut="5.3166377544403076e-01" cType="1" res="-2.7764851693063974e-03" rms="3.4926286339759827e-01" purity="5.0717473030090332e-01" nType="0">
          <Node pos="l" depth="2" NCoef="0" IVar="-1" Cut="0.0000000000000000e+00" cType="1" res="2.5213425033143722e-05" rms="3.3676829934120178e-01" purity="5.9809488058090210e-01" nType="-99"/>
          <Node pos="r" depth="2" NCoef="0" IVar="-1" Cut="0.0000000000000000e+00" cType="1" res="-1.8744904082268476e-03" rms="3.6815610527992249e-01" purity="3.6304947733879089e-01" nType="-99"/>
        </Node>
        <Node pos="r" depth="1" NCoef="0" IVar="-1" Cut="0.0000000000000000e+00" cType="1" res="-9.1633619740605354e-03" rms="3.0936881899833679e-01" purity="1.9205190241336823e-01" nType="-99"/>
      </Node>
    </BinaryTree>
    <BinaryTree type="DecisionTree" boostWeight="1.0000000000000000e+00" itree="846">
      <Node pos="s" depth="0" NCoef="0" IVar="0" Cut="9.7882642745971680e+00" cType="1" res="1.4559881528839469e-03" rms="3.5017991065979004e-01" purity="4.9956989288330078e-01" nType="0">
        <Node pos="l" depth="1" NCoef="0" IVar="8" Cut="-2.2557888925075531e-01" cType="1" res="-8.5982901509851217e-04" rms="3.5584929585456848e-01" purity="4.7410488128662109e-01" nType="0">
          <Node pos="l" depth="2" NCoef="0" IVar="-1" Cut="0.0000000000000000e+00" cType="1" res="-2.3752062115818262e-03" rms="3.6922818422317505e-01" purity="4.6404826641082764e-01" nType="-99"/>
          <Node pos="r" depth="2" NCoef="0" IVar="-1" Cut="0.0000000000000000e+00" cType="1" res="1.4896127395331860e-03" rms="3.4885773062705994e-01" purity="4.7913798689842224e-01" nType="-99"/>
        </Node>
        <Node pos="r" depth="1" NCoef="0" IVar="11" Cut="6.1889475584030151e-01" cType="1" res="8.4896907210350037e-03" rms="3.3226928114891052e-01" purity="5.7691323757171631e-01" nType="0">
          <Node pos="l" depth="2" NCoef="0" IVar="-1" Cut="0.0000000000000000e+00" cType="1" res="4.5402492396533489e-03" rms="3.4869664907455444e-01" purity="3.1606620550155640e-01" nType="-99"/>
          <Node pos="r" depth="2" NCoef="0" IVar="-1" Cut="0.0000000000000000e+00" cType="1" res="-1.8563327612355351e-03" rms="3.1194990873336792e-01" purity="8.7460380792617798e-01" nType="-99"/>
        </Node>
      </Node>
    </BinaryTree>
    <BinaryTree type="DecisionTree" boostWeight="1.0000000000000000e+00" itree="847">
      <Node pos="s" depth="0" NCoef="0" IVar="1" Cut="6.0302743911743164e+00" cType="1" res="-1.1939454125240445e-03" rms="3.4895086288452148e-01" purity="5.0054341554641724e-01" nType="0">
        <Node pos="l" depth="1" NCoef="0" IVar="0" Cut="8.5235109329223633e+00" cType="1" res="-9.8110577091574669e-03" rms="3.8681042194366455e-01" purity="3.4690460562705994e-01" nType="0">
          <Node pos="l" depth="2" NCoef="0" IVar="-1" Cut="0.0000000000000000e+00" cType="1" res="1.4368318079505116e-04" rms="4.0665769577026367e-01" purity="3.4204176068305969e-01" nType="-99"/>
          <Node pos="r" depth="2" NCoef="0" IVar="-1" Cut="0.0000000000000000e+00" cType="1" res="-5.6727649644017220e-03" rms="3.6614555120468140e-01" purity="3.5164439678192139e-01" nType="-99"/>
        </Node>
        <Node pos="r" depth="1" NCoef="0" IVar="7" Cut="1.1918739080429077e+00" cType="1" res="2.7681128121912479e-03" rms="3.3001384139060974e-01" purity="5.7118493318557739e-01" nType="0">
          <Node pos="l" depth="2" NCoef="0" IVar="-1" Cut="0.0000000000000000e+00" cType="1" res="3.8405260420404375e-04" rms="3.2965505123138428e-01" purity="5.8342754840850830e-01" nType="-99"/>
          <Node pos="r" depth="2" NCoef="0" IVar="-1" Cut="0.0000000000000000e+00" cType="1" res="8.8067697361111641e-03" rms="3.3477547764778137e-01" purity="3.7125638127326965e-01" nType="-99"/>
        </Node>
      </Node>
    </BinaryTree>
    <BinaryTree type="DecisionTree" boostWeight="1.0000000000000000e+00" itree="848">
      <Node pos="s" depth="0" NCoef="0" IVar="11" Cut="2.3804724216461182e-01" cType="1" res="2.0123359281569719e-03" rms="3.4534952044487000e-01" purity="5.0117182731628418e-01" nType="0">
        <Node pos="l" depth="1" NCoef="0" IVar="11" Cut="9.0610615909099579e-02" cType="1" res="-2.6089095044881105e-03" rms="3.4666508436203003e-01" purity="2.1817782521247864e-01" nType="0">
          <Node pos="l" depth="2" NCoef="0" IVar="-1" Cut="0.0000000000000000e+00" cType="1" res="1.1529272887855768e-03" rms="2.9732260107994080e-01" purity="1.3254512846469879e-01" nType="-99"/>
          <Node pos="r" depth="2" NCoef="0" IVar="-1" Cut="0.0000000000000000e+00" cType="1" res="-2.9126175213605165e-03" rms="4.6357086300849915e-01" purity="4.7441253066062927e-01" nType="-99"/>
        </Node>
        <Node pos="r" depth="1" NCoef="0" IVar="6" Cut="-2.0665061473846436e+00" cType="1" res="7.4241114780306816e-03" rms="3.4372353553771973e-01" purity="8.3257597684860229e-01" nType="0">
          <Node pos="l" depth="2" NCoef="0" IVar="-1" Cut="0.0000000000000000e+00" cType="1" res="3.6253926809877157e-03" rms="3.3123174309730530e-01" purity="8.5056400299072266e-01" nType="-99"/>
          <Node pos="r" depth="2" NCoef="0" IVar="-1" Cut="0.0000000000000000e+00" cType="1" res="-3.5018557682633400e-03" rms="4.1477373242378235e-01" purity="7.1645122766494751e-01" nType="-99"/>
        </Node>
      </Node>
    </BinaryTree>
    <BinaryTree type="DecisionTree" boostWeight="1.0000000000000000e+00" itree="849">
      <Node pos="s" depth="0" NCoef="0" IVar="0" Cut="1.0885105133056641e+01" cType="1" res="3.1575898174196482e-03" rms="3.4779208898544312e-01" purity="5.0428318977355957e-01" nType="0">
        <Node pos="l" depth="1" NCoef="0" IVar="13" Cut="6.6657304763793945e-01" cType="1" res="2.1929692011326551e-03" rms="3.4613239765167236e-01" purity="5.0013899803161621e-01" nType="0">
          <Node pos="l" depth="2" NCoef="0" IVar="-1" Cut="0.0000000000000000e+00" cType="1" res="1.1383425444364548e-03" rms="3.4574651718139648e-01" purity="4.5681428909301758e-01" nType="-99"/>
          <Node pos="r" depth="2" NCoef="0" IVar="-1" Cut="0.0000000000000000e+00" cType="1" res="-3.7351245991885662e-03" rms="3.4840393066406250e-01" purity="7.7980512380599976e-01" nType="-99"/>
        </Node>
        <Node pos="r" depth="1" NCoef="0" IVar="-1" Cut="0.0000000000000000e+00" cType="1" res="5.6990869343280792e-03" rms="3.8896474242210388e-01" purity="6.1595410108566284e-01" nType="-99"/>
      </Node>
    </BinaryTree>
    <BinaryTree type="DecisionTree" boostWeight="1.0000000000000000e+00" itree="850">
      <Node pos="s" depth="0" NCoef="0" IVar="13" Cut="4.7613408416509628e-02" cType="1" res="-5.2906828932464123e-04" rms="3.4702554345130920e-01" purity="4.9824070930480957e-01" nType="0">
        <Node pos="l" depth="1" NCoef="0" IVar="2" Cut="8.6788187026977539e+00" cType="1" res="-7.1787103079259396e-03" rms="2.9565584659576416e-01" purity="2.5154492259025574e-01" nType="0">
          <Node pos="l" depth="2" NCoef="0" IVar="-1" Cut="0.0000000000000000e+00" cType="1" res="-4.9684671685099602e-03" rms="3.0365061759948730e-01" purity="2.0782610774040222e-01" nType="-99"/>
          <Node pos="r" depth="2" NCoef="0" IVar="-1" Cut="0.0000000000000000e+00" cType="1" res="-1.6336899716407061e-03" rms="2.9317864775657654e-01" purity="2.6435264945030212e-01" nType="-99"/>
        </Node>
        <Node pos="r" depth="1" NCoef="0" IVar="3" Cut="-8.2106351852416992e-02" cType="1" res="5.3404057398438454e-03" rms="3.8664481043815613e-01" purity="7.1599292755126953e-01" nType="0">
          <Node pos="l" depth="2" NCoef="0" IVar="-1" Cut="0.0000000000000000e+00" cType="1" res="-1.4290882973000407e-03" rms="3.2940417528152466e-01" purity="8.2691943645477295e-01" nType="-99"/>
          <Node pos="r" depth="2" NCoef="0" IVar="-1" Cut="0.0000000000000000e+00" cType="1" res="2.5291577912867069e-03" rms="4.2596033215522766e-01" purity="6.2920719385147095e-01" nType="-99"/>
        </Node>
      </Node>
    </BinaryTree>
    <BinaryTree type="DecisionTree" boostWeight="1.0000000000000000e+00" itree="851">
      <Node pos="s" depth="0" NCoef="0" IVar="1" Cut="6.0406403541564941e+00" cType="1" res="6.1025487957522273e-04" rms="3.4957137703895569e-01" purity="4.9745586514472961e-01" nType="0">
        <Node pos="l" depth="1" NCoef="0" IVar="8" Cut="-4.2559766769409180e-01" cType="1" res="6.5423189662396908e-03" rms="3.8794362545013428e-01" purity="3.6015790700912476e-01" nType="0">
          <Node pos="l" depth="2" NCoef="0" IVar="-1" Cut="0.0000000000000000e+00" cType="1" res="2.9729348607361317e-03" rms="4.1736111044883728e-01" purity="4.2293563485145569e-01" nType="-99"/>
          <Node pos="r" depth="2" NCoef="0" IVar="-1" Cut="0.0000000000000000e+00" cType="1" res="9.7770441789180040e-04" rms="3.8097375631332397e-01" purity="3.4611403942108154e-01" nType="-99"/>
        </Node>
        <Node pos="r" depth="1" NCoef="0" IVar="8" Cut="3.2048782706260681e-01" cType="1" res="-2.1756612695753574e-03" rms="3.2997739315032959e-01" purity="5.6193608045578003e-01" nType="0">
          <Node pos="l" depth="2" NCoef="0" IVar="-1" Cut="0.0000000000000000e+00" cType="1" res="-1.4807503903284669e-03" rms="3.2790008187294006e-01" purity="5.6511861085891724e-01" nType="-99"/>
          <Node pos="r" depth="2" NCoef="0" IVar="-1" Cut="0.0000000000000000e+00" cType="1" res="4.8679322935640812e-03" rms="3.4289133548736572e-01" purity="5.4100769758224487e-01" nType="-99"/>
        </Node>
      </Node>
    </BinaryTree>
    <BinaryTree type="DecisionTree" boostWeight="1.0000000000000000e+00" itree="852">
      <Node pos="s" depth="0" NCoef="0" IVar="8" Cut="-5.3910726308822632e-01" cType="1" res="9.4714883016422391e-04" rms="3.4754970669746399e-01" purity="5.0141596794128418e-01" nType="0">
        <Node pos="l" depth="1" NCoef="0" IVar="10" Cut="2.0000000000000000e+00" cType="1" res="-1.0861081071197987e-02" rms="3.1426146626472473e-01" purity="5.0560772418975830e-01" nType="0">
          <Node pos="l" depth="2" NCoef="0" IVar="-1" Cut="0.0000000000000000e+00" cType="1" res="-3.0766191775910556e-04" rms="3.8238388299942017e-01" purity="5.5821770429611206e-01" nType="-99"/>
          <Node pos="r" depth="2" NCoef="0" IVar="-1" Cut="0.0000000000000000e+00" cType="1" res="-3.7263357080519199e-03" rms="3.9655336737632751e-01" purity="4.4739550352096558e-01" nType="-99"/>
        </Node>
        <Node pos="r" depth="1" NCoef="0" IVar="0" Cut="7.8196702003479004e+00" cType="1" res="2.8586201369762421e-03" rms="3.4227043390274048e-01" purity="5.0092595815658569e-01" nType="0">
          <Node pos="l" depth="2" NCoef="0" IVar="-1" Cut="0.0000000000000000e+00" cType="1" res="5.6731286458671093e-03" rms="4.5286625623703003e-01" purity="3.5779985785484314e-01" nType="-99"/>
          <Node pos="r" depth="2" NCoef="0" IVar="-1" Cut="0.0000000000000000e+00" cType="1" res="6.6654541296884418e-04" rms="3.3650973439216614e-01" purity="5.0724679231643677e-01" nType="-99"/>
        </Node>
      </Node>
    </BinaryTree>
    <BinaryTree type="DecisionTree" boostWeight="1.0000000000000000e+00" itree="853">
      <Node pos="s" depth="0" NCoef="0" IVar="5" Cut="8.3685550689697266e+00" cType="1" res="-2.4988653603941202e-03" rms="3.4629422426223755e-01" purity="4.9643242359161377e-01" nType="0">
        <Node pos="l" depth="1" NCoef="0" IVar="9" Cut="3.6931471824645996e+00" cType="1" res="-1.0249187471345067e-03" rms="2.3269568383693695e-01" purity="5.0029116868972778e-01" nType="0">
          <Node pos="l" depth="2" NCoef="0" IVar="-1" Cut="0.0000000000000000e+00" cType="1" res="-3.8015272002667189e-04" rms="3.3596658706665039e-01" purity="5.3744089603424072e-01" nType="-99"/>
          <Node pos="r" depth="2" NCoef="0" IVar="-1" Cut="0.0000000000000000e+00" cType="1" res="-1.7225100600626320e-04" rms="3.6105319857597351e-01" purity="4.2085784673690796e-01" nType="-99"/>
        </Node>
        <Node pos="r" depth="1" NCoef="0" IVar="-1" Cut="0.0000000000000000e+00" cType="1" res="-6.5421806648373604e-03" rms="3.8329225778579712e-01" purity="4.2378783226013184e-01" nType="-99"/>
      </Node>
    </BinaryTree>
    <BinaryTree type="DecisionTree" boostWeight="1.0000000000000000e+00" itree="854">
      <Node pos="s" depth="0" NCoef="0" IVar="7" Cut="-2.6375192403793335e-01" cType="1" res="-1.4384540263563395e-03" rms="3.4969723224639893e-01" purity="4.9972918629646301e-01" nType="0">
        <Node pos="l" depth="1" NCoef="0" IVar="13" Cut="3.3328154683113098e-01" cType="1" res="6.8122004158794880e-03" rms="3.5167267918586731e-01" purity="5.2365994453430176e-01" nType="0">
          <Node pos="l" depth="2" NCoef="0" IVar="-1" Cut="0.0000000000000000e+00" cType="1" res="3.1075445003807545e-03" rms="3.5224384069442749e-01" purity="4.3991640210151672e-01" nType="-99"/>
          <Node pos="r" depth="2" NCoef="0" IVar="-1" Cut="0.0000000000000000e+00" cType="1" res="-3.5817027091979980e-03" rms="3.4931692481040955e-01" purity="7.9601150751113892e-01" nType="-99"/>
        </Node>
        <Node pos="r" depth="1" NCoef="0" IVar="1" Cut="7.6032190322875977e+00" cType="1" res="-4.9716727808117867e-03" rms="3.4878814220428467e-01" purity="4.8948121070861816e-01" nType="0">
          <Node pos="l" depth="2" NCoef="0" IVar="-1" Cut="0.0000000000000000e+00" cType="1" res="-1.0633304482325912e-03" rms="3.5004898905754089e-01" purity="4.8157769441604614e-01" nType="-99"/>
          <Node pos="r" depth="2" NCoef="0" IVar="-1" Cut="0.0000000000000000e+00" cType="1" res="-8.0235926434397697e-03" rms="3.2981860637664795e-01" purity="6.0082280635833740e-01" nType="-99"/>
        </Node>
      </Node>
    </BinaryTree>
    <BinaryTree type="DecisionTree" boostWeight="1.0000000000000000e+00" itree="855">
      <Node pos="s" depth="0" NCoef="0" IVar="2" Cut="9.0205488204956055e+00" cType="1" res="-5.5830267956480384e-04" rms="3.5117372870445251e-01" purity="5.0110882520675659e-01" nType="0">
        <Node pos="l" depth="1" NCoef="0" IVar="11" Cut="2.8565326333045959e-01" cType="1" res="4.6097151935100555e-03" rms="3.6057156324386597e-01" purity="4.9397879838943481e-01" nType="0">
          <Node pos="l" depth="2" NCoef="0" IVar="-1" Cut="0.0000000000000000e+00" cType="1" res="2.5119562633335590e-03" rms="3.6017143726348877e-01" purity="2.4044564366340637e-01" nType="-99"/>
          <Node pos="r" depth="2" NCoef="0" IVar="-1" Cut="0.0000000000000000e+00" cType="1" res="-1.1034669587388635e-03" rms="3.6088064312934875e-01" purity="8.1943118572235107e-01" nType="-99"/>
        </Node>
        <Node pos="r" depth="1" NCoef="0" IVar="2" Cut="9.1332759857177734e+00" cType="1" res="-5.0160125829279423e-03" rms="3.4279814362525940e-01" purity="5.0725895166397095e-01" nType="0">
          <Node pos="l" depth="2" NCoef="0" IVar="-1" Cut="0.0000000000000000e+00" cType="1" res="-6.7411614581942558e-03" rms="3.5605818033218384e-01" purity="4.8809254169464111e-01" nType="-99"/>
          <Node pos="r" depth="2" NCoef="0" IVar="-1" Cut="0.0000000000000000e+00" cType="1" res="-7.8306964132934809e-04" rms="3.4004965424537659e-01" purity="5.1101678609848022e-01" nType="-99"/>
        </Node>
      </Node>
    </BinaryTree>
    <BinaryTree type="DecisionTree" boostWeight="1.0000000000000000e+00" itree="856">
      <Node pos="s" depth="0" NCoef="0" IVar="2" Cut="8.9639310836791992e+00" cType="1" res="-1.1458736116765067e-04" rms="3.5108345746994019e-01" purity="5.0256836414337158e-01" nType="0">
        <Node pos="l" depth="1" NCoef="0" IVar="0" Cut="8.0296716690063477e+00" cType="1" res="5.4753101430833340e-03" rms="3.5928726196289062e-01" purity="4.8778569698333740e-01" nType="0">
          <Node pos="l" depth="2" NCoef="0" IVar="-1" Cut="0.0000000000000000e+00" cType="1" res="5.5049723014235497e-03" rms="4.5628589391708374e-01" purity="3.7281414866447449e-01" nType="-99"/>
          <Node pos="r" depth="2" NCoef="0" IVar="-1" Cut="0.0000000000000000e+00" cType="1" res="3.5091934842057526e-04" rms="3.4467929601669312e-01" purity="5.0252676010131836e-01" nType="-99"/>
        </Node>
        <Node pos="r" depth="1" NCoef="0" IVar="5" Cut="8.0898418426513672e+00" cType="1" res="-4.1140890680253506e-03" rms="3.4503850340843201e-01" purity="5.1314520835876465e-01" nType="0">
          <Node pos="l" depth="2" NCoef="0" IVar="-1" Cut="0.0000000000000000e+00" cType="1" res="-2.3501950781792402e-03" rms="3.4233528375625610e-01" purity="5.1984697580337524e-01" nType="-99"/>
          <Node pos="r" depth="2" NCoef="0" IVar="-1" Cut="0.0000000000000000e+00" cType="1" res="2.7223308570683002e-03" rms="3.6847522854804993e-01" purity="4.5195227861404419e-01" nType="-99"/>
        </Node>
      </Node>
    </BinaryTree>
    <BinaryTree type="DecisionTree" boostWeight="1.0000000000000000e+00" itree="857">
      <Node pos="s" depth="0" NCoef="0" IVar="9" Cut="3.6931471824645996e+00" cType="1" res="1.1414313921704888e-03" rms="2.2774578630924225e-01" purity="5.0304633378982544e-01" nType="0">
        <Node pos="l" depth="1" NCoef="0" IVar="13" Cut="9.5229156315326691e-02" cType="1" res="2.3057812359184027e-03" rms="3.4073626995086670e-01" purity="5.4362362623214722e-01" nType="0">
          <Node pos="l" depth="2" NCoef="0" IVar="-1" Cut="0.0000000000000000e+00" cType="1" res="-5.0160696264356375e-04" rms="3.2987695932388306e-01" purity="3.5407111048698425e-01" nType="-99"/>
          <Node pos="r" depth="2" NCoef="0" IVar="-1" Cut="0.0000000000000000e+00" cType="1" res="2.0743729546666145e-03" rms="3.5473415255546570e-01" purity="7.9844743013381958e-01" nType="-99"/>
        </Node>
        <Node pos="r" depth="1" NCoef="0" IVar="13" Cut="2.3805908858776093e-01" cType="1" res="2.8346665203571320e-04" rms="3.6997187137603760e-01" purity="4.1590762138366699e-01" nType="0">
          <Node pos="l" depth="2" NCoef="0" IVar="-1" Cut="0.0000000000000000e+00" cType="1" res="2.2175500635057688e-03" rms="3.5723820328712463e-01" purity="3.1942284107208252e-01" nType="-99"/>
          <Node pos="r" depth="2" NCoef="0" IVar="-1" Cut="0.0000000000000000e+00" cType="1" res="-5.8754328638315201e-03" rms="4.0561211109161377e-01" purity="7.0735871791839600e-01" nType="-99"/>
        </Node>
      </Node>
    </BinaryTree>
    <BinaryTree type="DecisionTree" boostWeight="1.0000000000000000e+00" itree="858">
      <Node pos="s" depth="0" NCoef="0" IVar="0" Cut="1.0885105133056641e+01" cType="1" res="3.1208947766572237e-03" rms="3.5044443607330322e-01" purity="5.0729757547378540e-01" nType="0">
        <Node pos="l" depth="1" NCoef="0" IVar="8" Cut="-5.3513187170028687e-01" cType="1" res="2.2289839107543230e-03" rms="3.4800127148628235e-01" purity="5.0416064262390137e-01" nType="0">
          <Node pos="l" depth="2" NCoef="0" IVar="-1" Cut="0.0000000000000000e+00" cType="1" res="-1.4241561293601990e-03" rms="3.8669148087501526e-01" purity="5.0779002904891968e-01" nType="-99"/>
          <Node pos="r" depth="2" NCoef="0" IVar="-1" Cut="0.0000000000000000e+00" cType="1" res="1.4065670548006892e-03" rms="3.4285324811935425e-01" purity="5.0370967388153076e-01" nType="-99"/>
        </Node>
        <Node pos="r" depth="1" NCoef="0" IVar="-1" Cut="0.0000000000000000e+00" cType="1" res="4.9801091663539410e-03" rms="4.0873059630393982e-01" purity="5.8968961238861084e-01" nType="-99"/>
      </Node>
    </BinaryTree>
    <BinaryTree type="DecisionTree" boostWeight="1.0000000000000000e+00" itree="859">
      <Node pos="s" depth="0" NCoef="0" IVar="5" Cut="5.0849614143371582e+00" cType="1" res="-2.5220415554940701e-03" rms="3.5157638788223267e-01" purity="4.9512454867362976e-01" nType="0">
        <Node pos="l" depth="1" NCoef="0" IVar="-1" Cut="0.0000000000000000e+00" cType="1" res="-8.0723389983177185e-03" rms="3.5653609037399292e-01" purity="5.2154743671417236e-01" nType="-99"/>
        <Node pos="r" depth="1" NCoef="0" IVar="7" Cut="-1.3104014396667480e+00" cType="1" res="-1.2372337514534593e-03" rms="3.5128244757652283e-01" purity="4.9383753538131714e-01" nType="0">
          <Node pos="l" depth="2" NCoef="0" IVar="-1" Cut="0.0000000000000000e+00" cType="1" res="6.5873642452061176e-03" rms="3.4344926476478577e-01" purity="5.1873672008514404e-01" nType="-99"/>
          <Node pos="r" depth="2" NCoef="0" IVar="-1" Cut="0.0000000000000000e+00" cType="1" res="-7.1773427771404386e-04" rms="3.5162580013275146e-01" purity="4.9259802699089050e-01" nType="-99"/>
        </Node>
      </Node>
    </BinaryTree>
    <BinaryTree type="DecisionTree" boostWeight="1.0000000000000000e+00" itree="860">
      <Node pos="s" depth="0" NCoef="0" IVar="8" Cut="-5.3513187170028687e-01" cType="1" res="-2.1815469954162836e-03" rms="3.4783008694648743e-01" purity="4.9840423464775085e-01" nType="0">
        <Node pos="l" depth="1" NCoef="0" IVar="0" Cut="8.4664678573608398e+00" cType="1" res="1.1496348306536674e-02" rms="3.8852521777153015e-01" purity="5.3314852714538574e-01" nType="0">
          <Node pos="l" depth="2" NCoef="0" IVar="-1" Cut="0.0000000000000000e+00" cType="1" res="-1.4676625141873956e-03" rms="4.2843416333198547e-01" purity="4.4917941093444824e-01" nType="-99"/>
          <Node pos="r" depth="2" NCoef="0" IVar="-1" Cut="0.0000000000000000e+00" cType="1" res="2.8903603088110685e-03" rms="3.6046519875526428e-01" purity="5.8605068922042847e-01" nType="-99"/>
        </Node>
        <Node pos="r" depth="1" NCoef="0" IVar="0" Cut="7.8202247619628906e+00" cType="1" res="-3.7562032230198383e-03" rms="3.4280014038085938e-01" purity="4.9440437555313110e-01" nType="0">
          <Node pos="l" depth="2" NCoef="0" IVar="-1" Cut="0.0000000000000000e+00" cType="1" res="-5.4024844430387020e-03" rms="4.3507742881774902e-01" purity="2.9912438988685608e-01" nType="-99"/>
          <Node pos="r" depth="2" NCoef="0" IVar="-1" Cut="0.0000000000000000e+00" cType="1" res="-1.0078251361846924e-03" rms="3.3784458041191101e-01" purity="5.0351482629776001e-01" nType="-99"/>
        </Node>
      </Node>
    </BinaryTree>
    <BinaryTree type="DecisionTree" boostWeight="1.0000000000000000e+00" itree="861">
      <Node pos="s" depth="0" NCoef="0" IVar="13" Cut="5.7136732339859009e-01" cType="1" res="2.5966827524825931e-04" rms="3.4840956330299377e-01" purity="5.0190287828445435e-01" nType="0">
        <Node pos="l" depth="1" NCoef="0" IVar="13" Cut="3.5368368029594421e-01" cType="1" res="-1.5559424646198750e-03" rms="3.5062941908836365e-01" purity="4.4271615147590637e-01" nType="0">
          <Node pos="l" depth="2" NCoef="0" IVar="-1" Cut="0.0000000000000000e+00" cType="1" res="2.7058711111749290e-06" rms="3.4883823990821838e-01" purity="4.1355124115943909e-01" nType="-99"/>
          <Node pos="r" depth="2" NCoef="0" IVar="-1" Cut="0.0000000000000000e+00" cType="1" res="-6.4066280610859394e-03" rms="3.7056341767311096e-01" purity="7.8595042228698730e-01" nType="-99"/>
        </Node>
        <Node pos="r" depth="1" NCoef="0" IVar="11" Cut="7.6070147752761841e-01" cType="1" res="9.2837903648614883e-03" rms="3.3701434731483459e-01" purity="7.9607838392257690e-01" nType="0">
          <Node pos="l" depth="2" NCoef="0" IVar="-1" Cut="0.0000000000000000e+00" cType="1" res="-9.2823291197419167e-03" rms="3.5692703723907471e-01" purity="4.7732830047607422e-01" nType="-99"/>
          <Node pos="r" depth="2" NCoef="0" IVar="-1" Cut="0.0000000000000000e+00" cType="1" res="6.6362670622766018e-03" rms="3.3256697654724121e-01" purity="8.5735613107681274e-01" nType="-99"/>
        </Node>
      </Node>
    </BinaryTree>
    <BinaryTree type="DecisionTree" boostWeight="1.0000000000000000e+00" itree="862">
      <Node pos="s" depth="0" NCoef="0" IVar="9" Cut="3.6931471824645996e+00" cType="1" res="1.6889824764803052e-03" rms="2.2874531149864197e-01" purity="5.0078141689300537e-01" nType="0">
        <Node pos="l" depth="1" NCoef="0" IVar="4" Cut="-5.5306559801101685e-01" cType="1" res="3.7498376332223415e-04" rms="3.4057596325874329e-01" purity="5.3718930482864380e-01" nType="0">
          <Node pos="l" depth="2" NCoef="0" IVar="-1" Cut="0.0000000000000000e+00" cType="1" res="2.3419940844178200e-03" rms="3.1757646799087524e-01" purity="6.1111342906951904e-01" nType="-99"/>
          <Node pos="r" depth="2" NCoef="0" IVar="-1" Cut="0.0000000000000000e+00" cType="1" res="-1.2836020905524492e-03" rms="3.5889953374862671e-01" purity="4.7423937916755676e-01" nType="-99"/>
        </Node>
        <Node pos="r" depth="1" NCoef="0" IVar="8" Cut="-4.9907833337783813e-02" cType="1" res="5.1287943497300148e-03" rms="3.6948019266128540e-01" purity="4.2270693182945251e-01" nType="0">
          <Node pos="l" depth="2" NCoef="0" IVar="-1" Cut="0.0000000000000000e+00" cType="1" res="4.6634767204523087e-03" rms="3.7948045134544373e-01" purity="4.3049955368041992e-01" nType="-99"/>
          <Node pos="r" depth="2" NCoef="0" IVar="-1" Cut="0.0000000000000000e+00" cType="1" res="-1.3431624975055456e-03" rms="3.6024913191795349e-01" purity="4.1583976149559021e-01" nType="-99"/>
        </Node>
      </Node>
    </BinaryTree>
    <BinaryTree type="DecisionTree" boostWeight="1.0000000000000000e+00" itree="863">
      <Node pos="s" depth="0" NCoef="0" IVar="4" Cut="-2.9350204467773438e+00" cType="1" res="-8.0121681094169617e-04" rms="3.4888839721679688e-01" purity="5.0152593851089478e-01" nType="0">
        <Node pos="l" depth="1" NCoef="0" IVar="-1" Cut="0.0000000000000000e+00" cType="1" res="-1.0014529339969158e-02" rms="3.2831943035125732e-01" purity="5.6920182704925537e-01" nType="-99"/>
        <Node pos="r" depth="1" NCoef="0" IVar="8" Cut="-5.7601290941238403e-01" cType="1" res="6.4209714764729142e-04" rms="3.4986707568168640e-01" purity="4.9799916148185730e-01" nType="0">
          <Node pos="l" depth="2" NCoef="0" IVar="-1" Cut="0.0000000000000000e+00" cType="1" res="1.9759817514568567e-03" rms="3.9142641425132751e-01" purity="5.2937549352645874e-01" nType="-99"/>
          <Node pos="r" depth="2" NCoef="0" IVar="-1" Cut="0.0000000000000000e+00" cType="1" res="-3.4180731745436788e-04" rms="3.4536001086235046e-01" purity="4.9483707547187805e-01" nType="-99"/>
        </Node>
      </Node>
    </BinaryTree>
    <BinaryTree type="DecisionTree" boostWeight="1.0000000000000000e+00" itree="864">
      <Node pos="s" depth="0" NCoef="0" IVar="2" Cut="8.3542976379394531e+00" cType="1" res="-9.3370088143274188e-04" rms="3.4975817799568176e-01" purity="5.0083088874816895e-01" nType="0">
        <Node pos="l" depth="1" NCoef="0" IVar="3" Cut="2.9976311326026917e-01" cType="1" res="1.6323558986186981e-02" rms="3.6482235789299011e-01" purity="4.7858834266662598e-01" nType="0">
          <Node pos="l" depth="2" NCoef="0" IVar="-1" Cut="0.0000000000000000e+00" cType="1" res="-2.6900330558419228e-03" rms="3.5586240887641907e-01" purity="5.2988642454147339e-01" nType="-99"/>
          <Node pos="r" depth="2" NCoef="0" IVar="-1" Cut="0.0000000000000000e+00" cType="1" res="6.9518974050879478e-03" rms="3.7097010016441345e-01" purity="4.3177664279937744e-01" nType="-99"/>
        </Node>
        <Node pos="r" depth="1" NCoef="0" IVar="6" Cut="-2.6650755405426025e+00" cType="1" res="-2.6667441707104445e-03" rms="3.4816208481788635e-01" purity="5.0306457281112671e-01" nType="0">
          <Node pos="l" depth="2" NCoef="0" IVar="-1" Cut="0.0000000000000000e+00" cType="1" res="5.7446566643193364e-04" rms="3.3184787631034851e-01" purity="5.8307909965515137e-01" nType="-99"/>
          <Node pos="r" depth="2" NCoef="0" IVar="-1" Cut="0.0000000000000000e+00" cType="1" res="-2.3755894508212805e-03" rms="3.6811831593513489e-01" purity="3.9956286549568176e-01" nType="-99"/>
        </Node>
      </Node>
    </BinaryTree>
    <BinaryTree type="DecisionTree" boostWeight="1.0000000000000000e+00" itree="865">
      <Node pos="s" depth="0" NCoef="0" IVar="7" Cut="-1.4046379327774048e+00" cType="1" res="9.4552861992269754e-04" rms="3.4765923023223877e-01" purity="5.0216072797775269e-01" nType="0">
        <Node pos="l" depth="1" NCoef="0" IVar="-1" Cut="0.0000000000000000e+00" cType="1" res="-8.8057760149240494e-03" rms="3.4984183311462402e-01" purity="4.7819435596466064e-01" nType="-99"/>
        <Node pos="r" depth="1" NCoef="0" IVar="2" Cut="9.2357158660888672e+00" cType="1" res="2.2637364454567432e-03" rms="3.4750697016716003e-01" purity="5.0310671329498291e-01" nType="0">
          <Node pos="l" depth="2" NCoef="0" IVar="-1" Cut="0.0000000000000000e+00" cType="1" res="1.4579489361494780e-03" rms="3.5323280096054077e-01" purity="4.9742862582206726e-01" nType="-99"/>
          <Node pos="r" depth="2" NCoef="0" IVar="-1" Cut="0.0000000000000000e+00" cType="1" res="-1.7244099872186780e-03" rms="3.3732685446739197e-01" purity="5.1288932561874390e-01" nType="-99"/>
        </Node>
      </Node>
    </BinaryTree>
    <BinaryTree type="DecisionTree" boostWeight="1.0000000000000000e+00" itree="866">
      <Node pos="s" depth="0" NCoef="0" IVar="7" Cut="-5.0431060791015625e-01" cType="1" res="-2.9705397901125252e-04" rms="3.4967902302742004e-01" purity="4.9872153997421265e-01" nType="0">
        <Node pos="l" depth="1" NCoef="0" IVar="3" Cut="8.3777362108230591e-01" cType="1" res="-8.8905831798911095e-03" rms="3.5174590349197388e-01" purity="5.0654542446136475e-01" nType="0">
          <Node pos="l" depth="2" NCoef="0" IVar="-1" Cut="0.0000000000000000e+00" cType="1" res="-4.3410621583461761e-03" rms="3.4646213054656982e-01" purity="5.4673486948013306e-01" nType="-99"/>
          <Node pos="r" depth="2" NCoef="0" IVar="-1" Cut="0.0000000000000000e+00" cType="1" res="2.4725117255002260e-03" rms="3.6812976002693176e-01" purity="3.7263554334640503e-01" nType="-99"/>
        </Node>
        <Node pos="r" depth="1" NCoef="0" IVar="0" Cut="8.0388259887695312e+00" cType="1" res="1.8646968528628349e-03" rms="3.4912383556365967e-01" purity="4.9675342440605164e-01" nType="0">
          <Node pos="l" depth="2" NCoef="0" IVar="-1" Cut="0.0000000000000000e+00" cType="1" res="-2.8054842259734869e-03" rms="4.3503621220588684e-01" purity="3.4551882743835449e-01" nType="-99"/>
          <Node pos="r" depth="2" NCoef="0" IVar="-1" Cut="0.0000000000000000e+00" cType="1" res="1.2072772951796651e-03" rms="3.3712026476860046e-01" purity="5.1517003774642944e-01" nType="-99"/>
        </Node>
      </Node>
    </BinaryTree>
    <BinaryTree type="DecisionTree" boostWeight="1.0000000000000000e+00" itree="867">
      <Node pos="s" depth="0" NCoef="0" IVar="6" Cut="-4.0707898139953613e+00" cType="1" res="1.3112560845911503e-03" rms="3.4934258460998535e-01" purity="5.0466740131378174e-01" nType="0">
        <Node pos="l" depth="1" NCoef="0" IVar="12" Cut="7.1354329586029053e-01" cType="1" res="1.2918126769363880e-02" rms="3.0963265895843506e-01" purity="6.1760282516479492e-01" nType="0">
          <Node pos="l" depth="2" NCoef="0" IVar="-1" Cut="0.0000000000000000e+00" cType="1" res="6.9204214960336685e-03" rms="3.1754201650619507e-01" purity="8.2685744762420654e-01" nType="-99"/>
          <Node pos="r" depth="2" NCoef="0" IVar="-1" Cut="0.0000000000000000e+00" cType="1" res="-2.3415500763803720e-03" rms="2.9066163301467896e-01" purity="1.5905334055423737e-01" nType="-99"/>
        </Node>
        <Node pos="r" depth="1" NCoef="0" IVar="3" Cut="-6.9449824094772339e-01" cType="1" res="1.9244500435888767e-05" rms="3.5346350073814392e-01" purity="4.9209597706794739e-01" nType="0">
          <Node pos="l" depth="2" NCoef="0" IVar="-1" Cut="0.0000000000000000e+00" cType="1" res="-3.3242383506149054e-03" rms="3.1623885035514832e-01" purity="6.7821025848388672e-01" nType="-99"/>
          <Node pos="r" depth="2" NCoef="0" IVar="-1" Cut="0.0000000000000000e+00" cType="1" res="7.4109906563535333e-04" rms="3.6423000693321228e-01" purity="4.3418577313423157e-01" nType="-99"/>
        </Node>
      </Node>
    </BinaryTree>
    <BinaryTree type="DecisionTree" boostWeight="1.0000000000000000e+00" itree="868">
      <Node pos="s" depth="0" NCoef="0" IVar="8" Cut="1.0126248747110367e-01" cType="1" res="1.7321117920801044e-03" rms="3.4745934605598450e-01" purity="5.0252056121826172e-01" nType="0">
        <Node pos="l" depth="1" NCoef="0" IVar="2" Cut="9.4527740478515625e+00" cType="1" res="4.6755014918744564e-03" rms="3.4804260730743408e-01" purity="5.1229745149612427e-01" nType="0">
          <Node pos="l" depth="2" NCoef="0" IVar="-1" Cut="0.0000000000000000e+00" cType="1" res="1.9408283988013864e-03" rms="3.4938299655914307e-01" purity="5.1288771629333496e-01" nType="-99"/>
          <Node pos="r" depth="2" NCoef="0" IVar="-1" Cut="0.0000000000000000e+00" cType="1" res="-3.0468946788460016e-03" rms="3.4276250004768372e-01" purity="5.1009535789489746e-01" nType="-99"/>
        </Node>
        <Node pos="r" depth="1" NCoef="0" IVar="4" Cut="-2.1903376579284668e+00" cType="1" res="-4.5772949233651161e-03" rms="3.4612146019935608e-01" purity="4.8156300187110901e-01" nType="0">
          <Node pos="l" depth="2" NCoef="0" IVar="-1" Cut="0.0000000000000000e+00" cType="1" res="6.6527994349598885e-03" rms="2.9221591353416443e-01" purity="6.0826760530471802e-01" nType="-99"/>
          <Node pos="r" depth="2" NCoef="0" IVar="-1" Cut="0.0000000000000000e+00" cType="1" res="-2.4500251747667789e-03" rms="3.5169035196304321e-01" purity="4.6706196665763855e-01" nType="-99"/>
        </Node>
      </Node>
    </BinaryTree>
    <BinaryTree type="DecisionTree" boostWeight="1.0000000000000000e+00" itree="869">
      <Node pos="s" depth="0" NCoef="0" IVar="2" Cut="8.9995059967041016e+00" cType="1" res="3.0682026408612728e-04" rms="3.5009947419166565e-01" purity="4.9888098239898682e-01" nType="0">
        <Node pos="l" depth="1" NCoef="0" IVar="13" Cut="2.8568962216377258e-01" cType="1" res="-5.6692077778279781e-03" rms="3.5883769392967224e-01" purity="4.7931799292564392e-01" nType="0">
          <Node pos="l" depth="2" NCoef="0" IVar="-1" Cut="0.0000000000000000e+00" cType="1" res="-1.9040636834688485e-04" rms="3.5298326611518860e-01" purity="3.8603800535202026e-01" nType="-99"/>
          <Node pos="r" depth="2" NCoef="0" IVar="-1" Cut="0.0000000000000000e+00" cType="1" res="-5.3725396282970905e-03" rms="3.7560033798217773e-01" purity="7.6114219427108765e-01" nType="-99"/>
        </Node>
        <Node pos="r" depth="1" NCoef="0" IVar="7" Cut="1.5859000384807587e-01" cType="1" res="5.1030083559453487e-03" rms="3.4285002946853638e-01" purity="5.1458179950714111e-01" nType="0">
          <Node pos="l" depth="2" NCoef="0" IVar="-1" Cut="0.0000000000000000e+00" cType="1" res="-4.4069811701774597e-04" rms="3.4278929233551025e-01" purity="5.2671056985855103e-01" nType="-99"/>
          <Node pos="r" depth="2" NCoef="0" IVar="-1" Cut="0.0000000000000000e+00" cType="1" res="4.7908187843859196e-03" rms="3.4278300404548645e-01" purity="5.0086748600006104e-01" nType="-99"/>
        </Node>
      </Node>
    </BinaryTree>
    <BinaryTree type="DecisionTree" boostWeight="1.0000000000000000e+00" itree="870">
      <Node pos="s" depth="0" NCoef="0" IVar="4" Cut="-2.9348032549023628e-02" cType="1" res="-2.4459739215672016e-03" rms="3.4901809692382812e-01" purity="4.9750986695289612e-01" nType="0">
        <Node pos="l" depth="1" NCoef="0" IVar="3" Cut="5.3117513656616211e-01" cType="1" res="9.4377557979896665e-04" rms="3.3862394094467163e-01" purity="5.4275995492935181e-01" nType="0">
          <Node pos="l" depth="2" NCoef="0" IVar="-1" Cut="0.0000000000000000e+00" cType="1" res="2.5942102074623108e-03" rms="3.2217547297477722e-01" purity="6.4536333084106445e-01" nType="-99"/>
          <Node pos="r" depth="2" NCoef="0" IVar="-1" Cut="0.0000000000000000e+00" cType="1" res="-2.7054450474679470e-03" rms="3.6549809575080872e-01" purity="3.6248183250427246e-01" nType="-99"/>
        </Node>
        <Node pos="r" depth="1" NCoef="0" IVar="0" Cut="8.4757366180419922e+00" cType="1" res="-1.0107862763106823e-02" rms="3.7132793664932251e-01" purity="3.9523068070411682e-01" nType="0">
          <Node pos="l" depth="2" NCoef="0" IVar="-1" Cut="0.0000000000000000e+00" cType="1" res="-5.1525575108826160e-03" rms="4.1038826107978821e-01" purity="3.5501188039779663e-01" nType="-99"/>
          <Node pos="r" depth="2" NCoef="0" IVar="-1" Cut="0.0000000000000000e+00" cType="1" res="-1.3597777578979731e-03" rms="3.5601046681404114e-01" purity="4.0978658199310303e-01" nType="-99"/>
        </Node>
      </Node>
    </BinaryTree>
    <BinaryTree type="DecisionTree" boostWeight="1.0000000000000000e+00" itree="871">
      <Node pos="s" depth="0" NCoef="0" IVar="7" Cut="-5.0381249189376831e-01" cType="1" res="5.9941899962723255e-04" rms="3.4878098964691162e-01" purity="4.9976724386215210e-01" nType="0">
        <Node pos="l" depth="1" NCoef="0" IVar="2" Cut="8.8310937881469727e+00" cType="1" res="-1.5067892149090767e-02" rms="3.5855606198310852e-01" purity="5.0075751543045044e-01" nType="0">
          <Node pos="l" depth="2" NCoef="0" IVar="-1" Cut="0.0000000000000000e+00" cType="1" res="-6.4410781487822533e-03" rms="3.7703841924667358e-01" purity="4.6511337161064148e-01" nType="-99"/>
          <Node pos="r" depth="2" NCoef="0" IVar="-1" Cut="0.0000000000000000e+00" cType="1" res="-2.4329815059900284e-03" rms="3.4896844625473022e-01" purity="5.1798194646835327e-01" nType="-99"/>
        </Node>
        <Node pos="r" depth="1" NCoef="0" IVar="0" Cut="7.8198800086975098e+00" cType="1" res="4.5722248032689095e-03" rms="3.4614571928977966e-01" purity="4.9951609969139099e-01" nType="0">
          <Node pos="l" depth="2" NCoef="0" IVar="-1" Cut="0.0000000000000000e+00" cType="1" res="4.5910985209047794e-03" rms="4.4560825824737549e-01" purity="3.5765185952186584e-01" nType="-99"/>
          <Node pos="r" depth="2" NCoef="0" IVar="-1" Cut="0.0000000000000000e+00" cType="1" res="1.1236299760639668e-03" rms="3.4042620658874512e-01" purity="5.0655412673950195e-01" nType="-99"/>
        </Node>
      </Node>
    </BinaryTree>
    <BinaryTree type="DecisionTree" boostWeight="1.0000000000000000e+00" itree="872">
      <Node pos="s" depth="0" NCoef="0" IVar="4" Cut="-2.9348032549023628e-02" cType="1" res="6.7963596666231751e-04" rms="3.4694576263427734e-01" purity="5.0006347894668579e-01" nType="0">
        <Node pos="l" depth="1" NCoef="0" IVar="0" Cut="1.0439626693725586e+01" cType="1" res="4.0318453684449196e-03" rms="3.3423277735710144e-01" purity="5.4491555690765381e-01" nType="0">
          <Node pos="l" depth="2" NCoef="0" IVar="-1" Cut="0.0000000000000000e+00" cType="1" res="6.1949295923113823e-04" rms="3.3612933754920959e-01" purity="5.3243774175643921e-01" nType="-99"/>
          <Node pos="r" depth="2" NCoef="0" IVar="-1" Cut="0.0000000000000000e+00" cType="1" res="8.1846443936228752e-03" rms="3.0941417813301086e-01" purity="6.9430434703826904e-01" nType="-99"/>
        </Node>
        <Node pos="r" depth="1" NCoef="0" IVar="8" Cut="-5.4318983107805252e-02" cType="1" res="-6.9274022243916988e-03" rms="3.7408468127250671e-01" purity="3.9828237891197205e-01" nType="0">
          <Node pos="l" depth="2" NCoef="0" IVar="-1" Cut="0.0000000000000000e+00" cType="1" res="-3.2787132076919079e-03" rms="3.7896034121513367e-01" purity="3.9818415045738220e-01" nType="-99"/>
          <Node pos="r" depth="2" NCoef="0" IVar="-1" Cut="0.0000000000000000e+00" cType="1" res="7.5891270535066724e-04" rms="3.6896267533302307e-01" purity="3.9837971329689026e-01" nType="-99"/>
        </Node>
      </Node>
    </BinaryTree>
    <BinaryTree type="DecisionTree" boostWeight="1.0000000000000000e+00" itree="873">
      <Node pos="s" depth="0" NCoef="0" IVar="11" Cut="4.7624975442886353e-02" cType="1" res="-3.4538898617029190e-03" rms="3.5199424624443054e-01" purity="4.9655327200889587e-01" nType="0">
        <Node pos="l" depth="1" NCoef="0" IVar="11" Cut="4.5500285923480988e-03" cType="1" res="4.1714459657669067e-03" rms="2.3221229016780853e-01" purity="6.8481482565402985e-02" nType="0">
          <Node pos="l" depth="2" NCoef="0" IVar="-1" Cut="0.0000000000000000e+00" cType="1" res="-2.0086394622921944e-02" rms="9.2025049030780792e-02" purity="8.6821420118212700e-03" nType="-99"/>
          <Node pos="r" depth="2" NCoef="0" IVar="-1" Cut="0.0000000000000000e+00" cType="1" res="7.4287001043558121e-03" rms="3.2252213358879089e-01" purity="1.3501982390880585e-01" nType="-99"/>
        </Node>
        <Node pos="r" depth="1" NCoef="0" IVar="2" Cut="8.8053827285766602e+00" cType="1" res="-6.7679435014724731e-03" rms="3.9278063178062439e-01" purity="6.8259793519973755e-01" nType="0">
          <Node pos="l" depth="2" NCoef="0" IVar="-1" Cut="0.0000000000000000e+00" cType="1" res="-3.0260507483035326e-03" rms="4.0763401985168457e-01" purity="6.4924162626266479e-01" nType="-99"/>
          <Node pos="r" depth="2" NCoef="0" IVar="-1" Cut="0.0000000000000000e+00" cType="1" res="-6.0691352700814605e-04" rms="3.8618808984756470e-01" purity="6.9679379463195801e-01" nType="-99"/>
        </Node>
      </Node>
    </BinaryTree>
    <BinaryTree type="DecisionTree" boostWeight="1.0000000000000000e+00" itree="874">
      <Node pos="s" depth="0" NCoef="0" IVar="5" Cut="5.3844027519226074e+00" cType="1" res="-2.2177335340529680e-03" rms="3.5061979293823242e-01" purity="4.9630343914031982e-01" nType="0">
        <Node pos="l" depth="1" NCoef="0" IVar="3" Cut="-1.0275909900665283e+00" cType="1" res="1.4307622797787189e-02" rms="3.7139979004859924e-01" purity="5.6715565919876099e-01" nType="0">
          <Node pos="l" depth="2" NCoef="0" IVar="-1" Cut="0.0000000000000000e+00" cType="1" res="6.0555199161171913e-04" rms="3.3024707436561584e-01" purity="6.6925585269927979e-01" nType="-99"/>
          <Node pos="r" depth="2" NCoef="0" IVar="-1" Cut="0.0000000000000000e+00" cType="1" res="7.0248474366962910e-03" rms="4.2621421813964844e-01" purity="4.1038724780082703e-01" nType="-99"/>
        </Node>
        <Node pos="r" depth="1" NCoef="0" IVar="2" Cut="8.1408815383911133e+00" cType="1" res="-3.6514496896415949e-03" rms="3.4872168302536011e-01" purity="4.9015638232231140e-01" nType="0">
          <Node pos="l" depth="2" NCoef="0" IVar="-1" Cut="0.0000000000000000e+00" cType="1" res="-4.4257519766688347e-03" rms="3.7449342012405396e-01" purity="4.3052783608436584e-01" nType="-99"/>
          <Node pos="r" depth="2" NCoef="0" IVar="-1" Cut="0.0000000000000000e+00" cType="1" res="-8.4859796334058046e-04" rms="3.4744644165039062e-01" purity="4.9293586611747742e-01" nType="-99"/>
        </Node>
      </Node>
    </BinaryTree>
    <BinaryTree type="DecisionTree" boostWeight="1.0000000000000000e+00" itree="875">
      <Node pos="s" depth="0" NCoef="0" IVar="4" Cut="-5.7616311311721802e-01" cType="1" res="4.5035046059638262e-04" rms="3.4753790497779846e-01" purity="4.9950239062309265e-01" nType="0">
        <Node pos="l" depth="1" NCoef="0" IVar="12" Cut="6.1872142553329468e-01" cType="1" res="4.9476642161607742e-03" rms="3.2883241772651672e-01" purity="5.6800818443298340e-01" nType="0">
          <Node pos="l" depth="2" NCoef="0" IVar="-1" Cut="0.0000000000000000e+00" cType="1" res="-6.2996021006256342e-04" rms="3.1663119792938232e-01" purity="8.2331413030624390e-01" nType="-99"/>
          <Node pos="r" depth="2" NCoef="0" IVar="-1" Cut="0.0000000000000000e+00" cType="1" res="3.9501511491835117e-03" rms="3.4307622909545898e-01" purity="2.5395086407661438e-01" nType="-99"/>
        </Node>
        <Node pos="r" depth="1" NCoef="0" IVar="0" Cut="8.4768285751342773e+00" cType="1" res="-3.3083856105804443e-03" rms="3.6238878965377808e-01" purity="4.4224706292152405e-01" nType="0">
          <Node pos="l" depth="2" NCoef="0" IVar="-1" Cut="0.0000000000000000e+00" cType="1" res="-3.8906685076653957e-03" rms="3.9724650979042053e-01" purity="3.6817023158073425e-01" nType="-99"/>
          <Node pos="r" depth="2" NCoef="0" IVar="-1" Cut="0.0000000000000000e+00" cType="1" res="4.5277472236193717e-04" rms="3.4885576367378235e-01" purity="4.6892294287681580e-01" nType="-99"/>
        </Node>
      </Node>
    </BinaryTree>
    <BinaryTree type="DecisionTree" boostWeight="1.0000000000000000e+00" itree="876">
      <Node pos="s" depth="0" NCoef="0" IVar="7" Cut="-1.3099479675292969e+00" cType="1" res="4.7335601993836462e-04" rms="3.5007902979850769e-01" purity="5.0048279762268066e-01" nType="0">
        <Node pos="l" depth="1" NCoef="0" IVar="-1" Cut="0.0000000000000000e+00" cType="1" res="7.3683131486177444e-03" rms="3.5345607995986938e-01" purity="5.1285982131958008e-01" nType="-99"/>
        <Node pos="r" depth="1" NCoef="0" IVar="0" Cut="8.2567167282104492e+00" cType="1" res="-7.0075801340863109e-04" rms="3.4987753629684448e-01" purity="4.9991065263748169e-01" nType="0">
          <Node pos="l" depth="2" NCoef="0" IVar="-1" Cut="0.0000000000000000e+00" cType="1" res="1.7476980574429035e-03" rms="4.1465532779693604e-01" purity="3.8596484065055847e-01" nType="-99"/>
          <Node pos="r" depth="2" NCoef="0" IVar="-1" Cut="0.0000000000000000e+00" cType="1" res="-8.7783881463110447e-04" rms="3.3311709761619568e-01" purity="5.2619856595993042e-01" nType="-99"/>
        </Node>
      </Node>
    </BinaryTree>
    <BinaryTree type="DecisionTree" boostWeight="1.0000000000000000e+00" itree="877">
      <Node pos="s" depth="0" NCoef="0" IVar="0" Cut="7.8203439712524414e+00" cType="1" res="-2.8286054730415344e-03" rms="3.5248768329620361e-01" purity="4.9837896227836609e-01" nType="0">
        <Node pos="l" depth="1" NCoef="0" IVar="-1" Cut="0.0000000000000000e+00" cType="1" res="3.2901982776820660e-03" rms="4.5440182089805603e-01" purity="3.6059379577636719e-01" nType="-99"/>
        <Node pos="r" depth="1" NCoef="0" IVar="1" Cut="6.2575173377990723e+00" cType="1" res="-3.9448305033147335e-03" rms="3.4624123573303223e-01" purity="5.0565034151077271e-01" nType="0">
          <Node pos="l" depth="2" NCoef="0" IVar="-1" Cut="0.0000000000000000e+00" cType="1" res="-2.6022957172244787e-03" rms="3.7943056225776672e-01" purity="3.7976923584938049e-01" nType="-99"/>
          <Node pos="r" depth="2" NCoef="0" IVar="-1" Cut="0.0000000000000000e+00" cType="1" res="-8.7862492364365608e-05" rms="3.2283017039299011e-01" purity="5.8733803033828735e-01" nType="-99"/>
        </Node>
      </Node>
    </BinaryTree>
    <BinaryTree type="DecisionTree" boostWeight="1.0000000000000000e+00" itree="878">
      <Node pos="s" depth="0" NCoef="0" IVar="6" Cut="-4.0637130737304688e+00" cType="1" res="4.2808125726878643e-04" rms="3.4769663214683533e-01" purity="4.9873551726341248e-01" nType="0">
        <Node pos="l" depth="1" NCoef="0" IVar="0" Cut="9.1286621093750000e+00" cType="1" res="1.9579511135816574e-02" rms="3.1007561087608337e-01" purity="6.2375742197036743e-01" nType="0">
          <Node pos="l" depth="2" NCoef="0" IVar="-1" Cut="0.0000000000000000e+00" cType="1" res="1.0748704895377159e-02" rms="3.3343330025672913e-01" purity="5.7924216985702515e-01" nType="-99"/>
          <Node pos="r" depth="2" NCoef="0" IVar="-1" Cut="0.0000000000000000e+00" cType="1" res="2.9798848554491997e-03" rms="2.9171243309974670e-01" purity="6.5554171800613403e-01" nType="-99"/>
        </Node>
        <Node pos="r" depth="1" NCoef="0" IVar="5" Cut="6.7167968750000000e+00" cType="1" res="-1.6904074000194669e-03" rms="3.5154691338539124e-01" purity="4.8490589857101440e-01" nType="0">
          <Node pos="l" depth="2" NCoef="0" IVar="-1" Cut="0.0000000000000000e+00" cType="1" res="-2.2011296823620796e-03" rms="3.5961923003196716e-01" purity="5.0253856182098389e-01" nType="-99"/>
          <Node pos="r" depth="2" NCoef="0" IVar="-1" Cut="0.0000000000000000e+00" cType="1" res="1.3909618137404323e-03" rms="3.4206885099411011e-01" purity="4.6495714783668518e-01" nType="-99"/>
        </Node>
      </Node>
    </BinaryTree>
    <BinaryTree type="DecisionTree" boostWeight="1.0000000000000000e+00" itree="879">
      <Node pos="s" depth="0" NCoef="0" IVar="1" Cut="4.9083790779113770e+00" cType="1" res="-2.8251793701201677e-03" rms="3.5151302814483643e-01" purity="4.9801108241081238e-01" nType="0">
        <Node pos="l" depth="1" NCoef="0" IVar="-1" Cut="0.0000000000000000e+00" cType="1" res="6.0958843678236008e-03" rms="4.3033558130264282e-01" purity="2.6818254590034485e-01" nType="-99"/>
        <Node pos="r" depth="1" NCoef="0" IVar="1" Cut="7.5354576110839844e+00" cType="1" res="-3.7506020162254572e-03" rms="3.4891670942306519e-01" purity="5.0467967987060547e-01" nType="0">
          <Node pos="l" depth="2" NCoef="0" IVar="-1" Cut="0.0000000000000000e+00" cType="1" res="-7.5676897540688515e-04" rms="3.5065078735351562e-01" purity="4.9679860472679138e-01" nType="-99"/>
          <Node pos="r" depth="2" NCoef="0" IVar="-1" Cut="0.0000000000000000e+00" cType="1" res="-6.2385592609643936e-03" rms="3.2687872648239136e-01" purity="5.9985101222991943e-01" nType="-99"/>
        </Node>
      </Node>
    </BinaryTree>
    <BinaryTree type="DecisionTree" boostWeight="1.0000000000000000e+00" itree="880">
      <Node pos="s" depth="0" NCoef="0" IVar="0" Cut="1.0662780761718750e+01" cType="1" res="-2.0344739314168692e-03" rms="3.5195019841194153e-01" purity="4.9697354435920715e-01" nType="0">
        <Node pos="l" depth="1" NCoef="0" IVar="4" Cut="5.7725203037261963e-01" cType="1" res="4.4575601350516081e-05" rms="3.5038816928863525e-01" purity="4.9419990181922913e-01" nType="0">
          <Node pos="l" depth="2" NCoef="0" IVar="-1" Cut="0.0000000000000000e+00" cType="1" res="-4.2033800855278969e-04" rms="3.4870409965515137e-01" purity="5.0186955928802490e-01" nType="-99"/>
          <Node pos="r" depth="2" NCoef="0" IVar="-1" Cut="0.0000000000000000e+00" cType="1" res="5.6989244185388088e-03" rms="3.7755313515663147e-01" purity="3.6144047975540161e-01" nType="-99"/>
        </Node>
        <Node pos="r" depth="1" NCoef="0" IVar="5" Cut="8.4210786819458008e+00" cType="1" res="-3.3688161522150040e-02" rms="3.7350267171859741e-01" purity="5.3920227289199829e-01" nType="0">
          <Node pos="l" depth="2" NCoef="0" IVar="-1" Cut="0.0000000000000000e+00" cType="1" res="-4.7548986040055752e-03" rms="3.3614081144332886e-01" purity="6.4645260572433472e-01" nType="-99"/>
          <Node pos="r" depth="2" NCoef="0" IVar="-1" Cut="0.0000000000000000e+00" cType="1" res="-9.0985540300607681e-03" rms="4.1268202662467957e-01" purity="4.1218262910842896e-01" nType="-99"/>
        </Node>
      </Node>
    </BinaryTree>
    <BinaryTree type="DecisionTree" boostWeight="1.0000000000000000e+00" itree="881">
      <Node pos="s" depth="0" NCoef="0" IVar="13" Cut="8.5706877708435059e-01" cType="1" res="6.9224619073793292e-04" rms="3.4873765707015991e-01" purity="5.0076836347579956e-01" nType="0">
        <Node pos="l" depth="1" NCoef="0" IVar="4" Cut="5.1464378833770752e-01" cType="1" res="-2.8068307437933981e-04" rms="3.4941688179969788e-01" purity="4.9199494719505310e-01" nType="0">
          <Node pos="l" depth="2" NCoef="0" IVar="-1" Cut="0.0000000000000000e+00" cType="1" res="-4.9922987818717957e-04" rms="3.4654513001441956e-01" purity="5.0174462795257568e-01" nType="-99"/>
          <Node pos="r" depth="2" NCoef="0" IVar="-1" Cut="0.0000000000000000e+00" cType="1" res="3.7891217507421970e-03" rms="3.8229465484619141e-01" purity="3.7321236729621887e-01" nType="-99"/>
        </Node>
        <Node pos="r" depth="1" NCoef="0" IVar="-1" Cut="0.0000000000000000e+00" cType="1" res="8.8593456894159317e-03" rms="3.3298277854919434e-01" purity="6.9087386131286621e-01" nType="-99"/>
      </Node>
    </BinaryTree>
    <BinaryTree type="DecisionTree" boostWeight="1.0000000000000000e+00" itree="882">
      <Node pos="s" depth="0" NCoef="0" IVar="9" Cut="3.6931471824645996e+00" cType="1" res="5.3825246868655086e-04" rms="2.2749541699886322e-01" purity="4.9975541234016418e-01" nType="0">
        <Node pos="l" depth="1" NCoef="0" IVar="7" Cut="-1.2246481329202652e-01" cType="1" res="2.7766908169724047e-04" rms="3.4329593181610107e-01" purity="5.3601890802383423e-01" nType="0">
          <Node pos="l" depth="2" NCoef="0" IVar="-1" Cut="0.0000000000000000e+00" cType="1" res="1.5854933299124241e-03" rms="3.4804826974868774e-01" purity="5.6336265802383423e-01" nType="-99"/>
          <Node pos="r" depth="2" NCoef="0" IVar="-1" Cut="0.0000000000000000e+00" cType="1" res="-8.9776195818558335e-04" rms="3.4033447504043579e-01" purity="5.1945525407791138e-01" nType="-99"/>
        </Node>
        <Node pos="r" depth="1" NCoef="0" IVar="2" Cut="8.9338378906250000e+00" cType="1" res="1.7313256394118071e-03" rms="3.6645904183387756e-01" purity="4.2242452502250671e-01" nType="0">
          <Node pos="l" depth="2" NCoef="0" IVar="-1" Cut="0.0000000000000000e+00" cType="1" res="2.9941746033728123e-03" rms="3.7727579474449158e-01" purity="4.2418873310089111e-01" nType="-99"/>
          <Node pos="r" depth="2" NCoef="0" IVar="-1" Cut="0.0000000000000000e+00" cType="1" res="-2.2312626242637634e-03" rms="3.5828307271003723e-01" purity="4.2114472389221191e-01" nType="-99"/>
        </Node>
      </Node>
    </BinaryTree>
    <BinaryTree type="DecisionTree" boostWeight="1.0000000000000000e+00" itree="883">
      <Node pos="s" depth="0" NCoef="0" IVar="2" Cut="8.9639310836791992e+00" cType="1" res="2.5735746021382511e-04" rms="3.4873905777931213e-01" purity="4.9785149097442627e-01" nType="0">
        <Node pos="l" depth="1" NCoef="0" IVar="10" Cut="3.0000000000000000e+00" cType="1" res="-5.4113925434648991e-03" rms="2.6996898651123047e-01" purity="4.6981135010719299e-01" nType="0">
          <Node pos="l" depth="2" NCoef="0" IVar="-1" Cut="0.0000000000000000e+00" cType="1" res="-2.1201013587415218e-03" rms="3.5299563407897949e-01" purity="4.8580530285835266e-01" nType="-99"/>
          <Node pos="r" depth="2" NCoef="0" IVar="-1" Cut="0.0000000000000000e+00" cType="1" res="2.0887064747512341e-03" rms="3.7405371665954590e-01" purity="3.8685798645019531e-01" nType="-99"/>
        </Node>
        <Node pos="r" depth="1" NCoef="0" IVar="8" Cut="-4.3617504835128784e-01" cType="1" res="5.1244753412902355e-03" rms="3.4303373098373413e-01" purity="5.1766633987426758e-01" nType="0">
          <Node pos="l" depth="2" NCoef="0" IVar="-1" Cut="0.0000000000000000e+00" cType="1" res="4.6708672307431698e-03" rms="3.6320769786834717e-01" purity="5.4767358303070068e-01" nType="-99"/>
          <Node pos="r" depth="2" NCoef="0" IVar="-1" Cut="0.0000000000000000e+00" cType="1" res="7.1603781543672085e-04" rms="3.3910179138183594e-01" purity="5.1219713687896729e-01" nType="-99"/>
        </Node>
      </Node>
    </BinaryTree>
    <BinaryTree type="DecisionTree" boostWeight="1.0000000000000000e+00" itree="884">
      <Node pos="s" depth="0" NCoef="0" IVar="7" Cut="1.0034179687500000e-01" cType="1" res="1.6854415880516171e-03" rms="3.5074645280838013e-01" purity="5.0186365842819214e-01" nType="0">
        <Node pos="l" depth="1" NCoef="0" IVar="0" Cut="9.3508863449096680e+00" cType="1" res="-3.4816078841686249e-03" rms="3.5341718792915344e-01" purity="5.1517719030380249e-01" nType="0">
          <Node pos="l" depth="2" NCoef="0" IVar="-1" Cut="0.0000000000000000e+00" cType="1" res="4.9439485883340240e-04" rms="3.6593419313430786e-01" purity="4.7649389505386353e-01" nType="-99"/>
          <Node pos="r" depth="2" NCoef="0" IVar="-1" Cut="0.0000000000000000e+00" cType="1" res="-3.8336960133165121e-03" rms="3.3162349462509155e-01" purity="5.7880198955535889e-01" nType="-99"/>
        </Node>
        <Node pos="r" depth="1" NCoef="0" IVar="9" Cut="4.0000000000000000e+00" cType="1" res="3.9228298701345921e-03" rms="2.2407244145870209e-01" purity="4.8851341009140015e-01" nType="0">
          <Node pos="l" depth="2" NCoef="0" IVar="-1" Cut="0.0000000000000000e+00" cType="1" res="2.4860939010977745e-03" rms="3.4659531712532043e-01" purity="5.0256401300430298e-01" nType="-99"/>
          <Node pos="r" depth="2" NCoef="0" IVar="-1" Cut="0.0000000000000000e+00" cType="1" res="-6.8532247096300125e-03" rms="3.6046913266181946e-01" purity="3.5303726792335510e-01" nType="-99"/>
        </Node>
      </Node>
    </BinaryTree>
    <BinaryTree type="DecisionTree" boostWeight="1.0000000000000000e+00" itree="885">
      <Node pos="s" depth="0" NCoef="0" IVar="9" Cut="3.6931471824645996e+00" cType="1" res="5.3405732614919543e-04" rms="2.3012092709541321e-01" purity="5.0025528669357300e-01" nType="0">
        <Node pos="l" depth="1" NCoef="0" IVar="6" Cut="-8.2963663339614868e-01" cType="1" res="1.5231112483888865e-03" rms="3.4297370910644531e-01" purity="5.4051256179809570e-01" nType="0">
          <Node pos="l" depth="2" NCoef="0" IVar="-1" Cut="0.0000000000000000e+00" cType="1" res="7.6548989454749972e-05" rms="3.4040957689285278e-01" purity="5.5307334661483765e-01" nType="-99"/>
          <Node pos="r" depth="2" NCoef="0" IVar="-1" Cut="0.0000000000000000e+00" cType="1" res="5.8355820365250111e-03" rms="3.8868084549903870e-01" purity="2.9641482234001160e-01" nType="-99"/>
        </Node>
        <Node pos="r" depth="1" NCoef="0" IVar="12" Cut="5.7116276025772095e-01" cType="1" res="-3.3638009335845709e-04" rms="3.6021494865417480e-01" purity="4.1436702013015747e-01" nType="0">
          <Node pos="l" depth="2" NCoef="0" IVar="-1" Cut="0.0000000000000000e+00" cType="1" res="3.0315113253891468e-03" rms="3.8808834552764893e-01" purity="7.1962875127792358e-01" nType="-99"/>
          <Node pos="r" depth="2" NCoef="0" IVar="-1" Cut="0.0000000000000000e+00" cType="1" res="-2.7579013258218765e-03" rms="3.3853185176849365e-01" purity="1.9402734935283661e-01" nType="-99"/>
        </Node>
      </Node>
    </BinaryTree>
    <BinaryTree type="DecisionTree" boostWeight="1.0000000000000000e+00" itree="886">
      <Node pos="s" depth="0" NCoef="0" IVar="9" Cut="3.6931471824645996e+00" cType="1" res="3.0480758869089186e-04" rms="2.2818769514560699e-01" purity="5.0341558456420898e-01" nType="0">
        <Node pos="l" depth="1" NCoef="0" IVar="11" Cut="1.9045540690422058e-01" cType="1" res="2.1366854198276997e-03" rms="3.3761292695999146e-01" purity="5.4415357112884521e-01" nType="0">
          <Node pos="l" depth="2" NCoef="0" IVar="-1" Cut="0.0000000000000000e+00" cType="1" res="-1.4389163115993142e-03" rms="3.4083729982376099e-01" purity="2.1051183342933655e-01" nType="-99"/>
          <Node pos="r" depth="2" NCoef="0" IVar="-1" Cut="0.0000000000000000e+00" cType="1" res="2.6831589639186859e-03" rms="3.3453238010406494e-01" purity="8.4371089935302734e-01" nType="-99"/>
        </Node>
        <Node pos="r" depth="1" NCoef="0" IVar="2" Cut="8.8802051544189453e+00" cType="1" res="-3.0368617735803127e-03" rms="3.6671474575996399e-01" purity="4.1627782583236694e-01" nType="0">
          <Node pos="l" depth="2" NCoef="0" IVar="-1" Cut="0.0000000000000000e+00" cType="1" res="2.5869512464851141e-03" rms="3.7362393736839294e-01" purity="4.1338354349136353e-01" nType="-99"/>
          <Node pos="r" depth="2" NCoef="0" IVar="-1" Cut="0.0000000000000000e+00" cType="1" res="-5.0615193322300911e-03" rms="3.6216574907302856e-01" purity="4.1807338595390320e-01" nType="-99"/>
        </Node>
      </Node>
    </BinaryTree>
    <BinaryTree type="DecisionTree" boostWeight="1.0000000000000000e+00" itree="887">
      <Node pos="s" depth="0" NCoef="0" IVar="8" Cut="-5.7601290941238403e-01" cType="1" res="1.4940250548534095e-04" rms="3.4858059883117676e-01" purity="5.0045365095138550e-01" nType="0">
        <Node pos="l" depth="1" NCoef="0" IVar="-1" Cut="0.0000000000000000e+00" cType="1" res="2.5563354138284922e-03" rms="3.8417971134185791e-01" purity="5.3777980804443359e-01" nType="-99"/>
        <Node pos="r" depth="1" NCoef="0" IVar="2" Cut="8.5664997100830078e+00" cType="1" res="-2.0563912112265825e-03" rms="3.4468087553977966e-01" purity="4.9666061997413635e-01" nType="0">
          <Node pos="l" depth="2" NCoef="0" IVar="-1" Cut="0.0000000000000000e+00" cType="1" res="-3.0890775378793478e-03" rms="3.4941038489341736e-01" purity="4.5281639695167542e-01" nType="-99"/>
          <Node pos="r" depth="2" NCoef="0" IVar="-1" Cut="0.0000000000000000e+00" cType="1" res="7.4950548878405243e-05" rms="3.4366953372955322e-01" purity="5.0555819272994995e-01" nType="-99"/>
        </Node>
      </Node>
    </BinaryTree>
    <BinaryTree type="DecisionTree" boostWeight="1.0000000000000000e+00" itree="888">
      <Node pos="s" depth="0" NCoef="0" IVar="8" Cut="-5.3513187170028687e-01" cType="1" res="-3.0839657410979271e-03" rms="3.5097816586494446e-01" purity="4.9814343452453613e-01" nType="0">
        <Node pos="l" depth="1" NCoef="0" IVar="12" Cut="7.1381443738937378e-01" cType="1" res="-2.4972692131996155e-02" rms="4.0438067913055420e-01" purity="4.9775362014770508e-01" nType="0">
          <Node pos="l" depth="2" NCoef="0" IVar="-1" Cut="0.0000000000000000e+00" cType="1" res="-5.4776878096163273e-03" rms="4.1007664799690247e-01" purity="6.8377768993377686e-01" nType="-99"/>
          <Node pos="r" depth="2" NCoef="0" IVar="-1" Cut="0.0000000000000000e+00" cType="1" res="-6.1727646971121430e-04" rms="3.9701154828071594e-01" purity="2.9292058944702148e-01" nType="-99"/>
        </Node>
        <Node pos="r" depth="1" NCoef="0" IVar="8" Cut="2.8765812516212463e-01" cType="1" res="-4.9638142809271812e-04" rms="3.4402582049369812e-01" purity="4.9818950891494751e-01" nType="0">
          <Node pos="l" depth="2" NCoef="0" IVar="-1" Cut="0.0000000000000000e+00" cType="1" res="6.3951179618015885e-04" rms="3.4229615330696106e-01" purity="5.0564074516296387e-01" nType="-99"/>
          <Node pos="r" depth="2" NCoef="0" IVar="-1" Cut="0.0000000000000000e+00" cType="1" res="-3.9915344677865505e-03" rms="3.5239699482917786e-01" purity="4.6063438057899475e-01" nType="-99"/>
        </Node>
      </Node>
    </BinaryTree>
    <BinaryTree type="DecisionTree" boostWeight="1.0000000000000000e+00" itree="889">
      <Node pos="s" depth="0" NCoef="0" IVar="12" Cut="1.4284984767436981e-01" cType="1" res="5.3490808932110667e-04" rms="3.5087534785270691e-01" purity="5.0347310304641724e-01" nType="0">
        <Node pos="l" depth="1" NCoef="0" IVar="6" Cut="-2.1193096637725830e+00" cType="1" res="-6.1182640492916107e-03" rms="3.2739567756652832e-01" purity="8.3581060171127319e-01" nType="0">
          <Node pos="l" depth="2" NCoef="0" IVar="-1" Cut="0.0000000000000000e+00" cType="1" res="-3.7353658117353916e-03" rms="3.2164955139160156e-01" purity="8.4486025571823120e-01" nType="-99"/>
          <Node pos="r" depth="2" NCoef="0" IVar="-1" Cut="0.0000000000000000e+00" cType="1" res="5.3074504248797894e-03" rms="3.6979761719703674e-01" purity="7.6260095834732056e-01" nType="-99"/>
        </Node>
        <Node pos="r" depth="1" NCoef="0" IVar="1" Cut="4.9759173393249512e+00" cType="1" res="3.6922169383615255e-03" rms="3.6144173145294189e-01" purity="3.4576007723808289e-01" nType="0">
          <Node pos="l" depth="2" NCoef="0" IVar="-1" Cut="0.0000000000000000e+00" cType="1" res="-4.5732203871011734e-03" rms="3.9902725815773010e-01" purity="2.2996437549591064e-01" nType="-99"/>
          <Node pos="r" depth="2" NCoef="0" IVar="-1" Cut="0.0000000000000000e+00" cType="1" res="1.3729009078815579e-03" rms="3.5929435491561890e-01" purity="3.5188198089599609e-01" nType="-99"/>
        </Node>
      </Node>
    </BinaryTree>
    <BinaryTree type="DecisionTree" boostWeight="1.0000000000000000e+00" itree="890">
      <Node pos="s" depth="0" NCoef="0" IVar="9" Cut="3.6931471824645996e+00" cType="1" res="9.9255330860614777e-04" rms="2.2727160155773163e-01" purity="4.9983358383178711e-01" nType="0">
        <Node pos="l" depth="1" NCoef="0" IVar="1" Cut="5.4388451576232910e+00" cType="1" res="3.7615699693560600e-03" rms="3.4008115530014038e-01" purity="5.4073458909988403e-01" nType="0">
          <Node pos="l" depth="2" NCoef="0" IVar="-1" Cut="0.0000000000000000e+00" cType="1" res="3.2665485050529242e-03" rms="4.1491168737411499e-01" purity="3.4005966782569885e-01" nType="-99"/>
          <Node pos="r" depth="2" NCoef="0" IVar="-1" Cut="0.0000000000000000e+00" cType="1" res="5.8035308029502630e-04" rms="3.2942244410514832e-01" purity="5.6598603725433350e-01" nType="-99"/>
        </Node>
        <Node pos="r" depth="1" NCoef="0" IVar="3" Cut="2.2528345882892609e-01" cType="1" res="1.1963917640969157e-03" rms="3.6434930562973022e-01" purity="4.1377255320549011e-01" nType="0">
          <Node pos="l" depth="2" NCoef="0" IVar="-1" Cut="0.0000000000000000e+00" cType="1" res="3.8529452867805958e-03" rms="3.5766226053237915e-01" purity="5.3909397125244141e-01" nType="-99"/>
          <Node pos="r" depth="2" NCoef="0" IVar="-1" Cut="0.0000000000000000e+00" cType="1" res="-2.0657966379076242e-03" rms="3.6990615725517273e-01" purity="3.0532142519950867e-01" nType="-99"/>
        </Node>
      </Node>
    </BinaryTree>
    <BinaryTree type="DecisionTree" boostWeight="1.0000000000000000e+00" itree="891">
      <Node pos="s" depth="0" NCoef="0" IVar="0" Cut="9.1279020309448242e+00" cType="1" res="1.0167633881792426e-03" rms="3.4729218482971191e-01" purity="5.0057142972946167e-01" nType="0">
        <Node pos="l" depth="1" NCoef="0" IVar="8" Cut="-4.3767574429512024e-01" cType="1" res="-3.3607624936848879e-03" rms="3.7153378129005432e-01" purity="4.3928566575050354e-01" nType="0">
          <Node pos="l" depth="2" NCoef="0" IVar="-1" Cut="0.0000000000000000e+00" cType="1" res="-2.3271897807717323e-03" rms="3.9308780431747437e-01" purity="4.4666603207588196e-01" nType="-99"/>
          <Node pos="r" depth="2" NCoef="0" IVar="-1" Cut="0.0000000000000000e+00" cType="1" res="-3.4824450267478824e-04" rms="3.6649382114410400e-01" purity="4.3763294816017151e-01" nType="-99"/>
        </Node>
        <Node pos="r" depth="1" NCoef="0" IVar="1" Cut="6.2767786979675293e+00" cType="1" res="5.6837503798305988e-03" rms="3.1936174631118774e-01" purity="5.6590968370437622e-01" nType="0">
          <Node pos="l" depth="2" NCoef="0" IVar="-1" Cut="0.0000000000000000e+00" cType="1" res="4.7165737487375736e-03" rms="3.4341666102409363e-01" purity="4.2264527082443237e-01" nType="-99"/>
          <Node pos="r" depth="2" NCoef="0" IVar="-1" Cut="0.0000000000000000e+00" cType="1" res="7.4834190309047699e-04" rms="3.1084507703781128e-01" purity="6.1369895935058594e-01" nType="-99"/>
        </Node>
      </Node>
    </BinaryTree>
    <BinaryTree type="DecisionTree" boostWeight="1.0000000000000000e+00" itree="892">
      <Node pos="s" depth="0" NCoef="0" IVar="0" Cut="8.0385293960571289e+00" cType="1" res="2.7086168993264437e-03" rms="3.4836921095848083e-01" purity="5.0370544195175171e-01" nType="0">
        <Node pos="l" depth="1" NCoef="0" IVar="2" Cut="9.2218933105468750e+00" cType="1" res="1.4565401710569859e-02" rms="4.4335645437240601e-01" purity="3.7611854076385498e-01" nType="0">
          <Node pos="l" depth="2" NCoef="0" IVar="-1" Cut="0.0000000000000000e+00" cType="1" res="4.0634837932884693e-03" rms="4.4814729690551758e-01" purity="3.7190371751785278e-01" nType="-99"/>
          <Node pos="r" depth="2" NCoef="0" IVar="-1" Cut="0.0000000000000000e+00" cType="1" res="-8.8365841656923294e-04" rms="4.3428063392639160e-01" purity="3.8349497318267822e-01" nType="-99"/>
        </Node>
        <Node pos="r" depth="1" NCoef="0" IVar="6" Cut="-2.9730048179626465e+00" cType="1" res="1.1949267936870456e-03" rms="3.3427536487579346e-01" purity="5.1999372243881226e-01" nType="0">
          <Node pos="l" depth="2" NCoef="0" IVar="-1" Cut="0.0000000000000000e+00" cType="1" res="2.2027571685612202e-03" rms="3.1103578209877014e-01" purity="6.0868328809738159e-01" nType="-99"/>
          <Node pos="r" depth="2" NCoef="0" IVar="-1" Cut="0.0000000000000000e+00" cType="1" res="-7.9693004954606295e-04" rms="3.5220813751220703e-01" purity="4.4697928428649902e-01" nType="-99"/>
        </Node>
      </Node>
    </BinaryTree>
    <BinaryTree type="DecisionTree" boostWeight="1.0000000000000000e+00" itree="893">
      <Node pos="s" depth="0" NCoef="0" IVar="8" Cut="1.0800989717245102e-01" cType="1" res="-2.7143240440636873e-03" rms="3.4953022003173828e-01" purity="4.9716332554817200e-01" nType="0">
        <Node pos="l" depth="1" NCoef="0" IVar="3" Cut="-2.2297797203063965e+00" cType="1" res="4.0048177470453084e-04" rms="3.5050314664840698e-01" purity="5.0613129138946533e-01" nType="0">
          <Node pos="l" depth="2" NCoef="0" IVar="-1" Cut="0.0000000000000000e+00" cType="1" res="1.0089917108416557e-02" rms="2.8214201331138611e-01" purity="7.5137794017791748e-01" nType="-99"/>
          <Node pos="r" depth="2" NCoef="0" IVar="-1" Cut="0.0000000000000000e+00" cType="1" res="-2.9002121300436556e-04" rms="3.5403949022293091e-01" purity="4.9178928136825562e-01" nType="-99"/>
        </Node>
        <Node pos="r" depth="1" NCoef="0" IVar="1" Cut="6.9336204528808594e+00" cType="1" res="-9.6798688173294067e-03" rms="3.4724351763725281e-01" purity="4.7710847854614258e-01" nType="0">
          <Node pos="l" depth="2" NCoef="0" IVar="-1" Cut="0.0000000000000000e+00" cType="1" res="-5.1632849499583244e-03" rms="3.5673910379409790e-01" purity="4.2330673336982727e-01" nType="-99"/>
          <Node pos="r" depth="2" NCoef="0" IVar="-1" Cut="0.0000000000000000e+00" cType="1" res="2.1221265196800232e-03" rms="3.1801766157150269e-01" purity="6.3124024868011475e-01" nType="-99"/>
        </Node>
      </Node>
    </BinaryTree>
    <BinaryTree type="DecisionTree" boostWeight="1.0000000000000000e+00" itree="894">
      <Node pos="s" depth="0" NCoef="0" IVar="5" Cut="8.0898418426513672e+00" cType="1" res="1.5397022943943739e-03" rms="3.4544587135314941e-01" purity="4.9912756681442261e-01" nType="0">
        <Node pos="l" depth="1" NCoef="0" IVar="11" Cut="9.5236800611019135e-02" cType="1" res="-5.1517068641260266e-04" rms="3.4324288368225098e-01" purity="5.0199770927429199e-01" nType="0">
          <Node pos="l" depth="2" NCoef="0" IVar="-1" Cut="0.0000000000000000e+00" cType="1" res="-2.1035983227193356e-03" rms="3.0050268769264221e-01" purity="1.3259404897689819e-01" nType="-99"/>
          <Node pos="r" depth="2" NCoef="0" IVar="-1" Cut="0.0000000000000000e+00" cType="1" res="8.8203081395477057e-04" rms="3.7104022502899170e-01" purity="7.6903158426284790e-01" nType="-99"/>
        </Node>
        <Node pos="r" depth="1" NCoef="0" IVar="13" Cut="4.7614935785531998e-02" cType="1" res="2.3899350315332413e-02" rms="3.6782571673393250e-01" purity="4.6789684891700745e-01" nType="0">
          <Node pos="l" depth="2" NCoef="0" IVar="-1" Cut="0.0000000000000000e+00" cType="1" res="1.6183598199859262e-03" rms="3.1121096014976501e-01" purity="3.8455814123153687e-01" nType="-99"/>
          <Node pos="r" depth="2" NCoef="0" IVar="-1" Cut="0.0000000000000000e+00" cType="1" res="7.8747551888227463e-03" rms="4.1786149144172668e-01" purity="5.5481189489364624e-01" nType="-99"/>
        </Node>
      </Node>
    </BinaryTree>
    <BinaryTree type="DecisionTree" boostWeight="1.0000000000000000e+00" itree="895">
      <Node pos="s" depth="0" NCoef="0" IVar="8" Cut="3.6190280318260193e-01" cType="1" res="-1.4397354098036885e-03" rms="3.4862628579139709e-01" purity="4.9943470954895020e-01" nType="0">
        <Node pos="l" depth="1" NCoef="0" IVar="2" Cut="9.0960302352905273e+00" cType="1" res="-3.0459340196102858e-03" rms="3.4844011068344116e-01" purity="5.0152689218521118e-01" nType="0">
          <Node pos="l" depth="2" NCoef="0" IVar="-1" Cut="0.0000000000000000e+00" cType="1" res="3.1002634204924107e-04" rms="3.5494878888130188e-01" purity="4.9325627088546753e-01" nType="-99"/>
          <Node pos="r" depth="2" NCoef="0" IVar="-1" Cut="0.0000000000000000e+00" cType="1" res="-3.3526543993502855e-03" rms="3.4099030494689941e-01" purity="5.1072496175765991e-01" nType="-99"/>
        </Node>
        <Node pos="r" depth="1" NCoef="0" IVar="11" Cut="4.7615535557270050e-02" cType="1" res="1.2460888363420963e-02" rms="3.4992551803588867e-01" purity="4.8132836818695068e-01" nType="0">
          <Node pos="l" depth="2" NCoef="0" IVar="-1" Cut="0.0000000000000000e+00" cType="1" res="-1.1051445268094540e-02" rms="2.0082600414752960e-01" purity="5.0741389393806458e-02" nType="-99"/>
          <Node pos="r" depth="2" NCoef="0" IVar="-1" Cut="0.0000000000000000e+00" cType="1" res="6.9777839817106724e-03" rms="3.9986476302146912e-01" purity="6.8086057901382446e-01" nType="-99"/>
        </Node>
      </Node>
    </BinaryTree>
    <BinaryTree type="DecisionTree" boostWeight="1.0000000000000000e+00" itree="896">
      <Node pos="s" depth="0" NCoef="0" IVar="8" Cut="-6.6087120771408081e-01" cType="1" res="2.7608412783592939e-03" rms="3.4794017672538757e-01" purity="5.0232684612274170e-01" nType="0">
        <Node pos="l" depth="1" NCoef="0" IVar="-1" Cut="0.0000000000000000e+00" cType="1" res="3.5300145391374826e-03" rms="3.9388588070869446e-01" purity="5.5589669942855835e-01" nType="-99"/>
        <Node pos="r" depth="1" NCoef="0" IVar="0" Cut="7.8201246261596680e+00" cType="1" res="8.3557009929791093e-04" rms="3.4466379880905151e-01" purity="4.9885600805282593e-01" nType="0">
          <Node pos="l" depth="2" NCoef="0" IVar="-1" Cut="0.0000000000000000e+00" cType="1" res="-3.7607743870466948e-03" rms="4.3406221270561218e-01" purity="3.0635961890220642e-01" nType="-99"/>
          <Node pos="r" depth="2" NCoef="0" IVar="-1" Cut="0.0000000000000000e+00" cType="1" res="6.4783118432387710e-04" rms="3.3957424759864807e-01" purity="5.0842797756195068e-01" nType="-99"/>
        </Node>
      </Node>
    </BinaryTree>
    <BinaryTree type="DecisionTree" boostWeight="1.0000000000000000e+00" itree="897">
      <Node pos="s" depth="0" NCoef="0" IVar="9" Cut="3.6931471824645996e+00" cType="1" res="-1.2915789848193526e-03" rms="2.2753421962261200e-01" purity="4.9525380134582520e-01" nType="0">
        <Node pos="l" depth="1" NCoef="0" IVar="8" Cut="-5.8849364519119263e-01" cType="1" res="-3.1538787297904491e-03" rms="3.3970525860786438e-01" purity="5.3498047590255737e-01" nType="0">
          <Node pos="l" depth="2" NCoef="0" IVar="-1" Cut="0.0000000000000000e+00" cType="1" res="-2.9379604384303093e-03" rms="3.8492813706398010e-01" purity="5.3196305036544800e-01" nType="-99"/>
          <Node pos="r" depth="2" NCoef="0" IVar="-1" Cut="0.0000000000000000e+00" cType="1" res="-2.2248647292144597e-04" rms="3.3462128043174744e-01" purity="5.3529018163681030e-01" nType="-99"/>
        </Node>
        <Node pos="r" depth="1" NCoef="0" IVar="5" Cut="7.4303855895996094e+00" cType="1" res="2.7406108565628529e-03" rms="3.6577472090721130e-01" purity="4.1279768943786621e-01" nType="0">
          <Node pos="l" depth="2" NCoef="0" IVar="-1" Cut="0.0000000000000000e+00" cType="1" res="-6.5720273414626718e-04" rms="3.6513403058052063e-01" purity="4.1608467698097229e-01" nType="-99"/>
          <Node pos="r" depth="2" NCoef="0" IVar="-1" Cut="0.0000000000000000e+00" cType="1" res="6.3413158059120178e-03" rms="3.6756059527397156e-01" purity="4.0159162878990173e-01" nType="-99"/>
        </Node>
      </Node>
    </BinaryTree>
    <BinaryTree type="DecisionTree" boostWeight="1.0000000000000000e+00" itree="898">
      <Node pos="s" depth="0" NCoef="0" IVar="7" Cut="6.6975992918014526e-01" cType="1" res="1.7380486242473125e-03" rms="3.4665212035179138e-01" purity="5.0085860490798950e-01" nType="0">
        <Node pos="l" depth="1" NCoef="0" IVar="8" Cut="-4.5662239193916321e-01" cType="1" res="3.9246478118002415e-03" rms="3.4668034315109253e-01" purity="5.2033638954162598e-01" nType="0">
          <Node pos="l" depth="2" NCoef="0" IVar="-1" Cut="0.0000000000000000e+00" cType="1" res="2.6805552188307047e-03" rms="3.7332662940025330e-01" purity="5.4505890607833862e-01" nType="-99"/>
          <Node pos="r" depth="2" NCoef="0" IVar="-1" Cut="0.0000000000000000e+00" cType="1" res="5.0171720795333385e-04" rms="3.4178471565246582e-01" purity="5.1604980230331421e-01" nType="-99"/>
        </Node>
        <Node pos="r" depth="1" NCoef="0" IVar="0" Cut="8.2513132095336914e+00" cType="1" res="-8.0603770911693573e-03" rms="3.4635612368583679e-01" purity="4.1357615590095520e-01" nType="0">
          <Node pos="l" depth="2" NCoef="0" IVar="-1" Cut="0.0000000000000000e+00" cType="1" res="-8.0870380625128746e-03" rms="3.8758796453475952e-01" purity="2.7420029044151306e-01" nType="-99"/>
          <Node pos="r" depth="2" NCoef="0" IVar="-1" Cut="0.0000000000000000e+00" cType="1" res="-7.7678100205957890e-04" rms="3.3577233552932739e-01" purity="4.4604739546775818e-01" nType="-99"/>
        </Node>
      </Node>
    </BinaryTree>
    <BinaryTree type="DecisionTree" boostWeight="1.0000000000000000e+00" itree="899">
      <Node pos="s" depth="0" NCoef="0" IVar="0" Cut="7.8200154304504395e+00" cType="1" res="7.6450436608865857e-05" rms="3.5036599636077881e-01" purity="5.0212067365646362e-01" nType="0">
        <Node pos="l" depth="1" NCoef="0" IVar="-1" Cut="0.0000000000000000e+00" cType="1" res="4.0191560983657837e-03" rms="4.5703157782554626e-01" purity="3.6582782864570618e-01" nType="-99"/>
        <Node pos="r" depth="1" NCoef="0" IVar="9" Cut="3.6931471824645996e+00" cType="1" res="-8.9147943072021008e-04" rms="2.2828368842601776e-01" purity="5.0950032472610474e-01" nType="0">
          <Node pos="l" depth="2" NCoef="0" IVar="-1" Cut="0.0000000000000000e+00" cType="1" res="-5.9826771030202508e-04" rms="3.3417987823486328e-01" purity="5.4634940624237061e-01" nType="-99"/>
          <Node pos="r" depth="2" NCoef="0" IVar="-1" Cut="0.0000000000000000e+00" cType="1" res="4.6350504271686077e-04" rms="3.6305883526802063e-01" purity="4.3018460273742676e-01" nType="-99"/>
        </Node>
      </Node>
    </BinaryTree>
    <BinaryTree type="DecisionTree" boostWeight="1.0000000000000000e+00" itree="900">
      <Node pos="s" depth="0" NCoef="0" IVar="6" Cut="-3.6120944023132324e+00" cType="1" res="-7.9173711128532887e-04" rms="3.4776833653450012e-01" purity="4.9803003668785095e-01" nType="0">
        <Node pos="l" depth="1" NCoef="0" IVar="13" Cut="4.7613944858312607e-02" cType="1" res="1.0199492797255516e-02" rms="3.1740203499794006e-01" purity="6.1534386873245239e-01" nType="0">
          <Node pos="l" depth="2" NCoef="0" IVar="-1" Cut="0.0000000000000000e+00" cType="1" res="-2.7285986579954624e-03" rms="2.6128929853439331e-01" purity="3.8371521234512329e-01" nType="-99"/>
          <Node pos="r" depth="2" NCoef="0" IVar="-1" Cut="0.0000000000000000e+00" cType="1" res="6.4218076877295971e-03" rms="3.5261735320091248e-01" purity="7.8588545322418213e-01" nType="-99"/>
        </Node>
        <Node pos="r" depth="1" NCoef="0" IVar="8" Cut="-5.3537660837173462e-01" cType="1" res="-3.6446554586291313e-03" rms="3.5517063736915588e-01" purity="4.6757963299751282e-01" nType="0">
          <Node pos="l" depth="2" NCoef="0" IVar="-1" Cut="0.0000000000000000e+00" cType="1" res="-2.3109640460461378e-03" rms="3.9199721813201904e-01" purity="4.6643102169036865e-01" nType="-99"/>
          <Node pos="r" depth="2" NCoef="0" IVar="-1" Cut="0.0000000000000000e+00" cType="1" res="-5.7209003716707230e-04" rms="3.5022905468940735e-01" purity="4.6772363781929016e-01" nType="-99"/>
        </Node>
      </Node>
    </BinaryTree>
    <BinaryTree type="DecisionTree" boostWeight="1.0000000000000000e+00" itree="901">
      <Node pos="s" depth="0" NCoef="0" IVar="0" Cut="8.0376434326171875e+00" cType="1" res="-8.5908314213156700e-04" rms="3.4856584668159485e-01" purity="5.0202494859695435e-01" nType="0">
        <Node pos="l" depth="1" NCoef="0" IVar="2" Cut="9.2685089111328125e+00" cType="1" res="1.2925513088703156e-02" rms="4.4183009862899780e-01" purity="3.8086804747581482e-01" nType="0">
          <Node pos="l" depth="2" NCoef="0" IVar="-1" Cut="0.0000000000000000e+00" cType="1" res="4.2474661022424698e-03" rms="4.4338339567184448e-01" purity="3.8311305642127991e-01" nType="-99"/>
          <Node pos="r" depth="2" NCoef="0" IVar="-1" Cut="0.0000000000000000e+00" cType="1" res="-3.5575281362980604e-03" rms="4.3757876753807068e-01" purity="3.7629240751266479e-01" nType="-99"/>
        </Node>
        <Node pos="r" depth="1" NCoef="0" IVar="9" Cut="3.6931471824645996e+00" cType="1" res="-9.9824224889744073e-05" rms="2.2178481519222260e-01" purity="5.1743042469024658e-01" nType="0">
          <Node pos="l" depth="2" NCoef="0" IVar="-1" Cut="0.0000000000000000e+00" cType="1" res="-1.4687451766803861e-03" rms="3.2531437277793884e-01" purity="5.5692809820175171e-01" nType="-99"/>
          <Node pos="r" depth="2" NCoef="0" IVar="-1" Cut="0.0000000000000000e+00" cType="1" res="1.1016994249075651e-03" rms="3.5416767001152039e-01" purity="4.3313580751419067e-01" nType="-99"/>
        </Node>
      </Node>
    </BinaryTree>
    <BinaryTree type="DecisionTree" boostWeight="1.0000000000000000e+00" itree="902">
      <Node pos="s" depth="0" NCoef="0" IVar="1" Cut="5.1804852485656738e+00" cType="1" res="-1.4943035785108805e-03" rms="3.4928512573242188e-01" purity="4.9769461154937744e-01" nType="0">
        <Node pos="l" depth="1" NCoef="0" IVar="12" Cut="8.0946969985961914e-01" cType="1" res="1.6801251098513603e-02" rms="4.1983559727668762e-01" purity="2.8587231040000916e-01" nType="0">
          <Node pos="l" depth="2" NCoef="0" IVar="-1" Cut="0.0000000000000000e+00" cType="1" res="4.3144918163307011e-04" rms="4.3082961440086365e-01" purity="3.1909713149070740e-01" nType="-99"/>
          <Node pos="r" depth="2" NCoef="0" IVar="-1" Cut="0.0000000000000000e+00" cType="1" res="6.7194080911576748e-03" rms="4.0812116861343384e-01" purity="2.5292149186134338e-01" nType="-99"/>
        </Node>
        <Node pos="r" depth="1" NCoef="0" IVar="2" Cut="8.8053827285766602e+00" cType="1" res="-2.6839303318411112e-03" rms="3.4416371583938599e-01" purity="5.1146793365478516e-01" nType="0">
          <Node pos="l" depth="2" NCoef="0" IVar="-1" Cut="0.0000000000000000e+00" cType="1" res="-1.9828509539365768e-03" rms="3.5694071650505066e-01" purity="4.8376414179801941e-01" nType="-99"/>
          <Node pos="r" depth="2" NCoef="0" IVar="-1" Cut="0.0000000000000000e+00" cType="1" res="5.1716153393499553e-05" rms="3.3857643604278564e-01" purity="5.2318239212036133e-01" nType="-99"/>
        </Node>
      </Node>
    </BinaryTree>
    <BinaryTree type="DecisionTree" boostWeight="1.0000000000000000e+00" itree="903">
      <Node pos="s" depth="0" NCoef="0" IVar="11" Cut="3.8087195158004761e-01" cType="1" res="-3.3179975580424070e-03" rms="3.4679225087165833e-01" purity="4.9865251779556274e-01" nType="0">
        <Node pos="l" depth="1" NCoef="0" IVar="12" Cut="5.2364885807037354e-01" cType="1" res="-6.9337845779955387e-03" rms="3.5362702608108521e-01" purity="2.5334388017654419e-01" nType="0">
          <Node pos="l" depth="2" NCoef="0" IVar="-1" Cut="0.0000000000000000e+00" cType="1" res="-7.0238942280411720e-03" rms="3.9956912398338318e-01" purity="4.1945067048072815e-01" nType="-99"/>
          <Node pos="r" depth="2" NCoef="0" IVar="-1" Cut="0.0000000000000000e+00" cType="1" res="-1.1675964342430234e-03" rms="3.4806039929389954e-01" purity="2.3495341837406158e-01" nType="-99"/>
        </Node>
        <Node pos="r" depth="1" NCoef="0" IVar="10" Cut="3.0000000000000000e+00" cType="1" res="1.0356572456657887e-03" rms="2.1511448919773102e-01" purity="8.4736776351928711e-01" nType="0">
          <Node pos="l" depth="2" NCoef="0" IVar="-1" Cut="0.0000000000000000e+00" cType="1" res="1.8958675209432840e-03" rms="3.2623845338821411e-01" purity="8.5969895124435425e-01" nType="-99"/>
          <Node pos="r" depth="2" NCoef="0" IVar="-1" Cut="0.0000000000000000e+00" cType="1" res="-7.8276786953210831e-03" rms="4.0092119574546814e-01" purity="7.6253718137741089e-01" nType="-99"/>
        </Node>
      </Node>
    </BinaryTree>
    <BinaryTree type="DecisionTree" boostWeight="1.0000000000000000e+00" itree="904">
      <Node pos="s" depth="0" NCoef="0" IVar="2" Cut="8.5914773941040039e+00" cType="1" res="-8.3807198097929358e-04" rms="3.4885406494140625e-01" purity="4.9986237287521362e-01" nType="0">
        <Node pos="l" depth="1" NCoef="0" IVar="3" Cut="-3.7856745719909668e-01" cType="1" res="9.3231042847037315e-03" rms="3.6073854565620422e-01" purity="4.8207855224609375e-01" nType="0">
          <Node pos="l" depth="2" NCoef="0" IVar="-1" Cut="0.0000000000000000e+00" cType="1" res="-3.2208366319537163e-03" rms="3.5306397080421448e-01" purity="5.8924657106399536e-01" nType="-99"/>
          <Node pos="r" depth="2" NCoef="0" IVar="-1" Cut="0.0000000000000000e+00" cType="1" res="3.2974381465464830e-03" rms="3.6306375265121460e-01" purity="4.4426158070564270e-01" nType="-99"/>
        </Node>
        <Node pos="r" depth="1" NCoef="0" IVar="2" Cut="8.7247991561889648e+00" cType="1" res="-3.0866677407175303e-03" rms="3.4612867236137390e-01" purity="5.0379776954650879e-01" nType="0">
          <Node pos="l" depth="2" NCoef="0" IVar="-1" Cut="0.0000000000000000e+00" cType="1" res="-4.0488867089152336e-03" rms="3.5442313551902771e-01" purity="4.5827409625053406e-01" nType="-99"/>
          <Node pos="r" depth="2" NCoef="0" IVar="-1" Cut="0.0000000000000000e+00" cType="1" res="-6.1437167460098863e-04" rms="3.4535959362983704e-01" purity="5.0778752565383911e-01" nType="-99"/>
        </Node>
      </Node>
    </BinaryTree>
    <BinaryTree type="DecisionTree" boostWeight="1.0000000000000000e+00" itree="905">
      <Node pos="s" depth="0" NCoef="0" IVar="2" Cut="8.3750495910644531e+00" cType="1" res="3.2173981890082359e-03" rms="3.4671232104301453e-01" purity="4.9934372305870056e-01" nType="0">
        <Node pos="l" depth="1" NCoef="0" IVar="12" Cut="5.7097148895263672e-01" cType="1" res="-1.5465436503291130e-02" rms="3.5013803839683533e-01" purity="4.3566897511482239e-01" nType="0">
          <Node pos="l" depth="2" NCoef="0" IVar="-1" Cut="0.0000000000000000e+00" cType="1" res="3.6138563882559538e-04" rms="3.6437964439392090e-01" purity="7.4843996763229370e-01" nType="-99"/>
          <Node pos="r" depth="2" NCoef="0" IVar="-1" Cut="0.0000000000000000e+00" cType="1" res="-5.6770420633256435e-03" rms="3.3767777681350708e-01" purity="1.8530371785163879e-01" nType="-99"/>
        </Node>
        <Node pos="r" depth="1" NCoef="0" IVar="5" Cut="5.0283465385437012e+00" cType="1" res="5.2471193484961987e-03" rms="3.4627741575241089e-01" purity="5.0626140832901001e-01" nType="0">
          <Node pos="l" depth="2" NCoef="0" IVar="-1" Cut="0.0000000000000000e+00" cType="1" res="8.7810717523097992e-03" rms="3.5894763469696045e-01" purity="6.0480201244354248e-01" nType="-99"/>
          <Node pos="r" depth="2" NCoef="0" IVar="-1" Cut="0.0000000000000000e+00" cType="1" res="1.3308239867910743e-03" rms="3.4566408395767212e-01" purity="5.0188487768173218e-01" nType="-99"/>
        </Node>
      </Node>
    </BinaryTree>
    <BinaryTree type="DecisionTree" boostWeight="1.0000000000000000e+00" itree="906">
      <Node pos="s" depth="0" NCoef="0" IVar="5" Cut="5.5540461540222168e+00" cType="1" res="-8.8567205239087343e-04" rms="3.4608626365661621e-01" purity="5.0267177820205688e-01" nType="0">
        <Node pos="l" depth="1" NCoef="0" IVar="1" Cut="5.6714601516723633e+00" cType="1" res="1.2054349295794964e-02" rms="3.6420819163322449e-01" purity="5.6232112646102905e-01" nType="0">
          <Node pos="l" depth="2" NCoef="0" IVar="-1" Cut="0.0000000000000000e+00" cType="1" res="-8.9476373977959156e-04" rms="4.2219993472099304e-01" purity="3.4166008234024048e-01" nType="-99"/>
          <Node pos="r" depth="2" NCoef="0" IVar="-1" Cut="0.0000000000000000e+00" cType="1" res="9.8481029272079468e-03" rms="3.1106093525886536e-01" purity="7.3411458730697632e-01" nType="-99"/>
        </Node>
        <Node pos="r" depth="1" NCoef="0" IVar="0" Cut="8.4762811660766602e+00" cType="1" res="-2.4990898091346025e-03" rms="3.4372562170028687e-01" purity="4.9523442983627319e-01" nType="0">
          <Node pos="l" depth="2" NCoef="0" IVar="-1" Cut="0.0000000000000000e+00" cType="1" res="-2.9963210690766573e-03" rms="3.9109763503074646e-01" purity="3.7908211350440979e-01" nType="-99"/>
          <Node pos="r" depth="2" NCoef="0" IVar="-1" Cut="0.0000000000000000e+00" cType="1" res="1.2485684419516474e-04" rms="3.2791778445243835e-01" purity="5.3054273128509521e-01" nType="-99"/>
        </Node>
      </Node>
    </BinaryTree>
    <BinaryTree type="DecisionTree" boostWeight="1.0000000000000000e+00" itree="907">
      <Node pos="s" depth="0" NCoef="0" IVar="13" Cut="8.0944776535034180e-01" cType="1" res="2.0835127215832472e-03" rms="3.4882301092147827e-01" purity="5.0271081924438477e-01" nType="0">
        <Node pos="l" depth="1" NCoef="0" IVar="8" Cut="-3.2295373082160950e-01" cType="1" res="3.3073169179260731e-03" rms="3.4894561767578125e-01" purity="4.8526051640510559e-01" nType="0">
          <Node pos="l" depth="2" NCoef="0" IVar="-1" Cut="0.0000000000000000e+00" cType="1" res="-9.5751340268179774e-04" rms="3.6248570680618286e-01" purity="4.7201839089393616e-01" nType="-99"/>
          <Node pos="r" depth="2" NCoef="0" IVar="-1" Cut="0.0000000000000000e+00" cType="1" res="2.2013350389897823e-03" rms="3.4481084346771240e-01" purity="4.8916330933570862e-01" nType="-99"/>
        </Node>
        <Node pos="r" depth="1" NCoef="0" IVar="8" Cut="-2.0058279857039452e-02" cType="1" res="-1.3205581344664097e-02" rms="3.4692400693893433e-01" purity="7.2071874141693115e-01" nType="0">
          <Node pos="l" depth="2" NCoef="0" IVar="-1" Cut="0.0000000000000000e+00" cType="1" res="8.5412227781489491e-04" rms="3.3392542600631714e-01" purity="7.4785953760147095e-01" nType="-99"/>
          <Node pos="r" depth="2" NCoef="0" IVar="-1" Cut="0.0000000000000000e+00" cType="1" res="-1.4498635195195675e-02" rms="3.6133942008018494e-01" purity="6.8741196393966675e-01" nType="-99"/>
        </Node>
      </Node>
    </BinaryTree>
    <BinaryTree type="DecisionTree" boostWeight="1.0000000000000000e+00" itree="908">
      <Node pos="s" depth="0" NCoef="0" IVar="0" Cut="8.0386466979980469e+00" cType="1" res="1.1552692158147693e-03" rms="3.4947916865348816e-01" purity="5.0011456012725830e-01" nType="0">
        <Node pos="l" depth="1" NCoef="0" IVar="7" Cut="2.3780918121337891e-01" cType="1" res="1.5279078856110573e-02" rms="4.4268321990966797e-01" purity="3.7738731503486633e-01" nType="0">
          <Node pos="l" depth="2" NCoef="0" IVar="-1" Cut="0.0000000000000000e+00" cType="1" res="-1.3771213125437498e-03" rms="4.4389927387237549e-01" purity="3.7815678119659424e-01" nType="-99"/>
          <Node pos="r" depth="2" NCoef="0" IVar="-1" Cut="0.0000000000000000e+00" cType="1" res="1.0399294085800648e-02" rms="4.3867993354797363e-01" purity="3.7623459100723267e-01" nType="-99"/>
        </Node>
        <Node pos="r" depth="1" NCoef="0" IVar="2" Cut="8.8053827285766602e+00" cType="1" res="-5.9256522217765450e-04" rms="3.3611169457435608e-01" purity="5.1530224084854126e-01" nType="0">
          <Node pos="l" depth="2" NCoef="0" IVar="-1" Cut="0.0000000000000000e+00" cType="1" res="-1.6636027721688151e-03" rms="3.5149088501930237e-01" purity="4.8222568631172180e-01" nType="-99"/>
          <Node pos="r" depth="2" NCoef="0" IVar="-1" Cut="0.0000000000000000e+00" cType="1" res="9.5033197430893779e-04" rms="3.2914271950721741e-01" purity="5.2970904111862183e-01" nType="-99"/>
        </Node>
      </Node>
    </BinaryTree>
    <BinaryTree type="DecisionTree" boostWeight="1.0000000000000000e+00" itree="909">
      <Node pos="s" depth="0" NCoef="0" IVar="6" Cut="-3.8108565807342529e+00" cType="1" res="-1.0198868112638593e-03" rms="3.4987491369247437e-01" purity="5.0021135807037354e-01" nType="0">
        <Node pos="l" depth="1" NCoef="0" IVar="8" Cut="-2.7736550569534302e-01" cType="1" res="-1.5186336822807789e-02" rms="3.2374453544616699e-01" purity="5.9080135822296143e-01" nType="0">
          <Node pos="l" depth="2" NCoef="0" IVar="-1" Cut="0.0000000000000000e+00" cType="1" res="-1.2977680191397667e-02" rms="3.6200320720672607e-01" purity="5.4116094112396240e-01" nType="-99"/>
          <Node pos="r" depth="2" NCoef="0" IVar="-1" Cut="0.0000000000000000e+00" cType="1" res="-5.1214604172855616e-04" rms="3.0881726741790771e-01" purity="6.0716074705123901e-01" nType="-99"/>
        </Node>
        <Node pos="r" depth="1" NCoef="0" IVar="3" Cut="-3.8869318366050720e-01" cType="1" res="1.5212451107800007e-03" rms="3.5429841279983521e-01" purity="4.8396167159080505e-01" nType="0">
          <Node pos="l" depth="2" NCoef="0" IVar="-1" Cut="0.0000000000000000e+00" cType="1" res="-3.0223990324884653e-03" rms="3.2384961843490601e-01" purity="6.5158933401107788e-01" nType="-99"/>
          <Node pos="r" depth="2" NCoef="0" IVar="-1" Cut="0.0000000000000000e+00" cType="1" res="1.5466050244867802e-03" rms="3.6643958091735840e-01" purity="4.1244527697563171e-01" nType="-99"/>
        </Node>
      </Node>
    </BinaryTree>
    <BinaryTree type="DecisionTree" boostWeight="1.0000000000000000e+00" itree="910">
      <Node pos="s" depth="0" NCoef="0" IVar="12" Cut="5.7128566503524780e-01" cType="1" res="-8.4051204612478614e-04" rms="3.4605365991592407e-01" purity="5.0393515825271606e-01" nType="0">
        <Node pos="l" depth="1" NCoef="0" IVar="13" Cut="3.8091948628425598e-01" cType="1" res="5.0120167434215546e-03" rms="3.4612977504730225e-01" purity="7.9316622018814087e-01" nType="0">
          <Node pos="l" depth="2" NCoef="0" IVar="-1" Cut="0.0000000000000000e+00" cType="1" res="3.6034844815731049e-03" rms="3.4008151292800903e-01" purity="7.9384922981262207e-01" nType="-99"/>
          <Node pos="r" depth="2" NCoef="0" IVar="-1" Cut="0.0000000000000000e+00" cType="1" res="-1.5791648766025901e-03" rms="3.5318684577941895e-01" purity="7.9232794046401978e-01" nType="-99"/>
        </Node>
        <Node pos="r" depth="1" NCoef="0" IVar="10" Cut="3.0000000000000000e+00" cType="1" res="-4.2322706431150436e-03" rms="2.9215061664581299e-01" purity="2.3004730045795441e-01" nType="0">
          <Node pos="l" depth="2" NCoef="0" IVar="-1" Cut="0.0000000000000000e+00" cType="1" res="-7.3942472226917744e-04" rms="3.5027667880058289e-01" purity="2.4202196300029755e-01" nType="-99"/>
          <Node pos="r" depth="2" NCoef="0" IVar="-1" Cut="0.0000000000000000e+00" cType="1" res="-8.0385655164718628e-03" rms="3.2352754473686218e-01" purity="1.7275555431842804e-01" nType="-99"/>
        </Node>
      </Node>
    </BinaryTree>
    <BinaryTree type="DecisionTree" boostWeight="1.0000000000000000e+00" itree="911">
      <Node pos="s" depth="0" NCoef="0" IVar="10" Cut="3.0000000000000000e+00" cType="1" res="-2.9438326600939035e-04" rms="2.5015589594841003e-01" purity="5.0000524520874023e-01" nType="0">
        <Node pos="l" depth="1" NCoef="0" IVar="8" Cut="-5.3513187170028687e-01" cType="1" res="1.3281224528327584e-03" rms="3.4427210688591003e-01" purity="5.1949989795684814e-01" nType="0">
          <Node pos="l" depth="2" NCoef="0" IVar="-1" Cut="0.0000000000000000e+00" cType="1" res="2.3060771636664867e-03" rms="3.6718684434890747e-01" purity="5.5119037628173828e-01" nType="-99"/>
          <Node pos="r" depth="2" NCoef="0" IVar="-1" Cut="0.0000000000000000e+00" cType="1" res="-2.5171201559714973e-04" rms="3.4132158756256104e-01" purity="5.1564240455627441e-01" nType="-99"/>
        </Node>
        <Node pos="r" depth="1" NCoef="0" IVar="12" Cut="6.6608929634094238e-01" cType="1" res="-1.3389542698860168e-02" rms="3.6995294690132141e-01" purity="3.9005792140960693e-01" nType="0">
          <Node pos="l" depth="2" NCoef="0" IVar="-1" Cut="0.0000000000000000e+00" cType="1" res="-8.7980795651674271e-03" rms="4.1092324256896973e-01" purity="6.2830859422683716e-01" nType="-99"/>
          <Node pos="r" depth="2" NCoef="0" IVar="-1" Cut="0.0000000000000000e+00" cType="1" res="1.2553040869534016e-03" rms="3.2622021436691284e-01" purity="1.6750410199165344e-01" nType="-99"/>
        </Node>
      </Node>
    </BinaryTree>
    <BinaryTree type="DecisionTree" boostWeight="1.0000000000000000e+00" itree="912">
      <Node pos="s" depth="0" NCoef="0" IVar="6" Cut="-6.8683493137359619e-01" cType="1" res="2.2078573238104582e-03" rms="3.4820026159286499e-01" purity="5.0324422121047974e-01" nType="0">
        <Node pos="l" depth="1" NCoef="0" IVar="1" Cut="6.1118373870849609e+00" cType="1" res="1.0080519132316113e-03" rms="3.4694275259971619e-01" purity="5.1229232549667358e-01" nType="0">
          <Node pos="l" depth="2" NCoef="0" IVar="-1" Cut="0.0000000000000000e+00" cType="1" res="-1.7754914006218314e-03" rms="3.8814544677734375e-01" purity="3.6851477622985840e-01" nType="-99"/>
          <Node pos="r" depth="2" NCoef="0" IVar="-1" Cut="0.0000000000000000e+00" cType="1" res="1.6838753363117576e-03" rms="3.2461300492286682e-01" purity="5.8324646949768066e-01" nType="-99"/>
        </Node>
        <Node pos="r" depth="1" NCoef="0" IVar="-1" Cut="0.0000000000000000e+00" cType="1" res="9.5780137926340103e-03" rms="3.7891381978988647e-01" purity="2.6101022958755493e-01" nType="-99"/>
      </Node>
    </BinaryTree>
    <BinaryTree type="DecisionTree" boostWeight="1.0000000000000000e+00" itree="913">
      <Node pos="s" depth="0" NCoef="0" IVar="2" Cut="8.1608285903930664e+00" cType="1" res="-2.5048281531780958e-03" rms="3.5075208544731140e-01" purity="4.9822914600372314e-01" nType="0">
        <Node pos="l" depth="1" NCoef="0" IVar="-1" Cut="0.0000000000000000e+00" cType="1" res="2.7263176161795855e-03" rms="3.8030508160591125e-01" purity="4.6937936544418335e-01" nType="-99"/>
        <Node pos="r" depth="1" NCoef="0" IVar="8" Cut="3.6190280318260193e-01" cType="1" res="-3.4778963308781385e-03" rms="3.4912970662117004e-01" purity="4.9971964955329895e-01" nType="0">
          <Node pos="l" depth="2" NCoef="0" IVar="-1" Cut="0.0000000000000000e+00" cType="1" res="-1.4111073687672615e-03" rms="3.4833988547325134e-01" purity="5.0206261873245239e-01" nType="-99"/>
          <Node pos="r" depth="2" NCoef="0" IVar="-1" Cut="0.0000000000000000e+00" cType="1" res="1.9636652432382107e-03" rms="3.5581085085868835e-01" purity="4.7926771640777588e-01" nType="-99"/>
        </Node>
      </Node>
    </BinaryTree>
    <BinaryTree type="DecisionTree" boostWeight="1.0000000000000000e+00" itree="914">
      <Node pos="s" depth="0" NCoef="0" IVar="8" Cut="-5.3513187170028687e-01" cType="1" res="-5.6602437980473042e-03" rms="3.4887349605560303e-01" purity="4.9780339002609253e-01" nType="0">
        <Node pos="l" depth="1" NCoef="0" IVar="7" Cut="6.3665390014648438e-02" cType="1" res="-2.3219875991344452e-02" rms="3.8699373602867126e-01" purity="5.0278854370117188e-01" nType="0">
          <Node pos="l" depth="2" NCoef="0" IVar="-1" Cut="0.0000000000000000e+00" cType="1" res="2.7836361550725996e-04" rms="3.9834600687026978e-01" purity="5.4392945766448975e-01" nType="-99"/>
          <Node pos="r" depth="2" NCoef="0" IVar="-1" Cut="0.0000000000000000e+00" cType="1" res="-6.3617983832955360e-03" rms="3.7257751822471619e-01" purity="4.5883655548095703e-01" nType="-99"/>
        </Node>
        <Node pos="r" depth="1" NCoef="0" IVar="10" Cut="3.0000000000000000e+00" cType="1" res="-2.1756277419626713e-03" rms="2.6029008626937866e-01" purity="4.9720019102096558e-01" nType="0">
          <Node pos="l" depth="2" NCoef="0" IVar="-1" Cut="0.0000000000000000e+00" cType="1" res="-2.1118582226336002e-03" rms="3.4130302071571350e-01" purity="5.1224869489669800e-01" nType="-99"/>
          <Node pos="r" depth="2" NCoef="0" IVar="-1" Cut="0.0000000000000000e+00" cType="1" res="4.0182056836783886e-03" rms="3.5775092244148254e-01" purity="4.1363573074340820e-01" nType="-99"/>
        </Node>
      </Node>
    </BinaryTree>
    <BinaryTree type="DecisionTree" boostWeight="1.0000000000000000e+00" itree="915">
      <Node pos="s" depth="0" NCoef="0" IVar="11" Cut="2.8567621111869812e-01" cType="1" res="1.9293931836728007e-04" rms="3.4939649701118469e-01" purity="4.9816364049911499e-01" nType="0">
        <Node pos="l" depth="1" NCoef="0" IVar="11" Cut="2.3120005428791046e-01" cType="1" res="4.3074269779026508e-03" rms="3.4863916039466858e-01" purity="2.3631374537944794e-01" nType="0">
          <Node pos="l" depth="2" NCoef="0" IVar="-1" Cut="0.0000000000000000e+00" cType="1" res="6.8151066079735756e-04" rms="3.4289339184761047e-01" purity="2.1581083536148071e-01" nType="-99"/>
          <Node pos="r" depth="2" NCoef="0" IVar="-1" Cut="0.0000000000000000e+00" cType="1" res="7.3738656938076019e-03" rms="4.4810396432876587e-01" purity="6.5397930145263672e-01" nType="-99"/>
        </Node>
        <Node pos="r" depth="1" NCoef="0" IVar="7" Cut="8.2852923870086670e-01" cType="1" res="-5.0024776719510555e-03" rms="3.5028144717216492e-01" purity="8.2880485057830811e-01" nType="0">
          <Node pos="l" depth="2" NCoef="0" IVar="-1" Cut="0.0000000000000000e+00" cType="1" res="-2.8757487889379263e-03" rms="3.4676489233970642e-01" purity="8.3403319120407104e-01" nType="-99"/>
          <Node pos="r" depth="2" NCoef="0" IVar="-1" Cut="0.0000000000000000e+00" cType="1" res="6.2055890448391438e-03" rms="3.7683597207069397e-01" purity="7.8581500053405762e-01" nType="-99"/>
        </Node>
      </Node>
    </BinaryTree>
    <BinaryTree type="DecisionTree" boostWeight="1.0000000000000000e+00" itree="916">
      <Node pos="s" depth="0" NCoef="0" IVar="0" Cut="9.5693149566650391e+00" cType="1" res="1.2455943506211042e-03" rms="3.4734091162681580e-01" purity="4.9986529350280762e-01" nType="0">
        <Node pos="l" depth="1" NCoef="0" IVar="2" Cut="8.4688673019409180e+00" cType="1" res="-1.3723456067964435e-03" rms="3.5911116003990173e-01" purity="4.6445801854133606e-01" nType="0">
          <Node pos="l" depth="2" NCoef="0" IVar="-1" Cut="0.0000000000000000e+00" cType="1" res="1.9119151402264833e-03" rms="3.6464354395866394e-01" purity="4.3754118680953979e-01" nType="-99"/>
          <Node pos="r" depth="2" NCoef="0" IVar="-1" Cut="0.0000000000000000e+00" cType="1" res="-1.0242009302601218e-03" rms="3.5823902487754822e-01" purity="4.6851044893264771e-01" nType="-99"/>
        </Node>
        <Node pos="r" depth="1" NCoef="0" IVar="8" Cut="-2.9668456315994263e-01" cType="1" res="6.7408294416964054e-03" rms="3.2116526365280151e-01" purity="5.7418757677078247e-01" nType="0">
          <Node pos="l" depth="2" NCoef="0" IVar="-1" Cut="0.0000000000000000e+00" cType="1" res="3.2064400147646666e-03" rms="3.3791941404342651e-01" purity="5.9621345996856689e-01" nType="-99"/>
          <Node pos="r" depth="2" NCoef="0" IVar="-1" Cut="0.0000000000000000e+00" cType="1" res="1.0929421987384558e-03" rms="3.1647360324859619e-01" purity="5.6838655471801758e-01" nType="-99"/>
        </Node>
      </Node>
    </BinaryTree>
    <BinaryTree type="DecisionTree" boostWeight="1.0000000000000000e+00" itree="917">
      <Node pos="s" depth="0" NCoef="0" IVar="13" Cut="2.3807334899902344e-01" cType="1" res="1.8776076103677042e-05" rms="3.4664607048034668e-01" purity="4.9855104088783264e-01" nType="0">
        <Node pos="l" depth="1" NCoef="0" IVar="1" Cut="4.9198656082153320e+00" cType="1" res="-2.7999584563076496e-03" rms="3.4490638971328735e-01" purity="3.8320627808570862e-01" nType="0">
          <Node pos="l" depth="2" NCoef="0" IVar="-1" Cut="0.0000000000000000e+00" cType="1" res="6.1845118179917336e-03" rms="4.2770600318908691e-01" purity="2.6524221897125244e-01" nType="-99"/>
          <Node pos="r" depth="2" NCoef="0" IVar="-1" Cut="0.0000000000000000e+00" cType="1" res="-1.2087384238839149e-03" rms="3.4108379483222961e-01" purity="3.8796129822731018e-01" nType="-99"/>
        </Node>
        <Node pos="r" depth="1" NCoef="0" IVar="4" Cut="-2.3997113108634949e-02" cType="1" res="7.3413765057921410e-03" rms="3.5101947188377380e-01" purity="7.9819738864898682e-01" nType="0">
          <Node pos="l" depth="2" NCoef="0" IVar="-1" Cut="0.0000000000000000e+00" cType="1" res="-8.7130285101011395e-04" rms="3.3611583709716797e-01" purity="8.2020533084869385e-01" nType="-99"/>
          <Node pos="r" depth="2" NCoef="0" IVar="-1" Cut="0.0000000000000000e+00" cType="1" res="8.7727401405572891e-03" rms="3.8988059759140015e-01" purity="7.3406648635864258e-01" nType="-99"/>
        </Node>
      </Node>
    </BinaryTree>
    <BinaryTree type="DecisionTree" boostWeight="1.0000000000000000e+00" itree="918">
      <Node pos="s" depth="0" NCoef="0" IVar="1" Cut="5.1873960494995117e+00" cType="1" res="-1.2782310368493199e-03" rms="3.4783577919006348e-01" purity="4.9654522538185120e-01" nType="0">
        <Node pos="l" depth="1" NCoef="0" IVar="1" Cut="4.9580488204956055e+00" cType="1" res="2.0341774448752403e-02" rms="4.1974854469299316e-01" purity="2.8909775614738464e-01" nType="0">
          <Node pos="l" depth="2" NCoef="0" IVar="-1" Cut="0.0000000000000000e+00" cType="1" res="3.3858962706290185e-04" rms="4.1349321603775024e-01" purity="2.5003883242607117e-01" nType="-99"/>
          <Node pos="r" depth="2" NCoef="0" IVar="-1" Cut="0.0000000000000000e+00" cType="1" res="8.7022930383682251e-03" rms="4.2539447546005249e-01" purity="3.3054244518280029e-01" nType="-99"/>
        </Node>
        <Node pos="r" depth="1" NCoef="0" IVar="5" Cut="8.3644323348999023e+00" cType="1" res="-2.7223350480198860e-03" rms="3.4244620800018311e-01" purity="5.1040160655975342e-01" nType="0">
          <Node pos="l" depth="2" NCoef="0" IVar="-1" Cut="0.0000000000000000e+00" cType="1" res="-5.1923457067459822e-04" rms="3.3996894955635071e-01" purity="5.1673078536987305e-01" nType="-99"/>
          <Node pos="r" depth="2" NCoef="0" IVar="-1" Cut="0.0000000000000000e+00" cType="1" res="-5.1137125119566917e-03" rms="3.8229003548622131e-01" purity="4.0088632702827454e-01" nType="-99"/>
        </Node>
      </Node>
    </BinaryTree>
    <BinaryTree type="DecisionTree" boostWeight="1.0000000000000000e+00" itree="919">
      <Node pos="s" depth="0" NCoef="0" IVar="7" Cut="-1.2180373668670654e+00" cType="1" res="3.8698494900017977e-03" rms="3.5107636451721191e-01" purity="5.0410526990890503e-01" nType="0">
        <Node pos="l" depth="1" NCoef="0" IVar="11" Cut="1.9043821096420288e-01" cType="1" res="3.0765768140554428e-02" rms="3.6542099714279175e-01" purity="5.3618103265762329e-01" nType="0">
          <Node pos="l" depth="2" NCoef="0" IVar="-1" Cut="0.0000000000000000e+00" cType="1" res="1.0337745770812035e-02" rms="3.7722635269165039e-01" purity="2.8219717741012573e-01" nType="-99"/>
          <Node pos="r" depth="2" NCoef="0" IVar="-1" Cut="0.0000000000000000e+00" cType="1" res="2.2684799041599035e-03" rms="3.4968698024749756e-01" purity="8.3090531826019287e-01" nType="-99"/>
        </Node>
        <Node pos="r" depth="1" NCoef="0" IVar="1" Cut="6.0372266769409180e+00" cType="1" res="2.2818653378635645e-03" rms="3.5014650225639343e-01" purity="5.0221145153045654e-01" nType="0">
          <Node pos="l" depth="2" NCoef="0" IVar="-1" Cut="0.0000000000000000e+00" cType="1" res="2.6342291384935379e-03" rms="3.9493480324745178e-01" purity="3.6360731720924377e-01" nType="-99"/>
          <Node pos="r" depth="2" NCoef="0" IVar="-1" Cut="0.0000000000000000e+00" cType="1" res="-4.7841214109212160e-04" rms="3.2755801081657410e-01" purity="5.6561201810836792e-01" nType="-99"/>
        </Node>
      </Node>
    </BinaryTree>
    <BinaryTree type="DecisionTree" boostWeight="1.0000000000000000e+00" itree="920">
      <Node pos="s" depth="0" NCoef="0" IVar="8" Cut="3.1520092487335205e-01" cType="1" res="2.2631916217505932e-03" rms="3.5104185342788696e-01" purity="5.0078290700912476e-01" nType="0">
        <Node pos="l" depth="1" NCoef="0" IVar="1" Cut="6.7787566184997559e+00" cType="1" res="4.4341590255498886e-03" rms="3.5011214017868042e-01" purity="5.0656300783157349e-01" nType="0">
          <Node pos="l" depth="2" NCoef="0" IVar="-1" Cut="0.0000000000000000e+00" cType="1" res="2.0315195433795452e-03" rms="3.6842212080955505e-01" purity="4.5166611671447754e-01" nType="-99"/>
          <Node pos="r" depth="2" NCoef="0" IVar="-1" Cut="0.0000000000000000e+00" cType="1" res="-7.6280400389805436e-04" rms="3.0618119239807129e-01" purity="6.2660902738571167e-01" nType="-99"/>
        </Node>
        <Node pos="r" depth="1" NCoef="0" IVar="2" Cut="9.1243114471435547e+00" cType="1" res="-1.2078338302671909e-02" rms="3.5679113864898682e-01" purity="4.6259906888008118e-01" nType="0">
          <Node pos="l" depth="2" NCoef="0" IVar="-1" Cut="0.0000000000000000e+00" cType="1" res="-5.8921445161104202e-03" rms="3.5842955112457275e-01" purity="4.4488409161567688e-01" nType="-99"/>
          <Node pos="r" depth="2" NCoef="0" IVar="-1" Cut="0.0000000000000000e+00" cType="1" res="2.4883903097361326e-04" rms="3.5439401865005493e-01" purity="4.8396152257919312e-01" nType="-99"/>
        </Node>
      </Node>
    </BinaryTree>
    <BinaryTree type="DecisionTree" boostWeight="1.0000000000000000e+00" itree="921">
      <Node pos="s" depth="0" NCoef="0" IVar="2" Cut="8.1598834991455078e+00" cType="1" res="2.9730405658483505e-03" rms="3.4699979424476624e-01" purity="5.0452786684036255e-01" nType="0">
        <Node pos="l" depth="1" NCoef="0" IVar="-1" Cut="0.0000000000000000e+00" cType="1" res="-4.2651798576116562e-03" rms="3.6759877204895020e-01" purity="4.2497447133064270e-01" nType="-99"/>
        <Node pos="r" depth="1" NCoef="0" IVar="8" Cut="-5.7697242498397827e-01" cType="1" res="4.2683673091232777e-03" rms="3.4582081437110901e-01" purity="5.0876295566558838e-01" nType="0">
          <Node pos="l" depth="2" NCoef="0" IVar="-1" Cut="0.0000000000000000e+00" cType="1" res="-1.3229477917775512e-03" rms="4.0605950355529785e-01" purity="5.1274114847183228e-01" nType="-99"/>
          <Node pos="r" depth="2" NCoef="0" IVar="-1" Cut="0.0000000000000000e+00" cType="1" res="2.0872845780104399e-03" rms="3.3933570981025696e-01" purity="5.0837481021881104e-01" nType="-99"/>
        </Node>
      </Node>
    </BinaryTree>
    <BinaryTree type="DecisionTree" boostWeight="1.0000000000000000e+00" itree="922">
      <Node pos="s" depth="0" NCoef="0" IVar="1" Cut="5.0479655265808105e+00" cType="1" res="-2.1749092265963554e-03" rms="3.4632068872451782e-01" purity="4.9819016456604004e-01" nType="0">
        <Node pos="l" depth="1" NCoef="0" IVar="-1" Cut="0.0000000000000000e+00" cType="1" res="-7.6770442537963390e-03" rms="3.9222940802574158e-01" purity="2.2206418216228485e-01" nType="-99"/>
        <Node pos="r" depth="1" NCoef="0" IVar="11" Cut="9.5235332846641541e-02" cType="1" res="-5.9000810142606497e-04" rms="3.4400632977485657e-01" purity="5.1073062419891357e-01" nType="0">
          <Node pos="l" depth="2" NCoef="0" IVar="-1" Cut="0.0000000000000000e+00" cType="1" res="-3.4190095029771328e-03" rms="2.8527194261550903e-01" purity="1.1994542926549911e-01" nType="-99"/>
          <Node pos="r" depth="2" NCoef="0" IVar="-1" Cut="0.0000000000000000e+00" cType="1" res="1.1274394346401095e-03" rms="3.7677553296089172e-01" purity="7.6112645864486694e-01" nType="-99"/>
        </Node>
      </Node>
    </BinaryTree>
    <BinaryTree type="DecisionTree" boostWeight="1.0000000000000000e+00" itree="923">
      <Node pos="s" depth="0" NCoef="0" IVar="2" Cut="8.8033571243286133e+00" cType="1" res="1.5725311823189259e-03" rms="3.4591463208198547e-01" purity="5.0416344404220581e-01" nType="0">
        <Node pos="l" depth="1" NCoef="0" IVar="13" Cut="4.2853459715843201e-01" cType="1" res="-5.7944380678236485e-03" rms="3.5119688510894775e-01" purity="4.6822002530097961e-01" nType="0">
          <Node pos="l" depth="2" NCoef="0" IVar="-1" Cut="0.0000000000000000e+00" cType="1" res="-2.4871766800060868e-04" rms="3.4481954574584961e-01" purity="3.9817875623703003e-01" nType="-99"/>
          <Node pos="r" depth="2" NCoef="0" IVar="-1" Cut="0.0000000000000000e+00" cType="1" res="-5.9891636483371258e-03" rms="3.7466996908187866e-01" purity="7.4357455968856812e-01" nType="-99"/>
        </Node>
        <Node pos="r" depth="1" NCoef="0" IVar="8" Cut="-3.2215127348899841e-01" cType="1" res="4.7237854450941086e-03" rms="3.4358209371566772e-01" purity="5.1953840255737305e-01" nType="0">
          <Node pos="l" depth="2" NCoef="0" IVar="-1" Cut="0.0000000000000000e+00" cType="1" res="4.0152645669877529e-03" rms="3.5552045702934265e-01" purity="5.4181903600692749e-01" nType="-99"/>
          <Node pos="r" depth="2" NCoef="0" IVar="-1" Cut="0.0000000000000000e+00" cType="1" res="3.5356573062017560e-04" rms="3.3993992209434509e-01" purity="5.1307886838912964e-01" nType="-99"/>
        </Node>
      </Node>
    </BinaryTree>
    <BinaryTree type="DecisionTree" boostWeight="1.0000000000000000e+00" itree="924">
      <Node pos="s" depth="0" NCoef="0" IVar="12" Cut="6.6649878025054932e-01" cType="1" res="-5.4534606169909239e-04" rms="3.4497305750846863e-01" purity="4.9758726358413696e-01" nType="0">
        <Node pos="l" depth="1" NCoef="0" IVar="4" Cut="-1.9194369018077850e-01" cType="1" res="4.6073445118963718e-03" rms="3.5626295208930969e-01" purity="7.6549237966537476e-01" nType="0">
          <Node pos="l" depth="2" NCoef="0" IVar="-1" Cut="0.0000000000000000e+00" cType="1" res="-3.1505301012657583e-04" rms="3.2841545343399048e-01" purity="8.0353409051895142e-01" nType="-99"/>
          <Node pos="r" depth="2" NCoef="0" IVar="-1" Cut="0.0000000000000000e+00" cType="1" res="3.3915895037353039e-03" rms="4.0323933959007263e-01" purity="6.9398307800292969e-01" nType="-99"/>
        </Node>
        <Node pos="r" depth="1" NCoef="0" IVar="9" Cut="3.3862943649291992e+00" cType="1" res="-1.3296543620526791e-03" rms="2.4340787529945374e-01" purity="1.9810228049755096e-01" nType="0">
          <Node pos="l" depth="2" NCoef="0" IVar="-1" Cut="0.0000000000000000e+00" cType="1" res="1.5795732615515590e-03" rms="3.3932989835739136e-01" purity="2.4030834436416626e-01" nType="-99"/>
          <Node pos="r" depth="2" NCoef="0" IVar="-1" Cut="0.0000000000000000e+00" cType="1" res="-4.1300207376480103e-03" rms="3.2794135808944702e-01" purity="1.7775338888168335e-01" nType="-99"/>
        </Node>
      </Node>
    </BinaryTree>
    <BinaryTree type="DecisionTree" boostWeight="1.0000000000000000e+00" itree="925">
      <Node pos="s" depth="0" NCoef="0" IVar="7" Cut="-5.0466698408126831e-01" cType="1" res="-1.7226019408553839e-03" rms="3.4866908192634583e-01" purity="4.9955287575721741e-01" nType="0">
        <Node pos="l" depth="1" NCoef="0" IVar="3" Cut="-6.9448035955429077e-01" cType="1" res="-1.2172978371381760e-02" rms="3.5702136158943176e-01" purity="5.0461000204086304e-01" nType="0">
          <Node pos="l" depth="2" NCoef="0" IVar="-1" Cut="0.0000000000000000e+00" cType="1" res="-1.0617120191454887e-02" rms="3.3432734012603760e-01" purity="6.7928582429885864e-01" nType="-99"/>
          <Node pos="r" depth="2" NCoef="0" IVar="-1" Cut="0.0000000000000000e+00" cType="1" res="-1.9200576934963465e-03" rms="3.6365136504173279e-01" purity="4.5016497373580933e-01" nType="-99"/>
        </Node>
        <Node pos="r" depth="1" NCoef="0" IVar="10" Cut="3.0000000000000000e+00" cType="1" res="-3.6202534101903439e-04" rms="2.6312416791915894e-01" purity="4.9828046560287476e-01" nType="0">
          <Node pos="l" depth="2" NCoef="0" IVar="-1" Cut="0.0000000000000000e+00" cType="1" res="8.8850286556407809e-04" rms="3.4319934248924255e-01" purity="5.1667046546936035e-01" nType="-99"/>
          <Node pos="r" depth="2" NCoef="0" IVar="-1" Cut="0.0000000000000000e+00" cType="1" res="-3.6468207836151123e-03" rms="3.6414411664009094e-01" purity="3.9521592855453491e-01" nType="-99"/>
        </Node>
      </Node>
    </BinaryTree>
    <BinaryTree type="DecisionTree" boostWeight="1.0000000000000000e+00" itree="926">
      <Node pos="s" depth="0" NCoef="0" IVar="8" Cut="-5.5240571498870850e-01" cType="1" res="-4.0925035136751831e-04" rms="3.5060712695121765e-01" purity="4.9966442584991455e-01" nType="0">
        <Node pos="l" depth="1" NCoef="0" IVar="9" Cut="3.6931471824645996e+00" cType="1" res="-1.1852020397782326e-02" rms="2.7019998431205750e-01" purity="4.9175423383712769e-01" nType="0">
          <Node pos="l" depth="2" NCoef="0" IVar="-1" Cut="0.0000000000000000e+00" cType="1" res="-4.8354952596127987e-03" rms="3.9743950963020325e-01" purity="5.0955778360366821e-01" nType="-99"/>
          <Node pos="r" depth="2" NCoef="0" IVar="-1" Cut="0.0000000000000000e+00" cType="1" res="3.4262165427207947e-03" rms="3.9341238141059875e-01" purity="4.4580161571502686e-01" nType="-99"/>
        </Node>
        <Node pos="r" depth="1" NCoef="0" IVar="7" Cut="1.4614191055297852e+00" cType="1" res="2.5214459747076035e-03" rms="3.4484735131263733e-01" purity="5.0055098533630371e-01" nType="0">
          <Node pos="l" depth="2" NCoef="0" IVar="-1" Cut="0.0000000000000000e+00" cType="1" res="1.1982865398749709e-03" rms="3.4520307183265686e-01" purity="5.1148879528045654e-01" nType="-99"/>
          <Node pos="r" depth="2" NCoef="0" IVar="-1" Cut="0.0000000000000000e+00" cType="1" res="-6.5900236368179321e-03" rms="3.3568495512008667e-01" purity="2.4158398807048798e-01" nType="-99"/>
        </Node>
      </Node>
    </BinaryTree>
    <BinaryTree type="DecisionTree" boostWeight="1.0000000000000000e+00" itree="927">
      <Node pos="s" depth="0" NCoef="0" IVar="4" Cut="-1.0543949604034424e+00" cType="1" res="1.3864693464711308e-03" rms="3.5151317715644836e-01" purity="5.0237756967544556e-01" nType="0">
        <Node pos="l" depth="1" NCoef="0" IVar="5" Cut="7.2265911102294922e+00" cType="1" res="-7.1202907711267471e-03" rms="3.2889938354492188e-01" purity="5.7166546583175659e-01" nType="0">
          <Node pos="l" depth="2" NCoef="0" IVar="-1" Cut="0.0000000000000000e+00" cType="1" res="-1.3214956270530820e-03" rms="3.2579159736633301e-01" purity="5.8802568912506104e-01" nType="-99"/>
          <Node pos="r" depth="2" NCoef="0" IVar="-1" Cut="0.0000000000000000e+00" cType="1" res="-7.3032295331358910e-03" rms="3.4353208541870117e-01" purity="4.8956808447837830e-01" nType="-99"/>
        </Node>
        <Node pos="r" depth="1" NCoef="0" IVar="13" Cut="1.4284405112266541e-01" cType="1" res="5.0880201160907745e-03" rms="3.6084839701652527e-01" purity="4.7222822904586792e-01" nType="0">
          <Node pos="l" depth="2" NCoef="0" IVar="-1" Cut="0.0000000000000000e+00" cType="1" res="2.8909626416862011e-03" rms="3.4669280052185059e-01" purity="3.2695126533508301e-01" nType="-99"/>
          <Node pos="r" depth="2" NCoef="0" IVar="-1" Cut="0.0000000000000000e+00" cType="1" res="-1.3097545597702265e-03" rms="3.8610693812370300e-01" purity="7.4804162979125977e-01" nType="-99"/>
        </Node>
      </Node>
    </BinaryTree>
    <BinaryTree type="DecisionTree" boostWeight="1.0000000000000000e+00" itree="928">
      <Node pos="s" depth="0" NCoef="0" IVar="6" Cut="-6.8313145637512207e-01" cType="1" res="1.2005897006019950e-03" rms="3.4898704290390015e-01" purity="5.0274670124053955e-01" nType="0">
        <Node pos="l" depth="1" NCoef="0" IVar="5" Cut="6.8108201026916504e+00" cType="1" res="1.9716001115739346e-03" rms="3.4840440750122070e-01" purity="5.1338773965835571e-01" nType="0">
          <Node pos="l" depth="2" NCoef="0" IVar="-1" Cut="0.0000000000000000e+00" cType="1" res="1.8101759487763047e-03" rms="3.5099217295646667e-01" purity="5.4250991344451904e-01" nType="-99"/>
          <Node pos="r" depth="2" NCoef="0" IVar="-1" Cut="0.0000000000000000e+00" cType="1" res="-6.9765030639246106e-04" rms="3.4532853960990906e-01" purity="4.7963079810142517e-01" nType="-99"/>
        </Node>
        <Node pos="r" depth="1" NCoef="0" IVar="-1" Cut="0.0000000000000000e+00" cType="1" res="-5.4628076031804085e-03" rms="3.6383226513862610e-01" purity="2.1371455490589142e-01" nType="-99"/>
      </Node>
    </BinaryTree>
    <BinaryTree type="DecisionTree" boostWeight="1.0000000000000000e+00" itree="929">
      <Node pos="s" depth="0" NCoef="0" IVar="0" Cut="1.0885178565979004e+01" cType="1" res="3.1826014164835215e-03" rms="3.4846261143684387e-01" purity="5.0095081329345703e-01" nType="0">
        <Node pos="l" depth="1" NCoef="0" IVar="0" Cut="8.2266626358032227e+00" cType="1" res="1.5689677093178034e-03" rms="3.4660950303077698e-01" purity="4.9646452069282532e-01" nType="0">
          <Node pos="l" depth="2" NCoef="0" IVar="-1" Cut="0.0000000000000000e+00" cType="1" res="-2.3915898054838181e-03" rms="4.1256776452064514e-01" purity="3.6720144748687744e-01" nType="-99"/>
          <Node pos="r" depth="2" NCoef="0" IVar="-1" Cut="0.0000000000000000e+00" cType="1" res="1.4571618521586061e-03" rms="3.3011284470558167e-01" purity="5.2517187595367432e-01" nType="-99"/>
        </Node>
        <Node pos="r" depth="1" NCoef="0" IVar="-1" Cut="0.0000000000000000e+00" cType="1" res="8.7921051308512688e-03" rms="3.9113098382949829e-01" purity="6.1718767881393433e-01" nType="-99"/>
      </Node>
    </BinaryTree>
    <BinaryTree type="DecisionTree" boostWeight="1.0000000000000000e+00" itree="930">
      <Node pos="s" depth="0" NCoef="0" IVar="2" Cut="9.4508819580078125e+00" cType="1" res="-1.8415023805573583e-03" rms="3.4658488631248474e-01" purity="4.9571081995964050e-01" nType="0">
        <Node pos="l" depth="1" NCoef="0" IVar="1" Cut="5.3221001625061035e+00" cType="1" res="-4.3809060007333755e-03" rms="3.4850180149078369e-01" purity="4.8866280913352966e-01" nType="0">
          <Node pos="l" depth="2" NCoef="0" IVar="-1" Cut="0.0000000000000000e+00" cType="1" res="-4.6254200860857964e-03" rms="4.0435439348220825e-01" purity="2.6453551650047302e-01" nType="-99"/>
          <Node pos="r" depth="2" NCoef="0" IVar="-1" Cut="0.0000000000000000e+00" cType="1" res="-7.3173484997823834e-04" rms="3.4262391924858093e-01" purity="5.1011383533477783e-01" nType="-99"/>
        </Node>
        <Node pos="r" depth="1" NCoef="0" IVar="8" Cut="-1.3730280101299286e-01" cType="1" res="7.5023244135081768e-03" rms="3.3927464485168457e-01" purity="5.2164423465728760e-01" nType="0">
          <Node pos="l" depth="2" NCoef="0" IVar="-1" Cut="0.0000000000000000e+00" cType="1" res="7.2510717436671257e-03" rms="3.4467113018035889e-01" purity="5.2886503934860229e-01" nType="-99"/>
          <Node pos="r" depth="2" NCoef="0" IVar="-1" Cut="0.0000000000000000e+00" cType="1" res="2.0274127018637955e-04" rms="3.3568778634071350e-01" purity="5.1717114448547363e-01" nType="-99"/>
        </Node>
      </Node>
    </BinaryTree>
    <BinaryTree type="DecisionTree" boostWeight="1.0000000000000000e+00" itree="931">
      <Node pos="s" depth="0" NCoef="0" IVar="2" Cut="8.1608285903930664e+00" cType="1" res="7.0324569242075086e-04" rms="3.4764397144317627e-01" purity="5.0320732593536377e-01" nType="0">
        <Node pos="l" depth="1" NCoef="0" IVar="-1" Cut="0.0000000000000000e+00" cType="1" res="4.9725058488547802e-03" rms="3.6640438437461853e-01" purity="4.7788059711456299e-01" nType="-99"/>
        <Node pos="r" depth="1" NCoef="0" IVar="1" Cut="4.9874033927917480e+00" cType="1" res="-6.1914848629385233e-04" rms="3.4659677743911743e-01" purity="5.0451445579528809e-01" nType="0">
          <Node pos="l" depth="2" NCoef="0" IVar="-1" Cut="0.0000000000000000e+00" cType="1" res="-6.7230034619569778e-03" rms="3.9953312277793884e-01" purity="2.2243508696556091e-01" nType="-99"/>
          <Node pos="r" depth="2" NCoef="0" IVar="-1" Cut="0.0000000000000000e+00" cType="1" res="1.1321347847115248e-04" rms="3.4463277459144592e-01" purity="5.1400285959243774e-01" nType="-99"/>
        </Node>
      </Node>
    </BinaryTree>
    <BinaryTree type="DecisionTree" boostWeight="1.0000000000000000e+00" itree="932">
      <Node pos="s" depth="0" NCoef="0" IVar="8" Cut="1.0972817428410053e-02" cType="1" res="-1.3885470107197762e-03" rms="3.5073947906494141e-01" purity="5.0141549110412598e-01" nType="0">
        <Node pos="l" depth="1" NCoef="0" IVar="11" Cut="4.7633673995733261e-02" cType="1" res="-5.7067056186497211e-03" rms="3.5457614064216614e-01" purity="4.9994471669197083e-01" nType="0">
          <Node pos="l" depth="2" NCoef="0" IVar="-1" Cut="0.0000000000000000e+00" cType="1" res="3.8179378025233746e-03" rms="2.3860512673854828e-01" purity="7.1175977587699890e-02" nType="-99"/>
          <Node pos="r" depth="2" NCoef="0" IVar="-1" Cut="0.0000000000000000e+00" cType="1" res="-2.2892432752996683e-03" rms="3.9245569705963135e-01" purity="6.7684763669967651e-01" nType="-99"/>
        </Node>
        <Node pos="r" depth="1" NCoef="0" IVar="13" Cut="4.7608159482479095e-02" cType="1" res="4.4066649861633778e-03" rms="3.4543871879577637e-01" purity="5.0338929891586304e-01" nType="0">
          <Node pos="l" depth="2" NCoef="0" IVar="-1" Cut="0.0000000000000000e+00" cType="1" res="-1.5420017298310995e-03" rms="2.8065997362136841e-01" purity="2.5722441077232361e-01" nType="-99"/>
          <Node pos="r" depth="2" NCoef="0" IVar="-1" Cut="0.0000000000000000e+00" cType="1" res="3.2863882370293140e-03" rms="3.9103761315345764e-01" purity="7.0773816108703613e-01" nType="-99"/>
        </Node>
      </Node>
    </BinaryTree>
    <BinaryTree type="DecisionTree" boostWeight="1.0000000000000000e+00" itree="933">
      <Node pos="s" depth="0" NCoef="0" IVar="2" Cut="8.1907024383544922e+00" cType="1" res="5.1426253048703074e-04" rms="3.4622588753700256e-01" purity="5.0164139270782471e-01" nType="0">
        <Node pos="l" depth="1" NCoef="0" IVar="-1" Cut="0.0000000000000000e+00" cType="1" res="-3.6851216573268175e-03" rms="3.5504776239395142e-01" purity="4.3054986000061035e-01" nType="-99"/>
        <Node pos="r" depth="1" NCoef="0" IVar="0" Cut="1.0444462776184082e+01" cType="1" res="1.6164551489055157e-03" rms="3.4567072987556458e-01" purity="5.0580286979675293e-01" nType="0">
          <Node pos="l" depth="2" NCoef="0" IVar="-1" Cut="0.0000000000000000e+00" cType="1" res="1.4509045286104083e-04" rms="3.4468331933021545e-01" purity="4.9774742126464844e-01" nType="-99"/>
          <Node pos="r" depth="2" NCoef="0" IVar="-1" Cut="0.0000000000000000e+00" cType="1" res="3.3190953545272350e-03" rms="3.5512855648994446e-01" purity="5.8587473630905151e-01" nType="-99"/>
        </Node>
      </Node>
    </BinaryTree>
    <BinaryTree type="DecisionTree" boostWeight="1.0000000000000000e+00" itree="934">
      <Node pos="s" depth="0" NCoef="0" IVar="4" Cut="-2.7311773300170898e+00" cType="1" res="-1.0986025445163250e-03" rms="3.4555470943450928e-01" purity="4.9861407279968262e-01" nType="0">
        <Node pos="l" depth="1" NCoef="0" IVar="0" Cut="9.0677213668823242e+00" cType="1" res="-2.2774036973714828e-02" rms="3.2243824005126953e-01" purity="5.6669688224792480e-01" nType="0">
          <Node pos="l" depth="2" NCoef="0" IVar="-1" Cut="0.0000000000000000e+00" cType="1" res="-1.1846607550978661e-02" rms="3.5521230101585388e-01" purity="4.3515828251838684e-01" nType="-99"/>
          <Node pos="r" depth="2" NCoef="0" IVar="-1" Cut="0.0000000000000000e+00" cType="1" res="-1.1830275179818273e-03" rms="2.8320807218551636e-01" purity="7.0262569189071655e-01" nType="-99"/>
        </Node>
        <Node pos="r" depth="1" NCoef="0" IVar="11" Cut="3.8089439272880554e-01" cType="1" res="2.6590883499011397e-04" rms="3.4691309928894043e-01" purity="4.9432811141014099e-01" nType="0">
          <Node pos="l" depth="2" NCoef="0" IVar="-1" Cut="0.0000000000000000e+00" cType="1" res="-1.0497083421796560e-03" rms="3.5435968637466431e-01" purity="2.5371617078781128e-01" nType="-99"/>
          <Node pos="r" depth="2" NCoef="0" IVar="-1" Cut="0.0000000000000000e+00" cType="1" res="2.2158408537507057e-03" rms="3.3549401164054871e-01" purity="8.5049325227737427e-01" nType="-99"/>
        </Node>
      </Node>
    </BinaryTree>
    <BinaryTree type="DecisionTree" boostWeight="1.0000000000000000e+00" itree="935">
      <Node pos="s" depth="0" NCoef="0" IVar="6" Cut="-1.3155740499496460e+00" cType="1" res="-1.5203870134428144e-03" rms="3.4877941012382507e-01" purity="4.9837589263916016e-01" nType="0">
        <Node pos="l" depth="1" NCoef="0" IVar="1" Cut="5.3397092819213867e+00" cType="1" res="1.7000378284137696e-04" rms="3.4657192230224609e-01" purity="5.2250641584396362e-01" nType="0">
          <Node pos="l" depth="2" NCoef="0" IVar="-1" Cut="0.0000000000000000e+00" cType="1" res="6.0304114595055580e-03" rms="4.2234110832214355e-01" purity="3.4023147821426392e-01" nType="-99"/>
          <Node pos="r" depth="2" NCoef="0" IVar="-1" Cut="0.0000000000000000e+00" cType="1" res="-4.3446681229397655e-04" rms="3.4172916412353516e-01" purity="5.3279185295104980e-01" nType="-99"/>
        </Node>
        <Node pos="r" depth="1" NCoef="0" IVar="6" Cut="-9.6549195051193237e-01" cType="1" res="-1.8431402742862701e-02" rms="3.6971426010131836e-01" purity="2.5696897506713867e-01" nType="0">
          <Node pos="l" depth="2" NCoef="0" IVar="-1" Cut="0.0000000000000000e+00" cType="1" res="-1.1795153841376305e-02" rms="3.6339220404624939e-01" purity="2.6743778586387634e-01" nType="-99"/>
          <Node pos="r" depth="2" NCoef="0" IVar="-1" Cut="0.0000000000000000e+00" cType="1" res="-4.0732143679633737e-04" rms="3.7266147136688232e-01" purity="2.5035566091537476e-01" nType="-99"/>
        </Node>
      </Node>
    </BinaryTree>
    <BinaryTree type="DecisionTree" boostWeight="1.0000000000000000e+00" itree="936">
      <Node pos="s" depth="0" NCoef="0" IVar="6" Cut="-1.5364174842834473e+00" cType="1" res="1.5282953390851617e-03" rms="3.4755298495292664e-01" purity="5.0173521041870117e-01" nType="0">
        <Node pos="l" depth="1" NCoef="0" IVar="5" Cut="5.6609005928039551e+00" cType="1" res="-1.0702571598812938e-03" rms="3.4279906749725342e-01" purity="5.2703243494033813e-01" nType="0">
          <Node pos="l" depth="2" NCoef="0" IVar="-1" Cut="0.0000000000000000e+00" cType="1" res="3.9330539293587208e-03" rms="3.5683178901672363e-01" purity="6.2531578540802002e-01" nType="-99"/>
          <Node pos="r" depth="2" NCoef="0" IVar="-1" Cut="0.0000000000000000e+00" cType="1" res="-8.9889374794438481e-04" rms="3.4086796641349792e-01" purity="5.1410245895385742e-01" nType="-99"/>
        </Node>
        <Node pos="r" depth="1" NCoef="0" IVar="11" Cut="4.7629851847887039e-02" cType="1" res="1.9559882581233978e-02" rms="3.7841022014617920e-01" purity="3.2619544863700867e-01" nType="0">
          <Node pos="l" depth="2" NCoef="0" IVar="-1" Cut="0.0000000000000000e+00" cType="1" res="6.3678174046799541e-04" rms="2.5798958539962769e-01" purity="7.9789996147155762e-02" nType="-99"/>
          <Node pos="r" depth="2" NCoef="0" IVar="-1" Cut="0.0000000000000000e+00" cType="1" res="5.9840739704668522e-03" rms="4.3788343667984009e-01" purity="4.8341640830039978e-01" nType="-99"/>
        </Node>
      </Node>
    </BinaryTree>
    <BinaryTree type="DecisionTree" boostWeight="1.0000000000000000e+00" itree="937">
      <Node pos="s" depth="0" NCoef="0" IVar="6" Cut="-3.6756336688995361e+00" cType="1" res="-2.0658472203649580e-04" rms="3.4614029526710510e-01" purity="5.0056731700897217e-01" nType="0">
        <Node pos="l" depth="1" NCoef="0" IVar="11" Cut="9.5214110612869263e-01" cType="1" res="9.5446137711405754e-03" rms="3.1625384092330933e-01" purity="6.1514967679977417e-01" nType="0">
          <Node pos="l" depth="2" NCoef="0" IVar="-1" Cut="0.0000000000000000e+00" cType="1" res="5.5617420002818108e-03" rms="3.2738187909126282e-01" purity="5.0768607854843140e-01" nType="-99"/>
          <Node pos="r" depth="2" NCoef="0" IVar="-1" Cut="0.0000000000000000e+00" cType="1" res="-5.2263257093727589e-03" rms="2.8380796313285828e-01" purity="8.9909088611602783e-01" nType="-99"/>
        </Node>
        <Node pos="r" depth="1" NCoef="0" IVar="7" Cut="9.9986687302589417e-02" cType="1" res="-2.4487168993800879e-03" rms="3.5261613130569458e-01" purity="4.7422099113464355e-01" nType="0">
          <Node pos="l" depth="2" NCoef="0" IVar="-1" Cut="0.0000000000000000e+00" cType="1" res="-2.1446987520903349e-03" rms="3.6295571923255920e-01" purity="4.6722647547721863e-01" nType="-99"/>
          <Node pos="r" depth="2" NCoef="0" IVar="-1" Cut="0.0000000000000000e+00" cType="1" res="3.6154445842839777e-04" rms="3.4562784433364868e-01" purity="4.7880282998085022e-01" nType="-99"/>
        </Node>
      </Node>
    </BinaryTree>
    <BinaryTree type="DecisionTree" boostWeight="1.0000000000000000e+00" itree="938">
      <Node pos="s" depth="0" NCoef="0" IVar="12" Cut="2.8569942712783813e-01" cType="1" res="-2.7274265885353088e-03" rms="3.5076215863227844e-01" purity="4.9718081951141357e-01" nType="0">
        <Node pos="l" depth="1" NCoef="0" IVar="11" Cut="5.2371001243591309e-01" cType="1" res="-1.0227520018815994e-02" rms="3.3715391159057617e-01" purity="8.1700527667999268e-01" nType="0">
          <Node pos="l" depth="2" NCoef="0" IVar="-1" Cut="0.0000000000000000e+00" cType="1" res="-1.0902128182351589e-02" rms="3.8926810026168823e-01" purity="4.2462745308876038e-01" nType="-99"/>
          <Node pos="r" depth="2" NCoef="0" IVar="-1" Cut="0.0000000000000000e+00" cType="1" res="-2.8129948768764734e-03" rms="3.3170020580291748e-01" purity="8.5370165109634399e-01" nType="-99"/>
        </Node>
        <Node pos="r" depth="1" NCoef="0" IVar="5" Cut="5.9771814346313477e+00" cType="1" res="1.8403336871415377e-03" rms="3.5872030258178711e-01" purity="3.0239909887313843e-01" nType="0">
          <Node pos="l" depth="2" NCoef="0" IVar="-1" Cut="0.0000000000000000e+00" cType="1" res="-2.6855824980884790e-03" rms="4.0118929743766785e-01" purity="3.8424694538116455e-01" nType="-99"/>
          <Node pos="r" depth="2" NCoef="0" IVar="-1" Cut="0.0000000000000000e+00" cType="1" res="1.9452372798696160e-03" rms="3.4266912937164307e-01" purity="2.7406656742095947e-01" nType="-99"/>
        </Node>
      </Node>
    </BinaryTree>
    <BinaryTree type="DecisionTree" boostWeight="1.0000000000000000e+00" itree="939">
      <Node pos="s" depth="0" NCoef="0" IVar="6" Cut="-7.0248705148696899e-01" cType="1" res="-3.2916364725679159e-03" rms="3.4995448589324951e-01" purity="4.9222645163536072e-01" nType="0">
        <Node pos="l" depth="1" NCoef="0" IVar="9" Cut="3.0000000000000000e+00" cType="1" res="-1.5393011271953583e-03" rms="2.2321321070194244e-01" purity="5.0162249803543091e-01" nType="0">
          <Node pos="l" depth="2" NCoef="0" IVar="-1" Cut="0.0000000000000000e+00" cType="1" res="-6.1095005366951227e-04" rms="3.0757778882980347e-01" purity="6.3581013679504395e-01" nType="-99"/>
          <Node pos="r" depth="2" NCoef="0" IVar="-1" Cut="0.0000000000000000e+00" cType="1" res="-1.4301207847893238e-03" rms="3.5527765750885010e-01" purity="4.7920671105384827e-01" nType="-99"/>
        </Node>
        <Node pos="r" depth="1" NCoef="0" IVar="-1" Cut="0.0000000000000000e+00" cType="1" res="6.3524707220494747e-03" rms="3.7612408399581909e-01" purity="2.5191789865493774e-01" nType="-99"/>
      </Node>
    </BinaryTree>
    <BinaryTree type="DecisionTree" boostWeight="1.0000000000000000e+00" itree="940">
      <Node pos="s" depth="0" NCoef="0" IVar="2" Cut="8.7341871261596680e+00" cType="1" res="-2.3538549430668354e-03" rms="3.4738758206367493e-01" purity="4.9485215544700623e-01" nType="0">
        <Node pos="l" depth="1" NCoef="0" IVar="11" Cut="6.1889427900314331e-01" cType="1" res="-1.3392339460551739e-02" rms="3.5659074783325195e-01" purity="4.5758804678916931e-01" nType="0">
          <Node pos="l" depth="2" NCoef="0" IVar="-1" Cut="0.0000000000000000e+00" cType="1" res="-4.4084344990551472e-03" rms="3.6593887209892273e-01" purity="2.7695509791374207e-01" nType="-99"/>
          <Node pos="r" depth="2" NCoef="0" IVar="-1" Cut="0.0000000000000000e+00" cType="1" res="2.0315542351454496e-03" rms="3.3395811915397644e-01" purity="8.5836064815521240e-01" nType="-99"/>
        </Node>
        <Node pos="r" depth="1" NCoef="0" IVar="8" Cut="-3.2392483949661255e-01" cType="1" res="1.4274795539677143e-03" rms="3.4409695863723755e-01" purity="5.0761729478836060e-01" nType="0">
          <Node pos="l" depth="2" NCoef="0" IVar="-1" Cut="0.0000000000000000e+00" cType="1" res="2.5648947339504957e-03" rms="3.6476844549179077e-01" purity="5.1620131731033325e-01" nType="-99"/>
          <Node pos="r" depth="2" NCoef="0" IVar="-1" Cut="0.0000000000000000e+00" cType="1" res="-7.8336190199479461e-04" rms="3.3778378367424011e-01" purity="5.0512123107910156e-01" nType="-99"/>
        </Node>
      </Node>
    </BinaryTree>
    <BinaryTree type="DecisionTree" boostWeight="1.0000000000000000e+00" itree="941">
      <Node pos="s" depth="0" NCoef="0" IVar="13" Cut="1.9045579433441162e-01" cType="1" res="-3.4589888527989388e-03" rms="3.4818452596664429e-01" purity="4.9617797136306763e-01" nType="0">
        <Node pos="l" depth="1" NCoef="0" IVar="4" Cut="1.1272032745182514e-02" cType="1" res="-6.2038442119956017e-03" rms="3.4263905882835388e-01" purity="3.6505877971649170e-01" nType="0">
          <Node pos="l" depth="2" NCoef="0" IVar="-1" Cut="0.0000000000000000e+00" cType="1" res="-6.5547390840947628e-04" rms="3.3740207552909851e-01" purity="3.9928555488586426e-01" nType="-99"/>
          <Node pos="r" depth="2" NCoef="0" IVar="-1" Cut="0.0000000000000000e+00" cType="1" res="-4.0512681007385254e-03" rms="3.5423606634140015e-01" purity="2.8613477945327759e-01" nType="-99"/>
        </Node>
        <Node pos="r" depth="1" NCoef="0" IVar="11" Cut="5.2346402406692505e-01" cType="1" res="2.6615185197442770e-03" rms="3.6016726493835449e-01" purity="7.8854906558990479e-01" nType="0">
          <Node pos="l" depth="2" NCoef="0" IVar="-1" Cut="0.0000000000000000e+00" cType="1" res="4.9587604589760303e-03" rms="4.0786364674568176e-01" purity="5.9851503372192383e-01" nType="-99"/>
          <Node pos="r" depth="2" NCoef="0" IVar="-1" Cut="0.0000000000000000e+00" cType="1" res="-8.9695752831175923e-04" rms="3.4667176008224487e-01" purity="8.3738046884536743e-01" nType="-99"/>
        </Node>
      </Node>
    </BinaryTree>
    <BinaryTree type="DecisionTree" boostWeight="1.0000000000000000e+00" itree="942">
      <Node pos="s" depth="0" NCoef="0" IVar="1" Cut="6.3103227615356445e+00" cType="1" res="3.0636077281087637e-03" rms="3.4838861227035522e-01" purity="5.0204563140869141e-01" nType="0">
        <Node pos="l" depth="1" NCoef="0" IVar="0" Cut="9.2128105163574219e+00" cType="1" res="9.2680221423506737e-03" rms="3.8135576248168945e-01" purity="3.9530014991760254e-01" nType="0">
          <Node pos="l" depth="2" NCoef="0" IVar="-1" Cut="0.0000000000000000e+00" cType="1" res="1.1855113552883267e-03" rms="3.8917836546897888e-01" purity="3.7874546647071838e-01" nType="-99"/>
          <Node pos="r" depth="2" NCoef="0" IVar="-1" Cut="0.0000000000000000e+00" cType="1" res="6.3192299567162991e-03" rms="3.5713854432106018e-01" purity="4.4373074173927307e-01" nType="-99"/>
        </Node>
        <Node pos="r" depth="1" NCoef="0" IVar="3" Cut="8.3804255723953247e-01" cType="1" res="-1.8396152881905437e-03" rms="3.1985610723495483e-01" purity="5.8640438318252563e-01" nType="0">
          <Node pos="l" depth="2" NCoef="0" IVar="-1" Cut="0.0000000000000000e+00" cType="1" res="-2.0541741978377104e-03" rms="3.0895954370498657e-01" purity="6.3632822036743164e-01" nType="-99"/>
          <Node pos="r" depth="2" NCoef="0" IVar="-1" Cut="0.0000000000000000e+00" cType="1" res="2.6136001106351614e-03" rms="3.5492774844169617e-01" purity="4.1253200173377991e-01" nType="-99"/>
        </Node>
      </Node>
    </BinaryTree>
    <BinaryTree type="DecisionTree" boostWeight="1.0000000000000000e+00" itree="943">
      <Node pos="s" depth="0" NCoef="0" IVar="6" Cut="-2.8438096046447754e+00" cType="1" res="-1.9243311835452914e-03" rms="3.4720188379287720e-01" purity="4.9657985568046570e-01" nType="0">
        <Node pos="l" depth="1" NCoef="0" IVar="2" Cut="8.3579025268554688e+00" cType="1" res="3.8968443404883146e-03" rms="3.2738378643989563e-01" purity="5.8436453342437744e-01" nType="0">
          <Node pos="l" depth="2" NCoef="0" IVar="-1" Cut="0.0000000000000000e+00" cType="1" res="-6.7889173515141010e-03" rms="3.4959474205970764e-01" purity="4.9913257360458374e-01" nType="-99"/>
          <Node pos="r" depth="2" NCoef="0" IVar="-1" Cut="0.0000000000000000e+00" cType="1" res="2.5913934223353863e-03" rms="3.2493579387664795e-01" purity="5.9269386529922485e-01" nType="-99"/>
        </Node>
        <Node pos="r" depth="1" NCoef="0" IVar="6" Cut="-2.6041312217712402e+00" cType="1" res="-7.4400268495082855e-03" rms="3.6490279436111450e-01" purity="4.1340184211730957e-01" nType="0">
          <Node pos="l" depth="2" NCoef="0" IVar="-1" Cut="0.0000000000000000e+00" cType="1" res="-7.0885904133319855e-03" rms="3.5097733139991760e-01" purity="4.9261114001274109e-01" nType="-99"/>
          <Node pos="r" depth="2" NCoef="0" IVar="-1" Cut="0.0000000000000000e+00" cType="1" res="-9.2807383043691516e-04" rms="3.6782550811767578e-01" purity="3.9571467041969299e-01" nType="-99"/>
        </Node>
      </Node>
    </BinaryTree>
    <BinaryTree type="DecisionTree" boostWeight="1.0000000000000000e+00" itree="944">
      <Node pos="s" depth="0" NCoef="0" IVar="2" Cut="8.4688673019409180e+00" cType="1" res="2.7207313105463982e-03" rms="3.4928074479103088e-01" purity="5.0581908226013184e-01" nType="0">
        <Node pos="l" depth="1" NCoef="0" IVar="0" Cut="8.6723480224609375e+00" cType="1" res="-8.6126830428838730e-03" rms="3.6479637026786804e-01" purity="4.4763189554214478e-01" nType="0">
          <Node pos="l" depth="2" NCoef="0" IVar="-1" Cut="0.0000000000000000e+00" cType="1" res="1.6881591873243451e-03" rms="4.0357011556625366e-01" purity="3.9393687248229980e-01" nType="-99"/>
          <Node pos="r" depth="2" NCoef="0" IVar="-1" Cut="0.0000000000000000e+00" cType="1" res="-4.0520010516047478e-03" rms="3.4134545922279358e-01" purity="4.7691807150840759e-01" nType="-99"/>
        </Node>
        <Node pos="r" depth="1" NCoef="0" IVar="2" Cut="8.6078529357910156e+00" cType="1" res="4.3778801336884499e-03" rms="3.4692293405532837e-01" purity="5.1432710886001587e-01" nType="0">
          <Node pos="l" depth="2" NCoef="0" IVar="-1" Cut="0.0000000000000000e+00" cType="1" res="5.0560855306684971e-03" rms="3.5148528218269348e-01" purity="5.2310574054718018e-01" nType="-99"/>
          <Node pos="r" depth="2" NCoef="0" IVar="-1" Cut="0.0000000000000000e+00" cType="1" res="1.0437685996294022e-03" rms="3.4654504060745239e-01" purity="5.1367968320846558e-01" nType="-99"/>
        </Node>
      </Node>
    </BinaryTree>
    <BinaryTree type="DecisionTree" boostWeight="1.0000000000000000e+00" itree="945">
      <Node pos="s" depth="0" NCoef="0" IVar="6" Cut="-4.7972756624221802e-01" cType="1" res="2.6975269429385662e-03" rms="3.4650227427482605e-01" purity="5.0104671716690063e-01" nType="0">
        <Node pos="l" depth="1" NCoef="0" IVar="2" Cut="9.7218465805053711e+00" cType="1" res="3.5148542374372482e-03" rms="3.4645783901214600e-01" purity="5.0972229242324829e-01" nType="0">
          <Node pos="l" depth="2" NCoef="0" IVar="-1" Cut="0.0000000000000000e+00" cType="1" res="1.4240649761632085e-03" rms="3.4756293892860413e-01" purity="5.0925463438034058e-01" nType="-99"/>
          <Node pos="r" depth="2" NCoef="0" IVar="-1" Cut="0.0000000000000000e+00" cType="1" res="-6.6834636963903904e-03" rms="3.3410242199897766e-01" purity="5.1470404863357544e-01" nType="-99"/>
        </Node>
        <Node pos="r" depth="1" NCoef="0" IVar="-1" Cut="0.0000000000000000e+00" cType="1" res="-7.5278459116816521e-03" rms="3.4680810570716858e-01" purity="1.8584801256656647e-01" nType="-99"/>
      </Node>
    </BinaryTree>
    <BinaryTree type="DecisionTree" boostWeight="1.0000000000000000e+00" itree="946">
      <Node pos="s" depth="0" NCoef="0" IVar="12" Cut="9.0453374385833740e-01" cType="1" res="2.8283845167607069e-03" rms="3.4834414720535278e-01" purity="5.0417119264602661e-01" nType="0">
        <Node pos="l" depth="1" NCoef="0" IVar="2" Cut="8.7359209060668945e+00" cType="1" res="5.6013297289609909e-03" rms="3.8156065344810486e-01" purity="6.5119355916976929e-01" nType="0">
          <Node pos="l" depth="2" NCoef="0" IVar="-1" Cut="0.0000000000000000e+00" cType="1" res="2.5651711039245129e-03" rms="3.9363822340965271e-01" purity="6.3871389627456665e-01" nType="-99"/>
          <Node pos="r" depth="2" NCoef="0" IVar="-1" Cut="0.0000000000000000e+00" cType="1" res="6.3918298110365868e-04" rms="3.7720555067062378e-01" purity="6.5553581714630127e-01" nType="-99"/>
        </Node>
        <Node pos="r" depth="1" NCoef="0" IVar="11" Cut="2.9954385012388229e-02" cType="1" res="-5.5211517028510571e-03" rms="2.1965366601943970e-01" purity="6.1476230621337891e-02" nType="0">
          <Node pos="l" depth="2" NCoef="0" IVar="-1" Cut="0.0000000000000000e+00" cType="1" res="-1.8138431478291750e-03" rms="1.7463907599449158e-01" purity="3.4709159284830093e-02" nType="-99"/>
          <Node pos="r" depth="2" NCoef="0" IVar="-1" Cut="0.0000000000000000e+00" cType="1" res="-5.9821428731083870e-03" rms="3.9345550537109375e-01" purity="2.2312347590923309e-01" nType="-99"/>
        </Node>
      </Node>
    </BinaryTree>
    <BinaryTree type="DecisionTree" boostWeight="1.0000000000000000e+00" itree="947">
      <Node pos="s" depth="0" NCoef="0" IVar="2" Cut="8.1608285903930664e+00" cType="1" res="9.4467285089194775e-04" rms="3.4778919816017151e-01" purity="4.9866625666618347e-01" nType="0">
        <Node pos="l" depth="1" NCoef="0" IVar="-1" Cut="0.0000000000000000e+00" cType="1" res="5.3646024316549301e-03" rms="3.5977056622505188e-01" purity="4.8512223362922668e-01" nType="-99"/>
        <Node pos="r" depth="1" NCoef="0" IVar="0" Cut="8.4767150878906250e+00" cType="1" res="-4.3764404836110771e-04" rms="3.4709921479225159e-01" purity="4.9937048554420471e-01" nType="0">
          <Node pos="l" depth="2" NCoef="0" IVar="-1" Cut="0.0000000000000000e+00" cType="1" res="-2.8849656227976084e-03" rms="3.9730721712112427e-01" purity="3.8855746388435364e-01" nType="-99"/>
          <Node pos="r" depth="2" NCoef="0" IVar="-1" Cut="0.0000000000000000e+00" cType="1" res="1.2483545579016209e-03" rms="3.2693278789520264e-01" purity="5.3948682546615601e-01" nType="-99"/>
        </Node>
      </Node>
    </BinaryTree>
    <BinaryTree type="DecisionTree" boostWeight="1.0000000000000000e+00" itree="948">
      <Node pos="s" depth="0" NCoef="0" IVar="9" Cut="3.6931471824645996e+00" cType="1" res="1.1835350887849927e-03" rms="2.2779391705989838e-01" purity="5.0180953741073608e-01" nType="0">
        <Node pos="l" depth="1" NCoef="0" IVar="2" Cut="8.4704437255859375e+00" cType="1" res="1.2403529835864902e-03" rms="3.4056928753852844e-01" purity="5.4096871614456177e-01" nType="0">
          <Node pos="l" depth="2" NCoef="0" IVar="-1" Cut="0.0000000000000000e+00" cType="1" res="2.7562803588807583e-03" rms="3.5063433647155762e-01" purity="5.3210437297821045e-01" nType="-99"/>
          <Node pos="r" depth="2" NCoef="0" IVar="-1" Cut="0.0000000000000000e+00" cType="1" res="-2.5554350577294827e-04" rms="3.3910498023033142e-01" purity="5.4219049215316772e-01" nType="-99"/>
        </Node>
        <Node pos="r" depth="1" NCoef="0" IVar="7" Cut="-6.5235471725463867e-01" cType="1" res="-1.1431337334215641e-03" rms="3.6504644155502319e-01" purity="4.1863566637039185e-01" nType="0">
          <Node pos="l" depth="2" NCoef="0" IVar="-1" Cut="0.0000000000000000e+00" cType="1" res="-1.1126282624900341e-02" rms="3.6382323503494263e-01" purity="4.0283316373825073e-01" nType="-99"/>
          <Node pos="r" depth="2" NCoef="0" IVar="-1" Cut="0.0000000000000000e+00" cType="1" res="1.3030177215114236e-03" rms="3.6506190896034241e-01" purity="4.2131346464157104e-01" nType="-99"/>
        </Node>
      </Node>
    </BinaryTree>
    <BinaryTree type="DecisionTree" boostWeight="1.0000000000000000e+00" itree="949">
      <Node pos="s" depth="0" NCoef="0" IVar="11" Cut="9.5235295593738556e-02" cType="1" res="-1.7681443132460117e-03" rms="3.5274329781532288e-01" purity="5.0051587820053101e-01" nType="0">
        <Node pos="l" depth="1" NCoef="0" IVar="11" Cut="4.5495056547224522e-03" cType="1" res="8.0885831266641617e-03" rms="3.0620568990707397e-01" purity="1.4148941636085510e-01" nType="0">
          <Node pos="l" depth="2" NCoef="0" IVar="-1" Cut="0.0000000000000000e+00" cType="1" res="-2.1864332258701324e-02" rms="8.5929729044437408e-02" purity="7.4988193809986115e-03" nType="-99"/>
          <Node pos="r" depth="2" NCoef="0" IVar="-1" Cut="0.0000000000000000e+00" cType="1" res="5.0048888660967350e-03" rms="3.8416728377342224e-01" purity="2.2551293671131134e-01" nType="-99"/>
        </Node>
        <Node pos="r" depth="1" NCoef="0" IVar="5" Cut="8.0836830139160156e+00" cType="1" res="-8.5966242477297783e-03" rms="3.8152122497558594e-01" purity="7.4923986196517944e-01" nType="0">
          <Node pos="l" depth="2" NCoef="0" IVar="-1" Cut="0.0000000000000000e+00" cType="1" res="-1.7075049690902233e-03" rms="3.7505888938903809e-01" purity="7.6226216554641724e-01" nType="-99"/>
          <Node pos="r" depth="2" NCoef="0" IVar="-1" Cut="0.0000000000000000e+00" cType="1" res="-5.7314508594572544e-03" rms="4.4003805518150330e-01" purity="6.1962366104125977e-01" nType="-99"/>
        </Node>
      </Node>
    </BinaryTree>
    <BinaryTree type="DecisionTree" boostWeight="1.0000000000000000e+00" itree="950">
      <Node pos="s" depth="0" NCoef="0" IVar="10" Cut="3.0000000000000000e+00" cType="1" res="3.9941084105521441e-04" rms="2.6571264863014221e-01" purity="5.0370776653289795e-01" nType="0">
        <Node pos="l" depth="1" NCoef="0" IVar="0" Cut="8.4758501052856445e+00" cType="1" res="9.0836669551208615e-04" rms="3.4256386756896973e-01" purity="5.1914352178573608e-01" nType="0">
          <Node pos="l" depth="2" NCoef="0" IVar="-1" Cut="0.0000000000000000e+00" cType="1" res="-1.3869749382138252e-03" rms="3.9692565798759460e-01" purity="4.0488821268081665e-01" nType="-99"/>
          <Node pos="r" depth="2" NCoef="0" IVar="-1" Cut="0.0000000000000000e+00" cType="1" res="1.0914162266999483e-03" rms="3.2077193260192871e-01" purity="5.6016421318054199e-01" nType="-99"/>
        </Node>
        <Node pos="r" depth="1" NCoef="0" IVar="0" Cut="1.0001072883605957e+01" cType="1" res="1.3030140660703182e-02" rms="3.6335882544517517e-01" purity="4.1659346222877502e-01" nType="0">
          <Node pos="l" depth="2" NCoef="0" IVar="-1" Cut="0.0000000000000000e+00" cType="1" res="2.9754415154457092e-03" rms="3.6481469869613647e-01" purity="3.9563813805580139e-01" nType="-99"/>
          <Node pos="r" depth="2" NCoef="0" IVar="-1" Cut="0.0000000000000000e+00" cType="1" res="9.6497079357504845e-03" rms="3.5537350177764893e-01" purity="5.1859807968139648e-01" nType="-99"/>
        </Node>
      </Node>
    </BinaryTree>
    <BinaryTree type="DecisionTree" boostWeight="1.0000000000000000e+00" itree="951">
      <Node pos="s" depth="0" NCoef="0" IVar="8" Cut="-3.2488942146301270e-01" cType="1" res="4.5388233847916126e-03" rms="3.4765908122062683e-01" purity="5.0554847717285156e-01" nType="0">
        <Node pos="l" depth="1" NCoef="0" IVar="2" Cut="9.0965175628662109e+00" cType="1" res="1.7059929668903351e-02" rms="3.6740669608116150e-01" purity="5.1386618614196777e-01" nType="0">
          <Node pos="l" depth="2" NCoef="0" IVar="-1" Cut="0.0000000000000000e+00" cType="1" res="4.4552613981068134e-03" rms="3.7289711833000183e-01" purity="5.1029819250106812e-01" nType="-99"/>
          <Node pos="r" depth="2" NCoef="0" IVar="-1" Cut="0.0000000000000000e+00" cType="1" res="3.2826157985255122e-04" rms="3.6047509312629700e-01" purity="5.1788699626922607e-01" nType="-99"/>
        </Node>
        <Node pos="r" depth="1" NCoef="0" IVar="7" Cut="1.4614865779876709e+00" cType="1" res="8.4276864072307944e-04" rms="3.4152397513389587e-01" purity="5.0309324264526367e-01" nType="0">
          <Node pos="l" depth="2" NCoef="0" IVar="-1" Cut="0.0000000000000000e+00" cType="1" res="6.4801558619365096e-04" rms="3.4222775697708130e-01" purity="5.1430559158325195e-01" nType="-99"/>
          <Node pos="r" depth="2" NCoef="0" IVar="-1" Cut="0.0000000000000000e+00" cType="1" res="-7.7407825738191605e-03" rms="3.2344856858253479e-01" purity="2.3332174122333527e-01" nType="-99"/>
        </Node>
      </Node>
    </BinaryTree>
    <BinaryTree type="DecisionTree" boostWeight="1.0000000000000000e+00" itree="952">
      <Node pos="s" depth="0" NCoef="0" IVar="5" Cut="8.4010868072509766e+00" cType="1" res="-2.0858526695519686e-03" rms="3.5005998611450195e-01" purity="4.9702930450439453e-01" nType="0">
        <Node pos="l" depth="1" NCoef="0" IVar="13" Cut="7.6172709465026855e-01" cType="1" res="-7.0708064595237374e-04" rms="3.4785974025726318e-01" purity="5.0064736604690552e-01" nType="0">
          <Node pos="l" depth="2" NCoef="0" IVar="-1" Cut="0.0000000000000000e+00" cType="1" res="4.4003230868838727e-04" rms="3.4666755795478821e-01" purity="4.7326499223709106e-01" nType="-99"/>
          <Node pos="r" depth="2" NCoef="0" IVar="-1" Cut="0.0000000000000000e+00" cType="1" res="-8.4096454083919525e-03" rms="3.5820922255516052e-01" purity="7.5758337974548340e-01" nType="-99"/>
        </Node>
        <Node pos="r" depth="1" NCoef="0" IVar="-1" Cut="0.0000000000000000e+00" cType="1" res="-7.3855337686836720e-03" rms="3.9150500297546387e-01" purity="4.2262923717498779e-01" nType="-99"/>
      </Node>
    </BinaryTree>
    <BinaryTree type="DecisionTree" boostWeight="1.0000000000000000e+00" itree="953">
      <Node pos="s" depth="0" NCoef="0" IVar="7" Cut="-1.3099479675292969e+00" cType="1" res="-2.6354200672358274e-03" rms="3.5118165612220764e-01" purity="4.9688071012496948e-01" nType="0">
        <Node pos="l" depth="1" NCoef="0" IVar="-1" Cut="0.0000000000000000e+00" cType="1" res="6.0262274928390980e-03" rms="3.4508705139160156e-01" purity="5.1423138380050659e-01" nType="-99"/>
        <Node pos="r" depth="1" NCoef="0" IVar="7" Cut="9.4786481931805611e-03" cType="1" res="-3.7932964041829109e-03" rms="3.5143268108367920e-01" purity="4.9604085087776184e-01" nType="0">
          <Node pos="l" depth="2" NCoef="0" IVar="-1" Cut="0.0000000000000000e+00" cType="1" res="-3.4655844792723656e-03" rms="3.5628786683082581e-01" purity="5.0859946012496948e-01" nType="-99"/>
          <Node pos="r" depth="2" NCoef="0" IVar="-1" Cut="0.0000000000000000e+00" cType="1" res="6.3296628650277853e-04" rms="3.4773790836334229e-01" purity="4.8689457774162292e-01" nType="-99"/>
        </Node>
      </Node>
    </BinaryTree>
    <BinaryTree type="DecisionTree" boostWeight="1.0000000000000000e+00" itree="954">
      <Node pos="s" depth="0" NCoef="0" IVar="12" Cut="4.2842873930931091e-01" cType="1" res="-1.6172411851584911e-03" rms="3.4720298647880554e-01" purity="4.9811711907386780e-01" nType="0">
        <Node pos="l" depth="1" NCoef="0" IVar="1" Cut="6.6973109245300293e+00" cType="1" res="5.0176791846752167e-03" rms="3.3611622452735901e-01" purity="8.1463432312011719e-01" nType="0">
          <Node pos="l" depth="2" NCoef="0" IVar="-1" Cut="0.0000000000000000e+00" cType="1" res="-1.3762069866061211e-03" rms="3.6175435781478882e-01" purity="7.9486799240112305e-01" nType="-99"/>
          <Node pos="r" depth="2" NCoef="0" IVar="-1" Cut="0.0000000000000000e+00" cType="1" res="4.7114910557866096e-03" rms="3.1296265125274658e-01" purity="8.3108794689178467e-01" nType="-99"/>
        </Node>
        <Node pos="r" depth="1" NCoef="0" IVar="11" Cut="1.4151506125926971e-01" cType="1" res="-6.5683936700224876e-03" rms="3.5517010092735291e-01" purity="2.6192367076873779e-01" nType="0">
          <Node pos="l" depth="2" NCoef="0" IVar="-1" Cut="0.0000000000000000e+00" cType="1" res="-2.4810474133118987e-04" rms="3.2560506463050842e-01" purity="1.7313839495182037e-01" nType="-99"/>
          <Node pos="r" depth="2" NCoef="0" IVar="-1" Cut="0.0000000000000000e+00" cType="1" res="-4.9394401721656322e-03" rms="4.5023313164710999e-01" purity="6.0243082046508789e-01" nType="-99"/>
        </Node>
      </Node>
    </BinaryTree>
    <BinaryTree type="DecisionTree" boostWeight="1.0000000000000000e+00" itree="955">
      <Node pos="s" depth="0" NCoef="0" IVar="9" Cut="3.6931471824645996e+00" cType="1" res="1.7640817677602172e-03" rms="2.2908154129981995e-01" purity="5.0226140022277832e-01" nType="0">
        <Node pos="l" depth="1" NCoef="0" IVar="5" Cut="5.2256088256835938e+00" cType="1" res="1.5768042067065835e-03" rms="3.4061715006828308e-01" purity="5.4001665115356445e-01" nType="0">
          <Node pos="l" depth="2" NCoef="0" IVar="-1" Cut="0.0000000000000000e+00" cType="1" res="-5.8713802136480808e-03" rms="3.6165410280227661e-01" purity="5.6686323881149292e-01" nType="-99"/>
          <Node pos="r" depth="2" NCoef="0" IVar="-1" Cut="0.0000000000000000e+00" cType="1" res="9.0087321586906910e-04" rms="3.3909723162651062e-01" purity="5.3822064399719238e-01" nType="-99"/>
        </Node>
        <Node pos="r" depth="1" NCoef="0" IVar="11" Cut="7.1406233310699463e-01" cType="1" res="3.2571328338235617e-03" rms="3.7070605158805847e-01" purity="4.2268872261047363e-01" nType="0">
          <Node pos="l" depth="2" NCoef="0" IVar="-1" Cut="0.0000000000000000e+00" cType="1" res="3.3917329274117947e-03" rms="3.6904552578926086e-01" purity="2.9757168889045715e-01" nType="-99"/>
          <Node pos="r" depth="2" NCoef="0" IVar="-1" Cut="0.0000000000000000e+00" cType="1" res="-6.0520861297845840e-03" rms="3.7518763542175293e-01" purity="8.0398815870285034e-01" nType="-99"/>
        </Node>
      </Node>
    </BinaryTree>
    <BinaryTree type="DecisionTree" boostWeight="1.0000000000000000e+00" itree="956">
      <Node pos="s" depth="0" NCoef="0" IVar="8" Cut="-6.6183072328567505e-01" cType="1" res="-1.7556021921336651e-03" rms="3.4978413581848145e-01" purity="4.9835029244422913e-01" nType="0">
        <Node pos="l" depth="1" NCoef="0" IVar="-1" Cut="0.0000000000000000e+00" cType="1" res="2.2709898184984922e-03" rms="3.9130839705467224e-01" purity="5.3044247627258301e-01" nType="-99"/>
        <Node pos="r" depth="1" NCoef="0" IVar="13" Cut="9.5229163765907288e-02" cType="1" res="-3.1907407101243734e-03" rms="3.4689259529113770e-01" purity="4.9628499150276184e-01" nType="0">
          <Node pos="l" depth="2" NCoef="0" IVar="-1" Cut="0.0000000000000000e+00" cType="1" res="2.6840230566449463e-04" rms="3.2380789518356323e-01" purity="3.1455820798873901e-01" nType="-99"/>
          <Node pos="r" depth="2" NCoef="0" IVar="-1" Cut="0.0000000000000000e+00" cType="1" res="-2.7331348974257708e-03" rms="3.7698090076446533e-01" purity="7.5253814458847046e-01" nType="-99"/>
        </Node>
      </Node>
    </BinaryTree>
    <BinaryTree type="DecisionTree" boostWeight="1.0000000000000000e+00" itree="957">
      <Node pos="s" depth="0" NCoef="0" IVar="8" Cut="-6.6087120771408081e-01" cType="1" res="1.5166633529588580e-03" rms="3.4914100170135498e-01" purity="5.0160872936248779e-01" nType="0">
        <Node pos="l" depth="1" NCoef="0" IVar="-1" Cut="0.0000000000000000e+00" cType="1" res="2.8565779794007540e-03" rms="4.0338602662086487e-01" purity="5.4136198759078979e-01" nType="-99"/>
        <Node pos="r" depth="1" NCoef="0" IVar="9" Cut="3.6931471824645996e+00" cType="1" res="4.2366277193650603e-04" rms="2.2247838973999023e-01" purity="4.9891424179077148e-01" nType="0">
          <Node pos="l" depth="2" NCoef="0" IVar="-1" Cut="0.0000000000000000e+00" cType="1" res="-2.8382343589328229e-04" rms="3.3407574892044067e-01" purity="5.3855645656585693e-01" nType="-99"/>
          <Node pos="r" depth="2" NCoef="0" IVar="-1" Cut="0.0000000000000000e+00" cType="1" res="5.3726491751149297e-04" rms="3.6681035161018372e-01" purity="4.1693750023841858e-01" nType="-99"/>
        </Node>
      </Node>
    </BinaryTree>
    <BinaryTree type="DecisionTree" boostWeight="1.0000000000000000e+00" itree="958">
      <Node pos="s" depth="0" NCoef="0" IVar="12" Cut="1.4287087321281433e-01" cType="1" res="1.0139793157577515e-03" rms="3.4923222661018372e-01" purity="5.0059360265731812e-01" nType="0">
        <Node pos="l" depth="1" NCoef="0" IVar="3" Cut="-8.1222549080848694e-02" cType="1" res="-5.2260113880038261e-03" rms="3.2344424724578857e-01" purity="8.3333122730255127e-01" nType="0">
          <Node pos="l" depth="2" NCoef="0" IVar="-1" Cut="0.0000000000000000e+00" cType="1" res="3.3415979705750942e-03" rms="2.2727406024932861e-01" purity="9.3055939674377441e-01" nType="-99"/>
          <Node pos="r" depth="2" NCoef="0" IVar="-1" Cut="0.0000000000000000e+00" cType="1" res="-3.9716516621410847e-03" rms="3.9679720997810364e-01" purity="7.3601305484771729e-01" nType="-99"/>
        </Node>
        <Node pos="r" depth="1" NCoef="0" IVar="13" Cut="9.5188975334167480e-02" cType="1" res="3.9710327982902527e-03" rms="3.6077204346656799e-01" purity="3.4291341900825500e-01" nType="0">
          <Node pos="l" depth="2" NCoef="0" IVar="-1" Cut="0.0000000000000000e+00" cType="1" res="8.4848965343553573e-05" rms="3.3940720558166504e-01" purity="2.2536839544773102e-01" nType="-99"/>
          <Node pos="r" depth="2" NCoef="0" IVar="-1" Cut="0.0000000000000000e+00" cType="1" res="3.0869364272803068e-03" rms="4.1700586676597595e-01" purity="6.8782615661621094e-01" nType="-99"/>
        </Node>
      </Node>
    </BinaryTree>
    <BinaryTree type="DecisionTree" boostWeight="1.0000000000000000e+00" itree="959">
      <Node pos="s" depth="0" NCoef="0" IVar="5" Cut="7.1727781295776367e+00" cType="1" res="-1.5861399006098509e-03" rms="3.5157650709152222e-01" purity="4.9755594134330750e-01" nType="0">
        <Node pos="l" depth="1" NCoef="0" IVar="1" Cut="6.0548095703125000e+00" cType="1" res="1.3494018930941820e-03" rms="3.5042837262153625e-01" purity="5.1622658967971802e-01" nType="0">
          <Node pos="l" depth="2" NCoef="0" IVar="-1" Cut="0.0000000000000000e+00" cType="1" res="-1.1838128557428718e-03" rms="3.9431214332580566e-01" purity="3.5961893200874329e-01" nType="-99"/>
          <Node pos="r" depth="2" NCoef="0" IVar="-1" Cut="0.0000000000000000e+00" cType="1" res="2.3321718908846378e-03" rms="3.1378251314163208e-01" purity="6.3262963294982910e-01" nType="-99"/>
        </Node>
        <Node pos="r" depth="1" NCoef="0" IVar="6" Cut="-2.8919432163238525e+00" cType="1" res="-8.1132464110851288e-03" rms="3.5402879118919373e-01" purity="4.5604223012924194e-01" nType="0">
          <Node pos="l" depth="2" NCoef="0" IVar="-1" Cut="0.0000000000000000e+00" cType="1" res="-5.1561142317950726e-03" rms="3.5468584299087524e-01" purity="4.9948602914810181e-01" nType="-99"/>
          <Node pos="r" depth="2" NCoef="0" IVar="-1" Cut="0.0000000000000000e+00" cType="1" res="7.8806671081110835e-04" rms="3.5286551713943481e-01" purity="4.0081623196601868e-01" nType="-99"/>
        </Node>
      </Node>
    </BinaryTree>
    <BinaryTree type="DecisionTree" boostWeight="1.0000000000000000e+00" itree="960">
      <Node pos="s" depth="0" NCoef="0" IVar="12" Cut="6.6649878025054932e-01" cType="1" res="1.5434250235557556e-03" rms="3.4592843055725098e-01" purity="5.0212556123733521e-01" nType="0">
        <Node pos="l" depth="1" NCoef="0" IVar="8" Cut="-1.8414013087749481e-01" cType="1" res="6.8856701254844666e-03" rms="3.5678747296333313e-01" purity="7.6562380790710449e-01" nType="0">
          <Node pos="l" depth="2" NCoef="0" IVar="-1" Cut="0.0000000000000000e+00" cType="1" res="4.0656523779034615e-03" rms="3.5465213656425476e-01" purity="7.8301787376403809e-01" nType="-99"/>
          <Node pos="r" depth="2" NCoef="0" IVar="-1" Cut="0.0000000000000000e+00" cType="1" res="3.6847425508312881e-04" rms="3.5765585303306580e-01" purity="7.5730150938034058e-01" nType="-99"/>
        </Node>
        <Node pos="r" depth="1" NCoef="0" IVar="12" Cut="8.2519739866256714e-01" cType="1" res="-4.6181594952940941e-03" rms="3.3285799622535706e-01" purity="1.9821462035179138e-01" nType="0">
          <Node pos="l" depth="2" NCoef="0" IVar="-1" Cut="0.0000000000000000e+00" cType="1" res="-3.6499283742159605e-03" rms="4.3358483910560608e-01" purity="3.9414325356483459e-01" nType="-99"/>
          <Node pos="r" depth="2" NCoef="0" IVar="-1" Cut="0.0000000000000000e+00" cType="1" res="7.0848490577191114e-04" rms="2.8768834471702576e-01" purity="1.2745106220245361e-01" nType="-99"/>
        </Node>
      </Node>
    </BinaryTree>
    <BinaryTree type="DecisionTree" boostWeight="1.0000000000000000e+00" itree="961">
      <Node pos="s" depth="0" NCoef="0" IVar="5" Cut="5.0849614143371582e+00" cType="1" res="2.5928176473826170e-03" rms="3.4679678082466125e-01" purity="5.0208044052124023e-01" nType="0">
        <Node pos="l" depth="1" NCoef="0" IVar="-1" Cut="0.0000000000000000e+00" cType="1" res="8.0180168151855469e-03" rms="3.7182617187500000e-01" purity="5.7044219970703125e-01" nType="-99"/>
        <Node pos="r" depth="1" NCoef="0" IVar="8" Cut="-3.2208493351936340e-01" cType="1" res="1.2467616470530629e-03" rms="3.4545934200286865e-01" purity="4.9870812892913818e-01" nType="0">
          <Node pos="l" depth="2" NCoef="0" IVar="-1" Cut="0.0000000000000000e+00" cType="1" res="-1.3615128118544817e-03" rms="3.6456024646759033e-01" purity="4.9149671196937561e-01" nType="-99"/>
          <Node pos="r" depth="2" NCoef="0" IVar="-1" Cut="0.0000000000000000e+00" cType="1" res="1.4194083632901311e-03" rms="3.3973082900047302e-01" purity="5.0078070163726807e-01" nType="-99"/>
        </Node>
      </Node>
    </BinaryTree>
    <BinaryTree type="DecisionTree" boostWeight="1.0000000000000000e+00" itree="962">
      <Node pos="s" depth="0" NCoef="0" IVar="0" Cut="1.0885105133056641e+01" cType="1" res="5.9185823192819953e-04" rms="3.5005280375480652e-01" purity="5.0016123056411743e-01" nType="0">
        <Node pos="l" depth="1" NCoef="0" IVar="8" Cut="5.6611084938049316e-01" cType="1" res="1.8392336787655950e-03" rms="3.4819674491882324e-01" purity="4.9885427951812744e-01" nType="0">
          <Node pos="l" depth="2" NCoef="0" IVar="-1" Cut="0.0000000000000000e+00" cType="1" res="3.2355319126509130e-04" rms="3.4814780950546265e-01" purity="5.0161427259445190e-01" nType="-99"/>
          <Node pos="r" depth="2" NCoef="0" IVar="-1" Cut="0.0000000000000000e+00" cType="1" res="7.3099466972053051e-03" rms="3.4884911775588989e-01" purity="4.2117810249328613e-01" nType="-99"/>
        </Node>
        <Node pos="r" depth="1" NCoef="0" IVar="-1" Cut="0.0000000000000000e+00" cType="1" res="-6.2946947291493416e-03" rms="3.9598610997200012e-01" purity="5.3593826293945312e-01" nType="-99"/>
      </Node>
    </BinaryTree>
    <BinaryTree type="DecisionTree" boostWeight="1.0000000000000000e+00" itree="963">
      <Node pos="s" depth="0" NCoef="0" IVar="8" Cut="3.1281590461730957e-01" cType="1" res="2.5601458037272096e-04" rms="3.4819868206977844e-01" purity="4.9692621827125549e-01" nType="0">
        <Node pos="l" depth="1" NCoef="0" IVar="7" Cut="8.4742563962936401e-01" cType="1" res="2.2309219930320978e-03" rms="3.4737312793731689e-01" purity="5.0342935323715210e-01" nType="0">
          <Node pos="l" depth="2" NCoef="0" IVar="-1" Cut="0.0000000000000000e+00" cType="1" res="1.2378672836348414e-03" rms="3.4754368662834167e-01" purity="5.2041727304458618e-01" nType="-99"/>
          <Node pos="r" depth="2" NCoef="0" IVar="-1" Cut="0.0000000000000000e+00" cType="1" res="-3.6205162759870291e-03" rms="3.4579724073410034e-01" purity="3.7948200106620789e-01" nType="-99"/>
        </Node>
        <Node pos="r" depth="1" NCoef="0" IVar="5" Cut="7.5743160247802734e+00" cType="1" res="-1.2896325439214706e-02" rms="3.5336604714393616e-01" purity="4.5361721515655518e-01" nType="0">
          <Node pos="l" depth="2" NCoef="0" IVar="-1" Cut="0.0000000000000000e+00" cType="1" res="-6.4819538965821266e-03" rms="3.5053813457489014e-01" purity="4.6615341305732727e-01" nType="-99"/>
          <Node pos="r" depth="2" NCoef="0" IVar="-1" Cut="0.0000000000000000e+00" cType="1" res="2.8173103928565979e-03" rms="3.6206668615341187e-01" purity="4.1054069995880127e-01" nType="-99"/>
        </Node>
      </Node>
    </BinaryTree>
    <BinaryTree type="DecisionTree" boostWeight="1.0000000000000000e+00" itree="964">
      <Node pos="s" depth="0" NCoef="0" IVar="9" Cut="3.6931471824645996e+00" cType="1" res="-2.0038461661897600e-04" rms="2.2901451587677002e-01" purity="4.9977189302444458e-01" nType="0">
        <Node pos="l" depth="1" NCoef="0" IVar="10" Cut="3.0000000000000000e+00" cType="1" res="4.3036061106249690e-04" rms="2.2770372033119202e-01" purity="5.4114145040512085e-01" nType="0">
          <Node pos="l" depth="2" NCoef="0" IVar="-1" Cut="0.0000000000000000e+00" cType="1" res="5.4987194016575813e-04" rms="3.3482250571250916e-01" purity="5.4952204227447510e-01" nType="-99"/>
          <Node pos="r" depth="2" NCoef="0" IVar="-1" Cut="0.0000000000000000e+00" cType="1" res="-5.0894371233880520e-03" rms="3.7672227621078491e-01" purity="4.4483199715614319e-01" nType="-99"/>
        </Node>
        <Node pos="r" depth="1" NCoef="0" IVar="2" Cut="9.2696056365966797e+00" cType="1" res="-8.1702775787562132e-04" rms="3.6443549394607544e-01" purity="4.1140043735504150e-01" nType="0">
          <Node pos="l" depth="2" NCoef="0" IVar="-1" Cut="0.0000000000000000e+00" cType="1" res="-1.6841205069795251e-03" rms="3.6724773049354553e-01" purity="4.0294006466865540e-01" nType="-99"/>
          <Node pos="r" depth="2" NCoef="0" IVar="-1" Cut="0.0000000000000000e+00" cType="1" res="5.2267052233219147e-03" rms="3.5789930820465088e-01" purity="4.3029728531837463e-01" nType="-99"/>
        </Node>
      </Node>
    </BinaryTree>
    <BinaryTree type="DecisionTree" boostWeight="1.0000000000000000e+00" itree="965">
      <Node pos="s" depth="0" NCoef="0" IVar="5" Cut="5.6700606346130371e+00" cType="1" res="7.5347005622461438e-04" rms="3.4663718938827515e-01" purity="5.0059729814529419e-01" nType="0">
        <Node pos="l" depth="1" NCoef="0" IVar="2" Cut="8.7641859054565430e+00" cType="1" res="-1.3200805522501469e-02" rms="3.6638554930686951e-01" purity="5.2913534641265869e-01" nType="0">
          <Node pos="l" depth="2" NCoef="0" IVar="-1" Cut="0.0000000000000000e+00" cType="1" res="-7.3125516064465046e-03" rms="3.7984374165534973e-01" purity="3.9569681882858276e-01" nType="-99"/>
          <Node pos="r" depth="2" NCoef="0" IVar="-1" Cut="0.0000000000000000e+00" cType="1" res="-3.4545068047009408e-04" rms="3.5958799719810486e-01" purity="5.8822840452194214e-01" nType="-99"/>
        </Node>
        <Node pos="r" depth="1" NCoef="0" IVar="10" Cut="2.0000000000000000e+00" cType="1" res="2.4078215938061476e-03" rms="2.4891817569732666e-01" purity="4.9608451128005981e-01" nType="0">
          <Node pos="l" depth="2" NCoef="0" IVar="-1" Cut="0.0000000000000000e+00" cType="1" res="-2.9217734117992222e-04" rms="3.3159366250038147e-01" purity="5.4549050331115723e-01" nType="-99"/>
          <Node pos="r" depth="2" NCoef="0" IVar="-1" Cut="0.0000000000000000e+00" cType="1" res="2.1193220745772123e-03" rms="3.5471725463867188e-01" purity="4.4655820727348328e-01" nType="-99"/>
        </Node>
      </Node>
    </BinaryTree>
    <BinaryTree type="DecisionTree" boostWeight="1.0000000000000000e+00" itree="966">
      <Node pos="s" depth="0" NCoef="0" IVar="10" Cut="4.0000000000000000e+00" cType="1" res="3.2860218198038638e-04" rms="2.6786676049232483e-01" purity="4.9690926074981689e-01" nType="0">
        <Node pos="l" depth="1" NCoef="0" IVar="0" Cut="8.4746742248535156e+00" cType="1" res="-4.0968929533846676e-04" rms="3.4921884536743164e-01" purity="5.0175946950912476e-01" nType="0">
          <Node pos="l" depth="2" NCoef="0" IVar="-1" Cut="0.0000000000000000e+00" cType="1" res="1.7568428302183747e-03" rms="4.0464338660240173e-01" purity="4.0839397907257080e-01" nType="-99"/>
          <Node pos="r" depth="2" NCoef="0" IVar="-1" Cut="0.0000000000000000e+00" cType="1" res="-1.0689225746318698e-03" rms="3.2673811912536621e-01" purity="5.3564822673797607e-01" nType="-99"/>
        </Node>
        <Node pos="r" depth="1" NCoef="0" IVar="-1" Cut="0.0000000000000000e+00" cType="1" res="-9.1562904417514801e-03" rms="3.5313895344734192e-01" purity="3.4916394948959351e-01" nType="-99"/>
      </Node>
    </BinaryTree>
    <BinaryTree type="DecisionTree" boostWeight="1.0000000000000000e+00" itree="967">
      <Node pos="s" depth="0" NCoef="0" IVar="1" Cut="6.2858729362487793e+00" cType="1" res="1.1664901394397020e-03" rms="3.5234409570693970e-01" purity="5.0134235620498657e-01" nType="0">
        <Node pos="l" depth="1" NCoef="0" IVar="4" Cut="-1.6310419887304306e-02" cType="1" res="7.2187306359410286e-03" rms="3.8538280129432678e-01" purity="3.9368566870689392e-01" nType="0">
          <Node pos="l" depth="2" NCoef="0" IVar="-1" Cut="0.0000000000000000e+00" cType="1" res="9.2926347861066461e-05" rms="3.8837909698486328e-01" purity="4.1276234388351440e-01" nType="-99"/>
          <Node pos="r" depth="2" NCoef="0" IVar="-1" Cut="0.0000000000000000e+00" cType="1" res="5.4762256331741810e-03" rms="3.7874990701675415e-01" purity="3.5441744327545166e-01" nType="-99"/>
        </Node>
        <Node pos="r" depth="1" NCoef="0" IVar="6" Cut="-3.1853437423706055e+00" cType="1" res="-3.4722110722213984e-03" rms="3.2467806339263916e-01" purity="5.8385515213012695e-01" nType="0">
          <Node pos="l" depth="2" NCoef="0" IVar="-1" Cut="0.0000000000000000e+00" cType="1" res="1.2447342742234468e-03" rms="3.1041362881660461e-01" purity="6.3112103939056396e-01" nType="-99"/>
          <Node pos="r" depth="2" NCoef="0" IVar="-1" Cut="0.0000000000000000e+00" cType="1" res="-3.2647931948304176e-03" rms="3.3869054913520813e-01" purity="5.3484213352203369e-01" nType="-99"/>
        </Node>
      </Node>
    </BinaryTree>
    <BinaryTree type="DecisionTree" boostWeight="1.0000000000000000e+00" itree="968">
      <Node pos="s" depth="0" NCoef="0" IVar="13" Cut="7.1422004699707031e-01" cType="1" res="-1.7296496080234647e-03" rms="3.4774154424667358e-01" purity="4.9652966856956482e-01" nType="0">
        <Node pos="l" depth="1" NCoef="0" IVar="0" Cut="8.0391883850097656e+00" cType="1" res="-3.8573963101953268e-03" rms="3.4923374652862549e-01" purity="4.5781677961349487e-01" nType="0">
          <Node pos="l" depth="2" NCoef="0" IVar="-1" Cut="0.0000000000000000e+00" cType="1" res="1.3186340220272541e-03" rms="4.4136413931846619e-01" purity="3.6549192667007446e-01" nType="-99"/>
          <Node pos="r" depth="2" NCoef="0" IVar="-1" Cut="0.0000000000000000e+00" cType="1" res="-1.6792926471680403e-03" rms="3.3396419882774353e-01" purity="4.7101715207099915e-01" nType="-99"/>
        </Node>
        <Node pos="r" depth="1" NCoef="0" IVar="4" Cut="-7.7000938355922699e-02" cType="1" res="1.4290435239672661e-02" rms="3.3586144447326660e-01" purity="7.8800427913665771e-01" nType="0">
          <Node pos="l" depth="2" NCoef="0" IVar="-1" Cut="0.0000000000000000e+00" cType="1" res="2.4162416812032461e-03" rms="3.2312265038490295e-01" purity="8.0861651897430420e-01" nType="-99"/>
          <Node pos="r" depth="2" NCoef="0" IVar="-1" Cut="0.0000000000000000e+00" cType="1" res="1.0643250308930874e-02" rms="3.6490648984909058e-01" purity="7.3620915412902832e-01" nType="-99"/>
        </Node>
      </Node>
    </BinaryTree>
    <BinaryTree type="DecisionTree" boostWeight="1.0000000000000000e+00" itree="969">
      <Node pos="s" depth="0" NCoef="0" IVar="8" Cut="-6.2069898843765259e-01" cType="1" res="2.6467416901141405e-03" rms="3.4617465734481812e-01" purity="5.0104248523712158e-01" nType="0">
        <Node pos="l" depth="1" NCoef="0" IVar="-1" Cut="0.0000000000000000e+00" cType="1" res="2.6849354617297649e-03" rms="3.9594662189483643e-01" purity="5.3437560796737671e-01" nType="-99"/>
        <Node pos="r" depth="1" NCoef="0" IVar="4" Cut="1.3010758161544800e-01" cType="1" res="9.7059953259304166e-04" rms="3.4186801314353943e-01" purity="4.9840295314788818e-01" nType="0">
          <Node pos="l" depth="2" NCoef="0" IVar="-1" Cut="0.0000000000000000e+00" cType="1" res="1.6326779732480645e-03" rms="3.3340033888816833e-01" purity="5.3234946727752686e-01" nType="-99"/>
          <Node pos="r" depth="2" NCoef="0" IVar="-1" Cut="0.0000000000000000e+00" cType="1" res="-3.2062325626611710e-03" rms="3.6889243125915527e-01" purity="3.8328024744987488e-01" nType="-99"/>
        </Node>
      </Node>
    </BinaryTree>
    <BinaryTree type="DecisionTree" boostWeight="1.0000000000000000e+00" itree="970">
      <Node pos="s" depth="0" NCoef="0" IVar="6" Cut="-9.3899685144424438e-01" cType="1" res="4.4555144268088043e-04" rms="3.4704840183258057e-01" purity="5.0017833709716797e-01" nType="0">
        <Node pos="l" depth="1" NCoef="0" IVar="1" Cut="7.1413416862487793e+00" cType="1" res="1.4959687832742929e-03" rms="3.4637656807899475e-01" purity="5.1656401157379150e-01" nType="0">
          <Node pos="l" depth="2" NCoef="0" IVar="-1" Cut="0.0000000000000000e+00" cType="1" res="-1.8385933071840554e-04" rms="3.5607162117958069e-01" purity="4.8842072486877441e-01" nType="-99"/>
          <Node pos="r" depth="2" NCoef="0" IVar="-1" Cut="0.0000000000000000e+00" cType="1" res="4.1417866013944149e-03" rms="2.9820328950881958e-01" purity="6.4441454410552979e-01" nType="-99"/>
        </Node>
        <Node pos="r" depth="1" NCoef="0" IVar="0" Cut="8.6133785247802734e+00" cType="1" res="-1.7044320702552795e-02" rms="3.5759642720222473e-01" purity="2.2735099494457245e-01" nType="0">
          <Node pos="l" depth="2" NCoef="0" IVar="-1" Cut="0.0000000000000000e+00" cType="1" res="-2.4907845072448254e-03" rms="3.7462359666824341e-01" purity="2.1049907803535461e-01" nType="-99"/>
          <Node pos="r" depth="2" NCoef="0" IVar="-1" Cut="0.0000000000000000e+00" cType="1" res="-6.9731981493532658e-03" rms="3.3890107274055481e-01" purity="2.4480837583541870e-01" nType="-99"/>
        </Node>
      </Node>
    </BinaryTree>
    <BinaryTree type="DecisionTree" boostWeight="1.0000000000000000e+00" itree="971">
      <Node pos="s" depth="0" NCoef="0" IVar="11" Cut="3.8088926672935486e-01" cType="1" res="-4.6964501962065697e-04" rms="3.4580066800117493e-01" purity="4.9772217869758606e-01" nType="0">
        <Node pos="l" depth="1" NCoef="0" IVar="13" Cut="4.7613453119993210e-02" cType="1" res="-3.9678569883108139e-03" rms="3.5267889499664307e-01" purity="2.5443220138549805e-01" nType="0">
          <Node pos="l" depth="2" NCoef="0" IVar="-1" Cut="0.0000000000000000e+00" cType="1" res="-1.2762917322106659e-04" rms="2.9847055673599243e-01" purity="1.4099057018756866e-01" nType="-99"/>
          <Node pos="r" depth="2" NCoef="0" IVar="-1" Cut="0.0000000000000000e+00" cType="1" res="-2.0250787492841482e-03" rms="4.4185796380043030e-01" purity="4.8240989446640015e-01" nType="-99"/>
        </Node>
        <Node pos="r" depth="1" NCoef="0" IVar="7" Cut="8.2385241985321045e-01" cType="1" res="4.6025901101529598e-03" rms="3.3551242947578430e-01" purity="8.5048061609268188e-01" nType="0">
          <Node pos="l" depth="2" NCoef="0" IVar="-1" Cut="0.0000000000000000e+00" cType="1" res="5.9813051484525204e-04" rms="3.3118492364883423e-01" purity="8.5609662532806396e-01" nType="-99"/>
          <Node pos="r" depth="2" NCoef="0" IVar="-1" Cut="0.0000000000000000e+00" cType="1" res="8.5228113457560539e-03" rms="3.6860913038253784e-01" purity="8.0379539728164673e-01" nType="-99"/>
        </Node>
      </Node>
    </BinaryTree>
    <BinaryTree type="DecisionTree" boostWeight="1.0000000000000000e+00" itree="972">
      <Node pos="s" depth="0" NCoef="0" IVar="12" Cut="7.6171326637268066e-01" cType="1" res="9.0117979561910033e-04" rms="3.4670829772949219e-01" purity="5.0171488523483276e-01" nType="0">
        <Node pos="l" depth="1" NCoef="0" IVar="2" Cut="8.3761529922485352e+00" cType="1" res="4.8724012449383736e-03" rms="3.6818927526473999e-01" purity="7.2461748123168945e-01" nType="0">
          <Node pos="l" depth="2" NCoef="0" IVar="-1" Cut="0.0000000000000000e+00" cType="1" res="5.2472399547696114e-03" rms="3.8053628802299500e-01" purity="7.1230942010879517e-01" nType="-99"/>
          <Node pos="r" depth="2" NCoef="0" IVar="-1" Cut="0.0000000000000000e+00" cType="1" res="6.1731162713840604e-04" rms="3.6681199073791504e-01" purity="7.2586190700531006e-01" nType="-99"/>
        </Node>
        <Node pos="r" depth="1" NCoef="0" IVar="0" Cut="7.7983360290527344e+00" cType="1" res="-5.2497819997370243e-03" rms="3.1041690707206726e-01" purity="1.5646456182003021e-01" nType="0">
          <Node pos="l" depth="2" NCoef="0" IVar="-1" Cut="0.0000000000000000e+00" cType="1" res="4.0469835512340069e-03" rms="4.5544046163558960e-01" purity="3.7771302461624146e-01" nType="-99"/>
          <Node pos="r" depth="2" NCoef="0" IVar="-1" Cut="0.0000000000000000e+00" cType="1" res="-3.2178438268601894e-03" rms="2.9255661368370056e-01" purity="1.3516822457313538e-01" nType="-99"/>
        </Node>
      </Node>
    </BinaryTree>
    <BinaryTree type="DecisionTree" boostWeight="1.0000000000000000e+00" itree="973">
      <Node pos="s" depth="0" NCoef="0" IVar="2" Cut="8.2049665451049805e+00" cType="1" res="-1.7392148729413748e-03" rms="3.4751528501510620e-01" purity="5.0039982795715332e-01" nType="0">
        <Node pos="l" depth="1" NCoef="0" IVar="-1" Cut="0.0000000000000000e+00" cType="1" res="-3.5609535407274961e-03" rms="3.6199429631233215e-01" purity="4.4792163372039795e-01" nType="-99"/>
        <Node pos="r" depth="1" NCoef="0" IVar="8" Cut="-1.0850771516561508e-01" cType="1" res="-8.3062972407788038e-04" rms="3.4663224220275879e-01" purity="5.0345444679260254e-01" nType="0">
          <Node pos="l" depth="2" NCoef="0" IVar="-1" Cut="0.0000000000000000e+00" cType="1" res="-1.3749916106462479e-03" rms="3.5040876269340515e-01" purity="4.9851104617118835e-01" nType="-99"/>
          <Node pos="r" depth="2" NCoef="0" IVar="-1" Cut="0.0000000000000000e+00" cType="1" res="1.1511000338941813e-03" rms="3.4366551041603088e-01" purity="5.0724029541015625e-01" nType="-99"/>
        </Node>
      </Node>
    </BinaryTree>
    <BinaryTree type="DecisionTree" boostWeight="1.0000000000000000e+00" itree="974">
      <Node pos="s" depth="0" NCoef="0" IVar="8" Cut="-4.0448108315467834e-01" cType="1" res="-4.3107452802360058e-04" rms="3.4738752245903015e-01" purity="5.0105637311935425e-01" nType="0">
        <Node pos="l" depth="1" NCoef="0" IVar="0" Cut="8.8713455200195312e+00" cType="1" res="-1.4642314985394478e-02" rms="3.6984857916831970e-01" purity="4.9391770362854004e-01" nType="0">
          <Node pos="l" depth="2" NCoef="0" IVar="-1" Cut="0.0000000000000000e+00" cType="1" res="-5.7997675612568855e-03" rms="3.9321774244308472e-01" purity="4.2945978045463562e-01" nType="-99"/>
          <Node pos="r" depth="2" NCoef="0" IVar="-1" Cut="0.0000000000000000e+00" cType="1" res="4.6375329839065671e-04" rms="3.4298604726791382e-01" purity="5.6084311008453369e-01" nType="-99"/>
        </Node>
        <Node pos="r" depth="1" NCoef="0" IVar="4" Cut="1.0331678390502930e-01" cType="1" res="2.4240408092737198e-03" rms="3.4262633323669434e-01" purity="5.0249058008193970e-01" nType="0">
          <Node pos="l" depth="2" NCoef="0" IVar="-1" Cut="0.0000000000000000e+00" cType="1" res="2.2205174900591373e-05" rms="3.3359378576278687e-01" purity="5.3363239765167236e-01" nType="-99"/>
          <Node pos="r" depth="2" NCoef="0" IVar="-1" Cut="0.0000000000000000e+00" cType="1" res="3.1970937270671129e-03" rms="3.6978545784950256e-01" purity="4.0346148610115051e-01" nType="-99"/>
        </Node>
      </Node>
    </BinaryTree>
    <BinaryTree type="DecisionTree" boostWeight="1.0000000000000000e+00" itree="975">
      <Node pos="s" depth="0" NCoef="0" IVar="9" Cut="3.6931471824645996e+00" cType="1" res="-3.2988199382089078e-04" rms="2.2719295322895050e-01" purity="5.0275117158889771e-01" nType="0">
        <Node pos="l" depth="1" NCoef="0" IVar="3" Cut="-2.2268176078796387e+00" cType="1" res="-8.5462309652939439e-04" rms="3.4088164567947388e-01" purity="5.3979003429412842e-01" nType="0">
          <Node pos="l" depth="2" NCoef="0" IVar="-1" Cut="0.0000000000000000e+00" cType="1" res="8.6010098457336426e-03" rms="2.6371818780899048e-01" purity="7.9090803861618042e-01" nType="-99"/>
          <Node pos="r" depth="2" NCoef="0" IVar="-1" Cut="0.0000000000000000e+00" cType="1" res="-5.5401056306436658e-04" rms="3.4509548544883728e-01" purity="5.2408456802368164e-01" nType="-99"/>
        </Node>
        <Node pos="r" depth="1" NCoef="0" IVar="4" Cut="-9.9991434812545776e-01" cType="1" res="1.6927333781495690e-03" rms="3.6313056945800781e-01" purity="4.2300376296043396e-01" nType="0">
          <Node pos="l" depth="2" NCoef="0" IVar="-1" Cut="0.0000000000000000e+00" cType="1" res="5.1957536488771439e-03" rms="3.5041606426239014e-01" purity="5.0150811672210693e-01" nType="-99"/>
          <Node pos="r" depth="2" NCoef="0" IVar="-1" Cut="0.0000000000000000e+00" cType="1" res="-1.1287792585790157e-03" rms="3.6843800544738770e-01" purity="3.8879412412643433e-01" nType="-99"/>
        </Node>
      </Node>
    </BinaryTree>
    <BinaryTree type="DecisionTree" boostWeight="1.0000000000000000e+00" itree="976">
      <Node pos="s" depth="0" NCoef="0" IVar="0" Cut="8.4770069122314453e+00" cType="1" res="2.2619119845330715e-03" rms="3.4726670384407043e-01" purity="5.0043660402297974e-01" nType="0">
        <Node pos="l" depth="1" NCoef="0" IVar="12" Cut="4.2855417728424072e-01" cType="1" res="1.1348512955009937e-02" rms="3.9779493212699890e-01" purity="4.0584191679954529e-01" nType="0">
          <Node pos="l" depth="2" NCoef="0" IVar="-1" Cut="0.0000000000000000e+00" cType="1" res="-2.6108743622899055e-03" rms="3.7797123193740845e-01" purity="7.4759864807128906e-01" nType="-99"/>
          <Node pos="r" depth="2" NCoef="0" IVar="-1" Cut="0.0000000000000000e+00" cType="1" res="3.6606392823159695e-03" rms="4.0162846446037292e-01" purity="3.3547848463058472e-01" nType="-99"/>
        </Node>
        <Node pos="r" depth="1" NCoef="0" IVar="3" Cut="8.3798092603683472e-01" cType="1" res="-1.0597858345136046e-03" rms="3.2678866386413574e-01" purity="5.3501665592193604e-01" nType="0">
          <Node pos="l" depth="2" NCoef="0" IVar="-1" Cut="0.0000000000000000e+00" cType="1" res="-2.0527369342744350e-03" rms="3.2120829820632935e-01" purity="5.7733106613159180e-01" nType="-99"/>
          <Node pos="r" depth="2" NCoef="0" IVar="-1" Cut="0.0000000000000000e+00" cType="1" res="4.3265903368592262e-03" rms="3.4530127048492432e-01" purity="3.8521701097488403e-01" nType="-99"/>
        </Node>
      </Node>
    </BinaryTree>
    <BinaryTree type="DecisionTree" boostWeight="1.0000000000000000e+00" itree="977">
      <Node pos="s" depth="0" NCoef="0" IVar="3" Cut="2.2440256178379059e-01" cType="1" res="-7.1847107028588653e-04" rms="3.4597578644752502e-01" purity="4.9943619966506958e-01" nType="0">
        <Node pos="l" depth="1" NCoef="0" IVar="13" Cut="2.3807334899902344e-01" cType="1" res="5.9182597324252129e-03" rms="3.2408940792083740e-01" purity="6.3945204019546509e-01" nType="0">
          <Node pos="l" depth="2" NCoef="0" IVar="-1" Cut="0.0000000000000000e+00" cType="1" res="3.5945214331150055e-03" rms="3.3502805233001709e-01" purity="5.2989846467971802e-01" nType="-99"/>
          <Node pos="r" depth="2" NCoef="0" IVar="-1" Cut="0.0000000000000000e+00" cType="1" res="-2.9562429990619421e-03" rms="2.9950988292694092e-01" purity="8.6939477920532227e-01" nType="-99"/>
        </Node>
        <Node pos="r" depth="1" NCoef="0" IVar="0" Cut="1.0659762382507324e+01" cType="1" res="-6.9415429607033730e-03" rms="3.6519917845726013e-01" purity="3.6814737319946289e-01" nType="0">
          <Node pos="l" depth="2" NCoef="0" IVar="-1" Cut="0.0000000000000000e+00" cType="1" res="-2.5052614510059357e-03" rms="3.6310288310050964e-01" purity="3.6061277985572815e-01" nType="-99"/>
          <Node pos="r" depth="2" NCoef="0" IVar="-1" Cut="0.0000000000000000e+00" cType="1" res="5.0594843924045563e-03" rms="3.9473161101341248e-01" purity="4.8529365658760071e-01" nType="-99"/>
        </Node>
      </Node>
    </BinaryTree>
    <BinaryTree type="DecisionTree" boostWeight="1.0000000000000000e+00" itree="978">
      <Node pos="s" depth="0" NCoef="0" IVar="8" Cut="3.1086707115173340e-01" cType="1" res="-1.4090477488934994e-03" rms="3.4672224521636963e-01" purity="4.9992930889129639e-01" nType="0">
        <Node pos="l" depth="1" NCoef="0" IVar="9" Cut="3.6931471824645996e+00" cType="1" res="1.4688753290101886e-03" rms="2.3037908971309662e-01" purity="5.0601547956466675e-01" nType="0">
          <Node pos="l" depth="2" NCoef="0" IVar="-1" Cut="0.0000000000000000e+00" cType="1" res="4.5695100561715662e-04" rms="3.3912077546119690e-01" purity="5.4493135213851929e-01" nType="-99"/>
          <Node pos="r" depth="2" NCoef="0" IVar="-1" Cut="0.0000000000000000e+00" cType="1" res="-4.2542765731923282e-04" rms="3.6225765943527222e-01" purity="4.2072477936744690e-01" nType="-99"/>
        </Node>
        <Node pos="r" depth="1" NCoef="0" IVar="0" Cut="8.4762134552001953e+00" cType="1" res="-1.6289738938212395e-02" rms="3.4756901860237122e-01" purity="4.5964500308036804e-01" nType="0">
          <Node pos="l" depth="2" NCoef="0" IVar="-1" Cut="0.0000000000000000e+00" cType="1" res="-1.0566527023911476e-02" rms="3.9402839541435242e-01" purity="3.4235331416130066e-01" nType="-99"/>
          <Node pos="r" depth="2" NCoef="0" IVar="-1" Cut="0.0000000000000000e+00" cType="1" res="-2.9725006315857172e-03" rms="3.3130791783332825e-01" purity="4.9618101119995117e-01" nType="-99"/>
        </Node>
      </Node>
    </BinaryTree>
    <BinaryTree type="DecisionTree" boostWeight="1.0000000000000000e+00" itree="979">
      <Node pos="s" depth="0" NCoef="0" IVar="13" Cut="1.4284186065196991e-01" cType="1" res="-3.1731354538351297e-03" rms="3.5055375099182129e-01" purity="4.9585235118865967e-01" nType="0">
        <Node pos="l" depth="1" NCoef="0" IVar="7" Cut="-1.2180373668670654e+00" cType="1" res="5.7573599042370915e-04" rms="3.3934843540191650e-01" purity="3.4712260961532593e-01" nType="0">
          <Node pos="l" depth="2" NCoef="0" IVar="-1" Cut="0.0000000000000000e+00" cType="1" res="-5.8326297439634800e-03" rms="3.3572265505790710e-01" purity="3.1616809964179993e-01" nType="-99"/>
          <Node pos="r" depth="2" NCoef="0" IVar="-1" Cut="0.0000000000000000e+00" cType="1" res="5.1225215429440141e-04" rms="3.3952698111534119e-01" purity="3.4895747900009155e-01" nType="-99"/>
        </Node>
        <Node pos="r" depth="1" NCoef="0" IVar="9" Cut="3.0986123085021973e+00" cType="1" res="-3.1663647387176752e-03" rms="1.5830047428607941e-01" purity="7.6921504735946655e-01" nType="0">
          <Node pos="l" depth="2" NCoef="0" IVar="-1" Cut="0.0000000000000000e+00" cType="1" res="-1.6651295591145754e-03" rms="3.1078335642814636e-01" purity="8.5634928941726685e-01" nType="-99"/>
          <Node pos="r" depth="2" NCoef="0" IVar="-1" Cut="0.0000000000000000e+00" cType="1" res="-3.4271727781742811e-03" rms="3.8329109549522400e-01" purity="7.4788570404052734e-01" nType="-99"/>
        </Node>
      </Node>
    </BinaryTree>
    <BinaryTree type="DecisionTree" boostWeight="1.0000000000000000e+00" itree="980">
      <Node pos="s" depth="0" NCoef="0" IVar="2" Cut="8.1916484832763672e+00" cType="1" res="-4.2724618106149137e-04" rms="3.4945690631866455e-01" purity="4.9879163503646851e-01" nType="0">
        <Node pos="l" depth="1" NCoef="0" IVar="-1" Cut="0.0000000000000000e+00" cType="1" res="2.8705408331006765e-03" rms="3.6460658907890320e-01" purity="4.6276864409446716e-01" nType="-99"/>
        <Node pos="r" depth="1" NCoef="0" IVar="1" Cut="6.2575173377990723e+00" cType="1" res="-1.3589160516858101e-03" rms="3.4851789474487305e-01" purity="5.0092238187789917e-01" nType="0">
          <Node pos="l" depth="2" NCoef="0" IVar="-1" Cut="0.0000000000000000e+00" cType="1" res="-1.6934014856815338e-03" rms="3.8257697224617004e-01" purity="3.7463179230690002e-01" nType="-99"/>
          <Node pos="r" depth="2" NCoef="0" IVar="-1" Cut="0.0000000000000000e+00" cType="1" res="7.2137877577915788e-04" rms="3.2209253311157227e-01" purity="5.9065449237823486e-01" nType="-99"/>
        </Node>
      </Node>
    </BinaryTree>
    <BinaryTree type="DecisionTree" boostWeight="1.0000000000000000e+00" itree="981">
      <Node pos="s" depth="0" NCoef="0" IVar="7" Cut="1.2978383302688599e+00" cType="1" res="-1.8655783496797085e-03" rms="3.4893447160720825e-01" purity="4.9696776270866394e-01" nType="0">
        <Node pos="l" depth="1" NCoef="0" IVar="6" Cut="-1.2662431001663208e+00" cType="1" res="-2.8583207167685032e-03" rms="3.4980526566505432e-01" purity="5.0786560773849487e-01" nType="0">
          <Node pos="l" depth="2" NCoef="0" IVar="-1" Cut="0.0000000000000000e+00" cType="1" res="-5.3424364887177944e-04" rms="3.4727373719215393e-01" purity="5.2116537094116211e-01" nType="-99"/>
          <Node pos="r" depth="2" NCoef="0" IVar="-1" Cut="0.0000000000000000e+00" cType="1" res="-5.3959982469677925e-03" rms="3.9079478383064270e-01" purity="2.7606946229934692e-01" nType="-99"/>
        </Node>
        <Node pos="r" depth="1" NCoef="0" IVar="-1" Cut="0.0000000000000000e+00" cType="1" res="5.4266490042209625e-03" rms="3.3200314640998840e-01" purity="2.9675334692001343e-01" nType="-99"/>
      </Node>
    </BinaryTree>
    <BinaryTree type="DecisionTree" boostWeight="1.0000000000000000e+00" itree="982">
      <Node pos="s" depth="0" NCoef="0" IVar="1" Cut="7.3023309707641602e+00" cType="1" res="2.0118502434343100e-03" rms="3.4902700781822205e-01" purity="5.0182551145553589e-01" nType="0">
        <Node pos="l" depth="1" NCoef="0" IVar="3" Cut="2.2459459304809570e-01" cType="1" res="7.5985433068126440e-04" rms="3.5511001944541931e-01" purity="4.8120787739753723e-01" nType="0">
          <Node pos="l" depth="2" NCoef="0" IVar="-1" Cut="0.0000000000000000e+00" cType="1" res="-1.0045015951618552e-03" rms="3.3976393938064575e-01" purity="6.0026997327804565e-01" nType="-99"/>
          <Node pos="r" depth="2" NCoef="0" IVar="-1" Cut="0.0000000000000000e+00" cType="1" res="1.1092729400843382e-03" rms="3.6878833174705505e-01" purity="3.7036162614822388e-01" nType="-99"/>
        </Node>
        <Node pos="r" depth="1" NCoef="0" IVar="13" Cut="9.5226004719734192e-02" cType="1" res="1.0911399498581886e-02" rms="3.0213031172752380e-01" purity="6.4838176965713501e-01" nType="0">
          <Node pos="l" depth="2" NCoef="0" IVar="-1" Cut="0.0000000000000000e+00" cType="1" res="-8.4354326190805295e-07" rms="2.6837730407714844e-01" purity="5.9302484989166260e-01" nType="-99"/>
          <Node pos="r" depth="2" NCoef="0" IVar="-1" Cut="0.0000000000000000e+00" cType="1" res="7.4298209510743618e-03" rms="3.4621304273605347e-01" purity="7.3183816671371460e-01" nType="-99"/>
        </Node>
      </Node>
    </BinaryTree>
    <BinaryTree type="DecisionTree" boostWeight="1.0000000000000000e+00" itree="983">
      <Node pos="s" depth="0" NCoef="0" IVar="7" Cut="4.6357616782188416e-01" cType="1" res="-1.9837280269712210e-03" rms="3.4880340099334717e-01" purity="4.9870905280113220e-01" nType="0">
        <Node pos="l" depth="1" NCoef="0" IVar="8" Cut="3.2869362831115723e-01" cType="1" res="7.8737863805145025e-04" rms="3.4956869482994080e-01" purity="5.1829206943511963e-01" nType="0">
          <Node pos="l" depth="2" NCoef="0" IVar="-1" Cut="0.0000000000000000e+00" cType="1" res="8.1041519297286868e-04" rms="3.4962326288223267e-01" purity="5.2348190546035767e-01" nType="-99"/>
          <Node pos="r" depth="2" NCoef="0" IVar="-1" Cut="0.0000000000000000e+00" cType="1" res="-5.1280986517667770e-03" rms="3.4871003031730652e-01" purity="4.7602251172065735e-01" nType="-99"/>
        </Node>
        <Node pos="r" depth="1" NCoef="0" IVar="2" Cut="8.9338378906250000e+00" cType="1" res="-8.9974133297801018e-03" rms="3.4675997495651245e-01" purity="4.4914439320564270e-01" nType="0">
          <Node pos="l" depth="2" NCoef="0" IVar="-1" Cut="0.0000000000000000e+00" cType="1" res="-5.2322270348668098e-03" rms="3.5167628526687622e-01" purity="4.1692113876342773e-01" nType="-99"/>
          <Node pos="r" depth="2" NCoef="0" IVar="-1" Cut="0.0000000000000000e+00" cType="1" res="2.7001213311450556e-05" rms="3.4318196773529053e-01" purity="4.7036778926849365e-01" nType="-99"/>
        </Node>
      </Node>
    </BinaryTree>
    <BinaryTree type="DecisionTree" boostWeight="1.0000000000000000e+00" itree="984">
      <Node pos="s" depth="0" NCoef="0" IVar="12" Cut="4.2842563986778259e-01" cType="1" res="-2.8546792455017567e-03" rms="3.4953215718269348e-01" purity="4.9892839789390564e-01" nType="0">
        <Node pos="l" depth="1" NCoef="0" IVar="11" Cut="5.2371001243591309e-01" cType="1" res="-7.6580559834837914e-03" rms="3.4276708960533142e-01" purity="8.0255508422851562e-01" nType="0">
          <Node pos="l" depth="2" NCoef="0" IVar="-1" Cut="0.0000000000000000e+00" cType="1" res="-6.6750114783644676e-03" rms="3.9708814024925232e-01" purity="5.1647675037384033e-01" nType="-99"/>
          <Node pos="r" depth="2" NCoef="0" IVar="-1" Cut="0.0000000000000000e+00" cType="1" res="-1.4117062091827393e-03" rms="3.3168923854827881e-01" purity="8.5500955581665039e-01" nType="-99"/>
        </Node>
        <Node pos="r" depth="1" NCoef="0" IVar="12" Cut="8.0925869941711426e-01" cType="1" res="7.3894509114325047e-04" rms="3.5446643829345703e-01" purity="2.7177152037620544e-01" nType="0">
          <Node pos="l" depth="2" NCoef="0" IVar="-1" Cut="0.0000000000000000e+00" cType="1" res="2.1338204387575388e-03" rms="4.3603128194808960e-01" purity="4.9493291974067688e-01" nType="-99"/>
          <Node pos="r" depth="2" NCoef="0" IVar="-1" Cut="0.0000000000000000e+00" cType="1" res="-2.4476472754031420e-03" rms="2.9416066408157349e-01" purity="1.3681106269359589e-01" nType="-99"/>
        </Node>
      </Node>
    </BinaryTree>
    <BinaryTree type="DecisionTree" boostWeight="1.0000000000000000e+00" itree="985">
      <Node pos="s" depth="0" NCoef="0" IVar="2" Cut="8.2188844680786133e+00" cType="1" res="5.3073867456987500e-04" rms="3.4665915369987488e-01" purity="4.9785405397415161e-01" nType="0">
        <Node pos="l" depth="1" NCoef="0" IVar="-1" Cut="0.0000000000000000e+00" cType="1" res="-4.2246817611157894e-03" rms="3.6700791120529175e-01" purity="4.3909281492233276e-01" nType="-99"/>
        <Node pos="r" depth="1" NCoef="0" IVar="12" Cut="6.6645163297653198e-01" cType="1" res="1.8714230973273516e-03" rms="3.4529447555541992e-01" purity="5.0155210494995117e-01" nType="0">
          <Node pos="l" depth="2" NCoef="0" IVar="-1" Cut="0.0000000000000000e+00" cType="1" res="2.0258438307791948e-03" rms="3.5618668794631958e-01" purity="7.6754856109619141e-01" nType="-99"/>
          <Node pos="r" depth="2" NCoef="0" IVar="-1" Cut="0.0000000000000000e+00" cType="1" res="-1.1036790674552321e-03" rms="3.3250221610069275e-01" purity="2.0159018039703369e-01" nType="-99"/>
        </Node>
      </Node>
    </BinaryTree>
    <BinaryTree type="DecisionTree" boostWeight="1.0000000000000000e+00" itree="986">
      <Node pos="s" depth="0" NCoef="0" IVar="6" Cut="-3.8108565807342529e+00" cType="1" res="-2.2402331233024597e-03" rms="3.4903198480606079e-01" purity="4.9780070781707764e-01" nType="0">
        <Node pos="l" depth="1" NCoef="0" IVar="3" Cut="5.3148543834686279e-01" cType="1" res="9.6830520778894424e-03" rms="3.1942734122276306e-01" purity="6.1802327632904053e-01" nType="0">
          <Node pos="l" depth="2" NCoef="0" IVar="-1" Cut="0.0000000000000000e+00" cType="1" res="2.7405220316722989e-04" rms="2.9837730526924133e-01" purity="6.9997757673263550e-01" nType="-99"/>
          <Node pos="r" depth="2" NCoef="0" IVar="-1" Cut="0.0000000000000000e+00" cType="1" res="6.7931958474218845e-03" rms="3.5198026895523071e-01" purity="4.7787338495254517e-01" nType="-99"/>
        </Node>
        <Node pos="r" depth="1" NCoef="0" IVar="12" Cut="9.0446496009826660e-01" cType="1" res="-4.3515833094716072e-03" rms="3.5397455096244812e-01" purity="4.7651195526123047e-01" nType="0">
          <Node pos="l" depth="2" NCoef="0" IVar="-1" Cut="0.0000000000000000e+00" cType="1" res="-1.7357083270326257e-03" rms="3.8813132047653198e-01" purity="6.2067753076553345e-01" nType="-99"/>
          <Node pos="r" depth="2" NCoef="0" IVar="-1" Cut="0.0000000000000000e+00" cType="1" res="2.3070059251040220e-03" rms="2.3262046277523041e-01" purity="7.2120770812034607e-02" nType="-99"/>
        </Node>
      </Node>
    </BinaryTree>
    <BinaryTree type="DecisionTree" boostWeight="1.0000000000000000e+00" itree="987">
      <Node pos="s" depth="0" NCoef="0" IVar="1" Cut="5.7132425308227539e+00" cType="1" res="3.5186973400413990e-03" rms="3.4689444303512573e-01" purity="5.0440436601638794e-01" nType="0">
        <Node pos="l" depth="1" NCoef="0" IVar="11" Cut="4.6856947243213654e-02" cType="1" res="-6.1360681429505348e-03" rms="3.9873668551445007e-01" purity="3.1597375869750977e-01" nType="0">
          <Node pos="l" depth="2" NCoef="0" IVar="-1" Cut="0.0000000000000000e+00" cType="1" res="3.9317589253187180e-03" rms="3.1085160374641418e-01" purity="1.2069726735353470e-01" nType="-99"/>
          <Node pos="r" depth="2" NCoef="0" IVar="-1" Cut="0.0000000000000000e+00" cType="1" res="-3.1311505008488894e-03" rms="4.4486728310585022e-01" purity="4.3871590495109558e-01" nType="-99"/>
        </Node>
        <Node pos="r" depth="1" NCoef="0" IVar="2" Cut="9.6845350265502930e+00" cType="1" res="5.7220966555178165e-03" rms="3.3389788866043091e-01" purity="5.4740780591964722e-01" nType="0">
          <Node pos="l" depth="2" NCoef="0" IVar="-1" Cut="0.0000000000000000e+00" cType="1" res="2.2009280510246754e-03" rms="3.3495768904685974e-01" purity="5.4723227024078369e-01" nType="-99"/>
          <Node pos="r" depth="2" NCoef="0" IVar="-1" Cut="0.0000000000000000e+00" cType="1" res="-4.2698499746620655e-03" rms="3.2402271032333374e-01" purity="5.4897058010101318e-01" nType="-99"/>
        </Node>
      </Node>
    </BinaryTree>
    <BinaryTree type="DecisionTree" boostWeight="1.0000000000000000e+00" itree="988">
      <Node pos="s" depth="0" NCoef="0" IVar="2" Cut="8.8053827285766602e+00" cType="1" res="2.6760473847389221e-03" rms="3.4709653258323669e-01" purity="4.9839216470718384e-01" nType="0">
        <Node pos="l" depth="1" NCoef="0" IVar="8" Cut="-2.9483109712600708e-01" cType="1" res="-6.3434303738176823e-03" rms="3.5501471161842346e-01" purity="4.6322092413902283e-01" nType="0">
          <Node pos="l" depth="2" NCoef="0" IVar="-1" Cut="0.0000000000000000e+00" cType="1" res="-2.9702552128583193e-03" rms="3.8088676333427429e-01" purity="4.3362522125244141e-01" nType="-99"/>
          <Node pos="r" depth="2" NCoef="0" IVar="-1" Cut="0.0000000000000000e+00" cType="1" res="-2.4055449466686696e-04" rms="3.4540343284606934e-01" purity="4.7350537776947021e-01" nType="-99"/>
        </Node>
        <Node pos="r" depth="1" NCoef="0" IVar="11" Cut="3.8088926672935486e-01" cType="1" res="6.4824954606592655e-03" rms="3.4362912178039551e-01" purity="5.1323527097702026e-01" nType="0">
          <Node pos="l" depth="2" NCoef="0" IVar="-1" Cut="0.0000000000000000e+00" cType="1" res="3.8915546610951424e-03" rms="3.5421109199523926e-01" purity="2.7153494954109192e-01" nType="-99"/>
          <Node pos="r" depth="2" NCoef="0" IVar="-1" Cut="0.0000000000000000e+00" cType="1" res="-2.4003810540307313e-04" rms="3.2804146409034729e-01" purity="8.5314702987670898e-01" nType="-99"/>
        </Node>
      </Node>
    </BinaryTree>
    <BinaryTree type="DecisionTree" boostWeight="1.0000000000000000e+00" itree="989">
      <Node pos="s" depth="0" NCoef="0" IVar="2" Cut="8.3750495910644531e+00" cType="1" res="1.9954410381615162e-03" rms="3.4788903594017029e-01" purity="5.0174683332443237e-01" nType="0">
        <Node pos="l" depth="1" NCoef="0" IVar="1" Cut="6.4792103767395020e+00" cType="1" res="2.2659992799162865e-02" rms="3.7017631530761719e-01" purity="4.7994229197502136e-01" nType="0">
          <Node pos="l" depth="2" NCoef="0" IVar="-1" Cut="0.0000000000000000e+00" cType="1" res="6.9385301321744919e-03" rms="3.9631178975105286e-01" purity="4.3387299776077271e-01" nType="-99"/>
          <Node pos="r" depth="2" NCoef="0" IVar="-1" Cut="0.0000000000000000e+00" cType="1" res="-1.0190303437411785e-03" rms="3.2877609133720398e-01" purity="5.4365456104278564e-01" nType="-99"/>
        </Node>
        <Node pos="r" depth="1" NCoef="0" IVar="5" Cut="5.3615241050720215e+00" cType="1" res="-2.7602686895988882e-04" rms="3.4527602791786194e-01" purity="5.0414359569549561e-01" nType="0">
          <Node pos="l" depth="2" NCoef="0" IVar="-1" Cut="0.0000000000000000e+00" cType="1" res="5.3593842312693596e-03" rms="3.5953751206398010e-01" purity="5.8758836984634399e-01" nType="-99"/>
          <Node pos="r" depth="2" NCoef="0" IVar="-1" Cut="0.0000000000000000e+00" cType="1" res="-5.5923138279467821e-04" rms="3.4404158592224121e-01" purity="4.9731570482254028e-01" nType="-99"/>
        </Node>
      </Node>
    </BinaryTree>
    <BinaryTree type="DecisionTree" boostWeight="1.0000000000000000e+00" itree="990">
      <Node pos="s" depth="0" NCoef="0" IVar="9" Cut="3.6931471824645996e+00" cType="1" res="8.6563022341579199e-04" rms="2.2494272887706757e-01" purity="5.0283414125442505e-01" nType="0">
        <Node pos="l" depth="1" NCoef="0" IVar="12" Cut="6.6647464036941528e-01" cType="1" res="2.7703135274350643e-03" rms="3.3829498291015625e-01" purity="5.4541802406311035e-01" nType="0">
          <Node pos="l" depth="2" NCoef="0" IVar="-1" Cut="0.0000000000000000e+00" cType="1" res="1.9965986721217632e-03" rms="3.3513894677162170e-01" purity="8.0127632617950439e-01" nType="-99"/>
          <Node pos="r" depth="2" NCoef="0" IVar="-1" Cut="0.0000000000000000e+00" cType="1" res="-6.5468414686620235e-04" rms="3.4216505289077759e-01" purity="2.2211346030235291e-01" nType="-99"/>
        </Node>
        <Node pos="r" depth="1" NCoef="0" IVar="4" Cut="-4.8347941040992737e-01" cType="1" res="-2.0772654097527266e-03" rms="3.6107295751571655e-01" purity="4.1308304667472839e-01" nType="0">
          <Node pos="l" depth="2" NCoef="0" IVar="-1" Cut="0.0000000000000000e+00" cType="1" res="2.5402139872312546e-03" rms="3.4242823719978333e-01" purity="4.7885537147521973e-01" nType="-99"/>
          <Node pos="r" depth="2" NCoef="0" IVar="-1" Cut="0.0000000000000000e+00" cType="1" res="-3.2951696775853634e-03" rms="3.7696456909179688e-01" purity="3.5372623801231384e-01" nType="-99"/>
        </Node>
      </Node>
    </BinaryTree>
    <BinaryTree type="DecisionTree" boostWeight="1.0000000000000000e+00" itree="991">
      <Node pos="s" depth="0" NCoef="0" IVar="1" Cut="4.8992891311645508e+00" cType="1" res="1.7767666140571237e-03" rms="3.5038915276527405e-01" purity="5.0310486555099487e-01" nType="0">
        <Node pos="l" depth="1" NCoef="0" IVar="-1" Cut="0.0000000000000000e+00" cType="1" res="7.6832445338368416e-03" rms="4.3368980288505554e-01" purity="2.7803611755371094e-01" nType="-99"/>
        <Node pos="r" depth="1" NCoef="0" IVar="7" Cut="-5.5233711004257202e-01" cType="1" res="6.9236487615853548e-04" rms="3.4758174419403076e-01" purity="5.0971513986587524e-01" nType="0">
          <Node pos="l" depth="2" NCoef="0" IVar="-1" Cut="0.0000000000000000e+00" cType="1" res="3.9545609615743160e-03" rms="3.4651795029640198e-01" purity="5.3834944963455200e-01" nType="-99"/>
          <Node pos="r" depth="2" NCoef="0" IVar="-1" Cut="0.0000000000000000e+00" cType="1" res="-6.9782853825017810e-04" rms="3.4775388240814209e-01" purity="5.0322300195693970e-01" nType="-99"/>
        </Node>
      </Node>
    </BinaryTree>
    <BinaryTree type="DecisionTree" boostWeight="1.0000000000000000e+00" itree="992">
      <Node pos="s" depth="0" NCoef="0" IVar="0" Cut="9.3524932861328125e+00" cType="1" res="-1.9198206719011068e-03" rms="3.4905850887298584e-01" purity="4.9820858240127563e-01" nType="0">
        <Node pos="l" depth="1" NCoef="0" IVar="4" Cut="4.1792161762714386e-02" cType="1" res="-6.4895180985331535e-03" rms="3.6730507016181946e-01" purity="4.4759619235992432e-01" nType="0">
          <Node pos="l" depth="2" NCoef="0" IVar="-1" Cut="0.0000000000000000e+00" cType="1" res="-9.2759996186941862e-04" rms="3.6101213097572327e-01" purity="4.7484123706817627e-01" nType="-99"/>
          <Node pos="r" depth="2" NCoef="0" IVar="-1" Cut="0.0000000000000000e+00" cType="1" res="-4.1907601989805698e-03" rms="3.8474163413047791e-01" purity="3.6883822083473206e-01" nType="-99"/>
        </Node>
        <Node pos="r" depth="1" NCoef="0" IVar="8" Cut="-1.8335010111331940e-01" cType="1" res="4.9962191842496395e-03" rms="3.1934273242950439e-01" purity="5.7480823993682861e-01" nType="0">
          <Node pos="l" depth="2" NCoef="0" IVar="-1" Cut="0.0000000000000000e+00" cType="1" res="3.7249145098030567e-03" rms="3.2350179553031921e-01" purity="5.8623147010803223e-01" nType="-99"/>
          <Node pos="r" depth="2" NCoef="0" IVar="-1" Cut="0.0000000000000000e+00" cType="1" res="-2.5125063257291913e-04" rms="3.1744086742401123e-01" purity="5.7008957862854004e-01" nType="-99"/>
        </Node>
      </Node>
    </BinaryTree>
    <BinaryTree type="DecisionTree" boostWeight="1.0000000000000000e+00" itree="993">
      <Node pos="s" depth="0" NCoef="0" IVar="5" Cut="5.7519822120666504e+00" cType="1" res="-1.9970608409494162e-03" rms="3.4725111722946167e-01" purity="4.9986460804939270e-01" nType="0">
        <Node pos="l" depth="1" NCoef="0" IVar="2" Cut="8.8694858551025391e+00" cType="1" res="-1.1715079657733440e-02" rms="3.6565998196601868e-01" purity="5.3125613927841187e-01" nType="0">
          <Node pos="l" depth="2" NCoef="0" IVar="-1" Cut="0.0000000000000000e+00" cType="1" res="-7.8423861414194107e-03" rms="3.8173437118530273e-01" purity="4.0701979398727417e-01" nType="-99"/>
          <Node pos="r" depth="2" NCoef="0" IVar="-1" Cut="0.0000000000000000e+00" cType="1" res="2.0416683983057737e-03" rms="3.5461208224296570e-01" purity="6.0533642768859863e-01" nType="-99"/>
        </Node>
        <Node pos="r" depth="1" NCoef="0" IVar="1" Cut="5.6365303993225098e+00" cType="1" res="-1.6630279424134642e-04" rms="3.4364196658134460e-01" purity="4.9395081400871277e-01" nType="0">
          <Node pos="l" depth="2" NCoef="0" IVar="-1" Cut="0.0000000000000000e+00" cType="1" res="2.9510781168937683e-03" rms="3.8991478085517883e-01" purity="3.1291335821151733e-01" nType="-99"/>
          <Node pos="r" depth="2" NCoef="0" IVar="-1" Cut="0.0000000000000000e+00" cType="1" res="-5.6248204782605171e-04" rms="3.3694645762443542e-01" purity="5.1813513040542603e-01" nType="-99"/>
        </Node>
      </Node>
    </BinaryTree>
    <BinaryTree type="DecisionTree" boostWeight="1.0000000000000000e+00" itree="994">
      <Node pos="s" depth="0" NCoef="0" IVar="4" Cut="-3.3585023880004883e+00" cType="1" res="-1.0743781458586454e-03" rms="3.4670475125312805e-01" purity="4.9963533878326416e-01" nType="0">
        <Node pos="l" depth="1" NCoef="0" IVar="-1" Cut="0.0000000000000000e+00" cType="1" res="1.0672057047486305e-02" rms="3.1452903151512146e-01" purity="6.1567020416259766e-01" nType="-99"/>
        <Node pos="r" depth="1" NCoef="0" IVar="9" Cut="3.6931471824645996e+00" cType="1" res="-1.4526678714901209e-03" rms="2.2535130381584167e-01" purity="4.9562942981719971e-01" nType="0">
          <Node pos="l" depth="2" NCoef="0" IVar="-1" Cut="0.0000000000000000e+00" cType="1" res="-1.0077031329274178e-03" rms="3.3820626139640808e-01" purity="5.3286933898925781e-01" nType="-99"/>
          <Node pos="r" depth="2" NCoef="0" IVar="-1" Cut="0.0000000000000000e+00" cType="1" res="4.8503142897970974e-04" rms="3.6709815263748169e-01" purity="4.1637083888053894e-01" nType="-99"/>
        </Node>
      </Node>
    </BinaryTree>
    <BinaryTree type="DecisionTree" boostWeight="1.0000000000000000e+00" itree="995">
      <Node pos="s" depth="0" NCoef="0" IVar="5" Cut="6.4922161102294922e+00" cType="1" res="-7.3084176983684301e-04" rms="3.5006126761436462e-01" purity="4.9826848506927490e-01" nType="0">
        <Node pos="l" depth="1" NCoef="0" IVar="7" Cut="-1.2263599783182144e-01" cType="1" res="6.1845881864428520e-03" rms="3.5995090007781982e-01" purity="5.3306853771209717e-01" nType="0">
          <Node pos="l" depth="2" NCoef="0" IVar="-1" Cut="0.0000000000000000e+00" cType="1" res="-4.3149426346644759e-04" rms="3.6548006534576416e-01" purity="5.3699028491973877e-01" nType="-99"/>
          <Node pos="r" depth="2" NCoef="0" IVar="-1" Cut="0.0000000000000000e+00" cType="1" res="3.4282798878848553e-03" rms="3.5637220740318298e-01" purity="5.3062021732330322e-01" nType="-99"/>
        </Node>
        <Node pos="r" depth="1" NCoef="0" IVar="1" Cut="6.3375496864318848e+00" cType="1" res="-5.6220204569399357e-03" rms="3.4281009435653687e-01" purity="4.7365489602088928e-01" nType="0">
          <Node pos="l" depth="2" NCoef="0" IVar="-1" Cut="0.0000000000000000e+00" cType="1" res="1.0534076718613505e-03" rms="3.5844594240188599e-01" purity="3.6353856325149536e-01" nType="-99"/>
          <Node pos="r" depth="2" NCoef="0" IVar="-1" Cut="0.0000000000000000e+00" cType="1" res="-3.0719763599336147e-03" rms="3.3564049005508423e-01" purity="5.2196127176284790e-01" nType="-99"/>
        </Node>
      </Node>
    </BinaryTree>
    <BinaryTree type="DecisionTree" boostWeight="1.0000000000000000e+00" itree="996">
      <Node pos="s" depth="0" NCoef="0" IVar="9" Cut="3.0000000000000000e+00" cType="1" res="5.5984442587941885e-04" rms="2.3125949501991272e-01" purity="4.9589145183563232e-01" nType="0">
        <Node pos="l" depth="1" NCoef="0" IVar="8" Cut="6.6097706556320190e-02" cType="1" res="2.8189471922814846e-03" rms="3.1755205988883972e-01" purity="6.3000202178955078e-01" nType="0">
          <Node pos="l" depth="2" NCoef="0" IVar="-1" Cut="0.0000000000000000e+00" cType="1" res="-1.2134712887927890e-03" rms="3.1585782766342163e-01" purity="6.2161380052566528e-01" nType="-99"/>
          <Node pos="r" depth="2" NCoef="0" IVar="-1" Cut="0.0000000000000000e+00" cType="1" res="7.1099707856774330e-03" rms="3.2065409421920776e-01" purity="6.4812004566192627e-01" nType="-99"/>
        </Node>
        <Node pos="r" depth="1" NCoef="0" IVar="0" Cut="7.8198819160461426e+00" cType="1" res="-2.2970860300119966e-04" rms="3.5579439997673035e-01" purity="4.7440424561500549e-01" nType="0">
          <Node pos="l" depth="2" NCoef="0" IVar="-1" Cut="0.0000000000000000e+00" cType="1" res="5.4102973081171513e-03" rms="4.5281022787094116e-01" purity="3.4820982813835144e-01" nType="-99"/>
          <Node pos="r" depth="2" NCoef="0" IVar="-1" Cut="0.0000000000000000e+00" cType="1" res="-5.5030395742505789e-04" rms="3.4969487786293030e-01" purity="4.8125231266021729e-01" nType="-99"/>
        </Node>
      </Node>
    </BinaryTree>
    <BinaryTree type="DecisionTree" boostWeight="1.0000000000000000e+00" itree="997">
      <Node pos="s" depth="0" NCoef="0" IVar="6" Cut="-2.2812774181365967e+00" cType="1" res="9.1166823403909802e-04" rms="3.4701716899871826e-01" purity="5.0401163101196289e-01" nType="0">
        <Node pos="l" depth="1" NCoef="0" IVar="8" Cut="-4.5736312866210938e-01" cType="1" res="3.0628743115812540e-03" rms="3.3485001325607300e-01" purity="5.6321036815643311e-01" nType="0">
          <Node pos="l" depth="2" NCoef="0" IVar="-1" Cut="0.0000000000000000e+00" cType="1" res="2.3282873444259167e-03" rms="3.6453166604042053e-01" purity="5.9694832563400269e-01" nType="-99"/>
          <Node pos="r" depth="2" NCoef="0" IVar="-1" Cut="0.0000000000000000e+00" cType="1" res="4.3825901229865849e-04" rms="3.2970839738845825e-01" purity="5.5770093202590942e-01" nType="-99"/>
        </Node>
        <Node pos="r" depth="1" NCoef="0" IVar="7" Cut="9.6851360797882080e-01" cType="1" res="-4.0997876785695553e-03" rms="3.7378111481666565e-01" purity="3.6610198020935059e-01" nType="0">
          <Node pos="l" depth="2" NCoef="0" IVar="-1" Cut="0.0000000000000000e+00" cType="1" res="-2.3602510336786509e-03" rms="3.8348424434661865e-01" purity="3.7188488245010376e-01" nType="-99"/>
          <Node pos="r" depth="2" NCoef="0" IVar="-1" Cut="0.0000000000000000e+00" cType="1" res="3.0150981619954109e-03" rms="3.4605628252029419e-01" purity="3.5059842467308044e-01" nType="-99"/>
        </Node>
      </Node>
    </BinaryTree>
    <BinaryTree type="DecisionTree" boostWeight="1.0000000000000000e+00" itree="998">
      <Node pos="s" depth="0" NCoef="0" IVar="0" Cut="8.6949548721313477e+00" cType="1" res="-1.9654873176477849e-04" rms="3.4881305694580078e-01" purity="4.9748352169990540e-01" nType="0">
        <Node pos="l" depth="1" NCoef="0" IVar="2" Cut="9.4371910095214844e+00" cType="1" res="7.8733060508966446e-03" rms="3.8701480627059937e-01" purity="4.2007291316986084e-01" nType="0">
          <Node pos="l" depth="2" NCoef="0" IVar="-1" Cut="0.0000000000000000e+00" cType="1" res="3.1103461515158415e-03" rms="3.8874354958534241e-01" purity="4.1942167282104492e-01" nType="-99"/>
          <Node pos="r" depth="2" NCoef="0" IVar="-1" Cut="0.0000000000000000e+00" cType="1" res="-5.0351098179817200e-03" rms="3.8002842664718628e-01" purity="4.2244547605514526e-01" nType="-99"/>
        </Node>
        <Node pos="r" depth="1" NCoef="0" IVar="8" Cut="-4.6433007717132568e-01" cType="1" res="-4.4084484688937664e-03" rms="3.2702815532684326e-01" purity="5.3788638114929199e-01" nType="0">
          <Node pos="l" depth="2" NCoef="0" IVar="-1" Cut="0.0000000000000000e+00" cType="1" res="-2.5193365290760994e-03" rms="3.5916596651077271e-01" purity="5.3568404912948608e-01" nType="-99"/>
          <Node pos="r" depth="2" NCoef="0" IVar="-1" Cut="0.0000000000000000e+00" cType="1" res="-1.0820750612765551e-03" rms="3.2268741726875305e-01" purity="5.3816527128219604e-01" nType="-99"/>
        </Node>
      </Node>
    </BinaryTree>
    <BinaryTree type="DecisionTree" boostWeight="1.0000000000000000e+00" itree="999">
      <Node pos="s" depth="0" NCoef="0" IVar="0" Cut="8.4759426116943359e+00" cType="1" res="5.0158891099272296e-05" rms="3.4939724206924438e-01" purity="4.9899306893348694e-01" nType="0">
        <Node pos="l" depth="1" NCoef="0" IVar="2" Cut="9.4087495803833008e+00" cType="1" res="1.0054627433419228e-02" rms="4.0051385760307312e-01" purity="4.0341943502426147e-01" nType="0">
          <Node pos="l" depth="2" NCoef="0" IVar="-1" Cut="0.0000000000000000e+00" cType="1" res="3.3085120376199484e-03" rms="4.0237990021705627e-01" purity="4.0414679050445557e-01" nType="-99"/>
          <Node pos="r" depth="2" NCoef="0" IVar="-1" Cut="0.0000000000000000e+00" cType="1" res="-3.1302222050726414e-03" rms="3.9351901412010193e-01" purity="4.0092590451240540e-01" nType="-99"/>
        </Node>
        <Node pos="r" depth="1" NCoef="0" IVar="7" Cut="-9.9189811944961548e-01" cType="1" res="-3.6127364728599787e-03" rms="3.2862395048141479e-01" purity="5.3398513793945312e-01" nType="0">
          <Node pos="l" depth="2" NCoef="0" IVar="-1" Cut="0.0000000000000000e+00" cType="1" res="4.9563134089112282e-03" rms="3.2161396741867065e-01" purity="5.6930971145629883e-01" nType="-99"/>
          <Node pos="r" depth="2" NCoef="0" IVar="-1" Cut="0.0000000000000000e+00" cType="1" res="-1.7777145840227604e-03" rms="3.2919669151306152e-01" purity="5.3078591823577881e-01" nType="-99"/>
        </Node>
      </Node>
    </BinaryTree>
  </Weights>
</MethodSetup>
